<unk>	0
<s>	0
</s>	0
.	-3.49195
,	-3.67681
▁	-3.89154
s	-4.78599
a	-4.80436
▁de	-4.8496
e	-5.00012
▁(	-5.21531
i	-5.21997
-	-5.34195
▁a	-5.40779
o	-5.48697
)	-5.55551
▁i	-5.741
'	-5.75499
▁la	-5.78101
u	-5.79447
t	-5.89243
:	-5.9245
▁en	-5.96062
en	-5.96855
n	-5.97565
▁e	-6.18968
▁на	-6.21193
▁je	-6.23711
▁na	-6.25842
▁sa	-6.25915
▁in	-6.28535
y	-6.34689
а	-6.40996
▁se	-6.42696
▁"	-6.5233
er	-6.55139
▁u	-6.58449
▁o	-6.62182
m	-6.62918
an	-6.63532
▁и	-6.64894
।	-6.68571
и	-6.70631
▁da	-6.7435
es	-6.77075
。	-6.77759
▁A	-6.78929
▁di	-6.80064
▁v	-6.81018
r	-6.81227
▁do	-6.85624
▁l	-6.89024
▁d	-6.89835
"	-6.90514
▁-	-6.91413
d	-6.91529
).	-6.91529
▁que	-6.93299
▁un	-6.94478
▁в	-6.95808
in	-6.96129
▁s	-6.98289
k	-6.99002
е	-7.01375
▁el	-7.01601
▁og	-7.04801
l	-7.0678
▁the	-7.07477
у	-7.098
na	-7.11984
ne	-7.12335
),	-7.14963
is	-7.15876
▁–	-7.16349
de	-7.16369
▁su	-7.16719
،	-7.18658
▁za	-7.19373
▁of	-7.19579
ar	-7.19781
te	-7.20275
，	-7.21163
▁у	-7.2187
;	-7.23018
▁за	-7.23399
et	-7.25356
▁del	-7.25698
▁«	-7.26169
as	-7.26536
▁al	-7.26653
▁و	-7.27166
da	-7.2808
h	-7.29019
ta	-7.31516
j	-7.31867
▁m	-7.32403
、	-7.33498
▁er	-7.35807
▁La	-7.36674
ja	-7.37216
us	-7.37595
os	-7.37633
▁z	-7.38003
g	-7.39053
о	-7.39605
▁—	-7.39672
▁се	-7.39798
le	-7.40794
ni	-7.4158
▁I	-7.41748
▁per	-7.41807
▁to	-7.42583
om	-7.4349
la	-7.43939
z	-7.44821
▁ja	-7.45893
▁S	-7.46457
▁et	-7.48041
on	-7.48936
re	-7.48964
▁के	-7.49608
▁od	-7.49737
ko	-7.49891
ti	-7.49987
▁on	-7.50169
al	-7.50851
▁ang	-7.50862
▁for	-7.52221
▁po	-7.52617
no	-7.55255
▁le	-7.57092
▁der	-7.57146
to	-7.57862
▁ال	-7.58291
se	-7.58961
ma	-7.59894
li	-7.61005
я	-7.61279
▁در	-7.61536
▁van	-7.62234
b	-7.62716
▁„	-7.6321
▁w	-7.63494
▁av	-7.63559
▁1	-7.63657
▁is	-7.64218
▁по	-7.64623
▁ה	-7.65332
的	-7.65343
▁De	-7.65359
▁den	-7.65663
ka	-7.66322
▁at	-7.66694
it	-7.66872
▁2	-7.66999
▁y	-7.67203
▁som	-7.67625
c	-7.67901
の	-7.68121
em	-7.68927
▁and	-7.69308
ul	-7.69354
▁të	-7.70397
▁con	-7.70512
▁да	-7.70719
▁е	-7.70916
je	-7.71424
ci	-7.72242
і	-7.72285
▁V	-7.72457
▁во	-7.7327
▁في	-7.7348
▁O	-7.73949
at	-7.74022
▁var	-7.77937
на	-7.77973
▁til	-7.78059
▁में	-7.78312
▁с	-7.78858
/	-7.79071
▁por	-7.79145
ы	-7.7938
▁ve	-7.81116
ed	-7.81264
ی	-7.81423
▁је	-7.81531
p	-7.82153
ing	-7.82231
▁te	-7.83521
▁no	-7.83655
▁3	-7.84203
»	-7.84307
▁од	-7.84416
▁है	-7.84701
▁med	-7.86226
▁în	-7.8628
ia	-7.86547
▁an	-7.87848
si	-7.88151
’	-7.88172
ra	-7.88682
▁The	-7.88697
▁του	-7.88761
▁і	-7.88886
ch	-7.89409
st	-7.90221
м	-7.90319
▁una	-7.90347
▁з	-7.90478
та	-7.90627
▁και	-7.91592
▁på	-7.92162
▁ב	-7.92772
é	-7.93301
▁il	-7.93528
ak	-7.94011
▁U	-7.9439
▁ne	-7.9445
▁M	-7.94467
ă	-7.94951
▁L	-7.94964
f	-7.95046
▁af	-7.96038
▁C	-7.9656
▁dan	-7.97003
▁K	-7.97496
um	-7.97666
ة	-7.98743
v	-7.98829
年	-7.98951
▁به	-7.98962
▁para	-7.99381
▁du	-7.99412
▁En	-7.99598
(	-7.99911
▁des	-8.00186
т	-8.00438
ς	-8.00538
▁от	-8.00885
".	-8.00953
▁es	-8.00982
▁T	-8.0103
oj	-8.01048
▁ka	-8.01069
▁si	-8.01501
й	-8.01841
ur	-8.02326
do	-8.02438
va	-8.02688
▁4	-8.03229
▁op	-8.03312
ه	-8.04252
un	-8.04372
▁5	-8.04573
▁من	-8.04833
▁E	-8.05147
의	-8.05808
▁D	-8.06055
▁so	-8.06199
▁në	-8.06383
▁B	-8.06427
▁In	-8.06519
▁die	-8.06593
ca	-8.07101
ve	-8.07559
2	-8.07848
▁și	-8.08275
▁eta	-8.08289
S	-8.0865
▁k	-8.08842
í	-8.09264
ov	-8.09726
▁не	-8.10248
ga	-8.10421
mi	-8.10546
▁les	-8.11417
ce	-8.11485
▁P	-8.12546
▁kaj	-8.12628
▁iz	-8.13164
▁va	-8.13426
▁10	-8.1398
▁до	-8.14124
ke	-8.14318
▁а	-8.15212
▁och	-8.15235
▁El	-8.15758
▁nga	-8.16184
ни	-8.16192
▁pa	-8.16348
▁У	-8.16535
▁as	-8.1657
▁ng	-8.16887
lo	-8.17345
▁be	-8.17702
は	-8.17771
▁از	-8.17855
▁und	-8.18319
ка	-8.18786
ом	-8.18911
ge	-8.18968
el	-8.19061
▁yang	-8.19313
▁Na	-8.19415
▁és	-8.20656
ki	-8.20763
A	-8.21203
▁em	-8.21217
▁6	-8.21565
を	-8.21847
ir	-8.21909
‍	-8.22126
▁की	-8.22274
ba	-8.22578
ek	-8.22635
▁ki	-8.22692
▁km	-8.22927
▁est	-8.22984
ה	-8.23051
“	-8.23245
▁re	-8.23293
ó	-8.23883
ju	-8.25012
▁της	-8.25167
ا	-8.25513
▁το	-8.25586
х	-8.25679
▁ל	-8.25705
il	-8.26179
от	-8.26484
но	-8.26913
▁15	-8.27057
me	-8.27393
im	-8.27738
に	-8.28251
▁à	-8.28377
▁Ang	-8.28941
▁een	-8.2919
1	-8.29442
di	-8.29713
▁12	-8.29857
▁và	-8.2998
▁است	-8.30407
▁W	-8.30606
▁lo	-8.30749
ou	-8.30797
▁pri	-8.30809
▁het	-8.30865
ku	-8.31513
▁ir	-8.31603
▁В	-8.31606
が	-8.31934
▁של	-8.32343
man	-8.32366
▁^	-8.32423
ie	-8.32867
▁G	-8.3287
▁pro	-8.33045
C	-8.33074
▁می	-8.33158
▁com	-8.33173
N	-8.34797
▁H	-8.34994
▁7	-8.35478
▁me	-8.35633
▁pre	-8.35768
ri	-8.36211
x	-8.36231
н	-8.36533
▁của	-8.36691
ten	-8.36711
▁F	-8.37031
ang	-8.3717
▁का	-8.37196
▁Po	-8.37337
sa	-8.3752
▁pe	-8.37596
не	-8.37748
ের	-8.3835
tu	-8.3857
be	-8.38584
den	-8.38625
с	-8.38734
▁और	-8.39037
▁ў	-8.39142
（	-8.39423
▁um	-8.39702
▁om	-8.40046
ih	-8.40469
▁से	-8.40685
▁ha	-8.40762
▁N	-8.40838
or	-8.41195
á	-8.41782
ha	-8.42255
io	-8.42567
▁со	-8.42836
▁har	-8.43378
ro	-8.43427
▁Sa	-8.43455
ите	-8.43464
▁8	-8.4406
ла	-8.44339
▁os	-8.44415
ت	-8.44536
র	-8.44547
▁Le	-8.44566
을	-8.44904
에	-8.4496
▁é	-8.45485
▁az	-8.45542
3	-8.45891
▁là	-8.45929
▁ya	-8.4665
▁bi	-8.46717
ą	-8.46859
▁como	-8.47037
▁R	-8.47223
▁dhe	-8.47792
▁که	-8.47993
▁14	-8.48405
▁los	-8.49031
▁9	-8.49059
то	-8.49237
ен	-8.49299
w	-8.49359
л	-8.49369
▁ke	-8.50136
ny	-8.50233
ų	-8.5105
▁ni	-8.51162
id	-8.51218
ات	-8.51296
▁din	-8.51748
kan	-8.51885
▁c	-8.52366
”	-8.52576
ية	-8.5277
▁को	-8.52809
▁са	-8.52883
▁det	-8.5316
aj	-8.53293
ата	-8.53358
jo	-8.53397
▁/	-8.53613
ी	-8.53967
ে	-8.54
▁li	-8.54204
ho	-8.543
▁bir	-8.54392
이	-8.54457
▁í	-8.54639
lar	-8.54832
▁mga	-8.5504
▁was	-8.55247
ske	-8.55324
▁von	-8.55365
ים	-8.55414
ment	-8.55785
▁11	-8.56071
▁ta	-8.56248
nya	-8.56538
ي	-8.5691
za	-8.56916
».	-8.57706
▁20	-8.57749
4	-8.57912
▁dat	-8.58121
▁την	-8.58173
ter	-8.58462
ת	-8.58588
ver	-8.58879
▁из	-8.58938
▁16	-8.59203
ban	-8.59673
nu	-8.59775
▁С	-8.59851
▁13	-8.59858
▁han	-8.5986
ya	-8.60025
▁г	-8.60328
ji	-8.60445
▁cu	-8.60628
ska	-8.60887
▁при	-8.60958
▁fra	-8.60964
ren	-8.61483
▁م	-8.61917
▁par	-8.62676
▁από	-8.62761
▁एक	-8.62771
те	-8.63187
ben	-8.632
ik	-8.6402
yle	-8.64828
co	-8.64875
ej	-8.65132
mo	-8.65221
E	-8.65425
к	-8.65584
▁au	-8.65684
▁{\	-8.65767
go	-8.65775
은	-8.66167
▁n	-8.66611
▁godine	-8.66649
년	-8.66688
）	-8.66718
▁ver	-8.66842
ina	-8.67322
ado	-8.67382
ly	-8.6769
▁Se	-8.67743
ad	-8.67968
▁roku	-8.68049
न	-8.68094
ו	-8.68159
▁men	-8.68185
ों	-8.68269
▁Z	-8.68287
ма	-8.68291
ng	-8.68854
ler	-8.68856
▁một	-8.68908
▁pod	-8.68909
▁á	-8.69023
▁dos	-8.69162
",	-8.69491
ski	-8.69585
▁این	-8.69587
▁را	-8.69714
▁estas	-8.69897
▁är	-8.70273
▁b	-8.70658
月	-8.70666
▁film	-8.70792
да	-8.70862
в	-8.70942
▁son	-8.7113
▁được	-8.71257
▁năm	-8.71397
▁“	-8.7144
▁Il	-8.71658
▁che	-8.71861
▁kao	-8.71943
ita	-8.72318
는	-8.72773
▁ser	-8.73003
▁με	-8.7309
ли	-8.73335
▁he	-8.73366
V	-8.73506
▁ت	-8.73898
ов	-8.74017
▁су	-8.74584
ю	-8.74861
gi	-8.7529
▁Al	-8.75803
▁è	-8.76053
▁fan	-8.76099
▁f	-8.76351
▁II	-8.76571
▁מ	-8.76635
ం	-8.76993
▁На	-8.77363
B	-8.77507
zi	-8.7776
ton	-8.78177
లో	-8.78919
ο	-8.79108
du	-8.80038
▁J	-8.80248
vi	-8.80272
▁este	-8.80435
ze	-8.80506
com	-8.80531
der	-8.80672
am	-8.81154
▁ge	-8.81169
ut	-8.81636
▁30	-8.8215
sta	-8.82208
▁t	-8.82285
م	-8.827
▁p	-8.83064
▁g	-8.83066
▁koji	-8.83146
▁با	-8.8319
在	-8.83228
ž	-8.83303
▁by	-8.83384
▁amb	-8.83507
ь	-8.83662
ada	-8.83725
▁على	-8.8383
▁mai	-8.8386
og	-8.83938
▁ra	-8.84122
à	-8.84164
г	-8.84358
5	-8.84408
▁palibot	-8.84451
▁mit	-8.84873
ки	-8.85214
▁ب	-8.85254
ima	-8.85577
▁ca	-8.856
th	-8.8561
displayst	-8.85705
6	-8.85761
α	-8.8579
▁oli	-8.85959
▁h	-8.86003
▁ma	-8.86655
・	-8.86782
D	-8.86783
▁ble	-8.87039
▁=	-8.87139
wa	-8.87214
▁als	-8.87242
▁för	-8.87604
nt	-8.8792
▁sin	-8.88099
M	-8.88164
bo	-8.88203
ия	-8.88422
ва	-8.88594
po	-8.8869
des	-8.88724
▁про	-8.88983
▁ar	-8.88986
▁את	-8.89109
▁हैं	-8.89274
ok	-8.89379
ம்	-8.89385
▁im	-8.89409
▁2007	-8.89443
▁wa	-8.89478
▁Re	-8.89595
▁2009	-8.89669
▁las	-8.89752
cu	-8.89816
▁có	-8.89858
п	-8.89868
▁2010	-8.89936
ist	-8.9006
▁година	-8.90068
vo	-8.90317
▁vun	-8.90483
land	-8.90534
▁های	-8.90644
ً	-8.907
д	-8.91469
ista	-8.91946
▁bu	-8.92202
que	-8.92263
ат	-8.92307
▁2011	-8.92491
ти	-8.92805
가	-8.92873
né	-8.93169
で	-8.9318
로	-8.93249
क	-8.93263
O	-8.93332
人	-8.93374
ות	-8.9358
ol	-8.93597
ها	-8.93775
▁25	-8.93775
▁trong	-8.93935
▁الم	-8.94323
▁për	-8.94398
▁các	-8.94734
bi	-8.9475
▁No	-8.94777
ine	-8.94784
▁dari	-8.94801
ndo	-8.94808
ा	-8.94856
ý	-8.95106
▁2008	-8.95148
ή	-8.95159
▁να	-8.95197
▁па	-8.95275
з	-8.95336
▁ut	-8.95379
ant	-8.95384
q	-8.95611
W	-8.96024
lik	-8.96056
▁San	-8.96105
ë	-8.96177
ів	-8.96324
▁das	-8.96514
ste	-8.96838
K	-8.97015
と	-8.97227
日	-8.97291
ш	-8.974
pa	-8.97455
▁To	-8.97477
▁entre	-8.97606
▁della	-8.97648
▁pada	-8.9772
▁Za	-8.9773
▁ob	-8.97757
▁ο	-8.97782
▁një	-8.98216
▁over	-8.98427
▁ay	-8.98498
dan	-8.98783
▁foi	-8.98787
▁ad	-8.98863
▁о	-8.99129
▁seu	-8.99293
▁Be	-8.99484
▁sur	-8.99821
▁על	-9.00116
F	-9.00242
是	-9.00458
}	-9.00487
▁mas	-9.00509
sen	-9.00626
▁era	-9.00664
ig	-9.00806
▁att	-9.00906
▁Li	-9.00928
▁man	-9.00955
G	-9.0113
ului	-9.01199
▁blev	-9.01215
aren	-9.01388
▁Si	-9.01477
▁18	-9.01634
▁sem	-9.01673
▁η	-9.0176
▁kan	-9.01848
nih	-9.01869
est	-9.01983
ud	-9.02046
lu	-9.02229
▁Den	-9.02348
▁ي	-9.02377
H	-9.02473
▁ga	-9.02549
▁An	-9.02699
men	-9.02831
га	-9.0315
ción	-9.03258
ts	-9.03526
▁पर	-9.03654
mu	-9.03765
ner	-9.03768
▁та	-9.03849
י	-9.03922
▁x	-9.03946
▁17	-9.04035
▁mu	-9.0404
▁co	-9.04099
ach	-9.04177
▁zen	-9.05085
▁Han	-9.05155
7	-9.05188
ό	-9.05363
▁А	-9.05471
र	-9.05587
son	-9.05649
를	-9.0575
ele	-9.05946
▁it	-9.05954
▁kon	-9.05961
▁По	-9.06036
ä	-9.06038
ty	-9.06071
·	-9.06147
P	-9.06203
ය	-9.06324
–	-9.06406
े	-9.06609
中	-9.06812
▁till	-9.06884
are	-9.06905
ven	-9.07032
▁Bu	-9.07303
T	-9.07331
ica	-9.07738
sk	-9.07821
ন	-9.07839
ле	-9.07892
▁24	-9.07908
▁met	-9.07969
▁X	-9.08174
▁ו	-9.08198
ili	-9.08332
▁dengan	-9.08342
▁2012	-9.08645
▁ter	-9.08734
ú	-9.08795
▁Da	-9.08893
▁Do	-9.08959
ان	-9.09184
ий	-9.09404
их	-9.09513
he	-9.09647
▁New	-9.09803
▁Lo	-9.09825
▁года	-9.09846
ken	-9.0992
▁ل	-9.09923
š	-9.10368
iz	-9.10378
▁τον	-9.10557
gu	-9.10955
8	-9.11109
ung	-9.11148
ę	-9.11165
I	-9.11309
L	-9.11529
ů	-9.11609
▁uma	-9.11661
ल	-9.11926
▁zu	-9.11982
▁Ta	-9.1204
▁yn	-9.12074
ní	-9.12078
ot	-9.12267
▁r	-9.12296
स	-9.12595
▁Di	-9.12658
▁2006	-9.12676
▁He	-9.13062
▁ali	-9.13139
ks	-9.1314
”.	-9.13142
▁bat	-9.13221
大	-9.13408
▁ili	-9.1363
ά	-9.13651
hi	-9.13811
tar	-9.13829
▁að	-9.1408
▁fost	-9.14142
▁non	-9.14255
ning	-9.14329
б	-9.14332
tion	-9.14422
ai	-9.14454
▁23	-9.14618
bu	-9.14663
ло	-9.1468
ні	-9.14699
▁22	-9.14932
gen	-9.14972
▁ved	-9.15025
मा	-9.15176
ene	-9.15176
▁που	-9.15461
ów	-9.1564
▁19	-9.15776
▁kun	-9.15848
ers	-9.15941
▁এবং	-9.16082
లు	-9.16101
▁Per	-9.16232
▁care	-9.16288
▁|	-9.16455
▁və	-9.16479
nin	-9.16487
▁Die	-9.16534
▁am	-9.16535
ky	-9.16629
▁των	-9.16637
▁ku	-9.16652
▁2013	-9.16661
▁tri	-9.16752
▁tre	-9.16784
▁21	-9.16887
▁1.	-9.17033
▁што	-9.17256
월	-9.17288
sko	-9.17358
R	-9.17559
▁cho	-9.17603
pi	-9.17786
▁ber	-9.17854
▁Er	-9.17877
ку	-9.179
ски	-9.17943
η	-9.17965
ين	-9.17995
▁Su	-9.18049
▁ko	-9.18308
ari	-9.18309
▁2014	-9.18639
▁estis	-9.18749
▁się	-9.18874
pe	-9.18947
▁å	-9.18986
에서	-9.19025
▁tháng	-9.19098
▁nu	-9.19196
per	-9.19506
▁ou	-9.19563
▁pas	-9.19799
ger	-9.19834
▁bio	-9.19969
▁26	-9.20255
▁28	-9.20308
ми	-9.20462
म	-9.2066
uje	-9.20804
р	-9.21231
ker	-9.2134
▁го	-9.2136
ने	-9.21384
ssa	-9.21476
▁За	-9.21773
한	-9.21786
tor	-9.2205
tas	-9.22156
▁qui	-9.22469
ش	-9.22519
ini	-9.22572
▁(18	-9.22591
▁dans	-9.22605
有	-9.22606
▁στην	-9.22754
▁under	-9.23077
è	-9.23078
за	-9.23226
त	-9.2332
nik	-9.23336
▁ও	-9.23509
▁meg	-9.23526
▁100	-9.23534
▁27	-9.23804
▁As	-9.23883
▁tu	-9.24306
ж	-9.24318
▁под	-9.24436
ј	-9.24559
ron	-9.24571
sti	-9.24664
▁آن	-9.24732
▁els	-9.24914
mente	-9.24945
ну	-9.24973
▁σε	-9.25188
▁nel	-9.25318
ent	-9.2547
ν	-9.25601
▁για	-9.25611
nom	-9.25788
को	-9.25798
▁untuk	-9.25814
ци	-9.2587
tur	-9.26121
mer	-9.26483
tes	-9.26618
▁fi	-9.2664
▁হয়	-9.26819
▁parte	-9.26965
▁ein	-9.27033
▁2015	-9.27048
ক	-9.27057
ck	-9.27071
9	-9.27084
和	-9.27084
▁στο	-9.27094
ry	-9.27156
ster	-9.27202
fa	-9.27296
▁2005	-9.27303
▁Mar	-9.27406
▁vo	-9.27508
▁ini	-9.27863
▁voor	-9.28086
▁Ne	-9.28235
les	-9.28247
ల	-9.28294
க்	-9.28311
és	-9.28472
ска	-9.28512
ам	-9.28542
▁لل	-9.28631
▁2000	-9.28695
tan	-9.28802
▁đã	-9.29006
ata	-9.29214
се	-9.29289
▁ها	-9.29445
ami	-9.29485
ation	-9.29509
▁وال	-9.29833
zo	-9.2989
ната	-9.29983
▁Me	-9.3
аў	-9.30015
ı	-9.30165
ção	-9.30196
ن	-9.30462
by	-9.30478
▁یک	-9.30485
ic	-9.30602
▁إلى	-9.30663
fi	-9.30666
lan	-9.30748
న	-9.30795
!	-9.30865
ны	-9.30927
án	-9.30971
tra	-9.30997
ana	-9.31166
▁her	-9.31203
kin	-9.31323
han	-9.31511
▁tra	-9.31984
ber	-9.32041
sch	-9.32207
▁Man	-9.32519
▁ist	-9.32619
▁раз	-9.32655
del	-9.32703
▁или	-9.32985
▁dem	-9.33088
▁2004	-9.3313
▁mar	-9.33134
ció	-9.3327
▁Es	-9.33294
▁inter	-9.33399
▁Во	-9.33427
▁к	-9.33539
▁이	-9.33768
▁į	-9.33863
▁dels	-9.33874
▁या	-9.33899
리	-9.33902
▁ש	-9.33934
ali	-9.33962
▁Ver	-9.3407
일	-9.34094
▁ने	-9.34094
▁अ	-9.34097
jen	-9.34167
ile	-9.34358
nim	-9.34382
ě	-9.34408
▁vy	-9.34441
ları	-9.34449
▁unha	-9.34464
ovi	-9.34467
▁adalah	-9.34518
var	-9.34544
▁với	-9.34617
▁sub	-9.34778
▁29	-9.34781
ता	-9.34816
▁Te	-9.34939
▁album	-9.35091
▁war	-9.35219
▁К	-9.35437
▁ze	-9.35701
▁ho	-9.35732
ru	-9.35741
dir	-9.35752
▁une	-9.35845
▁Pe	-9.36
인	-9.36039
▁Od	-9.36095
▁είναι	-9.36228
ப்	-9.36241
ila	-9.36276
▁người	-9.36306
▁2016	-9.36313
ert	-9.36321
▁ఈ	-9.36331
ого	-9.36489
▁+	-9.36737
▁zijn	-9.36793
▁Az	-9.36796
ль	-9.36839
ei	-9.36895
고	-9.37029
▁or	-9.37347
лі	-9.37348
▁пре	-9.37472
▁with	-9.37515
ò	-9.37587
bar	-9.38155
kon	-9.38209
一	-9.38277
им	-9.38292
：	-9.383
▁iš	-9.38317
கள்	-9.38339
▁mal	-9.38427
▁ce	-9.38533
dy	-9.38623
ах	-9.38742
»,	-9.38833
ని	-9.38852
▁že	-9.39011
▁для	-9.39069
де	-9.3911
č	-9.39248
ija	-9.39417
op	-9.39436
ez	-9.39459
▁jo	-9.39493
ч	-9.39543
▁&	-9.3956
▁Un	-9.39627
▁ru	-9.3963
ко	-9.39724
▁000	-9.39791
ем	-9.39799
nes	-9.39837
uri	-9.3988
ama	-9.39909
▁Ο	-9.39941
ova	-9.40029
ның	-9.40225
mar	-9.40296
ere	-9.40307
eg	-9.40443
▁किया	-9.40592
au	-9.40775
د	-9.40801
sel	-9.40885
una	-9.40937
▁ny	-9.40997
▁ug	-9.41109
과	-9.41158
tik	-9.41462
した	-9.41588
▁سال	-9.41707
nog	-9.41863
व	-9.4196
▁З	-9.42084
át	-9.42194
▁St	-9.42259
도	-9.42295
das	-9.423
▁τα	-9.42312
?	-9.42376
10	-9.4247
▁Ko	-9.42487
▁Y	-9.42493
▁zuen	-9.42616
▁50	-9.42708
▁شده	-9.42725
▁John	-9.42758
▁أن	-9.42922
▁Co	-9.42944
▁bil	-9.42965
▁како	-9.43052
ර	-9.43159
▁sobre	-9.43219
▁tak	-9.43281
▁Va	-9.4332
▁kar	-9.43445
上	-9.43503
▁ao	-9.43512
ç	-9.43527
od	-9.43533
▁što	-9.43584
으로	-9.43918
so	-9.44014
ം	-9.44025
▁О	-9.44033
▁all	-9.44039
▁dalam	-9.44058
▁kom	-9.44062
▁ale	-9.4408
era	-9.4424
ٔ	-9.44382
▁pour	-9.4451
▁tahun	-9.44636
che	-9.44639
ले	-9.44706
▁werd	-9.44721
▁është	-9.44796
「	-9.44828
su	-9.44843
nie	-9.44859
ών	-9.44929
▁2001	-9.45394
」	-9.45625
▁më	-9.45666
▁Ma	-9.4579
గా	-9.45884
ac	-9.45899
▁wurde	-9.46008
iti	-9.46102
▁2.	-9.46241
▁Η	-9.46329
い	-9.46546
ala	-9.46597
U	-9.46644
▁हो	-9.46751
▁మరియు	-9.46769
▁%	-9.4683
ет	-9.46894
го	-9.46958
ја	-9.46982
▁{	-9.47095
지	-9.47165
▁भी	-9.47285
▁forma	-9.47343
▁او	-9.4751
ın	-9.47538
▁mis	-9.47585
▁Ba	-9.47707
tel	-9.47796
▁2002	-9.47857
▁ri	-9.47946
▁fu	-9.48048
tal	-9.48078
▁bila	-9.48089
▁कि	-9.48093
▁Con	-9.48428
ి	-9.4843
▁أ	-9.48498
▁Ka	-9.48545
ला	-9.4876
▁să	-9.48806
▁بر	-9.48869
▁dal	-9.48893
ria	-9.49144
▁sig	-9.49153
▁Der	-9.49378
мен	-9.49498
▁था	-9.49515
▁0	-9.49562
▁об	-9.49658
ना	-9.49705
dos	-9.49849
▁Pa	-9.49857
▁Bo	-9.49881
=	-9.5006
ба	-9.50318
ná	-9.50321
▁Det	-9.5049
▁III	-9.50495
▁Ha	-9.50547
▁लिए	-9.5057
ў	-9.50576
gar	-9.50711
ato	-9.50885
18	-9.50946
lin	-9.50999
▁ఆ	-9.51013
▁mao	-9.51077
▁qu	-9.511
▁Ke	-9.51121
ė	-9.51133
kom	-9.51186
▁lui	-9.51189
nda	-9.51289
し	-9.51378
▁Ge	-9.51405
ika	-9.51418
ија	-9.51453
▁Mo	-9.51596
▁auf	-9.51596
▁pentru	-9.51604
ट	-9.51605
▁ngày	-9.51667
nja	-9.51689
ojn	-9.51707
▁që	-9.51856
val	-9.51937
ните	-9.51943
য়	-9.52135
▁করে	-9.52321
hu	-9.52343
▁40	-9.52388
ega	-9.52445
ens	-9.52602
las	-9.52612
▁31	-9.52712
ling	-9.52727
▁Os	-9.52752
▁Ar	-9.52911
ன்	-9.52916
ர்	-9.53046
▁\	-9.53071
С	-9.53159
▁fer	-9.5317
▁buvo	-9.53358
▁2003	-9.53504
▁но	-9.53532
ah	-9.53537
▁mais	-9.53615
స్	-9.53738
ى	-9.53749
▁ở	-9.53858
▁bol	-9.54001
▁izan	-9.54286
▁де	-9.54361
▁Je	-9.54592
▁eller	-9.54708
ale	-9.54725
ర్	-9.5475
sh	-9.5486
J	-9.54907
ей	-9.54954
▁2017	-9.55026
ł	-9.55057
pen	-9.55099
का	-9.55124
▁مع	-9.5514
▁அ	-9.55264
ال	-9.55326
이다	-9.5537
▁ei	-9.55571
met	-9.556
▁τη	-9.5571
▁му	-9.55924
▁bo	-9.5594
ם	-9.55976
ল	-9.55982
টি	-9.56014
▁În	-9.56022
▁си	-9.56042
了	-9.56095
▁व	-9.56252
▁شد	-9.5632
다	-9.56324
ට	-9.5635
ice	-9.56406
▁koja	-9.5641
কে	-9.56432
ных	-9.56578
“.	-9.56613
▁egy	-9.56621
uk	-9.5668
▁यह	-9.56957
▁fa	-9.57041
ं	-9.57065
len	-9.57101
ня	-9.57103
ion	-9.57113
ser	-9.57183
▁sau	-9.57223
▁naj	-9.57259
че	-9.57302
ida	-9.57581
▁Pro	-9.57592
vis	-9.57659
zu	-9.57662
chi	-9.57722
12	-9.5773
fe	-9.57739
zione	-9.57871
▁Το	-9.57967
▁sua	-9.58009
▁nahimutang	-9.58136
nje	-9.58168
▁dia	-9.58257
▁pred	-9.58385
▁aan	-9.58428
uar	-9.58441
와	-9.58493
ක්	-9.58521
ке	-9.58593
▁vào	-9.58652
van	-9.58754
ian	-9.58758
▁dagat	-9.58839
▁Em	-9.58926
let	-9.58979
ně	-9.59013
The	-9.59027
ды	-9.5912
ر	-9.59124
ல்	-9.59135
▁hij	-9.59139
ను	-9.59224
Z	-9.59251
▁tot	-9.59297
వ	-9.59492
ide	-9.59566
▁године	-9.59633
▁zo	-9.59731
క	-9.59805
кі	-9.59948
ş	-9.60034
ira	-9.60197
ب	-9.60209
ম	-9.60297
▁Les	-9.60312
▁So	-9.60472
▁York	-9.60524
for	-9.60649
ند	-9.60696
20	-9.60717
▁ја	-9.60752
nak	-9.6083
ende	-9.60931
스	-9.60963
ля	-9.60966
▁nem	-9.60977
▁कर	-9.60984
▁ex	-9.61058
▁kot	-9.61068
ino	-9.61083
dor	-9.61125
▁И	-9.61184
ী	-9.61192
ُ	-9.61251
प	-9.61358
ate	-9.61453
lle	-9.61465
net	-9.61467
ф	-9.61531
én	-9.61565
ర	-9.61611
је	-9.61716
ම	-9.61793
▁It	-9.61983
▁הוא	-9.62367
ра	-9.62408
ný	-9.62482
▁برای	-9.62528
ι	-9.62549
기	-9.62637
ల్	-9.62637
▁vi	-9.62744
ই	-9.6275
▁అ	-9.6279
▁τους	-9.62845
min	-9.62918
▁isang	-9.62919
▁grad	-9.62962
च	-9.62982
rik	-9.63074
కు	-9.63173
사	-9.63181
fer	-9.63292
子	-9.6331
са	-9.6339
ц	-9.63431
▁from	-9.6346
ৰ	-9.63588
地	-9.63607
ið	-9.63688
▁Du	-9.6369
ου	-9.63747
con	-9.64124
▁nie	-9.64141
erne	-9.64288
nde	-9.64294
он	-9.6431
nej	-9.64401
▁raz	-9.6441
▁आ	-9.64679
▁sta	-9.64781
ara	-9.64813
▁від	-9.64822
▁М	-9.64892
▁вы	-9.64946
▁ba	-9.64958
▁ten	-9.65045
них	-9.65195
kar	-9.65248
▁også	-9.65263
▁mot	-9.6536
న్	-9.65388
ley	-9.65427
sku	-9.65445
▁Film	-9.6562
ой	-9.65639
–19	-9.65643
res	-9.65774
ego	-9.65843
▁عام	-9.65894
▁Б	-9.65959
ës	-9.66026
▁ako	-9.66058
ën	-9.66072
▁ikke	-9.66155
nek	-9.66222
ές	-9.66239
berg	-9.66395
▁år	-9.66401
ित	-9.66412
ত	-9.66439
ක	-9.665
ча	-9.66507
不	-9.66509
сы	-9.66532
▁इस	-9.66671
ón	-9.66731
▁pu	-9.6677
▁này	-9.66788
▁Ni	-9.66791
ret	-9.66882
lig	-9.66882
▁המ	-9.66917
ία	-9.66975
ite	-9.67157
ル	-9.67231
ون	-9.67234
ού	-9.67304
স	-9.67395
ње	-9.67451
▁Vi	-9.67545
\	-9.67568
و	-9.67589
ura	-9.67625
ici	-9.67959
skog	-9.67974
▁that	-9.68151
▁thành	-9.68191
ire	-9.68219
▁plan	-9.68264
ais	-9.6832
ante	-9.6846
tro	-9.68513
vin	-9.68632
ව	-9.68704
▁Go	-9.68723
も	-9.68735
▁door	-9.68989
▁এই	-9.69001
ник	-9.69018
11	-9.69108
ος	-9.69146
▁aus	-9.69263
▁sebagai	-9.69268
▁koje	-9.69312
▁oleh	-9.69351
dar	-9.6937
▁uit	-9.69393
어	-9.69413
nd	-9.69416
illa	-9.6943
lla	-9.6955
▁jako	-9.69571
X	-9.69606
名	-9.69658
▁tr	-9.69705
ज	-9.69797
▁수	-9.69811
න්	-9.69895
▁ای	-9.69896
▁як	-9.70259
▁ett	-9.70288
▁بود	-9.70314
ius	-9.70314
▁ab	-9.70613
cha	-9.70663
시	-9.70782
▁Ca	-9.70789
ación	-9.70873
ão	-9.70913
ு	-9.71131
▁като	-9.71156
▁1999	-9.71176
—	-9.71285
ć	-9.714
▁Jo	-9.71458
▁أو	-9.71459
▁2011.	-9.71468
ismo	-9.71482
▁leta	-9.71497
ec	-9.71746
▁không	-9.71747
▁року	-9.71748
we	-9.71798
▁are	-9.7191
▁गया	-9.71942
する	-9.71945
ð	-9.71973
▁pp	-9.72012
▁fin	-9.7205
ella	-9.72104
ного	-9.72104
ram	-9.72243
▁Tu	-9.72258
▁তিনি	-9.72376
0	-9.72425
ス	-9.7243
▁Los	-9.72457
cia	-9.72706
▁Or	-9.72751
ati	-9.72783
த்	-9.7281
leri	-9.72843
ων	-9.72898
▁있다	-9.72924
▁nad	-9.72931
ся	-9.72936
ran	-9.72958
▁що	-9.73088
▁für	-9.73108
▁عن	-9.73297
ге	-9.7332
ली	-9.73407
ز	-9.73416
▁Bi	-9.73762
න	-9.73842
▁һәм	-9.73844
lor	-9.73941
nen	-9.73977
出	-9.74005
▁כ	-9.74135
ých	-9.74205
َ	-9.74332
க்க	-9.74349
vel	-9.74386
▁2010.	-9.74432
▁през	-9.74461
ами	-9.74566
ros	-9.74642
分	-9.74686
ido	-9.74688
▁alla	-9.74844
30	-9.74916
▁Kon	-9.74963
ες	-9.75031
▁ही	-9.75233
kel	-9.75261
行	-9.75314
க	-9.75338
Y	-9.75399
▁Op	-9.75438
rea	-9.75469
▁For	-9.75501
▁mi	-9.75527
य	-9.75599
▁Bar	-9.75643
15	-9.75674
kov	-9.75721
▁wy	-9.75756
ting	-9.75768
ер	-9.75806
ण	-9.75922
▁м	-9.75945
》	-9.75977
▁করেন	-9.75987
tos	-9.76004
▁3.	-9.7602
▁ما	-9.76034
tis	-9.76047
lukop	-9.76048
ил	-9.76091
ye	-9.76142
▁П	-9.76142
▁Hapit	-9.7619
ал	-9.76198
▁Val	-9.76239
法	-9.76279
▁ez	-9.76375
生	-9.76454
ament	-9.76568
▁1990	-9.76634
▁bei	-9.76652
ты	-9.76661
▁2018	-9.76769
ل	-9.76953
nın	-9.77173
▁olarak	-9.77197
▁dell	-9.77255
ய	-9.77285
▁ви	-9.77408
tek	-9.77436
az	-9.77491
▁ch	-9.77499
▁từ	-9.77541
▁fue	-9.77735
▁ud	-9.77817
▁tan	-9.77824
部	-9.7784
elle	-9.77928
16	-9.77934
une	-9.78036
ית	-9.7806
ando	-9.78278
nia	-9.7841
س	-9.78465
ano	-9.78481
▁Ab	-9.78605
▁tại	-9.78633
▁Е	-9.78648
bel	-9.78724
▁post	-9.7878
▁roz	-9.78869
če	-9.78914
▁tudi	-9.78921
ía	-9.78943
▁On	-9.79034
▁Pre	-9.79085
▁form	-9.79252
▁dy	-9.79293
ри	-9.79296
▁fel	-9.79297
▁his	-9.79347
▁World	-9.79444
▁metros	-9.79451
tzen	-9.79486
ব	-9.79497
υ	-9.79551
ша	-9.7958
tre	-9.79668
▁sich	-9.79695
asi	-9.79727
▁come	-9.79847
▁1998	-9.79982
ados	-9.79995
▁contra	-9.80002
17	-9.80023
তে	-9.80092
▁आहे	-9.80147
▁Car	-9.80173
▁olan	-9.80179
▁Am	-9.80299
sten	-9.80458
▁ад	-9.80509
ай	-9.80528
ți	-9.80529
▁những	-9.80585
మ	-9.80587
issa	-9.80669
▁pot	-9.80704
ev	-9.80808
ува	-9.80844
ett	-9.80844
ab	-9.80851
ју	-9.80859
▁има	-9.8088
би	-9.8093
red	-9.80954
▁شود	-9.80977
▁seg	-9.81032
ди	-9.81069
▁বা	-9.81171
క్	-9.81247
▁pi	-9.81283
▁general	-9.81463
lat	-9.81478
vad	-9.81491
во	-9.81516
▁volt	-9.8154
gel	-9.81583
▁vid	-9.81646
个	-9.81776
ме	-9.81792
▁जो	-9.81812
斯	-9.81874
“,	-9.81885
ు	-9.81892
▁Het	-9.8197
ε	-9.81993
skih	-9.82004
▁একটি	-9.82048
▁kal	-9.82152
▁ziren	-9.82161
な	-9.82198
▁más	-9.82263
라	-9.82327
▁més	-9.82368
▁Ki	-9.82382
為	-9.82498
А	-9.82586
▁пере	-9.82636
▁alle	-9.82643
є	-9.82669
ix	-9.8268
被	-9.82722
▁upp	-9.82772
line	-9.82867
▁kiel	-9.82875
▁kur	-9.82882
het	-9.8289
ан	-9.82936
▁Mi	-9.83069
ym	-9.83333
▁car	-9.83343
త	-9.83393
▁part	-9.83513
▁uz	-9.83526
▁ildə	-9.83641
ft	-9.83715
ée	-9.83728
▁hogy	-9.83734
ена	-9.83758
▁súa	-9.83764
mann	-9.83935
či	-9.83977
ি	-9.83994
▁sen	-9.84051
▁kor	-9.84081
gang	-9.84145
тар	-9.84163
து	-9.84303
ong	-9.84311
tak	-9.84403
▁ju	-9.84413
iga	-9.84475
▁đến	-9.84494
▁eine	-9.84521
▁π	-9.84702
▁تا	-9.84787
nica	-9.8484
ap	-9.84935
▁Her	-9.84992
▁4.	-9.85019
▁ఒక	-9.85025
ras	-9.85047
▁2013.	-9.85079
▁করা	-9.8509
ि	-9.85203
ン	-9.85213
ure	-9.85322
ente	-9.85425
25	-9.85442
▁efter	-9.85491
ksi	-9.85518
▁út	-9.85531
тер	-9.85589
▁Г	-9.85597
ore	-9.85608
▁200	-9.85608
▁byl	-9.85646
▁Consultado	-9.85795
ien	-9.85802
ото	-9.85821
ят	-9.85874
▁ги	-9.85887
▁र	-9.86099
jem	-9.86122
▁1992	-9.8615
وا	-9.86266
▁Ku	-9.86299
▁khi	-9.86311
▁Ti	-9.86324
bre	-9.86325
ман	-9.86337
▁οι	-9.86389
▁ήταν	-9.86391
▁ed	-9.86408
ї	-9.86501
stra	-9.86529
že	-9.86545
ito	-9.86616
kor	-9.86718
rit	-9.8675
ій	-9.86751
▁wie	-9.86756
▁бил	-9.86792
▁रूप	-9.86878
ът	-9.8688
▁2012.	-9.86899
nte	-9.86901
▁Mu	-9.87043
री	-9.87124
▁hu	-9.87192
лар	-9.87197
int	-9.87214
ও	-9.87215
▁pel	-9.87245
zen	-9.87288
▁USA	-9.873
▁1991	-9.87445
자	-9.87485
▁году	-9.87543
用	-9.87574
ту	-9.87575
vat	-9.87582
▁Men	-9.8765
▁nord	-9.87656
ా	-9.8771
▁ا	-9.87728
ns	-9.87756
ే	-9.87759
▁може	-9.87927
ската	-9.8802
ии	-9.88094
▁Van	-9.88113
▁1997	-9.88152
ə	-9.88152
ड	-9.88161
ви	-9.88168
mon	-9.88182
ade	-9.88187
後	-9.88232
▁mo	-9.88259
rat	-9.88316
▁1996	-9.88333
▁gran	-9.88365
mat	-9.88375
▁Pu	-9.88382
ова	-9.88616
者	-9.88833
▁bis	-9.88875
▁Wa	-9.88876
▁থেকে	-9.88915
П	-9.88931
ő	-9.88981
▁hi	-9.88991
▁الت	-9.88991
ға	-9.88998
रा	-9.89254
ої	-9.89381
ّ	-9.89419
▁2015.	-9.89518
К	-9.89524
▁aj	-9.89559
▁far	-9.89714
▁пра	-9.89827
িত	-9.89868
sin	-9.89904
də	-9.89911
▁program	-9.89996
▁ප්	-9.90052
▁هو	-9.90078
▁ning	-9.90152
▁sam	-9.90154
▁Q	-9.90279
▁Park	-9.90384
ava	-9.90422
▁final	-9.90429
▁2014.	-9.90434
ého	-9.90474
mas	-9.90542
nost	-9.90594
▁yra	-9.90619
▁1994	-9.90677
ije	-9.90704
▁19.	-9.90706
▁dar	-9.90709
於	-9.90729
▁그	-9.90741
▁60	-9.90789
jan	-9.90874
▁време	-9.90874
tet	-9.90908
▁tal	-9.90926
ham	-9.9095
▁ile	-9.91029
▁mod	-9.91048
▁plus	-9.91079
ці	-9.91177
▁Estados	-9.91227
ства	-9.9131
以	-9.91343
му	-9.91393
▁км	-9.91502
ము	-9.91505
vet	-9.9155
imi	-9.91591
sse	-9.9161
▁Unidos	-9.91652
下	-9.9168
▁जाता	-9.91713
▁Fa	-9.91724
bra	-9.91732
19	-9.91739
pan	-9.91792
▁Lu	-9.91822
▁‘	-9.91841
▁আ	-9.91859
по	-9.91871
▁lungsod	-9.91901
▁वि	-9.91913
ේ	-9.9201
amente	-9.92044
▁ur	-9.92059
▁Ve	-9.9207
▁đầu	-9.92092
idade	-9.92147
▁jeho	-9.92227
ско	-9.92255
▁pag	-9.92489
ena	-9.92505
▁Т	-9.92559
▁1995	-9.92596
din	-9.92685
▁ima	-9.92707
mis	-9.92774
▁Paul	-9.92795
ani	-9.92917
don	-9.92925
ында	-9.92927
ál	-9.92965
▁iki	-9.93008
mal	-9.93026
ost	-9.93097
ном	-9.93104
▁এ	-9.9311
ero	-9.93119
▁că	-9.9312
ს	-9.93153
▁við	-9.93187
ב	-9.93258
▁இ	-9.93339
ాలు	-9.93386
▁која	-9.93438
па	-9.93481
ج	-9.9351
▁kiu	-9.93549
▁Ber	-9.93551
▁Не	-9.93562
▁Mal	-9.93603
ія	-9.93606
▁ibabaw	-9.9367
nika	-9.93686
të	-9.93713
成	-9.93714
▁Д	-9.93772
mos	-9.93785
cion	-9.93797
▁sus	-9.93801
bil	-9.93808
▁Ra	-9.93846
வ	-9.93855
ق	-9.93855
▁Ja	-9.93869
ство	-9.93879
▁vol	-9.93894
▁−	-9.93918
▁би	-9.93941
▁Ho	-9.93941
▁Σ	-9.93961
▁hans	-9.94045
ex	-9.94049
pu	-9.94209
ille	-9.94214
vor	-9.94262
ంగా	-9.94312
▁ஒரு	-9.94344
▁সালে	-9.9435
cy	-9.94355
▁че	-9.94443
▁kwa	-9.94461
tz	-9.94523
ії	-9.94525
iko	-9.94526
vu	-9.94542
রা	-9.94568
▁cap	-9.94612
▁samo	-9.94674
▁над	-9.94676
ови	-9.94699
▁not	-9.9471
gon	-9.94897
▁số	-9.9502
▁kod	-9.95066
nosti	-9.95093
به	-9.95123
ная	-9.95242
▁пред	-9.95247
▁máis	-9.95271
▁roman	-9.95297
La	-9.95353
мо	-9.95394
▁opp	-9.95475
ро	-9.95498
గ	-9.9551
ל	-9.9553
ою	-9.95611
▁roce	-9.95657
▁mor	-9.95705
hr	-9.95709
lı	-9.95736
ше	-9.95785
))	-9.95809
ह	-9.95836
her	-9.9586
である	-9.95867
);	-9.95868
▁aastal	-9.95929
▁کرد	-9.9593
る	-9.95968
▁ré	-9.9603
ग	-9.96039
etan	-9.96086
дар	-9.96101
▁الأ	-9.96115
▁ere	-9.9613
лы	-9.96377
tura	-9.96516
▁ба	-9.96557
▁jest	-9.96612
▁Ru	-9.96631
hen	-9.96778
▁म	-9.96782
▁τις	-9.96786
▁thể	-9.96803
▁už	-9.96847
ard	-9.9686
ის	-9.96877
▁đó	-9.96993
ния	-9.9702
tter	-9.97037
ede	-9.97048
▁ind	-9.97092
+	-9.97096
▁ci	-9.97134
ف	-9.97135
▁στη	-9.97193
り	-9.97248
िक	-9.97289
▁Saint	-9.97293
ть	-9.97306
ator	-9.97319
nis	-9.97333
ස්	-9.9734
▁hun	-9.9736
▁न	-9.97363
▁sonra	-9.97403
ア	-9.97404
▁dva	-9.97441
wi	-9.97602
ной	-9.97664
▁Europa	-9.97681
ell	-9.97696
▁Maria	-9.97712
ico	-9.97741
▁годзе	-9.97817
це	-9.97825
▁anti	-9.97954
西	-9.98065
▁بعد	-9.98079
▁ப	-9.98088
▁ok	-9.98112
▁syn	-9.98118
oval	-9.98191
ев	-9.98212
sia	-9.98244
▁נ	-9.98395
isto	-9.98431
▁nije	-9.9846
ஸ்	-9.98552
▁sve	-9.98556
art	-9.98576
▁1993	-9.98604
af	-9.98655
itat	-9.98661
ż	-9.98683
▁bez	-9.9871
▁së	-9.98748
▁»	-9.98761
▁לא	-9.98794
ské	-9.98825
ст	-9.98842
▁וה	-9.98854
end	-9.98889
▁sie	-9.98973
த்த	-9.99023
▁التي	-9.99123
▁അ	-9.99168
any	-9.99179
▁στις	-9.99184
合	-9.99208
nar	-9.9924
ста	-9.99295
▁seus	-9.99514
car	-9.99533
▁kahabog	-9.99545
sto	-9.99594
▁Para	-9.99601
14	-9.99684
为	-10.0002
40	-10.0003
tus	-10.0004
▁ف	-10.0015
▁David	-10.0017
く	-10.0019
▁20.	-10.0028
ени	-10.0029
▁tem	-10.0031
до	-10.0039
▁بال	-10.004
▁само	-10.0041
sid	-10.0043
ков	-10.0045
から	-10.0049
-1	-10.0053
▁Ny	-10.0065
мі	-10.0073
ع	-10.0078
▁klub	-10.0081
▁то	-10.0087
ן	-10.0087
▁avec	-10.009
ात	-10.0091
rum	-10.0092
té	-10.0094
ین	-10.0095
skom	-10.0097
▁hvor	-10.0097
ische	-10.0103
▁sunt	-10.0105
드	-10.0109
▁Har	-10.011
ब	-10.0132
ൻ	-10.0134
ప	-10.0137
▁1980	-10.0138
▁durante	-10.0139
▁bij	-10.0139
dal	-10.0141
రు	-10.0142
ier	-10.0143
ής	-10.0155
ний	-10.016
гі	-10.0163
ِ	-10.0166
ද	-10.0169
द	-10.0172
gan	-10.0173
▁IV	-10.0177
▁עם	-10.018
lt	-10.0182
▁go	-10.0182
定	-10.0182
xi	-10.0184
های	-10.0187
par	-10.0193
kur	-10.0194
대	-10.0194
▁2016.	-10.0196
▁pli	-10.02
ble	-10.0203
ity	-10.0207
長	-10.0207
▁pat	-10.0217
ona	-10.0226
▁val	-10.0229
▁Ci	-10.0239
家	-10.0244
▁5.	-10.0247
▁Tur	-10.0249
tä	-10.0249
ი	-10.0262
ych	-10.0265
రి	-10.0267
▁gi	-10.0272
вер	-10.0274
▁Par	-10.0284
ин	-10.0296
▁Robert	-10.0298
▁nakon	-10.0301
த்தில்	-10.0301
▁пры	-10.0301
▁प्र	-10.0306
▁전	-10.0306
特	-10.031
си	-10.0311
nan	-10.0311
▁дека	-10.0314
lit	-10.032
ог	-10.0321
ца	-10.0322
▁công	-10.0324
時	-10.0326
▁או	-10.0328
nud	-10.0332
Б	-10.0333
▁Pri	-10.0336
▁स	-10.0337
ός	-10.0339
cio	-10.0342
imo	-10.0346
och	-10.0347
▁ap	-10.0349
▁had	-10.0351
tum	-10.0352
form	-10.0358
▁ass	-10.036
ys	-10.0371
▁nuo	-10.0378
▁Sam	-10.0379
▁மற்றும்	-10.0381
dre	-10.0384
国	-10.0385
▁från	-10.0387
ල	-10.0388
ок	-10.0389
▁oko	-10.0391
▁nos	-10.0392
):	-10.0399
▁lan	-10.04
▁α	-10.0409
bat	-10.0409
ор	-10.041
يا	-10.0412
▁1989	-10.0417
▁2008.	-10.042
▁tek	-10.0421
▁Ro	-10.0421
▁град	-10.0431
▁National	-10.0436
tta	-10.044
▁Paris	-10.0443
ট	-10.0445
▁để	-10.0447
했다	-10.0449
ll	-10.0468
ती	-10.0472
া	-10.0477
one	-10.0481
stan	-10.0482
▁који	-10.0487
kt	-10.0488
▁ως	-10.049
▁2009.	-10.0492
성	-10.0493
정	-10.0496
▁pra	-10.0499
▁bere	-10.05
▁TV	-10.0502
zia	-10.0505
60	-10.0506
idae	-10.0506
▁tidak	-10.0525
▁över	-10.0527
本	-10.0528
ారు	-10.053
や	-10.0533
▁kada	-10.0536
▁Gi	-10.0545
22	-10.0546
▁Ce	-10.0558
▁Im	-10.056
▁lu	-10.056
ét	-10.056
ња	-10.056
ു	-10.0561
▁Tr	-10.0567
▁500	-10.0568
யில்	-10.0573
না	-10.0573
μ	-10.0579
▁bet	-10.0585
▁için	-10.0588
ag	-10.0597
▁Com	-10.0598
inen	-10.0602
fu	-10.0612
▁menjadi	-10.0613
ové	-10.0615
▁Nord	-10.0615
▁bị	-10.0619
య	-10.0631
50	-10.0634
up	-10.0637
到	-10.0644
▁Ur	-10.0652
▁sistema	-10.0653
yo	-10.0659
▁sự	-10.0659
▁tako	-10.0662
▁pan	-10.0663
-18	-10.0668
ných	-10.0676
ில்	-10.0677
▁første	-10.068
age	-10.0689
▁sud	-10.069
▁Ju	-10.0697
▁hat	-10.0699
하는	-10.0704
▁क	-10.0708
det	-10.0708
▁motor	-10.0711
▁mat	-10.0723
해	-10.0731
▁یا	-10.0737
作	-10.0738
か	-10.0738
į	-10.0744
▁land	-10.0745
ár	-10.0748
▁về	-10.0749
fo	-10.0753
▁opera	-10.0753
gy	-10.0756
80	-10.0763
▁quan	-10.0766
小	-10.0766
ša	-10.0766
ip	-10.0767
▁parti	-10.0771
los	-10.0775
▁как	-10.0775
ի	-10.0775
▁kinadu	-10.0783
ң	-10.0791
▁pr	-10.0797
▁кои	-10.0801
▁cha	-10.0802
zer	-10.0803
▁kay	-10.0809
▁nom	-10.0809
▁অ	-10.0815
▁trans	-10.0819
cz	-10.0822
sz	-10.0824
▁dakong	-10.0824
ాన్ని	-10.0827
rus	-10.0827
sche	-10.0829
▁1945	-10.0836
dır	-10.0843
bor	-10.0846
▁كان	-10.0853
▁juga	-10.0875
道	-10.0879
▁δια	-10.0892
▁bilo	-10.0894
ats	-10.0897
raz	-10.0901
чи	-10.0902
ep	-10.0915
зи	-10.0917
▁1970	-10.0925
▁без	-10.0926
ει	-10.0926
▁Chi	-10.0927
▁super	-10.0927
▁mil	-10.0928
▁dira	-10.093
▁Star	-10.0934
▁Jan	-10.0936
▁prima	-10.0938
▁जा	-10.0939
▁seva	-10.0946
jet	-10.0947
▁Peter	-10.095
高	-10.095
ді	-10.0953
eko	-10.0955
会	-10.096
ो	-10.0968
cer	-10.0974
事	-10.0978
ove	-10.0979
kal	-10.0985
▁mei	-10.0985
log	-10.0986
ring	-10.0988
isme	-10.0993
vol	-10.0994
اء	-10.0997
ır	-10.1
された	-10.1003
▁వి	-10.1008
▁kad	-10.101
ха	-10.1019
▁तथा	-10.1023
▁Ben	-10.1024
▁35	-10.1026
ак	-10.1029
▁dis	-10.103
▁Cu	-10.104
ori	-10.1042
▁sú	-10.1043
▁up	-10.1049
▁mm	-10.1052
ła	-10.1052
വ	-10.1055
▁ع	-10.1057
aria	-10.1068
▁Por	-10.1068
ар	-10.1073
▁så	-10.1077
▁tai	-10.1078
yn	-10.1079
mes	-10.1082
▁1960	-10.1085
कर	-10.1086
▁nome	-10.109
▁6.	-10.1091
▁п	-10.1092
▁تم	-10.1096
gin	-10.1108
ši	-10.111
ный	-10.1112
아	-10.1112
▁এর	-10.1113
sal	-10.1123
kas	-10.1124
▁hai	-10.1126
▁°	-10.1131
▁као	-10.1132
ib	-10.1133
▁werden	-10.1133
ним	-10.114
▁करने	-10.1141
13	-10.1141
イ	-10.1143
ins	-10.1144
ium	-10.1146
nem	-10.115
iva	-10.115
▁sistem	-10.1151
▁kako	-10.1157
▁18.	-10.1157
24	-10.1158
ре	-10.1159
هم	-10.116
▁Tri	-10.1162
αν	-10.1163
▁била	-10.1165
dom	-10.1166
eren	-10.1171
ць	-10.1172
ean	-10.1173
▁خود	-10.1177
リ	-10.1179
מ	-10.1186
而	-10.1187
ική	-10.1187
num	-10.1188
ves	-10.1192
▁James	-10.1194
")	-10.1199
之	-10.1207
ff	-10.1214
dra	-10.1214
▁trên	-10.1215
▁Kar	-10.1215
osti	-10.1223
ín	-10.1225
▁tro	-10.1226
▁cel	-10.1226
или	-10.1229
서	-10.1233
르	-10.1239
%	-10.124
▁primer	-10.1242
cs	-10.1245
▁был	-10.1248
isk	-10.1277
tă	-10.1282
rin	-10.1284
▁Ban	-10.129
_{	-10.1293
ம	-10.1301
tin	-10.1301
▁साथ	-10.1302
tte	-10.1302
트	-10.1305
tele	-10.131
주	-10.1314
23	-10.1315
har	-10.1319
▁nei	-10.1321
dia	-10.1323
ės	-10.1325
▁제	-10.1326
nut	-10.1329
ola	-10.1332
▁Santa	-10.1333
ве	-10.1335
▁ж	-10.1337
▁кон	-10.1338
▁לה	-10.1344
ര	-10.1348
▁gli	-10.1349
▁Ze	-10.1356
zy	-10.1365
▁sp	-10.1365
▁London	-10.1371
▁như	-10.1374
М	-10.1376
▁let	-10.138
▁↑	-10.1385
▁და	-10.1386
▁ing	-10.1391
lang	-10.1394
▁Martin	-10.1397
▁Ri	-10.1405
▁tam	-10.1411
కి	-10.1413
▁autor	-10.1413
if	-10.142
▁aŭ	-10.1421
ие	-10.1424
dis	-10.1428
▁nach	-10.1432
▁2017.	-10.1432
▁sz	-10.1433
▁లో	-10.1435
▁chính	-10.1441
▁80	-10.1442
প	-10.1442
англ	-10.1445
▁кој	-10.1447
ilo	-10.1461
த	-10.1464
ते	-10.1471
▁три	-10.1473
▁bal	-10.1476
▁can	-10.1477
前	-10.1479
▁Kor	-10.1481
noj	-10.1482
于	-10.1482
▁През	-10.1489
க்கு	-10.1495
▁sono	-10.1499
市	-10.1505
́	-10.1506
qui	-10.1506
▁ông	-10.1507
▁ن	-10.1507
▁नहीं	-10.1511
ì	-10.1514
्य	-10.1515
▁katika	-10.1518
▁מה	-10.152
ces	-10.1522
pre	-10.1536
ත්	-10.1536
公	-10.1547
ίας	-10.1551
▁До	-10.1553
▁10.	-10.1556
iden	-10.156
▁Lake	-10.156
iv	-10.1562
vit	-10.1564
inin	-10.1569
▁ti	-10.1569
所	-10.1572
še	-10.1578
▁دو	-10.1585
port	-10.1587
ť	-10.1588
ая	-10.1591
▁delle	-10.1595
▁7.	-10.1597
ville	-10.1597
тан	-10.1598
వి	-10.16
▁ol	-10.16
Г	-10.16
▁("	-10.1605
দের	-10.1614
ئ	-10.1615
▁Gu	-10.1619
च्या	-10.1621
Д	-10.1621
▁час	-10.1625
▁Па	-10.1626
ech	-10.1627
多	-10.163
▁Α	-10.1633
▁Са	-10.1638
▁sont	-10.164
יה	-10.1649
▁Th	-10.1649
э	-10.165
▁più	-10.1653
ரி	-10.1657
▁Hu	-10.1658
▁Commons	-10.1674
യ	-10.1677
원	-10.1687
▁Ali	-10.1689
sky	-10.169
ა	-10.1692
ela	-10.1692
力	-10.1696
ൽ	-10.1698
▁gia	-10.17
▁होता	-10.1711
▁Dr	-10.1713
ris	-10.1713
ク	-10.1713
▁kap	-10.1715
学	-10.1725
▁අ	-10.1731
ந்த	-10.1733
▁17.	-10.1733
ட	-10.1735
ře	-10.1737
-2	-10.1737
lag	-10.1746
▁má	-10.1747
из	-10.175
▁два	-10.1751
гу	-10.1757
▁vez	-10.1757
▁Roma	-10.1759
▁học	-10.176
▁polo	-10.1768
하였다	-10.1769
▁छ	-10.177
▁Pan	-10.1772
▁Is	-10.1774
av	-10.1774
cie	-10.1777
ğ	-10.1779
ité	-10.1779
ги	-10.178
inu	-10.1783
▁Dam	-10.1786
▁ro	-10.1795
org	-10.1796
入	-10.1796
▁fe	-10.1803
шы	-10.1803
▁1988	-10.1803
▁8.	-10.1805
▁Ob	-10.1806
ым	-10.181
dı	-10.1811
▁ná	-10.1812
▁ब	-10.182
ры	-10.1821
▁2007.	-10.1827
èt	-10.183
하고	-10.183
主	-10.1832
▁grup	-10.1832
▁प	-10.1838
상	-10.1841
ല	-10.1842
eve	-10.1847
會	-10.1848
▁க	-10.1857
ijos	-10.1862
▁may	-10.1862
▁City	-10.1869
▁لا	-10.187
▁те	-10.1871
▁Tor	-10.1872
ario	-10.1875
ić	-10.1883
▁ג	-10.1886
tri	-10.1889
▁tij	-10.1896
21	-10.1901
mit	-10.1902
иот	-10.1908
▁tur	-10.1908
▁ban	-10.1921
til	-10.1922
▁st	-10.1923
డ	-10.1924
90	-10.1926
তা	-10.1928
化	-10.1934
▁《	-10.1935
ила	-10.1938
28	-10.1941
▁ένα	-10.1943
jar	-10.1944
ence	-10.1946
▁hän	-10.1948
ér	-10.1948
▁anno	-10.195
్	-10.1951
▁pela	-10.1952
同	-10.1952
35	-10.1952
▁William	-10.1953
dur	-10.1953
▁دارد	-10.1954
ых	-10.1955
▁yer	-10.1956
lje	-10.1958
▁Pas	-10.1962
▁ஆ	-10.1965
ো	-10.1969
▁তার	-10.197
ట్	-10.1975
ным	-10.1975
ס	-10.1978
ary	-10.1983
▁Fe	-10.1984
▁nas	-10.1985
▁Në	-10.1988
pp	-10.1988
▁cm	-10.1994
nega	-10.1995
▁Mor	-10.1996
cal	-10.1999
π	-10.2007
▁maj	-10.2007
▁বি	-10.2007
▁Π	-10.2008
ー	-10.2008
▁11.	-10.2009
▁При	-10.201
▁Son	-10.2011
▁ك	-10.2015
▁ма	-10.2018
▁cre	-10.2022
新	-10.2023
use	-10.2024
ča	-10.2026
수	-10.2026
▁Sch	-10.2028
▁nella	-10.2028
cho	-10.2031
▁está	-10.2035
▁ре	-10.2036
▁след	-10.2038
▁George	-10.2038
▁tempo	-10.204
dik	-10.2044
the	-10.2046
ted	-10.2048
θ	-10.2049
lis	-10.205
dig	-10.206
▁My	-10.2061
三	-10.2062
장	-10.2063
▁zeuden	-10.2072
▁É	-10.2073
стан	-10.2076
▁Don	-10.2077
वा	-10.2079
70	-10.208
tr	-10.2087
area	-10.2087
ajn	-10.2087
්	-10.2088
pro	-10.2091
▁q	-10.2091
ർ	-10.2091
▁Michael	-10.2095
▁15.	-10.2099
lé	-10.2102
ania	-10.2103
ове	-10.2106
부	-10.2117
▁आणि	-10.2118
▁auto	-10.2122
▁não	-10.2126
лу	-10.2134
ların	-10.2135
▁University	-10.215
san	-10.2155
▁Ш	-10.2158
▁Cor	-10.2161
ور	-10.2165
jos	-10.2166
get	-10.2168
iji	-10.217
▁họ	-10.2171
▁Nel	-10.2171
Т	-10.2173
山	-10.2177
В	-10.2181
▁przez	-10.2186
体	-10.2191
▁थे	-10.2192
же	-10.2196
ది	-10.2201
나	-10.2201
leg	-10.2205
ise	-10.221
nice	-10.221
文	-10.2214
ül	-10.2214
▁NGC	-10.2214
adas	-10.2217
▁(17	-10.2222
▁Nam	-10.2223
osa	-10.2228
nici	-10.223
ி	-10.2231
▁70	-10.2233
sson	-10.2238
29	-10.2246
▁dins	-10.2249
br	-10.2251
전	-10.2256
▁International	-10.2261
では	-10.2265
▁bili	-10.2267
nos	-10.2268
▁Can	-10.2275
skim	-10.2282
යේ	-10.2285
手	-10.2286
▁کند	-10.2289
▁14.	-10.2291
▁cor	-10.2292
pol	-10.2292
ன	-10.2296
mak	-10.2301
▁द्वारा	-10.2301
2.	-10.2302
zioni	-10.2303
vy	-10.2307
▁beste	-10.2309
▁32	-10.2312
▁12.	-10.2313
▁Et	-10.2313
▁min	-10.2318
理	-10.232
▁Х	-10.232
И	-10.2324
ک	-10.2327
tat	-10.2328
نا	-10.2331
awa	-10.2335
00	-10.2336
▁stanovnika	-10.2337
た	-10.2343
ação	-10.2344
▁16.	-10.2345
▁मा	-10.2349
▁može	-10.235
▁ben	-10.2351
वर	-10.2353
stvo	-10.2355
▁model	-10.2358
▁1986	-10.2366
▁star	-10.2373
ר	-10.2373
▁vuonna	-10.2375
ça	-10.2391
▁ఉంది	-10.2392
▁long	-10.2395
75	-10.2397
▁45	-10.2398
▁सं	-10.2401
پ	-10.2406
▁All	-10.2407
▁At	-10.2412
ש	-10.2413
▁zuten	-10.2428
▁total	-10.2429
▁has	-10.2429
面	-10.2429
bri	-10.2436
▁real	-10.2437
相	-10.2438
εί	-10.244
他	-10.2445
▁ва	-10.2447
lich	-10.2447
▁13.	-10.2448
ラ	-10.2451
▁inn	-10.2459
▁Ex	-10.2463
▁हे	-10.2464
《	-10.2465
▁hett	-10.2468
▁א	-10.2471
-19	-10.2473
▁জন্য	-10.2479
oje	-10.2479
德	-10.2482
hat	-10.2485
39	-10.2489
டி	-10.249
45	-10.249
ü	-10.2492
▁molupyo	-10.2494
my	-10.2498
idad	-10.2505
ön	-10.2505
ා	-10.2508
▁kui	-10.251
▁1944	-10.251
▁Land	-10.2511
機	-10.2512
▁1941	-10.2513
ör	-10.2513
▁pak	-10.2515
frac	-10.2516
ено	-10.2518
ps	-10.2519
zio	-10.2524
▁atau	-10.2528
▁mag	-10.2528
▁Sal	-10.2533
inn	-10.2533
chen	-10.2534
▁County	-10.2539
ын	-10.2539
tica	-10.2539
性	-10.254
▁Ма	-10.2543
ыя	-10.255
▁weer	-10.2557
▁під	-10.256
}}	-10.2569
ischen	-10.2569
▁सा	-10.2571
▁1987	-10.2573
ும்	-10.2573
▁were	-10.2576
দ	-10.2577
రా	-10.2579
▁Pada	-10.2582
海	-10.2587
ست	-10.2592
rak	-10.2593
▁mer	-10.2599
▁9.	-10.2604
ира	-10.2608
▁popular	-10.2609
дан	-10.2611
▁ق	-10.2615
via	-10.2618
▁með	-10.2619
aire	-10.2632
pos	-10.2634
▁West	-10.2636
▁быў	-10.2639
elt	-10.2645
▁tres	-10.2655
ु	-10.2661
▁ilə	-10.2676
克	-10.2682
▁nalazi	-10.2686
▁Tre	-10.2692
▁top	-10.2695
ži	-10.2701
▁bar	-10.2702
jal	-10.2706
▁בשנת	-10.2707
▁suo	-10.2708
▁quân	-10.2709
▁1984	-10.2716
▁క	-10.272
ast	-10.272
26	-10.2721
▁1985	-10.2722
▁až	-10.2723
ân	-10.2723
天	-10.2724
yan	-10.2727
自	-10.2728
01	-10.273
ட்	-10.273
сти	-10.273
▁gra	-10.2735
ै	-10.2739
▁vor	-10.2741
▁War	-10.2741
ades	-10.2741
lər	-10.2742
南	-10.2743
31	-10.2747
ган	-10.275
▁1950	-10.2756
Ö	-10.2756
▁2018.	-10.2757
▁هم	-10.2759
▁가	-10.276
bit	-10.2763
ono	-10.2767
tti	-10.2768
27	-10.2769
än	-10.2769
്	-10.2769
▁itu	-10.2776
lige	-10.2776
與	-10.2778
rio	-10.2779
▁anos	-10.2779
▁cũng	-10.278
▁была	-10.2782
▁radio	-10.2783
▁August	-10.2784
gas	-10.2785
Re	-10.2792
▁что	-10.2796
▁při	-10.2798
▁tersebut	-10.2799
▁дел	-10.28
任	-10.2803
²	-10.2805
▁Jean	-10.2805
▁gr	-10.2808
▁대	-10.2814
नी	-10.2816
▁90	-10.2823
able	-10.2825
цы	-10.2828
ub	-10.2828
pis	-10.2832
uta	-10.2836
ന	-10.2841
മ	-10.2851
ियों	-10.2854
ová	-10.2855
ంలో	-10.2858
▁Ga	-10.2858
ată	-10.2861
ių	-10.2863
第	-10.2869
▁sil	-10.2869
48	-10.2871
▁نام	-10.2871
ách	-10.2872
най	-10.2878
▁või	-10.2879
▁naar	-10.288
▁300	-10.2882
vid	-10.2882
▁yılında	-10.2884
্য	-10.289
ген	-10.2891
▁Cha	-10.2891
▁Bol	-10.2892
▁1920	-10.2898
mor	-10.2899
dem	-10.2903
ك	-10.2903
ská	-10.2906
加	-10.291
▁više	-10.2914
▁nhà	-10.2915
tud	-10.2915
▁kabana	-10.2916
ные	-10.292
語	-10.2923
श	-10.2924
pin	-10.2931
▁lại	-10.2934
liga	-10.2936
▁Á	-10.2936
85	-10.2939
소	-10.2939
▁Med	-10.294
▁он	-10.2947
▁προ	-10.2952
ło	-10.2953
▁andre	-10.2954
▁Со	-10.296
ін	-10.2961
▁Charles	-10.2964
গ	-10.2965
▁사	-10.2967
ime	-10.297
▁ilk	-10.2976
▁아	-10.2976
也	-10.2976
き	-10.2978
tt	-10.2979
▁Espesy	-10.2981
▁ook	-10.2986
sur	-10.2988
জ	-10.2989
ικό	-10.2994
▁हा	-10.2994
μα	-10.2997
99	-10.3
О	-10.3001
▁oficial	-10.3005
gal	-10.3006
▁години	-10.3009
ල්	-10.301
國	-10.301
▁Hy	-10.301
▁Hor	-10.3011
▁hal	-10.3013
▁sakop	-10.3015
▁1940	-10.3018
bal	-10.3019
▁س	-10.302
ാ	-10.3025
▁Karl	-10.3026
▁še	-10.3027
lon	-10.3027
ningen	-10.3029
物	-10.3029
ాడు	-10.3033
▁radi	-10.3034
жа	-10.3038
▁Gar	-10.3043
enia	-10.3044
xe	-10.3045
sion	-10.305
nder	-10.3058
▁myös	-10.3064
ார்	-10.3065
▁Bal	-10.3066
46	-10.3069
ità	-10.3069
вен	-10.307
▁prema	-10.3072
има	-10.3075
▁anche	-10.3076
cija	-10.3078
▁지	-10.308
ио	-10.308
ance	-10.3082
ob	-10.3084
▁Sol	-10.3088
bus	-10.3091
pl	-10.3092
▁най	-10.3092
zel	-10.3094
ден	-10.3094
▁(*	-10.3094
▁аб	-10.3095
▁Ар	-10.3096
▁Ana	-10.3099
oni	-10.3108
ел	-10.3111
▁Ф	-10.3111
ما	-10.3116
▁pos	-10.3119
▁επι	-10.3119
▁1979	-10.312
▁fram	-10.3121
ком	-10.3123
▁ont	-10.3127
ában	-10.3128
зе	-10.313
ස	-10.3132
film	-10.3133
су	-10.3133
▁ligger	-10.3135
rá	-10.3139
സ്	-10.3143
▁Де	-10.3145
pun	-10.3145
lah	-10.3147
isi	-10.3151
▁Iz	-10.3154
▁Š	-10.3156
▁cập	-10.3163
▁Kr	-10.3166
▁godina	-10.3167
37	-10.3168
pt	-10.3169
▁Amerika	-10.317
外	-10.317
grad	-10.3171
сі	-10.3172
▁prze	-10.3173
vr	-10.3175
gg	-10.3177
▁mon	-10.3178
마	-10.3179
hl	-10.3181
州	-10.3183
▁pero	-10.3186
▁וב	-10.3187
nas	-10.319
ர	-10.319
▁так	-10.319
far	-10.3194
mel	-10.3194
▁bola	-10.32
位	-10.3201
▁principal	-10.3207
95	-10.3209
ott	-10.3209
ich	-10.3211
拉	-10.3213
02	-10.3218
eta	-10.3218
tori	-10.3221
▁nhất	-10.3223
▁sed	-10.3224
▁We	-10.3225
▁tanggal	-10.3229
▁Да	-10.323
ക	-10.3231
▁mem	-10.3232
▁які	-10.3237
▁sul	-10.3239
▁Ка	-10.324
32	-10.3246
jev	-10.3246
eva	-10.3246
▁ven	-10.3247
”,	-10.3249
立	-10.3252
▁chi	-10.3255
▁1946	-10.3259
▁2006.	-10.3261
ș	-10.3263
▁Kom	-10.3263
eri	-10.3271
▁auch	-10.3274
▁Red	-10.3277
▁1918	-10.3281
▁Ко	-10.3283
cher	-10.3286
ges	-10.3287
▁obra	-10.3289
하여	-10.3292
▁році	-10.3292
ement	-10.3294
ట	-10.3296
ding	-10.3303
Р	-10.3305
▁1982	-10.3306
ö	-10.3306
por	-10.3309
▁ס	-10.331
nych	-10.3318
ив	-10.3325
▁היה	-10.3326
ување	-10.3327
▁жылы	-10.3328
▁Ch	-10.3343
된	-10.3356
ిన	-10.3357
ket	-10.3357
▁සහ	-10.3357
▁Fu	-10.336
▁Berlin	-10.3362
▁Κ	-10.3363
には	-10.3365
ā	-10.3367
▁video	-10.3369
▁gu	-10.337
▁nur	-10.3373
▁ye	-10.3377
▁serie	-10.338
؛	-10.3382
▁הת	-10.3385
▁Tar	-10.3387
У	-10.3389
pel	-10.339
ης	-10.3391
其	-10.3394
▁إ	-10.34
ingen	-10.3401
mp	-10.3403
利	-10.3405
▁have	-10.3407
wan	-10.3409
dro	-10.341
In	-10.3412
되었다	-10.3415
lim	-10.3416
▁היא	-10.3416
jer	-10.342
▁esta	-10.3426
▁stor	-10.3429
mus	-10.3429
▁dé	-10.3431
▁prvi	-10.3437
या	-10.3439
tua	-10.3439
▁mest	-10.344
▁1939	-10.3441
▁మ	-10.3443
ој	-10.3444
▁1972	-10.3444
gt	-10.3444
ава	-10.3447
స	-10.3447
ага	-10.3449
▁col	-10.3453
▁we	-10.346
తో	-10.3463
ळ	-10.3471
iĝis	-10.3472
ande	-10.3478
▁Pi	-10.3479
▁svoje	-10.3479
▁시	-10.348
ロ	-10.3486
יו	-10.3493
ду	-10.3493
▁egin	-10.3494
▁ότι	-10.3497
88	-10.3504
else	-10.3505
▁Var	-10.3506
▁І	-10.3509
▁هي	-10.3512
▁Sin	-10.3519
数	-10.3519
▁1956	-10.352
▁bas	-10.353
▁ش	-10.353
ته	-10.3535
лен	-10.3536
▁dio	-10.3537
নি	-10.3539
ә	-10.3542
原	-10.3542
金	-10.3544
▁zum	-10.3546
வி	-10.3547
në	-10.3548
▁био	-10.355
dat	-10.3566
▁उ	-10.3567
ాల	-10.3571
▁1981	-10.3575
ige	-10.3576
▁рас	-10.3576
lea	-10.3578
dio	-10.3583
▁über	-10.3586
লা	-10.359
▁band	-10.3595
▁1983	-10.3596
96	-10.3596
தி	-10.3599
▁Inter	-10.3605
isch	-10.3613
▁ද	-10.3613
▁1961	-10.3615
▁Mac	-10.362
明	-10.3621
erna	-10.3621
▁US	-10.3623
▁XIX	-10.3625
▁شهر	-10.3627
▁Β	-10.363
▁động	-10.363
ilor	-10.3633
▁Um	-10.3635
▁1974	-10.3637
▁vers	-10.3638
β	-10.3638
▁Grand	-10.3639
▁1975	-10.3642
▁Mark	-10.3642
▁pol	-10.3646
&	-10.3648
ým	-10.3652
లి	-10.3654
ద	-10.3655
ern	-10.3657
▁Dan	-10.3659
cions	-10.3665
▁Au	-10.3665
▁Dar	-10.3666
▁роз	-10.3666
▁Sel	-10.3667
ύ	-10.3669
▁etter	-10.3671
▁XX	-10.3676
49	-10.3679
дер	-10.3683
ær	-10.3686
92	-10.3686
王	-10.3689
ndi	-10.3689
▁dapit	-10.3693
▁1976	-10.3693
▁1978	-10.3696
▁فى	-10.3696
De	-10.3697
代	-10.3699
ació	-10.3699
▁इ	-10.3704
χ	-10.3706
வை	-10.3707
yl	-10.3707
ход	-10.3709
▁causa	-10.3712
▁μια	-10.3714
ске	-10.3717
▁ai	-10.3718
▁rad	-10.3718
▁کار	-10.3722
ského	-10.3726
හ	-10.3728
▁बाद	-10.3729
ador	-10.3734
డి	-10.3735
▁hann	-10.3735
軍	-10.3739
ර්	-10.374
২	-10.3746
Al	-10.3749
uose	-10.3749
最	-10.375
ానికి	-10.3755
▁Canada	-10.3757
▁wo	-10.3758
▁nacional	-10.376
적	-10.3765
чы	-10.3771
98	-10.3772
▁στον	-10.3777
▁آ	-10.3781
▁dok	-10.3783
▁1977	-10.3783
mir	-10.3786
▁1947	-10.3786
over	-10.3787
▁σ	-10.3787
eb	-10.3788
ије	-10.3788
së	-10.3789
▁American	-10.3792
▁via	-10.3794
িক	-10.3795
way	-10.3796
ský	-10.3796
▁put	-10.3799
ef	-10.38
▁noch	-10.3807
▁hadde	-10.3811
及	-10.3811
▁주	-10.3813
rar	-10.3813
bb	-10.3814
ções	-10.3814
▁ISBN	-10.3816
uz	-10.3816
▁Hän	-10.3817
54	-10.3823
ката	-10.3823
화	-10.3824
▁36	-10.3827
全	-10.3827
▁meter	-10.3828
▁zituen	-10.3831
▁Ter	-10.3833
ió	-10.3836
ской	-10.3842
▁usa	-10.3842
ост	-10.3843
▁public	-10.3845
ër	-10.3847
set	-10.3849
▁foar	-10.3849
▁Das	-10.3849
▁mereka	-10.385
cos	-10.3851
▁Las	-10.3852
38	-10.3853
ик	-10.3858
▁150	-10.3858
▁भारत	-10.3859
▁وی	-10.3859
jn	-10.3865
pat	-10.3867
².	-10.3869
▁làm	-10.387
ното	-10.387
ô	-10.387
由	-10.387
▁kultur	-10.387
▁wordt	-10.3875
86	-10.3875
▁aasta	-10.3876
▁list	-10.3877
ப்ப	-10.388
Q	-10.3881
nou	-10.389
▁Este	-10.3896
erte	-10.3896
nju	-10.3899
▁ת	-10.3899
▁niet	-10.3901
等	-10.3903
hy	-10.3904
게	-10.3912
▁1958	-10.3913
ح	-10.3913
▁joka	-10.3913
民	-10.3916
▁1968	-10.3917
北	-10.3918
ies	-10.3931
▁oma	-10.3931
后	-10.3933
imin	-10.3934
▁Mont	-10.3937
vik	-10.3939
カ	-10.394
gra	-10.3944
ीय	-10.3945
▁باشد	-10.3951
ného	-10.3952
ensis	-10.3957
▁중	-10.3961
▁வி	-10.3963
endo	-10.3965
▁э	-10.3966
▁zá	-10.3972
▁grande	-10.3978
imit	-10.3979
enie	-10.398
ette	-10.3991
期	-10.4001
▁hor	-10.4003
pad	-10.4003
▁д	-10.4004
▁ek	-10.4005
itet	-10.4008
▁Bre	-10.4013
οι	-10.4018
▁1948	-10.4019
▁which	-10.402
ët	-10.4025
tie	-10.4029
burg	-10.403
▁Ли	-10.4032
ved	-10.4033
वि	-10.404
▁Tra	-10.4042
▁1943	-10.4045
اب	-10.4052
▁onder	-10.4056
▁Post	-10.4058
▁1973	-10.4059
anti	-10.4061
▁Truy	-10.4065
ام	-10.4068
97	-10.4071
44	-10.4073
vé	-10.4073
Ma	-10.4073
▁Hi	-10.4075
36	-10.4078
ij	-10.4079
▁vel	-10.408
▁metal	-10.4082
ओं	-10.4086
æ	-10.4087
▁Nakon	-10.4091
vers	-10.4093
৯	-10.4094
▁প্র	-10.4094
▁الع	-10.4094
inde	-10.4094
▁stato	-10.4097
Н	-10.4098
ון	-10.4099
▁Art	-10.4099
▁Italia	-10.4102
ür	-10.4102
essa	-10.4102
▁द	-10.4103
▁United	-10.4106
▁होते	-10.4108
pas	-10.4108
▁Ad	-10.411
▁rat	-10.4111
▁zbog	-10.4112
ld	-10.4117
▁Ба	-10.4118
ト	-10.4118
方	-10.4121
stre	-10.4124
▁local	-10.4125
uan	-10.4126
▁ankaŭ	-10.4128
▁hiện	-10.4129
▁στα	-10.4136
제	-10.4136
▁유	-10.4137
▁1942	-10.4138
▁бо	-10.4139
hn	-10.4139
sar	-10.414
ís	-10.4142
tina	-10.4143
▁وت	-10.4145
▁Δ	-10.4147
рі	-10.4154
▁pola	-10.4159
iste	-10.4159
▁1938	-10.416
水	-10.4166
خ	-10.4167
치	-10.4167
hor	-10.4168
′	-10.4168
▁기	-10.4169
▁base	-10.417
▁str	-10.4174
マ	-10.4177
ல	-10.4179
cı	-10.4185
▁1959	-10.4185
▁web	-10.4186
ű	-10.4188
として	-10.419
▁april	-10.419
ू	-10.4191
▁1971	-10.4193
ικά	-10.4196
נ	-10.4197
ets	-10.4198
चे	-10.4202
ții	-10.4203
▁familia	-10.4204
▁May	-10.4208
▁им	-10.4212
만	-10.4216
▁ngalan	-10.4216
▁ఎ	-10.4217
▁ස	-10.4217
구	-10.4221
▁Kal	-10.4222
▁Đ	-10.4222
ás	-10.4229
ниот	-10.423
hin	-10.423
▁ди	-10.4235
ους	-10.4236
▁ĉe	-10.4237
▁guerra	-10.4239
度	-10.424
and	-10.4241
▁1936	-10.4243
در	-10.4244
бу	-10.4246
▁Thomas	-10.4249
▁sebuah	-10.4249
▁1949	-10.4249
▁worden	-10.4251
ω	-10.4252
▁Sen	-10.4252
▁ప	-10.4253
▁부	-10.4259
▁Richard	-10.4259
▁š	-10.4264
34	-10.4266
▁συν	-10.4267
ян	-10.427
▁original	-10.427
bol	-10.4271
▁przy	-10.4274
▁été	-10.4274
õ	-10.4274
▁век	-10.4275
▁యొక్క	-10.4275
▁була	-10.4279
▁but	-10.4283
һы	-10.4285
▁1969	-10.4287
ён	-10.4287
লি	-10.4291
ford	-10.4296
▁2000.	-10.4297
-3	-10.4297
▁ج	-10.4299
bas	-10.4303
vas	-10.4305
▁Ла	-10.4307
▁pen	-10.431
eur	-10.4316
▁بين	-10.4319
мер	-10.4323
▁br	-10.4325
▁бар	-10.4325
▁δεν	-10.4326
▁така	-10.4327
▁ή	-10.4327
▁kas	-10.4331
▁तक	-10.4332
▁גם	-10.4332
stva	-10.4334
ത	-10.4334
ому	-10.4338
iske	-10.434
65	-10.4341
▁ned	-10.4341
▁pla	-10.4344
▁Bra	-10.4347
93	-10.4354
▁eru	-10.4355
atu	-10.4356
▁vida	-10.4357
64	-10.4357
▁Μ	-10.4359
▁Vo	-10.437
세	-10.4375
ナ	-10.4376
▁пад	-10.4378
▁Fi	-10.4384
rah	-10.4385
▁General	-10.4387
▁1957	-10.4388
業	-10.4395
▁FC	-10.4402
55	-10.4404
▁qua	-10.441
回	-10.4412
▁1966	-10.4413
▁Pod	-10.4414
лася	-10.4418
▁മ	-10.4425
元	-10.4427
േ	-10.4427
ғы	-10.4428
▁net	-10.443
ப்பு	-10.4431
▁б	-10.4433
▁also	-10.4434
▁prin	-10.4437
ща	-10.4439
▁ishte	-10.4439
▁desde	-10.4445
尔	-10.4448
cima	-10.4449
eks	-10.4449
ط	-10.4449
▁Eesti	-10.4451
▁modern	-10.4452
mine	-10.4452
амі	-10.4455
shi	-10.4458
▁Mai	-10.4459
вед	-10.446
ана	-10.4467
▁ग	-10.447
ත	-10.4472
▁november	-10.4473
▁1930	-10.4475
ран	-10.4475
▁kes	-10.4477
ши	-10.4479
ина	-10.448
arna	-10.4483
▁vir	-10.4487
▁grupo	-10.4488
▁(16	-10.4489
▁kre	-10.449
▁Hans	-10.4492
cí	-10.4492
ған	-10.4493
▁Ре	-10.4494
▁1967	-10.4496
▁qual	-10.4498
▁Mer	-10.4499
69	-10.4501
格	-10.4502
ింది	-10.4502
▁Про	-10.4503
cul	-10.4503
▁će	-10.4506
und	-10.4507
▁वे	-10.4513
▁400	-10.4513
▁partir	-10.4516
▁अपने	-10.4517
▁due	-10.4521
යි	-10.4522
▁byla	-10.4522
रे	-10.4523
жи	-10.4526
▁1962	-10.4533
▁september	-10.4535
▁ano	-10.4536
▁sia	-10.4537
Le	-10.4538
▁нај	-10.4538
里	-10.454
și	-10.454
▁nhiều	-10.454
ui	-10.4541
▁לאחר	-10.4542
▁social	-10.4543
▁ए	-10.4545
fin	-10.4546
▁edo	-10.4547
يات	-10.4552
来	-10.4552
isti	-10.4552
▁1954	-10.4553
wer	-10.4554
stro	-10.4554
szt	-10.4555
▁Super	-10.4555
rad	-10.4557
▁نیز	-10.4557
▁Japan	-10.4559
stand	-10.4564
▁1919	-10.4564
▁j	-10.4564
▁(1	-10.4566
▁33	-10.4567
▁Kur	-10.4568
cht	-10.4568
』	-10.457
оў	-10.4571
▁Island	-10.4571
▁ம	-10.4572
56	-10.4574
▁yuta	-10.4575
cre	-10.4577
59	-10.4579
▁mars	-10.4579
டு	-10.4581
▁tema	-10.4584
教	-10.4595
士	-10.4595
▁ক	-10.4597
itu	-10.4598
ई	-10.4599
gue	-10.4602
▁edhe	-10.4603
tom	-10.4605
ques	-10.4605
▁नि	-10.4606
ult	-10.4608
ák	-10.461
ения	-10.461
चा	-10.4612
▁broj	-10.4612
ća	-10.4616
ச்	-10.4617
zar	-10.4619
ō	-10.4622
ை	-10.4625
▁1952	-10.4626
▁وي	-10.4629
▁ime	-10.4634
mento	-10.4636
mark	-10.4636
▁Dat	-10.4644
ീ	-10.4645
ити	-10.4645
ум	-10.4648
יים	-10.4648
ში	-10.4651
oma	-10.4658
iza	-10.4661
니	-10.4665
link	-10.4666
▁plej	-10.4672
ност	-10.4681
bet	-10.4683
star	-10.4689
ün	-10.4696
内	-10.4701
మైన	-10.4705
▁tras	-10.4706
▁projekt	-10.4708
wo	-10.4712
▁было	-10.4713
▁Tour	-10.4715
يل	-10.4715
▁dân	-10.4724
선	-10.4725
oli	-10.4726
anta	-10.4731
조	-10.4733
ség	-10.4735
inių	-10.4738
▁dag	-10.4738
اد	-10.4739
ск	-10.4739
sı	-10.474
74	-10.4741
bur	-10.4742
>	-10.4745
sil	-10.4746
42	-10.4746
▁Dor	-10.4746
▁casa	-10.4747
▁*	-10.4749
▁Н	-10.475
kra	-10.4751
▁1955	-10.4757
iya	-10.4758
▁einer	-10.4758
▁phát	-10.4759
ү	-10.476
ец	-10.4761
▁natural	-10.4764
ans	-10.4768
▁(15	-10.477
▁న	-10.477
한다	-10.4771
산	-10.4772
ora	-10.4772
▁oder	-10.4772
▁aux	-10.4773
▁bit	-10.4773
▁1964	-10.4783
05	-10.4785
යා	-10.4787
▁Bir	-10.4787
▁ح	-10.4787
ând	-10.4788
vod	-10.4795
▁Ş	-10.4798
▁Р	-10.4806
ణ	-10.4806
▁Pra	-10.4806
ism	-10.4807
▁nun	-10.4807
tions	-10.4808
lad	-10.4808
uma	-10.4809
ير	-10.4811
qu	-10.4811
▁तो	-10.4814
▁هذه	-10.4814
раз	-10.4817
лер	-10.4819
can	-10.4822
ப	-10.4823
कार	-10.4824
ث	-10.4827
టి	-10.483
▁gdje	-10.483
sam	-10.4833
▁వ	-10.484
ד	-10.4841
51	-10.4841
▁cada	-10.4844
87	-10.4845
elor	-10.4846
▁Nacional	-10.4849
▁sama	-10.485
▁Mag	-10.4854
ド	-10.4855
ிய	-10.4856
能	-10.4859
▁Ein	-10.486
47	-10.4861
▁nó	-10.4862
сто	-10.4869
▁От	-10.4875
▁April	-10.4877
ù	-10.4881
▁т	-10.4881
cü	-10.4882
▁정	-10.4883
ează	-10.4883
▁...	-10.4883
▁nag	-10.4887
▁ка	-10.4887
▁waard	-10.4893
▁ידי	-10.4898
ची	-10.49
ист	-10.4902
ণ	-10.4902
▁İ	-10.4903
次	-10.4909
lja	-10.4912
ног	-10.4913
்	-10.4913
Л	-10.4914
ive	-10.4916
ust	-10.4922
▁Club	-10.4923
stein	-10.4923
41	-10.4925
▁dum	-10.4925
場	-10.4928
94	-10.4929
▁నుండి	-10.4932
ím	-10.4932
▁Internet	-10.4934
▁Mon	-10.4935
्या	-10.4935
▁ஆம்	-10.4936
▁”	-10.4937
）。	-10.4938
▁té	-10.4939
▁flere	-10.4941
▁Ε	-10.4941
▁Hal	-10.4943
न्	-10.4944
▁inglés	-10.4947
▁други	-10.4947
ую	-10.4955
ंग	-10.4957
▁između	-10.4978
▁jedno	-10.4979
▁data	-10.4983
▁ছিল	-10.4988
▁Juli	-10.4989
▁த	-10.4989
cas	-10.4992
▁Sant	-10.4992
ave	-10.4993
א	-10.4993
▁rock	-10.4995
▁tarafından	-10.4999
alis	-10.4999
▁She	-10.5004
pur	-10.5006
mist	-10.5009
▁Rock	-10.501
Ф	-10.5013
▁mort	-10.5016
▁hem	-10.502
ای	-10.5021
bro	-10.5021
luk	-10.5025
τα	-10.5027
лық	-10.5027
డ్	-10.503
す	-10.5033
▁εκ	-10.5033
▁habagatan	-10.5034
fen	-10.5037
amento	-10.5037
▁थी	-10.5037
▁ह	-10.5039
-4	-10.5041
ті	-10.5043
ници	-10.505
ム	-10.505
▁kilometro	-10.5051
▁মা	-10.5052
ските	-10.5052
▁Э	-10.5054
▁havde	-10.5055
▁alebo	-10.5056
▁ఇ	-10.5061
▁solo	-10.5065
бор	-10.5065
▁France	-10.5066
tir	-10.5067
hal	-10.5069
ení	-10.5069
bert	-10.507
सा	-10.5077
mont	-10.5078
sol	-10.5079
▁bur	-10.5081
▁Far	-10.5087
▁Rad	-10.5088
▁rep	-10.5088
▁오	-10.509
▁1953	-10.5091
▁Од	-10.5093
▁anni	-10.5094
▁Ĝi	-10.5102
تر	-10.5104
ங்கள்	-10.5105
lə	-10.5107
▁보	-10.5108
hel	-10.511
oc	-10.5112
ī	-10.5112
är	-10.5113
வு	-10.5114
▁1937	-10.5114
▁banda	-10.5115
ъ	-10.5116
▁central	-10.512
▁Mel	-10.5123
▁proti	-10.5125
▁sind	-10.5129
of	-10.5133
正	-10.5133
وم	-10.5133
▁दिया	-10.5141
▁fins	-10.5142
▁Се	-10.5142
ख	-10.5146
▁lugar	-10.5147
▁rei	-10.5149
pri	-10.5151
58	-10.5153
▁नाम	-10.5154
ват	-10.5154
र्	-10.5155
▁биле	-10.5155
▁1965	-10.5158
tok	-10.516
▁rod	-10.5161
யின்	-10.5162
▁Та	-10.5165
▁ĝi	-10.5169
▁lei	-10.5171
▁thời	-10.5178
▁rol	-10.5183
יות	-10.5184
▁Una	-10.5185
▁pře	-10.5186
▁Tom	-10.5187
う	-10.5189
▁ק	-10.5195
▁במ	-10.5196
▁его	-10.5196
களை	-10.5203
ique	-10.5204
57	-10.5204
▁}	-10.5205
▁však	-10.5206
▁sử	-10.5208
비	-10.5212
थ	-10.5214
▁Nu	-10.5215
tic	-10.5216
▁Air	-10.5217
lä	-10.5219
▁இந்த	-10.5227
nov	-10.5228
▁hành	-10.5229
jes	-10.5229
بر	-10.5234
▁21.	-10.5236
▁historia	-10.5238
ही	-10.5244
エ	-10.5246
▁Hij	-10.5246
ind	-10.5249
▁Mas	-10.5249
▁ആ	-10.5251
ض	-10.5251
▁Ger	-10.5252
▁Roman	-10.5252
mm	-10.5253
▁هر	-10.5253
73	-10.5259
▁না	-10.5261
ί	-10.5263
lov	-10.5264
▁khác	-10.5264
▁cal	-10.5268
ныя	-10.5274
▁Bor	-10.5281
ese	-10.5286
ві	-10.5288
53	-10.5288
ći	-10.5289
▁κατά	-10.529
▁bra	-10.5292
▁Ме	-10.5297
▁Ал	-10.5297
▁bộ	-10.53
通	-10.5301
▁nicht	-10.5304
▁però	-10.5305
▁Col	-10.5308
▁απο	-10.5311
▁Music	-10.5312
している	-10.5316
할	-10.5317
▁tid	-10.5319
국	-10.5323
kat	-10.5324
▁Οι	-10.5326
▁durch	-10.533
▁stil	-10.5339
▁אל	-10.5345
▁वह	-10.5346
▁sol	-10.5348
▁38	-10.5352
▁ham	-10.5353
▁Zu	-10.5355
gor	-10.5357
▁juli	-10.5362
▁ব	-10.5371
ג	-10.5372
▁daha	-10.5373
▁fri	-10.5377
62	-10.5379
kus	-10.5382
コ	-10.5382
▁سر	-10.5383
▁kahenera	-10.5386
▁ktoré	-10.5389
zin	-10.5398
nic	-10.5399
oz	-10.5399
ё	-10.54
▁alt	-10.5402
ør	-10.5405
▁nước	-10.5406
ն	-10.541
▁خ	-10.5411
▁res	-10.5415
▁ktorý	-10.5416
ского	-10.5416
号	-10.5417
▁comme	-10.5418
ение	-10.5418
▁Brasil	-10.5419
▁bahwa	-10.5423
▁قبل	-10.5424
▁இது	-10.5424
zet	-10.5426
வர்	-10.5426
▁Tro	-10.5426
▁але	-10.5426
▁việc	-10.5428
▁oni	-10.5428
▁част	-10.543
iri	-10.5431
▁satu	-10.5432
66	-10.5433
▁Rus	-10.5433
gre	-10.5434
ذ	-10.5436
▁India	-10.5437
▁cum	-10.5438
ən	-10.5438
▁naselje	-10.5439
sp	-10.5439
۲	-10.544
ار	-10.5442
63	-10.5444
▁Madrid	-10.5444
▁Sz	-10.5446
este	-10.5447
▁art	-10.5448
▁ме	-10.5448
▁duke	-10.545
Ar	-10.5451
će	-10.5451
76	-10.5452
nio	-10.5452
▁lang	-10.5455
▁Ak	-10.5456
مان	-10.5458
▁tom	-10.5458
ून	-10.5459
▁1925	-10.546
▁Dia	-10.5464
▁aduna	-10.5465
▁අතර	-10.5466
פ	-10.5468
▁च	-10.5474
▁Vol	-10.5474
রি	-10.5475
ис	-10.5475
▁కూడా	-10.5477
▁pres	-10.5477
▁број	-10.548
ус	-10.5481
▁nuk	-10.5484
Е	-10.5485
▁<	-10.5486
▁공	-10.5495
uni	-10.5496
adi	-10.55
സ	-10.5502
79	-10.5506
우	-10.5506
▁media	-10.5509
▁був	-10.5509
esta	-10.5509
▁vum	-10.5511
▁vrijeme	-10.5511
43	-10.5516
▁Top	-10.5521
▁және	-10.5526
▁River	-10.5526
бер	-10.5527
▁против	-10.5529
▁Те	-10.553
▁동	-10.5532
put	-10.5535
▁frá	-10.5535
ním	-10.5539
rt	-10.554
лан	-10.5541
ings	-10.5547
目	-10.5549
▁Sur	-10.5553
▁saat	-10.5555
tul	-10.5556
▁thế	-10.5558
▁mes	-10.556
▁Des	-10.5561
ит	-10.5565
pet	-10.5567
世	-10.5567
λ	-10.5567
ose	-10.557
▁قرار	-10.5573
▁most	-10.5574
단	-10.5576
-17	-10.5577
▁1963	-10.5577
▁selv	-10.5578
про	-10.5578
ీ	-10.558
ър	-10.5581
சி	-10.5582
că	-10.5584
▁34	-10.5586
το	-10.5593
ത്	-10.5596
inės	-10.5598
▁2005.	-10.56
ike	-10.5601
rod	-10.5602
ص	-10.5602
stri	-10.5603
▁saj	-10.5605
▁Bur	-10.5605
vent	-10.5616
▁Gran	-10.5617
진	-10.5617
▁oan	-10.5619
위	-10.5623
களில்	-10.5624
▁الإ	-10.5625
▁proces	-10.5625
▁ان	-10.5631
▁වි	-10.5633
▁orang	-10.5634
▁pode	-10.5636
▁You	-10.5639
至	-10.5641
▁august	-10.5643
▁عنوان	-10.565
▁fal	-10.565
â	-10.5651
list	-10.5651
ரா	-10.5654
▁Real	-10.5656
▁quốc	-10.5656
▁ses	-10.5656
▁test	-10.5659
▁ανα	-10.5659
ക്ക	-10.566
▁1923	-10.5663
▁ম	-10.5666
bia	-10.5669
ланд	-10.567
得	-10.567
tive	-10.567
usi	-10.5671
▁oraz	-10.5672
ında	-10.5672
gli	-10.5673
eiro	-10.5677
ాయి	-10.5679
▁him	-10.568
▁এক	-10.5682
면	-10.5685
റ	-10.5688
▁1933	-10.569
改	-10.5691
▁pelo	-10.5695
▁പ	-10.5697
04	-10.5704
▁בה	-10.5706
ώ	-10.5709
▁gant	-10.5713
▁hil	-10.5714
68	-10.5716
▁sto	-10.5716
tó	-10.5719
1.	-10.5724
▁1917	-10.5725
0.000	-10.5728
81	-10.573
يد	-10.5731
sor	-10.5738
▁tarihi	-10.5739
▁било	-10.574
▁1926	-10.5742
▁ste	-10.5743
▁maar	-10.5745
▁在	-10.5747
▁hon	-10.5748
ering	-10.5756
ρα	-10.5757
07	-10.5757
тра	-10.5758
▁Under	-10.5761
▁VI	-10.5762
基	-10.5766
ux	-10.5767
▁Fra	-10.5768
▁League	-10.5771
র্	-10.5773
▁1951	-10.5773
▁Sar	-10.5776
무	-10.5778
skej	-10.578
ría	-10.5783
ප	-10.5785
▁#	-10.5786
▁د	-10.5787
▁Bay	-10.5788
▁ఉన్న	-10.5789
▁tekst	-10.579
77	-10.5791
ít	-10.5792
lak	-10.5794
ীয়	-10.5798
89	-10.58
重	-10.5801
學	-10.5804
意	-10.5805
▁arte	-10.5805
ый	-10.5805
十	-10.5806
nun	-10.5807
Ba	-10.5809
▁হিসেবে	-10.5809
শ	-10.5811
stru	-10.5811
igo	-10.5812
▁fyrir	-10.5814
▁inte	-10.5814
▁samt	-10.5821
52	-10.5822
▁Records	-10.5823
aba	-10.5823
▁studi	-10.5825
kk	-10.5829
▁যা	-10.5831
▁oktober	-10.5831
▁Nova	-10.5833
▁tim	-10.5833
▁Nor	-10.5833
sus	-10.5834
ский	-10.5836
eli	-10.5837
▁maa	-10.5845
zem	-10.5846
▁Av	-10.5847
schen	-10.5848
nit	-10.5849
▁لم	-10.5851
▁1927	-10.5852
78	-10.5854
▁ക	-10.5856
▁मे	-10.5857
▁Ste	-10.5858
▁স	-10.5858
▁skulle	-10.5861
▁vil	-10.5861
▁gre	-10.5867
比	-10.587
ləri	-10.5872
rd	-10.5875
ute	-10.5876
orum	-10.5876
नि	-10.5883
▁1935	-10.5892
▁prie	-10.5893
▁Ten	-10.5898
▁Black	-10.5899
에는	-10.59
▁gen	-10.5902
▁Sau	-10.5902
3.	-10.5907
ası	-10.5908
▁42	-10.5908
▁club	-10.591
▁αν	-10.5913
ikan	-10.5914
nce	-10.5916
▁cidade	-10.5918
▁(3	-10.5918
하	-10.5919
▁leg	-10.592
లను	-10.5922
84	-10.5923
03	-10.5925
idi	-10.5928
▁זה	-10.593
▁1934	-10.5935
dr	-10.5937
мет	-10.5943
нов	-10.5944
▁48	-10.5946
মা	-10.5948
ט	-10.5952
神	-10.5952
gro	-10.5953
▁debut	-10.5954
ْ	-10.5954
rà	-10.5955
▁mü	-10.5955
▁37	-10.5956
▁pop	-10.5957
▁first	-10.5958
isht	-10.5958
vá	-10.5966
skoj	-10.5977
tzeko	-10.5978
ците	-10.5979
▁Frank	-10.598
▁chỉ	-10.5981
zh	-10.5982
▁control	-10.5984
all	-10.5985
▁ই	-10.5992
계	-10.5994
▁Ph	-10.5998
৫	-10.5998
лю	-10.5999
pit	-10.6
▁Bel	-10.6004
▁Br	-10.6004
ッ	-10.6006
ос	-10.6007
φ	-10.6007
▁još	-10.6009
cije	-10.6012
▁jsou	-10.6012
▁الذي	-10.6016
▁හා	-10.6018
オ	-10.6019
▁zona	-10.6024
▁fou	-10.6025
▁marca	-10.6028
▁novo	-10.6028
동	-10.6029
aca	-10.603
集	-10.6031
pal	-10.6032
кс	-10.6033
▁poder	-10.6033
vil	-10.6036
▁September	-10.6036
uda	-10.6036
med	-10.6037
▁gol	-10.6037
ê	-10.6038
▁ע	-10.604
▁Mit	-10.604
▁Carl	-10.6041
▁material	-10.6042
科	-10.6042
ας	-10.6043
▁single	-10.6044
82	-10.6044
▁Kan	-10.6046
▁onde	-10.6048
▁nombre	-10.6049
angan	-10.605
▁amihanan	-10.6051
▁został	-10.6052
encia	-10.6055
일에	-10.6058
κ	-10.6058
▁também	-10.6063
▁যে	-10.6063
▁zur	-10.6063
led	-10.6063
戦	-10.6064
▁vin	-10.6065
বি	-10.6067
91	-10.6073
ника	-10.6074
▁Louis	-10.6075
ane	-10.6075
▁Sta	-10.6078
▁же	-10.6082
ple	-10.6084
台	-10.6085
ssen	-10.6087
▁dapat	-10.6093
▁народ	-10.6094
من	-10.6096
▁μ	-10.6099
▁пера	-10.6099
৬	-10.6101
▁1928	-10.6102
lık	-10.6106
▁país	-10.6109
▁aktiv	-10.6109
▁agosto	-10.6112
▁ذلك	-10.6113
бо	-10.6116
som	-10.612
лек	-10.6121
-15	-10.6123
），	-10.6125
▁שה	-10.6125
向	-10.6125
হ	-10.6127
τ	-10.6128
ție	-10.6129
्	-10.613
安	-10.613
െ	-10.6133
체	-10.6138
γ	-10.614
нето	-10.6141
lia	-10.6142
▁ఇది	-10.6143
ια	-10.6147
నా	-10.6148
▁Dal	-10.6148
▁כי	-10.6148
▁Els	-10.6151
▁mà	-10.6151
å	-10.6153
관	-10.6153
ав	-10.6154
රි	-10.6156
レ	-10.616
星	-10.6161
▁end	-10.6162
৪	-10.6164
▁கா	-10.6164
▁ditu	-10.6164
して	-10.6167
▁پس	-10.6168
یت	-10.617
▁1000	-10.6172
▁Ol	-10.6175
▁kde	-10.6177
▁той	-10.6181
وس	-10.6182
▁тоа	-10.6183
演	-10.6184
▁jej	-10.6185
çi	-10.6186
▁його	-10.6187
制	-10.6188
▁sai	-10.619
▁1929	-10.6191
тен	-10.6191
▁اند	-10.6193
вар	-10.6193
ミ	-10.6193
lay	-10.6194
aan	-10.6194
▁होती	-10.6195
бра	-10.6197
igen	-10.6197
▁ras	-10.62
৮	-10.6202
▁الن	-10.6202
ερ	-10.6205
ht	-10.6205
kup	-10.6207
▁memiliki	-10.6208
▁هذا	-10.6212
…	-10.6216
హ	-10.622
▁مت	-10.6224
▁Cup	-10.6227
▁cui	-10.6228
unda	-10.6228
పు	-10.6237
ló	-10.6237
ру	-10.6242
tsu	-10.6244
▁Pol	-10.6244
▁osa	-10.6247
తి	-10.6248
▁ö	-10.6248
cus	-10.6249
호	-10.625
ijo	-10.6252
미	-10.6253
▁unter	-10.6253
iki	-10.6255
線	-10.6255
ža	-10.6256
▁Esta	-10.6257
jel	-10.6257
▁rata	-10.6257
▁sal	-10.626
gur	-10.626
lem	-10.6261
▁това	-10.6264
▁(19	-10.6265
▁sy	-10.6268
ția	-10.6268
▁ක්	-10.6269
бе	-10.6271
gr	-10.6273
▁1924	-10.6273
isen	-10.6273
৭	-10.6279
▁Из	-10.6282
yon	-10.6283
工	-10.6283
की	-10.6284
▁পর	-10.6285
ала	-10.6286
wal	-10.6289
ový	-10.6291
個	-10.6292
▁εν	-10.6296
▁ele	-10.6297
mmer	-10.6298
33	-10.6301
ούς	-10.6304
▁신	-10.6305
▁udalerrian	-10.6307
▁wird	-10.6309
▁theo	-10.6309
▁Port	-10.631
sis	-10.6313
▁உ	-10.6314
▁dit	-10.6315
院	-10.6323
▁Я	-10.6324
ουν	-10.6326
oko	-10.6326
▁Yn	-10.6333
▁chiến	-10.6335
▁Hill	-10.6337
▁Pen	-10.6339
lom	-10.6339
off	-10.6349
▁premier	-10.6349
▁tiu	-10.6353
▁або	-10.6353
平	-10.6357
▁Love	-10.636
ových	-10.6365
▁בין	-10.6365
▁Juan	-10.6366
球	-10.6368
▁1932	-10.637
▁hit	-10.637
ñ	-10.637
명	-10.6371
▁juni	-10.6371
▁baş	-10.6372
▁rehiyon	-10.6378
ving	-10.638
▁1914	-10.6383
▁Gre	-10.6385
ał	-10.6385
щ	-10.6386
eng	-10.639
▁22.	-10.6392
▁hos	-10.6393
女	-10.6398
yer	-10.6401
▁vu	-10.6403
vez	-10.6403
kle	-10.6404
isten	-10.6414
қ	-10.6415
ole	-10.6417
▁transport	-10.6418
▁janë	-10.6419
▁centro	-10.6419
inter	-10.6419
▁cun	-10.6419
inis	-10.642
borg	-10.6422
▁organ	-10.6423
▁39	-10.6424
bla	-10.6425
100	-10.6429
нар	-10.643
lega	-10.6431
對	-10.6435
сен	-10.6436
▁Joseph	-10.6437
▁क्षेत्र	-10.6439
▁president	-10.6446
▁kop	-10.6448
lus	-10.6449
ður	-10.6451
ciones	-10.6453
ként	-10.6455
sidlakan	-10.6456
ின்	-10.6456
▁fund	-10.6459
▁protiv	-10.6462
▁Бу	-10.6466
aka	-10.6469
▁spre	-10.6471
▁га	-10.6472
▁ekonomi	-10.6473
▁ஆண்டு	-10.6474
ès	-10.6477
▁מת	-10.6477
▁हुआ	-10.6478
▁Indonesia	-10.6478
alo	-10.6479
建	-10.6483
ság	-10.6484
ских	-10.6487
▁Brit	-10.6489
▁který	-10.6489
itaj	-10.649
▁xuất	-10.6492
alt	-10.6499
▁고	-10.6499
fr	-10.65
ował	-10.65
▁ani	-10.6503
▁vis	-10.6505
▁one	-10.6507
ులు	-10.6509
ish	-10.6509
ral	-10.651
つ	-10.6517
pul	-10.6519
▁civil	-10.6521
kou	-10.6521
▁www	-10.6523
eret	-10.6523
ula	-10.6524
azione	-10.6524
▁skal	-10.6526
mun	-10.6526
09	-10.6527
ιο	-10.6528
зі	-10.653
▁nam	-10.653
▁capital	-10.6532
нда	-10.6532
▁bes	-10.6535
۸	-10.6537
▁dụng	-10.6539
eau	-10.6552
ার	-10.6554
▁எ	-10.6555
▁November	-10.6555
▁sch	-10.6556
—19	-10.6562
▁cùng	-10.6562
▁Portugal	-10.6564
▁sammen	-10.6564
▁dr	-10.6564
kla	-10.6565
bir	-10.6565
▁ос	-10.6567
кан	-10.657
ҡ	-10.6573
학	-10.6574
چ	-10.6577
ട	-10.6578
▁Ya	-10.6579
▁पा	-10.6582
▁भारतीय	-10.6583
دا	-10.6584
使用	-10.6588
ungen	-10.6588
▁55	-10.6589
ную	-10.6591
▁1921	-10.6591
▁lahko	-10.6592
sed	-10.6593
▁stal	-10.6595
ני	-10.6595
▁José	-10.6597
与	-10.6597
▁кар	-10.66
▁যায়	-10.66
▁సంఖ్య	-10.6601
06	-10.6601
ـ	-10.6603
量	-10.6608
▁자	-10.6611
zon	-10.6611
▁biti	-10.6612
▁hơn	-10.6614
يه	-10.6616
ул	-10.6617
▁hay	-10.6619
▁প্রথম	-10.6622
▁75	-10.6624
ota	-10.6625
iska	-10.6628
▁बा	-10.6629
▁sv	-10.663
▁ville	-10.6631
▁bản	-10.6631
▁sport	-10.6636
ু	-10.6637
sco	-10.6637
▁Mil	-10.6641
來	-10.6642
▁소	-10.6643
車	-10.6646
▁lat	-10.6647
▁militar	-10.6647
cat	-10.6651
▁pun	-10.6652
ими	-10.6655
71	-10.6658
प्र	-10.6658
град	-10.6658
নে	-10.666
▁2004.	-10.6661
▁bor	-10.6665
▁две	-10.6667
東	-10.6667
فر	-10.6668
▁কা	-10.667
plo	-10.6671
▁Лу	-10.6674
ড	-10.6675
jon	-10.6677
ल्या	-10.668
▁ज	-10.6684
ら	-10.6685
bon	-10.6685
kut	-10.6687
▁1922	-10.6693
ivo	-10.6695
èr	-10.6695
से	-10.6701
dus	-10.6704
▁연	-10.6711
ém	-10.6712
ская	-10.6714
пер	-10.6715
▁kiuj	-10.6715
▁राज्य	-10.6716
▁25.	-10.6716
▁jedan	-10.6718
гор	-10.6721
▁Aus	-10.6723
▁dalla	-10.6727
ór	-10.673
נה	-10.673
解	-10.6732
ը	-10.6733
▁či	-10.6733
▁tamén	-10.6734
都	-10.6735
▁Ра	-10.6736
▁الف	-10.6739
▁còn	-10.674
ovo	-10.6743
▁več	-10.6745
ney	-10.6748
stad	-10.675
lev	-10.675
-5	-10.6754
▁organiz	-10.6754
▁Í	-10.6758
ły	-10.676
सी	-10.6763
כ	-10.6765
▁които	-10.6766
నే	-10.6766
▁waren	-10.6769
▁Ле	-10.6769
▁dokument	-10.677
dé	-10.6773
連	-10.6777
lá	-10.6778
▁Cal	-10.6782
▁ger	-10.6784
▁kr	-10.6784
ight	-10.6785
▁Henry	-10.6787
言	-10.6787
লে	-10.6788
▁Ди	-10.6789
動	-10.6791
▁oldu	-10.6793
▁Tan	-10.6794
▁tin	-10.6794
zan	-10.6802
▁mesmo	-10.6804
Х	-10.6804
ров	-10.6806
iai	-10.681
با	-10.6811
۴	-10.6811
ß	-10.6813
ச	-10.6813
ejo	-10.6814
▁вид	-10.6814
▁time	-10.6816
▁1931	-10.6816
▁frem	-10.6817
ף	-10.6824
▁Anh	-10.6829
▁eerste	-10.683
▁ని	-10.6831
ලි	-10.6831
kul	-10.6831
lam	-10.6832
nti	-10.684
iana	-10.684
த்து	-10.6841
ља	-10.6842
▁moment	-10.6845
▁마	-10.6845
ame	-10.6846
信	-10.6851
لا	-10.6852
▁nich	-10.6853
▁Ant	-10.6857
rie	-10.6857
▁već	-10.6858
কা	-10.6859
▁бер	-10.6861
▁(2	-10.6862
▁Ker	-10.6863
▁vitin	-10.6864
▁ప్ర	-10.6866
▁год	-10.6867
añ	-10.6871
▁الق	-10.6872
▁sitt	-10.6872
▁Ç	-10.6874
▁mol	-10.6874
ണ	-10.6874
ா	-10.6875
ją	-10.6876
מה	-10.6876
mise	-10.6878
▁Album	-10.688
▁nhân	-10.6882
った	-10.6884
pr	-10.6885
▁troch	-10.6886
ták	-10.6887
▁بن	-10.6887
غ	-10.6888
▁Cerro	-10.689
신	-10.6891
yang	-10.6892
ూ	-10.6895
▁verk	-10.6896
ო	-10.6898
▁nova	-10.6898
▁mens	-10.6898
▁poli	-10.69
ま	-10.6905
▁Kas	-10.6905
од	-10.6906
並	-10.6907
▁Band	-10.6912
eti	-10.6913
▁svoj	-10.6917
از	-10.6918
▁Qu	-10.692
对	-10.6921
{	-10.6921
ses	-10.6922
скиот	-10.6923
ском	-10.6925
▁loài	-10.6925
ول	-10.6931
メ	-10.6932
-6	-10.6934
▁انگلیسی	-10.6935
▁By	-10.6935
రీ	-10.6935
▁hau	-10.6936
▁ر	-10.6936
フ	-10.6942
ভাবে	-10.6943
сон	-10.6943
型	-10.6952
▁vý	-10.6953
▁thứ	-10.6955
රා	-10.6962
ক্ষ	-10.6962
▁unu	-10.6963
fre	-10.6964
ரு	-10.6966
▁30.	-10.6966
▁일	-10.6967
dit	-10.6969
war	-10.697
▁страна	-10.6971
▁Бо	-10.6972
пи	-10.6973
ré	-10.6973
開	-10.6981
mur	-10.6983
流	-10.6984
avi	-10.6985
▁fik	-10.6985
▁toga	-10.6993
рт	-10.6994
▁lebih	-10.6995
▁яго	-10.6996
ҙ	-10.6998
문	-10.6999
▁være	-10.7
書	-10.7004
▁1-	-10.7004
▁thuộc	-10.7007
ük	-10.7008
тон	-10.701
▁primera	-10.7012
▁ide	-10.7012
ον	-10.7012
▁hình	-10.7015
anje	-10.7016
-16	-10.7017
▁→	-10.7018
mek	-10.7019
▁boli	-10.7019
▁Windows	-10.7021
itas	-10.7023
▁định	-10.7023
ord	-10.7026
▁Washington	-10.7027
ং	-10.7027
nä	-10.7029
hus	-10.703
▁profesor	-10.7033
▁School	-10.7033
▁Gal	-10.7037
▁disse	-10.7037
▁1913	-10.7037
nden	-10.704
▁Christian	-10.704
▁Fo	-10.704
சு	-10.7042
당	-10.7045
▁тој	-10.7046
ným	-10.7047
오	-10.705
্যা	-10.7052
תו	-10.7053
타	-10.7055
▁한	-10.7058
tá	-10.7058
ుడు	-10.7058
º	-10.7061
▁조	-10.7062
▁كل	-10.7063
ró	-10.7064
▁South	-10.7064
▁$	-10.7064
▁كانت	-10.7065
ulo	-10.7067
bis	-10.7069
▁28.	-10.7077
යක්	-10.7077
సి	-10.7077
▁indi	-10.7079
ace	-10.7082
inė	-10.7082
▁zich	-10.7082
ović	-10.7088
லி	-10.7089
▁ži	-10.709
ید	-10.709
its	-10.7091
जी	-10.7092
пе	-10.7093
▁బ	-10.7093
無	-10.7094
▁who	-10.7094
▁23.	-10.7095
ют	-10.7095
▁januar	-10.7095
ls	-10.7096
▁Radio	-10.7097
▁65	-10.7099
த்தின்	-10.7101
km	-10.7101
ám	-10.7103
non	-10.7105
ына	-10.7105
▁ito	-10.7108
て	-10.7108
▁Gr	-10.7109
▁Festival	-10.7109
°	-10.7109
▁Mad	-10.711
▁є	-10.711
▁amin	-10.7111
▁استفاده	-10.7112
tako	-10.7112
▁tiếng	-10.7116
enza	-10.7116
▁1912	-10.7117
▁24.	-10.7117
▁সালের	-10.7118
vir	-10.7119
▁ty	-10.7123
ח	-10.7124
▁වන	-10.7124
ň	-10.7126
▁الج	-10.7126
Kr	-10.713
▁भ	-10.713
జ	-10.7134
▁urbo	-10.7135
৩	-10.7138
▁pur	-10.714
xa	-10.7147
▁То	-10.7148
лік	-10.7149
▁Sud	-10.715
차	-10.7153
ി	-10.7153
▁eng	-10.7154
ako	-10.7155
▁1,	-10.716
▁মধ্যে	-10.7167
▁р	-10.7168
▁bak	-10.7169
▁mala	-10.7171
ван	-10.7172
lerin	-10.7173
▁فیلم	-10.7176
▁ко	-10.7177
色	-10.7177
rov	-10.7178
भ	-10.7179
▁prije	-10.7182
러	-10.7183
۹	-10.7183
gos	-10.7185
▁прав	-10.7186
ū	-10.719
ř	-10.7191
▁einem	-10.7198
보	-10.7199
▁jak	-10.7201
von	-10.7202
gun	-10.7204
▁Stra	-10.7205
اق	-10.7208
식	-10.7209
ニ	-10.7211
bin	-10.7213
tari	-10.7214
▁प्रति	-10.7215
▁quando	-10.7216
toj	-10.7219
▁kul	-10.7219
▁Min	-10.722
区	-10.7222
▁kata	-10.7225
Bo	-10.7225
保	-10.7225
లా	-10.723
μπ	-10.723
ица	-10.7231
表	-10.7231
▁dago	-10.7231
ウ	-10.7234
ίες	-10.7234
▁سنة	-10.7235
但	-10.7235
▁mare	-10.7237
eix	-10.7239
-12	-10.7243
▁są	-10.7243
▁Φ	-10.7244
日本	-10.7244
▁Wikimedia	-10.7244
άν	-10.7254
ළ	-10.7254
бы	-10.7254
прав	-10.7255
«	-10.7257
起	-10.7259
▁Sun	-10.7259
▁kup	-10.7261
▁ska	-10.7266
▁Israel	-10.7267
ாக	-10.7268
知	-10.7269
-10	-10.7269
▁bl	-10.7271
ности	-10.7271
▁Zi	-10.7273
ologi	-10.7275
rek	-10.7276
▁27.	-10.7278
▁Cre	-10.7278
ιν	-10.7282
▁Franc	-10.7282
mand	-10.7283
▁där	-10.7284
दा	-10.7286
▁х	-10.7291
▁Zo	-10.7294
▁arasında	-10.7299
▁वा	-10.7299
ама	-10.7309
▁telah	-10.7309
klad	-10.731
anza	-10.731
▁Albert	-10.7311
▁twee	-10.7314
▁ந	-10.7315
▁Мар	-10.7318
▁vz	-10.7319
assa	-10.7319
født	-10.7325
▁една	-10.7327
ug	-10.7328
ется	-10.7331
zna	-10.7331
PDF	-10.7333
▁ते	-10.7335
▁अधिक	-10.7336
▁Χ	-10.7344
ích	-10.735
▁Hall	-10.7351
▁drugi	-10.7352
low	-10.7352
ே	-10.7353
ע	-10.7354
▁52	-10.7355
▁सु	-10.7356
▁které	-10.7357
▁são	-10.736
aceae	-10.7361
▁sinh	-10.7362
spe	-10.7366
bio	-10.7367
▁Vor	-10.7367
▁teh	-10.7369
▁cas	-10.7369
▁prav	-10.737
▁Afrika	-10.737
▁För	-10.7376
нага	-10.7377
▁pinakadu	-10.7379
али	-10.738
▁స	-10.7382
▁було	-10.7382
lü	-10.7385
lum	-10.7388
prav	-10.7388
ction	-10.7388
iran	-10.739
iro	-10.7395
மை	-10.7397
ското	-10.7401
▁Erişim	-10.7402
nym	-10.7403
▁κατα	-10.7404
▁към	-10.7405
シ	-10.7405
▁sor	-10.7406
▁red	-10.7407
▁denne	-10.7412
▁после	-10.7414
ppe	-10.7417
▁حيث	-10.7417
ק	-10.7419
фа	-10.7419
▁име	-10.7423
tru	-10.7423
指	-10.7427
чен	-10.7428
▁সাথে	-10.7429
ফ	-10.7429
▁Monte	-10.743
▁viên	-10.7431
▁Kara	-10.7431
tų	-10.7435
ത്ത	-10.7442
ецца	-10.7443
olo	-10.7445
용	-10.7446
▁সা	-10.7446
ssi	-10.7449
ial	-10.7455
카	-10.7456
▁pang	-10.7456
▁ру	-10.7456
ph	-10.7459
ər	-10.7459
▁sum	-10.7463
οί	-10.7465
路	-10.7469
▁ovat	-10.7469
rre	-10.747
▁december	-10.7471
▁समय	-10.7472
ną	-10.7472
▁Sie	-10.7475
▁1905	-10.7476
▁place	-10.7477
▁đồng	-10.748
oso	-10.7482
▁който	-10.7486
أ	-10.7487
▁cuộc	-10.7488
▁1908	-10.749
▁degli	-10.7494
лет	-10.7498
▁Су	-10.7499
▁कुछ	-10.7503
१	-10.7504
ダ	-10.7505
▁него	-10.7505
lap	-10.7506
▁Mur	-10.7507
▁akan	-10.7507
▁Eu	-10.7514
▁26.	-10.7514
▁På	-10.7517
६	-10.7519
▁1910	-10.752
▁Om	-10.752
▁later	-10.7521
可	-10.7522
▁비	-10.7524
etako	-10.7525
▁kaumahan	-10.7527
▁Anna	-10.7529
▁andra	-10.7531
▁merupakan	-10.7536
▁Č	-10.7536
इ	-10.7539
tem	-10.7541
інің	-10.7542
▁Ed	-10.7542
▁نا	-10.7542
ios	-10.7542
▁تر	-10.7544
Se	-10.7545
▁64	-10.7546
二	-10.7546
nú	-10.7547
▁kunne	-10.7548
esi	-10.7549
களின்	-10.7558
ाच्या	-10.7559
۷	-10.7559
тор	-10.7563
▁deux	-10.7563
ష	-10.7563
२	-10.7563
▁(4	-10.7563
নের	-10.7564
▁sang	-10.7566
▁Hon	-10.7566
▁baz	-10.7572
▁1915	-10.7575
▁thực	-10.7577
反	-10.7577
ams	-10.7577
liv	-10.7581
空	-10.7582
▁vom	-10.7583
ाई	-10.7583
08	-10.7586
▁Trans	-10.759
▁był	-10.759
owej	-10.7591
▁מו	-10.7592
▁Л	-10.7595
▁இவர்	-10.7598
▁त	-10.7601
▁कारण	-10.7601
tivo	-10.7605
▁έχει	-10.7605
pil	-10.7606
▁Central	-10.7607
▁See	-10.761
ար	-10.761
▁много	-10.7611
▁cả	-10.7614
пис	-10.7618
▁ис	-10.762
▁무	-10.762
ள	-10.762
▁Ро	-10.7622
bud	-10.7631
▁vend	-10.7633
▁poste	-10.7637
▁Rio	-10.7639
lara	-10.7643
gat	-10.7644
▁primeiro	-10.7645
▁वर्ष	-10.765
▁श	-10.765
jat	-10.766
லா	-10.7666
plan	-10.7666
▁karena	-10.7668
נו	-10.767
▁Elle	-10.7674
клад	-10.7676
El	-10.7677
уваат	-10.7677
▁ich	-10.7678
▁ප	-10.7679
▁gel	-10.768
anto	-10.7683
اس	-10.7684
लो	-10.7684
▁vest	-10.7684
▁camp	-10.7685
isse	-10.7686
▁Ю	-10.7687
▁cele	-10.7689
▁grund	-10.769
▁their	-10.7692
爾	-10.7693
▁kont	-10.7696
τε	-10.7696
უ	-10.7698
▁sien	-10.7698
▁ומ	-10.7699
▁י	-10.77
long	-10.7701
▁todo	-10.7704
sha	-10.7705
dina	-10.7707
ons	-10.7708
使	-10.7708
nings	-10.7708
▁Кар	-10.7712
▁gal	-10.7712
sak	-10.7716
։	-10.7718
▁że	-10.7719
▁قد	-10.772
^{	-10.7722
▁후	-10.7722
▁1916	-10.7722
έ	-10.7723
▁†	-10.7724
▁també	-10.7725
▁αλλά	-10.7725
▁só	-10.7726
eni	-10.7728
щи	-10.773
▁Ми	-10.7731
▁Sh	-10.7732
式	-10.7735
یم	-10.7743
▁कम	-10.7743
▁nebo	-10.7744
▁Хо	-10.7748
▁β	-10.7748
▁major	-10.7752
▁this	-10.7753
▁ole	-10.7754
lands	-10.7755
▁King	-10.7755
ූ	-10.7755
▁ĝis	-10.7757
vre	-10.7757
▁Fin	-10.7758
সি	-10.776
ort	-10.7761
వా	-10.7766
공	-10.7766
美	-10.7768
隊	-10.7772
ան	-10.7774
gna	-10.7777
▁ආ	-10.7777
ében	-10.7779
キ	-10.778
▁ব্যবহার	-10.7781
▁són	-10.7786
▁29.	-10.7787
▁ç	-10.7788
aga	-10.7788
▁its	-10.7788
▁she	-10.7791
▁प्रकार	-10.7793
гер	-10.7793
▁Barcelona	-10.7799
ří	-10.7799
▁나	-10.7803
nta	-10.7809
cc	-10.7811
cións	-10.7811
аль	-10.7813
σε	-10.7816
▁نفر	-10.7816
▁teori	-10.7816
nal	-10.7817
ड़	-10.7823
nh	-10.7826
field	-10.7828
మి	-10.7829
▁είχε	-10.7833
nji	-10.7836
▁θα	-10.7836
бі	-10.7836
mış	-10.7841
५	-10.7842
знач	-10.7843
▁있는	-10.7845
▁Ši	-10.7845
heim	-10.7846
ঁ	-10.7847
மாக	-10.7856
タ	-10.7858
pus	-10.7859
inta	-10.7859
ää	-10.7859
4.	-10.7859
▁komon	-10.786
isa	-10.786
▁nego	-10.7862
కా	-10.7862
▁kol	-10.7862
­	-10.7863
۶	-10.7863
ाचे	-10.7869
▁industri	-10.7869
▁2002.	-10.787
ր	-10.787
гар	-10.7871
▁Ji	-10.7872
▁meng	-10.7872
▁kg	-10.7874
布	-10.7874
owych	-10.7876
▁(14	-10.7877
▁Kim	-10.7878
ış	-10.7878
esc	-10.7879
古	-10.788
bili	-10.7881
61	-10.7881
▁এটি	-10.7882
▁talagsaon	-10.7885
▁segundo	-10.7889
▁करते	-10.7893
▁vật	-10.7893
▁بی	-10.7893
avo	-10.7894
ping	-10.7894
군	-10.7895
或	-10.7895
光	-10.7897
▁бел	-10.7899
eh	-10.79
▁الا	-10.7901
heid	-10.7902
▁Euro	-10.7903
larında	-10.7905
▁بین	-10.7908
▁Ap	-10.7911
३	-10.7912
▁bay	-10.7915
uto	-10.7916
Li	-10.7918
ո	-10.7919
年に	-10.7919
σ	-10.792
交	-10.7921
eco	-10.7924
▁primeira	-10.7924
▁Quốc	-10.7925
ppen	-10.7926
▁wurden	-10.7926
▁Γ	-10.7928
kos	-10.7932
ós	-10.7933
▁(5	-10.7939
bes	-10.7939
▁lớn	-10.7942
▁shumë	-10.7943
▁Lan	-10.7944
▁element	-10.7947
▁Royal	-10.7947
άρ	-10.7947
feld	-10.7949
dri	-10.7951
▁även	-10.7951
▁1911	-10.7955
員	-10.7959
見	-10.796
rang	-10.796
▁Angeles	-10.796
▁deze	-10.7961
▁120	-10.7962
▁Gen	-10.7962
▁mund	-10.7966
یه	-10.7966
lek	-10.7968
▁mange	-10.7971
▁első	-10.7972
tio	-10.7973
▁הו	-10.7973
стра	-10.7977
▁mundo	-10.7978
अ	-10.798
ibus	-10.7981
lí	-10.7982
ോ	-10.7986
▁وجود	-10.799
ow	-10.799
|	-10.7995
▁tên	-10.7998
▁Guerra	-10.7998
ौ	-10.7999
▁đ	-10.8
ें	-10.8001
▁Kra	-10.8002
▁Gra	-10.8002
ек	-10.8005
▁dor	-10.8005
▁kaip	-10.8005
▁ලෙස	-10.8006
teri	-10.8007
▁성	-10.8008
크	-10.8008
మా	-10.801
▁kraj	-10.8015
▁seorang	-10.8015
▁తన	-10.8019
ए	-10.8019
▁என்ற	-10.8021
۰	-10.8021
▁pasi	-10.8022
ගේ	-10.8022
▁độ	-10.8024
▁Lietuvos	-10.8024
▁ම	-10.8027
▁Wy	-10.8028
مر	-10.8029
▁CD	-10.8031
少	-10.8034
军	-10.8041
▁Hun	-10.8042
▁cách	-10.8046
об	-10.8047
aran	-10.8047
tiva	-10.8049
ants	-10.8053
nnen	-10.8054
usta	-10.8056
▁Nobel	-10.8056
în	-10.8057
னி	-10.8057
▁Daniel	-10.8057
▁marzo	-10.8057
▁ин	-10.8058
▁aber	-10.806
▁heeft	-10.8061
▁bởi	-10.8062
த்தை	-10.8066
▁problem	-10.8066
side	-10.8067
vali	-10.807
▁Francisco	-10.8071
ations	-10.8071
like	-10.8071
▁съ	-10.8071
rup	-10.8073
▁bel	-10.8074
▁రా	-10.8076
約	-10.8077
▁North	-10.8079
▁laŭ	-10.8081
▁Ι	-10.8083
▁তাঁর	-10.8086
▁место	-10.8086
▁mutta	-10.8087
fat	-10.8087
当	-10.8087
hod	-10.8087
▁xa	-10.809
ति	-10.8093
▁43	-10.8093
進	-10.8095
▁Hann	-10.8097
ының	-10.8098
fort	-10.8099
▁huet	-10.8099
▁nekoliko	-10.8102
ського	-10.8102
дел	-10.8107
▁мен	-10.8108
▁trở	-10.811
கா	-10.811
▁nhưng	-10.8111
ase	-10.8111
ෝ	-10.8113
acion	-10.8115
み	-10.8116
▁Ку	-10.812
urile	-10.8123
米	-10.8123
▁tip	-10.8126
ρ	-10.8127
▁Các	-10.8132
身	-10.8136
aus	-10.8136
त्र	-10.8141
▁2-	-10.8145
Na	-10.8146
▁park	-10.815
▁după	-10.8151
▁Azərbaycan	-10.8151
▁Mart	-10.8153
lot	-10.8154
▁2001.	-10.8155
mia	-10.8155
▁Kol	-10.8157
67	-10.8159
uch	-10.8159
▁ans	-10.8159
▁ш	-10.8159
티	-10.816
pon	-10.816
▁God	-10.8161
▁Che	-10.8162
čka	-10.8162
ması	-10.8164
скай	-10.8164
फ	-10.8165
دي	-10.8166
kun	-10.8166
▁كما	-10.8168
ז	-10.8169
sum	-10.8169
▁הא	-10.817
rono	-10.817
此	-10.817
ència	-10.8171
▁dun	-10.8171
▁th	-10.8173
tı	-10.8174
種	-10.8177
▁Nach	-10.8177
▁kontrol	-10.8178
▁개	-10.8179
え	-10.8182
ír	-10.8182
▁cara	-10.8186
▁stat	-10.8188
▁сам	-10.8191
▁durant	-10.8194
▁até	-10.8196
▁Database	-10.8196
▁Ха	-10.8197
lio	-10.8199
usa	-10.82
▁Kun	-10.8206
▁dom	-10.8206
খ	-10.8206
лся	-10.8213
वी	-10.8214
jú	-10.8218
形	-10.8219
ування	-10.8219
cle	-10.822
fra	-10.8221
▁coma	-10.8224
گ	-10.8225
▁mora	-10.8231
▁Kir	-10.8231
▁Auf	-10.8231
并	-10.8232
▁הנ	-10.8235
▁ji	-10.8236
▁ක	-10.8236
▁Bas	-10.8238
▁பா	-10.8238
ভ	-10.8239
英语	-10.8239
ු	-10.8241
jä	-10.8241
nego	-10.8242
mıştır	-10.8243
▁الص	-10.8243
▁ofte	-10.8244
▁vị	-10.8244
时	-10.8244
ských	-10.8246
▁세	-10.8249
skap	-10.8251
▁род	-10.8251
टी	-10.8251
тел	-10.8253
Ro	-10.8254
tif	-10.8257
нь	-10.8262
скі	-10.8265
▁One	-10.8266
pra	-10.8267
▁hand	-10.8269
û	-10.827
▁2003.	-10.8272
▁οποία	-10.828
mme	-10.828
▁pet	-10.8282
▁ఉన్నాయి	-10.8282
▁gradu	-10.8283
▁more	-10.8287
▁pus	-10.8288
čan	-10.8288
わ	-10.829
▁bli	-10.829
▁ε	-10.8292
ях	-10.8295
▁कार्य	-10.8298
世界	-10.8298
▁1906	-10.8298
▁prej	-10.8299
▁(12	-10.83
ví	-10.83
ony	-10.8302
யா	-10.8302
▁také	-10.8304
▁wat	-10.8306
▁구	-10.8308
▁כל	-10.831
band	-10.831
யை	-10.8317
▁stanovništva	-10.8319
▁document	-10.8319
▁dette	-10.8319
間	-10.8321
னை	-10.8321
iku	-10.8322
▁Ut	-10.8322
igi	-10.8323
stin	-10.8325
▁anul	-10.8325
▁phải	-10.8326
вод	-10.8327
suba	-10.8327
دی	-10.8327
llen	-10.8328
ään	-10.833
▁giới	-10.833
▁ச	-10.8333
▁vagy	-10.8335
▁인	-10.8336
프	-10.8336
▁standard	-10.8336
мор	-10.8337
▁זו	-10.8337
▁pää	-10.8345
▁које	-10.8345
চ	-10.8348
▁సం	-10.8348
▁עד	-10.8352
acija	-10.8353
tim	-10.8354
▁ise	-10.8356
tag	-10.8356
▁ये	-10.8357
▁hier	-10.8359
パ	-10.8359
issä	-10.8362
▁سی	-10.8362
▁noong	-10.8362
▁Yu	-10.8363
▁sel	-10.8365
▁strane	-10.8369
▁Ai	-10.8377
▁אי	-10.8377
▁دیگر	-10.8379
лары	-10.8381
uf	-10.8382
onia	-10.8382
hem	-10.8386
▁خلال	-10.8387
▁zi	-10.8387
▁δ	-10.8389
▁mere	-10.8391
voj	-10.8392
ligt	-10.8392
test	-10.8393
ない	-10.8398
ंड	-10.8398
업	-10.8399
)،	-10.8402
▁State	-10.8404
▁fait	-10.8406
▁two	-10.8408
τά	-10.8408
மான	-10.8409
▁život	-10.841
mba	-10.8411
ම්	-10.8415
▁1900	-10.8417
ίου	-10.8418
ву	-10.842
▁Europe	-10.8421
という	-10.8422
▁44	-10.8423
के	-10.8424
城	-10.8424
edi	-10.8429
rs	-10.843
تو	-10.8434
▁lập	-10.8434
▁अन्य	-10.8435
কার	-10.8435
▁الس	-10.8437
▁Ek	-10.8438
ция	-10.8439
▁preko	-10.8439
zor	-10.8439
경	-10.844
cker	-10.8441
▁Vel	-10.8442
hang	-10.8442
kol	-10.8443
▁Fer	-10.8443
▁hasta	-10.8449
83	-10.845
ांत	-10.8452
Ra	-10.8458
ello	-10.846
ρι	-10.8461
ին	-10.8462
▁оп	-10.8462
▁दो	-10.8463
ција	-10.8464
jung	-10.8467
▁عدد	-10.8468
taan	-10.8472
▁smrti	-10.8473
Or	-10.8473
وان	-10.8475
मी	-10.8475
▁цел	-10.8476
72	-10.8476
▁פ	-10.8479
fel	-10.8481
▁programa	-10.8485
aro	-10.8487
ék	-10.8487
ної	-10.8495
uga	-10.8498
album	-10.85
▁estado	-10.85
▁rằng	-10.8501
▁भाग	-10.8503
▁হয়ে	-10.8505
۵	-10.8505
inte	-10.8505
▁Neu	-10.8505
▁također	-10.8506
▁uno	-10.8506
▁След	-10.8506
▁Press	-10.8507
bul	-10.8507
▁spa	-10.8508
iel	-10.8508
▁εξ	-10.8509
▁Mir	-10.851
Mo	-10.852
δ	-10.8521
टा	-10.8521
boj	-10.8521
▁And	-10.8521
▁він	-10.8522
ա	-10.8523
▁φ	-10.8525
uli	-10.8526
▁titul	-10.8528
лин	-10.8528
lama	-10.8528
న్న	-10.8529
istä	-10.853
▁1907	-10.8531
▁הש	-10.8531
▁fut	-10.8537
▁khu	-10.8537
וק	-10.854
zie	-10.8542
iť	-10.8545
–18	-10.8548
『	-10.8549
▁ص	-10.855
近	-10.855
ява	-10.8554
레	-10.8554
田	-10.8554
▁41	-10.8556
кон	-10.8557
▁nes	-10.8558
▁mille	-10.8559
▁tipo	-10.8559
ø	-10.8559
för	-10.8561
cé	-10.8563
▁kam	-10.8563
nova	-10.8565
schaft	-10.8567
적인	-10.8567
ëve	-10.8567
▁él	-10.8569
▁സ	-10.8571
▁Arm	-10.8572
阿	-10.8574
▁장	-10.8575
ete	-10.8575
▁Long	-10.8576
tí	-10.8578
▁해	-10.8578
▁China	-10.8579
▁estat	-10.858
▁ایران	-10.858
uti	-10.8583
கு	-10.8584
행	-10.8589
▁einen	-10.8591
ales	-10.8591
▁Leta	-10.8593
▁Мо	-10.8594
۳	-10.8597
mektedir	-10.8597
▁Sir	-10.8598
▁gang	-10.8598
▁600	-10.86
社	-10.86
ėjo	-10.86
▁metro	-10.8608
▁spor	-10.8608
루	-10.8609
ち	-10.861
gia	-10.8612
▁ενώ	-10.8613
▁tiên	-10.8613
▁bằng	-10.8613
▁ни	-10.8614
▁osob	-10.8614
▁tự	-10.8618
inio	-10.8619
▁mur	-10.8619
▁스	-10.862
▁ту	-10.862
▁hợp	-10.8622
inger	-10.8624
▁йылда	-10.8625
njem	-10.8628
rez	-10.8628
als	-10.8628
ντ	-10.863
その	-10.8631
選	-10.8631
iert	-10.8632
▁politik	-10.8633
tallet	-10.8633
kke	-10.864
tit	-10.8642
▁Pla	-10.8648
ból	-10.8649
स्	-10.8649
▁kamp	-10.865
▁phần	-10.8653
fil	-10.8653
EN	-10.8654
▁Kanada	-10.8656
part	-10.8657
▁Anti	-10.8657
▁Bukid	-10.8658
ούν	-10.8659
▁توسط	-10.866
개	-10.8661
▁Smith	-10.8664
ði	-10.8665
אי	-10.8665
idos	-10.8667
దు	-10.8671
▁करता	-10.8672
▁loc	-10.8673
ブ	-10.8673
७	-10.8674
▁Ə	-10.8675
▁dopo	-10.8675
Ш	-10.8677
▁சி	-10.8678
টা	-10.8679
▁kasnije	-10.868
▁Ви	-10.868
பி	-10.8681
▁//	-10.8682
tia	-10.8687
종	-10.8687
′00″	-10.8689
▁इसके	-10.8689
rot	-10.8693
स्त	-10.8693
▁সে	-10.8694
▁tog	-10.8695
▁ഒരു	-10.8695
ить	-10.8695
ур	-10.8699
ंत	-10.8701
▁Tele	-10.8703
dt	-10.8704
▁상	-10.8704
ders	-10.8704
owy	-10.8705
డు	-10.8705
ண	-10.8706
мы	-10.8711
யாக	-10.8712
▁hade	-10.8713
▁fem	-10.8715
pres	-10.8718
▁Bank	-10.872
▁лет	-10.8721
히	-10.8722
▁sina	-10.8722
λε	-10.8722
▁Но	-10.8726
Po	-10.8727
▁dass	-10.8729
lic	-10.873
▁tru	-10.873
iano	-10.8733
ズ	-10.8735
▁काम	-10.8735
لو	-10.8737
▁Plan	-10.8737
▁hen	-10.8739
▁đội	-10.8742
▁է	-10.8742
▁Ez	-10.8742
لی	-10.8743
ין	-10.8744
вы	-10.8748
തി	-10.875
▁kann	-10.8751
owa	-10.8752
▁உள்ள	-10.8753
गा	-10.8753
kh	-10.8754
▁eks	-10.8754
lina	-10.8756
ικής	-10.876
▁Cho	-10.876
2,	-10.8761
▁وأ	-10.8762
каз	-10.8763
ვ	-10.8767
Α	-10.8767
uit	-10.8768
▁клуб	-10.8772
▁2010,	-10.8772
larda	-10.8772
ère	-10.8774
▁Ky	-10.8775
▁код	-10.8776
▁ker	-10.8779
心	-10.8779
▁एवं	-10.878
ут	-10.8781
▁등	-10.8782
king	-10.8782
ovala	-10.8786
ées	-10.8789
ред	-10.8792
ška	-10.8792
リー	-10.8792
▁Up	-10.8794
▁dua	-10.8795
▁eftir	-10.8798
四	-10.8799
▁ки	-10.88
▁Trong	-10.8804
▁þar	-10.8804
▁masa	-10.8806
▁havia	-10.8809
kli	-10.881
kä	-10.881
tár	-10.8811
▁Grad	-10.8811
▁få	-10.8812
▁গ	-10.8813
▁Ц	-10.8814
eld	-10.8815
ో	-10.8816
▁niin	-10.8817
يس	-10.8818
▁thị	-10.8818
▁47	-10.8818
ун	-10.8818
▁Mari	-10.8818
eze	-10.8826
ση	-10.8828
▁선	-10.8831
लाई	-10.8832
stav	-10.8832
▁mult	-10.8834
stu	-10.8834
▁Kap	-10.8835
▁ста	-10.8835
▁This	-10.8838
▁ד	-10.8838
hed	-10.8838
▁lett	-10.8838
ում	-10.884
ακ	-10.8844
▁Lee	-10.8844
ە	-10.8845
▁оста	-10.8846
▁зна	-10.8848
▁سو	-10.8849
터	-10.885
юць	-10.885
▁region	-10.8851
▁len	-10.8852
토	-10.8853
hold	-10.8853
जा	-10.8854
zko	-10.8858
بل	-10.8859
▁taj	-10.8859
ense	-10.886
▁karakter	-10.8862
▁student	-10.8864
▁administra	-10.8864
has	-10.8865
०	-10.8867
sso	-10.8868
ায়	-10.8869
ప్	-10.8871
▁välja	-10.8871
▁jer	-10.8873
▁kimi	-10.8874
▁Ir	-10.8875
▁çok	-10.8876
記	-10.8879
▁මෙම	-10.8882
▁aby	-10.8883
dən	-10.8884
▁között	-10.8887
▁Stadt	-10.8887
▁Pr	-10.8888
发	-10.8889
▁kus	-10.889
▁53	-10.8891
巴	-10.8894
▁maior	-10.8896
▁కా	-10.8897
常	-10.8899
グ	-10.8901
▁ন	-10.8902
аш	-10.8904
▁havas	-10.8904
mb	-10.8904
▁kanal	-10.8904
ey	-10.8908
jär	-10.8909
۱	-10.891
▁Som	-10.8912
▁lain	-10.8914
▁(«	-10.8916
▁1909	-10.8917
▁liga	-10.8918
▁reform	-10.8921
就	-10.8921
koa	-10.8921
▁thống	-10.8932
▁یکی	-10.8933
▁että	-10.8933
tten	-10.8934
қа	-10.8934
▁senere	-10.8935
▁bre	-10.8938
▁სა	-10.8938
মি	-10.8943
utu	-10.8944
▁исто	-10.8945
kka	-10.8948
ζ	-10.8948
බ	-10.8949
▁premi	-10.895
▁pis	-10.8951
▁Sha	-10.8954
▁new	-10.8956
▁Rod	-10.8959
▁орган	-10.8959
▁lokal	-10.896
aux	-10.8961
ће	-10.8961
▁Open	-10.8962
▁हुए	-10.8962
ستان	-10.8962
cca	-10.8963
▁Juni	-10.8963
▁abril	-10.8967
▁stre	-10.8969
▁pré	-10.897
▁член	-10.897
دن	-10.8971
▁وقد	-10.8972
вин	-10.8973
-11	-10.8973
▁kali	-10.8974
▁pl	-10.8976
اح	-10.8976
▁iar	-10.8977
▁lượng	-10.8977
▁pin	-10.8978
▁Gro	-10.8978
▁Mat	-10.8978
▁وفي	-10.8981
▁Out	-10.8981
▁2008,	-10.8982
ετ	-10.8985
cem	-10.8985
تا	-10.8988
aĵo	-10.8989
▁lý	-10.899
▁también	-10.8995
尼	-10.8995
ovej	-10.8997
▁1904	-10.8998
ct	-10.8999
spor	-10.9002
▁Form	-10.9004
再	-10.9004
▁best	-10.9005
ologia	-10.9007
elo	-10.9007
dil	-10.9008
▁शहर	-10.901
▁между	-10.9011
▁coa	-10.9014
▁чи	-10.9016
▁Τα	-10.9016
▁Accesat	-10.9016
▁nagy	-10.9017
▁important	-10.9018
okat	-10.9019
▁been	-10.9019
▁ал	-10.9021
▁años	-10.9023
▁Bio	-10.9024
▁Ки	-10.9026
-7	-10.9026
ασ	-10.9027
▁normal	-10.903
kaz	-10.9031
포	-10.9032
kil	-10.9033
デ	-10.9034
▁XVI	-10.9035
▁England	-10.9038
▁professor	-10.9038
rom	-10.9038
▁fort	-10.9038
iju	-10.9041
భ	-10.9041
▁בו	-10.9043
▁pertama	-10.9043
▁Movie	-10.9043
ule	-10.9045
官	-10.9048
स्ट	-10.9048
▁περι	-10.905
fal	-10.9051
ட்டு	-10.9052
▁הה	-10.9058
され	-10.906
ορ	-10.9061
פי	-10.9064
▁मु	-10.9064
▁46	-10.9066
▁Rom	-10.9068
▁ev	-10.9069
ষ	-10.907
▁bile	-10.907
▁Ә	-10.907
▁asteroid	-10.9071
▁2011,	-10.9071
▁ना	-10.9074
▁ח	-10.9075
ступ	-10.9077
ties	-10.9077
▁februar	-10.9077
들	-10.908
рам	-10.9082
ე	-10.9084
▁във	-10.9086
물	-10.9086
▁pří	-10.9086
ску	-10.9087
▁கு	-10.9087
▁temps	-10.9089
▁Ö	-10.9089
ског	-10.909
▁reg	-10.9093
ń	-10.9093
hol	-10.9095
▁pare	-10.9095
jski	-10.9096
andi	-10.9097
ץ	-10.9098
▁gla	-10.9098
לי	-10.9099
▁Sp	-10.9101
ై	-10.9103
▁koristi	-10.9103
▁oblasti	-10.9104
ん	-10.9107
▁Din	-10.9107
▁2006,	-10.9111
▁(10	-10.9112
rë	-10.9114
▁XVIII	-10.9116
▁thu	-10.9116
▁outros	-10.912
▁refer	-10.9122
aja	-10.9123
▁больш	-10.9123
ški	-10.9125
ற	-10.9125
ध	-10.9126
▁முதல்	-10.9126
▁প	-10.9127
▁dove	-10.9128
arte	-10.9129
▁fir	-10.9129
▁foto	-10.913
▁direct	-10.9131
ində	-10.9132
▁ana	-10.9134
▁glas	-10.9136
▁store	-10.9139
వు	-10.9139
▁provincia	-10.914
▁פי	-10.9144
▁elle	-10.9144
▁Prema	-10.9145
லை	-10.9145
cel	-10.9148
uka	-10.9149
▁nhận	-10.915
▁Indi	-10.915
ım	-10.915
▁anys	-10.9152
stel	-10.9152
osi	-10.9158
Sa	-10.916
▁mint	-10.9161
▁hy	-10.9162
▁nä	-10.9167
馬	-10.9167
став	-10.917
chu	-10.9171
▁все	-10.9171
▁član	-10.9172
戰	-10.9173
ൂ	-10.9174
▁Del	-10.9175
ాలను	-10.918
نت	-10.918
४	-10.9181
rta	-10.9181
▁Efter	-10.9184
yk	-10.9185
▁sine	-10.9185
スト	-10.9186
▁אך	-10.9186
odi	-10.9187
gn	-10.9191
회	-10.9191
нат	-10.9191
▁आहेत	-10.9193
音	-10.9194
-9	-10.9194
▁tar	-10.9195
▁Trung	-10.9195
▁Ло	-10.9196
eria	-10.9197
▁eigen	-10.9198
▁Mc	-10.9198
▁(6	-10.9202
▁todos	-10.9202
▁grav	-10.9203
ohet	-10.9204
▁svet	-10.9204
▁план	-10.9205
▁popisu	-10.9205
rac	-10.9209
cri	-10.921
▁31.	-10.9211
▁Ort	-10.9214
▁కు	-10.9214
▁thường	-10.9214
▁set	-10.9215
達	-10.9219
ęs	-10.9219
▁미	-10.9221
talet	-10.9221
hit	-10.9222
키	-10.9224
ించ	-10.9225
▁ഇ	-10.9228
▁mono	-10.9228
▁familie	-10.9228
▁الح	-10.9229
▁pil	-10.9231
vio	-10.9234
anja	-10.9236
γκ	-10.9237
首	-10.9237
▁poznat	-10.9238
стер	-10.924
▁exp	-10.9242
יי	-10.9242
▁fond	-10.9243
tun	-10.9243
▁haar	-10.9244
aya	-10.9245
▁Ele	-10.9245
朝	-10.9246
▁Mars	-10.9246
▁đi	-10.9249
▁54	-10.925
მა	-10.9251
اه	-10.9251
太	-10.9253
▁festival	-10.9254
▁atom	-10.9256
▁trình	-10.9257
ക്	-10.9258
▁اما	-10.9259
される	-10.9259
▁вер	-10.9262
▁után	-10.9263
▁ছিলেন	-10.9263
bli	-10.9264
bot	-10.9264
ॅ	-10.9264
▁கோ	-10.9264
නි	-10.9272
▁(13	-10.9272
دو	-10.9272
▁nime	-10.9273
▁tren	-10.9273
▁ра	-10.9274
win	-10.9275
▁druge	-10.9278
TV	-10.9282
ungs	-10.9283
our	-10.9284
кар	-10.9285
▁plu	-10.9287
▁देश	-10.9287
▁trước	-10.9287
со	-10.9287
▁organis	-10.9288
ود	-10.9288
сел	-10.9289
▁ഈ	-10.9289
▁mesto	-10.9292
Pa	-10.9294
▁gener	-10.9294
ное	-10.9296
因	-10.9297
يم	-10.9297
▁Liga	-10.9298
▁Af	-10.9302
▁Pop	-10.9303
▁klas	-10.9307
▁суд	-10.9308
ज़	-10.931
▁пар	-10.931
hon	-10.9311
▁aos	-10.9312
▁bahasa	-10.9312
itate	-10.9313
▁UEFA	-10.9313
▁hội	-10.9315
▁Tai	-10.9315
▁out	-10.9317
ської	-10.9319
ude	-10.932
▁andere	-10.9321
क्ष	-10.9322
▁Arab	-10.9324
kir	-10.9324
▁mark	-10.9325
aŭ	-10.9329
간	-10.9331
cent	-10.9332
▁đại	-10.9332
ric	-10.9334
▁East	-10.9334
▁آمریکا	-10.9335
erede	-10.9337
▁Ser	-10.9338
에게	-10.9339
▁Will	-10.9342
▁veel	-10.9342
dam	-10.9342
▁Reg	-10.9344
▁שב	-10.9346
▁jedna	-10.9348
▁жа	-10.9349
▁יותר	-10.935
انه	-10.935
▁بار	-10.9352
εν	-10.9352
▁hag	-10.9352
▁गो	-10.9353
▁2007,	-10.9355
dol	-10.9357
ago	-10.9357
top	-10.9361
bach	-10.9361
▁Gor	-10.9361
ණ	-10.9364
ické	-10.9365
εται	-10.9365
chy	-10.9367
▁250	-10.9367
nsa	-10.9371
▁cơ	-10.9371
ँ	-10.9373
林	-10.9376
یان	-10.9376
야	-10.9377
اط	-10.9377
aq	-10.9378
되어	-10.9379
▁Parti	-10.938
▁novembre	-10.9381
cor	-10.9384
eza	-10.9385
ines	-10.9387
èl	-10.9388
पा	-10.9388
▁hele	-10.9389
サ	-10.939
▁цар	-10.939
▁где	-10.9392
▁Sil	-10.9394
島	-10.9395
larının	-10.9396
▁ac	-10.9397
ији	-10.9399
▁Τ	-10.94
▁kralj	-10.9401
жен	-10.9402
unt	-10.9404
ξ	-10.9405
ष	-10.9405
▁رو	-10.9405
▁bolo	-10.9406
▁primo	-10.9407
▁phố	-10.9409
str	-10.9411
▁بي	-10.9411
▁giải	-10.9412
ӣ	-10.9412
▁Об	-10.9414
▁Antonio	-10.9416
▁color	-10.9417
yd	-10.9418
▁tik	-10.9419
▁Comp	-10.9422
▁publik	-10.9423
-20	-10.9424
stat	-10.9426
▁plaats	-10.9427
তি	-10.9428
▁800	-10.9433
▁treba	-10.9434
▁essere	-10.9436
▁Naj	-10.9436
ති	-10.9436
▁nama	-10.9437
öv	-10.9441
út	-10.9442
▁Ye	-10.9445
čno	-10.9445
▁VII	-10.9445
▁música	-10.9446
死	-10.9447
▁Jahr	-10.9448
▁також	-10.9448
▁це	-10.9449
ının	-10.9449
տ	-10.9449
共	-10.9453
▁ול	-10.9455
gua	-10.9456
▁sekä	-10.946
▁bylo	-10.9461
ып	-10.9462
dd	-10.9463
rán	-10.9464
она	-10.9466
▁kết	-10.9467
lk	-10.9467
▁වූ	-10.9469
uc	-10.9469
ற்ற	-10.9471
бар	-10.9472
▁ව	-10.9473
▁chức	-10.9475
将	-10.9477
▁Filip	-10.9477
фи	-10.9478
▁ә	-10.9479
▁két	-10.9479
etti	-10.948
oro	-10.9481
ník	-10.9481
शी	-10.9481
وي	-10.9481
▁produkt	-10.9482
১	-10.9482
}}}	-10.9483
рус	-10.9484
▁ఏ	-10.9484
▁многу	-10.9485
▁voi	-10.9485
▁Akademi	-10.9489
▁ஏ	-10.949
gri	-10.949
wy	-10.9492
▁system	-10.9493
実	-10.9497
çe	-10.9498
irao	-10.9501
▁49	-10.9503
८	-10.9505
▁rok	-10.9505
ット	-10.951
▁Francia	-10.9511
▁stad	-10.9512
יק	-10.9516
ський	-10.9516
▁IC	-10.9517
▁mang	-10.9518
kre	-10.9518
▁№	-10.952
▁Tak	-10.952
▁Time	-10.9522
▁κ	-10.9522
▁ز	-10.9522
▁الر	-10.9522
heit	-10.9522
▁закон	-10.9523
ده	-10.9525
▁دست	-10.9526
èn	-10.9528
▁इन	-10.9531
▁Ор	-10.9531
ыр	-10.9534
Ε	-10.9536
▁Če	-10.9537
чу	-10.9539
▁Ul	-10.9539
ias	-10.9541
▁উ	-10.9543
▁δύο	-10.9544
▁representa	-10.9546
▁Ia	-10.9546
▁उन्होंने	-10.9547
బ	-10.9549
▁भाषा	-10.955
▁College	-10.9551
owe	-10.9551
▁déi	-10.9553
rel	-10.9553
各	-10.9554
▁tidligere	-10.9554
▁ќе	-10.9555
▁número	-10.9556
▁Johann	-10.9556
Ha	-10.9556
▁Green	-10.9557
З	-10.9557
дзе	-10.9559
ică	-10.9559
▁Iran	-10.9563
ture	-10.9564
▁bot	-10.9567
▁toimi	-10.9569
▁Ros	-10.9571
enda	-10.9572
▁Jack	-10.9572
ιά	-10.9573
▁کنند	-10.9574
кра	-10.9575
▁ĉi	-10.9576
llo	-10.9577
▁ст	-10.958
nus	-10.9583
▁ljudi	-10.9583
▁tiếp	-10.9584
▁pal	-10.9585
мин	-10.9588
▁hod	-10.959
▁Га	-10.9592
▁1903	-10.9594
sem	-10.9595
▁fiind	-10.9596
ování	-10.9596
ழ	-10.9597
-14	-10.9597
▁Ry	-10.9597
생	-10.9601
点	-10.9601
тэ	-10.9601
ait	-10.9602
▁сто	-10.9604
▁nog	-10.9615
▁sản	-10.9616
電	-10.9616
ball	-10.9621
バ	-10.9621
▁vii	-10.9622
να	-10.9622
過	-10.9623
▁Би	-10.9624
▁lor	-10.9624
werk	-10.9626
▁inglês	-10.9628
ंद	-10.9628
els	-10.963
▁51	-10.9631
ایی	-10.9634
▁син	-10.9634
ու	-10.9636
▁היו	-10.9636
miş	-10.9637
▁defini	-10.9637
▁Tal	-10.9638
6.	-10.9638
▁sẽ	-10.9638
▁ú	-10.9639
انی	-10.9644
ович	-10.9644
rok	-10.9646
▁spo	-10.9649
లలో	-10.9655
▁Company	-10.9655
▁уз	-10.9655
▁1991.	-10.9657
وف	-10.9658
लि	-10.9658
▁ар	-10.966
ството	-10.9662
▁তা	-10.9662
ã	-10.9663
cra	-10.9663
גר	-10.9665
▁మా	-10.9666
ệ	-10.9666
▁fo	-10.9671
liku	-10.9672
wood	-10.9677
曲	-10.9677
▁игра	-10.9681
▁مثل	-10.9682
▁Foi	-10.9683
▁کرده	-10.9685
î	-10.9686
ικές	-10.9686
▁savo	-10.9689
▁status	-10.969
ати	-10.9692
іль	-10.9693
▁Amb	-10.9694
czy	-10.9694
kken	-10.9695
▁seperti	-10.9696
род	-10.9698
▁plat	-10.9698
ifik	-10.97
▁3-	-10.9701
▁internet	-10.9702
sat	-10.9702
▁この	-10.9704
shme	-10.9705
▁norte	-10.9706
▁før	-10.971
ால்	-10.9711
▁disa	-10.9712
▁ас	-10.9712
बा	-10.9713
ência	-10.9713
▁koncert	-10.9714
kes	-10.9715
▁már	-10.9716
при	-10.9717
тов	-10.9721
▁waar	-10.9723
▁강	-10.9723
vos	-10.9725
▁წელს	-10.9726
arekin	-10.9726
▁secara	-10.9728
▁hel	-10.9728
형	-10.9728
▁பல	-10.9729
▁vlast	-10.973
sins	-10.9731
डी	-10.9731
υρ	-10.9732
եր	-10.9733
ká	-10.9734
▁álbum	-10.9734
bl	-10.9735
ір	-10.9737
▁rus	-10.9738
▁iku	-10.9741
▁dintre	-10.9741
亞	-10.9742
▁ஆகும்	-10.9743
▁cao	-10.9744
▁Australia	-10.9748
оз	-10.975
▁instrument	-10.9753
кол	-10.9757
dag	-10.9758
▁다	-10.9758
▁വി	-10.976
شت	-10.9761
▁Ram	-10.9763
skega	-10.9763
лог	-10.9763
mad	-10.9764
體	-10.9767
يت	-10.9769
nat	-10.9773
אל	-10.9775
▁Ty	-10.9777
אר	-10.9779
ড়	-10.9781
▁jaro	-10.9781
▁urte	-10.9782
▁ඇති	-10.9783
って	-10.9784
▁lig	-10.9786
▁sein	-10.9786
▁때	-10.9786
דר	-10.9786
▁सकता	-10.9789
▁Sul	-10.9789
osta	-10.9791
▁tradu	-10.9792
punkt	-10.9793
ель	-10.9793
Ta	-10.9794
▁alta	-10.9798
▁바	-10.9802
▁século	-10.9802
▁maka	-10.9802
vjet	-10.9802
임	-10.9804
▁Pat	-10.9804
▁lanaw	-10.9805
▁valor	-10.9807
tig	-10.9808
▁צ	-10.9808
ını	-10.9809
њу	-10.9809
රු	-10.9813
Mar	-10.9814
ට්	-10.9814
▁тра	-10.9814
▁koju	-10.9815
▁также	-10.9816
০	-10.9817
▁importante	-10.9817
▁prim	-10.9818
▁typ	-10.9818
cin	-10.9819
лат	-10.982
▁Кон	-10.9821
Me	-10.9821
istas	-10.9822
▁fast	-10.9823
▁other	-10.9827
čí	-10.9827
▁način	-10.9828
▁viz	-10.9829
umi	-10.9829
▁trường	-10.9831
▁Sub	-10.9832
▁अस	-10.9833
▁Кор	-10.9837
▁Harry	-10.9838
aci	-10.9838
▁lista	-10.9838
▁fikk	-10.9839
▁кан	-10.9839
▁کشور	-10.984
▁kort	-10.984
well	-10.984
ña	-10.9841
▁chủ	-10.9841
tza	-10.9841
▁све	-10.9842
▁Awards	-10.9843
▁56	-10.9843
чка	-10.9847
ശ	-10.985
▁ple	-10.9851
ous	-10.9851
ница	-10.9851
νο	-10.9852
さ	-10.9853
▁Pin	-10.9854
▁selle	-10.9855
▁Dom	-10.9859
ジ	-10.9861
▁Simon	-10.9866
▁francés	-10.9869
▁Mary	-10.9872
ote	-10.9873
▁Group	-10.9876
▁2009,	-10.9877
려	-10.9877
hoz	-10.9877
మ్	-10.9878
imento	-10.9879
فا	-10.9881
▁cri	-10.9882
▁jego	-10.9883
夫	-10.9886
▁rin	-10.9887
▁superior	-10.9888
내	-10.9891
▁jam	-10.9891
▁बे	-10.9891
▁cer	-10.9893
ட்ட	-10.9893
מו	-10.9895
▁Als	-10.9898
▁سي	-10.99
▁samme	-10.9902
▁қа	-10.9904
بار	-10.9905
ško	-10.9906
500	-10.9906
anie	-10.9906
▁н	-10.9907
▁Fort	-10.9907
An	-10.9908
▁March	-10.9908
▁май	-10.991
rich	-10.9913
▁Bro	-10.9914
▁Mis	-10.9916
중	-10.992
्स	-10.9921
ця	-10.9924
▁파	-10.9926
▁Fri	-10.9926
ének	-10.9928
放	-10.9929
▁Ч	-10.993
tiv	-10.9936
ελ	-10.9936
▁Bad	-10.9936
▁lingua	-10.9936
▁tym	-10.9936
更	-10.9937
▁उप	-10.9938
▁Μπ	-10.9938
वे	-10.9938
▁කර	-10.9938
▁gün	-10.9939
▁Museum	-10.994
▁termin	-10.9941
ário	-10.9943
▁před	-10.9943
вал	-10.9943
▁mogu	-10.9946
▁lik	-10.9946
▁ли	-10.9948
000	-10.9948
para	-10.995
五	-10.9951
ақ	-10.9953
▁moral	-10.9955
▁bilang	-10.9956
▁بو	-10.9957
త్	-10.9958
▁dute	-10.996
▁ल	-10.9961
▁Award	-10.9961
▁फ	-10.9962
vert	-10.9964
▁הק	-10.9964
▁মে	-10.9965
▁viene	-10.9969
מי	-10.997
ök	-10.9972
acije	-10.9972
▁antes	-10.9973
▁jih	-10.9974
▁पूर्व	-10.9974
iam	-10.9977
▁అని	-10.9977
▁Cel	-10.9978
▁হ	-10.9979
セ	-10.998
ped	-10.9981
arak	-10.9982
▁2012,	-10.9982
▁дар	-10.9983
▁filme	-10.9988
ధ	-10.9991
▁Cap	-10.9992
dü	-10.9992
▁сп	-10.9992
क्	-10.9993
ళ	-10.9993
政	-10.9994
▁tế	-10.9994
▁ktorá	-10.9996
די	-10.9997
gis	-10.9997
ری	-10.9998
lica	-11
jući	-11
▁Cer	-11.0003
нә	-11.0005
▁hra	-11.0005
▁stra	-11.0006
▁Life	-11.0006
▁front	-11.0007
tha	-11.0009
▁odnosno	-11.0009
▁പ്ര	-11.0009
▁Marie	-11.0009
▁baina	-11.001
ици	-11.001
▁stud	-11.0013
ե	-11.0014
▁dla	-11.0016
නා	-11.0018
长	-11.0018
সা	-11.0021
▁prop	-11.0024
पुर	-11.0024
▁xe	-11.0024
▁show	-11.0025
▁át	-11.0025
▁jaar	-11.0027
▁μετά	-11.0027
_	-11.0028
වි	-11.0029
ray	-11.0029
žu	-11.003
رو	-11.003
icht	-11.0032
▁Mei	-11.0033
iĝas	-11.0034
▁Durante	-11.0034
▁గ	-11.0035
mina	-11.0036
gir	-11.0039
プ	-11.0039
▁erre	-11.0041
兵	-11.0043
던	-11.0043
▁Entre	-11.0044
법	-11.0045
▁Vene	-11.0045
▁tanto	-11.0046
ங்க	-11.0047
ší	-11.0052
▁Ok	-11.0052
▁Ivan	-11.0053
▁২	-11.0054
வே	-11.0057
ides	-11.0058
-8	-11.0059
گی	-11.006
▁politi	-11.0063
▁sous	-11.0064
▁điều	-11.0064
▁Friedrich	-11.0066
▁árið	-11.0069
lep	-11.0069
blo	-11.007
▁कई	-11.007
▁내	-11.0071
mä	-11.0073
現	-11.0075
larını	-11.0076
石	-11.0076
▁foram	-11.0077
▁volta	-11.0079
▁غير	-11.0079
kasadpan	-11.008
▁genom	-11.008
▁свет	-11.008
▁Ри	-11.008
ან	-11.0082
▁både	-11.0082
pia	-11.0082
Be	-11.0086
▁Hitler	-11.0086
fund	-11.0087
dere	-11.0089
ския	-11.0092
▁Bell	-11.0094
▁نو	-11.0094
▁phía	-11.0095
▁BBC	-11.0095
slag	-11.0096
称	-11.01
▁üle	-11.0102
sing	-11.0102
▁sob	-11.0102
▁kama	-11.0103
▁tới	-11.0105
▁경	-11.0107
▁grada	-11.0107
kari	-11.0107
gio	-11.0107
可以	-11.0109
ப்பட்ட	-11.0111
▁cette	-11.0112
etta	-11.0112
▁হয়েছে	-11.0113
▁gas	-11.0113
▁dall	-11.0114
asta	-11.0116
rp	-11.0117
lė	-11.0117
▁cô	-11.0117
ид	-11.0117
َّ	-11.0119
வா	-11.012
nor	-11.0122
▁þ	-11.0124
İ	-11.0124
▁Carlos	-11.0124
▁sér	-11.0125
గ్	-11.0125
大学	-11.0128
sent	-11.013
▁molt	-11.0132
▁komp	-11.0133
rra	-11.0135
?)	-11.0137
▁porta	-11.0137
teen	-11.0141
లీ	-11.0141
רי	-11.0141
▁loro	-11.0142
▁1901	-11.0143
▁ris	-11.0143
▁Ва	-11.0143
stä	-11.0144
য়ে	-11.0145
▁America	-11.0145
mul	-11.0146
yu	-11.0149
▁δι	-11.0151
유	-11.0151
▁ŝ	-11.0151
▁도	-11.0152
▁eus	-11.0153
されている	-11.0157
▁1999.	-11.0157
▁mosunod	-11.0158
▁vier	-11.0158
дж	-11.0158
lip	-11.0159
▁Oktober	-11.016
▁সময়	-11.0161
노	-11.0162
▁1890	-11.0167
▁Wi	-11.0171
ovat	-11.0171
▁vastu	-11.0172
합	-11.0173
▁විය	-11.0174
▁després	-11.0174
aldi	-11.0174
▁Center	-11.0176
▁Bru	-11.0176
mica	-11.0177
7.	-11.0177
ග	-11.0181
fon	-11.0182
mai	-11.0182
கி	-11.0184
right	-11.0184
പ	-11.0185
▁urtean	-11.0185
력	-11.0187
yr	-11.0189
▁German	-11.0191
▁rast	-11.0192
▁tard	-11.0192
лов	-11.0193
kap	-11.0193
▁kategori	-11.0195
▁sendo	-11.0195
سا	-11.0196
▁între	-11.0197
тур	-11.0197
mol	-11.0198
▁Ан	-11.0199
inahabo	-11.0201
▁sit	-11.0202
▁Ara	-11.0202
ाने	-11.0203
krat	-11.0203
チ	-11.0205
ward	-11.0205
ॉ	-11.0208
нес	-11.021
▁Shi	-11.0212
නය	-11.0212
取	-11.0213
ŭ	-11.0213
▁למ	-11.0214
▁morte	-11.0214
mbo	-11.0215
▁kritik	-11.0218
éncia	-11.0219
▁São	-11.0219
taj	-11.0219
▁Hol	-11.0219
▁ši	-11.022
▁rend	-11.022
▁הייתה	-11.0222
eerd	-11.0223
▁बन	-11.0224
▁isə	-11.0224
▁নাম	-11.0226
യിൽ	-11.0226
▁υπο	-11.0229
▁død	-11.0231
▁mobil	-11.0231
▁мо	-11.0232
▁því	-11.0232
пре	-11.0233
적으로	-11.0234
에서는	-11.0235
රී	-11.0235
ös	-11.0236
скага	-11.0236
▁siden	-11.0237
▁Edward	-11.0237
▁Ру	-11.0239
▁första	-11.024
▁caso	-11.0241
▁Wilhelm	-11.0242
▁57	-11.0242
發	-11.0243
▁kemudian	-11.0245
▁meer	-11.0245
psi	-11.0245
tare	-11.0246
▁disco	-11.0248
▁News	-11.0254
▁Of	-11.0254
dí	-11.0256
▁fet	-11.0256
▁γ	-11.0257
▁okup	-11.0258
ац	-11.0258
నీ	-11.0258
pot	-11.0259
▁еден	-11.0262
▁san	-11.0263
▁ciutat	-11.0264
▁tor	-11.0265
▁besar	-11.0267
ां	-11.027
ово	-11.027
▁صورت	-11.0271
স্ট	-11.0272
▁하	-11.0272
▁время	-11.0273
▁Ken	-11.0275
vrš	-11.0276
▁ön	-11.0278
тың	-11.0279
▁sido	-11.0279
rk	-11.028
▁populasyon	-11.028
▁Ven	-11.0281
ўся	-11.0282
▁national	-11.0283
▁exist	-11.0283
ара	-11.0284
▁Wo	-11.0284
▁tant	-11.0284
ване	-11.0284
col	-11.0288
αλ	-11.0289
ologie	-11.029
stup	-11.0293
▁58	-11.0293
▁மு	-11.0295
▁מי	-11.03
▁عليه	-11.0301
uro	-11.0304
▁person	-11.0304
▁behar	-11.0304
іс	-11.0305
▁ski	-11.0307
局	-11.0309
pla	-11.0314
ады	-11.0316
рон	-11.0316
▁inspir	-11.0317
ografi	-11.0318
先	-11.0318
மா	-11.0319
anse	-11.0321
itz	-11.0322
▁उनके	-11.0322
cken	-11.0323
▁Auto	-11.0324
ať	-11.0326
ється	-11.0327
зу	-11.0328
рад	-11.033
▁Vir	-11.033
ology	-11.033
cur	-11.0336
▁होने	-11.0337
▁zaman	-11.0338
▁lub	-11.0339
▁bun	-11.034
tze	-11.034
amo	-11.0343
වා	-11.0344
▁پر	-11.0346
nı	-11.0347
tada	-11.0347
▁bahin	-11.0348
▁सि	-11.035
उ	-11.0352
▁kota	-11.0352
pper	-11.0352
▁deres	-11.0354
お	-11.0355
▁المتحدة	-11.0357
▁నా	-11.0358
▁Pal	-11.0358
▁గా	-11.0359
▁Dol	-11.0362
त्	-11.0362
▁Bil	-11.0364
ért	-11.0365
▁Bill	-11.0366
▁doktor	-11.0368
▁सबसे	-11.0368
olog	-11.0369
▁beberapa	-11.037
字	-11.0373
▁Hoa	-11.0375
▁ком	-11.0375
▁Dra	-11.0375
机	-11.0376
áz	-11.0377
▁किसी	-11.0378
▁Vid	-11.0379
iniai	-11.0379
▁fre	-11.038
▁latin	-11.0381
▁Rat	-11.0382
8.	-11.0383
▁finns	-11.0384
系	-11.0385
파	-11.0385
▁nell	-11.0386
ivi	-11.0386
역	-11.0388
ικού	-11.0391
▁Vin	-11.0391
хи	-11.0391
▁Day	-11.0391
▁وم	-11.0394
▁Tam	-11.0395
▁Alexander	-11.0396
▁2019	-11.0397
▁απ	-11.0398
▁sk	-11.0398
él	-11.0401
數	-11.0402
▁kai	-11.0402
▁parë	-11.0402
▁స్	-11.0402
OS	-11.0403
ões	-11.0403
▁kra	-11.0404
Di	-11.0406
ual	-11.0407
ние	-11.0407
Pro	-11.0408
▁али	-11.0408
▁সু	-11.0411
כר	-11.0412
▁mentre	-11.0415
▁blir	-11.0415
idas	-11.0415
▁það	-11.0416
品	-11.0417
▁পা	-11.0417
نو	-11.0419
교	-11.0419
▁tie	-11.042
▁lên	-11.042
yje	-11.0423
ulu	-11.0424
▁بازی	-11.0424
▁struktur	-11.0424
ඩ	-11.0425
hof	-11.0425
▁loại	-11.0429
рос	-11.043
▁diễn	-11.043
xo	-11.0431
▁живот	-11.0432
5.	-11.0432
▁cos	-11.0433
將	-11.0434
дә	-11.0434
Ka	-11.0436
сь	-11.0437
▁എന്ന	-11.0437
ости	-11.0439
▁timp	-11.0442
siya	-11.0443
要	-11.0443
▁जाती	-11.0447
▁antara	-11.0448
▁филм	-11.045
▁gemeente	-11.045
▁නි	-11.0451
▁която	-11.0452
uh	-11.0455
وار	-11.0456
ggi	-11.0457
ś	-11.0457
మ్మ	-11.0459
▁Point	-11.0459
ড়া	-11.046
isë	-11.0461
▁2,	-11.0461
▁ada	-11.0461
ො	-11.0461
▁دی	-11.0465
列	-11.0466
takse	-11.0468
থ	-11.0471
▁Ž	-11.0475
ポ	-11.0475
▁जाते	-11.0475
▁elektron	-11.0476
▁musik	-11.0476
رس	-11.0477
▁서	-11.0478
▁두	-11.0481
▁gồm	-11.0481
rse	-11.0482
▁група	-11.0485
enne	-11.0486
సు	-11.0486
anda	-11.0487
▁ел	-11.0488
▁основ	-11.049
▁funkci	-11.0492
▁1902	-11.0493
▁Times	-11.0494
▁kadar	-11.0494
▁הפ	-11.0496
▁Met	-11.0496
発	-11.0497
▁генерал	-11.0499
▁Oscar	-11.05
ovima	-11.0502
tera	-11.0503
站	-11.0503
▁interes	-11.0503
inum	-11.0504
kop	-11.0504
▁కి	-11.0505
▁multi	-11.0507
▁fest	-11.0507
god	-11.0508
▁cerca	-11.0509
దా	-11.0509
вся	-11.0509
pak	-11.0515
aĵoj	-11.0518
▁Wil	-11.0518
▁Diaks	-11.0519
"।	-11.052
סי	-11.0521
영	-11.0521
▁Ú	-11.0522
âm	-11.0522
çı	-11.0523
▁Berg	-11.0523
▁đối	-11.0524
ето	-11.0526
▁Een	-11.0526
▁California	-11.0527
uju	-11.0527
נים	-11.0527
▁mình	-11.0528
▁период	-11.0532
著	-11.0532
모	-11.0532
pie	-11.0532
ному	-11.0533
▁Ac	-11.0536
政府	-11.0536
рас	-11.0537
spel	-11.0539
▁kjer	-11.0539
റ്റ	-11.054
фі	-11.0542
▁euro	-11.0542
▁jezik	-11.0543
▁उत्तर	-11.0544
ient	-11.0544
ться	-11.0546
▁nasod	-11.0546
▁danas	-11.0547
plat	-11.0547
gens	-11.0548
▁около	-11.0548
▁nivel	-11.055
▁নি	-11.0552
▁рэ	-11.0554
ił	-11.0555
dica	-11.0556
▁عمل	-11.0557
川	-11.0557
Do	-11.0557
▁tính	-11.0557
▁gro	-11.0558
rado	-11.056
▁Kh	-11.0561
keta	-11.0561
▁çox	-11.0563
▁terra	-11.0564
jak	-11.0565
ाची	-11.0568
▁bank	-11.0569
▁والم	-11.057
▁nisu	-11.057
▁actual	-11.0574
itt	-11.0574
▁확인함	-11.0575
하게	-11.0575
kim	-11.0576
▁version	-11.0576
▁čo	-11.0577
▁main	-11.0578
riz	-11.0579
口	-11.058
▁Sy	-11.0581
▁సా	-11.0581
gut	-11.0581
unu	-11.0582
рен	-11.0583
▁което	-11.0583
▁Villa	-11.0583
內	-11.0583
stor	-11.0583
ιών	-11.0585
▁(11	-11.0586
▁mir	-11.0586
▁бу	-11.0587
▁روی	-11.0589
▁није	-11.0591
ovali	-11.0591
白	-11.0593
▁Max	-11.0594
▁غ	-11.0594
▁Бер	-11.0595
민	-11.0596
▁Lac	-11.0596
hall	-11.0598
▁fine	-11.0598
miştir	-11.0599
▁Türk	-11.0601
▁after	-11.0601
dob	-11.0602
▁права	-11.0603
▁Live	-11.0605
▁pris	-11.0606
ք	-11.0608
ික	-11.0608
శ	-11.0608
miseks	-11.061
ини	-11.0611
▁série	-11.0612
lise	-11.0612
▁House	-11.0614
▁स्थान	-11.0617
▁peng	-11.0619
nă	-11.0622
ім	-11.0625
dzie	-11.0625
нос	-11.0625
曾	-11.0628
vest	-11.0629
▁då	-11.063
▁рад	-11.0632
如	-11.0633
▁Suba	-11.0634
▁Dit	-11.0636
বা	-11.0638
▁남	-11.064
ље	-11.064
▁parlament	-11.0641
ење	-11.0643
یر	-11.0643
▁Luis	-11.0644
في	-11.0645
▁gor	-11.0647
▁गए	-11.0648
lie	-11.065
▁gọi	-11.0653
▁hàng	-11.0654
▁History	-11.0655
伊	-11.0655
itatea	-11.0657
णी	-11.0657
but	-11.0658
tól	-11.0658
öl	-11.0661
▁potom	-11.0662
ús	-11.0663
▁Sho	-11.0663
▁büyük	-11.0664
▁hoặc	-11.0665
好	-11.0665
בר	-11.0668
ദ	-11.0669
▁వా	-11.067
▁arti	-11.067
nger	-11.0671
▁করতে	-11.0671
සි	-11.0671
fici	-11.0671
波	-11.0672
rne	-11.0674
▁Argentina	-11.0674
ഹ	-11.0674
▁rezultat	-11.0675
ंस	-11.0676
受	-11.0682
recht	-11.0684
▁presenta	-11.0686
▁Sim	-11.0688
▁sik	-11.0689
-13	-11.0691
▁شرکت	-11.0692
▁نظر	-11.0692
▁процес	-11.0692
▁lực	-11.0694
▁sé	-11.0696
weg	-11.0696
nad	-11.0697
▁nej	-11.0698
ल्	-11.0698
▁any	-11.0699
où	-11.07
▁rang	-11.0701
yar	-11.0707
მ	-11.0708
క్ష	-11.0709
▁роман	-11.0709
▁प्राप्त	-11.0709
kis	-11.071
造	-11.0711
▁team	-11.0711
erade	-11.0713
▁studio	-11.0715
ത്തിൽ	-11.0716
▁Ν	-11.0717
▁стр	-11.0717
▁Gold	-11.0718
▁Пре	-11.0723
nto	-11.0724
▁Mus	-11.0725
▁tap	-11.0726
▁cr	-11.0728
ック	-11.0729
шта	-11.0729
結	-11.0729
ttiin	-11.0731
ojnë	-11.0732
▁ఉ	-11.0732
ール	-11.0732
▁vasta	-11.0733
▁জন	-11.0734
▁motiv	-11.0736
▁mellom	-11.0736
▁кога	-11.0737
▁проект	-11.0737
▁வ	-11.0738
▁nye	-11.0739
твор	-11.0741
初	-11.0741
kki	-11.0742
रो	-11.0744
▁2005,	-11.0744
জি	-11.0746
▁един	-11.0748
▁bắt	-11.0752
▁jednak	-11.0752
▁personal	-11.0753
▁restaur	-11.0756
▁~	-11.076
ću	-11.0761
▁کا	-11.0763
▁שנ	-11.0763
▁वाले	-11.0763
▁apie	-11.0764
▁foguèt	-11.0765
mata	-11.0766
▁Dum	-11.0766
▁были	-11.0768
▁دا	-11.0769
▁þess	-11.0769
wen	-11.0769
ER	-11.077
ான	-11.0772
iek	-11.0774
▁الش	-11.0775
vec	-11.0775
९	-11.0777
▁kwadrado	-11.0778
िंग	-11.0779
ther	-11.078
ún	-11.078
▁Năm	-11.0784
נית	-11.0786
▁모	-11.0787
▁DVD	-11.0787
▁jaroj	-11.0789
ाइ	-11.0791
▁my	-11.0791
▁White	-11.0794
ța	-11.0796
чки	-11.0796
▁Mé	-11.0797
▁bro	-11.0797
▁trop	-11.0797
iques	-11.0798
▁tuli	-11.0799
운	-11.08
▁със	-11.08
ез	-11.0801
row	-11.0801
▁Poli	-11.0802
▁če	-11.0802
200	-11.0804
接	-11.0806
Σ	-11.0807
▁Ham	-11.0807
▁tawo	-11.0807
▁side	-11.0808
යට	-11.0809
▁जब	-11.0809
▁каде	-11.0811
rí	-11.0812
dores	-11.0812
器	-11.0814
maan	-11.0814
運	-11.0815
▁того	-11.0817
▁face	-11.0817
▁Việt	-11.0818
▁csak	-11.0819
cro	-11.0821
след	-11.0822
▁Sand	-11.0825
syon	-11.0825
▁gibi	-11.0825
зна	-11.0826
igis	-11.0828
▁državi	-11.0828
лись	-11.0829
дин	-11.0831
바	-11.0831
▁text	-11.0831
ика	-11.0832
▁із	-11.0832
▁pá	-11.0833
▁προσ	-11.0834
bau	-11.0836
vano	-11.0838
мир	-11.0839
liche	-11.0841
▁원	-11.0842
▁пр	-11.0843
▁مورد	-11.0844
▁Camp	-11.0844
мін	-11.0844
▁Union	-11.0845
▁Grande	-11.0845
hti	-11.0846
▁FIFA	-11.0846
▁period	-11.0847
▁Cur	-11.0847
여	-11.0848
▁presidente	-11.0848
ými	-11.085
▁jälkeen	-11.0853
▁அவர்	-11.0853
মান	-11.0853
▁də	-11.0853
ða	-11.0853
▁став	-11.0855
▁হন	-11.0855
ята	-11.0855
chod	-11.0855
▁якія	-11.0856
атор	-11.0856
ад	-11.0861
▁ор	-11.0863
▁Рим	-11.0865
▁ку	-11.0866
ości	-11.0867
▁Asia	-11.0869
िया	-11.0869
ిక	-11.087
nza	-11.087
년에	-11.0873
▁apo	-11.0875
▁എ	-11.0875
▁objekt	-11.0876
ネ	-11.0877
▁ciudad	-11.0878
্	-11.0878
▁start	-11.0878
▁Big	-11.0879
ור	-11.0884
▁ख	-11.0887
jin	-11.0888
ість	-11.089
▁port	-11.0893
▁बहुत	-11.0895
жы	-11.0895
▁state	-11.0898
▁rit	-11.0898
eket	-11.0901
▁gali	-11.0902
תה	-11.0902
▁tank	-11.0903
▁úr	-11.0904
від	-11.0905
mpa	-11.0905
ліся	-11.0908
▁Media	-11.0909
▁ant	-11.0912
など	-11.0912
▁වේ	-11.0914
▁ih	-11.0916
▁bien	-11.0916
▁tác	-11.0917
പ്പ	-11.0919
או	-11.0921
▁വ	-11.0922
ビ	-11.0923
▁Char	-11.0924
ew	-11.0925
재	-11.0926
▁zakon	-11.0928
▁dvije	-11.093
▁நா	-11.093
klo	-11.093
ήσει	-11.093
ání	-11.0931
ების	-11.0933
மி	-11.0933
▁thông	-11.0934
ౌ	-11.0935
עות	-11.0936
持	-11.0936
قل	-11.0938
▁dne	-11.0938
▁genera	-11.0939
wie	-11.094
▁село	-11.0943
ера	-11.0943
▁όπως	-11.0943
▁ara	-11.0945
גו	-11.0947
▁vita	-11.0948
▁name	-11.0949
▁ilin	-11.0951
▁أي	-11.0952
▁svojim	-11.0952
▁Ing	-11.0953
▁Opera	-11.0953
▁List	-11.0954
▁менән	-11.0954
рэ	-11.0958
▁Casa	-11.0958
▁zaradi	-11.0959
▁stav	-11.0959
안	-11.0961
▁अपनी	-11.0962
▁domin	-11.0965
▁kuid	-11.0965
fall	-11.0967
▁venne	-11.097
ři	-11.0971
3%	-11.0972
▁vụ	-11.0972
テ	-11.0972
ातील	-11.0974
▁liên	-11.0977
rata	-11.0977
ガ	-11.0978
▁الك	-11.0978
ც	-11.0979
rii	-11.098
ास	-11.0981
▁থাকে	-11.0982
▁god	-11.0982
▁1880	-11.0982
去	-11.0983
▁össze	-11.0986
▁privat	-11.0986
more	-11.0986
را	-11.0987
▁sent	-11.0988
▁Pedro	-11.0988
▁olduğu	-11.0988
So	-11.0988
jun	-11.099
ké	-11.0992
▁былі	-11.0992
2%	-11.0992
▁gouf	-11.0994
sted	-11.0995
▁Win	-11.0995
out	-11.0997
▁oper	-11.1002
▁παρα	-11.1002
▁_{	-11.1003
ട്ട	-11.1004
ený	-11.1007
owego	-11.1007
ką	-11.1011
▁kuwa	-11.1012
нг	-11.1014
▁بعض	-11.1014
нан	-11.1019
gem	-11.102
lju	-11.1022
atori	-11.1022
▁gri	-11.1023
▁slav	-11.1024
куп	-11.1026
▁nove	-11.1027
▁университет	-11.1028
▁Лі	-11.1029
命	-11.1029
оф	-11.1031
verk	-11.1031
▁online	-11.1033
▁таксама	-11.1033
යන්	-11.1034
illo	-11.1035
▁Mah	-11.1036
ൈ	-11.1038
graf	-11.104
▁பு	-11.1042
▁zna	-11.1042
رة	-11.1043
eerde	-11.1044
▁зем	-11.1045
▁μετα	-11.1047
▁Бар	-11.1048
▁불	-11.1049
లకు	-11.1049
▁több	-11.1049
tore	-11.1049
▁Uni	-11.1051
bok	-11.1054
；	-11.1055
▁पहले	-11.1056
cji	-11.1058
▁Brown	-11.1059
▁registr	-11.106
gus	-11.1063
▁arm	-11.1066
ще	-11.1066
צ	-11.1067
▁así	-11.1071
kum	-11.1072
elsen	-11.1072
िका	-11.1074
卡	-11.1075
▁tour	-11.1076
▁compr	-11.1076
万	-11.1077
▁njegov	-11.1077
▁sou	-11.1077
ového	-11.1078
თა	-11.1081
▁centre	-11.1081
fri	-11.1081
▁special	-11.1081
▁пи	-11.1082
vä	-11.1082
وز	-11.1082
▁vode	-11.1083
atzen	-11.1084
ള	-11.1086
▁סי	-11.1086
▁format	-11.1086
Co	-11.1087
▁into	-11.1087
sty	-11.1087
చ	-11.1087
▁பி	-11.1089
ży	-11.1091
lıq	-11.1091
▁informa	-11.1093
▁ŝi	-11.1096
▁situat	-11.1097
▁transfer	-11.1097
mé	-11.1097
▁بوده	-11.1097
вр	-11.1097
όρ	-11.1098
iks	-11.11
▁tạo	-11.11
▁Vis	-11.1103
▁त्या	-11.1103
rem	-11.1104
šti	-11.1106
▁거	-11.1106
escu	-11.1109
ந்து	-11.111
▁Ved	-11.1111
ries	-11.1115
хо	-11.1116
▁hệ	-11.1117
▁ata	-11.1117
sim	-11.1117
oto	-11.1117
ovať	-11.1119
nc	-11.1119
▁među	-11.1119
amp	-11.1119
▁кор	-11.1119
▁март	-11.112
பா	-11.1124
▁Kat	-11.1125
▁energi	-11.1125
▁হা	-11.1125
ோ	-11.1125
▁eða	-11.1126
ntes	-11.1129
▁72	-11.1132
ισ	-11.1132
دار	-11.1132
یک	-11.1133
idades	-11.1135
ران	-11.1137
▁strani	-11.1138
ește	-11.114
▁prote	-11.114
▁هستند	-11.1141
▁site	-11.1141
fect	-11.1141
ț	-11.1142
▁multe	-11.1144
ठ	-11.1144
esa	-11.1145
nije	-11.1145
▁vì	-11.1147
▁Web	-11.1147
▁après	-11.1147
дзі	-11.1149
▁Cro	-11.115
▁Airport	-11.1152
▁aquest	-11.1154
▁iba	-11.1155
atge	-11.1156
商	-11.1156
sas	-11.1159
▁తరువాత	-11.1159
▁Mol	-11.1161
▁Spe	-11.1162
▁sidlakan	-11.1162
▁British	-11.1163
ండ	-11.1165
▁dur	-11.1166
▁Bon	-11.1169
क्स	-11.1173
gó	-11.1174
uko	-11.1175
▁integr	-11.1175
▁lehen	-11.1176
▁povas	-11.1178
▁ভ	-11.1178
اع	-11.1179
強	-11.1183
ço	-11.1185
▁đá	-11.1185
▁mellem	-11.1185
▁கி	-11.1186
ості	-11.1187
▁lid	-11.1187
▁нов	-11.1189
tog	-11.119
enti	-11.119
▁È	-11.119
▁kanssa	-11.119
英	-11.119
кова	-11.1195
▁director	-11.1197
мон	-11.1197
டை	-11.1198
ям	-11.1201
▁amerikansk	-11.1201
qi	-11.1203
প্র	-11.1203
▁svoju	-11.1204
분	-11.1204
له	-11.1204
bran	-11.1205
▁same	-11.1206
▁novembro	-11.1206
▁право	-11.1215
▁Jackson	-11.1215
▁bin	-11.1216
▁tá	-11.1218
וני	-11.1219
nyt	-11.122
").	-11.122
▁한다	-11.1221
▁उस	-11.1222
▁59	-11.1222
gs	-11.1222
sje	-11.1222
нт	-11.1223
▁दे	-11.1224
rian	-11.1225
▁lag	-11.1226
mie	-11.1227
▁систем	-11.1228
oon	-11.1228
IS	-11.1228
▁Era	-11.123
1,	-11.1231
igas	-11.1233
격	-11.1234
400	-11.1236
জা	-11.1237
코	-11.124
ант	-11.1242
డం	-11.1246
▁წლის	-11.1248
▁Bau	-11.1248
ché	-11.1249
ങ്ങൾ	-11.125
▁وهو	-11.1253
▁elő	-11.1253
এ	-11.1254
▁επ	-11.1255
Ho	-11.1256
ión	-11.1257
▁শুরু	-11.1258
old	-11.1259
▁pul	-11.126
▁बि	-11.1262
래	-11.1262
▁karşı	-11.1262
mana	-11.1263
▁fire	-11.1265
野	-11.1266
‘	-11.1267
▁anh	-11.1267
▁extra	-11.1267
▁cur	-11.127
▁Fil	-11.1273
রে	-11.1273
Lo	-11.1273
rica	-11.1274
▁elektro	-11.1274
▁প্রতি	-11.1274
die	-11.1275
čių	-11.1275
čni	-11.1276
udi	-11.1277
▁labor	-11.1277
▁cá	-11.1278
ijoje	-11.1278
ир	-11.1279
▁Nuo	-11.128
▁cro	-11.1282
▁пу	-11.1283
øy	-11.1284
▁descri	-11.1284
טי	-11.1288
ره	-11.1289
▁System	-11.129
▁එ	-11.1291
ên	-11.1293
▁antaŭ	-11.1294
еле	-11.1295
▁était	-11.1296
▁гор	-11.1296
▁narod	-11.1297
кер	-11.1298
њето	-11.1299
當	-11.1299
▁fő	-11.13
wang	-11.13
▁(9	-11.13
ෙ	-11.1301
▁הי	-11.1303
▁ak	-11.1303
▁tv	-11.1304
almente	-11.1305
ical	-11.1306
اش	-11.1307
inə	-11.1307
▁España	-11.1309
▁adapt	-11.1311
▁ха	-11.1311
ged	-11.1311
▁Sor	-11.1316
ars	-11.1316
▁phim	-11.132
▁0.	-11.1321
ujú	-11.1323
▁Vil	-11.1324
着	-11.1324
▁XVII	-11.1325
owym	-11.1329
జ్	-11.133
▁tarihinde	-11.1332
▁62	-11.1333
ndar	-11.1333
imas	-11.1333
석	-11.1335
▁Association	-11.1336
اف	-11.1339
drag	-11.1339
▁tab	-11.1339
től	-11.1341
▁tyre	-11.1341
▁setelah	-11.1342
onte	-11.1342
enberg	-11.1343
▁Latin	-11.1343
ева	-11.1347
▁예	-11.1348
▁Francis	-11.1348
ී	-11.1349
▁همچنین	-11.1351
中国	-11.1351
▁quyền	-11.1352
▁август	-11.1353
▁Hot	-11.1353
▁1896	-11.1354
тары	-11.1355
stil	-11.1355
▁राज	-11.1356
▁Kong	-11.1356
▁রয়েছে	-11.1357
hur	-11.1358
▁tə	-11.136
派	-11.136
হা	-11.1362
ення	-11.1362
▁dog	-11.1364
▁(7	-11.1366
▁seine	-11.1367
▁conta	-11.1367
▁Hand	-11.1368
alla	-11.1369
نج	-11.1371
▁déc	-11.1371
తు	-11.1371
▁низ	-11.1372
▁சு	-11.1373
ffer	-11.1375
kker	-11.1376
▁tanom	-11.1376
tant	-11.1379
मान	-11.138
▁66	-11.1381
▁Zagreb	-11.1385
▁2013,	-11.1385
▁என்று	-11.1385
▁இல்	-11.1385
▁într	-11.1386
▁sünd	-11.1386
ент	-11.1386
нка	-11.1387
ഗ	-11.1387
mışdır	-11.1387
▁একজন	-11.139
घ	-11.1391
▁واقع	-11.1391
▁predstavlja	-11.1392
تی	-11.1392
đ	-11.1394
▁СССР	-11.1394
uze	-11.1395
▁sí	-11.1399
▁üçün	-11.1399
ήθηκε	-11.1399
▁брат	-11.14
يف	-11.1402
gul	-11.1402
gle	-11.1402
λι	-11.1405
*	-11.1406
და	-11.1407
दी	-11.1408
ію	-11.1409
▁liber	-11.1411
том	-11.1417
vus	-11.1418
ema	-11.1419
▁amely	-11.1422
ške	-11.1423
▁الب	-11.1423
▁ekki	-11.1425
وی	-11.1426
▁1898	-11.143
tara	-11.143
▁circa	-11.143
급	-11.1432
▁navn	-11.1432
kond	-11.1434
▁comuna	-11.1436
▁زبان	-11.1437
▁ඇත	-11.1438
▁ओ	-11.1438
pop	-11.1438
然	-11.1441
وب	-11.1442
uru	-11.1443
nel	-11.1443
▁bao	-11.1443
ји	-11.1444
▁गु	-11.1444
rze	-11.1444
تها	-11.1445
▁என	-11.1446
▁design	-11.1446
▁सी	-11.1446
وت	-11.1447
ču	-11.1447
фе	-11.1447
ments	-11.1448
ttu	-11.1449
stvu	-11.1449
▁κατ	-11.1449
пол	-11.145
▁বে	-11.145
вој	-11.1451
▁2000,	-11.1453
▁උ	-11.1453
rade	-11.1454
▁Billboard	-11.1455
னர்	-11.1456
▁papa	-11.1457
mə	-11.1458
▁uso	-11.146
mod	-11.146
ρά	-11.146
tettiin	-11.1461
juk	-11.1462
▁bekend	-11.1463
▁تحت	-11.1464
ill	-11.1467
üm	-11.1468
▁Bla	-11.1469
▁trung	-11.1469
▁Έ	-11.147
க்கும்	-11.1472
▁Mala	-11.1473
naj	-11.1474
▁temporada	-11.1474
kri	-11.1475
ark	-11.1475
▁fino	-11.1476
▁año	-11.1478
▁High	-11.1478
研究	-11.1478
skem	-11.1481
они	-11.1482
▁إن	-11.1482
▁disc	-11.1485
▁විසින්	-11.149
賽	-11.1491
ικών	-11.1493
രി	-11.1494
▁गई	-11.1495
год	-11.1498
▁1897	-11.1499
ttä	-11.1504
lid	-11.1505
▁pertsona	-11.1507
▁poz	-11.1507
ствен	-11.1507
▁permet	-11.1508
çon	-11.1508
ηγ	-11.1509
▁mari	-11.151
eira	-11.1515
antes	-11.1518
▁biztanle	-11.1518
▁მ	-11.1519
▁sm	-11.1519
▁Christ	-11.152
ић	-11.152
까지	-11.152
▁×	-11.1521
▁byen	-11.1524
▁Sto	-11.1524
εύ	-11.1524
kai	-11.1525
ának	-11.1525
▁அல்லது	-11.1526
▁inform	-11.1527
▁1998.	-11.1527
▁پی	-11.1527
daki	-11.1528
▁कु	-11.1529
ლი	-11.153
▁कहा	-11.153
tere	-11.1531
Da	-11.1532
▁vai	-11.1534
▁gir	-11.1536
▁mjesto	-11.1536
▁jos	-11.1537
ツ	-11.1537
▁Ag	-11.1538
iš	-11.1539
▁নিয়ে	-11.1539
治	-11.1542
▁Lang	-11.1543
▁Пи	-11.1544
hir	-11.1545
▁1870	-11.1546
rap	-11.1547
▁până	-11.1547
▁пет	-11.1547
omis	-11.1547
▁Sport	-11.1548
▁68	-11.1549
▁maja	-11.1549
止	-11.1555
▁Society	-11.1556
έρ	-11.1557
▁Pierre	-11.1559
▁లేదా	-11.1559
▁vie	-11.1559
▁nhiên	-11.156
ï	-11.156
▁lin	-11.156
▁пример	-11.1561
議	-11.1561
▁Dun	-11.1562
▁två	-11.1562
▁2014,	-11.1562
▁States	-11.1562
▁1990.	-11.1562
мар	-11.1564
њи	-11.1566
▁nev	-11.1566
▁tio	-11.1566
یی	-11.1567
вид	-11.1567
سر	-11.1567
ній	-11.1569
程	-11.157
▁Гу	-11.1571
bou	-11.1574
▁Til	-11.1575
▁Bud	-11.1576
▁troba	-11.1577
vari	-11.1578
abil	-11.1578
tung	-11.1578
tico	-11.1579
打	-11.1581
▁cultura	-11.1581
యం	-11.1581
vanja	-11.1583
яр	-11.1584
け	-11.1586
▁sex	-11.1589
сер	-11.1589
▁கொண்ட	-11.1591
▁1992.	-11.1592
▁재	-11.1593
▁הם	-11.1599
▁अनु	-11.16
▁Pala	-11.16
рек	-11.1601
àn	-11.1601
▁1500	-11.1602
දී	-11.1603
ノ	-11.1604
▁emp	-11.1604
▁2004,	-11.1605
lli	-11.1605
జి	-11.1605
യും	-11.1606
Κ	-11.1608
▁Тур	-11.161
▁پیش	-11.1611
马	-11.1611
▁אשר	-11.1612
▁Yo	-11.1613
▁উপ	-11.1615
▁leur	-11.1616
▁vä	-11.1617
▁प्रयोग	-11.1617
▁mål	-11.162
▁(„	-11.1621
▁vald	-11.1622
▁Zeit	-11.1622
рав	-11.1623
зер	-11.1624
دى	-11.1624
שי	-11.1625
شان	-11.1625
▁হল	-11.1625
▁Сан	-11.1625
▁contribu	-11.1625
kem	-11.1625
فت	-11.1626
▁اس	-11.1632
▁fl	-11.1633
▁Jar	-11.1633
ené	-11.1634
▁аз	-11.1635
ият	-11.1639
лом	-11.1641
▁oso	-11.1644
河	-11.1645
▁তাদের	-11.1647
পুর	-11.1647
ొ	-11.1647
há	-11.165
▁Ran	-11.1651
▁VIII	-11.1656
▁स्थित	-11.1661
▁ह्या	-11.1662
었다	-11.1664
▁Hay	-11.1664
ння	-11.1665
▁دور	-11.1665
ි	-11.167
▁околу	-11.1672
▁bizi	-11.1673
▁ई	-11.1675
▁이후	-11.1675
ικ	-11.1675
ტ	-11.1676
cov	-11.1676
▁ග	-11.1676
യുടെ	-11.1677
▁Google	-11.1677
ίν	-11.1677
▁саны	-11.1677
▁đề	-11.1679
▁Papa	-11.168
lice	-11.168
ρε	-11.168
▁ത	-11.1681
▁وب	-11.1682
ív	-11.1683
修	-11.1683
▁sva	-11.1684
vät	-11.1685
▁medzi	-11.1685
▁Austria	-11.1685
▁bon	-11.1686
gh	-11.1687
▁Estado	-11.1687
St	-11.1688
▁לו	-11.1689
▁nou	-11.1691
▁momento	-11.1691
opp	-11.1691
menn	-11.1692
▁Street	-11.1693
▁селото	-11.1693
▁života	-11.1693
▁После	-11.1693
▁Adam	-11.1695
мов	-11.1698
git	-11.1698
門	-11.1698
τι	-11.1699
▁הס	-11.1699
tsi	-11.1705
▁trị	-11.1706
▁mali	-11.1708
éiert	-11.171
lığı	-11.171
kot	-11.1713
dek	-11.1713
半	-11.1715
▁око	-11.1723
▁planet	-11.1727
ाचा	-11.1727
配	-11.1727
▁kla	-11.1728
▁term	-11.1728
रण	-11.1728
▁fol	-11.1732
▁sempre	-11.1733
čen	-11.1735
▁futbol	-11.1736
}\	-11.1738
▁lần	-11.1738
▁ona	-11.1739
▁Alang	-11.1739
▁역	-11.1741
iser	-11.1741
▁Nem	-11.1747
ific	-11.1748
pend	-11.1748
arra	-11.1748
tier	-11.1749
▁3,	-11.1749
▁Ад	-11.1749
pes	-11.175
हा	-11.175
kro	-11.175
▁начин	-11.1751
▁minut	-11.1751
▁1895	-11.1752
▁libro	-11.1753
▁జ	-11.1754
▁hin	-11.1754
歌	-11.1754
▁1899	-11.1754
▁prezent	-11.1755
kte	-11.1755
▁aki	-11.1757
AC	-11.1757
▁present	-11.1758
يين	-11.1761
▁sti	-11.1761
▁Microsoft	-11.1762
рк	-11.1765
▁znan	-11.1766
▁Bei	-11.1766
▁thức	-11.1766
▁gjorde	-11.1768
▁fly	-11.1768
erer	-11.1769
nam	-11.1771
▁ubang	-11.1772
ரை	-11.1774
дав	-11.1774
parti	-11.1775
引	-11.1776
ые	-11.1776
лик	-11.1776
pod	-11.1777
▁63	-11.1777
▁700	-11.1778
她	-11.178
jum	-11.178
방	-11.1781
מים	-11.1781
▁tele	-11.1781
chter	-11.1781
▁muzik	-11.1783
laga	-11.1786
▁Qui	-11.179
▁orden	-11.1793
▁Inc	-11.1794
▁τ	-11.1795
▁skr	-11.1796
▁Bakı	-11.1797
▁hus	-11.1797
ční	-11.1797
▁tegen	-11.1797
▁större	-11.1798
▁pap	-11.1798
▁acc	-11.1799
▁Ни	-11.1801
sun	-11.1801
▁nh	-11.1802
▁•	-11.1802
▁către	-11.1803
▁která	-11.1805
জন	-11.1805
▁Бе	-11.1806
duk	-11.1806
дық	-11.1806
fan	-11.1806
▁grandes	-11.1808
jí	-11.1809
未	-11.181
6%	-11.1811
▁Mid	-11.1811
ări	-11.1811
றி	-11.1811
iwa	-11.1812
▁postao	-11.1814
лив	-11.1814
▁aliaj	-11.1817
▁mula	-11.1819
isha	-11.1823
▁Danmark	-11.1824
ät	-11.1824
▁المت	-11.1825
들이	-11.1827
▁poden	-11.1829
تون	-11.183
ья	-11.1832
kala	-11.1832
▁според	-11.1832
मे	-11.1832
▁ले	-11.1833
oru	-11.1833
▁Ly	-11.1834
▁Mak	-11.1836
▁زمان	-11.1836
ட்டி	-11.1837
ονται	-11.1837
ঃ	-11.1837
▁koos	-11.1839
▁Video	-11.1839
igita	-11.184
▁Kỳ	-11.184
▁(8	-11.1841
ouse	-11.1842
west	-11.1844
tzea	-11.1845
▁يمكن	-11.1848
ender	-11.1848
trop	-11.1849
sjon	-11.1852
▁linna	-11.1854
▁filma	-11.1854
రో	-11.1855
eno	-11.1855
ண்ட	-11.1856
maktadır	-11.1859
mena	-11.186
▁హ	-11.1862
▁ति	-11.1862
▁države	-11.1863
yi	-11.1863
▁kepada	-11.1864
▁শ	-11.1864
ෙන්	-11.1866
▁št	-11.1866
▁става	-11.1867
▁поради	-11.1869
▁Му	-11.1873
▁반	-11.1873
نگ	-11.1873
ox	-11.1874
真	-11.1877
▁prí	-11.1878
ქ	-11.1878
▁María	-11.1879
▁Chu	-11.188
▁juh	-11.188
▁gihapon	-11.1883
▁Not	-11.1883
▁város	-11.1883
▁бол	-11.1888
區	-11.1889
haus	-11.1889
▁وا	-11.189
০০	-11.1891
▁сред	-11.1891
▁Vy	-11.1893
▁esp	-11.1893
▁пол	-11.1898
▁জা	-11.1898
▁Scott	-11.19
тро	-11.1901
▁जन्म	-11.1903
▁flor	-11.1904
▁Song	-11.1906
koj	-11.1906
رب	-11.1906
:00	-11.1908
цу	-11.191
نی	-11.191
▁bulan	-11.1913
▁egiten	-11.1915
וח	-11.1918
ness	-11.1918
▁Според	-11.1921
▁భారత	-11.1922
rö	-11.1923
maal	-11.1926
▁داد	-11.1926
▁vas	-11.1928
zeit	-11.1929
▁folk	-11.193
▁हुई	-11.1932
▁XIV	-11.1933
▁distribu	-11.1933
▁două	-11.1934
▁bagian	-11.1934
▁relativ	-11.1936
▁यो	-11.1937
れ	-11.1937
صر	-11.1938
▁unua	-11.194
tima	-11.194
AR	-11.1941
lec	-11.1941
▁ми	-11.1942
rzy	-11.1943
▁result	-11.1945
▁bai	-11.1949
▁কিছু	-11.1949
گاه	-11.195
▁kang	-11.1951
▁بزرگ	-11.1952
▁Lin	-11.1953
όν	-11.1953
▁ය	-11.1954
лась	-11.1954
ŝ	-11.1955
tov	-11.1956
දා	-11.1956
▁Wood	-11.1957
වේ	-11.1958
▁ama	-11.1958
▁grand	-11.196
▁67	-11.1961
▁record	-11.1961
eck	-11.1961
нер	-11.1964
آ	-11.1965
▁negara	-11.1965
ნ	-11.1965
▁тем	-11.1966
▁Dette	-11.1967
cido	-11.1967
▁artean	-11.1968
▁svi	-11.1968
eiros	-11.1968
▁επίσης	-11.1969
▁मुख्य	-11.1972
▁Godine	-11.1972
llis	-11.1972
党	-11.1972
▁όπου	-11.1973
▁Ду	-11.1975
ె	-11.1975
▁zwei	-11.1977
▁پ	-11.1978
छ	-11.1979
▁Bob	-11.1982
▁வரை	-11.1983
▁mana	-11.1983
▁mehr	-11.1983
DA	-11.1983
gil	-11.1984
ľa	-11.1984
提	-11.1986
▁Pir	-11.1987
め	-11.1987
आ	-11.1987
tang	-11.1987
ningar	-11.1987
sport	-11.1988
asyon	-11.199
ად	-11.1992
ుల	-11.1992
▁Sverige	-11.1993
▁ry	-11.1994
▁mới	-11.1994
▁분	-11.1994
▁giáo	-11.1996
▁šest	-11.1999
▁Feder	-11.1999
ekin	-11.1999
▁Let	-11.1999
란	-11.2
▁XIII	-11.2001
▁À	-11.2002
ず	-11.2003
▁кү	-11.2005
▁জ	-11.2005
ňa	-11.2005
vě	-11.2006
▁kamen	-11.2006
▁mikro	-11.2007
teko	-11.2008
nimi	-11.2008
hara	-11.201
▁1848	-11.2011
raj	-11.2012
▁беше	-11.2015
מן	-11.2017
▁були	-11.2019
hez	-11.202
enc	-11.202
연	-11.2022
ள்	-11.2022
▁বছর	-11.2023
▁लेकिन	-11.2024
anske	-11.2025
vije	-11.2025
мат	-11.2025
▁mesta	-11.2026
ків	-11.2026
liste	-11.2028
▁graf	-11.2029
▁letech	-11.203
▁Chicago	-11.2031
ával	-11.2031
▁máy	-11.2031
▁família	-11.2031
front	-11.2032
mesi	-11.2036
asti	-11.2036
ৈ	-11.204
kamp	-11.204
▁mbi	-11.2041
▁Belgi	-11.2041
dje	-11.2041
σι	-11.2043
▁pilot	-11.2043
▁conserva	-11.2044
vien	-11.2046
▁gift	-11.2047
▁그는	-11.2047
▁passa	-11.2048
▁Liber	-11.2048
▁Peru	-11.2049
ハ	-11.2051
▁govori	-11.2054
tern	-11.2055
ப்பட்டது	-11.2057
▁लोक	-11.2058
ics	-11.2058
aron	-11.2059
들은	-11.206
▁मान	-11.206
▁hom	-11.2061
住	-11.2061
mil	-11.2062
양	-11.2064
▁Islam	-11.2064
▁مر	-11.2065
▁kat	-11.2065
▁ז	-11.2066
▁బా	-11.2066
▁граф	-11.2068
じ	-11.207
rig	-11.2071
▁Lit	-11.2072
शा	-11.2073
wit	-11.2074
▁ల	-11.2075
情	-11.2075
▁veliko	-11.2075
類	-11.2075
▁61	-11.2075
ボ	-11.2076
ём	-11.2076
tır	-11.2077
വി	-11.2077
ĉ	-11.2079
дат	-11.208
▁voe	-11.2081
▁Night	-11.2081
רת	-11.2082
بي	-11.2085
▁minister	-11.2086
σκ	-11.2088
▁Hell	-11.2089
▁تو	-11.2089
▁adı	-11.209
ује	-11.2091
▁через	-11.2093
maz	-11.2097
ják	-11.2097
đe	-11.2098
▁yeni	-11.2099
ției	-11.21
▁smatra	-11.2101
etik	-11.2101
▁filmu	-11.2102
cept	-11.2103
ине	-11.2105
য়া	-11.2105
jih	-11.2108
▁banyak	-11.2112
속	-11.2113
ләр	-11.2114
▁voru	-11.2115
}{	-11.2116
unum	-11.2118
▁constitu	-11.2122
▁SS	-11.2123
еш	-11.2124
sek	-11.2126
▁Best	-11.2126
▁ён	-11.2126
我	-11.2127
▁Lungsod	-11.2128
بان	-11.2129
lant	-11.2129
gni	-11.2129
▁Republik	-11.213
mjer	-11.213
цца	-11.2132
▁granda	-11.2134
▁latach	-11.2135
sä	-11.2137
▁kojem	-11.2137
こ	-11.2138
ток	-11.2138
▁محمد	-11.2139
ню	-11.2139
▁Brazil	-11.214
κα	-11.2142
ương	-11.2145
▁йылдың	-11.2145
▁omkring	-11.2147
▁Creek	-11.2147
▁ඇ	-11.2149
сты	-11.215
▁становника	-11.215
▁finale	-11.215
פת	-11.215
नो	-11.2151
ches	-11.2152
inas	-11.2153
▁Football	-11.2154
▁ביותר	-11.2156
▁Jeho	-11.2158
気	-11.2158
対	-11.2158
▁majd	-11.216
▁Terra	-11.2161
▁مصر	-11.2162
ое	-11.2168
▁gy	-11.2169
ních	-11.217
▁thủ	-11.2171
可能	-11.2171
▁کو	-11.2172
ול	-11.2172
▁Stockholm	-11.2172
▁Japon	-11.2173
組	-11.2175
▁vila	-11.2175
▁Anne	-11.2175
▁dana	-11.2177
увањето	-11.2179
▁వే	-11.218
זה	-11.2182
lika	-11.2182
tà	-11.2183
省	-11.2184
▁χ	-11.2185
▁их	-11.2185
즈	-11.2185
дор	-11.2186
▁drugih	-11.2186
▁they	-11.2186
time	-11.2187
周	-11.2188
გ	-11.2189
▁regi	-11.219
рис	-11.2191
Si	-11.2196
▁Kul	-11.2197
לה	-11.2198
iin	-11.2198
бри	-11.22
mot	-11.2201
▁fil	-11.2201
▁Dio	-11.2203
▁aver	-11.2203
ација	-11.2203
▁לש	-11.2204
into	-11.2204
▁idi	-11.2206
▁말	-11.2208
ària	-11.221
יד	-11.221
▁Texas	-11.2211
▁même	-11.2211
sie	-11.2212
▁سن	-11.2212
▁110	-11.2213
▁2015,	-11.2214
labor	-11.2216
▁modo	-11.2217
eder	-11.2218
нем	-11.2219
▁điểm	-11.222
arch	-11.222
ično	-11.2221
ança	-11.2222
rij	-11.2222
▁চ	-11.2224
▁vrlo	-11.2227
▁3:	-11.2227
▁तर	-11.2228
▁Nga	-11.2228
▁який	-11.2228
▁пов	-11.223
خت	-11.2231
jas	-11.2232
▁đường	-11.2232
ról	-11.2233
čin	-11.2235
ними	-11.2235
▁දී	-11.2236
aris	-11.2236
▁мал	-11.2237
▁numero	-11.2238
гон	-11.2239
師	-11.2241
▁just	-11.2241
лон	-11.2241
▁slo	-11.2241
ела	-11.2242
erd	-11.2243
ují	-11.2245
▁என்பது	-11.2245
يو	-11.2246
▁segle	-11.2246
▁Ball	-11.2247
dun	-11.2249
▁4-	-11.2249
▁ellen	-11.2254
▁full	-11.2256
▁cit	-11.2256
ским	-11.2258
▁Hen	-11.2258
»)	-11.2259
▁stabil	-11.226
話	-11.226
▁দ	-11.226
▁Alfred	-11.226
vern	-11.226
flu	-11.2261
▁hát	-11.2261
▁சா	-11.2261
▁Manuel	-11.2263
▁Angel	-11.2264
▁1997.	-11.2266
▁campo	-11.2267
ес	-11.2267
300	-11.2267
过	-11.2268
got	-11.2269
▁profesional	-11.2271
atie	-11.2271
іі	-11.2271
ലി	-11.2271
rita	-11.2274
▁кра	-11.2276
not	-11.2277
▁통	-11.2277
▁sale	-11.2278
hul	-11.2279
▁bland	-11.228
ộ	-11.228
▁করেছে	-11.2281
▁rot	-11.2281
ডি	-11.2281
▁igra	-11.2282
▁사용	-11.2283
設	-11.2284
▁गा	-11.2285
▁често	-11.2285
▁tok	-11.2286
ките	-11.2286
▁Bungto	-11.2288
▁Στη	-11.2289
▁equipo	-11.229
▁Stan	-11.229
▁Че	-11.2291
කි	-11.2292
▁Sve	-11.2292
▁época	-11.2292
itelj	-11.2292
arı	-11.2293
▁sh	-11.2295
কি	-11.2296
vere	-11.2297
▁발	-11.2297
▁tranh	-11.2297
▁παρ	-11.2298
יר	-11.2299
武	-11.2299
▁nr	-11.2299
▁jarcento	-11.2301
▁European	-11.2304
▁הע	-11.2304
гы	-11.2304
▁দিয়ে	-11.2306
vig	-11.2307
▁οποίο	-11.2309
▁considera	-11.2309
ării	-11.2311
▁kroz	-11.2312
He	-11.2312
dži	-11.2314
▁1996.	-11.2315
▁अनेक	-11.2315
зы	-11.2317
pred	-11.2317
כו	-11.2317
兩	-11.2318
hov	-11.2318
בל	-11.2318
▁Alt	-11.2318
▁روز	-11.2319
ാണ്	-11.232
▁problema	-11.2321
టీ	-11.2321
▁बना	-11.2322
town	-11.2326
эн	-11.233
وه	-11.2332
▁Он	-11.2334
▁Hai	-11.2334
務	-11.2338
▁Kai	-11.2338
▁imao	-11.2342
itus	-11.2342
▁Over	-11.2344
▁emakume	-11.2344
▁sĩ	-11.2346
▁αυτό	-11.2346
▁cầu	-11.2346
ndan	-11.2351
ført	-11.2351
則	-11.2352
ティ	-11.2352
▁Bou	-11.2353
▁тип	-11.2356
▁född	-11.2357
spect	-11.2358
▁thì	-11.2359
ంది	-11.2359
ью	-11.2361
▁کتاب	-11.2362
று	-11.2362
роб	-11.2362
▁még	-11.2362
නු	-11.2363
▁Otto	-11.2365
ρο	-11.2368
▁наоѓа	-11.2369
уд	-11.2371
▁kesk	-11.2374
失	-11.2374
esse	-11.2375
直	-11.2375
▁první	-11.2375
▁Cat	-11.2377
πο	-11.2378
▁Hil	-11.2378
▁চা	-11.2378
▁Williams	-11.238
▁varð	-11.2382
▁안	-11.2383
▁barn	-11.2385
کی	-11.2386
می	-11.2388
ന്	-11.2389
три	-11.2389
▁hindi	-11.2391
▁여	-11.2394
▁članak	-11.2395
▁국	-11.2395
▁firma	-11.2396
turi	-11.2396
▁সি	-11.2397
িয়া	-11.2397
▁mindre	-11.2399
لي	-11.24
lok	-11.2401
校	-11.2401
উ	-11.2402
dığı	-11.2402
ssä	-11.2404
MA	-11.2405
నం	-11.2405
піс	-11.2405
chten	-11.2405
ına	-11.2405
▁Final	-11.2406
گر	-11.2406
2)	-11.2408
▁metu	-11.2408
▁há	-11.2409
▁Pil	-11.2409
▁Tim	-11.2409
▁मो	-11.2409
py	-11.2409
▁Gö	-11.241
ють	-11.241
▁nimi	-11.2411
▁led	-11.2411
rut	-11.2412
sión	-11.2413
▁match	-11.2415
▁rất	-11.242
▁Lind	-11.2421
misel	-11.2421
▁fru	-11.2421
디	-11.2424
▁Miss	-11.2424
▁donde	-11.2426
▁questo	-11.2426
▁спорт	-11.2427
▁단	-11.2427
▁tuo	-11.2428
дың	-11.2429
جر	-11.2429
annya	-11.2431
▁Luc	-11.2433
▁govern	-11.2435
▁район	-11.2436
dad	-11.2437
cla	-11.2437
▁đánh	-11.2438
▁1,5	-11.2439
▁chúng	-11.2441
▁vari	-11.2443
І	-11.2443
বার	-11.2443
DP	-11.2445
▁punt	-11.2445
gol	-11.2446
ැ	-11.2446
▁ను	-11.2446
勒	-11.2447
▁drei	-11.2447
▁kommun	-11.2448
▁ר	-11.2451
▁포	-11.2452
▁universitet	-11.2452
▁nap	-11.2452
▁menga	-11.2454
▁Besøkt	-11.2454
▁Copa	-11.2454
▁ඉ	-11.2456
ellä	-11.2456
▁chu	-11.2457
▁ک	-11.2458
vara	-11.2459
▁figura	-11.2461
▁ár	-11.2462
▁Dy	-11.2463
elles	-11.2463
搭	-11.2463
మీ	-11.2464
▁puta	-11.2465
片	-11.2468
ெ	-11.247
tam	-11.2471
▁taip	-11.2471
št	-11.2472
▁Bos	-11.2473
iksi	-11.2476
▁bang	-11.2477
▁ша	-11.2478
টির	-11.2479
▁première	-11.248
▁нови	-11.248
▁пот	-11.248
▁மக்கள்	-11.2482
đen	-11.2483
▁Joan	-11.2483
یا	-11.2485
గు	-11.2485
δα	-11.2486
▁ret	-11.2486
imp	-11.2487
▁cost	-11.2487
▁пат	-11.2488
语	-11.2489
مساعدة	-11.2491
▁Water	-11.2492
▁повеќе	-11.2492
▁пут	-11.2493
▁उन्हें	-11.2493
хід	-11.2494
▁tập	-11.2495
ию	-11.2495
▁85	-11.2496
▁клас	-11.2496
▁सो	-11.2498
▁Gri	-11.2499
▁njih	-11.25
▁خط	-11.2501
▁città	-11.2502
▁रहे	-11.2505
▁kir	-11.2506
▁विश्व	-11.2507
▁Qua	-11.2508
Su	-11.2512
reg	-11.2512
▁130	-11.2513
▁XV	-11.2513
▁Ман	-11.2514
naw	-11.2515
)}	-11.2515
пад	-11.2515
sio	-11.2515
čne	-11.2518
▁popul	-11.2519
▁север	-11.2519
tě	-11.252
▁bul	-11.2522
dh	-11.2522
▁прв	-11.2524
sini	-11.2524
▁מס	-11.2525
ূ	-11.2526
▁అనే	-11.2527
▁política	-11.2529
mond	-11.2529
義	-11.2531
▁система	-11.2531
▁αντι	-11.2531
▁musical	-11.2532
еді	-11.2534
zat	-11.2534
đa	-11.2535
东	-11.2536
tain	-11.254
▁95	-11.2541
മായ	-11.2541
ाव	-11.2541
600	-11.2542
▁இந்திய	-11.2542
▁XII	-11.2543
▁kry	-11.2544
▁CS	-11.2545
rol	-11.2546
經	-11.2548
US	-11.2549
▁69	-11.2551
▁Mill	-11.2553
ατ	-11.2553
▁شوند	-11.2554
▁Stone	-11.2554
▁göre	-11.2554
非	-11.2555
ming	-11.2556
No	-11.2556
ыл	-11.2556
▁persona	-11.2559
др	-11.2559
كر	-11.256
源	-11.2563
▁অ্যা	-11.2564
ött	-11.2564
анд	-11.2564
מד	-11.2565
″	-11.2566
▁grote	-11.2567
ං	-11.2567
▁धर्म	-11.2569
▁उपयोग	-11.2569
ossa	-11.257
▁Andre	-11.257
daj	-11.2571
▁бор	-11.2572
љ	-11.2572
モ	-11.2572
вър	-11.2573
spekt	-11.2576
▁там	-11.2577
▁США	-11.2577
▁kommer	-11.2578
izma	-11.2579
▁أول	-11.258
jom	-11.2581
▁atas	-11.2581
▁бас	-11.2581
▁Kro	-11.2582
දි	-11.2584
ington	-11.2586
лад	-11.2586
▁pam	-11.2586
▁cấp	-11.2586
がある	-11.2586
▁چند	-11.2586
mbe	-11.2588
मध्ये	-11.2588
ため	-11.2591
ило	-11.2592
▁יש	-11.2592
▁කරන	-11.2592
Ja	-11.2596
▁gör	-11.2598
▁fall	-11.2598
нен	-11.2598
▁drugim	-11.2599
ging	-11.2599
форм	-11.26
▁महा	-11.2601
▁metų	-11.2602
istoj	-11.2602
rett	-11.2602
Man	-11.2602
▁בת	-11.2603
▁tàu	-11.2603
▁Kre	-11.2605
▁siya	-11.2605
lles	-11.2605
▁ثم	-11.2608
phi	-11.2609
ћа	-11.2611
▁pit	-11.2611
▁dunha	-11.2612
En	-11.2613
▁Alp	-11.2614
▁сите	-11.2614
編	-11.2616
ară	-11.2616
Jo	-11.2616
nir	-11.2617
యా	-11.2617
zol	-11.2618
▁né	-11.2618
sul	-11.2618
▁Bere	-11.2619
▁këtë	-11.262
ingu	-11.262
▁1994.	-11.2622
▁Λ	-11.2623
族	-11.2623
To	-11.2624
版	-11.2626
▁natur	-11.2626
▁cont	-11.2626
lung	-11.2626
▁ще	-11.2628
ből	-11.2629
▁kraju	-11.263
ller	-11.2632
▁آل	-11.2632
▁živi	-11.2632
▁Eg	-11.2632
▁הב	-11.2635
rada	-11.2635
▁pala	-11.2635
まで	-11.2636
イン	-11.2636
▁miest	-11.2637
RI	-11.2638
▁Jones	-11.2638
된다	-11.2638
cional	-11.264
史	-11.2643
▁Ос	-11.2644
开	-11.2644
▁له	-11.2645
▁Norge	-11.2647
▁සඳහා	-11.2648
▁título	-11.2649
టా	-11.2649
odo	-11.265
atus	-11.265
system	-11.265
gé	-11.2653
нд	-11.2653
igt	-11.2653
▁Spo	-11.2654
վ	-11.2654
קי	-11.2655
ల్ల	-11.2655
తా	-11.2655
권	-11.2656
ключ	-11.2657
bru	-11.2657
தா	-11.2658
ზე	-11.266
lain	-11.2663
投	-11.2663
▁kung	-11.2663
ъл	-11.2663
▁حتى	-11.2663
▁Kla	-11.2664
וס	-11.2665
▁ఆమె	-11.2665
▁अनुसार	-11.2666
ální	-11.2667
▁Napoleon	-11.2667
▁pels	-11.2667
рат	-11.2668
וג	-11.2668
▁internacional	-11.2668
▁ton	-11.267
уч	-11.2671
▁76	-11.2672
ûn	-11.2673
▁том	-11.2673
רה	-11.2673
eel	-11.2674
ľ	-11.2674
evi	-11.2674
ahan	-11.2674
skip	-11.2676
▁địa	-11.2676
▁új	-11.2676
▁Mount	-11.2676
roj	-11.2677
CD	-11.2678
ző	-11.2678
▁Boy	-11.268
Vi	-11.268
ակ	-11.2681
ונים	-11.2681
тин	-11.2681
▁ता	-11.2683
sign	-11.2683
▁Raz	-11.2684
▁év	-11.2685
ôn	-11.2686
шир	-11.2687
gado	-11.2687
سون	-11.2688
ierte	-11.2689
Th	-11.269
▁Nie	-11.269
മാ	-11.2692
▁لو	-11.2692
▁Ober	-11.2693
ství	-11.2693
inni	-11.2693
▁Mundial	-11.2696
▁Ρ	-11.2696
пу	-11.2698
овите	-11.2698
▁său	-11.2698
tje	-11.2698
த்தி	-11.2699
▁되었다	-11.2699
сил	-11.27
▁station	-11.2701
ein	-11.2701
▁Ча	-11.2702
▁szerint	-11.2703
pé	-11.2703
ети	-11.2705
▁Bat	-11.2705
▁جو	-11.2705
▁zituzten	-11.2705
▁salah	-11.2705
▁second	-11.2706
stadt	-11.2706
▁lider	-11.2707
צה	-11.2707
▁داشت	-11.2708
ளி	-11.2709
▁בר	-11.2712
▁گ	-11.2712
нал	-11.2713
лә	-11.2717
▁hall	-11.2718
▁altres	-11.272
▁1995.	-11.2721
tien	-11.2722
▁గ్రామం	-11.2723
▁sedan	-11.2723
ბ	-11.2724
шки	-11.2725
alia	-11.2725
dent	-11.2727
▁erabiltzen	-11.2727
▁malo	-11.2728
▁أكثر	-11.2729
▁unui	-11.2729
ków	-11.2731
ivat	-11.2731
▁Soviet	-11.2732
ors	-11.2733
kó	-11.2733
▁kri	-11.2733
▁ත	-11.2733
▁autonom	-11.2734
▁creat	-11.2734
άλ	-11.2735
icos	-11.2735
botan	-11.2743
▁1889	-11.2744
ує	-11.2745
▁automobil	-11.2746
cis	-11.2746
یل	-11.2746
gla	-11.2748
сан	-11.275
▁Dunay	-11.2752
нс	-11.2752
▁phân	-11.2754
ベ	-11.2756
cen	-11.2756
fur	-11.2757
maya	-11.2757
▁leid	-11.2759
感	-11.2759
ями	-11.276
ovou	-11.2761
Ο	-11.2762
▁చేయ	-11.2763
еј	-11.2765
press	-11.2765
əsi	-11.2765
selt	-11.2767
▁viol	-11.2767
▁הג	-11.2768
▁grunn	-11.277
▁ін	-11.2771
▁dobro	-11.2772
▁stata	-11.2773
▁anak	-11.2774
elen	-11.2775
lichen	-11.2775
niki	-11.2775
木	-11.2775
▁Kel	-11.2776
▁тим	-11.2776
▁Rum	-11.2778
וז	-11.2778
▁Cra	-11.2779
▁vse	-11.2779
▁sống	-11.278
▁ఆయన	-11.278
ihin	-11.2781
▁także	-11.2782
ions	-11.2783
▁kojima	-11.2783
AS	-11.2784
acji	-11.2784
▁1885	-11.2784
직	-11.2785
▁tham	-11.2786
▁iş	-11.2788
▁patag	-11.2788
▁continu	-11.2789
egen	-11.279
▁súas	-11.279
火	-11.2791
清	-11.2793
سی	-11.2794
ენ	-11.2795
這	-11.2795
▁especial	-11.2796
▁Vuonna	-11.2797
▁aussi	-11.2799
▁wurdt	-11.28
rede	-11.28
▁hoved	-11.2802
▁Gy	-11.2802
ҷ	-11.2802
▁också	-11.2804
▁Sky	-11.2804
食	-11.2805
▁داده	-11.2805
bile	-11.2805
رت	-11.2805
▁елда	-11.2805
▁napad	-11.2806
▁will	-11.2806
▁Region	-11.2807
▁bé	-11.2807
導	-11.2809
▁Με	-11.281
▁jis	-11.281
пан	-11.2811
"),	-11.2813
▁vực	-11.2814
▁назва	-11.2814
統	-11.2815
▁esca	-11.2817
rri	-11.2818
αι	-11.2819
▁пер	-11.282
▁politika	-11.2821
पी	-11.2822
▁tarp	-11.2823
gues	-11.2823
▁Раз	-11.2824
▁đấu	-11.2824
më	-11.2824
elli	-11.2824
▁مو	-11.2827
率	-11.2828
נק	-11.2828
ότητα	-11.283
▁également	-11.2831
ёр	-11.2832
hari	-11.2832
▁הר	-11.2833
ára	-11.2834
ont	-11.2834
ois	-11.2836
▁Fre	-11.2836
inti	-11.2838
▁Mỹ	-11.2839
▁لي	-11.2839
この	-11.284
ҳ	-11.2841
▁num	-11.2842
▁dve	-11.2842
AL	-11.2843
▁Bis	-11.2843
syn	-11.2844
▁ocupa	-11.2844
▁1860	-11.2845
▁mwaka	-11.2847
ধ	-11.2848
▁neo	-11.2848
▁través	-11.2848
▁Team	-11.285
▁Bri	-11.285
segu	-11.2851
вали	-11.2851
ゴ	-11.2852
▁wel	-11.2852
jama	-11.2853
▁spe	-11.2853
▁Фа	-11.2855
ћи	-11.2856
今	-11.2858
▁kombin	-11.2862
SS	-11.2862
▁trí	-11.2862
▁Franz	-11.2864
超	-11.2864
▁adlı	-11.2864
▁Korea	-11.2865
▁nhạc	-11.2866
▁aktor	-11.2866
▁njegove	-11.2867
ින්	-11.2867
▁Мал	-11.2867
tav	-11.2868
▁verið	-11.2869
inus	-11.287
ści	-11.287
▁Dre	-11.2871
▁organiza	-11.2871
стар	-11.2872
▁mezi	-11.2873
▁lasang	-11.2873
entes	-11.2874
مة	-11.2874
تين	-11.2874
חת	-11.2876
联	-11.2877
aksi	-11.2877
그	-11.2879
▁kompleks	-11.288
▁অনেক	-11.288
▁بت	-11.288
▁significa	-11.2881
▁ජ	-11.2884
▁indica	-11.2884
▁khoảng	-11.2887
▁kojoj	-11.2888
▁vùng	-11.2888
▁Си	-11.2888
رق	-11.2888
ظ	-11.2888
Con	-11.2889
▁Đức	-11.2892
Bu	-11.2895
stoj	-11.2898
▁Ж	-11.2898
▁må	-11.2899
owany	-11.2899
yla	-11.2901
ۇ	-11.2902
katu	-11.2903
stal	-11.2903
员	-11.2903
动	-11.2904
▁ami	-11.2905
বে	-11.2905
shëm	-11.2906
▁हि	-11.2906
业	-11.2907
ート	-11.2909
하기	-11.2909
ვა	-11.291
▁دهد	-11.2911
▁Bah	-11.2912
▁avut	-11.2913
▁menos	-11.2914
▁мі	-11.2915
ated	-11.2915
kami	-11.2917
riko	-11.2917
jų	-11.2917
▁hóa	-11.2918
ezi	-11.2919
▁medio	-11.2919
▁kie	-11.292
▁фа	-11.292
▁ph	-11.2921
schap	-11.2921
▁particular	-11.2921
eň	-11.2923
土	-11.2923
тите	-11.2924
▁Show	-11.2924
▁Milan	-11.2924
▁Leon	-11.2924
ол	-11.2924
ിൽ	-11.2924
▁tarde	-11.2925
によって	-11.2926
▁Como	-11.2926
PS	-11.2926
▁알	-11.2928
ël	-11.2931
▁Sara	-11.2932
0,000	-11.2932
ális	-11.2932
▁seiner	-11.2933
▁Pred	-11.2933
gere	-11.2934
▁avant	-11.2934
▁ولكن	-11.2935
▁Đại	-11.2935
▁fon	-11.2935
羅	-11.2936
mini	-11.2936
пар	-11.2937
иш	-11.2937
▁Ти	-11.294
οπ	-11.2941
▁관	-11.2941
▁habitantes	-11.2942
▁dunia	-11.2942
▁හ	-11.2943
▁segunda	-11.2944
▁než	-11.2946
▁rokoch	-11.2946
▁nii	-11.2947
▁Henri	-11.2948
▁fizik	-11.2948
ғ	-11.2949
▁hver	-11.2951
▁herri	-11.2951
▁talde	-11.2951
▁suur	-11.2957
▁artist	-11.2957
▁cili	-11.2958
▁73	-11.2959
▁Fan	-11.296
▁форма	-11.2962
브	-11.2962
▁vit	-11.2965
unun	-11.2966
▁gian	-11.2966
▁kuri	-11.2971
zó	-11.2973
▁Jacob	-11.2974
eres	-11.2974
▁aga	-11.2974
▁الخ	-11.2976
▁milli	-11.2978
▁music	-11.2979
江	-11.2981
▁temperatura	-11.2981
計	-11.2981
▁República	-11.2981
תי	-11.2982
▁jeden	-11.2984
▁anterior	-11.2984
▁piano	-11.2984
landa	-11.2985
инг	-11.2986
tör	-11.299
Ne	-11.299
▁prostor	-11.2991
▁років	-11.2991
▁egun	-11.2992
▁стил	-11.2992
יס	-11.2993
čio	-11.2997
▁pjesë	-11.2997
▁biskup	-11.2997
▁Ша	-11.2998
▁различни	-11.2998
uloj	-11.2999
engelsk	-11.2999
▁Anton	-11.2999
kr	-11.2999
▁বিভিন্ন	-11.3001
পা	-11.3001
▁Arthur	-11.3005
kı	-11.3005
ক্স	-11.3005
شر	-11.3007
лас	-11.3008
▁Alex	-11.3009
yə	-11.3009
aires	-11.301
जन	-11.301
ković	-11.301
richt	-11.3012
pati	-11.3012
zion	-11.3013
▁warrt	-11.3015
▁won	-11.3015
ď	-11.3015
▁pad	-11.3016
▁imaju	-11.3018
▁Inggris	-11.3019
larına	-11.302
him	-11.3021
बी	-11.3021
▁Për	-11.3022
rna	-11.3022
▁havet	-11.3023
ета	-11.3023
tch	-11.3025
▁kogu	-11.3027
ني	-11.3028
tą	-11.3028
▁često	-11.3029
▁만	-11.303
실	-11.3031
▁Hel	-11.3031
▁fr	-11.3034
joje	-11.3034
▁অব	-11.3035
▁tada	-11.3035
▁air	-11.3036
ninger	-11.3037
▁Ге	-11.3037
ө	-11.3038
▁naziv	-11.3038
زی	-11.3039
▁위	-11.304
▁honor	-11.304
想	-11.304
役	-11.3041
kad	-11.3042
Qu	-11.3045
1%	-11.3045
▁posto	-11.3045
▁77	-11.3045
▁Ple	-11.3046
▁pes	-11.3046
▁năng	-11.3046
▁команд	-11.3047
луч	-11.3048
別	-11.3048
▁nov	-11.3049
▁brit	-11.3049
▁කළ	-11.3049
▁жыл	-11.305
▁than	-11.3054
▁Nar	-11.3054
lân	-11.3055
▁कै	-11.3055
▁moderne	-11.3056
гра	-11.3056
▁drama	-11.3057
류	-11.3057
dul	-11.3058
ші	-11.3058
tado	-11.3061
uff	-11.3061
점	-11.3061
▁तीन	-11.3062
დ	-11.3064
▁boj	-11.3065
atan	-11.3065
мп	-11.3066
▁lí	-11.3068
▁కో	-11.3068
niku	-11.307
▁Pháp	-11.307
tava	-11.3071
▁تاریخ	-11.3071
OL	-11.3071
ս	-11.3072
ities	-11.3075
ované	-11.3078
uran	-11.3079
▁Вы	-11.3079
▁Stein	-11.3079
▁Rec	-11.308
▁1894	-11.308
▁zato	-11.3081
2015	-11.3082
ησε	-11.3082
▁đoàn	-11.3083
버	-11.3084
▁הברית	-11.3084
▁seda	-11.3085
main	-11.3085
ංග	-11.3091
▁tradicional	-11.3091
serv	-11.3091
思	-11.3092
▁ט	-11.3092
कि	-11.3094
▁কিন্তু	-11.3094
▁సి	-11.3095
änd	-11.3097
ावर	-11.3098
属	-11.3104
▁Act	-11.3105
▁orient	-11.3105
enta	-11.3106
вор	-11.3106
▁compar	-11.3106
▁1888	-11.311
▁defin	-11.3111
వర్	-11.3111
כל	-11.3112
лей	-11.3112
▁куп	-11.3112
yen	-11.3113
gui	-11.3114
zal	-11.3115
▁tud	-11.3115
iş	-11.3115
adores	-11.3115
▁hari	-11.3117
cr	-11.312
toria	-11.3121
▁sü	-11.3121
▁உள்ளது	-11.3122
hä	-11.3123
▁lá	-11.3123
udo	-11.3123
▁করার	-11.3124
▁অংশ	-11.3124
wel	-11.3124
λα	-11.3125
mmen	-11.3127
ন্দ	-11.3128
示	-11.3128
▁Joe	-11.3128
▁विकास	-11.3129
▁pasa	-11.3129
פר	-11.3131
▁eri	-11.3131
نس	-11.3132
▁primi	-11.3133
ијата	-11.3133
druž	-11.3134
▁arba	-11.3136
▁byly	-11.3138
мір	-11.3139
▁Nas	-11.314
▁фон	-11.314
▁1892	-11.3142
ైన	-11.3146
നി	-11.3148
▁дзе	-11.3148
▁neces	-11.3149
▁fase	-11.3149
ך	-11.315
▁font	-11.3151
ির	-11.3152
qua	-11.3154
▁३	-11.3154
▁שמ	-11.3155
▁être	-11.3155
▁Jon	-11.3155
ично	-11.3155
▁ము	-11.3156
▁vlada	-11.3157
▁thấy	-11.3157
яс	-11.3158
cular	-11.3159
▁Wall	-11.316
▁میلادی	-11.316
ful	-11.3161
жу	-11.3162
år	-11.3166
▁власт	-11.3166
eho	-11.3167
▁склад	-11.3167
▁века	-11.3168
작	-11.3168
▁Us	-11.3169
告	-11.317
гә	-11.317
ță	-11.317
▁oer	-11.3171
▁74	-11.3172
ணி	-11.3172
▁meta	-11.3173
ంద	-11.3173
hand	-11.3174
▁Cri	-11.3174
रि	-11.3174
▁また	-11.3175
居	-11.3176
shire	-11.3177
▁ه	-11.3177
▁apar	-11.3178
▁shk	-11.3179
段	-11.3181
had	-11.3181
▁Ren	-11.3181
▁Nó	-11.3181
▁ihre	-11.3183
▁영	-11.3184
abb	-11.3184
▁mlad	-11.3185
úr	-11.3185
▁bisa	-11.3186
date	-11.3187
ář	-11.3187
qa	-11.3189
▁Kil	-11.3193
▁Amsterdam	-11.3193
ických	-11.3194
▁tysk	-11.3194
minen	-11.3196
▁הראשון	-11.3197
ани	-11.3199
bang	-11.3202
▁מספר	-11.3202
▁biri	-11.3202
ერ	-11.3202
çu	-11.3203
rekin	-11.3204
ppi	-11.3205
▁בית	-11.3205
▁1893	-11.3205
▁ప్రకారం	-11.3205
ලා	-11.3206
▁שי	-11.3206
hm	-11.3206
▁ప్రతి	-11.3207
ağı	-11.3209
ною	-11.3209
roz	-11.3209
वाद	-11.321
ლ	-11.3211
day	-11.3211
йн	-11.3212
▁ante	-11.3213
קה	-11.3213
යෙන්	-11.3214
▁пла	-11.3216
▁dêr	-11.3218
▁باز	-11.3219
رات	-11.322
scher	-11.322
leid	-11.3221
▁fie	-11.3221
村	-11.3221
ues	-11.3222
யும்	-11.3222
▁Disney	-11.3224
গুলো	-11.3224
ピ	-11.3227
ன்ற	-11.3229
tab	-11.323
itar	-11.3231
థ	-11.3232
▁baru	-11.3232
頭	-11.3234
யான	-11.3236
лення	-11.3238
▁Alle	-11.3239
▁توان	-11.3241
▁бір	-11.3241
▁Johannes	-11.3243
لم	-11.3244
▁Lar	-11.3244
▁Hin	-11.3245
ciu	-11.3245
▁Ford	-11.3246
▁ví	-11.3246
▁metais	-11.3246
▁encara	-11.3248
▁పా	-11.3248
▁Tây	-11.325
liği	-11.3251
あ	-11.3251
ický	-11.3253
▁سا	-11.3254
▁epi	-11.3254
ন্ড	-11.3256
▁municipal	-11.3256
▁Sk	-11.3257
tega	-11.3257
інде	-11.3258
ели	-11.3258
▁invånare	-11.3259
වන	-11.3259
▁mellan	-11.326
ас	-11.3261
▁جنگ	-11.3261
фр	-11.3262
ിയ	-11.3262
▁kanyang	-11.3265
▁стал	-11.3266
▁1980-	-11.3267
ink	-11.3267
шт	-11.3268
移	-11.3269
▁mida	-11.327
тив	-11.327
हरू	-11.327
800	-11.327
亚	-11.3271
▁पो	-11.3272
▁moi	-11.3272
▁automat	-11.3273
ூ	-11.3274
▁libre	-11.3274
▁kost	-11.3276
að	-11.3277
▁Ili	-11.3277
▁іх	-11.3278
post	-11.3281
装	-11.3282
▁ద	-11.3282
אות	-11.3282
ප්	-11.3283
▁καθώς	-11.3284
шка	-11.3286
▁Ferdinand	-11.3286
▁Provincia	-11.3288
τος	-11.3288
▁kron	-11.3289
▁Jun	-11.329
Te	-11.329
▁Institute	-11.3291
▁egyik	-11.3291
ref	-11.3295
▁gav	-11.3297
ական	-11.3299
imet	-11.3299
▁стала	-11.33
dist	-11.3301
▁Jur	-11.3301
▁comune	-11.3302
▁bud	-11.3302
שר	-11.3302
ন্ত	-11.3303
வில்	-11.3303
▁akt	-11.3304
λέ	-11.3304
ones	-11.3304
▁tubig	-11.3305
▁lov	-11.3305
osios	-11.3307
ирани	-11.3308
исти	-11.3308
▁SAD	-11.3308
▁IX	-11.3309
▁она	-11.3309
tika	-11.3309
▁запад	-11.331
merk	-11.3312
⁡	-11.3314
▁Vä	-11.3315
領	-11.3315
sik	-11.3317
▁chuyển	-11.332
▁Ол	-11.3321
即	-11.3322
▁quatre	-11.3323
▁آب	-11.3323
▁worrn	-11.3323
maa	-11.3323
▁novi	-11.3324
▁орналасқан	-11.3324
rid	-11.3325
▁mineral	-11.3325
▁සිදු	-11.3326
ull	-11.3329
▁대한	-11.3329
▁কাজ	-11.3331
▁बार	-11.3331
ري	-11.3331
ատ	-11.3334
▁tej	-11.3335
象	-11.3336
eten	-11.3336
▁tradi	-11.3337
▁Gall	-11.3338
▁periodo	-11.3338
▁dansk	-11.3338
ора	-11.334
▁జిల్లా	-11.334
кен	-11.3342
hrad	-11.3342
zza	-11.3343
▁rekord	-11.3344
▁Kam	-11.3346
▁Аб	-11.3347
▁partie	-11.3348
▁Finland	-11.3349
落	-11.3349
▁Ei	-11.335
▁אחד	-11.3353
landi	-11.3353
▁hefur	-11.3353
▁Pakistan	-11.3354
gă	-11.3354
▁propos	-11.3355
ljen	-11.3355
▁Вер	-11.3356
ень	-11.3356
AP	-11.3357
▁deel	-11.3357
nike	-11.3359
uv	-11.3359
рак	-11.3359
▁letter	-11.3361
▁2003,	-11.3361
▁أنه	-11.3361
mě	-11.3362
▁Premio	-11.3363
▁Stre	-11.3364
▁Ντ	-11.3364
▁parto	-11.3365
lerini	-11.3366
▁negativ	-11.3368
素	-11.337
కం	-11.337
ông	-11.3371
▁varia	-11.3372
וד	-11.3372
bie	-11.3373
jana	-11.3373
▁گروه	-11.3373
普	-11.3374
bek	-11.3374
izam	-11.3375
лися	-11.3375
fla	-11.3375
konna	-11.3376
म्	-11.3378
▁Một	-11.3379
▁č	-11.338
▁rest	-11.3382
iei	-11.3382
▁Londres	-11.3383
▁trận	-11.3383
▁Institut	-11.3384
ști	-11.3385
▁tzv	-11.3386
であり	-11.3388
ене	-11.3388
▁λ	-11.3388
▁Jahre	-11.3388
▁kontakt	-11.3388
▁Game	-11.3388
تي	-11.3392
oka	-11.3394
▁ran	-11.3394
ията	-11.3395
▁logo	-11.3395
▁skup	-11.3395
▁140	-11.3396
сының	-11.3396
νη	-11.3396
退	-11.3396
▁stoljeća	-11.3396
발	-11.3396
etto	-11.3398
kret	-11.34
ې	-11.34
▁Гор	-11.3404
Mi	-11.3404
▁उसके	-11.3404
▁הח	-11.3405
▁gih	-11.3407
▁1990-	-11.3409
ங்களில்	-11.3409
CO	-11.3412
▁njegova	-11.3412
βα	-11.3413
apa	-11.3413
▁nên	-11.3413
ыс	-11.3414
әк	-11.3415
▁баш	-11.3415
цыі	-11.3416
▁hiri	-11.3418
▁পর্যন্ত	-11.3418
▁Henrik	-11.3419
母	-11.3419
inę	-11.3419
▁користи	-11.3421
quin	-11.3422
ৌ	-11.3422
▁ബ	-11.3424
▁gizon	-11.3427
▁Michel	-11.3429
colo	-11.3429
yt	-11.343
llä	-11.3434
μο	-11.3435
▁μία	-11.3435
▁Are	-11.3436
▁пос	-11.3436
▁magyar	-11.3437
▁hartu	-11.3438
▁78	-11.3439
▁सरकार	-11.3439
▁fog	-11.3439
▁Пу	-11.344
!"	-11.344
▁ф	-11.3441
▁protest	-11.3442
igu	-11.3443
κτ	-11.3444
福	-11.3444
▁kontraŭ	-11.3445
▁مارس	-11.3445
▁forme	-11.3446
шен	-11.3448
mani	-11.3448
ада	-11.3451
▁End	-11.3452
▁налази	-11.3453
施	-11.3454
▁bru	-11.3454
ेट	-11.3455
ğı	-11.3456
mathbf	-11.3457
▁Hong	-11.3457
▁diplom	-11.3457
▁Wal	-11.3458
diği	-11.3458
▁klima	-11.3459
▁نوع	-11.346
▁histori	-11.3461
▁दक्षिण	-11.3461
▁קו	-11.3462
▁प्रमुख	-11.3462
▁glavni	-11.3462
▁फिल्म	-11.3463
äh	-11.3463
▁potreb	-11.3465
▁koloni	-11.3465
▁home	-11.3465
威	-11.3465
Š	-11.3467
ești	-11.3468
▁1970-	-11.3468
▁Play	-11.3469
▁ûnder	-11.3469
cev	-11.3469
▁Musik	-11.347
כה	-11.347
धी	-11.3471
作品	-11.3471
мент	-11.3471
▁medi	-11.3473
átor	-11.3473
ED	-11.3473
▁1993.	-11.3474
▁دي	-11.3474
▁հ	-11.3475
яў	-11.3476
EL	-11.3477
▁years	-11.3477
стро	-11.3477
ових	-11.3478
ել	-11.3479
eller	-11.3479
cit	-11.348
ത്ര	-11.348
像	-11.348
▁Македонија	-11.3481
▁digital	-11.3481
esti	-11.3481
ік	-11.3482
ați	-11.3482
eniu	-11.3483
▁partit	-11.3484
rer	-11.3484
▁liv	-11.3486
▁неговата	-11.3486
네	-11.3486
▁جمعیت	-11.3488
стор	-11.3488
▁Mr	-11.3489
▁शामिल	-11.349
▁convert	-11.3491
στ	-11.3492
▁दिन	-11.3493
▁더	-11.3494
glas	-11.3496
▁År	-11.3497
▁Walter	-11.3497
▁pedig	-11.3497
iä	-11.3498
try	-11.3499
▁blok	-11.3499
罗	-11.35
Ц	-11.35
otta	-11.3502
▁pai	-11.3502
▁Edi	-11.3502
▁raja	-11.3503
▁متر	-11.3504
bah	-11.3506
▁комп	-11.3506
▁గ్రామంలో	-11.3506
▁rreth	-11.3507
▁71	-11.3508
пі	-11.3508
▁act	-11.3509
▁aparece	-11.351
▁μέχρι	-11.3511
▁निर्माण	-11.3512
লো	-11.3513
这	-11.3513
lərin	-11.3513
▁وهي	-11.3514
గి	-11.3514
▁seks	-11.3514
αρ	-11.3515
▁fakt	-11.3515
▁baino	-11.3517
▁öz	-11.3517
▁njen	-11.3517
▁بخش	-11.3519
▁helt	-11.352
▁log	-11.3522
ධ	-11.3524
▁99	-11.3524
icus	-11.3524
tama	-11.3526
களும்	-11.3526
sť	-11.3527
ொ	-11.3527
▁toda	-11.3527
▁Mine	-11.3528
rije	-11.3528
▁четири	-11.3529
▁כמו	-11.3529
чно	-11.3531
▁আছে	-11.3532
▁forte	-11.3533
▁vlasti	-11.3534
▁ken	-11.3534
▁pé	-11.3534
管	-11.3536
▁кри	-11.3536
اری	-11.3538
▁spolu	-11.3538
▁실	-11.3539
▁metod	-11.3539
▁kab	-11.354
کس	-11.3541
▁kasadpan	-11.3541
▁gjatë	-11.3542
jam	-11.3543
bos	-11.3543
park	-11.3545
▁생	-11.3546
یز	-11.3546
dini	-11.3547
мал	-11.3548
▁மா	-11.3548
▁vod	-11.3549
▁שני	-11.355
公司	-11.355
▁töö	-11.355
▁vojni	-11.3551
ეს	-11.3551
menti	-11.3553
кә	-11.3553
▁AS	-11.3554
íu	-11.3554
▁punto	-11.3555
▁Johan	-11.3556
▁xã	-11.3556
οντας	-11.3557
gam	-11.356
▁sortu	-11.356
itos	-11.3561
▁перед	-11.3561
tid	-11.3562
료	-11.3563
助	-11.3563
wak	-11.3564
uksen	-11.3565
▁Oslo	-11.3566
▁vrsta	-11.3567
▁Ross	-11.3567
▁انجام	-11.3568
）、	-11.3568
tol	-11.3568
▁ν	-11.3569
▁mont	-11.3569
бран	-11.3569
▁rokov	-11.357
▁går	-11.357
▁रहा	-11.3572
▁hanya	-11.3573
▁dau	-11.3573
▁gjennom	-11.3575
▁neu	-11.3575
▁dous	-11.3575
lių	-11.3578
▁familjen	-11.3579
限	-11.3579
▁5-	-11.358
віт	-11.3582
▁symbol	-11.3586
ంట	-11.3586
rø	-11.3587
▁Santiago	-11.3588
чер	-11.3589
ரோ	-11.3589
▁Пра	-11.3589
šla	-11.359
備	-11.3593
iche	-11.3593
▁nomo	-11.3594
ssel	-11.3594
בו	-11.3594
▁هایی	-11.3594
▁izena	-11.3595
▁intens	-11.3595
▁حال	-11.3596
▁about	-11.3596
fic	-11.3597
▁Fr	-11.3597
ril	-11.3598
▁Jud	-11.3598
▁kru	-11.3598
þ	-11.36
ძ	-11.36
▁alors	-11.3602
▁yıl	-11.3603
тік	-11.3603
mien	-11.3603
rina	-11.3603
▁जाने	-11.3604
▁आदि	-11.3604
eus	-11.3605
بة	-11.3605
▁Georg	-11.3607
▁মি	-11.3607
ωση	-11.3608
িং	-11.3609
▁egen	-11.3609
▁alte	-11.361
▁skupina	-11.361
▁Lei	-11.3612
천	-11.3612
sze	-11.3612
▁tut	-11.3613
▁individu	-11.3615
quí	-11.3615
愛	-11.3615
kam	-11.3616
▁Prvi	-11.3616
vald	-11.3616
apan	-11.3616
ських	-11.3618
back	-11.3618
szer	-11.3618
며	-11.3619
▁ஆண்டில்	-11.3619
▁области	-11.3621
▁França	-11.3621
ojo	-11.3621
▁1891	-11.3621
▁realiz	-11.3621
案	-11.3621
決	-11.3622
▁edir	-11.3623
▁منطقه	-11.3625
▁88	-11.3625
usu	-11.3627
ίσ	-11.3627
▁Vest	-11.3627
▁stand	-11.3628
▁84	-11.3628
RO	-11.3629
اج	-11.363
BS	-11.3631
олог	-11.3632
▁only	-11.3633
▁etc	-11.3634
▁py	-11.3635
ште	-11.3635
лег	-11.3636
▁miesto	-11.3637
推	-11.3637
ंक	-11.3638
▁Pont	-11.3638
களுக்கு	-11.3638
▁samhälle	-11.3641
▁թ	-11.3642
anna	-11.3642
▁Historia	-11.3643
▁일본	-11.3644
▁спо	-11.3644
▁nje	-11.3644
論	-11.3644
▁இரு	-11.3646
так	-11.3646
లే	-11.3646
▁prvo	-11.3647
▁Rose	-11.3648
질	-11.3648
난	-11.3649
▁medicin	-11.3649
RA	-11.3649
▁planta	-11.3651
▁fick	-11.3653
▁Young	-11.3655
該	-11.3656
osť	-11.3657
▁mukaan	-11.3658
▁rom	-11.3658
ship	-11.3659
ūr	-11.3659
▁Res	-11.366
▁petit	-11.3661
9%	-11.3661
pli	-11.3662
cina	-11.3663
▁გა	-11.3663
cial	-11.3664
▁सन्	-11.3665
▁दा	-11.3667
▁Paulo	-11.3667
šte	-11.3668
队	-11.3668
izo	-11.3668
են	-11.3669
▁när	-11.3669
னா	-11.3669
战	-11.3671
▁أيضا	-11.3671
▁mayor	-11.3671
收	-11.3671
▁cin	-11.3672
այ	-11.3674
rė	-11.3675
▁död	-11.3675
▁sens	-11.3675
бит	-11.3677
▁argument	-11.3678
▁postal	-11.3679
arse	-11.3679
▁చె	-11.368
CC	-11.368
vant	-11.368
▁Vr	-11.3681
男	-11.3685
▁stran	-11.3685
rim	-11.3685
tique	-11.3686
▁nghiệp	-11.3687
yı	-11.3687
▁liberal	-11.3688
Ch	-11.3689
▁están	-11.369
从	-11.369
病	-11.3691
▁Pap	-11.3691
▁medal	-11.3691
▁Premier	-11.3693
نى	-11.3694
▁چ	-11.3694
▁असे	-11.3696
tka	-11.3701
▁köz	-11.3702
forma	-11.3703
▁Cy	-11.3703
▁dol	-11.3704
반	-11.3705
kaan	-11.3705
▁poate	-11.3705
▁tussen	-11.3705
▁इसका	-11.3706
rako	-11.3706
▁komunumo	-11.3706
▁pru	-11.3706
ώς	-11.3709
čev	-11.3711
ंच	-11.3711
▁His	-11.3711
ৰ্	-11.3711
▁Marc	-11.3712
auto	-11.3712
▁Histori	-11.3713
gne	-11.3713
▁magnet	-11.3713
により	-11.3714
▁gegen	-11.3714
▁contro	-11.3715
έλ	-11.3716
ulagway	-11.3716
▁dra	-11.3717
▁století	-11.3718
▁río	-11.3719
“)	-11.3719
置	-11.372
ケ	-11.372
▁θ	-11.3722
cap	-11.3723
▁মু	-11.3724
▁1960-	-11.3725
thi	-11.3727
σαν	-11.3727
▁2:	-11.3727
▁종	-11.373
▁Rim	-11.373
سو	-11.3731
▁período	-11.3733
▁ose	-11.3733
关	-11.3733
azio	-11.3735
▁oblik	-11.3735
▁Johnson	-11.3736
▁Hart	-11.3737
дов	-11.3739
条	-11.3741
▁Mü	-11.3742
AM	-11.3743
▁போ	-11.3743
äm	-11.3744
▁ул	-11.3744
ðar	-11.3746
tuar	-11.3746
▁स्	-11.3747
τη	-11.3747
又	-11.3748
ън	-11.3749
лось	-11.375
ация	-11.3751
kė	-11.3751
▁1878	-11.3755
▁चि	-11.3755
▁Spring	-11.3755
▁division	-11.3756
▁खा	-11.3756
सं	-11.3757
▁nhau	-11.3757
▁Entertainment	-11.3757
ۈ	-11.3758
▁mặt	-11.3758
▁nær	-11.3759
▁Ông	-11.3759
▁adopt	-11.3759
▁Кан	-11.3763
υς	-11.3764
▁4,	-11.3764
▁tərəfindən	-11.3764
▁June	-11.3765
▁Force	-11.3766
ण्ड	-11.3766
▁मध्य	-11.3766
▁стар	-11.3767
判	-11.377
ital	-11.3771
▁tun	-11.3773
▁rond	-11.3775
▁mondo	-11.3775
▁aquesta	-11.3775
▁phương	-11.3776
uten	-11.3776
▁Chris	-11.3778
εία	-11.3779
▁Sum	-11.3779
▁Lord	-11.378
▁త	-11.3781
bide	-11.3781
號	-11.3781
lder	-11.3781
▁בס	-11.3783
▁Wiki	-11.3784
ezh	-11.3787
3,	-11.3787
▁πρώτη	-11.3788
kia	-11.3788
▁दी	-11.3789
нім	-11.379
▁тур	-11.379
▁카	-11.3791
ppel	-11.3792
質	-11.3792
▁kil	-11.3793
통	-11.3793
▁교	-11.3794
▁Rusia	-11.3794
ander	-11.3794
主要	-11.3794
▁الله	-11.3795
τερ	-11.3795
erek	-11.3799
▁ს	-11.3799
▁تن	-11.38
▁IMDb	-11.38
נות	-11.3801
▁pont	-11.3801
ঙ্গ	-11.3801
▁esti	-11.3802
▁tổ	-11.3804
üs	-11.3804
▁2002,	-11.3806
▁când	-11.3806
иран	-11.3806
▁στους	-11.3807
▁play	-11.3807
pai	-11.3807
கை	-11.381
▁Mike	-11.3811
▁Nhật	-11.3811
▁знач	-11.3812
▁бе	-11.3812
▁staat	-11.3813
▁били	-11.3814
്യ	-11.3815
▁زیر	-11.3815
وش	-11.3818
rə	-11.3819
ура	-11.382
чин	-11.3821
▁krist	-11.3823
mbang	-11.3823
▁đây	-11.3823
客	-11.3825
వే	-11.3826
▁kapel	-11.3826
▁giữa	-11.3828
▁입	-11.3828
▁telefon	-11.3829
후	-11.3829
вање	-11.383
它	-11.383
▁cent	-11.3833
టు	-11.3833
రే	-11.3833
▁Little	-11.3833
▁üks	-11.3835
▁మి	-11.3837
ιστ	-11.3837
件	-11.3837
▁Кра	-11.3838
ाय	-11.3838
▁1886	-11.384
дра	-11.3841
▁isto	-11.3841
يك	-11.3842
▁Tartu	-11.3842
É	-11.3843
▁কোন	-11.3843
▁বলে	-11.3843
opera	-11.3844
▁univers	-11.3845
▁ĉirkaŭ	-11.3846
▁onun	-11.3846
▁सम	-11.3847
posit	-11.3847
ister	-11.3849
▁බ	-11.3849
▁Mali	-11.3849
▁toàn	-11.385
▁està	-11.385
▁विशेष	-11.3851
▁nepo	-11.3852
▁fuit	-11.3855
nil	-11.3858
teli	-11.3859
▁ingår	-11.3862
▁văn	-11.3862
▁јазик	-11.3862
▁Deze	-11.3863
gune	-11.3865
▁esas	-11.3866
▁tích	-11.3866
▁hie	-11.3868
pass	-11.387
▁görev	-11.3871
거	-11.3873
رى	-11.3875
рач	-11.3875
க்கி	-11.3877
gers	-11.3878
每	-11.3878
tent	-11.388
ensi	-11.3882
▁едно	-11.3883
بالإنجليزية	-11.3885
▁එය	-11.3885
▁Adolf	-11.3885
級	-11.3886
шу	-11.3886
▁части	-11.3886
▁автор	-11.3887
asis	-11.3887
▁udalerri	-11.3888
ються	-11.3889
ాలలో	-11.389
▁ring	-11.3891
tán	-11.3892
▁maio	-11.3893
পি	-11.3893
kaj	-11.3894
支	-11.3894
ている	-11.3895
场	-11.3896
▁diversos	-11.3897
▁cam	-11.3897
sey	-11.3898
張	-11.3899
گان	-11.39
ick	-11.3901
▁filozofi	-11.3901
▁Ada	-11.3902
slov	-11.3903
認	-11.3905
▁outras	-11.3906
▁մ	-11.3907
存在	-11.3907
▁cultural	-11.3909
▁medyo	-11.3909
ష్	-11.3909
गी	-11.3911
▁Kunst	-11.3912
▁vot	-11.3913
▁arab	-11.3915
▁دانشگاه	-11.3916
▁sala	-11.3916
▁prve	-11.3917
вала	-11.3918
נט	-11.392
▁tj	-11.392
▁Gustav	-11.3921
▁nor	-11.3921
聯	-11.3923
▁स्व	-11.3923
յան	-11.3925
▁Fal	-11.3925
▁vert	-11.3926
რი	-11.3927
▁सभी	-11.3927
▁बीच	-11.3927
입	-11.3928
▁Фе	-11.3928
▁хи	-11.3928
▁Maj	-11.393
▁outubro	-11.3931
展	-11.3931
רו	-11.3932
ása	-11.3934
▁Stad	-11.3936
cip	-11.3936
▁Ис	-11.3937
يون	-11.3938
▁ак	-11.3939
istes	-11.3939
▁który	-11.3941
▁lange	-11.3941
▁ти	-11.3942
rob	-11.3943
quer	-11.3943
لار	-11.3944
▁החל	-11.3944
pag	-11.3945
medi	-11.3945
скіх	-11.3946
▁రెండు	-11.3946
▁Å	-11.3948
▁bla	-11.3949
dė	-11.395
ključ	-11.3951
▁torn	-11.3952
もの	-11.3953
بال	-11.3953
▁scen	-11.3953
▁Ту	-11.3954
▁Пер	-11.3955
▁العالم	-11.3955
▁방	-11.3957
stop	-11.3959
nių	-11.3959
చి	-11.396
2016	-11.396
zik	-11.3961
iĝo	-11.3961
▁Regi	-11.3962
▁Pos	-11.3963
ĝa	-11.3964
▁>	-11.3964
ירה	-11.3966
▁Mes	-11.3966
ذا	-11.3966
▁papel	-11.3969
▁Glavni	-11.3969
gai	-11.3969
Π	-11.3971
▁आप	-11.3973
開始	-11.3974
▁Пе	-11.3975
▁Ä	-11.3976
▁help	-11.3977
▁овој	-11.3977
нең	-11.3977
less	-11.3978
▁interpret	-11.3979
isia	-11.3979
פל	-11.3979
lerde	-11.3981
▁década	-11.3981
নো	-11.3981
lö	-11.3983
جا	-11.3983
▁hotel	-11.3984
soci	-11.3984
▁лі	-11.3985
▁Parlament	-11.3985
电	-11.3985
▁노	-11.3986
ार	-11.3986
▁Pie	-11.3986
raš	-11.3987
▁bezala	-11.3988
ств	-11.3989
▁unei	-11.399
झ	-11.399
γραφ	-11.3992
რო	-11.3992
▁მო	-11.3992
▁Kin	-11.3993
▁vara	-11.3993
دان	-11.3994
▁2016,	-11.3994
mber	-11.3994
バー	-11.3995
II	-11.3996
lini	-11.3996
▁predstav	-11.3996
സി	-11.3997
▁esco	-11.3998
▁naam	-11.3998
ீ	-11.4001
▁работа	-11.4002
left	-11.4003
urs	-11.4004
▁Ста	-11.4004
ক্ত	-11.4005
▁destru	-11.4006
tė	-11.4006
▁orbit	-11.4006
عد	-11.4007
▁Est	-11.4008
aine	-11.4009
{\	-11.4011
▁vardır	-11.4011
▁Suomen	-11.4011
انگلیسی	-11.4011
meni	-11.4011
▁сил	-11.4012
▁svog	-11.4012
▁Von	-11.4013
лося	-11.4013
▁sezon	-11.4014
liselt	-11.4014
▁teatr	-11.4015
ům	-11.4018
▁Jepang	-11.4019
▁Victoria	-11.402
▁Etter	-11.402
蘭	-11.4021
фер	-11.4021
▁Рус	-11.4022
ھ	-11.4023
▁exemple	-11.4023
▁veya	-11.4024
▁ডি	-11.4025
▁Cla	-11.4026
கள	-11.4026
▁rum	-11.4027
▁celo	-11.4028
▁Has	-11.4028
▁aínda	-11.4029
쿠	-11.4031
▁used	-11.4032
▁vuoden	-11.4032
▁wieder	-11.4032
▁iste	-11.4033
▁один	-11.4034
▁पि	-11.4034
▁සි	-11.4036
kata	-11.4037
rop	-11.4037
▁okoli	-11.4038
▁поли	-11.4039
▁when	-11.4039
тің	-11.404
▁центр	-11.404
▁ద్వారా	-11.404
▁trova	-11.404
▁кај	-11.404
▁маг	-11.4042
gger	-11.4044
▁apud	-11.4044
▁సు	-11.4045
▁prov	-11.4046
डा	-11.4047
▁would	-11.4047
▁esse	-11.4048
▁Ferr	-11.4048
iny	-11.4048
▁Ја	-11.4049
▁hatte	-11.4051
ická	-11.4051
loj	-11.4053
टे	-11.4054
▁கொ	-11.4054
ids	-11.4054
▁කිරීම	-11.4054
▁గు	-11.4055
▁शब्द	-11.4057
▁наступ	-11.4057
anno	-11.4057
▁1884	-11.4058
▁الط	-11.4058
▁వారి	-11.4059
▁pove	-11.4059
▁Free	-11.406
已	-11.406
jek	-11.4061
ziun	-11.4061
▁kü	-11.4061
טר	-11.4062
mara	-11.4062
▁territorio	-11.4062
日に	-11.4064
▁islam	-11.4065
larından	-11.4065
▁Hier	-11.4065
▁「	-11.4066
▁cando	-11.4068
▁baten	-11.4069
laste	-11.407
ൊ	-11.4071
▁monument	-11.4071
ිය	-11.4071
となった	-11.4071
판	-11.4071
lă	-11.4071
ач	-11.4071
▁مدينة	-11.4072
▁analiz	-11.4072
▁మధ్య	-11.4073
▁truyền	-11.4074
▁வா	-11.4075
▁4:	-11.4078
ned	-11.4078
▁Alb	-11.4078
▁sett	-11.4079
▁तरह	-11.4079
ński	-11.4079
▁tiene	-11.408
cup	-11.4081
▁1881	-11.4081
▁राजा	-11.4081
Bi	-11.4083
లోని	-11.4083
▁себе	-11.4083
bund	-11.4085
anci	-11.4086
▁Jam	-11.4087
బ్	-11.4088
▁работ	-11.4088
▁мест	-11.4088
▁момент	-11.4089
रु	-11.4089
ално	-11.409
▁кол	-11.4091
ед	-11.4095
▁poet	-11.4096
▁Egy	-11.4097
~	-11.4098
бли	-11.4098
зо	-11.4098
▁yol	-11.4099
alle	-11.4099
▁estar	-11.4099
▁cop	-11.4099
▁يتم	-11.41
دة	-11.41
▁ref	-11.4101
mut	-11.4101
▁institu	-11.4101
▁keeles	-11.4102
▁bara	-11.4102
▁після	-11.4104
▁tapo	-11.4108
dim	-11.4108
▁tỉnh	-11.411
lingen	-11.411
טו	-11.4111
▁puede	-11.4114
▁заедно	-11.4115
▁Bản	-11.4115
▁bà	-11.4115
dő	-11.4115
▁Home	-11.4115
lere	-11.4115
▁اول	-11.4116
ソ	-11.4116
bay	-11.4116
itel	-11.4117
▁obr	-11.4117
▁кеше	-11.4118
▁termo	-11.4119
▁দল	-11.4121
σσ	-11.4122
▁situa	-11.4122
▁kanë	-11.4123
ষ্ট	-11.4123
τες	-11.4127
▁Blue	-11.4129
▁мир	-11.413
▁taun	-11.413
▁naselja	-11.4134
jad	-11.4134
▁atra	-11.4135
сында	-11.4137
තු	-11.4137
atta	-11.4139
كا	-11.414
령	-11.414
▁où	-11.414
▁matematik	-11.4141
valt	-11.4143
▁160	-11.4143
יב	-11.4144
▁напад	-11.4144
יט	-11.4145
▁фильм	-11.4145
ización	-11.4149
▁המו	-11.4149
▁Río	-11.415
לים	-11.4151
▁다른	-11.4151
風	-11.4151
▁simbol	-11.4153
orna	-11.4154
RT	-11.4155
žen	-11.4157
rena	-11.4158
ば	-11.4158
скую	-11.4158
▁tag	-11.4159
▁mini	-11.416
▁punkt	-11.416
花	-11.416
▁Irak	-11.4161
▁Chile	-11.4162
▁medlem	-11.4162
▁setembro	-11.4163
▁type	-11.4164
▁januari	-11.4164
▁Ве	-11.4165
▁इसे	-11.4165
▁ఉంటుంది	-11.4167
출	-11.4168
▁دارای	-11.4169
2009	-11.4169
▁للم	-11.4169
▁čas	-11.4169
▁dont	-11.4171
车	-11.4171
dele	-11.4172
खा	-11.4172
하지	-11.4172
▁junio	-11.4172
による	-11.4172
кор	-11.4172
8%	-11.4173
▁שלו	-11.4173
gj	-11.4174
▁Syn	-11.4174
▁Pur	-11.4175
dale	-11.4175
▁اله	-11.4175
▁made	-11.4176
иле	-11.4177
▁Дан	-11.4178
▁Тој	-11.4179
nico	-11.4179
kunta	-11.418
guèt	-11.418
وية	-11.4181
▁batean	-11.4181
cou	-11.4183
оп	-11.4183
▁ajo	-11.4184
ట్ట	-11.4184
ents	-11.4186
▁ім	-11.4186
▁cea	-11.4186
▁више	-11.4186
▁turist	-11.4187
ае	-11.4188
lei	-11.4188
ടി	-11.4189
▁Roz	-11.4191
報	-11.4192
аны	-11.4192
ந	-11.4192
ghi	-11.4192
lir	-11.4192
kirja	-11.4193
וע	-11.4193
essä	-11.4194
▁thiết	-11.4195
හි	-11.4195
▁julio	-11.4195
▁சில	-11.4195
չ	-11.4197
rü	-11.4197
кам	-11.4197
лага	-11.4198
ழு	-11.4199
пат	-11.42
cum	-11.4201
密	-11.4201
estat	-11.4202
স্ত	-11.4203
ఖ	-11.4204
մ	-11.4204
క్క	-11.4204
ల్లో	-11.4204
telli	-11.4206
zd	-11.4207
▁ҡа	-11.4207
▁έχουν	-11.4207
▁Γκ	-11.4208
englanniksi	-11.4209
▁nghĩa	-11.4209
כת	-11.421
ෂ	-11.4211
sit	-11.4212
▁hingga	-11.4212
▁Old	-11.4213
bun	-11.4213
▁Welt	-11.4214
一个	-11.4215
▁triển	-11.4215
ıl	-11.4216
2017	-11.4216
▁Kle	-11.4217
За	-11.4218
▁1850	-11.422
eux	-11.4222
oga	-11.4222
へ	-11.4222
▁animal	-11.4223
தை	-11.4223
tine	-11.4225
▁Portal	-11.4226
▁текст	-11.4227
▁Bag	-11.4228
מת	-11.4228
▁last	-11.4228
ினார்	-11.4228
▁сайт	-11.4229
▁individual	-11.4229
▁مح	-11.4231
▁উদ্ধৃতি	-11.4231
צו	-11.4231
imu	-11.4233
▁Ζ	-11.4235
uoja	-11.4236
▁yfir	-11.4236
ativ	-11.4237
zni	-11.4237
▁96	-11.424
Э	-11.424
▁hoạt	-11.424
▁Aleksandr	-11.424
IN	-11.4241
▁získal	-11.4241
act	-11.4242
ীর	-11.4243
শি	-11.4243
▁Giovanni	-11.4245
▁১৯	-11.4245
▁ла	-11.4247
▁Nederland	-11.4248
▁eman	-11.4248
▁live	-11.4249
кле	-11.4249
▁vice	-11.425
ovu	-11.4251
هر	-11.4253
mény	-11.4255
cula	-11.4256
ούσε	-11.4256
▁ला	-11.4256
▁совет	-11.4256
ются	-11.4257
▁فيها	-11.4259
▁داشته	-11.4261
▁लिया	-11.4261
▁Më	-11.4262
▁vitit	-11.4263
Ver	-11.4263
മാണ്	-11.4264
▁اهل	-11.4265
▁진	-11.4267
▁apa	-11.4267
эр	-11.4267
▁градот	-11.4268
pir	-11.4269
▁semi	-11.427
autor	-11.427
▁1871	-11.427
年代	-11.4272
▁europ	-11.4272
aks	-11.4272
ųjų	-11.4272
▁pravi	-11.4273
vie	-11.4273
já	-11.4273
Ph	-11.4273
▁rela	-11.4274
তার	-11.4274
▁konstru	-11.4274
▁kralja	-11.4275
▁July	-11.4276
▁zde	-11.4279
▁Tel	-11.4282
▁хо	-11.4283
نز	-11.4283
രു	-11.4284
ního	-11.4284
▁ച	-11.4285
▁ملی	-11.4285
▁Vietnam	-11.4285
▁Či	-11.4287
▁미국	-11.4288
sad	-11.429
座	-11.429
▁سه	-11.429
LA	-11.4291
▁செ	-11.4292
глед	-11.4292
▁Social	-11.4293
▁ging	-11.4293
ვი	-11.4293
▁atac	-11.4294
▁Той	-11.4294
▁μεταξύ	-11.4295
▁appar	-11.4295
▁Brand	-11.4296
▁jonka	-11.4297
▁dre	-11.4297
▁Novo	-11.4297
▁altri	-11.4297
يب	-11.4298
वार	-11.4298
린	-11.4299
born	-11.4299
џ	-11.4299
▁Dünya	-11.4299
தாக	-11.43
šta	-11.4301
пор	-11.4302
▁Non	-11.4302
▁1887	-11.4302
▁sampai	-11.4303
的な	-11.4304
▁श्री	-11.4306
种	-11.4306
▁faz	-11.4307
▁1882	-11.4307
్యా	-11.4308
▁Que	-11.4309
▁Mate	-11.431
▁đạo	-11.431
▁Samo	-11.4314
▁favor	-11.4314
sinin	-11.4314
▁ident	-11.4314
▁Mun	-11.4316
▁variant	-11.4316
▁doba	-11.4317
▁byť	-11.4318
ácia	-11.4318
▁fill	-11.4319
▁Prix	-11.4319
▁decembro	-11.432
▁Gabriel	-11.432
▁Dž	-11.4322
elijke	-11.4324
▁živ	-11.4324
▁Heinrich	-11.4324
▁use	-11.4324
ао	-11.4325
▁също	-11.4325
っ	-11.4325
mene	-11.4326
이며	-11.4326
పా	-11.4327
▁veliki	-11.4328
ję	-11.4332
であった	-11.4333
▁biệt	-11.4334
nosť	-11.4336
▁بشكل	-11.4339
IC	-11.434
wod	-11.4341
द्ध	-11.4343
iak	-11.4344
jor	-11.4347
jske	-11.4348
hra	-11.4348
▁regul	-11.4348
▁82	-11.4349
兰	-11.4351
▁उनकी	-11.4352
uel	-11.4352
▁חלק	-11.4352
▁sulla	-11.4352
▁Kultur	-11.4353
ించి	-11.4353
▁peut	-11.4354
ნა	-11.4355
▁града	-11.4356
gü	-11.4356
ilu	-11.4358
For	-11.4359
mişdir	-11.4359
▁periode	-11.4359
▁hänen	-11.4361
▁kishte	-11.4361
▁Pot	-11.4362
őr	-11.4362
주의	-11.4362
▁başladı	-11.4364
▁digunakan	-11.4364
▁ren	-11.4364
▁Совет	-11.4365
▁pass	-11.4365
ére	-11.4366
▁olma	-11.4367
▁ces	-11.4367
▁जीवन	-11.4367
ිත	-11.4368
▁გ	-11.4368
కీ	-11.4368
මා	-11.4368
CH	-11.4369
▁Мі	-11.437
▁театр	-11.437
▁Ам	-11.4371
EA	-11.4373
第一	-11.4374
▁París	-11.4375
4%	-11.4375
▁gospodar	-11.4376
▁industrial	-11.4377
劇	-11.4377
▁करना	-11.4378
▁thi	-11.4378
六	-11.4379
▁Human	-11.438
дағы	-11.438
청	-11.438
ней	-11.4382
▁Victor	-11.4382
onne	-11.4382
служ	-11.4382
7%	-11.4383
יצ	-11.4383
kö	-11.4384
সে	-11.4384
▁vivo	-11.4384
父	-11.4385
▁kör	-11.4385
▁जैसे	-11.4388
▁kasag	-11.4388
▁grupe	-11.4389
▁lit	-11.4392
▁Ré	-11.4393
▁vör	-11.4397
▁פר	-11.4397
▁Gil	-11.4397
wing	-11.4398
實	-11.4398
வது	-11.4399
RE	-11.4399
▁jud	-11.4399
▁ইংরেজি	-11.4399
тай	-11.4399
▁kasuta	-11.4399
ული	-11.44
ටි	-11.44
▁αυτή	-11.4402
▁нема	-11.4402
▁요	-11.4403
eş	-11.4403
▁ర	-11.4403
beli	-11.4404
mic	-11.4404
稱	-11.4404
▁water	-11.4405
室	-11.4405
▁כדי	-11.4406
ונה	-11.4406
▁Republike	-11.4407
▁olmuşdur	-11.4408
կ	-11.4408
▁بیشتر	-11.441
▁ky	-11.441
▁fotografi	-11.4411
▁brat	-11.4411
▁between	-11.4411
▁Ա	-11.4411
▁כאשר	-11.4412
קו	-11.4412
▁classifica	-11.4412
ധ	-11.4412
kład	-11.4412
▁mam	-11.4413
▁diri	-11.4413
лығы	-11.4413
ók	-11.4415
▁Roger	-11.4415
வர	-11.4416
▁Št	-11.4416
vier	-11.4417
కో	-11.4417
▁don	-11.4417
▁hiệu	-11.4417
▁groupe	-11.4418
изм	-11.4418
▁теле	-11.4418
▁gew	-11.4419
▁vra	-11.442
▁Njegov	-11.442
▁abi	-11.4422
▁manera	-11.4423
▁Punta	-11.4423
גי	-11.4425
從	-11.4425
պ	-11.4425
▁temperatur	-11.4426
색	-11.4428
▁লাভ	-11.4428
▁सर्व	-11.4429
▁Bot	-11.443
చే	-11.443
▁Cab	-11.4431
▁меѓу	-11.4431
είται	-11.4432
lardan	-11.4432
▁Sche	-11.4433
▁seves	-11.4433
▁Aquest	-11.4433
тка	-11.4433
洲	-11.4433
▁hafa	-11.4434
ोर	-11.4435
సం	-11.4436
▁చాలా	-11.4437
ването	-11.4439
tý	-11.4439
▁Сер	-11.4441
▁ново	-11.4442
tsiooni	-11.4442
▁др	-11.4443
▁asi	-11.4446
防	-11.4447
jska	-11.4447
▁PC	-11.4447
▁చెందిన	-11.4448
ђе	-11.4449
▁ord	-11.445
▁þá	-11.4451
▁podob	-11.4452
ibi	-11.4453
▁formal	-11.4454
▁imp	-11.4455
▁Taylor	-11.4455
aug	-11.4459
kultur	-11.446
▁שם	-11.446
धा	-11.4461
ters	-11.4461
vala	-11.4463
▁sezoni	-11.4464
ieren	-11.4464
teur	-11.4466
▁Ča	-11.4466
▁bron	-11.4469
ська	-11.447
▁пасля	-11.447
▁jų	-11.447
▁Unter	-11.447
域	-11.4472
▁Cruz	-11.4472
▁Zá	-11.4472
rav	-11.4472
▁септември	-11.4472
ത്തെ	-11.4473
ках	-11.4473
▁entra	-11.4473
▁global	-11.4473
▁Gru	-11.4473
Un	-11.4473
▁Franco	-11.4473
nap	-11.4475
▁आनी	-11.4475
▁కలిగి	-11.4479
早	-11.448
▁کم	-11.448
SI	-11.4481
▁Oxford	-11.4482
▁Cam	-11.4483
▁Service	-11.4483
▁Хар	-11.4483
ஞ்ச	-11.4484
cade	-11.4485
lės	-11.4485
جه	-11.4488
tice	-11.4488
▁প্রায়	-11.449
▁territori	-11.449
asan	-11.4491
inį	-11.4491
яз	-11.4491
ać	-11.4491
▁pirm	-11.4491
▁pia	-11.4491
▁আর	-11.4492
▁franc	-11.4492
▁interior	-11.4494
▁Sloven	-11.4494
하며	-11.4495
▁бойынша	-11.4496
эй	-11.4498
▁pom	-11.45
uhan	-11.4501
gård	-11.4501
▁Под	-11.4502
▁कोई	-11.4502
чат	-11.4503
lerinde	-11.4503
▁природ	-11.4505
dige	-11.4505
سم	-11.4505
▁Space	-11.4506
▁81	-11.4507
oči	-11.4508
pí	-11.4509
▁تیم	-11.4509
▁mun	-11.4509
▁President	-11.4509
estä	-11.451
ృ	-11.451
▁לי	-11.4511
тель	-11.4511
▁Сам	-11.4511
ари	-11.4511
▁кө	-11.4512
▁tokom	-11.4514
кой	-11.4515
▁Αν	-11.4515
бан	-11.4516
▁arra	-11.4517
▁dvor	-11.4518
ovan	-11.4518
▁2001,	-11.4519
▁succes	-11.4522
▁XI	-11.4522
ume	-11.4524
▁साल	-11.4525
imą	-11.4526
mək	-11.4527
▁ومن	-11.4529
əm	-11.4529
▁proto	-11.4529
▁Modern	-11.453
▁футбол	-11.453
see	-11.4531
▁alan	-11.4531
▁125	-11.4533
gara	-11.4533
ffe	-11.4533
ussa	-11.4534
త్ర	-11.4534
ép	-11.4535
▁game	-11.4536
产	-11.4536
▁chef	-11.4536
έν	-11.4536
▁بم	-11.4537
▁wilayah	-11.4539
uste	-11.454
tage	-11.4542
▁sca	-11.4542
▁protestant	-11.4542
char	-11.4542
约	-11.4542
dz	-11.4543
▁శ	-11.4543
olu	-11.4543
ஆம்	-11.4544
▁(†	-11.4545
ān	-11.4545
画	-11.4546
قة	-11.4547
데	-11.4549
ovanje	-11.455
립	-11.455
рес	-11.4551
ছে	-11.4552
▁Andrew	-11.4554
ディ	-11.4554
▁promo	-11.4555
▁Dalam	-11.4555
ৎ	-11.4555
▁הצ	-11.4555
▁її	-11.4556
▁aplica	-11.4557
хран	-11.4558
음	-11.4558
▁Ey	-11.4558
itev	-11.4561
▁pie	-11.4561
▁song	-11.4563
ES	-11.4563
▁diferentes	-11.4564
▁niz	-11.4565
кай	-11.4565
론	-11.4565
▁oblast	-11.4565
▁নামে	-11.4567
▁Number	-11.4567
sett	-11.4567
▁यस	-11.4567
▁договор	-11.4568
▁pravo	-11.4569
▁केले	-11.4569
▁98	-11.457
▁завод	-11.457
▁ajal	-11.457
▁వె	-11.4573
▁Rome	-11.4573
▁pulo	-11.4573
▁Wolf	-11.4574
▁தி	-11.4574
▁използва	-11.4575
2011	-11.4575
maður	-11.4576
ald	-11.4576
αστ	-11.4577
ണ്ട	-11.4577
▁versi	-11.4577
八	-11.4578
լ	-11.4579
ער	-11.4579
tasuna	-11.4579
یس	-11.4579
▁उसे	-11.4579
▁tiež	-11.458
už	-11.4581
▁Mountain	-11.4581
ించారు	-11.4582
fir	-11.4582
▁어	-11.4583
▁sek	-11.4583
▁hebben	-11.4586
▁فر	-11.4588
▁jar	-11.4588
▁žensk	-11.4588
▁postav	-11.4589
zad	-11.4589
ல்ல	-11.459
▁Krist	-11.4598
▁sinn	-11.4598
▁ফ	-11.4598
inski	-11.46
▁tijekom	-11.46
▁estilo	-11.46
▁Stephen	-11.4601
сад	-11.4601
▁හෝ	-11.4601
▁۱۸	-11.4601
szy	-11.4602
ño	-11.4603
說	-11.4603
▁Hrvatske	-11.4603
▁pháp	-11.4603
مثل	-11.4603
▁tử	-11.4604
مه	-11.4604
▁presta	-11.4605
▁Great	-11.4605
▁drept	-11.4605
▁села	-11.4606
▁води	-11.4607
▁kembali	-11.4609
▁Ras	-11.4609
nay	-11.461
百	-11.461
▁우	-11.461
mbi	-11.461
▁ndër	-11.4611
▁شا	-11.4612
▁alguns	-11.4612
lock	-11.4612
IP	-11.4612
pris	-11.4613
mund	-11.4613
▁Fel	-11.4616
▁konflikt	-11.4617
▁έγινε	-11.4617
కర	-11.4618
▁mata	-11.4618
мә	-11.4618
射	-11.4619
ovaný	-11.4619
ত্ব	-11.462
პ	-11.462
TA	-11.4621
▁saman	-11.4621
čna	-11.4622
▁खेल	-11.4622
▁costa	-11.4622
▁mos	-11.4622
▁въз	-11.4623
bé	-11.4624
▁কি	-11.4624
գ	-11.4625
达	-11.4625
▁راه	-11.4627
▁본	-11.4628
sund	-11.4628
iten	-11.4629
αμ	-11.463
▁području	-11.4631
stava	-11.4633
▁Vladimir	-11.4633
▁hang	-11.4634
▁partner	-11.4634
ª	-11.4635
лем	-11.4637
라고	-11.4637
▁Ray	-11.4638
stone	-11.4639
▁தா	-11.464
▁accept	-11.464
িয়ে	-11.464
▁ран	-11.4641
▁tego	-11.4641
oid	-11.4641
▁Гер	-11.4642
▁teknik	-11.4643
▁मि	-11.4643
ól	-11.4644
κο	-11.4644
slav	-11.4645
▁również	-11.4645
▁במהלך	-11.4645
uks	-11.4645
▁їх	-11.4645
▁1883	-11.4645
ични	-11.4645
bank	-11.4645
▁чалавек	-11.4647
▁počas	-11.4647
▁položaj	-11.4649
▁الأول	-11.465
ными	-11.465
rani	-11.4651
▁dentro	-11.4652
मि	-11.4652
只	-11.4652
ать	-11.4653
▁pristupljeno	-11.4653
▁CO	-11.4656
▁Mod	-11.4657
аз	-11.4658
▁μπορεί	-11.4658
▁redu	-11.4659
▁zou	-11.466
iranje	-11.466
Est	-11.4661
ას	-11.4661
ജ	-11.4661
▁prezident	-11.4662
▁יו	-11.4663
dou	-11.4663
▁основа	-11.4664
▁hap	-11.4664
▁प्रदेश	-11.4665
sberg	-11.4665
iger	-11.4666
βι	-11.4667
ений	-11.4668
фор	-11.4668
▁EP	-11.4668
פו	-11.467
јќи	-11.467
▁pea	-11.4672
ग्	-11.4673
ils	-11.4675
▁kişi	-11.4676
▁Egypt	-11.4676
ции	-11.4677
▁sup	-11.4678
سب	-11.4678
ക്ഷ	-11.4679
itza	-11.4679
▁kuin	-11.468
▁места	-11.4681
▁Bran	-11.4682
âr	-11.4683
▁giá	-11.4683
▁Ind	-11.4684
▁keď	-11.4684
רים	-11.4685
▁जे	-11.4685
▁sna	-11.4685
설	-11.4686
▁muut	-11.4686
vati	-11.4687
요	-11.4688
iere	-11.4688
▁සං	-11.4689
▁طور	-11.4689
lista	-11.4689
▁같은	-11.469
ище	-11.469
▁Bab	-11.469
▁význam	-11.4692
әй	-11.4693
▁Fox	-11.4694
رم	-11.4695
▁Dag	-11.4695
▁selama	-11.4697
術	-11.4698
veg	-11.4699
▁Internacional	-11.4699
liz	-11.4699
ioù	-11.4699
▁lát	-11.47
▁serial	-11.47
ész	-11.47
▁최	-11.4701
▁sota	-11.4702
▁προς	-11.4703
▁Má	-11.4704
▁Norte	-11.4704
▁država	-11.4705
▁اش	-11.4705
لد	-11.4705
▁eines	-11.4705
▁princip	-11.4706
▁después	-11.4706
▁duen	-11.4707
▁Rei	-11.4708
▁olur	-11.4708
stas	-11.4708
▁lloc	-11.4709
▁Bundes	-11.471
త్త	-11.471
▁موقع	-11.471
▁Sc	-11.471
sht	-11.4713
▁susi	-11.4714
料	-11.4715
切	-11.4716
bed	-11.4716
堂	-11.4717
alne	-11.4718
kova	-11.4719
▁وكان	-11.472
▁modelo	-11.472
▁طول	-11.472
gl	-11.4721
▁இருந்து	-11.4721
▁cuối	-11.4721
▁1876	-11.4723
uku	-11.4723
ath	-11.4723
船	-11.4724
indo	-11.4725
BA	-11.4725
raf	-11.4726
▁Road	-11.4726
غا	-11.4726
▁such	-11.4728
र्स	-11.4728
נת	-11.4729
▁January	-11.4729
▁flu	-11.4729
▁recht	-11.4729
اي	-11.473
▁адамды	-11.4732
▁χρόνια	-11.4733
▁בא	-11.4735
פים	-11.4735
▁similar	-11.4735
eron	-11.4736
ξε	-11.4736
motor	-11.4737
rou	-11.474
كس	-11.4741
▁día	-11.4742
▁сезон	-11.4742
▁actor	-11.4743
▁रा	-11.4743
▁ora	-11.4743
phe	-11.4744
Ч	-11.4744
▁گرفت	-11.4744
radi	-11.4744
▁sotto	-11.4745
abi	-11.4745
▁vært	-11.4745
mbol	-11.4746
ווה	-11.4746
ték	-11.4746
holm	-11.4747
▁evolu	-11.4747
ђа	-11.4748
▁Apple	-11.4748
ター	-11.4749
▁centra	-11.4751
▁Alan	-11.4751
▁blant	-11.4751
mag	-11.4752
ლო	-11.4752
zá	-11.4752
▁mateix	-11.4753
рок	-11.4753
▁Ел	-11.4753
6°	-11.4754
▁дела	-11.4755
▁UK	-11.4756
сов	-11.4756
▁пара	-11.4756
▁చ	-11.4756
práv	-11.4756
▁ás	-11.4757
izi	-11.4757
ستر	-11.4758
▁kojeg	-11.4758
gno	-11.4758
otto	-11.4759
▁Eb	-11.4759
ؤ	-11.476
▁dėl	-11.4761
2008	-11.4761
▁revista	-11.4762
▁tiempo	-11.4762
▁arv	-11.4762
Ма	-11.4762
▁Ке	-11.4763
▁Kad	-11.4763
▁Good	-11.4763
ιτ	-11.4763
▁πιο	-11.4763
▁human	-11.4764
資	-11.4765
▁ü	-11.4765
cili	-11.4766
▁Program	-11.4766
▁siglo	-11.4766
▁её	-11.4767
Ge	-11.4768
라는	-11.4768
lade	-11.477
▁கட	-11.477
لى	-11.4771
角	-11.4771
وع	-11.4771
gum	-11.4774
▁đổi	-11.4774
▁Januar	-11.4775
?"	-11.4775
▁عضو	-11.4776
▁Petro	-11.4778
▁додека	-11.4778
hun	-11.4779
▁పు	-11.478
Ка	-11.4781
▁திரு	-11.4781
ограф	-11.4782
ान	-11.4784
ич	-11.4784
▁पुरस्कार	-11.4784
▁liệu	-11.4784
▁1861	-11.4785
even	-11.4787
▁jää	-11.4787
▁tâm	-11.4787
▁Gli	-11.4787
▁temp	-11.4788
令	-11.4789
▁vet	-11.479
▁poi	-11.479
▁৩	-11.479
▁cuando	-11.4791
▁âm	-11.4792
ček	-11.4792
łu	-11.4793
bles	-11.4793
▁состав	-11.4797
▁ulohan	-11.4797
▁oyun	-11.4797
orden	-11.4798
整	-11.4798
▁يوم	-11.48
職	-11.48
▁بازبینی	-11.48
rul	-11.4801
念	-11.4801
▁Hollywood	-11.4801
▁habitants	-11.4802
neb	-11.4802
▁또한	-11.4802
▁Sea	-11.4803
▁estaba	-11.4804
▁resmi	-11.4804
▁Bog	-11.4806
mah	-11.4806
▁četiri	-11.4807
▁см	-11.4807
▁Kao	-11.4807
하다	-11.4807
皇	-11.4807
Cl	-11.4808
▁1867	-11.4809
EC	-11.481
tani	-11.481
▁bóng	-11.4811
uš	-11.4812
MS	-11.4813
tec	-11.4813
opis	-11.4816
▁võib	-11.4817
▁пост	-11.4817
▁influ	-11.4818
▁79	-11.4818
יג	-11.482
▁мас	-11.482
▁jur	-11.482
▁Ash	-11.4821
족	-11.4823
▁había	-11.4824
ации	-11.4824
현	-11.4824
inë	-11.4825
esch	-11.4825
▁correspond	-11.4826
각	-11.4826
▁före	-11.4826
▁urban	-11.4827
tila	-11.4828
▁Nag	-11.4828
vå	-11.4828
▁Гар	-11.4829
ები	-11.4829
cdot	-11.483
▁contre	-11.483
țe	-11.4831
egi	-11.4831
порт	-11.4831
▁zem	-11.4834
▁mart	-11.4834
▁mostra	-11.4835
ペ	-11.4835
▁Bak	-11.4835
▁ly	-11.4836
▁ainsi	-11.4837
▁nói	-11.4838
▁Kop	-11.4838
▁Bern	-11.4838
ък	-11.4839
▁ø	-11.4841
▁Þ	-11.4842
tino	-11.4844
▁jog	-11.4844
▁luft	-11.4844
▁avea	-11.4844
団	-11.4845
▁jossa	-11.4847
▁listopada	-11.4847
lerinin	-11.4847
▁berg	-11.4847
کار	-11.4847
▁пе	-11.4848
ीत	-11.4849
दार	-11.485
పి	-11.4852
界	-11.4852
▁Ер	-11.4854
▁nelle	-11.4854
дей	-11.4857
除	-11.4857
▁Columbia	-11.486
ৱ	-11.4861
ப்படுகிறது	-11.4862
越	-11.4862
nka	-11.4863
fik	-11.4864
глас	-11.4865
itä	-11.4866
▁case	-11.4866
美国	-11.4867
▁април	-11.4868
▁Run	-11.4871
סט	-11.4871
▁corpo	-11.4871
lima	-11.4871
ով	-11.4871
ėje	-11.4872
দা	-11.4873
qué	-11.4873
ओ	-11.4873
▁fac	-11.4874
ítás	-11.4874
▁ط	-11.4874
▁още	-11.4875
շ	-11.4876
ugh	-11.4876
ába	-11.4877
antoj	-11.4877
asse	-11.4878
▁tõ	-11.4878
▁Kri	-11.4878
▁Tyskland	-11.4879
ండ్	-11.488
hre	-11.4882
schi	-11.4882
▁elektr	-11.4882
bad	-11.4883
റി	-11.4883
ίστηκε	-11.4884
▁spr	-11.4885
▁lors	-11.4885
▁hak	-11.4886
сці	-11.4888
▁začal	-11.4889
워	-11.4891
▁direkt	-11.4891
kti	-11.4892
యు	-11.4892
存	-11.4893
rung	-11.4893
▁ഉ	-11.4894
plant	-11.4894
ელი	-11.4895
oak	-11.4895
uzi	-11.4895
▁where	-11.4896
容	-11.4896
▁pole	-11.4896
▁kinh	-11.4896
ktor	-11.4897
▁seri	-11.4898
▁배	-11.4898
▁якая	-11.4898
▁federal	-11.4899
▁Science	-11.49
▁রা	-11.49
▁Had	-11.4901
」。	-11.4901
imen	-11.4902
ৃ	-11.4903
▁ست	-11.4903
tës	-11.4903
▁Rai	-11.4905
γεν	-11.4905
ctor	-11.4905
tron	-11.4906
스트	-11.4906
čko	-11.4907
▁diren	-11.4908
زو	-11.4908
▁tijd	-11.4908
▁kohta	-11.4909
▁Eric	-11.491
▁1830	-11.4911
▁December	-11.4912
▁Fernando	-11.4912
šel	-11.4913
▁hely	-11.4914
▁protein	-11.4914
▁Го	-11.4915
低	-11.4916
▁Carr	-11.4916
▁কম	-11.4917
сна	-11.4918
▁timpul	-11.4919
▁novel	-11.492
▁terme	-11.4921
бол	-11.4921
jell	-11.4923
▁kuni	-11.4924
עי	-11.4927
▁Tot	-11.4927
▁lainnya	-11.4928
▁mah	-11.4929
▁гол	-11.493
▁micro	-11.493
▁הספר	-11.493
▁Championship	-11.4932
▁tetapi	-11.4932
▁друг	-11.4932
▁profil	-11.4933
▁왕	-11.4933
▁đặc	-11.4933
уы	-11.4934
▁آر	-11.4934
▁וי	-11.4934
ология	-11.4934
πτ	-11.4935
▁Lie	-11.4935
▁đang	-11.4935
▁შე	-11.4937
▁vaid	-11.4938
uoti	-11.4938
▁bog	-11.4942
dade	-11.4943
▁meget	-11.4943
算	-11.4944
icas	-11.4945
indi	-11.4946
krát	-11.4946
例	-11.4946
ạn	-11.4946
ač	-11.4947
攻	-11.4948
▁প্রধান	-11.4948
▁siècle	-11.4948
▁deri	-11.4949
▁Европа	-11.4949
2012	-11.495
▁Ü	-11.495
▁Tang	-11.495
▁코	-11.4951
▁thuật	-11.4951
▁سل	-11.4952
3)	-11.4952
שת	-11.4953
▁sangat	-11.4955
▁קי	-11.4955
▁anima	-11.4956
▁Boston	-11.4958
▁کردند	-11.4958
▁najbolj	-11.4959
skou	-11.4961
ඳ	-11.4964
▁bulak	-11.4964
▁Merc	-11.4964
▁blitt	-11.4964
▁భ	-11.4964
▁population	-11.4964
▁male	-11.4965
▁kolme	-11.4965
總	-11.4965
▁já	-11.4966
▁havis	-11.4966
җ	-11.4966
▁מר	-11.4967
اني	-11.497
fræði	-11.497
▁Erik	-11.4971
siden	-11.4971
$	-11.4973
▁nơi	-11.4973
▁када	-11.4973
▁1945.	-11.4973
▁Chart	-11.4974
▁Qa	-11.4974
▁رئيس	-11.4974
fest	-11.4976
রণ	-11.4976
▁situada	-11.4976
▁tome	-11.4977
чев	-11.4978
▁וא	-11.4979
logi	-11.4979
▁מא	-11.498
clav	-11.4981
auf	-11.4981
ச்ச	-11.4982
▁топ	-11.4982
bí	-11.4982
▁3000	-11.4984
▁skip	-11.4984
▁১	-11.4986
▁kiam	-11.4987
ishi	-11.4987
▁edit	-11.4987
▁Novi	-11.4987
mbra	-11.4988
▁Nad	-11.499
▁Հ	-11.4991
▁đất	-11.4991
lp	-11.4991
▁ప్రధాన	-11.4993
▁chế	-11.4993
▁presente	-11.4993
కొ	-11.4994
▁vodi	-11.4994
▁Närmast	-11.4995
▁Civil	-11.4995
▁واحد	-11.4996
▁website	-11.4996
▁док	-11.4997
మే	-11.4997
për	-11.4998
mission	-11.4998
▁것	-11.4998
cident	-11.4998
зор	-11.4998
▁gar	-11.4999
▁1864	-11.4999
▁1863	-11.5
▁Gaz	-11.5
ژ	-11.5
tasun	-11.5001
▁governo	-11.5001
пт	-11.5002
▁corre	-11.5002
▁lever	-11.5003
зем	-11.5003
▁Germania	-11.5004
していた	-11.5005
ශ	-11.5005
lh	-11.5006
▁جا	-11.5007
▁prieš	-11.5007
وق	-11.5008
▁পারে	-11.5011
По	-11.5012
▁الو	-11.5013
▁König	-11.5013
िन	-11.5014
▁1989.	-11.5014
▁دوره	-11.5014
öm	-11.5015
▁Desa	-11.5016
Per	-11.5016
▁पी	-11.5016
▁své	-11.5017
▁۴	-11.5018
▁October	-11.5018
зда	-11.5018
ğa	-11.5019
aza	-11.502
殺	-11.502
तील	-11.5021
kend	-11.5022
易	-11.5022
▁ది	-11.5022
bě	-11.5022
elser	-11.5023
2010	-11.5023
现	-11.5023
以及	-11.5024
▁شاه	-11.5024
▁경우	-11.5024
ും	-11.5025
нова	-11.5025
▁olid	-11.5025
ccion	-11.5025
▁seis	-11.5026
▁актив	-11.5027
▁tart	-11.5027
▁ideal	-11.5028
▁ondoren	-11.5028
▁bekannt	-11.5029
леж	-11.5029
▁mismo	-11.503
っている	-11.503
sser	-11.503
chin	-11.503
▁riigi	-11.5031
bara	-11.5032
வும்	-11.5032
قر	-11.5032
মে	-11.5033
ingar	-11.5033
▁نمی	-11.5034
సా	-11.5035
▁الولايات	-11.5037
▁మె	-11.5037
▁území	-11.5038
zz	-11.5038
▁উপর	-11.5039
包括	-11.5041
▁ѝ	-11.5041
tzi	-11.5042
▁θέση	-11.5042
▁gru	-11.5043
▁это	-11.5044
▁fam	-11.5044
▁än	-11.5045
▁Ost	-11.5046
cción	-11.5046
▁مهم	-11.5049
زا	-11.5049
▁घ	-11.5049
парт	-11.505
消	-11.5051
aquest	-11.5052
ання	-11.5053
▁transform	-11.5053
▁població	-11.5053
▁Indian	-11.5054
▁Journal	-11.5054
▁Beau	-11.5056
hető	-11.5057
kers	-11.5058
季	-11.5058
▁commune	-11.5058
▁deriva	-11.5059
▁радио	-11.506
ése	-11.5061
ற்	-11.5061
▁Bibli	-11.5062
tana	-11.5062
▁जिसमें	-11.5063
tai	-11.5063
▁लिये	-11.5063
ച	-11.5063
▁during	-11.5064
▁Dans	-11.5065
▁Gol	-11.5066
trag	-11.5067
▁Florida	-11.5068
▁rek	-11.5068
▁membuat	-11.507
▁stop	-11.5072
▁arc	-11.5074
ఫ్	-11.5074
llinen	-11.5074
▁стан	-11.5075
nikov	-11.5075
▁Reino	-11.5075
क्त	-11.5076
AT	-11.5076
▁todas	-11.5077
▁departament	-11.5077
عة	-11.5079
lás	-11.508
中心	-11.508
nými	-11.508
▁đảo	-11.5081
▁управ	-11.5081
▁1980.	-11.5081
▁lia	-11.5082
▁După	-11.5082
▁fueron	-11.5083
▁Fle	-11.5083
▁দেখা	-11.5083
▁scop	-11.5084
승	-11.5085
▁süre	-11.5088
▁jou	-11.5088
रू	-11.5088
▁1869	-11.5089
▁svo	-11.5089
ச்சி	-11.509
▁biztanleak	-11.5091
▁Ski	-11.5091
cchi	-11.5091
▁ties	-11.5092
▁annet	-11.5092
▁تولید	-11.5093
▁парк	-11.5093
▁És	-11.5093
피	-11.5094
య్య	-11.5095
жан	-11.5095
▁rak	-11.5095
▁estadounidense	-11.5096
▁koncentr	-11.5096
ендә	-11.5096
ế	-11.5097
▁Santo	-11.5097
▁despois	-11.5098
▁тре	-11.5098
破	-11.5098
dó	-11.5099
}}\	-11.5099
▁verzi	-11.51
▁Power	-11.5101
▁Хе	-11.5101
▁Slav	-11.5102
fte	-11.5103
▁tit	-11.5103
іне	-11.5103
ഡ്	-11.5103
iers	-11.5105
▁UNESCO	-11.5105
▁puis	-11.5106
▁86	-11.5107
▁पु	-11.5108
▁Miguel	-11.5108
▁परि	-11.5109
নী	-11.511
text	-11.511
▁sian	-11.511
volu	-11.511
▁tü	-11.511
viv	-11.511
▁Mos	-11.5111
děl	-11.5112
▁geo	-11.5113
▁zajedno	-11.5113
ίζεται	-11.5113
có	-11.5114
ston	-11.5115
▁מע	-11.5116
▁toho	-11.5116
▁『	-11.5117
ally	-11.5117
్య	-11.5118
▁tím	-11.5118
▁Pel	-11.5119
minister	-11.5119
cja	-11.5119
▁area	-11.5119
▁produ	-11.512
াই	-11.512
சா	-11.512
జా	-11.512
▁More	-11.5121
نة	-11.5124
-21	-11.5124
▁및	-11.5124
항	-11.5124
▁América	-11.5125
žan	-11.5125
▁900	-11.5127
ნი	-11.5127
▁Lewis	-11.5127
oaren	-11.5128
Sh	-11.5129
نده	-11.5131
ίων	-11.5131
▁ove	-11.5131
dian	-11.5132
дук	-11.5132
▁foron	-11.5132
▁padre	-11.5132
▁acest	-11.5132
ष्ट	-11.5136
▁Epi	-11.5136
ヒ	-11.5137
dov	-11.5139
▁ingkang	-11.5139
▁180	-11.514
▁фе	-11.514
▁chất	-11.5141
ජ	-11.5141
学校	-11.5142
▁Ark	-11.5144
▁depois	-11.5145
▁پا	-11.5146
▁Manchester	-11.5146
ūs	-11.5147
フィ	-11.5148
tali	-11.515
▁ден	-11.515
▁Ot	-11.5151
ište	-11.5151
▁suoi	-11.5151
loc	-11.5152
rm	-11.5152
ായി	-11.5152
▁geen	-11.5152
参	-11.5153
▁Maz	-11.5154
吉	-11.5156
せ	-11.5157
▁rajon	-11.5157
öö	-11.5158
στα	-11.5161
tuur	-11.5161
▁комитет	-11.5162
بت	-11.5162
рем	-11.5162
ვე	-11.5163
▁dikenal	-11.5163
cord	-11.5164
որ	-11.5164
ulan	-11.5164
▁Seit	-11.5165
▁1866	-11.5165
▁мора	-11.5165
▁magn	-11.5165
еп	-11.5166
rent	-11.5168
eto	-11.5169
▁singl	-11.5169
zir	-11.517
▁양	-11.5171
kama	-11.5171
▁tiuj	-11.5174
▁quá	-11.5174
▁hasi	-11.5175
এর	-11.5175
▁OS	-11.5177
Ang	-11.5177
▁призна	-11.5178
▁רו	-11.5178
述	-11.5179
म्ब	-11.5179
▁2,5	-11.5179
skiego	-11.518
iller	-11.518
▁Fran	-11.5183
▁considerat	-11.5183
▁består	-11.5183
AD	-11.5184
स्थ	-11.5185
▁عشر	-11.5191
美國	-11.5191
ayı	-11.5191
▁sing	-11.5191
▁Jung	-11.5192
▁Leg	-11.5194
▁चार	-11.5194
ҡа	-11.5194
▁bos	-11.5194
▁העיר	-11.5194
юцца	-11.5195
那	-11.5196
▁grava	-11.5197
ড়ি	-11.5198
त्त	-11.5198
▁After	-11.52
▁There	-11.52
▁Nik	-11.52
čkog	-11.5201
▁kis	-11.5201
eksi	-11.5203
ஷ	-11.5205
▁Schi	-11.5207
塔	-11.5207
▁dieser	-11.5207
▁Mul	-11.5208
▁الغ	-11.5208
▁oğlu	-11.5209
▁биде	-11.5209
▁Sed	-11.5209
▁kỳ	-11.521
▁Це	-11.521
▁abandon	-11.521
▁мая	-11.521
אה	-11.5211
ാൻ	-11.5212
owi	-11.5212
▁כך	-11.5212
赛	-11.5213
▁Studi	-11.5213
pio	-11.5213
גן	-11.5214
▁vlád	-11.5215
ції	-11.5216
▁টেমপ্লেট	-11.5217
代表	-11.5217
nier	-11.5219
▁prakt	-11.5219
▁Phil	-11.5221
▁মাধ্যমে	-11.5222
▁posl	-11.5222
▁membro	-11.5222
ෙන	-11.5223
▁ఓ	-11.5223
▁ehk	-11.5223
▁името	-11.5224
▁Division	-11.5225
금	-11.5226
▁bán	-11.5228
▁Wilson	-11.5228
▁NASA	-11.5229
▁condi	-11.523
▁অনু	-11.523
хан	-11.5231
▁тако	-11.5231
▁destaca	-11.5231
ভি	-11.5232
పై	-11.5232
▁sách	-11.5232
び	-11.5232
▁жители	-11.5233
▁కొ	-11.5233
šao	-11.5235
▁suas	-11.5235
▁italiano	-11.5235
▁link	-11.5236
▁fransk	-11.5237
moni	-11.5238
jeva	-11.5239
▁experiment	-11.5239
مي	-11.5239
▁Network	-11.524
▁РФ	-11.5241
▁arma	-11.5241
年の	-11.5242
සු	-11.5242
mez	-11.5242
stig	-11.5243
▁nota	-11.5244
्यू	-11.5244
▁مجلس	-11.5245
гр	-11.5248
▁Grund	-11.525
aste	-11.5251
ее	-11.5252
▁විද්	-11.5252
▁উত্তর	-11.5252
▁turi	-11.5252
Am	-11.5252
群	-11.5253
▁октомври	-11.5253
డానికి	-11.5254
atura	-11.5255
▁Ay	-11.5255
▁carreira	-11.5257
▁Ama	-11.5257
▁bran	-11.5258
τρ	-11.5259
▁όταν	-11.5259
бург	-11.5259
▁estava	-11.5261
▁desember	-11.5262
▁kau	-11.5262
–3	-11.5262
բ	-11.5263
živ	-11.5263
▁hava	-11.5265
▁vég	-11.5265
ரிய	-11.5266
թ	-11.5266
දු	-11.5268
New	-11.5269
▁мај	-11.527
roman	-11.5271
▁run	-11.5271
▁dois	-11.5271
▁Jim	-11.5272
▁literatur	-11.5273
▁يكون	-11.5273
сар	-11.5274
▁atsi	-11.5274
▁Arte	-11.5275
іст	-11.5276
რ	-11.5277
▁karo	-11.5278
джа	-11.5278
부터	-11.5279
vši	-11.5279
▁relaciona	-11.5281
▁명	-11.5282
▁homo	-11.5284
▁sever	-11.5284
▁største	-11.5286
ød	-11.5286
νομ	-11.5287
▁Isto	-11.5289
▁Fund	-11.5289
rend	-11.529
mid	-11.529
▁SM	-11.529
vesti	-11.529
Com	-11.5292
dine	-11.5292
णे	-11.5295
▁кры	-11.5295
крат	-11.5296
▁작	-11.5299
ृ	-11.53
2°	-11.53
▁Teil	-11.53
▁ot	-11.53
典	-11.53
▁szám	-11.53
▁ан	-11.5302
▁ஒ	-11.5302
Τ	-11.5303
peri	-11.5303
▁83	-11.5305
▁países	-11.5306
fond	-11.5308
má	-11.5308
▁ترین	-11.5309
▁Mind	-11.5309
▁DNA	-11.5309
▁seit	-11.531
▁Tin	-11.5312
izm	-11.5315
▁canal	-11.5315
▁väl	-11.5316
▁kvar	-11.5316
되는	-11.5317
▁Джон	-11.5318
▁vẫn	-11.5319
tiques	-11.532
jima	-11.532
▁לח	-11.532
cil	-11.5322
▁Пред	-11.5322
▁सह	-11.5323
ží	-11.5325
తీ	-11.5326
съ	-11.5327
shë	-11.5328
▁ảnh	-11.5329
ало	-11.5329
▁condu	-11.533
▁menggunakan	-11.5331
▁rem	-11.5333
δε	-11.5334
▁Rey	-11.5335
▁mac	-11.5336
ωρ	-11.5336
▁određen	-11.5337
▁nende	-11.5337
▁бра	-11.5338
▁obras	-11.5338
teil	-11.5338
eurs	-11.5338
▁Wild	-11.534
▁dịch	-11.534
يز	-11.534
جل	-11.5341
▁plant	-11.5342
ונות	-11.5343
पन	-11.5344
unni	-11.5344
▁Academy	-11.5345
obra	-11.5345
▁bod	-11.5347
uj	-11.5347
▁geri	-11.5348
▁tao	-11.5348
▁povezan	-11.5348
3°	-11.5349
▁Ас	-11.5349
▁syd	-11.5349
פה	-11.5349
▁qe	-11.535
▁izvor	-11.535
▁نشان	-11.5351
ından	-11.5353
رف	-11.5355
rei	-11.5356
λή	-11.5357
isan	-11.5357
ności	-11.5357
▁אותו	-11.5357
לו	-11.5359
服	-11.5359
▁junto	-11.536
▁போன்ற	-11.5361
▁млн	-11.5361
▁agent	-11.5361
▁stu	-11.5362
נג	-11.5363
jena	-11.5363
▁каля	-11.5364
wat	-11.5365
▁german	-11.5365
▁kế	-11.5365
▁पनि	-11.5365
поль	-11.5365
tív	-11.5366
▁kanton	-11.5368
ప్ర	-11.5368
▁Σε	-11.5371
ungan	-11.5371
eken	-11.5371
▁resid	-11.5372
დი	-11.5373
▁संघ	-11.5373
ּ	-11.5375
іць	-11.5376
▁Allah	-11.5376
▁bare	-11.5376
bai	-11.5376
▁Tony	-11.5377
رد	-11.5377
usz	-11.5377
тәр	-11.5378
▁Sala	-11.5378
čić	-11.5379
мена	-11.538
٫	-11.538
▁фільм	-11.538
▁school	-11.5382
_{1}	-11.5383
▁Pul	-11.5384
▁1868	-11.5384
聖	-11.5385
▁Ngày	-11.5385
kit	-11.5385
ομ	-11.5386
▁evit	-11.5386
▁kilometr	-11.5388
1°	-11.5389
▁varios	-11.5389
▁continua	-11.5389
eign	-11.5389
▁Minister	-11.539
▁Svet	-11.5391
ymi	-11.5391
▁donc	-11.5391
▁prae	-11.5392
▁তারা	-11.5392
▁tiden	-11.5393
▁92	-11.5394
▁න	-11.5394
بط	-11.5395
調	-11.5395
μη	-11.5396
ല്ല	-11.5397
▁Mau	-11.5398
▁high	-11.5398
▁Brian	-11.5399
eras	-11.54
经	-11.54
▁резултат	-11.54
▁direktor	-11.5401
там	-11.5402
술	-11.5402
ená	-11.5402
▁تعداد	-11.5403
TS	-11.5403
▁његов	-11.5404
poj	-11.5405
ajo	-11.5406
▁101	-11.5406
şa	-11.5407
▁Fue	-11.5409
▁Anno	-11.541
▁((	-11.541
▁diện	-11.541
ურ	-11.5411
▁disebut	-11.5411
коп	-11.5412
▁colon	-11.5412
roma	-11.5413
neet	-11.5413
יא	-11.5413
дна	-11.5414
ְ	-11.5415
ischer	-11.5415
сет	-11.5416
▁đơn	-11.5416
scen	-11.5416
kita	-11.5417
▁فإن	-11.5417
▁přes	-11.5418
בי	-11.5419
老	-11.5419
▁Hus	-11.542
▁finans	-11.542
quia	-11.542
ična	-11.542
▁sted	-11.5421
▁defend	-11.5421
Fi	-11.5421
▁sebe	-11.5423
▁Theo	-11.5423
ώντας	-11.5426
urin	-11.5426
▁svih	-11.5427
فق	-11.5427
unk	-11.5427
▁competi	-11.5429
▁кам	-11.5432
▁gaz	-11.5433
▁Gan	-11.5433
▁1879	-11.5434
▁observa	-11.5435
лін	-11.5435
ించిన	-11.5437
Go	-11.5438
മായി	-11.5438
▁rob	-11.5438
nne	-11.5439
▁адам	-11.5439
▁θε	-11.544
▁oc	-11.5441
▁край	-11.5441
ლა	-11.5441
▁cest	-11.5442
▁Evrop	-11.5442
▁مختلف	-11.5442
▁Dé	-11.5443
700	-11.5444
▁partida	-11.5445
▁komt	-11.5447
▁dùng	-11.5447
ये	-11.5448
▁promov	-11.5449
SC	-11.545
lük	-11.545
talo	-11.5451
▁lud	-11.5452
vej	-11.5452
果	-11.5452
ευ	-11.5453
rdi	-11.5453
ارت	-11.5454
▁Bắc	-11.5455
▁युद्ध	-11.5455
gov	-11.5456
▁Slo	-11.5458
▁været	-11.5458
關	-11.5458
▁추	-11.5459
▁тә	-11.5459
▁conven	-11.5459
-30	-11.546
Sch	-11.5462
▁oyna	-11.5463
▁kandidat	-11.5463
▁années	-11.5463
▁atlet	-11.5463
▁1873	-11.5464
ET	-11.5465
▁trat	-11.5466
▁Кал	-11.5467
são	-11.5467
υλ	-11.5468
▁sezone	-11.5468
▁neki	-11.5469
▁empresa	-11.5469
tres	-11.547
ице	-11.547
אס	-11.547
volv	-11.5471
▁bygg	-11.5472
²,	-11.5474
▁kh	-11.5474
ház	-11.5475
λογ	-11.5475
ked	-11.5475
ять	-11.5475
נד	-11.5475
vek	-11.5476
▁Bull	-11.5476
taget	-11.5476
пр	-11.5477
nna	-11.5478
병	-11.5478
▁dil	-11.5478
▁105	-11.548
আ	-11.5481
▁लि	-11.5481
য়ের	-11.5481
▁외	-11.5482
kali	-11.5483
▁నుంచి	-11.5483
▁Premi	-11.5483
▁৪	-11.5483
قا	-11.5484
ఘ	-11.5485
▁batera	-11.5485
▁měl	-11.5486
▁így	-11.5486
lou	-11.5486
čki	-11.5488
▁conten	-11.5489
盟	-11.549
▁Fall	-11.549
lse	-11.549
▁škol	-11.549
ամ	-11.5491
іх	-11.5491
SE	-11.5492
▁arabera	-11.5493
▁cinco	-11.5493
▁lands	-11.5493
▁?	-11.5494
யி	-11.5494
wis	-11.5495
יז	-11.5495
OR	-11.5495
roll	-11.5495
tys	-11.5496
▁Нај	-11.5496
▁muito	-11.5496
▁prac	-11.5497
▁serta	-11.5497
▁But	-11.5498
▁olla	-11.5499
▁národ	-11.55
▁number	-11.5502
र्ड	-11.5502
▁מש	-11.5503
▁Bernard	-11.5504
▁आय	-11.5504
▁exemplo	-11.5504
▁NBA	-11.5504
▁limit	-11.5505
▁pomoć	-11.5505
▁지역	-11.5506
▁dưới	-11.5506
ака	-11.5508
▁giả	-11.5509
tut	-11.5509
▁Centre	-11.551
ík	-11.551
▁Kru	-11.5511
▁оч	-11.5511
▁Front	-11.5511
▁6-	-11.5511
thy	-11.5512
ison	-11.5513
▁vann	-11.5513
▁работи	-11.5514
ggio	-11.5514
▁alto	-11.5515
▁87	-11.5515
bungtod	-11.5517
ád	-11.5517
lod	-11.5517
▁matemati	-11.5518
മ്പ	-11.5518
ीन	-11.5518
dora	-11.5519
▁process	-11.5519
▁…	-11.5519
tiden	-11.552
▁канал	-11.552
კ	-11.5521
▁ponovno	-11.5521
uð	-11.5521
דים	-11.5522
inda	-11.5522
جم	-11.5523
▁điện	-11.5523
▁Uz	-11.5524
▁1857	-11.5525
λο	-11.5525
른	-11.5527
arum	-11.5528
DS	-11.5528
што	-11.5528
▁Line	-11.5529
国家	-11.5529
кла	-11.5529
▁20-	-11.553
owski	-11.553
RS	-11.553
▁இருந்த	-11.5531
▁Jahren	-11.5531
niu	-11.5534
▁fare	-11.5534
spira	-11.5535
4°	-11.5536
▁Kui	-11.5537
▁मंदिर	-11.5537
kirk	-11.5537
গুলি	-11.5538
▁EU	-11.5538
▁Tag	-11.5538
еви	-11.5539
owo	-11.5539
کر	-11.5539
▁भर	-11.554
юр	-11.5541
нски	-11.5542
mán	-11.5542
▁binne	-11.5542
δο	-11.5542
úc	-11.5544
▁minden	-11.5544
となる	-11.5545
▁Diese	-11.5546
ано	-11.5547
েই	-11.5547
▁now	-11.5547
▁रे	-11.5548
თ	-11.5548
▁където	-11.5548
▁varie	-11.5549
ыў	-11.5549
▁pois	-11.555
തു	-11.555
其他	-11.555
▁thay	-11.5551
▁altre	-11.5551
reich	-11.5552
▁imenom	-11.5553
▁1875	-11.5553
▁rá	-11.5553
ელ	-11.5557
maq	-11.5559
gress	-11.556
▁Office	-11.556
▁Pilipinas	-11.5561
ύρ	-11.5562
▁الوسيط	-11.5563
IA	-11.5563
▁Hrvatskoj	-11.5563
ște	-11.5564
▁Mand	-11.5564
dung	-11.5564
▁لت	-11.5565
ụ	-11.5567
داری	-11.5569
▁округ	-11.5569
יהם	-11.5571
Ex	-11.5571
angl	-11.5571
kant	-11.5571
wei	-11.5572
wald	-11.5572
xes	-11.5572
▁mynd	-11.5572
ният	-11.5573
▁azonban	-11.5573
िल	-11.5573
head	-11.5575
ието	-11.5578
арх	-11.5578
MP	-11.5578
owie	-11.5579
▁Στι	-11.5579
登	-11.558
▁tanben	-11.558
▁نقش	-11.5581
▁PS	-11.5581
▁కొన్ని	-11.5582
▁Cambridge	-11.5582
гал	-11.5583
ione	-11.5583
▁Ng	-11.5583
▁vremena	-11.5584
▁göster	-11.5585
帝	-11.5585
一個	-11.5585
▁visi	-11.5586
▁phủ	-11.5587
сте	-11.5587
श्	-11.5588
osas	-11.5588
▁दु	-11.5589
▁호	-11.559
▁аст	-11.559
λη	-11.5591
▁stati	-11.5592
olla	-11.5592
bbi	-11.5592
▁ישראל	-11.5592
ഭ	-11.5592
▁massa	-11.5593
▁uglavnom	-11.5593
bern	-11.5594
▁principale	-11.5594
σα	-11.5594
▁audi	-11.5594
MI	-11.5595
▁лист	-11.5595
宗	-11.5596
2007	-11.5597
▁Ung	-11.5597
▁mandat	-11.5599
anı	-11.5599
sinde	-11.5599
зар	-11.5601
شا	-11.5601
▁Your	-11.5602
▁Από	-11.5603
ілі	-11.5603
▁talent	-11.5603
ег	-11.5604
تن	-11.5605
▁약	-11.5605
▁pose	-11.5607
▁Planet	-11.5608
ĥ	-11.5608
▁kaksi	-11.5609
▁prof	-11.561
▁norsk	-11.561
▁diplomat	-11.5611
دل	-11.5612
बाट	-11.5612
MC	-11.5613
▁kä	-11.5613
eći	-11.5613
▁klubu	-11.5613
▁Elizabeth	-11.5614
קס	-11.5614
дам	-11.5614
▁серед	-11.5616
▁Cons	-11.5616
▁ahol	-11.5618
▁spi	-11.5619
nuo	-11.5619
▁kendi	-11.5621
ங்	-11.5621
▁Corporation	-11.5621
▁kole	-11.5621
▁systém	-11.5621
يق	-11.5622
Art	-11.5623
▁ingen	-11.5624
ière	-11.5624
▁ζ	-11.5624
pf	-11.5626
▁Pet	-11.5627
ιδ	-11.5627
▁bố	-11.5628
▁nummer	-11.5628
▁člen	-11.5628
▁Rib	-11.5629
čku	-11.5629
ுகிறது	-11.563
▁Gel	-11.563
ирован	-11.563
▁1865	-11.5631
▁mä	-11.5632
▁imperi	-11.5632
şi	-11.5633
станов	-11.5635
قت	-11.5636
▁Kot	-11.5638
gata	-11.564
▁дом	-11.564
ían	-11.564
mik	-11.5641
▁kara	-11.5641
ூர்	-11.5642
▁slag	-11.5642
▁gje	-11.5642
itti	-11.5643
இ	-11.5643
egy	-11.5643
▁diğer	-11.5643
▁прави	-11.5644
▁толькі	-11.5644
മി	-11.5644
ував	-11.5646
▁guerre	-11.5646
رض	-11.5646
tati	-11.5647
▁세계	-11.5648
ంతో	-11.5649
▁হয়েছিল	-11.565
▁dire	-11.565
▁Davis	-11.5651
ючи	-11.5651
▁тие	-11.5652
▁Porto	-11.5653
▁yaitu	-11.5654
cích	-11.5655
oh	-11.5657
▁sign	-11.5657
▁%)	-11.5657
▁μόνο	-11.5657
▁sekitar	-11.5658
tò	-11.5659
▁voz	-11.5659
bak	-11.5659
▁bolj	-11.5659
▁ده	-11.566
οχ	-11.566
▁анти	-11.566
▁área	-11.566
▁ді	-11.566
▁oh	-11.5661
▁dài	-11.5661
▁jednom	-11.5663
amba	-11.5663
וט	-11.5664
ঠ	-11.5664
script	-11.5665
گو	-11.5666
▁energia	-11.5667
nant	-11.5667
▁comercial	-11.5667
▁Liên	-11.5668
itis	-11.567
▁неколку	-11.5672
κά	-11.5673
gile	-11.5673
grund	-11.5673
▁북	-11.5674
meter	-11.5675
▁Кол	-11.5675
nata	-11.5675
▁први	-11.5675
▁(20	-11.5678
ори	-11.5679
▁resultat	-11.5681
ක්ෂ	-11.5681
lage	-11.5682
išk	-11.5682
ець	-11.5682
▁война	-11.5683
▁vorm	-11.5685
▁శ్రీ	-11.5686
▁kjent	-11.5686
▁1877	-11.5686
にも	-11.5687
▁kez	-11.5688
▁Дж	-11.5688
▁Бр	-11.569
▁ən	-11.569
▁tilbage	-11.5691
▁diverse	-11.5691
▁таа	-11.5691
бел	-11.5692
▁свят	-11.5693
צי	-11.5693
ҙа	-11.5693
▁інш	-11.5694
ιλ	-11.5694
▁твор	-11.5695
▁fòrça	-11.5695
▁tăng	-11.5696
dder	-11.5696
▁dolazi	-11.5696
பு	-11.5698
▁kant	-11.5698
▁oro	-11.5698
▁ISO	-11.5699
▁klo	-11.5699
▁Jen	-11.5699
▁fur	-11.57
cara	-11.5701
▁그의	-11.5701
ність	-11.5701
iar	-11.5702
ху	-11.5702
▁Сп	-11.5703
▁München	-11.5704
▁تجاهله	-11.5705
ыла	-11.5705
▁ministro	-11.5705
▁друга	-11.5709
SP	-11.5709
▁virus	-11.571
іл	-11.5711
▁Samuel	-11.5711
▁regular	-11.5712
რე	-11.5712
▁Але	-11.5712
èron	-11.5713
משך	-11.5713
lös	-11.5714
laz	-11.5714
▁tačiau	-11.5715
ján	-11.5715
run	-11.5715
▁Moskva	-11.5715
▁Bet	-11.5716
▁Law	-11.5716
▁bass	-11.5717
eid	-11.5718
vanje	-11.5719
▁فيه	-11.5721
SA	-11.5721
deki	-11.5721
▁кое	-11.5721
▁François	-11.5722
량	-11.5722
▁stadion	-11.5722
▁hori	-11.5726
▁sir	-11.5726
▁शि	-11.5727
ət	-11.5731
▁1872	-11.5731
ovým	-11.5732
ंट	-11.5732
守	-11.5734
还	-11.5734
▁sowie	-11.5735
▁Στο	-11.5735
▁kilometer	-11.5736
▁Tako	-11.5736
ffen	-11.5736
cció	-11.5737
▁biết	-11.5737
ringen	-11.5738
艦	-11.5739
▁۳	-11.574
▁Mik	-11.574
▁francesa	-11.5741
▁Oni	-11.5741
▁bảo	-11.5743
森	-11.5744
på	-11.5745
▁obraz	-11.5748
▁Bang	-11.5748
▁Shu	-11.5749
ял	-11.575
ową	-11.5752
▁పాఠశాల	-11.5752
بی	-11.5752
ность	-11.5752
inga	-11.5753
▁този	-11.5753
corre	-11.5754
kę	-11.5755
atud	-11.5755
тр	-11.5756
stö	-11.5757
▁بودند	-11.5757
▁ч	-11.5757
टर	-11.5758
▁Türkiye	-11.576
ију	-11.5761
umo	-11.5762
足	-11.5762
▁american	-11.5762
veni	-11.5763
yske	-11.5763
▁District	-11.5763
▁først	-11.5764
gawa	-11.5764
ҳо	-11.5764
▁môže	-11.5765
▁området	-11.5765
害	-11.5767
▁three	-11.5768
ansa	-11.5768
▁bok	-11.5768
iral	-11.5769
▁raket	-11.5769
实	-11.5769
▁সম	-11.577
▁김	-11.577
▁जी	-11.5772
ισμό	-11.5772
▁baza	-11.5773
▁مردم	-11.5773
▁apenas	-11.5773
name	-11.5775
▁drie	-11.5775
▁rap	-11.5776
▁عند	-11.5776
▁நீ	-11.5777
▁desa	-11.5777
▁Estatu	-11.5778
डे	-11.5778
▁πόλη	-11.5778
▁idea	-11.5778
dha	-11.5778
solu	-11.578
say	-11.578
ácie	-11.5781
רס	-11.5782
▁Schw	-11.5783
▁Kod	-11.5784
2-	-11.5785
▁Вал	-11.5785
bild	-11.5786
▁teda	-11.5786
▁werk	-11.5786
urt	-11.5788
▁trọng	-11.5789
▁مس	-11.579
pression	-11.579
тал	-11.5791
▁tài	-11.5791
▁समाज	-11.5791
▁بتاريخ	-11.5792
人口	-11.5792
యి	-11.5793
▁segon	-11.5794
كي	-11.5794
プロ	-11.5795
▁får	-11.5795
時間	-11.5797
▁jusqu	-11.5798
iem	-11.5798
▁hold	-11.5799
каў	-11.5799
але	-11.5799
ளை	-11.58
▁لكن	-11.5801
तो	-11.5802
нік	-11.5802
▁यहाँ	-11.5802
▁suku	-11.5802
2013	-11.5802
▁drev	-11.5802
nci	-11.5805
▁متحده	-11.5805
▁nhiệm	-11.5806
kara	-11.5806
тыр	-11.5806
▁interna	-11.5807
kta	-11.5807
ინ	-11.5809
lys	-11.581
▁път	-11.581
▁Ži	-11.581
tér	-11.5811
ыі	-11.5812
▁হতে	-11.5812
лес	-11.5812
ők	-11.5813
▁figur	-11.5813
ograf	-11.5813
▁Ring	-11.5814
üü	-11.5814
stve	-11.5814
▁மேலும்	-11.5815
bart	-11.5815
енә	-11.5815
▁vojne	-11.5817
dzi	-11.5818
▁Sem	-11.5819
NA	-11.5819
enburg	-11.5819
▁व्यक्ति	-11.582
▁قانون	-11.5822
মু	-11.5823
▁Clo	-11.5823
tvor	-11.5823
메	-11.5823
іў	-11.5824
zim	-11.5824
stus	-11.5824
▁została	-11.5824
CI	-11.5825
▁international	-11.5825
tén	-11.5826
meri	-11.5826
sah	-11.5826
cka	-11.5827
▁crkve	-11.5827
▁घर	-11.5827
▁گر	-11.5829
▁tým	-11.5829
▁आज	-11.5832
▁superficie	-11.5832
▁1.0	-11.5834
лыҡ	-11.5834
ирање	-11.5834
Fa	-11.5834
কারী	-11.5834
ద్	-11.5834
টো	-11.5834
ország	-11.5835
▁conclu	-11.5835
▁prva	-11.5835
▁мә	-11.5836
▁белән	-11.5836
▁longo	-11.5838
▁ایالات	-11.5839
▁abad	-11.584
ả	-11.584
elis	-11.584
pole	-11.584
5%	-11.5841
▁bersama	-11.5841
gene	-11.5841
уз	-11.5842
▁sə	-11.5843
▁høj	-11.5845
lova	-11.5845
ïn	-11.5846
▁hanno	-11.5847
dah	-11.5848
ható	-11.5848
ült	-11.5849
▁רק	-11.5849
serie	-11.585
創	-11.585
1-	-11.5851
▁kum	-11.5852
魔	-11.5852
▁biến	-11.5852
▁ஹ	-11.5853
vok	-11.5854
▁confi	-11.5854
enden	-11.5854
▁economic	-11.5854
ψ	-11.5854
▁पे	-11.5855
дем	-11.5856
ভা	-11.5858
rog	-11.5859
hom	-11.586
цыя	-11.586
▁সং	-11.5861
始	-11.5861
予	-11.5862
ư	-11.5862
▁област	-11.5862
▁नदी	-11.5863
▁Burg	-11.5863
скім	-11.5863
7°	-11.5863
▁Ron	-11.5864
▁సినిమా	-11.5864
▁दि	-11.5864
▁filmi	-11.5868
▁Wei	-11.5868
▁가장	-11.5868
▁सेवा	-11.5869
дон	-11.587
لب	-11.5871
▁স্ব	-11.5871
協	-11.5872
▁комплекс	-11.5874
пов	-11.5874
▁Raj	-11.5874
▁Dub	-11.5874
▁академ	-11.5875
だ	-11.5875
ector	-11.5876
▁jul	-11.5876
▁való	-11.5877
第二	-11.5877
▁châu	-11.5877
8°	-11.5878
▁slik	-11.5878
nec	-11.5879
▁فقط	-11.5879
ові	-11.5879
產	-11.588
జీ	-11.5881
▁ام	-11.5881
▁साहित्य	-11.5881
ellen	-11.5881
▁asemenea	-11.5882
ickej	-11.5882
لة	-11.5883
▁Mann	-11.5883
▁Tema	-11.5883
▁Gui	-11.5884
নার	-11.5884
uja	-11.5885
▁있	-11.5886
으며	-11.5887
račun	-11.5888
irana	-11.5888
▁primjer	-11.5888
▁они	-11.5889
ppa	-11.5889
▁Aires	-11.5891
hop	-11.5892
2018	-11.5892
▁namun	-11.5892
ự	-11.5893
▁product	-11.5894
ljub	-11.5896
১৯	-11.5897
▁1862	-11.5897
▁Shin	-11.5899
inėje	-11.5899
▁tư	-11.59
Ga	-11.5901
▁Public	-11.5902
▁ці	-11.5902
▁garai	-11.5902
▁önce	-11.5903
শা	-11.5903
צר	-11.5903
▁Costa	-11.5904
▁१८	-11.5904
ബ്	-11.5905
jeve	-11.5905
ינה	-11.5906
gard	-11.5906
mate	-11.5906
мян	-11.5907
lín	-11.5907
▁tiến	-11.5907
Ko	-11.5907
▁igual	-11.5908
▁kontra	-11.5908
ান	-11.5908
சை	-11.5909
jör	-11.591
▁strategi	-11.591
ească	-11.5913
বাদ	-11.5913
▁fit	-11.5913
▁након	-11.5914
▁interpreta	-11.5915
izira	-11.5916
▁Hat	-11.5917
▁back	-11.5918
ується	-11.5919
▁mez	-11.5919
▁ඔහු	-11.592
レー	-11.5922
▁Šv	-11.5922
ഡ	-11.5923
δι	-11.5924
▁trei	-11.5924
ヤ	-11.5924
▁terug	-11.5925
▁basa	-11.5926
▁make	-11.5926
▁Temp	-11.5927
யே	-11.5928
व्या	-11.5929
傳	-11.5929
线	-11.5929
▁1999,	-11.5929
▁get	-11.5931
গত	-11.5933
▁পে	-11.5934
ax	-11.5935
▁like	-11.5935
сын	-11.5936
вил	-11.5937
ĝo	-11.5938
▁చెప్ప	-11.5938
ിച്ച	-11.5939
町	-11.594
earre	-11.594
播	-11.594
tanto	-11.5941
▁mission	-11.5942
▁proceso	-11.5943
▁πολύ	-11.5943
▁دارند	-11.5944
▁ühe	-11.5944
▁Xi	-11.5945
equip	-11.5945
▁italian	-11.5945
▁Jacques	-11.5945
▁титул	-11.5945
viz	-11.5945
▁Steve	-11.5946
▁लोगों	-11.5946
▁97	-11.5946
▁maailma	-11.5947
▁काल	-11.5947
වල	-11.5948
شی	-11.5948
FI	-11.5948
stoff	-11.5948
jë	-11.5949
▁ова	-11.5949
▁দা	-11.5949
оста	-11.5949
▁trgov	-11.595
skiej	-11.5951
▁Just	-11.5951
▁retir	-11.5952
▁வெ	-11.5952
▁jedoch	-11.5953
▁politic	-11.5954
əh	-11.5954
асці	-11.5954
▁skrev	-11.5955
mmel	-11.5955
čas	-11.5957
▁Klub	-11.5958
▁العديد	-11.5958
রু	-11.5958
уб	-11.5958
вет	-11.5959
ָ	-11.5959
▁trai	-11.5959
▁vain	-11.596
വും	-11.596
нк	-11.5961
▁jazz	-11.5961
▁گرفته	-11.5961
▁৫	-11.5961
▁rundt	-11.5962
טל	-11.5963
▁arme	-11.5963
davo	-11.5964
▁cứu	-11.5966
▁efekt	-11.5968
πα	-11.5968
gres	-11.5969
▁పో	-11.5969
▁αιώνα	-11.5969
▁amihang	-11.597
留	-11.597
模	-11.597
וב	-11.5971
▁financ	-11.5971
hely	-11.5972
ră	-11.5972
ikke	-11.5972
▁тому	-11.5973
lab	-11.5975
▁skupiny	-11.5976
▁pies	-11.5977
▁بسیار	-11.5979
owania	-11.598
ән	-11.598
чна	-11.5981
−	-11.5981
▁support	-11.5981
▁علم	-11.5981
▁Tha	-11.5981
іп	-11.5982
▁물	-11.5983
▁Pic	-11.5983
▁القرن	-11.5983
koak	-11.5985
▁stesso	-11.5987
▁group	-11.5988
atur	-11.5988
々	-11.5989
▁לב	-11.5989
▁hü	-11.5989
▁दोनों	-11.599
それ	-11.599
मो	-11.599
akt	-11.599
▁alatt	-11.599
mester	-11.5992
ratu	-11.5993
▁kuitenkin	-11.5995
付	-11.5995
cke	-11.5995
▁című	-11.5995
▁България	-11.5995
▁350	-11.5995
אן	-11.5996
ots	-11.5997
fang	-11.5997
ující	-11.5997
NS	-11.5997
لس	-11.5998
▁sä	-11.5998
致	-11.5998
▁chơi	-11.5999
▁žena	-11.6
▁läbi	-11.6
▁മു	-11.6
tata	-11.6
▁लगभग	-11.6
▁Thor	-11.6001
▁drag	-11.6002
delen	-11.6002
▁legal	-11.6002
יית	-11.6005
▁५	-11.6005
▁Narod	-11.6005
▁blevet	-11.6005
▁dona	-11.6006
जे	-11.6006
ről	-11.6007
▁Ent	-11.6008
▁अव	-11.6008
▁halv	-11.6009
2000	-11.6009
meye	-11.6011
πολ	-11.6011
▁pic	-11.6011
vic	-11.6011
▁dobio	-11.6013
▁английски	-11.6013
▁line	-11.6015
▁Call	-11.6015
▁velike	-11.6016
vz	-11.6016
лит	-11.6016
ncer	-11.6016
fér	-11.6017
▁kö	-11.6017
एं	-11.6017
περ	-11.6017
▁Stat	-11.6017
▁총	-11.6018
्यु	-11.6019
ίζει	-11.602
館	-11.602
▁introdu	-11.602
▁küla	-11.602
sjonen	-11.602
ებ	-11.602
яўляецца	-11.6021
▁døde	-11.6021
λυ	-11.6022
кт	-11.6022
▁Matt	-11.6022
테	-11.6023
šu	-11.6023
▁Serikat	-11.6024
▁represent	-11.6026
▁නො	-11.6027
▁Str	-11.6027
▁Ά	-11.6029
▁year	-11.6029
▁Poly	-11.6029
▁világ	-11.6029
ук	-11.603
▁molekul	-11.603
جو	-11.6031
histori	-11.6031
▁vrste	-11.6031
▁nomin	-11.6033
▁1988.	-11.6033
▁Chr	-11.6034
ळी	-11.6035
हि	-11.6035
▁Noord	-11.6036
▁Zen	-11.6036
▁வே	-11.6037
▁pouco	-11.6037
▁birlikte	-11.6038
дары	-11.6038
▁Gj	-11.6039
דה	-11.604
▁teoria	-11.6041
▁series	-11.6041
पर	-11.6041
వచ్చు	-11.6042
San	-11.6043
▁дэ	-11.6043
▁Wie	-11.6046
▁اصلی	-11.6046
▁பிர	-11.6047
▁orta	-11.6047
لح	-11.6048
▁Так	-11.6048
klas	-11.6049
▁teren	-11.6049
青	-11.6049
▁naziva	-11.6049
ква	-11.605
isma	-11.6052
▁Model	-11.6053
雷	-11.6054
јата	-11.6054
▁Iako	-11.6054
▁Estats	-11.6054
αγ	-11.6054
TO	-11.6055
▁đều	-11.6055
▁Сто	-11.6055
▁molto	-11.6055
▁ред	-11.6055
▁Μα	-11.6056
ize	-11.6056
▁الد	-11.6057
ுக்கு	-11.6057
іт	-11.6057
▁জাতীয়	-11.6058
▁tìm	-11.6059
▁regn	-11.6059
▁storočia	-11.6061
▁때문에	-11.6061
▁anggota	-11.6062
▁dúas	-11.6062
▁fakultet	-11.6062
ライ	-11.6062
әт	-11.6062
Gu	-11.6062
яв	-11.6063
▁മാ	-11.6063
▁זאת	-11.6063
טה	-11.6063
▁kell	-11.6064
▁Fred	-11.6064
ери	-11.6065
νε	-11.6065
eden	-11.6067
ιμ	-11.6067
ഴ	-11.6067
سل	-11.6068
agi	-11.6069
▁solu	-11.607
▁csapat	-11.607
▁పేరు	-11.607
▁kedua	-11.6071
ovanja	-11.6071
▁planeta	-11.6072
▁času	-11.6073
nə	-11.6074
hid	-11.6074
▁paling	-11.6074
▁цэнтр	-11.6076
ின	-11.6077
維	-11.6077
▁danh	-11.6077
▁bliver	-11.6077
emi	-11.6077
▁conquista	-11.6077
▁डे	-11.6077
yev	-11.6078
▁Britani	-11.6078
▁Town	-11.608
ҫ	-11.608
▁సంస్థ	-11.6081
▁lingvo	-11.6083
із	-11.6084
▁vjer	-11.6084
▁κλ	-11.6085
[...]
