<unk>	0
<s>	0
</s>	0
.	-3.45992
,	-3.6038
▁	-4.10803
s	-4.2936
▁de	-4.53227
e	-5.02908
▁a	-5.05161
▁the	-5.08982
a	-5.17818
-	-5.23918
▁(	-5.24211
▁in	-5.34046
'	-5.37967
▁la	-5.45456
▁of	-5.57669
i	-5.65759
en	-5.66819
)	-5.69342
▁en	-5.71696
o	-5.77296
▁and	-5.87153
n	-5.98974
:	-6.0196
▁i	-6.04377
▁to	-6.04406
t	-6.05686
。	-6.10872
u	-6.24562
▁e	-6.33721
▁в	-6.33926
er	-6.35195
y	-6.37108
а	-6.3724
▁"	-6.39594
▁l	-6.41182
、	-6.4535
▁di	-6.45451
es	-6.46743
▁el	-6.47483
▁der	-6.48636
▁un	-6.50696
▁que	-6.53572
▁is	-6.55759
▁se	-6.56168
▁на	-6.5884
▁The	-6.60985
▁d	-6.64091
▁was	-6.64849
▁le	-6.65337
▁A	-6.65456
▁и	-6.67395
r	-6.68756
▁na	-6.73759
▁o	-6.74395
▁del	-6.75238
и	-6.75987
▁et	-6.79255
▁for	-6.79741
▁die	-6.80406
▁on	-6.82054
▁und	-6.82412
▁y	-6.85247
).	-6.85458
m	-6.86488
▁des	-6.87126
▁«	-6.90672
▁do	-6.92235
"	-6.9268
の	-6.94901
，	-6.98556
in	-6.99427
е	-7.01282
▁da	-7.01622
d	-7.03145
▁as	-7.05775
▁In	-7.06059
▁à	-7.06589
▁w	-7.09974
an	-7.10244
▁La	-7.10888
у	-7.10916
▁-	-7.12381
▁van	-7.14265
ing	-7.16416
▁sa	-7.17369
),	-7.1765
▁il	-7.179
▁an	-7.1804
▁al	-7.19221
▁–	-7.20167
ed	-7.21094
▁je	-7.21745
;	-7.2241
▁les	-7.22426
▁con	-7.22455
▁du	-7.22651
▁by	-7.22904
te	-7.23496
▁s	-7.23917
▁—	-7.24759
▁den	-7.27065
de	-7.29045
は	-7.29403
▁er	-7.29554
▁per	-7.30133
▁at	-7.31233
▁v	-7.31385
▁with	-7.34333
k	-7.34486
▁una	-7.35297
▁be	-7.36317
о	-7.36735
的	-7.38262
▁est	-7.38304
▁z	-7.39194
▁su	-7.40701
re	-7.40813
▁von	-7.4376
▁у	-7.4377
▁S	-7.43862
▁I	-7.45112
et	-7.46126
ar	-7.46421
年	-7.46877
ta	-7.47684
▁por	-7.48223
l	-7.49071
▁с	-7.49206
▁that	-7.50715
を	-7.51661
▁es	-7.52478
が	-7.53207
na	-7.53311
▁u	-7.53414
▁no	-7.54849
al	-7.553
’	-7.55342
▁за	-7.55596
to	-7.55979
da	-7.56236
ne	-7.57194
▁De	-7.58062
em	-7.59057
▁1	-7.59958
on	-7.6126
▁los	-7.62626
▁para	-7.62638
▁по	-7.63054
▁from	-7.63901
▁he	-7.64457
z	-7.64484
os	-7.64766
".	-7.64832
に	-7.6545
us	-7.66006
▁og	-7.66668
▁L	-7.66748
▁2	-7.66919
▁В	-7.66925
»	-7.6709
se	-7.67179
h	-7.68405
▁En	-7.68925
▁av	-7.69163
ом	-7.70324
ы	-7.70385
▁het	-7.70487
▁ה	-7.70832
▁em	-7.70833
as	-7.71561
▁een	-7.7176
▁Le	-7.72899
le	-7.73183
▁ja	-7.73329
،	-7.73504
is	-7.73525
▁his	-7.7418
c	-7.76836
/	-7.76872
▁m	-7.77494
▁C	-7.77682
я	-7.78544
▁im	-7.7874
é	-7.79004
ja	-7.79319
（	-7.79414
ch	-7.79464
▁El	-7.79597
і	-7.79726
▁par	-7.79794
▁O	-7.80452
▁3	-7.81116
no	-7.83244
▁som	-7.84522
▁V	-7.85205
▁و	-7.85435
g	-7.85458
▁He	-7.85795
ti	-7.85832
▁Il	-7.86051
▁„	-7.86421
▁za	-7.86442
ni	-7.87335
▁mit	-7.88302
la	-7.88523
・	-7.88556
▁als	-7.88701
▁B	-7.90172
j	-7.90247
▁are	-7.90568
b	-7.91428
▁ב	-7.91585
ia	-7.92118
▁W	-7.92743
un	-7.93571
▁Die	-7.94038
2	-7.94138
▁po	-7.9444
▁не	-7.95
▁das	-7.95471
▁ال	-7.95776
▁si	-7.96194
▁um	-7.96727
▁och	-7.97356
at	-7.97894
▁dans	-7.98247
▁M	-7.98269
S	-7.98443
1	-7.98624
▁4	-7.98725
▁ist	-7.98996
）	-7.99662
▁re	-7.99757
▁como	-8.0033
▁T	-8.00601
▁op	-8.0074
p	-8.01777
ka	-8.01965
▁au	-8.02195
ul	-8.02568
ra	-8.02573
do	-8.02926
▁va	-8.03142
▁P	-8.0319
▁è	-8.03221
▁che	-8.03458
▁D	-8.03524
▁zu	-8.0365
▁з	-8.03786
ly	-8.03918
▁до	-8.04185
it	-8.04354
A	-8.04532
▁it	-8.05119
▁K	-8.05216
▁wurde	-8.05241
li	-8.05475
▁com	-8.05593
▁were	-8.0605
▁une	-8.06204
▁or	-8.06462
f	-8.06867
il	-8.07581
▁5	-8.0773
▁od	-8.07931
▁في	-8.08274
ie	-8.08383
▁és	-8.09836
м	-8.09992
▁son	-8.10604
ов	-8.1081
▁te	-8.10915
▁ein	-8.10949
で	-8.11088
▁ve	-8.11108
▁E	-8.11485
▁dem	-8.11598
ci	-8.11981
▁і	-8.12326
ce	-8.12359
▁от	-8.12746
va	-8.13711
▁10	-8.13766
月	-8.13772
▁med	-8.14493
▁på	-8.14848
▁auf	-8.1523
ma	-8.15629
th	-8.15869
(	-8.16336
».	-8.16491
।	-8.18399
▁which	-8.19351
ko	-8.19385
▁della	-8.19502
C	-8.19909
▁pour	-8.20102
▁sur	-8.20994
▁U	-8.21076
▁war	-8.21445
▁ha	-8.21575
ten	-8.22231
ó	-8.22298
3	-8.22598
▁var	-8.22725
▁k	-8.23001
と	-8.23163
ment	-8.23456
ca	-8.23763
▁It	-8.23905
v	-8.23911
▁се	-8.24325
▁ne	-8.24725
om	-8.24929
st	-8.25108
ий	-8.2527
el	-8.25284
на	-8.25395
▁6	-8.25674
▁из	-8.26112
▁در	-8.26655
й	-8.27105
▁G	-8.27155
▁has	-8.27186
▁had	-8.2726
▁é	-8.27428
▁qui	-8.27827
х	-8.28055
ge	-8.28821
▁für	-8.28855
▁las	-8.29538
▁12	-8.30048
í	-8.30077
▁also	-8.3057
je	-8.30754
ה	-8.31363
▁sich	-8.31387
ого	-8.31689
▁eine	-8.31888
▁ל	-8.31952
의	-8.32471
▁:	-8.32478
man	-8.32792
▁her	-8.33073
▁של	-8.33282
▁til	-8.33438
si	-8.34186
▁F	-8.34205
4	-8.34424
ur	-8.35181
ой	-8.36127
▁R	-8.36331
dis	-8.36373
▁је	-8.36663
▁so	-8.36827
ba	-8.37095
or	-8.37122
▁not	-8.37376
est	-8.38185
▁У	-8.38339
▁dan	-8.38413
▁15	-8.38785
▁а	-8.39106
ی	-8.39241
x	-8.39579
▁7	-8.39699
“	-8.40068
▁film	-8.40094
den	-8.401
nt	-8.40124
▁при	-8.4045
▁Na	-8.40646
be	-8.40662
▁n	-8.40672
ة	-8.40728
日	-8.40836
▁8	-8.40908
▁من	-8.4123
▁ver	-8.42126
▁года	-8.42278
▁az	-8.42949
ro	-8.43043
ki	-8.43239
ou	-8.43615
um	-8.43776
▁^	-8.44102
▁am	-8.44434
▁om	-8.44534
▁H	-8.45105
▁lo	-8.45152
ek	-8.45604
▁all	-8.45646
▁14	-8.46046
▁over	-8.46247
▁first	-8.46408
ir	-8.46425
▁N	-8.46757
▁km	-8.46881
их	-8.47555
▁entre	-8.47664
▁ser	-8.47924
но	-8.48368
▁9	-8.48459
▁20	-8.48884
ak	-8.49263
ă	-8.49284
▁c	-8.50172
▁but	-8.50539
▁met	-8.50738
ą	-8.50891
lo	-8.51028
т	-8.51042
▁os	-8.51261
▁în	-8.51336
▁nel	-8.51705
mi	-8.51923
▁się	-8.52147
ка	-8.52517
ه	-8.52784
▁{\	-8.53044
ів	-8.53144
▁13	-8.53185
▁11	-8.53475
▁är	-8.53807
▁С	-8.53853
▁dos	-8.5433
ve	-8.54367
та	-8.54547
N	-8.54667
▁του	-8.55065
▁have	-8.55227
ndo	-8.55295
▁е	-8.55338
B	-8.55728
▁pro	-8.55904
▁New	-8.56136
▁Er	-8.56211
▁Der	-8.5626
ים	-8.56419
▁aus	-8.56567
w	-8.57015
▁af	-8.57195
▁Se	-8.57726
▁και	-8.58035
▁their	-8.58416
▁да	-8.58989
",	-8.59061
ban	-8.59114
ا	-8.59224
ku	-8.59513
▁uma	-8.60055
▁và	-8.60162
在	-8.60318
me	-8.60378
5	-8.60424
ga	-8.60997
ke	-8.61141
▁roku	-8.61392
▁men	-8.62258
▁Al	-8.62462
ben	-8.62532
di	-8.62771
人	-8.63145
E	-8.63291
ej	-8.63358
▁II	-8.63368
ю	-8.63505
した	-8.63505
▁era	-8.63572
▁this	-8.63666
▁one	-8.63672
co	-8.64051
ни	-8.6412
ant	-8.64168
▁به	-8.64253
▁J	-8.64662
ת	-8.64679
ו	-8.65035
с	-8.65182
▁Po	-8.65361
▁году	-8.65655
▁ang	-8.66274
▁its	-8.66374
ha	-8.66496
ado	-8.66688
л	-8.66825
」	-8.66839
▁của	-8.66986
ь	-8.67144
ho	-8.67866
ri	-8.68662
ver	-8.68733
6	-8.69274
을	-8.69413
com	-8.69583
「	-8.69617
し	-8.69654
▁к	-8.69932
▁ou	-8.69938
▁An	-8.70144
ny	-8.7029
”	-8.70312
▁Z	-8.70473
za	-8.70513
▁har	-8.70579
ли	-8.70756
▁yang	-8.70884
à	-8.71775
ς	-8.71891
▁voor	-8.71911
ang	-8.72006
á	-8.72012
im	-8.7206
7	-8.72157
playstyle	-8.72177
ik	-8.72293
▁avec	-8.72433
▁non	-8.72713
▁là	-8.72893
▁Les	-8.7292
▁та	-8.73017
io	-8.73157
ung	-8.73279
▁plus	-8.73327
▁foi	-8.7339
ów	-8.73525
▁zijn	-8.73677
ada	-8.73745
▁во	-8.73857
в	-8.73902
▁30	-8.74271
▁No	-8.74725
▁been	-8.74838
▁ma	-8.74909
▁han	-8.75044
▁про	-8.75052
am	-8.75073
▁для	-8.75477
ation	-8.75843
▁ge	-8.76377
▁2010	-8.76694
▁who	-8.7688
▁și	-8.76958
▁о	-8.77009
이	-8.77084
▁two	-8.77358
▁fue	-8.77553
D	-8.77585
에	-8.77797
ки	-8.78101
▁pre	-8.78225
ton	-8.78262
▁sie	-8.78415
▁p	-8.79382
▁16	-8.79499
land	-8.79639
▁can	-8.79682
▁amb	-8.79697
▁On	-8.79809
▁nach	-8.7989
н	-8.80438
der	-8.80466
▁/	-8.80599
F	-8.80743
ية	-8.80935
▁מ	-8.80969
▁2011	-8.81119
▁co	-8.81188
▁auch	-8.81206
ers	-8.81245
ov	-8.81278
M	-8.81337
▁man	-8.81604
▁werd	-8.81612
ия	-8.81627
中	-8.82118
▁bis	-8.82151
▁b	-8.82252
▁bei	-8.82287
▁Re	-8.82664
▁under	-8.82803
▁На	-8.82924
▁San	-8.83007
ok	-8.83218
ла	-8.83634
▁Es	-8.83687
▁از	-8.84042
kan	-8.84209
▁mais	-8.84244
8	-8.84258
▁för	-8.84392
ter	-8.84487
ами	-8.84626
ad	-8.84699
▁2009	-8.84824
▁ki	-8.8549
▁werden	-8.85531
не	-8.85583
ę	-8.85817
▁qu	-8.85933
W	-8.86183
是	-8.86621
▁det	-8.86933
▁2008	-8.87078
id	-8.87116
ine	-8.87254
–	-8.87354
▁pas	-8.87355
▁2007	-8.8744
▁att	-8.875
▁25	-8.87519
ler	-8.87801
▁Be	-8.87802
ist	-8.87859
▁sont	-8.87885
I	-8.88038
▁As	-8.88489
▁sua	-8.88566
▁ka	-8.88904
▁dat	-8.89091
T	-8.89396
}	-8.89482
то	-8.89566
P	-8.89692
▁ce	-8.89707
▁م	-8.9007
▁18	-8.90224
▁2012	-8.90316
▁ke	-8.90495
ina	-8.90572
▁од	-8.90795
▁till	-8.90803
▁το	-8.90988
▁της	-8.91208
ي	-8.9139
H	-8.91394
▁parte	-8.91438
K	-8.91451
▁את	-8.91674
ic	-8.91807
▁seu	-8.91812
go	-8.9223
tu	-8.92277
▁t	-8.92413
·	-8.92646
▁است	-8.92916
ze	-8.93311
▁más	-8.9362
▁pe	-8.93637
oj	-8.93963
▁album	-8.94011
する	-8.94182
▁time	-8.94217
▁=	-8.94294
大	-8.94575
▁Im	-8.94594
к	-8.94598
▁This	-8.94628
은	-8.94636
▁part	-8.94734
им	-8.95404
▁17	-8.95519
▁के	-8.95596
는	-8.95928
▁other	-8.95937
O	-8.96112
和	-8.96292
▁f	-8.96363
년	-8.96869
▁“	-8.96906
que	-8.97052
▁2006	-8.97156
▁einer	-8.97177
▁aan	-8.97306
ach	-8.97412
9	-8.97664
▁2013	-8.97675
▁&	-8.97896
▁ad	-8.98015
▁sin	-8.9803
▁dell	-8.98058
▁St	-8.98102
▁after	-8.98103
ах	-8.98351
men	-8.98398
▁fra	-8.98494
sa	-8.98572
ista	-8.98614
une	-8.98717
▁một	-8.98794
▁על	-8.99092
▁pod	-8.99114
V	-8.99116
▁г	-8.99162
▁they	-8.99258
G	-8.99305
ción	-8.99364
▁come	-8.99591
▁می	-8.9964
mente	-8.99948
ות	-9.00099
▁24	-9.00134
▁2014	-9.00285
▁into	-9.00598
L	-9.00699
ет	-9.01038
▁năm	-9.01249
▁được	-9.01265
▁По	-9.01446
▁Un	-9.01601
sta	-9.01691
ен	-9.01816
▁hij	-9.01882
ти	-9.02113
ä	-9.02257
▁19	-9.02522
も	-9.02573
jo	-9.02622
▁John	-9.02639
▁был	-9.02745
▁r	-9.0277
ts	-9.02778
mo	-9.02783
ات	-9.02788
ей	-9.02855
ت	-9.03288
▁ו	-9.0346
▁este	-9.03482
▁up	-9.03489
▁door	-9.03643
vo	-9.03694
▁Ver	-9.03757
：	-9.0378
▁über	-9.03908
des	-9.03947
▁2015	-9.03992
▁что	-9.04081
ita	-9.04188
ig	-9.04256
ty	-9.04679
ut	-9.04837
▁zum	-9.04916
▁ab	-9.04919
▁Sa	-9.0507
▁g	-9.05152
▁Das	-9.0527
vi	-9.05345
nya	-9.0544
▁под	-9.05634
▁nicht	-9.05789
ent	-9.05815
▁she	-9.05911
gi	-9.06035
有	-9.0608
▁sobre	-9.06118
ji	-9.06215
»,	-9.0629
▁kan	-9.06354
▁World	-9.06444
▁x	-9.06537
▁iz	-9.06686
▁fu	-9.06717
lar	-9.06837
▁21	-9.07052
上	-9.07311
zi	-9.07391
▁tra	-9.07463
である	-9.07516
ò	-9.07599
▁со	-9.07669
▁uit	-9.0774
ата	-9.0781
ya	-9.07928
▁durch	-9.07956
▁York	-9.08234
▁more	-9.08268
ju	-9.08909
R	-9.09035
から	-9.09242
ні	-9.09584
▁X	-9.09622
▁sind	-9.09785
!	-9.09952
י	-9.10146
are	-9.10361
▁alla	-9.104
10	-9.10599
▁23	-9.10759
ry	-9.10777
he	-9.10909
▁Con	-9.11243
▁oli	-9.11325
▁2005	-9.11377
▁ble	-9.11439
▁ت	-9.11568
ner	-9.11891
▁wird	-9.12123
ego	-9.122
▁kaj	-9.12233
son	-9.12299
▁22	-9.12387
▁bir	-9.12409
▁me	-9.12564
от	-9.12685
ní	-9.1295
や	-9.13093
gen	-9.13133
ot	-9.13136
ska	-9.13192
▁ca	-9.13222
ção	-9.13275
▁ut	-9.13321
The	-9.13808
ů	-9.14176
po	-9.142
▁été	-9.14236
▁2000	-9.14421
▁Per	-9.14482
г	-9.14636
ного	-9.14664
▁ta	-9.14681
▁cu	-9.14749
▁как	-9.14775
▁most	-9.14836
▁که	-9.15346
▁h	-9.15396
▁28	-9.15442
▁'	-9.15539
▁са	-9.15679
▁To	-9.15793
▁Su	-9.15905
▁2016	-9.15979
ва	-9.16165
ven	-9.16331
▁100	-9.16422
ng	-9.16438
ной	-9.16885
ssa	-9.16972
▁bi	-9.17372
ми	-9.17395
▁dal	-9.17576
▁els	-9.17667
▁vor	-9.17737
가	-9.17957
▁ze	-9.17966
▁26	-9.18106
▁Si	-9.18176
pa	-9.18244
▁А	-9.18282
д	-9.18334
▁Los	-9.18421
▁nie	-9.18531
per	-9.18563
ая	-9.18796
ных	-9.18801
▁có	-9.19054
▁pa	-9.19122
▁ra	-9.19138
tion	-9.19246
né	-9.19298
ion	-9.19408
▁27	-9.19459
一	-9.19487
▁2004	-9.19626
ите	-9.19635
▁United	-9.19717
ste	-9.20072
án	-9.20291
bo	-9.20367
▁only	-9.20635
▁الم	-9.20722
ica	-9.20745
▁року	-9.20825
▁mai	-9.20885
ken	-9.20941
du	-9.21129
▁She	-9.21206
▁Den	-9.21354
▁when	-9.21402
▁einem	-9.21413
▁ب	-9.21429
▁new	-9.21616
▁National	-9.21738
nie	-9.21834
い	-9.21888
ž	-9.22038
α	-9.22306
▁would	-9.22435
▁years	-9.22491
▁pp	-9.22596
aj	-9.22658
▁على	-9.22793
▁các	-9.22917
▁din	-9.22983
▁К	-9.23201
és	-9.23415
▁що	-9.23474
로	-9.23478
ato	-9.23539
les	-9.23583
▁trong	-9.23587
▁Am	-9.23705
▁him	-9.23848
ami	-9.23955
▁later	-9.23978
▁Em	-9.24012
▁Het	-9.24215
▁li	-9.24278
▁pri	-9.24502
ых	-9.24552
▁την	-9.24554
▁ir	-9.24587
▁meg	-9.24609
au	-9.2462
▁Han	-9.24676
ron	-9.24723
▁sus	-9.24825
▁tot	-9.24933
▁sub	-9.2502
го	-9.25284
▁used	-9.2534
▁су	-9.25481
▁में	-9.2567
▁lui	-9.25673
▁mu	-9.25695
▁out	-9.25804
ity	-9.25878
▁aux	-9.25967
▁So	-9.2602
ren	-9.2611
▁ter	-9.27322
ο	-9.27419
ої	-9.2762
▁από	-9.27659
▁For	-9.27848
by	-9.2787
ス	-9.27887
▁University	-9.27951
те	-9.28113
ski	-9.28132
ем	-9.28197
▁between	-9.28202
ata	-9.28298
▁American	-9.28348
▁Do	-9.28385
▁ob	-9.28498
ть	-9.28932
”.	-9.29034
ие	-9.29141
를	-9.29201
▁від	-9.29247
▁Me	-9.29395
了	-9.29412
▁ni	-9.29577
sk	-9.29579
tor	-9.29733
▁zur	-9.30126
ske	-9.30129
ку	-9.30145
▁29	-9.30293
▁его	-9.30382
▁За	-9.30706
▁Man	-9.30723
wa	-9.30747
▁Consultado	-9.30792
iz	-9.30905
ш	-9.31168
▁than	-9.31225
▁due	-9.31556
ный	-9.31613
ً	-9.31916
nu	-9.32007
▁comme	-9.32007
lu	-9.3212
ма	-9.32122
▁during	-9.32301
▁dei	-9.32318
▁August	-9.32541
▁है	-9.32737
▁000	-9.3291
▁War	-9.33058
12	-9.3318
▁Ab	-9.33266
J	-9.33271
ый	-9.333
▁2017	-9.33394
pi	-9.3364
▁eta	-9.3377
zione	-9.33786
▁të	-9.33868
ció	-9.33896
▁ed	-9.339
▁einen	-9.33937
▁about	-9.34342
▁را	-9.34427
sch	-9.34617
▁forma	-9.3467
▁Za	-9.34695
▁(18	-9.34702
з	-9.34736
sen	-9.34829
▁where	-9.34918
▁ي	-9.35229
▁1.	-9.35338
ih	-9.35371
▁Da	-9.35446
▁Ang	-9.35622
不	-9.35772
▁final	-9.35854
では	-9.35876
▁delle	-9.35894
▁jest	-9.36126
▁με	-9.36252
▁September	-9.36348
ian	-9.36473
▁At	-9.36484
▁such	-9.36531
▁wurden	-9.36531
▁он	-9.36806
cu	-9.36841
▁Co	-9.36976
—	-9.37016
▁Di	-9.37175
▁%	-9.37275
ій	-9.37327
▁sono	-9.37409
▁این	-9.37441
ж	-9.37441
bu	-9.37491
ها	-9.37566
な	-9.37746
ate	-9.37879
▁più	-9.37887
▁tre	-9.37953
▁Az	-9.38069
▁50	-9.38172
bi	-9.38231
ger	-9.38345
▁April	-9.38382
ě	-9.38438
▁2003	-9.386
ée	-9.3874
ische	-9.38872
ú	-9.39145
▁Ha	-9.39538
▁alle	-9.396
ии	-9.39817
▁2001	-9.40036
▁раз	-9.40291
▁jako	-9.40291
▁2002	-9.40333
▁О	-9.40346
▁об	-9.40466
▁ש	-9.40677
che	-9.40752
された	-9.40908
ting	-9.4101
mu	-9.41012
▁пере	-9.41106
▁nella	-9.41136
pe	-9.4126
▁made	-9.4133
▁{	-9.41433
▁oder	-9.41517
ker	-9.41562
11	-9.41665
ana	-9.41712
?	-9.41807
ные	-9.4183
Z	-9.41895
▁nga	-9.41907
elle	-9.41953
▁unter	-9.4197
▁some	-9.42091
▁three	-9.42158
地	-9.42186
م	-9.42303
▁\	-9.4245
ning	-9.42461
ai	-9.42565
▁Pro	-9.4262
ru	-9.42768
▁+	-9.42982
fi	-9.43311
▁dass	-9.43346
uje	-9.43361
hi	-9.43388
▁durante	-9.43538
▁became	-9.43555
able	-9.43577
ý	-9.43617
▁но	-9.43727
ky	-9.43815
名	-9.43924
▁III	-9.44086
▁å	-9.44136
да	-9.44222
▁ont	-9.4438
▁Lo	-9.44409
▁wie	-9.44427
▁Mar	-9.44447
▁Ge	-9.44452
▁ses	-9.44474
ою	-9.44804
за	-9.44941
▁known	-9.45016
▁Film	-9.45293
▁November	-9.45304
kin	-9.45378
▁May	-9.45463
ло	-9.45515
▁kon	-9.45526
▁place	-9.45534
▁dari	-9.45791
ам	-9.45843
р	-9.45998
▁Y	-9.46119
▁или	-9.46232
▁0	-9.46243
ně	-9.46528
에서	-9.46544
▁|	-9.46677
tes	-9.46726
▁deux	-9.47033
▁ex	-9.47044
▁there	-9.47363
dos	-9.47551
ber	-9.47574
▁31	-9.47594
▁Ein	-9.47617
▁با	-9.47644
子	-9.47939
ł	-9.47966
▁cho	-9.48046
▁Nel	-9.48182
▁mas	-9.48196
18	-9.48289
월	-9.4831
る	-9.48583
ня	-9.4859
▁hat	-9.48594
illa	-9.48635
▁40	-9.48643
das	-9.487
▁bu	-9.48753
con	-9.48762
出	-9.48957
▁fin	-9.49088
▁ل	-9.49091
▁second	-9.49222
▁tháng	-9.49262
ну	-9.49379
ación	-9.49384
として	-9.49483
為	-9.49825
▁ao	-9.49871
ή	-9.49952
▁car	-9.50095
▁France	-9.50126
▁bij	-9.50142
▁gli	-9.50313
▁will	-9.50418
▁де	-9.50517
▁pada	-9.50619
▁Paris	-9.50918
न	-9.50978
下	-9.50984
▁blev	-9.50989
the	-9.5101
▁form	-9.51077
▁Ta	-9.51123
▁general	-9.51164
ling	-9.51274
mar	-9.51616
▁vy	-9.51629
ी	-9.51651
り	-9.5167
▁year	-9.51674
è	-9.52016
分	-9.52059
▁Jahr	-9.52061
▁anche	-9.52113
ア	-9.52172
bar	-9.52213
ria	-9.52356
▁ya	-9.52399
▁egy	-9.5242
ischen	-9.52497
▁inter	-9.52634
ram	-9.52676
▁many	-9.52738
ari	-9.52749
ima	-9.52845
▁Ma	-9.52853
ini	-9.52867
▁suo	-9.52934
▁name	-9.53014
▁З	-9.53059
del	-9.53215
한	-9.53223
mer	-9.53414
."	-9.53669
本	-9.53694
▁przez	-9.53779
ين	-9.54076
ende	-9.54175
ych	-9.54207
tar	-9.54327
▁Saint	-9.54343
』	-9.5439
ted	-9.54441
gu	-9.54717
ud	-9.54772
▁mar	-9.54784
行	-9.54809
\	-9.54839
ale	-9.5484
ό	-9.54996
ley	-9.55036
tal	-9.5504
▁may	-9.55057
者	-9.55099
▁fa	-9.55117
▁ko	-9.55192
▁ten	-9.55216
▁1990	-9.55216
▁tu	-9.55287
▁dels	-9.5534
20	-9.55351
át	-9.55429
▁Sie	-9.55438
han	-9.55445
ol	-9.55471
▁City	-9.55579
ок	-9.55582
▁2018	-9.55615
ía	-9.55801
dan	-9.55825
berg	-9.55846
ene	-9.55851
od	-9.56126
▁های	-9.56416
og	-9.56417
era	-9.56423
ч	-9.56525
ili	-9.56546
▁М	-9.56627
▁All	-9.56681
▁nem	-9.56851
被	-9.5687
ster	-9.56963
uk	-9.57117
▁people	-9.57202
▁ett	-9.57209
var	-9.57227
用	-9.57283
них	-9.57363
ert	-9.57432
▁US	-9.575
ile	-9.57505
age	-9.577
ų	-9.57824
法	-9.57979
up	-9.58031
ali	-9.58087
б	-9.58204
ului	-9.58261
▁1999	-9.58273
30	-9.58294
zu	-9.58364
▁이	-9.58379
▁Bu	-9.58396
én	-9.58437
ando	-9.58477
▁ng	-9.58682
▁Li	-9.5869
▁Ko	-9.58785
▁estas	-9.58815
ся	-9.5888
▁»	-9.58992
く	-9.59009
▁well	-9.59027
▁wy	-9.59061
▁fait	-9.59133
ym	-9.59144
▁club	-9.59153
▁đã	-9.59159
q	-9.59188
tra	-9.59215
▁contra	-9.59276
ão	-9.59486
▁After	-9.59515
ele	-9.59515
▁States	-9.59709
га	-9.59714
ano	-9.59727
cy	-9.5978
▁being	-9.59796
англ	-9.5984
▁να	-9.59934
▁mi	-9.59972
kon	-9.60104
ル	-9.60153
▁ved	-9.60183
▁dengan	-9.60298
ida	-9.60322
▁Mo	-9.60433
▁Elle	-9.60476
dy	-9.6048
▁then	-9.60583
ck	-9.6066
ко	-9.6075
일	-9.60791
lin	-9.61557
▁nur	-9.61599
ab	-9.61605
ن	-9.61781
ם	-9.61784
▁band	-9.61829
部	-9.61932
後	-9.61975
min	-9.62016
た	-9.62027
▁Pe	-9.6203
▁public	-9.62084
▁הוא	-9.62174
▁ο	-9.62205
▁naar	-9.62297
には	-9.62508
ї	-9.62525
▁long	-9.62529
let	-9.62636
▁Te	-9.62658
고	-9.62733
15	-9.62748
tel	-9.62757
▁work	-9.62757
▁mal	-9.63023
lan	-9.63056
인	-9.63103
▁nom	-9.63432
tan	-9.63541
chi	-9.63548
lik	-9.63595
▁Od	-9.63632
▁West	-9.63699
▁Nach	-9.63708
U	-9.63824
š	-9.63902
η	-9.63977
▁Her	-9.64145
▁local	-9.64211
▁number	-9.64245
nak	-9.64276
▁més	-9.64303
cia	-9.6434
▁gran	-9.64525
▁elle	-9.64537
▁Du	-9.64592
▁2.	-9.64638
ому	-9.64655
▁waren	-9.64657
▁إلى	-9.64659
▁η	-9.64684
X	-9.64745
zo	-9.64851
nia	-9.64902
長	-9.64972
ati	-9.65027
▁ri	-9.65038
ная	-9.6534
▁Os	-9.65427
▁March	-9.65431
▁end	-9.65474
▁në	-9.65492
▁same	-9.65525
▁não	-9.65527
▁worden	-9.65589
▁Van	-9.65697
п	-9.65753
র	-9.65786
▁total	-9.65796
▁care	-9.65845
으로	-9.6592
▁với	-9.65924
▁1998	-9.65989
▁International	-9.66114
리	-9.66222
▁plan	-9.66226
▁người	-9.66246
도	-9.66326
▁His	-9.66376
▁ber	-9.66425
▁vi	-9.66427
ую	-9.66936
▁Va	-9.67019
ç	-9.67145
nte	-9.67149
▁through	-9.67265
dor	-9.67306
▁fi	-9.67378
vin	-9.67393
▁them	-9.67458
nik	-9.67531
▁ви	-9.67858
国	-9.67938
▁وال	-9.67946
▁go	-9.68221
ля	-9.68271
val	-9.6834
▁General	-9.68367
▁Ar	-9.68389
▁ook	-9.68453
▁Car	-9.68486
▁David	-9.68488
▁Bo	-9.6855
ний	-9.68618
▁ho	-9.68623
▁)	-9.6866
》	-9.68695
▁until	-9.68855
len	-9.68862
▁لل	-9.68948
mann	-9.68955
▁stato	-9.69162
▁team	-9.69163
ć	-9.69233
ά	-9.69235
▁vom	-9.69275
▁London	-9.69279
ф	-9.6943
▁Op	-9.69436
▁Go	-9.69464
▁Or	-9.69496
▁Paul	-9.69578
▁They	-9.69882
ان	-9.69896
している	-9.69947
▁Ke	-9.7007
ской	-9.70153
one	-9.70179
▁Park	-9.70518
ые	-9.7052
▁Ne	-9.70601
17	-9.70611
ix	-9.70622
▁won	-9.7067
gar	-9.70724
於	-9.70725
▁की	-9.70743
fer	-9.70798
以	-9.70917
nes	-9.70937
ন	-9.71035
sel	-9.71078
▁single	-9.71327
sten	-9.71354
斯	-9.71449
ii	-9.71476
▁grande	-9.71576
ат	-9.71581
▁land	-9.7167
art	-9.71777
▁both	-9.71807
ados	-9.71924
ire	-9.71986
ez	-9.71988
nek	-9.71998
지	-9.72068
ell	-9.72135
una	-9.72203
vis	-9.7222
家	-9.72362
ismo	-9.72653
▁nord	-9.72747
▁была	-9.72748
net	-9.72766
生	-9.72811
ere	-9.72932
▁Г	-9.72932
▁far	-9.72944
▁prima	-9.72956
ії	-9.72972
ном	-9.72998
時	-9.73023
▁mis	-9.73023
ым	-9.73048
ле	-9.73084
fa	-9.732
ier	-9.73295
▁cette	-9.7334
▁original	-9.73446
▁base	-9.73526
issa	-9.73576
▁nu	-9.73578
ille	-9.73661
과	-9.73705
▁Ba	-9.7385
ски	-9.73928
क	-9.73938
▁system	-9.73981
ino	-9.73996
▁як	-9.74082
▁1980	-9.74146
16	-9.74213
山	-9.74367
ien	-9.74383
ique	-9.74457
▁1997	-9.74495
ante	-9.74509
▁against	-9.74834
▁Det	-9.74887
▁noch	-9.74956
nd	-9.75021
▁का	-9.75047
▁1992	-9.75109
▁Robert	-9.75237
会	-9.75245
▁Je	-9.75279
▁está	-9.75319
▁כ	-9.75332
▁fut	-9.75351
ে	-9.75419
▁hi	-9.75445
▁hogy	-9.75454
▁также	-9.75567
다	-9.75653
▁1996	-9.75654
ei	-9.75668
ке	-9.75681
▁τον	-9.75931
ク	-9.75946
▁series	-9.76052
▁volt	-9.76063
▁before	-9.76225
所	-9.76233
▁sein	-9.76352
▁eller	-9.76372
fe	-9.76431
iert	-9.7646
▁untuk	-9.76575
ism	-9.76591
res	-9.76709
ë	-9.76722
tro	-9.76739
▁South	-9.76823
▁Ka	-9.76858
́	-9.76877
▁state	-9.7689
ido	-9.76941
▁И	-9.76944
▁James	-9.76994
▁while	-9.77171
▁kun	-9.77177
▁zwei	-9.77221
▁вы	-9.77292
▁Ce	-9.77323
op	-9.77325
▁Europa	-9.77425
▁kom	-9.77615
▁USA	-9.77634
▁Nord	-9.77688
isch	-9.77757
▁أن	-9.77835
▁aber	-9.77835
ית	-9.77861
▁TV	-9.77935
▁William	-9.77938
第	-9.77989
aren	-9.78004
ν	-9.78007
▁м	-9.7802
ón	-9.78136
ник	-9.78242
ade	-9.78264
ের	-9.78334
tas	-9.78341
▁ale	-9.7838
▁1994	-9.78389
▁niet	-9.78498
ش	-9.78504
▁Ca	-9.7851
▁There	-9.78532
▁wordt	-9.78626
La	-9.78644
▁called	-9.78924
iti	-9.78982
▁seiner	-9.78988
▁city	-9.79005
▁June	-9.79011
ard	-9.79036
▁use	-9.79045
ova	-9.79055
リ	-9.79063
kar	-9.79072
он	-9.79099
ici	-9.79169
▁ku	-9.79205
▁המ	-9.7921
lle	-9.79226
ј	-9.79285
西	-9.7929
か	-9.79311
▁anti	-9.79347
ura	-9.79385
▁1991	-9.79421
25	-9.7943
ary	-9.79582
▁seine	-9.79589
高	-9.79604
▁pela	-9.79629
ett	-9.7967
化	-9.79759
ure	-9.79781
де	-9.79842
▁released	-9.79889
Y	-9.79934
▁200	-9.79941
ła	-9.79996
ным	-9.80021
▁было	-9.80211
ac	-9.80245
ラ	-9.8028
▁tak	-9.80312
ft	-9.80342
▁році	-9.80586
č	-9.80636
▁October	-9.80658
ál	-9.80735
▁byl	-9.80771
▁bat	-9.80776
▁desde	-9.80795
▁Au	-9.80908
手	-9.80931
line	-9.81029
▁fost	-9.81044
▁Tu	-9.81048
▁время	-9.81074
ens	-9.81085
є	-9.81126
▁fer	-9.81147
道	-9.81223
▁που	-9.81224
vel	-9.81276
▁ngày	-9.81283
▁fel	-9.81312
▁national	-9.81313
▁British	-9.81336
▁أ	-9.8135
▁January	-9.81394
pen	-9.81471
公	-9.81588
为	-9.81632
▁пре	-9.81649
ação	-9.8179
▁των	-9.81802
▁1995	-9.8184
▁solo	-9.81871
▁these	-9.81871
▁2011.	-9.81877
▁ch	-9.8193
▁sau	-9.81939
▁же	-9.82012
nen	-9.82138
▁Ni	-9.82154
–19	-9.82168
▁post	-9.82193
nde	-9.82237
特	-9.82374
for	-9.82393
end	-9.82424
▁pero	-9.82503
ex	-9.82522
▁tri	-9.82528
이다	-9.82536
14	-9.82548
▁School	-9.82602
▁sig	-9.82741
▁July	-9.82794
ide	-9.8281
▁Art	-9.82815
=	-9.82816
nin	-9.82909
▁1970	-9.82935
事	-9.82953
▁2010.	-9.8302
▁sous	-9.83044
▁Jahre	-9.83132
▁Stadt	-9.8314
▁League	-9.83146
cha	-9.83152
sti	-9.8317
amente	-9.83195
▁Peter	-9.83201
水	-9.83303
▁including	-9.83365
▁años	-9.83431
े	-9.83565
ks	-9.83646
▁Bar	-9.83652
ল	-9.83672
▁George	-9.83714
▁serie	-9.83729
▁mot	-9.8382
▁från	-9.83844
van	-9.83858
ern	-9.83859
▁también	-9.83951
▁ở	-9.84006
▁four	-9.84086
по	-9.84115
▁2012.	-9.84154
‍	-9.84159
ल	-9.84283
▁nome	-9.84346
jen	-9.84485
ż	-9.84515
ava	-9.84599
力	-9.84617
▁vid	-9.84788
小	-9.84804
ico	-9.84876
▁že	-9.84877
스	-9.84882
ros	-9.84928
ila	-9.84933
▁так	-9.8494
▁adalah	-9.84959
ль	-9.84964
▁area	-9.84996
ое	-9.85011
ون	-9.85064
して	-9.85107
▁cui	-9.85184
د	-9.85188
▁Maria	-9.85192
▁season	-9.85424
年に	-9.85533
多	-9.85535
▁set	-9.85569
新	-9.85655
ella	-9.85661
▁Ze	-9.85673
▁était	-9.8572
▁−	-9.85792
▁any	-9.85827
▁roce	-9.85861
ło	-9.85866
sko	-9.85891
▁vez	-9.85918
之	-9.85947
ama	-9.85973
文	-9.85986
nom	-9.86029
▁December	-9.86066
tur	-9.86137
lla	-9.86147
ő	-9.86172
▁Vi	-9.8627
▁П	-9.86359
▁60	-9.86388
▁Kon	-9.86417
don	-9.86471
▁several	-9.86546
▁то	-9.86559
▁German	-9.86582
▁से	-9.86637
▁uno	-9.86678
▁Mai	-9.86683
▁1993	-9.86686
ham	-9.86758
ト	-9.8676
any	-9.86761
ais	-9.86778
ロ	-9.86835
▁godine	-9.86865
▁school	-9.86903
▁были	-9.86955
回	-9.87045
▁dalla	-9.87049
ска	-9.87058
ци	-9.87073
他	-9.87075
性	-9.87254
▁pi	-9.87362
▁hatte	-9.87404
▁bo	-9.87448
▁Michael	-9.87461
▁और	-9.87499
▁pot	-9.8754
▁since	-9.87588
ito	-9.87625
▁під	-9.8771
hu	-9.87726
▁vào	-9.87737
▁principal	-9.87778
tre	-9.87901
ah	-9.87994
▁partir	-9.88114
▁år	-9.88124
▁hun	-9.88207
入	-9.88243
zioni	-9.8827
와	-9.88299
市	-9.88358
ement	-9.88366
到	-9.88379
▁Val	-9.88493
▁leur	-9.88561
ক	-9.88615
▁آن	-9.88653
ite	-9.88676
ド	-9.88693
기	-9.88834
▁anni	-9.88868
С	-9.88956
▁cap	-9.88965
▁Land	-9.8901
▁onder	-9.89016
tek	-9.89036
き	-9.89052
사	-9.89092
ksi	-9.89296
▁Par	-9.89307
位	-9.89313
▁ré	-9.89319
▁primer	-9.89332
▁nombre	-9.89335
▁North	-9.89336
▁για	-9.89416
▁kor	-9.89514
▁Charles	-9.89519
ies	-9.89547
）。	-9.8969
zy	-9.89771
ство	-9.8982
met	-9.89868
▁σε	-9.8987
las	-9.89918
▁kao	-9.89962
定	-9.89993
▁στην	-9.90014
▁Men	-9.90018
▁Zeit	-9.90036
ра	-9.90042
aria	-9.90048
ం	-9.90134
▁2013.	-9.90152
▁Por	-9.90178
▁County	-9.90213
▁2015.	-9.90224
ive	-9.90255
▁Jean	-9.90333
▁á	-9.90342
uri	-9.9037
▁esta	-9.90387
▁dé	-9.90443
▁music	-9.90573
▁seus	-9.9058
▁ga	-9.90668
ского	-9.90741
▁ba	-9.90834
▁premier	-9.90871
ال	-9.90882
어	-9.90884
ona	-9.90903
we	-9.90909
▁Lu	-9.90927
▁1960	-9.90984
▁sem	-9.90997
ius	-9.91056
▁Para	-9.91112
▁Son	-9.91129
▁στο	-9.9117
ala	-9.91177
▁found	-9.91192
her	-9.91221
▁oraz	-9.91263
▁Mit	-9.9131
▁family	-9.91321
ná	-9.91338
▁vol	-9.91391
▁Hij	-9.91466
前	-9.91527
▁1989	-9.91575
▁Б	-9.91619
▁col	-9.91783
▁ها	-9.91816
▁sta	-9.91891
ил	-9.91928
マ	-9.91975
ев	-9.92088
▁popular	-9.9209
▁Mal	-9.92095
ب	-9.92104
▁seva	-9.922
▁ci	-9.92204
會	-9.92218
▁group	-9.92229
而	-9.92347
▁3.	-9.92495
ा	-9.92547
ба	-9.92671
ous	-9.92701
▁Martin	-9.92709
13	-9.92762
su	-9.92773
▁social	-9.92776
▁French	-9.92806
▁began	-9.92809
inen	-9.92827
gel	-9.92893
ran	-9.92966
▁main	-9.93001
▁При	-9.93004
“.	-9.93009
州	-9.93024
▁Grand	-9.93267
▁government	-9.93326
海	-9.93344
タ	-9.93381
ville	-9.93404
▁early	-9.9348
시	-9.93526
▁Vor	-9.93529
▁;	-9.93559
戦	-9.93569
ice	-9.93619
▁sud	-9.93723
ira	-9.93752
▁sistema	-9.93886
nej	-9.93912
▁IV	-9.94058
学	-9.94106
eg	-9.94164
▁został	-9.94174
ara	-9.94184
र	-9.94196
▁É	-9.94204
▁world	-9.94276
▁2014.	-9.94278
▁(*	-9.9428
▁back	-9.94327
▁via	-9.94328
▁година	-9.94368
40	-9.94474
▁Pre	-9.94567
▁pel	-9.94587
sse	-9.94612
▁population	-9.94712
+	-9.94713
ан	-9.9475
cie	-9.94786
▁One	-9.94793
ı	-9.94803
『	-9.94832
ió	-9.94871
ал	-9.94915
▁même	-9.94919
▁ў	-9.94927
▁prze	-9.94958
▁major	-9.95042
▁water	-9.95099
ciones	-9.95144
ри	-9.95194
car	-9.9521
ige	-9.95237
機	-9.95269
▁dalam	-9.9528
外	-9.95288
▁mga	-9.95338
ap	-9.95365
▁Europe	-9.95411
▁1945	-9.95505
▁hasta	-9.95528
▁Sch	-9.9553
nih	-9.95565
王	-9.9566
▁guerra	-9.9567
▁Pa	-9.95734
red	-9.95735
▁Music	-9.95756
bel	-9.95837
ова	-9.95872
ika	-9.95877
▁mm	-9.95885
▁program	-9.95902
ité	-9.95939
▁tahun	-9.95945
ков	-9.96044
tik	-9.96147
体	-9.96148
▁Jo	-9.96219
▁Aus	-9.96269
▁degli	-9.96298
▁now	-9.96334
19	-9.96375
▁Cup	-9.96386
▁па	-9.96402
eur	-9.96418
ל	-9.96507
▁Air	-9.96548
▁each	-9.96549
ется	-9.96655
同	-9.96682
▁bio	-9.96701
zen	-9.9672
rat	-9.96756
▁بر	-9.96793
▁Dr	-9.96807
▁we	-9.9681
ія	-9.96814
▁này	-9.96857
▁top	-9.9689
三	-9.96953
▁Tour	-9.96981
▁thành	-9.9708
▁palibot	-9.9708
म	-9.97139
▁Sam	-9.97141
ών	-9.97147
▁को	-9.97159
▁Um	-9.97194
▁п	-9.97253
▁Las	-9.97269
▁عام	-9.97356
▁game	-9.97368
主	-9.97416
合	-9.97436
iva	-9.97436
ι	-9.9755
ret	-9.97625
ナ	-9.97656
という	-9.97683
金	-9.97745
▁vers	-9.97749
iv	-9.9775
isme	-9.97762
▁Santa	-9.97812
▁control	-9.97948
ani	-9.97972
▁radio	-9.97985
▁mort	-9.98139
▁یک	-9.98175
▁после	-9.98203
asi	-9.9823
ovi	-9.98268
コ	-9.9828
面	-9.9832
са	-9.98411
ер	-9.98427
明	-9.9849
《	-9.98509
par	-9.98515
kom	-9.98523
▁February	-9.98543
▁500	-9.98653
bra	-9.98653
или	-9.98658
mon	-9.9868
▁Star	-9.9868
ec	-9.98717
▁Ra	-9.98825
ena	-9.98983
_{	-9.98994
▁수	-9.99075
正	-9.99194
ero	-9.99261
▁kar	-9.99281
▁Т	-9.99283
▁By	-9.99315
▁State	-9.99335
▁agosto	-9.99364
lig	-9.99386
▁également	-9.9945
▁Com	-9.99572
до	-9.99601
▁Can	-9.99646
▁large	-9.9971
té	-9.99756
▁Japan	-9.99819
▁period	-9.99828
▁לא	-9.99929
▁Berlin	-10.0004
▁Ob	-10.0005
▁King	-10.0011
▁My	-10.0013
▁aussi	-10.003
▁century	-10.004
克	-10.0041
lich	-10.0045
azione	-10.0049
▁không	-10.0051
0	-10.006
▁ville	-10.0062
▁Q	-10.0063
sz	-10.0065
数	-10.0069
▁Д	-10.0069
▁Thomas	-10.007
स	-10.0075
);	-10.0078
22	-10.0082
tet	-10.0085
され	-10.0086
ble	-10.0088
cer	-10.0093
▁tempo	-10.0096
sh	-10.0098
于	-10.01
▁fan	-10.0103
▁ei	-10.0104
▁있다	-10.0104
се	-10.0106
南	-10.0109
ε	-10.0112
▁Chi	-10.0114
▁played	-10.0119
▁ini	-10.0119
▁nad	-10.012
het	-10.0123
ait	-10.0126
mos	-10.0129
▁dieser	-10.013
▁Ku	-10.0133
▁לה	-10.0136
kt	-10.0144
▁Jan	-10.0147
ُ	-10.016
▁Red	-10.0161
if	-10.0165
▁super	-10.0171
vor	-10.0188
▁koji	-10.0195
▁pelo	-10.0201
▁held	-10.0207
▁είναι	-10.0211
▁1988	-10.0212
▁être	-10.0212
▁did	-10.0218
カ	-10.022
される	-10.022
▁Ben	-10.0231
▁maar	-10.0232
ими	-10.0235
▁efter	-10.0237
▁ru	-10.0238
▁version	-10.0242
kor	-10.0246
ны	-10.0257
ним	-10.0262
▁35	-10.0263
▁Super	-10.0263
った	-10.0284
▁Club	-10.0293
▁China	-10.0294
▁그	-10.0301
ин	-10.0302
kov	-10.0303
▁home	-10.0304
idae	-10.0307
-1	-10.0308
物	-10.0309
▁modern	-10.0314
س	-10.0319
▁2009.	-10.0322
▁River	-10.0324
▁sp	-10.0326
▁2008.	-10.033
▁Als	-10.0345
erne	-10.0346
▁Mu	-10.0352
▁roz	-10.0352
▁Roman	-10.0353
成	-10.0353
▁pu	-10.0359
方	-10.0361
ated	-10.0362
ll	-10.0363
sche	-10.0368
and	-10.0376
ità	-10.0384
ى	-10.0388
▁Mark	-10.0391
В	-10.0391
▁Jahren	-10.0392
▁עם	-10.0393
▁raz	-10.0394
▁could	-10.0396
вер	-10.0396
▁Ja	-10.0398
▁mer	-10.0402
▁przy	-10.0404
▁ans	-10.0411
▁opera	-10.0411
也	-10.0414
▁dis	-10.0423
▁سال	-10.0424
▁high	-10.0437
士	-10.0441
▁ar	-10.0443
軍	-10.0449
ц	-10.0449
▁inglés	-10.0452
vat	-10.0452
28	-10.0457
ят	-10.047
▁Не	-10.0472
等	-10.0473
▁Royal	-10.0483
▁був	-10.0486
af	-10.049
▁mo	-10.0492
▁central	-10.0495
▁However	-10.0496
線	-10.0504
port	-10.0508
▁Estados	-10.0508
cio	-10.051
▁2016.	-10.0516
dir	-10.0516
▁eines	-10.0516
mento	-10.0517
▁Har	-10.0519
ја	-10.0537
▁important	-10.054
ser	-10.0545
▁station	-10.0547
天	-10.0549
▁best	-10.0549
nim	-10.0552
ют	-10.0554
त	-10.0576
神	-10.0582
重	-10.0583
ono	-10.0584
80	-10.0592
▁Hän	-10.0592
▁Ve	-10.0601
▁também	-10.0604
ן	-10.062
ag	-10.0622
ola	-10.0624
К	-10.0628
▁Canada	-10.0628
▁Records	-10.0633
ное	-10.0641
In	-10.0647
▁still	-10.0647
▁show	-10.0648
ча	-10.065
ance	-10.065
cz	-10.0651
27	-10.0651
その	-10.0657
▁مع	-10.0666
ці	-10.0667
▁sul	-10.0678
ди	-10.0678
▁Don	-10.0682
pan	-10.0682
▁τα	-10.0686
му	-10.0689
作	-10.0692
▁dit	-10.0698
ст	-10.0699
▁tres	-10.07
):	-10.0707
▁Tor	-10.0707
代	-10.0711
▁año	-10.0714
leg	-10.0715
▁Unidos	-10.0719
aire	-10.0721
los	-10.0725
▁ihre	-10.0725
與	-10.0732
▁took	-10.0736
че	-10.0739
▁över	-10.074
▁וה	-10.0745
▁Ci	-10.0745
▁над	-10.0748
▁nos	-10.0749
イ	-10.0754
▁jedoch	-10.0755
24	-10.0764
lat	-10.077
ş	-10.0772
▁До	-10.0783
▁tal	-10.0788
▁jo	-10.0806
▁Richard	-10.0812
▁Gi	-10.0814
▁life	-10.0817
▁1950	-10.082
ì	-10.082
23	-10.0821
▁الت	-10.0823
格	-10.0824
▁Е	-10.0834
А	-10.0836
leri	-10.0836
▁après	-10.0837
cal	-10.0837
form	-10.0842
▁gi	-10.0842
▁kann	-10.0845
iu	-10.0845
▁video	-10.0845
▁ا	-10.0854
osa	-10.0856
▁zich	-10.0859
北	-10.0866
vol	-10.0872
▁alors	-10.0876
▁Pan	-10.0877
▁tại	-10.088
▁एक	-10.0882
▁tem	-10.0885
ский	-10.0887
stra	-10.089
tus	-10.0893
▁art	-10.0894
tak	-10.0896
mat	-10.0898
利	-10.0906
ги	-10.0909
ию	-10.091
及	-10.0911
▁từ	-10.0914
▁że	-10.0915
▁point	-10.0917
Б	-10.0918
▁You	-10.092
50	-10.092
▁أو	-10.0921
德	-10.0923
▁around	-10.0925
▁også	-10.0926
Re	-10.0929
자	-10.0934
nych	-10.0935
▁роз	-10.0938
21	-10.0942
ог	-10.0944
ив	-10.0945
ções	-10.0949
▁data	-10.095
車	-10.0951
ία	-10.0952
▁because	-10.0958
▁primera	-10.0959
ın	-10.096
ства	-10.0964
▁rock	-10.0964
▁model	-10.0966
ου	-10.0967
pol	-10.0969
či	-10.0973
▁cada	-10.0973
▁site	-10.0977
語	-10.0979
▁quando	-10.0982
.).	-10.0987
▁À	-10.0988
my	-10.0992
pu	-10.1001
▁drei	-10.1002
▁Ο	-10.1005
П	-10.1006
gan	-10.1006
▁like	-10.1008
▁following	-10.1012
▁1987	-10.1013
ét	-10.103
stein	-10.1034
gy	-10.1035
▁sowie	-10.1036
原	-10.1044
ras	-10.1044
▁شده	-10.1044
▁його	-10.1047
▁נ	-10.1047
▁80	-10.1048
▁où	-10.1053
▁upp	-10.1053
▁2017.	-10.1056
▁roman	-10.1059
ム	-10.1066
ند	-10.1066
▁bien	-10.107
▁song	-10.1071
ný	-10.1073
ம்	-10.1076
những	-10.1082
▁hän	-10.1083
シ	-10.1083
▁service	-10.1086
▁European	-10.1087
▁("	-10.1089
▁ف	-10.1102
erna	-10.1104
▁dhe	-10.1109
▁عن	-10.1113
▁1986	-10.1116
ٔ	-10.1116
born	-10.1127
tie	-10.1132
▁π	-10.1132
▁Ch	-10.1136
▁causa	-10.1143
ija	-10.1146
mal	-10.1147
ns	-10.1147
▁Hu	-10.1147
rea	-10.1152
▁red	-10.1155
▁tan	-10.1159
任	-10.116
wi	-10.1163
▁auto	-10.1165
▁dopo	-10.1165
▁member	-10.1176
ları	-10.1178
ния	-10.1182
▁andere	-10.1184
лі	-10.1185
▁opp	-10.1188
▁Band	-10.1195
ette	-10.1201
▁very	-10.1202
nis	-10.1207
▁zwischen	-10.1214
▁bar	-10.1221
org	-10.1224
ר	-10.1226
▁novembre	-10.1226
idad	-10.1237
М	-10.1242
▁vida	-10.1246
▁Black	-10.1247
▁India	-10.1251
▁casa	-10.1257
▁vuonna	-10.1259
▁Karl	-10.1259
▁Ki	-10.1275
▁ud	-10.1278
је	-10.1282
▁last	-10.1282
29	-10.129
▁Η	-10.1294
う	-10.1294
")	-10.1296
▁był	-10.1303
▁zen	-10.1305
igen	-10.1306
▁vier	-10.1311
▁1984	-10.1327
ario	-10.1328
라	-10.1329
▁deze	-10.1336
▁death	-10.1336
adas	-10.1337
ence	-10.1338
▁première	-10.1338
dal	-10.1338
度	-10.1339
▁list	-10.1347
26	-10.1347
▁Des	-10.1353
ить	-10.1354
▁године	-10.1358
▁лет	-10.136
▁mars	-10.1363
▁Zu	-10.1365
vers	-10.1365
eren	-10.1369
自	-10.1372
▁この	-10.1374
ev	-10.1392
tis	-10.1394
ise	-10.1396
▁vie	-10.14
▁if	-10.1403
aux	-10.1405
▁без	-10.1407
▁Bei	-10.1407
フ	-10.1409
lé	-10.1414
60	-10.1417
ви	-10.1423
▁During	-10.1425
内	-10.1425
tive	-10.143
▁named	-10.1439
▁Ri	-10.1443
▁own	-10.1444
chen	-10.1448
ες	-10.146
ل	-10.1464
▁1985	-10.1468
kel	-10.1468
次	-10.1469
▁او	-10.1475
יה	-10.1475
av	-10.1476
ef	-10.1477
立	-10.1483
▁We	-10.1483
▁College	-10.1485
▁seg	-10.1487
▁Sin	-10.1488
▁í	-10.149
▁19.	-10.149
▁Louis	-10.149
▁ikke	-10.149
▁1940	-10.1494
ep	-10.1498
ades	-10.1508
ong	-10.1508
▁Mi	-10.1511
ris	-10.1511
▁того	-10.1519
▁gegen	-10.1522
▁essere	-10.1525
▁đến	-10.1533
み	-10.1534
▁cm	-10.1535
iko	-10.1544
▁Tri	-10.1549
▁tr	-10.1551
日本	-10.1552
田	-10.1554
▁או	-10.1563
▁company	-10.1564
▁region	-10.1565
rá	-10.1566
ού	-10.1569
▁să	-10.1582
▁32	-10.1585
▁Во	-10.1587
ों	-10.1587
理	-10.159
▁dia	-10.1593
qui	-10.1596
▁America	-10.1597
ador	-10.16
▁FC	-10.1607
ator	-10.1608
其	-10.1636
▁Auf	-10.1644
▁banda	-10.165
▁England	-10.1656
▁English	-10.1658
▁מה	-10.1658
加	-10.1659
lor	-10.1661
zer	-10.1664
use	-10.1674
amento	-10.1677
чи	-10.1679
▁heeft	-10.1682
tte	-10.1683
▁real	-10.1685
dar	-10.1685
ната	-10.1686
▁House	-10.1687
▁day	-10.1688
ב	-10.169
▁2007.	-10.169
▁Ex	-10.1692
▁motor	-10.1698
▁peut	-10.1704
▁died	-10.1718
▁million	-10.1725
▁capital	-10.1726
▁Island	-10.1731
tori	-10.1731
ена	-10.1732
▁small	-10.1737
▁anos	-10.1752
▁khi	-10.1754
▁dont	-10.1755
▁70	-10.176
ring	-10.1771
▁são	-10.1771
tä	-10.1772
ott	-10.1777
▁donde	-10.1778
▁former	-10.1779
az	-10.178
▁line	-10.1786
يا	-10.1786
▁1944	-10.1788
▁му	-10.1789
정	-10.179
▁Gu	-10.1794
▁Union	-10.18
▁left	-10.1808
▁st	-10.1809
-2	-10.181
▁wieder	-10.181
▁different	-10.1811
ves	-10.1812
ungen	-10.1814
স	-10.1817
ту	-10.1821
ты	-10.1825
ز	-10.1833
▁1979	-10.1846
mas	-10.1847
▁marzo	-10.1848
▁Mac	-10.1851
▁Hall	-10.186
▁Este	-10.1861
▁1941	-10.1863
dom	-10.1867
▁4.	-10.1868
pl	-10.1869
eau	-10.1874
ding	-10.1875
ских	-10.1875
されている	-10.1887
nut	-10.1896
▁sebagai	-10.1899
▁built	-10.1901
▁Is	-10.1901
َ	-10.1906
ша	-10.1906
▁wo	-10.191
▁Roma	-10.1912
▁sen	-10.1928
-18	-10.1938
ye	-10.1939
ți	-10.1941
▁production	-10.1941
▁Inter	-10.195
vet	-10.1955
ος	-10.1966
▁Internet	-10.1966
мен	-10.197
dia	-10.1977
▁pentru	-10.1988
▁Ti	-10.1989
ff	-10.1996
▁два	-10.1999
و	-10.2
▁grupo	-10.2002
ила	-10.2004
▁1939	-10.2005
ness	-10.2006
sia	-10.2008
via	-10.2011
న	-10.2012
ر	-10.2015
▁parti	-10.2017
nda	-10.2022
▁estis	-10.2027
tter	-10.2032
▁आ	-10.2034
ман	-10.2035
▁però	-10.2037
▁α	-10.2038
way	-10.2043
▁sz	-10.2048
xi	-10.2051
jan	-10.2053
▁often	-10.2061
▁Cu	-10.2067
▁ما	-10.2072
▁три	-10.2073
▁lu	-10.2073
▁شد	-10.2075
▁ces	-10.2077
▁1982	-10.2077
▁record	-10.2079
ές	-10.2082
▁myös	-10.2084
▁oleh	-10.2093
▁Festival	-10.2095
▁village	-10.2095
▁1983	-10.2095
tum	-10.2108
ме	-10.211
ар	-10.2113
レ	-10.2124
burg	-10.2125
▁town	-10.2129
▁Nacional	-10.2141
frac	-10.2144
ων	-10.2157
▁ainsi	-10.2157
▁τη	-10.216
期	-10.2162
tta	-10.2166
▁partie	-10.2169
ins	-10.2178
▁lugar	-10.2179
▁match	-10.2187
ges	-10.2187
▁kam	-10.2192
Г	-10.2195
▁2018.	-10.2196
▁ciudad	-10.2202
ную	-10.2206
▁Museum	-10.2215
▁đầu	-10.2224
ane	-10.2237
▁media	-10.2238
itat	-10.2243
▁ali	-10.2246
bit	-10.2252
си	-10.2261
hen	-10.2264
ения	-10.2271
▁Kar	-10.2273
ové	-10.2274
ées	-10.2281
ју	-10.2282
▁based	-10.2282
東	-10.229
▁sent	-10.2296
▁loro	-10.2299
ford	-10.2299
キ	-10.23
rik	-10.23
全	-10.2301
tura	-10.2308
▁director	-10.2311
オ	-10.2316
har	-10.2318
ने	-10.2319
▁tai	-10.2319
▁1981	-10.2321
▁5.	-10.2322
ých	-10.2322
▁Το	-10.2324
rd	-10.2325
▁trans	-10.2328
ich	-10.233
▁sido	-10.2335
▁си	-10.2338
▁international	-10.2338
尔	-10.2344
▁just	-10.2347
▁час	-10.2349
Д	-10.2352
αν	-10.2352
▁při	-10.2352
tos	-10.2356
ता	-10.2361
ori	-10.2363
▁1972	-10.2373
后	-10.2376
場	-10.2376
ン	-10.2381
▁jak	-10.2395
▁support	-10.2395
▁ersten	-10.2396
▁1976	-10.2398
▁led	-10.2399
▁side	-10.2399
▁eerste	-10.24
▁Bau	-10.24
▁1920	-10.2402
ín	-10.2403
▁Ad	-10.2405
▁Award	-10.2407
ист	-10.2411
書	-10.2415
▁Pu	-10.2419
yl	-10.242
▁Central	-10.2421
ය	-10.2428
35	-10.2429
▁temps	-10.2429
&	-10.243
▁bol	-10.2433
ské	-10.2437
ская	-10.2445
▁olarak	-10.2447
وا	-10.2449
ق	-10.2464
º	-10.2466
cre	-10.2467
Al	-10.2469
▁було	-10.2471
▁naj	-10.2475
▁În	-10.2479
ит	-10.2482
▁1978	-10.2482
▁When	-10.2487
▁East	-10.2488
int	-10.2493
bre	-10.2496
▁Fu	-10.2501
教	-10.2505
由	-10.2506
br	-10.2506
▁1975	-10.2516
▁į	-10.252
▁Bi	-10.2524
ys	-10.2524
प	-10.2527
通	-10.253
▁đó	-10.2532
▁ג	-10.2536
cho	-10.2538
▁Tom	-10.2539
▁Lake	-10.2543
▁vo	-10.2549
▁born	-10.255
▁45	-10.255
▁ny	-10.2552
▁thể	-10.2553
▁전	-10.2553
fo	-10.2553
▁mehr	-10.2554
▁members	-10.2561
▁अ	-10.2562
▁Joseph	-10.2563
量	-10.2571
元	-10.2575
▁её	-10.2576
▁play	-10.2577
sur	-10.2578
安	-10.2579
▁similar	-10.2585
▁published	-10.2586
エ	-10.2593
▁20.	-10.2593
ら	-10.2594
ore	-10.2601
▁1930	-10.2605
sky	-10.2611
eri	-10.2613
▁From	-10.2622
▁1974	-10.2623
48	-10.2627
ミ	-10.2632
す	-10.2632
▁Sur	-10.2634
つ	-10.2635
▁1968	-10.2642
リー	-10.2644
▁Love	-10.2645
▁1973	-10.2646
▁это	-10.2655
nar	-10.2656
än	-10.2661
isi	-10.2668
pro	-10.2669
▁300	-10.2672
▁Juli	-10.2673
ס	-10.2675
▁contre	-10.2681
▁在	-10.2681
▁số	-10.2685
ত	-10.2687
▁off	-10.2697
▁années	-10.2697
▁zo	-10.2698
ре	-10.27
Т	-10.2705
ком	-10.2709
bro	-10.2714
▁є	-10.2715
ха	-10.2725
▁1977	-10.2729
ingen	-10.2729
owych	-10.2732
▁tras	-10.2734
▁quan	-10.2735
▁год	-10.2739
bor	-10.2742
▁где	-10.2747
▁ס	-10.2757
世	-10.2765
▁pred	-10.2771
31	-10.2779
▁within	-10.2781
▁obra	-10.2782
▁τους	-10.2784
gon	-10.2785
대	-10.2786
מ	-10.2788
ズ	-10.2788
▁90	-10.2795
員	-10.2797
相	-10.2802
했다	-10.2806
▁even	-10.2811
ans	-10.2812
ブ	-10.2815
vu	-10.282
of	-10.2821
▁Henry	-10.2822
▁Washington	-10.2827
ити	-10.2827
科	-10.2829
▁série	-10.283
至	-10.2832
film	-10.2835
▁↑	-10.2838
▁Post	-10.2848
া	-10.2852
▁position	-10.2853
లో	-10.2858
▁six	-10.2859
▁км	-10.286
▁их	-10.2863
▁1969	-10.2868
ły	-10.2872
▁debut	-10.2873
dre	-10.2875
hl	-10.2882
▁בשנת	-10.2882
yn	-10.289
ces	-10.2891
ија	-10.2893
90	-10.2893
व	-10.2906
▁Ber	-10.2909
▁nei	-10.2912
cher	-10.2912
▁Christian	-10.2914
▁wa	-10.2914
拉	-10.2914
▁received	-10.2918
лись	-10.2919
ор	-10.2921
70	-10.2923
ور	-10.2926
▁Ho	-10.2926
▁برای	-10.2927
▁Una	-10.293
▁country	-10.2931
mit	-10.2939
里	-10.2941
▁Rock	-10.2941
лся	-10.2944
해	-10.2946
平	-10.2946
▁star	-10.2948
▁term	-10.295
▁《	-10.2952
▁joka	-10.2955
ats	-10.2963
▁present	-10.2967
ском	-10.2977
▁Р	-10.2978
▁США	-10.298
▁Fe	-10.2982
▁unha	-10.2983
드	-10.2991
}}	-10.2997
▁Fa	-10.2999
ega	-10.3007
ර	-10.3008
▁Ф	-10.3009
▁natural	-10.3014
この	-10.3016
▁viene	-10.3016
mes	-10.3017
ните	-10.3021
ació	-10.3023
▁lors	-10.3024
▁jego	-10.3024
isk	-10.3027
во	-10.3028
▁וב	-10.3032
ウ	-10.3032
使用	-10.3035
war	-10.304
мо	-10.3045
▁camp	-10.3046
лась	-10.305
mis	-10.3054
▁These	-10.3054
ár	-10.3057
▁tour	-10.3058
ّ	-10.306
國	-10.306
ium	-10.3063
bil	-10.3063
▁mon	-10.3072
バ	-10.3081
▁seit	-10.3088
▁Ju	-10.3092
য়	-10.3093
▁zurück	-10.3093
▁Pi	-10.3093
album	-10.3095
▁Under	-10.3097
▁groupe	-10.3097
tti	-10.3103
И	-10.3105
▁jusqu	-10.3106
יו	-10.3113
▁result	-10.3117
▁pan	-10.312
▁pr	-10.3123
▁dar	-10.3127
▁país	-10.3134
ė	-10.3134
iden	-10.3135
無	-10.3137
て	-10.3138
▁א	-10.314
▁ele	-10.3142
ça	-10.3143
▁sol	-10.3144
▁president	-10.3146
二	-10.3152
▁make	-10.3152
▁hem	-10.3155
▁located	-10.3157
▁Top	-10.316
би	-10.3161
▁history	-10.3163
mm	-10.3164
台	-10.3167
▁Ro	-10.3174
▁primo	-10.3174
tic	-10.3177
▁Sol	-10.3184
▁Dans	-10.3186
▁công	-10.3188
lag	-10.3193
▁Про	-10.3194
▁Ban	-10.3198
“,	-10.32
하는	-10.3203
動	-10.3217
det	-10.3221
rono	-10.3222
ania	-10.3223
▁né	-10.3224
▁$	-10.3228
▁five	-10.3228
ше	-10.3233
▁comp	-10.3237
bal	-10.3243
▁Oktober	-10.3252
▁nell	-10.3255
▁design	-10.3258
▁transport	-10.3261
▁test	-10.3263
owe	-10.3264
▁fou	-10.3265
▁ju	-10.3268
▁siècle	-10.3268
▁2010,	-10.3268
39	-10.327
▁Group	-10.3271
得	-10.3271
ско	-10.3271
тер	-10.3273
▁Kor	-10.3274
約	-10.3276
▁Real	-10.3282
▁пред	-10.3283
▁oficial	-10.3283
▁hier	-10.3285
خ	-10.3288
▁down	-10.3289
stan	-10.329
ון	-10.3293
▁Company	-10.3294
▁هو	-10.3301
▁היה	-10.3303
▁order	-10.3303
▁°	-10.3305
▁studio	-10.3314
世界	-10.3322
▁much	-10.3323
ons	-10.3326
▁Tra	-10.3329
▁said	-10.3334
ön	-10.3334
▁като	-10.3337
▁Gran	-10.3338
▁Hans	-10.3349
▁1967	-10.3349
aba	-10.335
▁nog	-10.3355
▁hand	-10.3355
▁God	-10.3357
▁Juni	-10.3357
都	-10.3359
트	-10.3362
endo	-10.3367
ula	-10.3369
oval	-10.337
▁Cha	-10.3371
Le	-10.3372
▁moment	-10.3376
▁היא	-10.3377
▁1971	-10.3382
▁álbum	-10.3382
▁Ur	-10.3383
dra	-10.3386
nica	-10.3389
▁put	-10.3394
▁التي	-10.3396
▁Ru	-10.3405
与	-10.3406
▁(17	-10.3409
rie	-10.341
▁После	-10.3411
ల	-10.3411
女	-10.3412
ர்	-10.3415
▁Gar	-10.3417
制	-10.3419
zel	-10.3421
ojn	-10.3425
▁2006.	-10.3425
▁haar	-10.3426
▁ре	-10.3428
目	-10.343
▁те	-10.3436
▁diese	-10.3437
▁để	-10.3437
▁civil	-10.3438
rin	-10.3439
▁стал	-10.344
▁served	-10.344
▁また	-10.3444
tica	-10.3452
▁så	-10.3464
owy	-10.3466
▁avant	-10.347
▁centro	-10.348
▁1943	-10.3481
▁jeho	-10.3482
gal	-10.3482
38	-10.3484
из	-10.3491
▁those	-10.3491
▁ban	-10.3493
▁include	-10.3493
ör	-10.3493
ста	-10.3495
▁Radio	-10.3497
▁Teil	-10.3501
sin	-10.3503
▁metal	-10.3503
チ	-10.3508
▁są	-10.351
▁father	-10.3518
▁150	-10.3519
演	-10.3519
▁came	-10.3521
ర్	-10.3523
星	-10.3526
▁제	-10.3528
▁jaar	-10.353
ッ	-10.353
▁power	-10.3533
▁18.	-10.3538
ర	-10.3539
▁Australia	-10.3541
▁1,	-10.3546
▁Mer	-10.3548
ве	-10.3552
nog	-10.356
▁}	-10.3564
▁chi	-10.3564
-3	-10.3571
▁byla	-10.3572
jer	-10.3573
▁Σ	-10.3577
nost	-10.3578
▁през	-10.3579
▁Association	-10.3579
▁building	-10.3583
▁species	-10.3585
▁về	-10.3588
아	-10.3592
によって	-10.3592
성	-10.3593
▁bị	-10.3596
▁California	-10.3596
▁él	-10.3597
最	-10.3606
▁ن	-10.3613
▁material	-10.3615
sku	-10.3615
▁ISBN	-10.3616
▁الأ	-10.3618
▁très	-10.3621
про	-10.3622
하고	-10.3625
rum	-10.3626
ase	-10.3629
ela	-10.3629
集	-10.363
wan	-10.3633
cs	-10.3636
って	-10.3638
ノ	-10.3639
▁Α	-10.3639
▁tym	-10.3641
▁ok	-10.3648
▁Juan	-10.3651
メ	-10.3652
▁हैं	-10.3652
▁Von	-10.3652
号	-10.3652
▁mod	-10.3655
▁1942	-10.3657
▁tele	-10.366
▁Frank	-10.3665
▁tam	-10.3667
▁face	-10.367
ца	-10.3671
ech	-10.3671
liga	-10.3673
▁2008,	-10.3683
▁kap	-10.3687
ob	-10.3689
▁все	-10.3689
▁Angeles	-10.3691
▁twee	-10.3693
cht	-10.3693
▁بود	-10.3696
get	-10.3696
区	-10.3704
oso	-10.3705
▁Society	-10.371
▁football	-10.3712
▁meter	-10.3716
▁Sal	-10.372
san	-10.3721
ría	-10.3721
▁abril	-10.3725
▁XX	-10.3727
owa	-10.3737
▁what	-10.3741
ف	-10.3744
field	-10.3747
▁José	-10.3749
tri	-10.3752
▁sự	-10.3757
▁Vol	-10.3759
▁بال	-10.3759
▁ای	-10.3762
▁trois	-10.3763
▁ж	-10.3766
▁што	-10.3768
路	-10.3768
▁pat	-10.377
▁ur	-10.3775
▁bal	-10.3776
장	-10.3779
▁cas	-10.3779
르	-10.378
32	-10.378
▁2011,	-10.3783
▁Bay	-10.3785
▁(16	-10.3785
▁він	-10.3792
点	-10.3795
流	-10.3803
сти	-10.3808
▁Party	-10.381
▁depuis	-10.3813
▁Mont	-10.3814
▁Unter	-10.3814
▁Guerra	-10.3814
▁etwa	-10.3816
▁puede	-10.3816
▁along	-10.3817
zeit	-10.3823
▁children	-10.3824
知	-10.3824
▁Ter	-10.3828
ux	-10.383
▁j	-10.3832
であり	-10.3834
00	-10.3835
▁High	-10.3836
enia	-10.3836
▁».	-10.3838
nosti	-10.3839
▁web	-10.3843
可	-10.3844
▁Carl	-10.3844
▁(1	-10.3845
▁inglês	-10.3846
▁todo	-10.3847
▁1964	-10.3847
▁type	-10.3848
▁venne	-10.3849
▁another	-10.3862
owej	-10.3866
time	-10.3866
gin	-10.3867
▁später	-10.3871
cions	-10.3873
▁ihm	-10.3876
▁33	-10.3878
▁го	-10.3881
fr	-10.3889
లు	-10.3891
ува	-10.3893
▁autor	-10.3901
мер	-10.3901
▁third	-10.3907
▁6.	-10.3914
城	-10.3917
bat	-10.3918
fin	-10.3922
ん	-10.3935
並	-10.3937
ket	-10.3939
川	-10.3942
▁again	-10.3943
ā	-10.3943
Q	-10.3947
erte	-10.3949
▁Tr	-10.395
▁является	-10.3951
اء	-10.3951
▁Durante	-10.3952
▁Cal	-10.3952
▁Sud	-10.3952
▁todos	-10.3953
▁Madrid	-10.3958
lı	-10.396
వ	-10.396
oc	-10.3961
▁Brasil	-10.3963
ото	-10.3964
▁bas	-10.3964
▁который	-10.3969
▁Sz	-10.3969
▁400	-10.3974
さ	-10.3974
▁पर	-10.3977
▁mentre	-10.3977
ques	-10.3978
▁Mor	-10.3978
解	-10.3983
ør	-10.3983
isten	-10.3983
ér	-10.3987
▁durant	-10.3987
形	-10.3987
나	-10.3996
▁Bor	-10.3996
▁color	-10.3996
ish	-10.3999
▁después	-10.4
▁bil	-10.4001
▁hans	-10.4004
set	-10.4004
個	-10.4005
馬	-10.4006
▁через	-10.4007
ieren	-10.4012
がある	-10.4013
▁importante	-10.4013
De	-10.4017
tz	-10.402
▁అ	-10.4023
型	-10.4024
▁ili	-10.4025
주	-10.4026
▁1965	-10.403
У	-10.4031
大学	-10.4032
stand	-10.4033
美	-10.4036
oni	-10.404
▁mil	-10.4044
▁ap	-10.4052
ás	-10.4053
▁cuando	-10.4056
can	-10.4057
▁Со	-10.4062
▁cal	-10.4064
led	-10.4066
ost	-10.4066
社	-10.407
isto	-10.4073
▁inte	-10.4074
▁Italia	-10.4083
전	-10.4083
▁President	-10.4084
gang	-10.4085
▁17.	-10.4087
dur	-10.4089
▁1966	-10.4091
▁Ten	-10.4094
▁full	-10.4096
ম	-10.4099
▁Nam	-10.4102
▁кон	-10.4104
ał	-10.4109
反	-10.411
音	-10.411
となった	-10.4114
▁për	-10.4115
▁ع	-10.4118
▁book	-10.4121
心	-10.4122
ého	-10.4123
▁historia	-10.4124
ना	-10.4124
▁Dar	-10.4125
▁Н	-10.4126
▁tiene	-10.4126
隊	-10.4126
▁7.	-10.4127
▁Francisco	-10.4127
▁10.	-10.4129
Л	-10.4134
El	-10.4134
부	-10.4135
▁16.	-10.4136
ony	-10.4137
ère	-10.4139
▁р	-10.4143
ネ	-10.4144
▁seinen	-10.4144
ić	-10.4147
هم	-10.4147
▁trên	-10.415
▁qual	-10.415
ente	-10.4152
dig	-10.4153
off	-10.4154
▁Dan	-10.4156
▁erste	-10.4163
ян	-10.4163
▁само	-10.4165
達	-10.4166
▁centre	-10.4168
gas	-10.4169
ले	-10.4173
▁Ende	-10.4175
ê	-10.4176
▁2007,	-10.4178
▁1918	-10.4182
色	-10.4184
▁Army	-10.4195
sal	-10.4197
iste	-10.4197
▁Best	-10.4199
schen	-10.42
▁È	-10.4207
out	-10.4209
▁ug	-10.421
49	-10.421
▁более	-10.421
▁1946	-10.4212
ua	-10.4212
▁hit	-10.4212
▁plusieurs	-10.4213
rio	-10.4214
▁CD	-10.4214
▁age	-10.4216
保	-10.4217
▁fire	-10.4219
45	-10.422
haus	-10.422
ament	-10.4226
▁36	-10.4229
ジ	-10.4238
▁dla	-10.424
工	-10.4241
▁‘	-10.4243
▁지	-10.4245
37	-10.4246
▁1948	-10.4247
ニ	-10.4252
▁sport	-10.4256
▁forces	-10.4256
▁15.	-10.4258
▁Х	-10.4258
▁musical	-10.4258
▁2009,	-10.426
▁hor	-10.4266
že	-10.4266
tă	-10.4269
over	-10.4269
▁nas	-10.427
če	-10.4273
ина	-10.4273
▁special	-10.4278
民	-10.4278
eta	-10.4278
▁như	-10.428
▁hon	-10.428
▁title	-10.4284
hat	-10.4284
pre	-10.4284
ение	-10.4285
▁zona	-10.43
▁також	-10.4301
▁XIX	-10.4302
▁1938	-10.4306
ला	-10.4307
▁рас	-10.4309
▁Street	-10.4316
▁2006,	-10.4321
▁גם	-10.4323
cí	-10.4324
▁Esta	-10.4324
ま	-10.4324
石	-10.4327
▁ת	-10.4329
▁juga	-10.4331
▁ح	-10.4334
▁familia	-10.4337
▁front	-10.4339
▁1962	-10.4342
▁pré	-10.4349
▁Ре	-10.4349
身	-10.4351
来	-10.4356
▁questo	-10.4358
sson	-10.436
▁pop	-10.4365
▁ligger	-10.4365
▁Portugal	-10.4368
▁Israel	-10.4372
pel	-10.4374
ў	-10.4375
▁dall	-10.4378
▁among	-10.4378
ге	-10.4379
▁role	-10.4381
▁pos	-10.4381
less	-10.4383
ът	-10.4385
▁bez	-10.4386
상	-10.4386
oli	-10.4387
ак	-10.4391
▁Κ	-10.4394
），	-10.4394
-4	-10.4401
意	-10.4402
encia	-10.4402
tr	-10.4404
서	-10.4404
▁ihr	-10.4405
▁Bal	-10.4406
ű	-10.4407
▁fort	-10.4407
▁foram	-10.4408
▁Minister	-10.4412
▁near	-10.442
iska	-10.442
ierte	-10.4426
är	-10.4432
▁chính	-10.4434
iga	-10.444
원	-10.4441
▁அ	-10.4441
▁human	-10.4444
▁আ	-10.4444
por	-10.4447
bau	-10.4448
▁mundo	-10.4451
光	-10.4454
米	-10.4455
▁ông	-10.4456
ában	-10.4459
nın	-10.4464
ial	-10.4464
▁puis	-10.4465
▁History	-10.4466
▁min	-10.4467
▁seinem	-10.4469
▁Awards	-10.4473
aan	-10.4474
ని	-10.4478
▁(2	-10.4487
יים	-10.4488
▁том	-10.4488
▁fueron	-10.4495
ன்	-10.4498
ться	-10.4499
▁estado	-10.45
▁Cette	-10.45
▁meer	-10.4512
▁Hill	-10.4512
kal	-10.4512
tivo	-10.4518
對	-10.4519
▁pen	-10.4521
rus	-10.4525
▁given	-10.4531
▁tout	-10.4531
ül	-10.4533
▁că	-10.4534
▁Cor	-10.4534
sion	-10.4536
ib	-10.4537
ow	-10.4537
比	-10.4541
ට	-10.4548
це	-10.4552
mor	-10.4552
▁leg	-10.4554
▁dann	-10.4558
ivo	-10.4558
нь	-10.4559
ną	-10.456
ं	-10.456
ική	-10.4562
官	-10.4563
100	-10.4564
yan	-10.4567
▁become	-10.4569
ized	-10.4571
род	-10.4574
▁grand	-10.4575
▁...	-10.4576
▁Division	-10.4579
進	-10.458
tó	-10.458
▁Ш	-10.4581
見	-10.4594
ро	-10.4595
55	-10.4596
▁mor	-10.4597
▁volta	-10.46
nou	-10.4601
▁short	-10.4602
▁Act	-10.4607
मा	-10.4608
টি	-10.4608
lä	-10.4608
ü	-10.4613
cos	-10.4614
▁head	-10.4615
▁moved	-10.4616
▁ile	-10.4623
ός	-10.4627
”,	-10.4627
▁”	-10.4637
bus	-10.464
▁open	-10.4642
▁Mary	-10.4647
же	-10.4652
▁dove	-10.4652
▁Wy	-10.4654
ित	-10.4655
▁possible	-10.4655
ô	-10.466
▁11.	-10.4667
▁Open	-10.4668
side	-10.467
島	-10.4671
▁може	-10.4673
▁metros	-10.4674
▁تا	-10.4674
well	-10.4675
wo	-10.4676
ој	-10.4678
▁Th	-10.4679
▁plaats	-10.4682
ши	-10.4683
ák	-10.4686
兵	-10.4687
jem	-10.4688
arna	-10.4688
ными	-10.4693
▁לאחר	-10.4694
▁1963	-10.4696
▁Center	-10.4698
▁haben	-10.4701
▁Ма	-10.4701
rit	-10.4702
▁VI	-10.4705
▁Januar	-10.4711
▁بعد	-10.4712
▁1936	-10.4718
▁tipo	-10.4718
▁(15	-10.472
ši	-10.472
▁†	-10.4721
▁cor	-10.4723
▁q	-10.4724
▁gia	-10.4726
▁vun	-10.4727
pt	-10.4729
▁1956	-10.4731
能	-10.4741
▁Rio	-10.4741
▁iš	-10.4744
▁между	-10.4747
え	-10.475
▁học	-10.4752
▁sil	-10.4755
ën	-10.4761
▁tard	-10.4762
46	-10.4764
▁kur	-10.4764
▁Tar	-10.4766
▁Smith	-10.4767
▁air	-10.4767
ub	-10.4767
口	-10.4769
▁música	-10.4771
▁start	-10.4772
▁شود	-10.4775
99	-10.4778
▁Mas	-10.478
2.	-10.4784
▁antes	-10.4787
▁1961	-10.479
▁political	-10.4791
▁construction	-10.4792
uta	-10.4793
曲	-10.4794
サ	-10.4797
ö	-10.4797
気	-10.4797
▁ro	-10.48
ical	-10.4805
werk	-10.4805
▁Sun	-10.4806
▁تم	-10.4808
古	-10.4811
▁Commons	-10.4812
▁sans	-10.4818
pis	-10.4822
ல்	-10.4824
▁sam	-10.4826
▁fins	-10.4827
75	-10.4828
▁Press	-10.4828
▁س	-10.4831
ré	-10.4831
ду	-10.4832
▁segundo	-10.484
▁Ya	-10.484
lon	-10.4841
式	-10.4843
▁tant	-10.4844
به	-10.4844
▁número	-10.4846
球	-10.4847
▁1958	-10.4848
▁12.	-10.4849
mak	-10.4857
zia	-10.486
▁2012,	-10.4861
▁д	-10.4866
ės	-10.4871
stre	-10.4873
▁які	-10.4876
▁way	-10.4878
▁Sir	-10.4882
heid	-10.4882
э	-10.4883
▁my	-10.4885
rad	-10.489
▁э	-10.4891
수	-10.4895
υ	-10.4897
▁april	-10.4897
▁jsou	-10.49
하였다	-10.4902
▁poder	-10.4902
により	-10.4903
ations	-10.4903
tt	-10.4906
mus	-10.4909
▁Green	-10.491
ře	-10.4912
的な	-10.4913
ğ	-10.4914
▁або	-10.4914
▁Sen	-10.4916
ets	-10.4916
lit	-10.4916
▁marca	-10.4917
▁let	-10.4917
ande	-10.4917
til	-10.4918
▁mismo	-10.4919
▁8.	-10.4919
▁mayor	-10.4919
爾	-10.4922
▁hay	-10.4922
nja	-10.4926
nan	-10.4928
din	-10.4928
▁district	-10.4929
▁started	-10.4929
lang	-10.493
▁guerre	-10.493
wie	-10.4934
ського	-10.4935
ral	-10.4937
ther	-10.4941
▁й	-10.4944
▁città	-10.4945
▁13.	-10.4945
など	-10.4948
▁Eine	-10.4949
▁Daniel	-10.4955
▁Hal	-10.4958
anti	-10.496
▁Church	-10.496
▁tanto	-10.4961
▁monde	-10.4961
Р	-10.4969
▁1919	-10.4974
▁아	-10.4974
▁ai	-10.4977
▁була	-10.498
▁White	-10.4986
nos	-10.4988
▁Ga	-10.4989
▁Far	-10.4997
▁Hi	-10.4997
mp	-10.4998
▁(3	-10.4999
▁samo	-10.5001
▁case	-10.5002
рі	-10.5005
mel	-10.501
ње	-10.501
▁established	-10.5011
▁stata	-10.5012
▁té	-10.5015
▁Tur	-10.5019
▁women	-10.502
pon	-10.502
▁take	-10.5021
局	-10.5021
▁Album	-10.5029
ست	-10.5032
qu	-10.5032
lt	-10.5036
nym	-10.5038
som	-10.5042
モ	-10.5044
但	-10.505
nika	-10.5052
▁34	-10.5053
▁uz	-10.5054
▁März	-10.5056
▁1947	-10.5056
▁pays	-10.5058
को	-10.5058
▁Some	-10.5058
▁14.	-10.5062
であった	-10.5064
▁họ	-10.5066
▁Он	-10.5066
Ф	-10.5072
▁Diese	-10.5074
▁process	-10.5074
▁live	-10.5074
▁career	-10.5075
tin	-10.5076
お	-10.5076
間	-10.5077
▁má	-10.5082
▁pol	-10.5084
ён	-10.5089
▁onde	-10.5094
▁Col	-10.5096
స్	-10.5098
▁Bank	-10.5099
▁fois	-10.51
▁første	-10.5101
▁See	-10.5105
mont	-10.5106
лен	-10.5107
bri	-10.5108
▁Bre	-10.5108
ह	-10.5119
▁І	-10.5119
sto	-10.5128
▁included	-10.5129
▁إ	-10.5129
▁military	-10.5129
▁οι	-10.5136
szt	-10.5141
skog	-10.5145
▁gab	-10.5145
ningen	-10.5151
▁Dal	-10.5152
ής	-10.5153
▁ידי	-10.5157
ک	-10.5158
▁स	-10.516
▁Đ	-10.5161
اد	-10.5164
ful	-10.5164
zie	-10.5166
▁standard	-10.5167
▁Anna	-10.5169
▁november	-10.5169
nti	-10.5178
基	-10.5179
வ	-10.5188
▁ez	-10.5189
起	-10.519
ної	-10.5191
パ	-10.5192
ج	-10.5195
44	-10.5195
▁había	-10.5195
▁Institute	-10.5198
▁Э	-10.5211
▁development	-10.5212
ट	-10.5215
▁First	-10.5218
▁Bur	-10.522
ime	-10.522
▁Council	-10.522
デ	-10.5222
▁old	-10.5227
▁1933	-10.5227
34	-10.5228
far	-10.5229
bol	-10.5232
▁Pod	-10.5233
▁Els	-10.5237
ум	-10.524
テ	-10.5241
°	-10.5245
▁With	-10.5247
itu	-10.5248
▁ihn	-10.5248
▁olan	-10.5249
yo	-10.525
していた	-10.5252
all	-10.5253
▁Π	-10.5256
▁fine	-10.5257
še	-10.526
ъ	-10.5261
▁cidade	-10.527
▁كان	-10.5271
ِ	-10.5271
eva	-10.5271
nego	-10.5276
86	-10.5281
▁1937	-10.5282
па	-10.5283
▁הת	-10.5284
nce	-10.5285
▁até	-10.5285
▁Neu	-10.5286
gue	-10.5288
日に	-10.5295
▁cre	-10.53
ك	-10.5301
▁Л	-10.5302
▁Tre	-10.5305
▁37	-10.5306
vano	-10.5307
▁Italian	-10.531
▁professor	-10.531
▁т	-10.5313
feld	-10.5313
inter	-10.5315
死	-10.5319
bla	-10.5319
nas	-10.5321
▁42	-10.5323
ust	-10.5324
▁jej	-10.5325
▁için	-10.5327
▁ti	-10.5328
先	-10.5329
idade	-10.5336
▁Pas	-10.534
▁lang	-10.5341
▁1949	-10.5342
ował	-10.5344
▁1959	-10.5345
▁ήταν	-10.5346
ями	-10.5348
imi	-10.5354
лось	-10.536
gli	-10.5366
个	-10.5367
נ	-10.5367
▁она	-10.5367
kat	-10.5377
ə	-10.5378
зи	-10.5378
star	-10.5385
▁grup	-10.5386
ща	-10.5388
лы	-10.5391
게	-10.5395
тар	-10.5396
▁क	-10.5399
ün	-10.54
gra	-10.5403
ð	-10.5407
発	-10.541
ай	-10.541
初	-10.541
による	-10.5415
▁quân	-10.5417
ō	-10.5423
hy	-10.5424
вод	-10.5425
▁And	-10.5433
信	-10.5435
द	-10.5435
▁Form	-10.5438
▁etter	-10.5441
白	-10.5443
▁pra	-10.5445
ව	-10.5446
rang	-10.5449
▁2005.	-10.5456
▁9.	-10.546
▁Jack	-10.5463
▁player	-10.5469
ová	-10.5472
85	-10.5472
ete	-10.5473
▁cel	-10.5474
ज	-10.5478
▁latach	-10.5478
▁ná	-10.548
▁1957	-10.5489
vé	-10.5493
▁사	-10.5496
▁Dezember	-10.5499
ora	-10.55
ее	-10.5501
▁kal	-10.5503
▁Republic	-10.5506
ró	-10.5508
▁cerca	-10.5509
▁Pour	-10.5509
▁waar	-10.551
raz	-10.5511
ży	-10.5513
▁لا	-10.5516
▁Long	-10.5517
常	-10.5518
▁muy	-10.5519
ť	-10.5521
▁Windows	-10.5524
▁2013,	-10.5527
建	-10.5534
57	-10.5534
ости	-10.5534
▁project	-10.5539
▁late	-10.5539
▁syn	-10.5541
▁res	-10.5545
▁Sport	-10.5546
▁next	-10.5547
▁38	-10.5551
ین	-10.5555
02	-10.5558
▁1952	-10.5561
ام	-10.5563
▁nacional	-10.5566
ع	-10.5567
▁Bra	-10.5571
着	-10.5581
▁אל	-10.5582
вен	-10.5584
fra	-10.5585
36	-10.5585
▁против	-10.5585
▁Ph	-10.5589
ίας	-10.5593
ף	-10.5594
▁Fi	-10.5595
表	-10.5602
▁정	-10.5603
гу	-10.5603
41	-10.5603
ém	-10.5607
▁Fue	-10.5608
▁Russian	-10.5609
-17	-10.5609
▁Germany	-10.561
pal	-10.5613
▁caso	-10.5615
▁Of	-10.5618
▁대	-10.5622
▁sia	-10.5624
구	-10.5625
▁example	-10.5625
▁house	-10.5626
▁hai	-10.5627
对	-10.5628
ав	-10.5631
▁combat	-10.5631
త	-10.5632
▁가	-10.5635
▁klub	-10.5635
时	-10.5636
▁few	-10.5639
▁grad	-10.5649
47	-10.565
▁Une	-10.5653
fu	-10.5653
▁Sar	-10.5656
▁without	-10.5657
▁menjadi	-10.5658
▁finale	-10.5658
etta	-10.5661
▁sal	-10.5662
Ar	-10.5665
▁various	-10.5668
▁Pen	-10.567
olo	-10.5671
▁information	-10.5675
▁must	-10.5679
▁temporada	-10.5688
▁ano	-10.5692
▁tidak	-10.5692
лу	-10.5699
話	-10.57
▁siglo	-10.5703
imo	-10.5703
ик	-10.5704
dik	-10.5704
put	-10.5707
となる	-10.5708
cle	-10.5709
▁Life	-10.5709
hr	-10.571
ются	-10.5713
▁только	-10.5715
▁konnte	-10.5717
▁person	-10.572
▁light	-10.5721
▁Med	-10.5721
▁help	-10.5723
ர	-10.5723
▁Et	-10.5726
ast	-10.5728
指	-10.5729
ী	-10.573
jar	-10.5736
ilo	-10.5737
▁1955	-10.5738
eb	-10.5739
▁anderen	-10.574
ales	-10.574
ség	-10.574
▁juli	-10.5744
▁són	-10.5749
▁Min	-10.5749
▁који	-10.5751
▁considered	-10.5752
▁personal	-10.5753
▁От	-10.5753
ij	-10.5753
51	-10.5756
布	-10.5756
ала	-10.5756
▁ба	-10.5759
改	-10.576
▁Championship	-10.5762
▁hu	-10.5765
▁cũng	-10.5767
英语	-10.5768
▁website	-10.577
▁beim	-10.5771
▁ihrer	-10.5772
▁andra	-10.5773
-5	-10.5778
▁System	-10.5778
▁Gen	-10.5779
空	-10.5779
▁один	-10.578
▁using	-10.5782
▁norte	-10.5783
军	-10.5783
▁Euro	-10.5784
向	-10.5793
▁Japanese	-10.5794
▁bila	-10.5794
О	-10.5799
ging	-10.5799
▁können	-10.58
ー	-10.58
sol	-10.5802
65	-10.5804
グ	-10.5805
▁시	-10.5812
else	-10.5812
▁law	-10.5813
▁Chicago	-10.5816
種	-10.5818
area	-10.5819
vid	-10.5822
ئ	-10.583
▁pode	-10.5832
hor	-10.5832
▁São	-10.5834
pri	-10.5834
క	-10.5834
▁1935	-10.5835
▁List	-10.5842
▁havia	-10.5843
▁Ali	-10.5848
ове	-10.5848
因	-10.585
▁ма	-10.5853
▁они	-10.5854
ensis	-10.5857
▁avait	-10.5858
▁Gra	-10.5865
▁ging	-10.5866
政府	-10.5867
PDF	-10.5872
▁『	-10.5873
▁آ	-10.5874
取	-10.588
isti	-10.5884
▁בה	-10.5885
ই	-10.5886
ey	-10.5886
04	-10.5888
▁2005,	-10.589
소	-10.5892
▁suite	-10.5892
ją	-10.5895
▁Een	-10.5908
ologie	-10.5911
▁mag	-10.5921
▁এবং	-10.5922
▁refer	-10.5926
య	-10.5927
ू	-10.5929
01	-10.5931
▁Barcelona	-10.5934
▁nhất	-10.5936
▁Nova	-10.5938
▁went	-10.5941
▁you	-10.5944
69	-10.5946
▁(«	-10.5948
▁1934	-10.5949
ях	-10.5954
▁Portail	-10.5956
aus	-10.5958
▁val	-10.5962
▁Ли	-10.5963
スト	-10.5963
ما	-10.5964
▁Team	-10.5964
nic	-10.5964
▁Ele	-10.5964
▁date	-10.5967
▁momento	-10.5968
—19	-10.597
ника	-10.5971
ис	-10.5974
pp	-10.5974
ガ	-10.5976
ダ	-10.5979
▁tiempo	-10.5982
▁Day	-10.5982
▁created	-10.5984
нов	-10.5985
▁tid	-10.5987
▁points	-10.5988
42	-10.5992
▁Times	-10.5994
ps	-10.5995
▁mao	-10.5998
king	-10.5998
54	-10.5998
▁כי	-10.6005
▁även	-10.6008
77	-10.601
▁1954	-10.6019
▁primeiro	-10.6019
▁Š	-10.6023
四	-10.6024
▁një	-10.6024
▁multi	-10.6026
▁1915	-10.6026
का	-10.6029
gg	-10.603
▁times	-10.603
vas	-10.6033
▁també	-10.6034
▁ben	-10.6035
▁however	-10.6037
▁기	-10.6039
▁otros	-10.6039
An	-10.6043
제	-10.6043
▁Live	-10.6044
▁Sp	-10.6045
mark	-10.6046
▁Eu	-10.6046
▁کرد	-10.6047
ды	-10.6047
stru	-10.6047
iana	-10.605
▁language	-10.6051
▁Bel	-10.6051
将	-10.6054
▁tro	-10.6057
uz	-10.6057
太	-10.6057
來	-10.6058
rà	-10.6059
ість	-10.606
▁주	-10.606
-6	-10.6062
▁זה	-10.6063
మ	-10.6065
치	-10.6067
ња	-10.607
▁الع	-10.607
▁poi	-10.6071
nje	-10.6072
就	-10.6074
▁fino	-10.6075
су	-10.6076
▁שה	-10.6076
bb	-10.608
▁nhà	-10.6081
נה	-10.6082
य	-10.6083
ування	-10.6083
ана	-10.6085
▁1926	-10.6087
▁Berg	-10.6087
▁Monte	-10.6089
▁Time	-10.6092
uma	-10.6094
43	-10.6098
נו	-10.6099
▁которые	-10.61
▁Fort	-10.6101
EN	-10.6102
owego	-10.6104
sid	-10.6105
ric	-10.6106
하여	-10.6109
ности	-10.6111
cus	-10.6111
33	-10.6111
▁kiel	-10.6112
²	-10.6112
▁τις	-10.6115
되었다	-10.6115
ská	-10.612
grad	-10.6123
▁「	-10.6127
sum	-10.6129
▁Var	-10.6131
▁1910	-10.6132
▁Ny	-10.6137
ени	-10.6138
▁2014,	-10.6141
med	-10.6143
마	-10.6143
▁ও	-10.6143
▁normal	-10.6148
ський	-10.6149
▁který	-10.6152
院	-10.6156
▁pře	-10.6158
кі	-10.6159
▁2,	-10.6164
ants	-10.6166
▁sold	-10.6174
▁hvor	-10.6179
▁written	-10.6179
க்	-10.618
野	-10.6182
▁autres	-10.6182
▁Cap	-10.6187
ként	-10.6187
▁1929	-10.6188
ných	-10.6188
▁morte	-10.6189
ã	-10.6191
ese	-10.6194
▁cập	-10.6196
old	-10.6198
▁television	-10.6198
▁Alexander	-10.6201
ボ	-10.6203
об	-10.6204
▁get	-10.6205
zar	-10.6209
▁δια	-10.621
ult	-10.6212
▁2015,	-10.6218
▁worked	-10.622
▁Brown	-10.622
56	-10.6224
▁Welt	-10.6225
放	-10.6227
ган	-10.6227
sis	-10.6231
ব	-10.6233
ole	-10.6235
▁Grande	-10.6236
▁στη	-10.6236
pur	-10.6236
▁september	-10.6237
ney	-10.6237
▁mat	-10.6239
tzen	-10.6239
liche	-10.6242
Ma	-10.6242
▁1953	-10.6243
ため	-10.6244
▁lại	-10.6245
▁בין	-10.6245
▁Lee	-10.6247
或	-10.6253
▁Après	-10.6259
▁także	-10.6259
▁juni	-10.6259
▁half	-10.6264
▁grandes	-10.6264
67	-10.6265
94	-10.6265
ح	-10.6267
▁1928	-10.6272
ið	-10.6274
▁Ger	-10.6278
된	-10.6279
▁Са	-10.6282
▁fast	-10.6282
▁što	-10.6282
▁Gor	-10.6283
開	-10.6284
▁1917	-10.6285
▁faire	-10.6285
tat	-10.6288
選	-10.629
各	-10.6294
▁quatre	-10.6302
vre	-10.6303
▁hadde	-10.6305
▁modo	-10.6306
▁2004.	-10.631
▁Ар	-10.6311
ture	-10.6317
ම	-10.6318
▁Februar	-10.632
▁produced	-10.632
▁Fin	-10.6326
jet	-10.6331
▁Nu	-10.6336
ను	-10.6338
ace	-10.6338
▁fall	-10.6342
ži	-10.6345
ede	-10.6346
▁pla	-10.6351
ário	-10.6354
vik	-10.6354
tiva	-10.6359
▁ш	-10.6363
න	-10.6364
uda	-10.6364
цы	-10.6365
▁Entre	-10.6366
ель	-10.6366
lis	-10.6369
στις	-10.6371
▁así	-10.6371
rze	-10.6372
波	-10.6373
▁Ober	-10.6373
使	-10.6375
▁free	-10.6376
▁Kom	-10.6382
▁zá	-10.6385
木	-10.6386
▁particular	-10.6388
▁Che	-10.639
セ	-10.6391
▁Sub	-10.6394
64	-10.6396
76	-10.6397
గా	-10.6397
▁presidente	-10.6397
74	-10.6398
首	-10.6399
cca	-10.6399
▁gibt	-10.6401
iya	-10.6402
isa	-10.6407
▁style	-10.6407
ден	-10.6408
58	-10.6418
▁бо	-10.6419
stad	-10.6419
ating	-10.6419
03	-10.6421
▁buvo	-10.6426
05	-10.6427
連	-10.6429
59	-10.6433
▁economic	-10.6434
▁Sau	-10.6436
▁www	-10.6437
▁common	-10.6438
ビ	-10.6439
▁Hor	-10.644
ios	-10.6443
▁där	-10.6445
pos	-10.6445
▁États	-10.6445
한다	-10.6445
▁человек	-10.6446
ड	-10.6447
66	-10.6447
weg	-10.645
▁1000	-10.645
▁lub	-10.6453
화	-10.6455
夫	-10.6455
▁Мар	-10.6462
▁Soviet	-10.6467
▁ich	-10.6467
▁ovat	-10.6471
▁1924	-10.6472
巴	-10.6474
▁Deutschland	-10.6477
선	-10.6478
▁1932	-10.6478
▁professional	-10.6479
nice	-10.6483
▁Edward	-10.6486
▁sai	-10.6489
▁Ed	-10.6491
enza	-10.6491
å	-10.6492
▁až	-10.6493
lí	-10.6493
▁1908	-10.6495
ities	-10.6496
へ	-10.6498
ungs	-10.6498
তে	-10.6498
▁із	-10.65
まで	-10.6501
ving	-10.6501
頭	-10.6503
적	-10.6503
cor	-10.6505
▁Miss	-10.6505
▁Academy	-10.6506
ג	-10.6509
）、	-10.651
essa	-10.6511
▁прав	-10.6512
▁returned	-10.6512
▁porta	-10.6512
▁sonra	-10.6517
▁보	-10.6521
▁dort	-10.6524
▁sulla	-10.6526
ному	-10.6527
▁News	-10.6527
▁вид	-10.6528
▁Я	-10.6533
ort	-10.6535
▁Haupt	-10.6535
ute	-10.6537
▁Zo	-10.6541
▁jednak	-10.6542
▁75	-10.6546
ット	-10.6546
79	-10.6555
▁це	-10.6556
ään	-10.6557
▁Sta	-10.6561
▁ко	-10.6562
▁Antonio	-10.6565
林	-10.6565
▁Gal	-10.6565
系	-10.657
umi	-10.6571
▁stad	-10.6572
▁contract	-10.6573
lus	-10.6578
▁Bill	-10.6579
▁sto	-10.6581
▁days	-10.6582
дан	-10.6583
▁động	-10.6583
има	-10.6584
▁але	-10.6587
当	-10.6589
rak	-10.6589
ward	-10.659
▁Most	-10.6592
▁keine	-10.6592
▁1911	-10.6592
))	-10.6592
–18	-10.6593
▁stor	-10.6594
▁während	-10.6595
▁Liga	-10.6599
ब	-10.6599
▁cultural	-10.6603
ді	-10.6604
▁mesmo	-10.6607
▁1916	-10.6608
▁Из	-10.6611
ije	-10.6621
▁им	-10.6621
бер	-10.6622
▁→	-10.6624
▁Lord	-10.6625
bert	-10.6627
▁right	-10.6629
ел	-10.6633
▁1951	-10.6633
▁Bad	-10.6633
Е	-10.6634
ус	-10.6639
lichen	-10.6642
▁Great	-10.6642
▁*	-10.6646
れ	-10.6648
直	-10.6649
▁Parti	-10.6651
vá	-10.6653
вар	-10.6654
▁run	-10.6656
pat	-10.6661
ology	-10.6669
▁Hier	-10.6669
tele	-10.6672
ip	-10.6672
π	-10.668
ט	-10.6682
يات	-10.6682
▁най	-10.6682
▁Albert	-10.6684
學	-10.669
ship	-10.6692
▁48	-10.6694
▁altri	-10.6695
…	-10.6696
▁би	-10.67
pas	-10.6704
{	-10.6704
▁sch	-10.6706
ský	-10.671
村	-10.6712
аль	-10.6714
年の	-10.6718
▁fram	-10.6718
にも	-10.672
▁division	-10.6721
▁stand	-10.6723
কে	-10.6729
ple	-10.6733
▁level	-10.6733
要	-10.6738
▁Fra	-10.674
▁има	-10.6742
▁че	-10.6742
▁party	-10.6742
▁having	-10.6747
▁Big	-10.6747
ει	-10.675
ering	-10.6751
▁Spanish	-10.6754
▁church	-10.6756
▁1914	-10.6759
▁married	-10.676
▁làm	-10.6762
сі	-10.6762
log	-10.6763
▁Rome	-10.6763
▁μ	-10.6765
▁1921	-10.6766
▁वि	-10.6767
â	-10.6771
役	-10.6771
ssen	-10.6773
ър	-10.6773
電	-10.6774
ыми	-10.6775
ো	-10.678
98	-10.6782
▁mem	-10.6785
ि	-10.6786
▁avoir	-10.6789
hin	-10.679
ено	-10.6791
▁Ка	-10.6792
ש	-10.6793
▁হয়	-10.6793
ец	-10.6794
▁maj	-10.6796
czy	-10.6797
▁BBC	-10.6799
▁1900	-10.6801
▁유	-10.6804
言	-10.6807
ய	-10.6808
▁Gold	-10.6812
jal	-10.6815
此	-10.6816
▁као	-10.6816
▁Av	-10.6817
ベ	-10.6818
▁Indian	-10.6818
▁1905	-10.6822
א	-10.6825
▁oktober	-10.6827
▁mid	-10.6829
▁liegt	-10.683
band	-10.6839
とは	-10.6839
etti	-10.6839
▁bit	-10.6842
ته	-10.6842
▁Sel	-10.6842
97	-10.6843
▁Football	-10.6845
oon	-10.6845
Ro	-10.6846
版	-10.6847
▁Carlos	-10.685
政	-10.685
▁Br	-10.6853
▁south	-10.6856
nov	-10.6858
면	-10.6859
ハ	-10.6859
▁중	-10.6862
тон	-10.6864
ディ	-10.6864
▁zusammen	-10.6867
vr	-10.6867
adi	-10.6868
▁3,	-10.6869
hal	-10.6872
▁element	-10.6872
ości	-10.6875
▁kot	-10.6878
ської	-10.6879
▁beiden	-10.6888
▁release	-10.689
bia	-10.6892
тан	-10.6892
ær	-10.6893
▁них	-10.6893
▁Marie	-10.6895
dat	-10.6895
▁kg	-10.6896
▁programa	-10.6897
▁هي	-10.6897
▁ק	-10.6898
62	-10.69
ság	-10.69
め	-10.69
▁north	-10.6907
▁який	-10.691
аў	-10.6912
▁works	-10.6915
あ	-10.6916
ير	-10.6918
▁honor	-10.6918
▁Sant	-10.6918
Be	-10.692
▁nebo	-10.6923
▁zuen	-10.6925
▁Ana	-10.6925
▁kultur	-10.6927
ം	-10.6928
プ	-10.6928
▁Texas	-10.6931
▁research	-10.6931
▁Pat	-10.6936
▁Out	-10.6937
▁Song	-10.6939
▁septembre	-10.694
ход	-10.6941
▁UK	-10.6944
并	-10.6946
wal	-10.6947
、「	-10.6947
-15	-10.6953
▁55	-10.6957
pin	-10.6957
tom	-10.6958
ách	-10.6958
▁Mon	-10.696
bach	-10.6961
▁како	-10.6967
ప	-10.6968
▁этого	-10.697
▁1931	-10.6972
愛	-10.6973
dé	-10.6978
dzie	-10.6979
▁ఆ	-10.698
▁план	-10.6982
▁bereits	-10.6984
▁announced	-10.6986
wy	-10.6992
▁ως	-10.6994
▁Bol	-10.6995
▁body	-10.6996
nem	-10.6996
▁место	-10.6996
接	-10.6997
▁suoi	-10.6999
▁Те	-10.6999
day	-10.7
▁2000.	-10.7001
▁primeira	-10.7001
▁Force	-10.7002
low	-10.7004
uar	-10.7006
実	-10.7008
▁anno	-10.7008
▁đ	-10.7011
gor	-10.7011
▁Па	-10.7011
▁které	-10.7013
bas	-10.7013
▁Β	-10.7013
論	-10.7014
▁park	-10.7014
rod	-10.7015
ense	-10.7019
▁nahimutang	-10.7021
▁Но	-10.7025
▁Anti	-10.7028
ली	-10.7031
▁Media	-10.7034
95	-10.7035
▁vari	-10.7035
▁tema	-10.7036
nud	-10.7037
heim	-10.7039
▁pak	-10.7039
▁heute	-10.7041
och	-10.7041
zon	-10.7042
88	-10.7051
▁Kur	-10.7051
동	-10.7053
▁juin	-10.7053
火	-10.7054
iques	-10.7054
品	-10.7055
али	-10.706
▁Francia	-10.706
▁Sha	-10.7064
▁Ak	-10.7071
▁december	-10.7072
ī	-10.7072
ग	-10.7073
க்க	-10.7073
▁nelle	-10.7075
hn	-10.7076
ης	-10.7081
▁vý	-10.7083
68	-10.7086
пер	-10.7087
87	-10.7088
▁lat	-10.7088
cri	-10.7091
いた	-10.7102
▁وت	-10.7102
▁Truy	-10.7107
▁부	-10.7108
▁Port	-10.7114
▁hiện	-10.7114
▁west	-10.7122
▁tur	-10.7126
und	-10.7128
elt	-10.7128
▁founded	-10.713
cel	-10.7131
▁rest	-10.7132
▁dagat	-10.7132
های	-10.7133
rt	-10.7134
cji	-10.7135
▁að	-10.7135
▁Vo	-10.7137
nza	-10.7137
▁individual	-10.7137
ove	-10.7139
τα	-10.714
▁39	-10.7142
▁continued	-10.7142
強	-10.7145
▁reform	-10.7145
-12	-10.7146
-16	-10.715
▁σ	-10.7151
Se	-10.7153
▁около	-10.7153
кс	-10.7153
業	-10.7155
▁Friedrich	-10.7155
▁1922	-10.7157
ض	-10.7157
▁Über	-10.716
mmer	-10.7161
ио	-10.7161
vir	-10.7164
▁Bis	-10.7165
vad	-10.7166
▁Africa	-10.7167
wood	-10.7167
▁Movie	-10.7168
▁Dit	-10.7168
▁இ	-10.7169
▁1906	-10.717
ד	-10.7171
து	-10.7173
體	-10.7174
tore	-10.7176
▁bank	-10.7176
▁nun	-10.718
▁ple	-10.7182
53	-10.7183
▁Mil	-10.7184
ës	-10.7185
ның	-10.7187
ischer	-10.7188
iza	-10.7189
сы	-10.7189
▁21.	-10.7193
ի	-10.7193
▁mutta	-10.7194
▁دو	-10.7195
▁Kunst	-10.7195
ван	-10.7198
ു	-10.7201
ている	-10.7205
器	-10.7208
nit	-10.7209
aient	-10.7214
0.000	-10.7214
plan	-10.7215
க	-10.7215
ského	-10.7222
ние	-10.7224
▁№	-10.7225
▁1925	-10.723
▁Ort	-10.7231
ním	-10.7232
ui	-10.7235
cas	-10.7237
▁공	-10.7238
mie	-10.724
▁izan	-10.7241
イン	-10.7242
bur	-10.7243
bes	-10.7244
ёр	-10.7245
▁Over	-10.7245
▁Ви	-10.7246
▁були	-10.7247
▁1909	-10.7249
▁leurs	-10.7251
▁który	-10.7252
▁sempre	-10.7256
▁sang	-10.7257
▁Sea	-10.7257
ân	-10.7257
illo	-10.7258
▁Plan	-10.7258
▁diesem	-10.7261
▁uso	-10.7264
▁problem	-10.7265
▁Cho	-10.7265
▁1927	-10.7265
列	-10.7265
▁mondiale	-10.7265
▁(4	-10.7267
▁ك	-10.7267
න්	-10.7268
▁1907	-10.7269
dio	-10.727
lje	-10.7273
▁Ко	-10.7273
▁много	-10.7276
▁familie	-10.7282
だった	-10.7282
die	-10.7282
▁Max	-10.7283
▁race	-10.7285
-19	-10.7285
лю	-10.7288
▁első	-10.7289
修	-10.7292
tua	-10.7293
sp	-10.7294
▁actual	-10.7297
▁خود	-10.7299
ос	-10.7302
نا	-10.7304
kou	-10.7305
Н	-10.7308
▁legal	-10.7311
▁Pierre	-10.7311
ń	-10.7315
▁organ	-10.732
▁services	-10.7322
▁след	-10.7324
ث	-10.7325
zio	-10.7327
rsi	-10.7329
▁Dia	-10.733
shi	-10.733
eck	-10.733
cker	-10.7333
▁pää	-10.7337
▁ven	-10.7339
న్	-10.734
▁Chinese	-10.7342
▁Jahrhundert	-10.7343
▁official	-10.7344
可以	-10.7344
▁Show	-10.7345
▁plant	-10.7345
▁tarde	-10.7347
▁স	-10.7349
ран	-10.7349
▁janvier	-10.735
▁Rad	-10.7353
usta	-10.7354
▁Auch	-10.7356
▁במ	-10.7358
▁הו	-10.7361
ball	-10.7364
ès	-10.7364
▁ol	-10.7364
дер	-10.7364
יות	-10.7365
更	-10.7367
89	-10.737
nal	-10.7371
▁contro	-10.7376
tant	-10.7376
▁ق	-10.7377
▁juillet	-10.7381
세	-10.7381
θ	-10.7382
▁44	-10.7384
tions	-10.7386
▁Asia	-10.7388
nä	-10.7392
dro	-10.7392
vy	-10.7393
ków	-10.7394
wer	-10.7394
ph	-10.7395
▁Musik	-10.7397
▁Mel	-10.7398
より	-10.7399
▁developed	-10.7402
▁osa	-10.7402
▁Nor	-10.7404
ência	-10.7404
▁himself	-10.7411
▁DVD	-10.7411
▁qua	-10.7417
▁ос	-10.7418
▁və	-10.742
▁प्र	-10.742
▁début	-10.742
▁dag	-10.7424
Or	-10.7424
Mo	-10.7428
▁stop	-10.7428
▁pendant	-10.743
▁code	-10.7432
歌	-10.7433
▁2004,	-10.7434
avi	-10.7438
▁erhielt	-10.7439
▁Night	-10.7441
▁principale	-10.7444
▁Mc	-10.7445
▁should	-10.7445
63	-10.7445
▁peu	-10.7445
73	-10.7446
stro	-10.7447
▁Tele	-10.7448
交	-10.7449
▁padre	-10.745
▁Kan	-10.745
▁Char	-10.745
阿	-10.745
ක	-10.7452
▁piano	-10.7454
▁ras	-10.7456
▁Seit	-10.7456
하	-10.7456
▁port	-10.7461
師	-10.7463
▁force	-10.7464
pad	-10.7468
▁joined	-10.7468
▁vagy	-10.747
isation	-10.7471
sor	-10.7475
fall	-10.7476
▁také	-10.7477
रा	-10.7478
▁koja	-10.7478
ierung	-10.7479
▁certain	-10.7479
▁сам	-10.7483
ében	-10.7484
▁یا	-10.7487
жи	-10.7487
▁Yu	-10.7488
▁43	-10.7489
▁ע	-10.749
52	-10.7493
enie	-10.7493
81	-10.7493
▁کار	-10.7495
▁octobre	-10.7498
▁1913	-10.7498
Ö	-10.7499
조	-10.75
kk	-10.7501
▁Gemeinde	-10.7502
▁ger	-10.7502
ण	-10.7503
>	-10.7504
ови	-10.7507
ally	-10.7507
▁Pada	-10.7509
▁España	-10.751
lige	-10.7515
щи	-10.7517
만	-10.7518
▁Де	-10.752
▁deel	-10.752
ソ	-10.7524
▁(5	-10.7525
².	-10.7526
니	-10.7527
▁Wa	-10.7534
▁род	-10.7535
率	-10.7535
ије	-10.7536
▁français	-10.7538
▁cual	-10.7539
▁Bell	-10.7539
▁1904	-10.7539
▁Not	-10.7541
▁Jackson	-10.7542
▁cha	-10.7542
▁»,	-10.7544
lim	-10.7546
ır	-10.7546
िक	-10.7548
ils	-10.755
83	-10.755
vit	-10.7564
при	-10.7565
▁festival	-10.7565
▁65	-10.7565
▁Database	-10.7565
atu	-10.7566
▁bekannt	-10.7566
將	-10.7569
▁samt	-10.757
▁militar	-10.7572
▁Amerika	-10.7573
ские	-10.7573
▁بين	-10.7574
▁us	-10.7576
ват	-10.7577
fen	-10.7578
▁،	-10.7579
▁trat	-10.7584
▁nó	-10.7585
rah	-10.7586
zna	-10.7588
▁1923	-10.7591
町	-10.7592
zet	-10.7594
▁През	-10.7595
dem	-10.7597
再	-10.7598
受	-10.76
英	-10.7601
駅	-10.7602
▁Kim	-10.7603
ük	-10.7603
▁став	-10.7606
▁För	-10.7606
現	-10.7606
▁कि	-10.7607
▁오	-10.7608
▁online	-10.7611
▁ر	-10.7614
▁According	-10.7614
▁Rom	-10.7616
半	-10.7616
ті	-10.7619
▁circa	-10.7628
▁клуб	-10.763
▁provincia	-10.7633
Х	-10.7636
TV	-10.7637
▁every	-10.7639
ít	-10.764
nici	-10.764
▁sehr	-10.764
▁rei	-10.7641
▁cours	-10.7641
▁nationale	-10.7644
aya	-10.7645
07	-10.7649
Unis	-10.7651
▁hade	-10.7652
▁mother	-10.7652
▁chef	-10.7653
▁Ol	-10.7657
▁120	-10.7658
▁ska	-10.7658
ved	-10.766
▁Auto	-10.7661
▁64	-10.7663
▁atau	-10.7665
iano	-10.7668
fort	-10.7668
inin	-10.7673
▁nhiều	-10.7676
▁veel	-10.7678
وس	-10.7682
▁Dam	-10.7684
▁ад	-10.7685
▁XVI	-10.7686
▁anys	-10.7686
dí	-10.7689
▁further	-10.7689
▁Argentina	-10.769
▁অ	-10.7691
▁народ	-10.7693
▁už	-10.7695
96	-10.7696
▁dân	-10.7697
▁hin	-10.7698
talet	-10.7699
▁mur	-10.7701
▁radi	-10.7701
▁skulle	-10.7704
ск	-10.7705
▁tussen	-10.7711
▁2016,	-10.7712
Ha	-10.7714
cion	-10.7715
真	-10.7716
▁град	-10.7719
▁gra	-10.772
▁gu	-10.7724
▁cost	-10.7727
▁hanno	-10.7732
▁Wilhelm	-10.7733
▁Scott	-10.7734
數	-10.7736
▁vin	-10.7736
▁sor	-10.7737
▁extra	-10.7737
▁Battle	-10.7737
作品	-10.7738
ries	-10.7738
▁fri	-10.774
▁Del	-10.7746
▁character	-10.7746
kas	-10.7748
▁yılında	-10.775
研究	-10.7751
▁Luis	-10.7752
▁bur	-10.7754
▁ни	-10.7755
▁него	-10.7758
▁Game	-10.7761
eli	-10.7763
rs	-10.7768
för	-10.7768
省	-10.7769
ties	-10.7769
▁change	-10.7773
rom	-10.7777
ේ	-10.7779
▁donc	-10.7781
▁round	-10.7781
▁beste	-10.7785
▁συν	-10.7789
▁κ	-10.779
alt	-10.7793
▁andre	-10.7793
ール	-10.7793
ира	-10.7794
lea	-10.7794
▁addition	-10.7797
plo	-10.7797
▁1912	-10.7798
▁weer	-10.7799
▁countries	-10.78
▁phát	-10.78
taan	-10.7801
▁direct	-10.7801
▁Shi	-10.7803
lam	-10.7809
ικό	-10.7811
▁sve	-10.7812
▁át	-10.7812
打	-10.7813
▁junio	-10.7813
ల్	-10.7814
km	-10.7816
▁together	-10.7821
▁Δ	-10.7822
でも	-10.7822
ң	-10.7823
▁disco	-10.7824
84	-10.7824
лив	-10.783
▁2000,	-10.7833
ック	-10.7833
▁lieu	-10.7833
如	-10.7834
uti	-10.7834
船	-10.7835
▁student	-10.7838
▁Gro	-10.7839
tem	-10.7842
▁never	-10.7844
尼	-10.7846
著	-10.7849
▁Ла	-10.785
heit	-10.7851
▁campo	-10.7852
ి	-10.7852
nel	-10.7856
▁এ	-10.7856
▁itu	-10.7859
awa	-10.7859
風	-10.786
▁Namen	-10.7861
lá	-10.7867
▁перед	-10.7867
ע	-10.7869
▁private	-10.7869
▁しかし	-10.7871
▁mei	-10.7873
ták	-10.7873
內	-10.7874
luk	-10.7875
cc	-10.7875
務	-10.7878
▁devient	-10.7879
▁killed	-10.7881
曾	-10.7881
▁2019	-10.7882
マン	-10.7883
▁tegen	-10.7886
▁terra	-10.7887
ppen	-10.7887
▁significa	-10.789
派	-10.7891
iske	-10.7891
oma	-10.7891
▁novel	-10.7891
少	-10.7892
▁document	-10.7895
▁court	-10.7896
▁тем	-10.7896
tig	-10.7898
▁2003.	-10.7901
진	-10.7901
கள்	-10.7903
री	-10.7904
▁commune	-10.7907
河	-10.7907
92	-10.791
산	-10.7913
ικά	-10.7914
▁molto	-10.7915
万	-10.7915
▁But	-10.7916
▁minister	-10.7916
▁että	-10.7916
▁gas	-10.7916
kol	-10.7921
▁Hon	-10.7921
08	-10.7921
▁Young	-10.7921
▁formed	-10.7922
▁hal	-10.7924
▁tous	-10.7926
▁junto	-10.7928
von	-10.7931
▁rol	-10.7934
iel	-10.7934
▁років	-10.7937
▁pur	-10.794
tina	-10.7944
▁status	-10.7945
ья	-10.7945
▁зна	-10.7947
vil	-10.7947
pr	-10.7948
mek	-10.7948
æ	-10.795
▁event	-10.795
▁व	-10.7951
▁Dis	-10.7957
▁Mundial	-10.7958
▁periodo	-10.7962
link	-10.7963
ент	-10.7963
▁हो	-10.7963
ello	-10.7965
ago	-10.7966
▁tersebut	-10.7968
引	-10.797
த	-10.797
▁ब	-10.7971
▁décembre	-10.7971
▁Да	-10.7974
ους	-10.7975
▁julio	-10.7975
▁films	-10.7978
τ	-10.7978
▁чтобы	-10.7978
母	-10.7979
▁nam	-10.798
▁dva	-10.7983
▁этом	-10.7983
▁гор	-10.7985
▁cause	-10.7985
bis	-10.799
▁52	-10.799
▁tin	-10.7991
▁permet	-10.7992
▁stesso	-10.7996
ני	-10.7997
rov	-10.7997
▁available	-10.7997
сон	-10.7998
▁Law	-10.8
vent	-10.8
stat	-10.8001
▁Haus	-10.8002
▁súa	-10.8002
▁sotto	-10.8004
▁vis	-10.8004
보	-10.8004
▁Kong	-10.8004
▁saison	-10.8005
▁forme	-10.8007
▁aktiv	-10.8007
▁usa	-10.8009
▁symbol	-10.801
▁fe	-10.8011
食	-10.8013
rar	-10.8014
▁Grund	-10.8018
зе	-10.8019
▁Tal	-10.802
▁Mad	-10.8028
土	-10.8032
▁Brit	-10.8038
iro	-10.8039
▁bak	-10.804
っている	-10.8043
▁época	-10.8045
gro	-10.8045
▁#	-10.8045
▁Villa	-10.8046
▁Copa	-10.8046
بر	-10.8048
▁dello	-10.805
eiro	-10.8051
▁gener	-10.8052
ல	-10.8053
ப்	-10.8054
▁bajo	-10.8056
▁soit	-10.8056
ес	-10.8057
ikan	-10.8058
▁Since	-10.8058
▁Billboard	-10.8059
▁sử	-10.806
共	-10.8064
ings	-10.8065
gio	-10.8067
▁הה	-10.8068
ु	-10.8069
ual	-10.807
▁ומ	-10.8071
eix	-10.8072
▁studi	-10.8072
▁22.	-10.8072
tia	-10.8074
▁sitt	-10.8075
じ	-10.8075
acji	-10.8075
χ	-10.8076
rse	-10.8078
ώ	-10.808
▁Gre	-10.8084
▁마	-10.8085
▁mà	-10.8086
-10	-10.8087
▁Up	-10.8088
▁Ji	-10.809
tok	-10.8091
cro	-10.8098
82	-10.8099
▁před	-10.8105
▁(14	-10.8108
pet	-10.8108
eux	-10.8109
▁Court	-10.8109
▁Will	-10.811
▁również	-10.8111
▁هذه	-10.8112
iem	-10.8112
▁police	-10.8112
ი	-10.8117
ék	-10.812
체	-10.8121
gun	-10.8122
isen	-10.8123
vod	-10.8124
▁Two	-10.8124
▁Road	-10.8125
▁века	-10.8126
kh	-10.8127
▁Nie	-10.8127
▁första	-10.8129
史	-10.813
▁न	-10.813
▁город	-10.8131
ص	-10.8135
▁మ	-10.8137
tag	-10.8141
gr	-10.8141
▁ind	-10.8141
рос	-10.8143
اب	-10.8146
nger	-10.8154
ود	-10.8154
▁semi	-10.8155
ാ	-10.8155
të	-10.8157
▁част	-10.8157
称	-10.8158
▁largest	-10.8158
▁Old	-10.8159
▁equipo	-10.8159
▁enero	-10.816
rel	-10.8166
ика	-10.8168
▁הא	-10.8169
▁field	-10.817
未	-10.817
▁свою	-10.8172
▁وي	-10.8172
▁után	-10.818
▁Ал	-10.8184
▁outros	-10.8186
▁vice	-10.8188
▁appeared	-10.819
▁great	-10.8192
schaft	-10.8192
▁Lang	-10.8193
Na	-10.8196
への	-10.8197
aka	-10.8198
▁म	-10.8199
▁dom	-10.8204
els	-10.8204
▁Bou	-10.8206
▁nouveau	-10.8206
机	-10.8207
▁cro	-10.8208
▁selbst	-10.8209
▁octubre	-10.821
lands	-10.8211
▁hành	-10.8212
▁Kirche	-10.8212
aron	-10.8213
▁việc	-10.8214
▁usually	-10.8215
бор	-10.8218
aja	-10.8219
▁Johann	-10.8219
93	-10.8221
▁thời	-10.8222
▁б	-10.8222
eni	-10.8224
78	-10.8227
▁nước	-10.8229
ල	-10.8233
▁প্র	-10.8235
국	-10.8235
▁47	-10.8237
ун	-10.8238
nio	-10.8244
ň	-10.8244
▁я	-10.8245
▁<	-10.8247
lah	-10.8248
ు	-10.8248
ツ	-10.8249
▁ने	-10.825
비	-10.825
五	-10.8256
▁actor	-10.8256
▁Foi	-10.8257
▁Mur	-10.8259
cent	-10.826
uf	-10.8261
kka	-10.8261
▁города	-10.8261
eve	-10.8262
▁embargo	-10.8262
▁games	-10.8263
tico	-10.8267
אי	-10.8268
recht	-10.8268
ゴ	-10.8273
▁wrote	-10.828
État	-10.828
71	-10.8281
dı	-10.8281
lay	-10.8283
▁Inc	-10.8284
▁text	-10.8286
단	-10.8287
▁família	-10.8288
▁avril	-10.8289
▁Wasser	-10.829
▁commercial	-10.8291
▁Pri	-10.8295
ості	-10.8295
▁does	-10.8296
▁Camp	-10.8296
▁Fo	-10.8297
okat	-10.8298
▁या	-10.8301
para	-10.8301
▁ди	-10.8303
▁després	-10.8303
hof	-10.8304
▁Harry	-10.8304
▁Human	-10.8308
▁nova	-10.8309
▁etc	-10.8311
ру	-10.8313
▁Об	-10.8314
ি	-10.8317
tí	-10.8319
תו	-10.8319
義	-10.8319
ры	-10.832
党	-10.8321
▁Hot	-10.8322
▁mest	-10.8322
▁bud	-10.8323
▁space	-10.8324
▁Science	-10.8324
▁ли	-10.8326
▁vita	-10.8329
▁বি	-10.833
發	-10.8332
assa	-10.8332
ord	-10.8334
▁général	-10.8334
編	-10.8337
▁areas	-10.834
autres	-10.8341
▁community	-10.8341
▁punto	-10.8341
бо	-10.8342
▁Deze	-10.8343
▁Prix	-10.8343
▁sekä	-10.8344
▁Kas	-10.8345
▁н	-10.8347
▁الإ	-10.8348
▁प	-10.835
ץ	-10.8351
lie	-10.8351
кон	-10.8353
200	-10.8354
గ	-10.8355
▁ج	-10.8356
mia	-10.8357
▁Ste	-10.8357
кой	-10.8358
▁4,	-10.8361
▁tego	-10.8362
▁nagy	-10.8362
▁mayo	-10.8363
▁pin	-10.8363
▁1903	-10.8364
▁str	-10.8368
▁Kal	-10.8372
ões	-10.8372
▁هم	-10.8375
▁Journal	-10.8376
pres	-10.8376
issä	-10.8377
▁taken	-10.8377
▁Hy	-10.8377
▁Geschichte	-10.8381
▁két	-10.8382
ue	-10.8382
lot	-10.8382
▁bộ	-10.8383
▁regular	-10.8384
非	-10.8388
▁ش	-10.8388
▁grav	-10.8389
▁может	-10.839
μ	-10.8391
▁Platz	-10.8393
-7	-10.8394
▁Ros	-10.8395
▁ji	-10.8395
▁although	-10.8395
gre	-10.8397
▁600	-10.8397
ule	-10.84
500	-10.84
uh	-10.84
bio	-10.8401
▁Cat	-10.8403
▁alta	-10.8405
座	-10.8406
dır	-10.8407
▁Sh	-10.8407
▁return	-10.8409
議	-10.841
우	-10.8412
▁route	-10.8412
▁business	-10.8414
ன	-10.8414
see	-10.8414
▁selv	-10.8415
▁войны	-10.8415
▁Kingdom	-10.8415
лар	-10.8415
iri	-10.8415
▁gr	-10.8415
enberg	-10.8416
sam	-10.8421
▁septiembre	-10.8423
▁2002.	-10.8423
lja	-10.8427
▁habitants	-10.8429
γ	-10.843
▁동	-10.8433
ient	-10.8434
▁khác	-10.8436
▁προ	-10.8437
▁segunda	-10.844
▁Como	-10.844
ká	-10.8444
раз	-10.8446
時間	-10.8448
別	-10.845
stä	-10.8451
▁β	-10.8455
▁mono	-10.8455
year	-10.8462
eh	-10.8462
тен	-10.8463
▁Kra	-10.8464
▁leta	-10.8465
长	-10.8466
過	-10.8466
▁då	-10.8467
dores	-10.8468
▁מת	-10.8469
▁či	-10.8471
sie	-10.8473
▁attack	-10.8473
好	-10.8474
▁био	-10.8474
校	-10.8475
ments	-10.8476
▁когда	-10.8477
▁opened	-10.8477
פ	-10.8478
ске	-10.848
owi	-10.848
▁Menschen	-10.8481
호	-10.8482
▁través	-10.8482
▁black	-10.8482
▁how	-10.8484
تر	-10.8488
ką	-10.8492
▁VII	-10.8493
▁pag	-10.8493
gt	-10.8494
▁encore	-10.8501
гор	-10.8505
▁עד	-10.8506
▁stal	-10.8506
▁seguito	-10.8507
위	-10.8508
▁août	-10.8508
▁República	-10.8509
▁Trans	-10.8509
▁க	-10.8512
▁erano	-10.8513
▁ένα	-10.8515
字	-10.8516
▁If	-10.8522
part	-10.8523
▁Mat	-10.8523
▁quốc	-10.8525
ερ	-10.8528
▁الح	-10.8529
▁دارد	-10.8529
2,	-10.853
▁dai	-10.8531
▁Simon	-10.8531
武	-10.8531
▁пов	-10.8533
▁Für	-10.8535
▁Á	-10.8537
▁sei	-10.8538
▁política	-10.8538
tir	-10.8538
▁ay	-10.8539
▁Premier	-10.8544
ович	-10.8545
inde	-10.8546
jes	-10.8546
▁gol	-10.8547
▁Cam	-10.8548
air	-10.8548
oro	-10.855
kä	-10.8551
ür	-10.8551
▁sendo	-10.8552
bet	-10.8553
▁Western	-10.8554
į	-10.8555
ут	-10.8556
anie	-10.8556
▁famille	-10.8557
ping	-10.8557
▁thế	-10.8558
▁sistem	-10.8559
▁micro	-10.8565
rac	-10.8566
Sa	-10.8566
▁Rat	-10.8568
▁ning	-10.8568
▁naam	-10.8569
ног	-10.8573
▁pli	-10.8573
сто	-10.8575
▁win	-10.8579
zan	-10.858
▁koje	-10.8584
kle	-10.8585
tique	-10.8587
▁tanggal	-10.8589
skih	-10.8598
▁Estado	-10.8599
▁defini	-10.8599
▁italiano	-10.8602
вся	-10.8603
esta	-10.8604
lad	-10.8606
▁rad	-10.8607
ein	-10.8608
idi	-10.8609
ým	-10.8611
▁gen	-10.8611
пис	-10.8615
ு	-10.8616
▁sede	-10.8616
▁tek	-10.8617
ions	-10.8617
站	-10.8618
中国	-10.8624
ike	-10.8625
▁Tan	-10.8627
▁49	-10.8628
ilor	-10.8629
col	-10.8629
iche	-10.863
▁polo	-10.863
dt	-10.8632
▁bylo	-10.8635
jon	-10.8636
μα	-10.8636
ví	-10.8638
할	-10.8639
ose	-10.864
▁District	-10.864
▁비	-10.8641
:00	-10.8641
ක්	-10.8643
▁Wikimedia	-10.8645
▁superior	-10.8645
▁yn	-10.8646
rz	-10.8647
▁الج	-10.8647
το	-10.865
stel	-10.865
ار	-10.8652
cat	-10.8655
jä	-10.8655
▁furono	-10.8656
▁bere	-10.8657
▁transfer	-10.8657
▁Line	-10.8657
ión	-10.8658
▁vel	-10.8659
管	-10.866
▁Pol	-10.866
кор	-10.8664
gó	-10.8665
▁כל	-10.8667
▁επι	-10.8667
itet	-10.8669
▁már	-10.8669
▁ব	-10.867
▁Australian	-10.8671
▁diciembre	-10.8671
ским	-10.8674
skim	-10.8674
list	-10.8675
▁young	-10.8678
▁Cer	-10.8678
▁Cre	-10.8682
調	-10.8684
oi	-10.8684
▁story	-10.8684
▁lett	-10.8685
▁(12	-10.8691
▁fünf	-10.8696
▁Jones	-10.8696
llen	-10.8698
福	-10.8698
ových	-10.8698
▁Chile	-10.87
▁Stein	-10.8701
▁Mais	-10.8702
ată	-10.8704
not	-10.8705
ві	-10.8706
▁מו	-10.8708
▁Ю	-10.8709
▁30.	-10.871
▁genom	-10.871
▁class	-10.8712
▁kraj	-10.8714
▁Londres	-10.8714
pot	-10.8714
▁Sand	-10.8716
gat	-10.8716
▁Ap	-10.8716
▁iki	-10.8718
▁fal	-10.872
▁//	-10.8724
▁More	-10.8727
бу	-10.8727
Con	-10.8729
▁lista	-10.8731
ティ	-10.8733
▁(19	-10.8733
inger	-10.8734
▁Universität	-10.8734
▁Ба	-10.8735
級	-10.8737
?)	-10.8737
▁months	-10.8739
▁Free	-10.8739
06	-10.8739
▁Seine	-10.874
ché	-10.8741
▁wife	-10.8743
ү	-10.8743
▁rec	-10.8747
вр	-10.8748
β	-10.8748
花	-10.8751
▁46	-10.8751
ści	-10.8756
pass	-10.8761
▁lost	-10.8763
দ	-10.8764
▁success	-10.8766
무	-10.8768
িত	-10.8768
uro	-10.877
hed	-10.8775
ید	-10.8775
▁Kol	-10.8776
▁ham	-10.8776
▁damit	-10.8779
3.	-10.878
▁mint	-10.8784
▁זו	-10.8787
▁Latin	-10.8792
▁While	-10.8794
ean	-10.8795
als	-10.8795
▁ned	-10.8797
▁mereka	-10.8797
ení	-10.8798
enden	-10.88
▁février	-10.8801
-8	-10.8801
▁Games	-10.8801
▁Ry	-10.8802
け	-10.8804
室	-10.8804
▁किया	-10.8807
▁notamment	-10.8808
mur	-10.8808
kla	-10.8811
мі	-10.8815
▁250	-10.8817
▁Qui	-10.8817
▁titre	-10.8819
த்த	-10.8819
▁време	-10.8821
ট	-10.8823
row	-10.8825
cin	-10.8827
▁prop	-10.8827
ח	-10.8828
▁structure	-10.8828
εί	-10.883
▁Bob	-10.8831
こ	-10.8834
▁Zi	-10.8835
▁Sul	-10.8836
▁Civil	-10.8836
ант	-10.8837
▁Bir	-10.8837
▁ty	-10.8839
▁past	-10.8845
▁hall	-10.8848
▁students	-10.8849
09	-10.885
ул	-10.885
▁1-	-10.8854
؛	-10.8855
▁Fall	-10.8855
▁culture	-10.8857
▁described	-10.8858
ří	-10.8858
▁자	-10.8862
▁Hay	-10.8863
▁י	-10.8865
iendo	-10.8866
▁23.	-10.8867
▁1901	-10.8867
ind	-10.8868
▁dr	-10.8868
ında	-10.8871
▁menos	-10.8873
fund	-10.8873
▁indica	-10.8873
zor	-10.8874
ont	-10.8874
▁province	-10.8878
일에	-10.8878
▁28.	-10.8884
▁Russia	-10.8887
rzy	-10.8887
ï	-10.8891
▁ప	-10.8891
▁End	-10.8892
▁나	-10.8893
▁once	-10.8894
house	-10.8895
▁оп	-10.8895
▁Om	-10.8895
卡	-10.8898
▁Pedro	-10.8899
▁소	-10.89
▁idea	-10.8906
Li	-10.8907
ota	-10.8913
提	-10.8915
▁2001.	-10.8916
▁ski	-10.8917
▁Met	-10.8919
ntes	-10.892
च	-10.892
ił	-10.8921
ター	-10.8922
ència	-10.8922
▁stage	-10.8924
lov	-10.8924
▁Hand	-10.8926
▁secondo	-10.8927
ৰ	-10.8929
▁chỉ	-10.893
片	-10.8932
▁Arab	-10.8932
He	-10.8934
uc	-10.8935
▁Dom	-10.8936
▁noviembre	-10.8936
コン	-10.8936
72	-10.8936
▁(6	-10.8937
bin	-10.8938
ló	-10.8939
▁2003,	-10.894
▁working	-10.894
▁making	-10.8941
long	-10.8941
▁politique	-10.8944
lia	-10.8944
低	-10.8945
lap	-10.8945
▁Social	-10.8949
▁kiu	-10.895
▁others	-10.8951
▁Landes	-10.8952
▁Kun	-10.8953
No	-10.8954
од	-10.8954
aci	-10.8956
ское	-10.8959
▁Other	-10.896
ப்ப	-10.896
istä	-10.896
▁25.	-10.8961
▁Ham	-10.8962
▁wel	-10.8962
▁ran	-10.8964
戰	-10.8964
명	-10.8965
▁range	-10.8967
osta	-10.8969
退	-10.897
▁Mann	-10.897
lukop	-10.897
▁weitere	-10.8973
▁Saison	-10.8973
에는	-10.8975
مان	-10.8977
▁Hapit	-10.8978
tul	-10.8979
лет	-10.8979
▁appointed	-10.898
▁стала	-10.8981
▁ako	-10.8981
▁presenta	-10.8984
▁24.	-10.8988
▁orden	-10.8988
▁mission	-10.8991
Ra	-10.8993
▁recorded	-10.8994
▁interior	-10.8994
▁Mé	-10.8995
91	-10.8996
ない	-10.9
вид	-10.9
▁mark	-10.9003
ides	-10.9004
感	-10.9005
▁لم	-10.9007
more	-10.9008
iin	-10.9008
▁Universidad	-10.901
▁quale	-10.9011
▁Adam	-10.9014
助	-10.9016
▁NGC	-10.9016
eng	-10.9017
ª	-10.9021
▁immer	-10.9022
▁съ	-10.9022
nings	-10.9024
▁good	-10.9024
κ	-10.9024
ям	-10.9027
ती	-10.9027
▁1890	-10.903
сь	-10.9032
▁indi	-10.9032
▁governo	-10.9034
▁الق	-10.9038
미	-10.9038
со	-10.9042
дар	-10.9043
ssä	-10.9043
▁organiz	-10.9044
anza	-10.9048
ologi	-10.9049
▁között	-10.905
has	-10.9051
sport	-10.9052
▁אך	-10.9052
eti	-10.9052
ného	-10.9056
▁نام	-10.9056
▁kat	-10.9058
Me	-10.9059
での	-10.906
▁области	-10.9062
hui	-10.9062
asta	-10.9062
▁Opera	-10.9062
▁celui	-10.9064
▁Stra	-10.9065
lak	-10.9066
щ	-10.9068
▁අ	-10.9068
در	-10.9072
ijos	-10.9072
▁Dopo	-10.9073
▁battle	-10.9077
▁کند	-10.9078
▁può	-10.9079
owym	-10.9082
idos	-10.9082
▁kamp	-10.9083
近	-10.9085
▁format	-10.9086
ții	-10.9087
ların	-10.9088
▁dois	-10.9088
▁בו	-10.9089
ず	-10.9089
aga	-10.909
▁však	-10.909
▁απο	-10.9091
▁island	-10.9094
ša	-10.9095
оз	-10.9098
▁Empire	-10.9099
▁која	-10.91
тив	-10.9102
記	-10.9103
ط	-10.9103
ches	-10.9104
usa	-10.9104
▁після	-10.9105
▁Williams	-10.9106
▁Service	-10.9107
iki	-10.9107
▁rot	-10.9107
▁secolo	-10.9108
гі	-10.9109
like	-10.9109
男	-10.911
▁though	-10.9112
射	-10.9113
▁performance	-10.9114
Mar	-10.9115
ís	-10.9116
elli	-10.9116
▁comune	-10.9116
פי	-10.9119
eurs	-10.912
▁representa	-10.9121
▁rem	-10.9122
▁कर	-10.9123
▁1902	-10.9127
▁Wall	-10.9127
ній	-10.9128
ує	-10.9129
▁(13	-10.9129
▁finns	-10.9129
ines	-10.913
▁gruppo	-10.913
▁период	-10.913
▁aveva	-10.9131
▁41	-10.9131
▁Бо	-10.9132
▁Mexico	-10.9133
▁aastal	-10.9134
계	-10.9136
ската	-10.9136
▁gal	-10.9138
；	-10.914
▁Qu	-10.9141
▁Boy	-10.9142
▁الف	-10.9143
▁га	-10.9145
▁Region	-10.9146
ம	-10.9147
▁th	-10.9148
▁ம	-10.9148
団	-10.915
▁office	-10.9153
ból	-10.9154
▁protest	-10.9155
▁została	-10.9156
▁poste	-10.9157
▁Gli	-10.9157
tima	-10.9158
▁Ан	-10.916
▁vir	-10.9163
igo	-10.9163
▁valor	-10.9164
oje	-10.9165
▁industrial	-10.9168
aw	-10.917
uch	-10.9173
ケ	-10.9173
hand	-10.9173
▁También	-10.9175
▁estat	-10.9178
▁Navy	-10.9179
▁Greek	-10.9184
ז	-10.9184
ণ	-10.9184
▁Mars	-10.9186
年代	-10.9189
▁Arts	-10.9191
▁Так	-10.9191
伊	-10.9192
él	-10.9194
▁Retrieved	-10.9196
etan	-10.9196
▁_{	-10.9197
▁xuất	-10.9198
St	-10.9199
ave	-10.9203
ность	-10.9205
▁exemple	-10.9208
З	-10.9208
▁26.	-10.9208
hold	-10.9208
osti	-10.921
ザ	-10.9211
▁estadounidense	-10.9212
gno	-10.9214
▁font	-10.9216
▁ihren	-10.9217
▁limit	-10.9217
▁episode	-10.9219
▁Μ	-10.922
▁Kr	-10.9221
▁molt	-10.9221
▁moins	-10.9221
стан	-10.9223
-20	-10.9227
▁Pra	-10.9229
ати	-10.9229
▁Second	-10.9229
gle	-10.9229
Pro	-10.923
との	-10.9233
▁disc	-10.9233
▁Pop	-10.9234
▁שב	-10.9236
ovat	-10.9237
▁Bio	-10.9239
▁mont	-10.9239
rán	-10.9241
バー	-10.9242
▁út	-10.9242
ген	-10.9243
▁manera	-10.9246
▁भी	-10.9246
sebuah	-10.9246
ř	-10.9248
▁mes	-10.9248
▁surface	-10.9253
أ	-10.9255
ോ	-10.9256
anno	-10.9258
▁zou	-10.9259
ht	-10.9261
▁Ле	-10.9264
▁fest	-10.9266
стер	-10.9269
fat	-10.9269
▁Indonesia	-10.927
対	-10.9271
▁800	-10.9272
▁Research	-10.9272
▁máis	-10.9274
▁Та	-10.9274
она	-10.9277
▁той	-10.9278
학	-10.9279
▁poco	-10.9279
放送	-10.9279
right	-10.9279
▁przed	-10.9281
রা	-10.9281
ologia	-10.9281
ію	-10.9283
ення	-10.9284
kur	-10.9284
▁Tod	-10.9285
▁filme	-10.9287
商	-10.9292
ect	-10.9293
▁diverse	-10.9295
▁יותר	-10.9295
▁Power	-10.9296
▁san	-10.9299
ա	-10.93
清	-10.93
▁African	-10.9301
ень	-10.9302
win	-10.9303
▁maior	-10.9307
وم	-10.931
び	-10.931
tier	-10.9311
ude	-10.9311
▁dentro	-10.9312
▁Tag	-10.9312
èrent	-10.9316
▁51	-10.9316
▁その	-10.9317
▁Centre	-10.9322
▁ক	-10.9322
borg	-10.9323
당	-10.9324
AC	-10.9325
▁ఈ	-10.9325
sser	-10.9325
రి	-10.9329
▁voi	-10.9332
殺	-10.9332
▁سر	-10.9339
▁করে	-10.9341
ק	-10.9343
▁signed	-10.9344
▁ја	-10.9348
▁Home	-10.935
▁Italy	-10.9352
▁sú	-10.9352
차	-10.9353
▁hebben	-10.9353
▁27.	-10.9353
▁Hell	-10.9354
属	-10.9354
開始	-10.9355
lement	-10.9356
ラー	-10.9357
ини	-10.9357
▁Catholic	-10.9359
▁Blue	-10.9359
zin	-10.936
лер	-10.9361
dag	-10.9361
▁cast	-10.9365
▁SS	-10.9365
▁Francis	-10.9367
US	-10.9368
mä	-10.9369
sar	-10.9369
ност	-10.9369
ování	-10.937
лин	-10.9371
▁Tro	-10.9371
▁Earth	-10.9371
▁इस	-10.9375
▁active	-10.9376
▁alt	-10.9377
▁compte	-10.9378
▁ker	-10.9379
▁Ray	-10.938
▁Later	-10.9381
డ	-10.9382
ί	-10.9383
്	-10.9385
▁Disney	-10.9385
관	-10.9389
▁continua	-10.9389
rek	-10.9389
▁То	-10.939
▁febrero	-10.939
▁Anh	-10.939
▁statt	-10.9391
bild	-10.9392
▁título	-10.9393
▁2017,	-10.9394
▁Walter	-10.9396
▁questa	-10.9398
문	-10.94
▁था	-10.9401
▁chiến	-10.9402
▁Sim	-10.9403
eerd	-10.9404
▁Ц	-10.9406
чен	-10.9406
▁Its	-10.9406
Bo	-10.9408
vert	-10.9409
aceae	-10.9409
區	-10.9412
▁Point	-10.9412
▁sunt	-10.9414
配	-10.9414
職	-10.9415
sil	-10.9415
dus	-10.9417
▁kod	-10.9417
▁zone	-10.9418
代表	-10.9419
يد	-10.9424
ി	-10.9425
mir	-10.9426
ray	-10.9427
▁जा	-10.9427
lic	-10.9428
enne	-10.9428
▁ذلك	-10.9429
▁effet	-10.943
▁People	-10.9433
mine	-10.9433
▁ren	-10.9433
лов	-10.9434
▁Bon	-10.9435
っ	-10.9435
▁Ха	-10.9438
Man	-10.9438
▁신	-10.9439
être	-10.944
▁кор	-10.9441
▁Ч	-10.9442
▁grund	-10.9442
▁novo	-10.9443
▁bay	-10.9444
▁조	-10.9446
▁Queen	-10.9449
▁ste	-10.945
ид	-10.9451
▁regional	-10.9452
▁Johnson	-10.9454
ismus	-10.9455
▁мая	-10.9458
ロー	-10.9459
гер	-10.9461
ped	-10.9462
chy	-10.9466
▁nap	-10.9469
tim	-10.947
spect	-10.9472
▁aircraft	-10.9474
▁több	-10.9478
▁còn	-10.9478
▁(10	-10.9479
▁Alle	-10.9481
ako	-10.9482
▁performed	-10.9483
▁Although	-10.9484
teur	-10.9486
prav	-10.9487
vez	-10.9489
朝	-10.949
back	-10.949
mist	-10.9496
▁pris	-10.9496
▁বা	-10.9496
kommen	-10.9498
▁στα	-10.9499
▁Spiel	-10.95
▁Hitler	-10.95
כ	-10.9501
ū	-10.9501
άν	-10.9503
▁XVIII	-10.9504
艦	-10.9508
ば	-10.9512
▁Department	-10.9513
uga	-10.9515
▁tudi	-10.952
▁고	-10.9522
hoz	-10.9528
오	-10.9529
nat	-10.953
▁εκ	-10.953
▁nuevo	-10.9532
▁meng	-10.9532
ін	-10.9535
▁Prince	-10.9537
ланд	-10.9541
▁Casa	-10.9541
angan	-10.9542
rig	-10.9543
示	-10.9543
▁river	-10.9545
▁report	-10.9547
mme	-10.9548
▁bezeichnet	-10.9551
族	-10.9551
▁able	-10.9557
▁poli	-10.9558
▁geen	-10.9559
oz	-10.9561
▁Kara	-10.9563
▁אי	-10.9565
stvo	-10.9565
▁الذي	-10.9566
▁daughter	-10.9567
▁gang	-10.9567
mand	-10.9568
▁2002,	-10.9569
െ	-10.957
▁amely	-10.9571
لا	-10.9571
ś	-10.9573
▁rund	-10.9574
▁That	-10.9575
▁fase	-10.9576
情	-10.9576
素	-10.9577
▁cùng	-10.9579
▁Video	-10.9579
守	-10.9584
▁encuentra	-10.9584
▁vil	-10.9584
kra	-10.9584
்	-10.9585
фа	-10.9585
ois	-10.9586
প	-10.9586
tera	-10.9586
istas	-10.9589
жен	-10.9589
▁Anne	-10.9589
▁Γ	-10.9592
人の	-10.9592
▁store	-10.9593
落	-10.9594
ای	-10.9594
▁unit	-10.9595
▁remained	-10.9599
▁région	-10.9599
ñ	-10.9599
না	-10.9602
▁pal	-10.9602
kup	-10.9602
noj	-10.9604
例	-10.9605
▁ги	-10.9605
▁fet	-10.9607
zza	-10.9608
phi	-10.9608
失	-10.9609
▁hơn	-10.9609
▁Кон	-10.9612
schap	-10.9613
▁дел	-10.9615
▁libre	-10.9616
రు	-10.9616
tten	-10.9618
▁posto	-10.962
kus	-10.9624
▁нај	-10.9627
▁depois	-10.9627
結	-10.9628
▁contact	-10.9629
▁election	-10.963
▁Ди	-10.963
imento	-10.9631
▁Iran	-10.9632
▁dy	-10.9635
▁modifier	-10.9635
town	-10.9636
▁Rod	-10.9638
▁получил	-10.9639
だ	-10.964
Do	-10.964
▁Mr	-10.9642
▁Terra	-10.9644
▁brother	-10.9645
ender	-10.9646
▁które	-10.9646
防	-10.9647
▁ד	-10.9648
▁Tim	-10.9649
▁verk	-10.9649
▁lead	-10.965
elles	-10.965
▁direction	-10.9651
▁dụng	-10.9651
ু	-10.9654
kut	-10.9656
▁cultura	-10.9657
ù	-10.9657
▁годах	-10.966
▁قبل	-10.9661
▁csak	-10.9661
stadt	-10.9661
▁rod	-10.9663
▁ка	-10.9665
mica	-10.9667
▁Women	-10.9668
ост	-10.9668
▁flere	-10.9671
▁terme	-10.9671
▁тому	-10.9672
прав	-10.9673
▁dog	-10.9674
▁lag	-10.9677
▁gouvernement	-10.9679
▁least	-10.968
ize	-10.9681
▁followed	-10.9681
▁Lan	-10.9686
ও	-10.9694
郡	-10.9694
▁ול	-10.9695
▁Entertainment	-10.9698
▁bản	-10.9702
▁Play	-10.9706
▁elected	-10.9707
mina	-10.9708
ද	-10.971
^{	-10.9712
▁Titel	-10.9712
ే	-10.9713
▁rapport	-10.9713
top	-10.9714
▁esp	-10.9716
▁її	-10.9722
想	-10.9723
▁command	-10.9724
▁ciutat	-10.9724
▁צ	-10.9726
head	-10.9729
gna	-10.9729
▁tekst	-10.9729
我	-10.9729
▁pilot	-10.973
▁två	-10.973
quer	-10.9731
ються	-10.9731
cul	-10.9735
ట	-10.9735
▁turn	-10.9736
▁29.	-10.9736
▁loài	-10.9737
▁Otto	-10.9739
▁Article	-10.974
auf	-10.974
▁bus	-10.974
▁लिए	-10.9742
▁gave	-10.9743
▁kde	-10.9744
▁current	-10.9745
▁diferentes	-10.9746
lem	-10.9747
▁Winter	-10.9747
門	-10.9751
▁한	-10.9753
客	-10.9753
To	-10.9753
▁Ken	-10.9754
▁produce	-10.9755
▁Mis	-10.9756
聖	-10.9759
▁Č	-10.9759
▁Ку	-10.976
▁인	-10.976
▁خ	-10.9762
▁연	-10.9763
▁هذا	-10.9767
ug	-10.9771
aal	-10.9773
▁Mol	-10.9775
▁ent	-10.9775
▁kol	-10.9779
iser	-10.978
este	-10.9781
▁conserva	-10.9782
▁ή	-10.9783
من	-10.9784
رو	-10.9786
▁Mitglied	-10.9787
yd	-10.9787
ама	-10.979
▁begann	-10.9791
}}}	-10.9791
▁track	-10.9793
发	-10.9793
▁Tam	-10.9794
्य	-10.9795
용	-10.9797
▁kad	-10.9797
▁aos	-10.9797
fre	-10.9799
▁större	-10.9801
▁Familie	-10.9801
menti	-10.9802
▁היו	-10.9802
▁Arthur	-10.9805
adores	-10.9806
的に	-10.9809
▁уже	-10.9811
тов	-10.9812
rich	-10.9812
ls	-10.9812
▁nhân	-10.9812
▁drie	-10.9815
pod	-10.9816
▁action	-10.9818
普	-10.9819
▁Win	-10.9823
тра	-10.9823
psi	-10.9823
iku	-10.9824
▁América	-10.9825
tá	-10.9825
жа	-10.9825
ír	-10.9826
േ	-10.9826
」。	-10.9827
▁global	-10.9827
▁study	-10.9829
▁cargo	-10.9829
că	-10.983
ization	-10.9831
će	-10.9831
נים	-10.9834
▁सं	-10.9834
界	-10.9835
پ	-10.9837
▁mare	-10.9839
уз	-10.9843
нос	-10.9844
ость	-10.9845
▁simple	-10.9846
▁Boston	-10.9847
▁ship	-10.9851
▁2001,	-10.9852
▁night	-10.9853
▁På	-10.9855
案	-10.9855
ера	-10.9861
uka	-10.9863
▁несколько	-10.9863
▁got	-10.9865
вед	-10.9867
▁throughout	-10.9871
▁Ost	-10.9871
領	-10.9875
jev	-10.9876
▁rok	-10.9877
▁events	-10.9877
▁ligne	-10.9877
hod	-10.9877
61	-10.9878
ús	-10.9879
▁Ross	-10.9879
▁Manuel	-10.988
▁roi	-10.988
uan	-10.9881
ever	-10.9882
▁satu	-10.9882
ヒ	-10.9884
").	-10.9884
skap	-10.9886
nsa	-10.9887
uni	-10.9888
ând	-10.9888
▁më	-10.9893
▁UEFA	-10.9894
▁×	-10.9897
▁Tak	-10.9897
pic	-10.9899
oko	-10.9899
мет	-10.9901
經	-10.9901
▁Austria	-10.9902
jos	-10.9902
▁2-	-10.9903
ще	-10.9905
xa	-10.9905
▁anterior	-10.9906
▁1880	-10.9911
▁jälkeen	-10.9911
▁parts	-10.9912
▁disse	-10.9912
▁ανα	-10.9915
▁Final	-10.9916
овой	-10.9917
idas	-10.9917
む	-10.9917
▁tarafından	-10.9919
și	-10.9919
▁Filip	-10.9921
▁Ent	-10.9922
▁Ag	-10.9922
▁Space	-10.9923
stav	-10.9924
▁medio	-10.9925
kaz	-10.9927
but	-10.9934
бит	-10.9935
러	-10.9935
▁פי	-10.9936
▁Joe	-10.9941
▁altre	-10.9942
▁gar	-10.9945
▁ú	-10.9946
ification	-10.9947
▁Buch	-10.9947
Lo	-10.9947
▁echter	-10.9947
▁össze	-10.9949
▁Office	-10.995
▁Oscar	-10.9951
告	-10.9951
▁todas	-10.9951
ações	-10.9952
trop	-10.9952
▁Public	-10.9957
타	-10.9958
олог	-10.9959
osi	-10.9961
▁Station	-10.9964
即	-10.9965
בר	-10.9966
▁Korea	-10.9967
یت	-10.9969
▁maggio	-10.9971
_	-10.9971
▁article	-10.9973
アル	-10.9973
▁pl	-10.9973
క్	-10.9976
▁thứ	-10.9977
▁stra	-10.9977
▁hos	-10.9978
▁double	-10.9978
ový	-10.9979
▁части	-10.998
▁municipal	-10.9982
▁pří	-10.9983
亞	-10.9983
源	-10.9984
▁digital	-10.9985
antes	-10.9986
ři	-10.9987
▁neu	-10.999
nus	-10.9992
▁кар	-10.9997
▁cer	-10.9998
цев	-11
▁Paulo	-11.0001
▁Ball	-11.0004
▁low	-11.0006
ця	-11.0008
ουν	-11.0008
▁Ez	-11.0009
xe	-11.001
Ge	-11.0012
itz	-11.0012
親	-11.0013
▁either	-11.0014
▁Pont	-11.0015
▁groups	-11.0016
▁away	-11.0018
▁kay	-11.002
▁María	-11.0022
▁sex	-11.0022
۵	-11.0024
▁leader	-11.0025
命	-11.0029
▁URL	-11.003
▁día	-11.0031
▁Som	-11.0032
病	-11.0033
ків	-11.0034
alla	-11.0034
▁Rose	-11.0035
視	-11.0035
▁스	-11.0036
去	-11.0036
▁Wil	-11.0036
▁Name	-11.004
▁Pal	-11.0041
λ	-11.0043
ур	-11.0043
▁question	-11.0043
ics	-11.0043
etto	-11.0044
▁staat	-11.0045
▁grote	-11.0046
2016	-11.0046
▁complex	-11.0047
▁lid	-11.0049
▁kul	-11.0051
▁firm	-11.0051
lev	-11.0051
bon	-11.0052
▁Mike	-11.0053
ници	-11.0053
▁Hun	-11.0054
▁Chris	-11.0055
▁марта	-11.0055
▁Serie	-11.0058
▁computer	-11.0059
▁suas	-11.0059
▁Τ	-11.0062
CD	-11.0063
1,	-11.0064
▁פ	-11.0064
▁यह	-11.0065
治	-11.0065
▁Wal	-11.0067
▁across	-11.0067
식	-11.0068
▁sort	-11.0069
▁августа	-11.0071
▁strong	-11.0073
pak	-11.0073
▁befindet	-11.0076
tud	-11.0076
▁course	-11.0079
ρα	-11.0079
ének	-11.008
▁jaren	-11.0081
像	-11.0082
▁habitantes	-11.0082
▁1898	-11.0084
▁independent	-11.0084
maan	-11.0084
tà	-11.0086
▁libro	-11.0086
ction	-11.0087
▁gennaio	-11.0088
▁הייתה	-11.0089
▁Ford	-11.0089
nden	-11.0092
400	-11.0092
▁ö	-11.0093
▁mens	-11.0096
|	-11.01
מו	-11.01
imp	-11.0101
▁membres	-11.0101
▁tijd	-11.0101
▁love	-11.0103
ць	-11.0104
威	-11.0104
бе	-11.0107
ється	-11.0107
qua	-11.0108
▁thuộc	-11.0111
▁quelques	-11.0112
▁состав	-11.0114
▁hình	-11.0115
ké	-11.0121
▁FIFA	-11.0122
rou	-11.0122
bie	-11.0123
▁định	-11.0123
▁הש	-11.0123
▁Mag	-11.0127
▁especial	-11.0127
▁Sky	-11.0127
▁1870	-11.0131
▁wat	-11.0133
▁kanssa	-11.0135
ава	-11.0135
▁две	-11.0136
産	-11.0136
撃	-11.0137
▁Committee	-11.0137
▁januari	-11.0139
▁Kanada	-11.0139
▁53	-11.014
▁accept	-11.0141
▁후	-11.0143
▁white	-11.0144
▁była	-11.0146
▁estaba	-11.0146
▁states	-11.0149
▁nich	-11.015
▁Franz	-11.015
賽	-11.0151
ök	-11.0152
ię	-11.0152
▁frem	-11.0156
▁sé	-11.0156
اق	-11.0157
▁dokument	-11.0158
ową	-11.0158
▁aby	-11.0161
▁пар	-11.0162
▁двух	-11.0163
ස	-11.0164
카	-11.0168
▁54	-11.0168
▁fact	-11.0171
▁arte	-11.0172
▁Sein	-11.0173
র্	-11.0173
▁army	-11.0173
▁Bro	-11.0175
ología	-11.0176
ligt	-11.018
▁הנ	-11.018
▁fund	-11.0181
店	-11.0182
$	-11.0183
mé	-11.019
▁Fer	-11.0192
ью	-11.0193
▁Kultur	-11.0195
▁projekt	-11.0195
▁viên	-11.0198
light	-11.0199
▁lokal	-11.0204
anda	-11.0205
▁Кор	-11.0206
▁Book	-11.0206
ierten	-11.0207
▁Federal	-11.0207
られた	-11.0207
▁δ	-11.021
▁tej	-11.021
ає	-11.021
▁federal	-11.0211
▁dabei	-11.0213
కు	-11.0214
▁secret	-11.0214
▁yer	-11.0215
οι	-11.0215
▁close	-11.0216
▁imp	-11.0216
gua	-11.0219
bir	-11.022
▁kr	-11.022
pia	-11.0221
tung	-11.0221
▁Little	-11.0221
ち	-11.0221
▁fem	-11.0225
-9	-11.0225
▁tiếng	-11.0225
▁dessen	-11.0226
▁ohne	-11.0226
何	-11.0226
ιν	-11.0226
ím	-11.0226
rian	-11.0229
fel	-11.0229
tı	-11.023
▁aver	-11.0232
▁terug	-11.0232
▁tren	-11.0233
श	-11.0234
▁Kin	-11.0235
OS	-11.0237
рав	-11.0239
군	-11.0241
ω	-11.0242
▁ότι	-11.0244
année	-11.0245
AL	-11.0245
tari	-11.0245
пи	-11.0246
▁bor	-11.0246
▁section	-11.0247
зі	-11.025
post	-11.025
計	-11.0252
▁Microsoft	-11.0253
▁Modern	-11.0255
▁Canadian	-11.0256
▁hospital	-11.026
▁1999.	-11.0261
▁aquest	-11.0264
▁(7	-11.0267
000	-11.0271
▁Dor	-11.0271
▁వి	-11.0271
▁Commission	-11.0271
gia	-11.0272
신	-11.0273
▁России	-11.0275
▁Ker	-11.0276
▁Google	-11.0277
▁Florida	-11.0277
tle	-11.0278
▁tar	-11.0279
▁están	-11.0281
ß	-11.0282
▁56	-11.0282
iger	-11.0283
アメリカ	-11.0283
స	-11.0286
ää	-11.0286
OL	-11.0286
▁upon	-11.0286
▁apenas	-11.0287
its	-11.0289
▁Stati	-11.0289
▁artist	-11.029
ർ	-11.0292
▁Mari	-11.0292
▁sammen	-11.0293
▁tarihi	-11.0293
uff	-11.0293
مر	-11.0295
ката	-11.0295
▁Web	-11.0296
▁Series	-11.0297
▁giugno	-11.0297
▁Ram	-11.0299
▁Columbia	-11.0299
물	-11.0299
▁features	-11.03
▁Се	-11.03
▁pay	-11.0301
▁tip	-11.0301
▁Ok	-11.0302
▁wieku	-11.0302
▁rep	-11.0303
▁acc	-11.0303
mic	-11.0304
▁Many	-11.0304
▁producer	-11.0304
▁Nobel	-11.0306
ór	-11.0306
活動	-11.0311
▁Ces	-11.0311
ors	-11.0317
▁net	-11.0319
ám	-11.0319
يت	-11.0321
▁Front	-11.0323
支	-11.0324
дж	-11.0328
ख	-11.0329
ै	-11.033
▁ப	-11.0331
▁ziren	-11.0332
▁bot	-11.0332
יק	-11.0333
law	-11.0335
▁закон	-11.0336
ත්	-11.0337
ific	-11.0337
회	-11.0337
voj	-11.0339
▁شهر	-11.034
▁Giovanni	-11.0342
▁2:	-11.0342
tól	-11.0342
▁일	-11.0343
ew	-11.0343
▁br	-11.0346
לי	-11.0346
▁autre	-11.0347
▁otro	-11.0347
lerin	-11.0348
質	-11.0351
▁sense	-11.0351
itas	-11.0352
ез	-11.0352
▁yra	-11.0352
▁född	-11.0353
▁designed	-11.036
ër	-11.036
▁Era	-11.0361
ග	-11.0363
том	-11.0363
▁mois	-11.0364
ред	-11.0364
▁право	-11.0367
▁mondo	-11.0368
▁exist	-11.037
▁которых	-11.037
нес	-11.037
mission	-11.0374
ορ	-11.0375
▁medal	-11.0376
bud	-11.0379
urs	-11.038
▁район	-11.0384
▁kwam	-11.0387
rina	-11.0387
▁drama	-11.0388
act	-11.0388
non	-11.0389
▁στον	-11.0389
ـ	-11.0389
Ш	-11.039
▁área	-11.0392
owany	-11.0392
▁Ek	-11.0392
jel	-11.0395
▁Year	-11.0398
рус	-11.0399
공	-11.0399
có	-11.0403
▁proces	-11.0403
istes	-11.0405
▁spo	-11.0405
öl	-11.0405
ир	-11.0406
▁movement	-11.0408
▁act	-11.0408
られる	-11.0409
▁Cro	-11.041
▁source	-11.041
يس	-11.041
父	-11.041
▁eventually	-11.0411
▁hacia	-11.0411
▁já	-11.0411
▁Ε	-11.0413
Est	-11.0414
ница	-11.0414
▁fils	-11.0414
ек	-11.0415
▁орган	-11.0415
▁Henri	-11.0416
▁Victoria	-11.0416
ø	-11.0421
▁segle	-11.0421
▁1897	-11.0422
▁science	-11.0422
ggi	-11.0423
гон	-11.0423
▁internet	-11.0425
▁Ser	-11.0425
▁Ky	-11.0428
▁collection	-11.0429
群	-11.0429
造	-11.0431
▁성	-11.0431
▁ещё	-11.0431
ajn	-11.0434
▁eu	-11.0438
▁thực	-11.0439
▁formation	-11.044
▁neue	-11.044
▁Franc	-11.0441
▁Kinder	-11.0441
▁papel	-11.0442
▁musik	-11.0443
▁cuộc	-11.0444
тур	-11.0444
▁개	-11.0445
広	-11.0446
ками	-11.0448
وف	-11.0448
kker	-11.0449
▁바	-11.0451
slag	-11.0453
▁1896	-11.0453
rica	-11.0454
▁Marine	-11.0454
▁đồng	-11.0454
фр	-11.0455
▁μια	-11.0457
▁Jar	-11.0457
▁magazine	-11.0459
▁сентября	-11.046
)}	-11.0461
vio	-11.0468
лан	-11.0469
▁distribu	-11.0472
ča	-11.0472
▁songs	-11.0475
▁seven	-11.0476
吉	-11.0477
▁gemeente	-11.0477
▁Official	-11.0481
토	-11.0481
▁Amsterdam	-11.0484
minister	-11.0485
▁película	-11.0486
▁선	-11.0487
則	-11.0487
▁Staats	-11.0488
dic	-11.0488
推	-11.0488
▁Bij	-11.0489
ده	-11.0492
▁sí	-11.0493
டு	-11.0493
▁poz	-11.0494
zik	-11.0495
▁Non	-11.0498
▁hard	-11.0498
odi	-11.0498
周	-11.0502
бра	-11.0504
▁Wie	-11.0504
▁nä	-11.0505
gues	-11.0505
▁Burg	-11.0508
▁nouvelle	-11.0508
▁которая	-11.0509
pit	-11.051
press	-11.0512
▁Кар	-11.0514
kul	-11.0516
▁(11	-11.0516
▁sinh	-11.0517
ага	-11.0517
▁وأ	-11.0517
▁settembre	-11.0517
▁stati	-11.0519
▁numero	-11.0519
▁γ	-11.052
клад	-11.0522
वा	-11.0523
▁soll	-11.0526
▁east	-11.0526
▁ε	-11.0526
rem	-11.0527
▁ry	-11.0528
▁cent	-11.0529
ον	-11.0529
▁muito	-11.053
άρ	-11.053
300	-11.053
▁ibabaw	-11.0532
ać	-11.0533
сел	-11.0534
}\	-11.0535
tsu	-11.0535
県	-11.0536
ppe	-11.0538
bank	-11.0539
-11	-11.0539
യ	-11.0539
ә	-11.054
▁basis	-11.0541
▁Га	-11.0542
2%	-11.0542
від	-11.0543
▁entra	-11.0543
φ	-11.0543
cra	-11.0544
▁concert	-11.0549
▁Vel	-11.055
bot	-11.0552
▁otras	-11.0552
▁govern	-11.0553
роб	-11.0554
tif	-11.0554
▁3-	-11.0554
▁período	-11.0558
ative	-11.0558
八	-11.056
Ver	-11.056
▁allem	-11.0564
▁origin	-11.0564
bed	-11.0565
▁étaient	-11.0567
▁Iz	-11.0567
▁eigen	-11.057
▁εξ	-11.057
存在	-11.0571
▁সালে	-11.0576
origine	-11.0577
IC	-11.0578
決	-11.0579
zem	-11.058
▁мо	-11.0581
▁trouve	-11.0581
▁august	-11.0582
▁Bundes	-11.0583
▁Japon	-11.0583
▁وی	-11.0585
σ	-11.0586
▁lungsod	-11.0589
▁ole	-11.0593
3%	-11.0593
ין	-11.0597
▁Sor	-11.0597
▁tutti	-11.0599
百	-11.0602
জ	-11.0607
eerde	-11.0607
ポ	-11.0607
תי	-11.0608
▁specific	-11.0608
▁domin	-11.0609
▁Reich	-11.0611
ční	-11.0611
▁bahwa	-11.0611
eket	-11.0619
től	-11.062
▁Mir	-11.0621
▁октября	-11.0622
bile	-11.0622
▁membre	-11.0622
ీ	-11.0622
▁einige	-11.0623
ров	-11.0623
业	-11.0624
skom	-11.0627
▁education	-11.0628
走	-11.063
▁lange	-11.0632
ська	-11.0636
мор	-11.0636
典	-11.0637
aca	-11.0637
▁road	-11.064
uit	-11.064
dri	-11.064
装	-11.0641
▁команд	-11.0641
▁nature	-11.0644
▁Director	-11.0645
▁negli	-11.0646
aires	-11.0647
ović	-11.0647
ட	-11.0649
▁stagione	-11.065
יי	-11.065
eko	-11.0654
۱	-11.0654
▁pueden	-11.0654
▁replaced	-11.0654
▁Oxford	-11.0655
ських	-11.0655
留	-11.0656
øy	-11.0656
èr	-11.0659
▁currently	-11.066
▁ст	-11.0661
esi	-11.0663
▁così	-11.0663
▁Stan	-11.0663
isse	-11.0665
▁alto	-11.0665
▁politik	-11.0665
onia	-11.0666
▁pres	-11.0666
čí	-11.0666
▁Christ	-11.0667
▁mientras	-11.0667
▁Fox	-11.0667
hus	-11.0667
-14	-11.0667
אר	-11.0668
ας	-11.0669
Vi	-11.0669
ση	-11.0671
크	-11.0672
▁maa	-11.0676
▁luglio	-11.0682
▁canal	-11.0682
▁Мо	-11.0684
ttiin	-11.0685
▁1899	-11.0686
▁Alex	-11.0686
%	-11.0687
▁EP	-11.0687
يل	-11.0691
▁varios	-11.0691
▁completed	-11.0694
iji	-11.0695
▁해	-11.0704
▁termine	-11.0705
bl	-11.0706
▁která	-11.0708
今	-11.0709
▁стар	-11.0709
▁δεν	-11.0712
ș	-11.0715
ホ	-11.0717
kos	-11.0718
▁Ме	-11.0721
മ	-11.0721
▁ilk	-11.0723
▁باشد	-11.0723
▁Ant	-11.0724
행	-11.0725
▁kop	-11.0727
▁ह	-11.0728
aro	-11.073
十	-11.0731
▁kre	-11.0731
ným	-11.0734
▁século	-11.0734
▁января	-11.0736
▁למ	-11.074
MA	-11.0741
▁5,	-11.0742
▁مت	-11.0745
▁hotel	-11.0746
▁río	-11.0748
▁Stephen	-11.0749
ция	-11.0749
▁Pin	-11.075
۷	-11.0753
нем	-11.0755
ones	-11.0757
▁Corporation	-11.0758
מה	-11.0758
▁celle	-11.0767
▁Finland	-11.0768
▁июля	-11.0768
▁Airport	-11.077
ස්	-11.077
▁الس	-11.077
eller	-11.0772
▁få	-11.0772
▁ensuite	-11.0777
▁Come	-11.0779
▁Lin	-11.0779
cı	-11.0781
▁principalmente	-11.0781
▁aj	-11.0782
▁İ	-11.0783
lek	-11.0783
מי	-11.0784
▁också	-11.0786
▁Quốc	-11.0786
▁see	-11.0786
▁Ра	-11.0787
▁Bas	-11.079
季	-11.079
▁ring	-11.0791
iens	-11.0791
▁zij	-11.0791
▁rival	-11.0791
erade	-11.0796
▁wegen	-11.0796
۴	-11.0799
야	-11.08
lık	-11.08
▁Major	-11.0802
▁bra	-11.0803
▁своей	-11.0803
▁Hong	-11.0804
▁década	-11.0805
▁altres	-11.0805
▁Network	-11.0806
▁spin	-11.0806
▁క	-11.0807
bahn	-11.0807
▁كل	-11.0808
rot	-11.0809
▁baş	-11.081
▁무	-11.081
ivi	-11.0811
▁consider	-11.0812
klad	-11.0812
ço	-11.0813
▁cả	-11.0816
▁center	-11.0817
ienne	-11.0817
▁estava	-11.0819
▁bekend	-11.082
▁osob	-11.0821
ють	-11.0821
▁dernier	-11.0821
dam	-11.0822
▁Dun	-11.0822
▁sens	-11.0823
▁lớn	-11.0823
▁cinco	-11.0824
ských	-11.0824
羅	-11.0825
▁miejsce	-11.0826
ních	-11.0828
▁Internacional	-11.0828
▁internationale	-11.0829
ము	-11.083
▁após	-11.0831
pul	-11.0832
فت	-11.0833
▁الش	-11.084
▁México	-11.084
вал	-11.0842
иот	-11.0844
▁Good	-11.0844
три	-11.0845
▁originally	-11.0846
▁Taylor	-11.0847
»)	-11.0847
▁visit	-11.0848
▁folk	-11.0848
▁persona	-11.085
cchi	-11.085
▁있는	-11.085
▁territorio	-11.0851
▁dicembre	-11.0851
alo	-11.0852
tische	-11.0853
▁Desde	-11.0853
▁57	-11.0856
組	-11.0856
▁часть	-11.0856
τε	-11.0856
▁saat	-11.086
ια	-11.086
cen	-11.0861
عة	-11.0861
▁Durch	-11.0865
▁Fil	-11.087
▁eeuw	-11.0873
▁considera	-11.0874
▁almost	-11.0875
▁países	-11.0876
▁président	-11.0877
▁Professor	-11.0878
▁vật	-11.0879
▁чи	-11.0881
▁вер	-11.0882
pie	-11.0884
▁भ	-11.0885
▁bli	-11.0887
colo	-11.0887
wor	-11.0887
▁fog	-11.0888
▁Bru	-11.0889
氏	-11.0891
ذ	-11.0892
rk	-11.0893
чу	-11.0894
▁means	-11.0895
▁dio	-11.0897
arte	-11.0898
2010	-11.09
▁above	-11.0904
深	-11.0904
▁gewann	-11.0904
اع	-11.0905
▁fond	-11.0905
▁XIII	-11.0906
▁Joan	-11.0906
▁độ	-11.0909
kke	-11.091
ars	-11.091
▁pass	-11.0912
ának	-11.0913
なかった	-11.0913
spor	-11.092
▁consultato	-11.0921
▁mostra	-11.0922
elijke	-11.0923
▁ме	-11.0923
ద	-11.0926
stri	-11.0927
stin	-11.0929
▁других	-11.0929
▁market	-11.093
運	-11.093
▁XV	-11.0932
▁diversos	-11.0932
▁حيث	-11.0935
▁Jim	-11.0939
▁Ook	-11.0939
▁aunque	-11.094
▁Hollywood	-11.094
dd	-11.0941
mol	-11.0942
▁пра	-11.0945
▁label	-11.0947
jat	-11.0947
▁Während	-11.0947
文化	-11.0947
張	-11.0949
▁Tai	-11.095
▁1895	-11.0952
dienst	-11.0952
pun	-11.0952
shire	-11.0953
▁Bri	-11.0953
ать	-11.0953
▁hen	-11.0955
▁הס	-11.0956
▁rend	-11.0956
ول	-11.0956
▁Kir	-11.0957
▁sexual	-11.0957
▁nieuwe	-11.0958
তা	-11.0959
▁31.	-11.0961
его	-11.0962
spe	-11.0964
▁week	-11.0965
▁letech	-11.0966
dale	-11.0967
nh	-11.0968
▁быть	-11.0969
段	-11.097
▁është	-11.097
cur	-11.0971
▁pont	-11.0973
年には	-11.0973
ύ	-11.0974
アン	-11.0975
rí	-11.0978
owie	-11.0979
mond	-11.098
▁декабря	-11.0981
ick	-11.0983
▁Mount	-11.0984
▁VIII	-11.0984
▁orang	-11.0985
▁alguns	-11.0986
▁liga	-11.0986
ış	-11.0987
越	-11.099
▁участие	-11.099
▁inform	-11.0994
▁ancora	-11.0994
破	-11.0995
اه	-11.0995
▁Motor	-11.0995
▁Wood	-11.0997
pla	-11.0997
וני	-11.0998
লি	-11.0998
▁ग	-11.0998
gut	-11.1
δ	-11.1
映画	-11.1
▁tên	-11.1001
▁Лу	-11.1003
▁שנ	-11.1004
末	-11.1006
▁classe	-11.1007
▁ese	-11.1009
ular	-11.101
▁Ty	-11.101
▁quindi	-11.101
llä	-11.101
▁cách	-11.1014
histoire	-11.1017
nji	-11.1017
schi	-11.1017
lü	-11.1022
hol	-11.1022
▁continue	-11.1023
▁мира	-11.1025
▁κατά	-11.1026
িক	-11.1027
ují	-11.1029
▁reached	-11.103
▁nahm	-11.103
▁Stone	-11.1031
istic	-11.1032
▁проект	-11.1035
aciones	-11.1036
▁Leben	-11.1037
にある	-11.1037
▁jedno	-11.1037
owski	-11.1037
now	-11.104
ias	-11.1042
密	-11.1044
gé	-11.1048
▁planet	-11.1049
ție	-11.105
▁gegründet	-11.105
út	-11.1052
Ne	-11.1052
ší	-11.1052
ור	-11.1054
画	-11.1056
ピ	-11.1056
收	-11.1057
▁Heinrich	-11.1059
▁gebruikt	-11.1061
▁involved	-11.1061
▁다	-11.1061
▁XIV	-11.1062
又	-11.1064
▁Yo	-11.1064
▁יש	-11.1068
들	-11.1069
ích	-11.107
ував	-11.107
▁मा	-11.1071
▁effect	-11.1071
▁ainda	-11.1073
▁మరియు	-11.1073
▁training	-11.1074
▁trop	-11.1074
Ka	-11.1074
ствен	-11.1077
ის	-11.1079
▁bet	-11.1079
わ	-11.1079
▁obras	-11.108
▁Premio	-11.1082
ート	-11.1083
ക	-11.1085
▁ще	-11.1087
▁1860	-11.1088
▁сред	-11.1088
вин	-11.1088
▁werk	-11.1092
▁française	-11.1094
▁оста	-11.11
▁premi	-11.1104
stone	-11.1108
▁favor	-11.1109
▁Ac	-11.111
ên	-11.1111
▁пол	-11.1113
▁trở	-11.1113
▁Arm	-11.1115
ஸ்	-11.1115
▁ان	-11.1115
udi	-11.1116
чі	-11.1116
cke	-11.1117
শ	-11.1118
公司	-11.1118
▁eight	-11.1119
▁regi	-11.112
▁doit	-11.1122
権	-11.1123
▁Ми	-11.1125
▁ground	-11.1127
ते	-11.1127
▁sou	-11.113
▁ella	-11.1134
予	-11.1134
мат	-11.1134
▁Sohn	-11.1135
▁د	-11.1136
nova	-11.1138
▁bởi	-11.1138
▁воз	-11.1138
ța	-11.1138
্যা	-11.1138
▁Frei	-11.1139
▁била	-11.114
▁spor	-11.114
▁июня	-11.1145
▁Ré	-11.1145
▁СССР	-11.1145
▁альбом	-11.1146
▁ac	-11.1146
num	-11.1147
▁város	-11.1147
ో	-11.1147
▁itself	-11.1148
容	-11.1151
▁їх	-11.1151
▁Ž	-11.1152
ству	-11.1154
ною	-11.1156
So	-11.1157
▁cop	-11.1157
▁nor	-11.1158
lina	-11.1159
▁Gabriel	-11.1162
dr	-11.1162
▁Wahl	-11.1163
opera	-11.1164
ா	-11.1165
▁бил	-11.1166
▁introduced	-11.1169
▁Это	-11.1169
park	-11.1169
▁último	-11.1173
▁majd	-11.1173
▁Marc	-11.1173
▁jeden	-11.1174
chten	-11.1174
部分	-11.1174
▁rat	-11.1174
õ	-11.1175
spiel	-11.1176
▁Wi	-11.1177
▁minor	-11.1178
▁كانت	-11.1178
esti	-11.1179
▁male	-11.1181
▁Ul	-11.1183
动	-11.1185
kte	-11.1188
nyt	-11.1188
▁ח	-11.1189
▁që	-11.1191
號	-11.1192
▁coach	-11.1192
гар	-11.1195
▁세	-11.1196
lom	-11.1197
ს	-11.1197
straße	-11.1197
ரி	-11.1198
▁ему	-11.1198
stva	-11.12
ља	-11.1201
вы	-11.1201
▁skal	-11.1203
▁Elizabeth	-11.1207
▁(9	-11.1207
▁ami	-11.1209
igu	-11.1209
hem	-11.121
▁lado	-11.1213
▁termina	-11.1214
▁king	-11.1215
▁PC	-11.1216
▁Order	-11.1216
▁letter	-11.1217
▁Kap	-11.1218
▁alcuni	-11.1219
▁giới	-11.122
▁ogni	-11.1222
gus	-11.1224
▁verso	-11.1225
▁teams	-11.1227
▁seconda	-11.1228
ового	-11.1229
▁Dutch	-11.123
▁train	-11.123
▁gdzie	-11.123
▁Efter	-11.1233
▁signal	-11.1233
asa	-11.1236
скую	-11.1239
▁מי	-11.1239
▁fand	-11.1239
▁قد	-11.1241
▁Res	-11.1242
레	-11.1243
cija	-11.1244
▁Ivan	-11.1244
ość	-11.1245
çi	-11.1246
7%	-11.1247
▁még	-11.1248
▁voir	-11.1249
▁rather	-11.1249
▁quanto	-11.1249
▁kahabog	-11.1249
ප	-11.125
فر	-11.125
wing	-11.125
▁качестве	-11.1254
▁shows	-11.1254
text	-11.1255
▁père	-11.1256
▁François	-11.1256
under	-11.1258
hm	-11.1261
лася	-11.1268
▁bé	-11.1268
גו	-11.1271
▁Ye	-11.1272
▁kind	-11.1274
mise	-11.1275
▁costa	-11.1276
▁lei	-11.1277
▁mari	-11.1277
scher	-11.1278
teen	-11.1278
▁sedan	-11.128
iĝis	-11.128
ával	-11.128
▁carrera	-11.1281
▁especially	-11.1281
▁Alt	-11.1282
第一	-11.1283
ീ	-11.1283
▁rights	-11.1284
▁rằng	-11.1286
знач	-11.1291
ən	-11.1291
лом	-11.1293
яз	-11.1294
▁φ	-11.1296
▁58	-11.1297
▁internacional	-11.1298
ात	-11.1299
▁concept	-11.13
kken	-11.13
▁апреля	-11.1302
▁sama	-11.1304
▁lands	-11.1304
▁need	-11.1304
千	-11.1306
便	-11.1306
▁vị	-11.1306
▁software	-11.1307
劇	-11.1308
▁afin	-11.1311
équipe	-11.1311
▁Chart	-11.1311
MS	-11.1312
▁nhưng	-11.1313
▁figure	-11.1315
▁editor	-11.1317
▁sob	-11.1319
경	-11.132
▁XII	-11.132
▁rit	-11.1321
SA	-11.1321
New	-11.1322
увати	-11.1323
vä	-11.1324
ए	-11.1325
▁komp	-11.1326
▁direkt	-11.1329
티	-11.1331
学校	-11.1335
▁Eric	-11.1336
▁campaign	-11.1336
▁sometimes	-11.1338
▁نیز	-11.1341
▁Light	-11.1341
DA	-11.1343
eder	-11.1344
ა	-11.1348
▁spielte	-11.135
▁estilo	-11.1351
▁Virginia	-11.1352
ヴィ	-11.1356
▁Cas	-11.1358
▁stat	-11.1359
▁чем	-11.136
▁memiliki	-11.1361
▁Pakistan	-11.1361
▁zunächst	-11.1362
orum	-11.1362
lum	-11.1363
▁Project	-11.1364
drag	-11.1364
▁respect	-11.1365
▁nuo	-11.1365
▁Vin	-11.1366
Co	-11.1367
AS	-11.1367
lingen	-11.1368
▁trova	-11.1369
оч	-11.1369
▁Michel	-11.1371
600	-11.1371
▁Egypt	-11.1377
▁1998.	-11.1377
gos	-11.1379
▁Sto	-11.138
▁phần	-11.1382
▁profesor	-11.1383
▁bin	-11.1383
▁mehrere	-11.1384
▁partner	-11.1384
▁України	-11.1387
马	-11.1389
ția	-11.1391
▁Wild	-11.1392
lut	-11.1393
yt	-11.1393
▁sea	-11.1394
▁oko	-11.1394
角	-11.1395
▁Town	-11.1395
water	-11.1398
▁فر	-11.14
נית	-11.14
▁genre	-11.1401
اس	-11.1402
存	-11.1405
▁nombreux	-11.1409
▁которой	-11.141
教育	-11.141
▁Theater	-11.141
▁sector	-11.1411
lec	-11.1412
▁wenn	-11.1412
▁novembro	-11.1412
▁Ро	-11.1413
▁bằng	-11.1413
▁find	-11.1413
рон	-11.1413
队	-11.1414
▁plat	-11.1416
Pa	-11.1417
▁decided	-11.1418
▁firma	-11.1418
født	-11.1419
根	-11.1419
▁Ut	-11.142
▁schon	-11.142
▁población	-11.1421
▁ebenfalls	-11.1422
4%	-11.143
▁Kat	-11.143
▁dapat	-11.1431
▁kort	-11.1431
lier	-11.1433
▁син	-11.1433
uto	-11.1434
ight	-11.1435
▁ministre	-11.1435
▁бел	-11.1435
터	-11.1436
교	-11.1437
国家	-11.144
hon	-11.1441
▁Cross	-11.1441
已	-11.1444
▁quella	-11.1444
▁conta	-11.1445
館	-11.1446
ory	-11.1448
▁carrière	-11.1448
каз	-11.1449
▁ஆ	-11.145
්	-11.145
▁הק	-11.145
iksi	-11.1451
uel	-11.1453
▁Ireland	-11.1454
edi	-11.1454
▁ottobre	-11.1455
▁invånare	-11.1456
▁Wilson	-11.1458
ización	-11.1458
において	-11.1461
▁gel	-11.1461
cida	-11.1461
▁beginning	-11.1462
▁toimi	-11.1462
אל	-11.1463
▁toda	-11.1464
▁Tony	-11.1466
▁mellan	-11.1466
▁tijden	-11.1466
▁pola	-11.1468
▁szerint	-11.1469
▁cara	-11.147
▁Stockholm	-11.1471
▁tuli	-11.1471
ැ	-11.1472
▁قرار	-11.1472
ға	-11.1472
eu	-11.1472
▁ph	-11.1473
лад	-11.1475
ders	-11.1475
ந்த	-11.1475
▁sue	-11.1476
▁reg	-11.1477
降	-11.1477
兩	-11.1478
▁includes	-11.1479
▁Pur	-11.1479
▁motiv	-11.1479
▁khu	-11.1481
▁kas	-11.1481
▁Rec	-11.1482
▁genera	-11.1482
▁1999,	-11.1485
ible	-11.1486
ений	-11.1488
از	-11.1489
lega	-11.1489
र्	-11.1491
▁jour	-11.1492
▁minutes	-11.1494
ே	-11.1494
▁edition	-11.1495
buch	-11.1496
ации	-11.1496
mod	-11.1498
▁või	-11.1498
kki	-11.1498
yer	-11.1499
▁experiment	-11.1499
える	-11.15
もの	-11.15
宮	-11.15
αρ	-11.1502
▁souvent	-11.1503
▁playing	-11.1503
▁tự	-11.1504
▁successful	-11.1505
▁gobierno	-11.1505
▁לו	-11.1506
▁estar	-11.1507
▁Kh	-11.1508
▁awarded	-11.1508
▁urban	-11.1509
cis	-11.1511
"),	-11.1511
▁erst	-11.1511
업	-11.1512
▁Merc	-11.1512
▁reported	-11.1513
сен	-11.1514
▁1848	-11.1515
▁zna	-11.1518
ර්	-11.1518
類	-11.1519
чин	-11.1519
▁Lind	-11.152
hang	-11.1521
έρ	-11.1521
ned	-11.1522
мин	-11.1524
▁구	-11.1524
▁sign	-11.1525
▁largo	-11.1527
্য	-11.1528
▁Aires	-11.1528
▁död	-11.1528
▁Golden	-11.1529
yon	-11.1529
▁তিনি	-11.1531
▁fly	-11.1531
డి	-11.1532
できる	-11.1533
▁Costa	-11.1533
▁fit	-11.1533
除	-11.1534
тел	-11.1537
▁vista	-11.1538
lain	-11.1539
רי	-11.1539
▁inspir	-11.1542
▁도	-11.1542
▁centrale	-11.1543
۰	-11.1543
▁Historia	-11.1543
▁près	-11.1544
8%	-11.1546
▁هر	-11.1546
▁thị	-11.1547
▁maja	-11.1547
▁phải	-11.1547
▁Rot	-11.1549
▁ноября	-11.155
▁américain	-11.1551
▁Бел	-11.1552
▁بن	-11.1552
ktor	-11.1552
alis	-11.1552
东	-11.1552
▁fick	-11.1552
▁бар	-11.1553
▁só	-11.1556
juk	-11.1557
▁đội	-11.1558
ーン	-11.1558
sso	-11.156
▁Steve	-11.1562
vät	-11.1562
ität	-11.1563
▁Davis	-11.1563
ossa	-11.1564
غ	-11.1564
▁상	-11.1565
hel	-11.1565
rav	-11.1566
▁inn	-11.1567
▁Tras	-11.1568
▁প	-11.1568
▁장	-11.1569
▁board	-11.157
▁одним	-11.1572
لو	-11.1573
▁bland	-11.1574
пе	-11.1577
亚	-11.1577
▁weiter	-11.1578
▁Hotel	-11.1579
ston	-11.158
▁š	-11.158
▁Georg	-11.1582
▁parents	-11.1582
▁revista	-11.1587
ё	-11.1587
▁Shin	-11.1587
wald	-11.1588
eria	-11.1588
▁(8	-11.1589
▁corpo	-11.159
▁sh	-11.1592
-13	-11.1592
ání	-11.1592
▁samen	-11.1593
▁blir	-11.1593
ött	-11.1594
app	-11.1595
场	-11.1597
Car	-11.1598
可能	-11.1598
収	-11.1598
▁formal	-11.1602
▁hely	-11.1602
otta	-11.1603
月に	-11.1603
▁kunnen	-11.1605
▁existe	-11.1606
teri	-11.1606
▁त	-11.1606
▁1889	-11.1606
skiego	-11.1608
▁proti	-11.1609
▁lập	-11.1611
▁hợp	-11.1611
▁quello	-11.1612
然	-11.1612
▁1500	-11.1612
iers	-11.1612
▁siendo	-11.1613
▁conditions	-11.1613
▁oma	-11.1616
▁partido	-11.1617
tto	-11.1618
6%	-11.1618
mot	-11.1618
▁এই	-11.1618
▁denne	-11.1619
É	-11.1619
PS	-11.162
▁neuen	-11.1622
ελ	-11.1622
۶	-11.1622
зна	-11.1626
chu	-11.1626
▁Roger	-11.1631
▁nakon	-11.1632
nor	-11.1632
프	-11.1635
▁év	-11.1636
▁Sk	-11.1637
ére	-11.1637
▁Back	-11.1638
▁الن	-11.164
▁Cra	-11.1641
sus	-11.1642
▁petit	-11.1643
當	-11.1646
▁Nederland	-11.1646
▁future	-11.1647
ează	-11.1648
려	-11.1649
▁labor	-11.165
▁moral	-11.165
▁72	-11.1651
▁годы	-11.1651
ど	-11.1651
▁dette	-11.1652
▁7,	-11.1652
ijn	-11.1654
▁situation	-11.1654
uck	-11.1655
導	-11.1655
▁הם	-11.1656
לה	-11.1657
olog	-11.1658
▁reste	-11.1658
▁אשר	-11.1658
ían	-11.1659
▁ר	-11.166
tien	-11.1661
▁Pel	-11.1662
▁Machine	-11.1662
▁teil	-11.1662
▁Reino	-11.1662
▁score	-11.1664
▁Summer	-11.1664
▁fő	-11.1664
ғы	-11.1665
從	-11.1665
▁museum	-11.1666
▁moderne	-11.1668
▁bon	-11.1669
▁mejor	-11.1669
▁systems	-11.167
▁první	-11.167
▁gre	-11.1672
▁aŭ	-11.1672
屋	-11.1672
▁individu	-11.1673
serv	-11.1673
table	-11.1673
وي	-11.1673
▁rôle	-11.1675
▁есть	-11.1676
▁cit	-11.1677
лог	-11.1677
▁aantal	-11.1677
bul	-11.1678
ası	-11.1678
▁Sil	-11.1681
消	-11.1682
▁deutschen	-11.1684
战	-11.1684
▁febbraio	-11.1685
▁метод	-11.1685
ña	-11.1685
▁contribu	-11.1686
▁ص	-11.1687
gger	-11.1688
מים	-11.1688
pra	-11.1692
▁Sports	-11.1692
▁Ж	-11.1693
Com	-11.1694
▁Vuonn	-11.1695
▁leading	-11.1697
▁gro	-11.1697
▁ту	-11.1697
Ta	-11.1697
ある	-11.1698
▁conflict	-11.1699
▁Brand	-11.17
整	-11.1701
▁log	-11.1701
▁kwa	-11.1702
▁Foundation	-11.1704
▁brand	-11.1705
▁samhälle	-11.1706
▁Now	-11.1707
ejo	-11.1709
дел	-11.171
▁restaur	-11.171
נות	-11.1712
▁setembro	-11.1713
英語版	-11.1714
▁години	-11.1714
ര	-11.1716
▁author	-11.1716
▁import	-11.1716
章	-11.1718
эн	-11.1718
投	-11.1719
▁Mos	-11.1721
▁cuatro	-11.1725
inta	-11.1725
▁(„	-11.1725
ld	-11.1726
▁Kre	-11.1727
cional	-11.1727
ické	-11.173
▁Ring	-11.1732
實	-11.1732
тор	-11.1732
תה	-11.1733
▁debido	-11.1733
伝	-11.1734
थ	-11.1735
▁59	-11.1736
▁себе	-11.174
▁ingår	-11.1743
운	-11.1746
개	-11.1747
▁Nueva	-11.1747
▁Who	-11.1747
▁große	-11.175
▁ком	-11.1751
▁미	-11.1751
▁1893	-11.1751
▁sala	-11.1752
▁cover	-11.1752
▁significant	-11.1752
▁Ash	-11.1752
▁స	-11.1754
▁kui	-11.1754
간	-11.1755
pper	-11.1757
rent	-11.1757
▁jazz	-11.1758
▁среди	-11.1758
▁Trong	-11.1758
▁700	-11.1758
付	-11.176
▁Dra	-11.1761
▁εν	-11.1762
▁prend	-11.1762
Po	-11.1763
▁januar	-11.1763
▁Jacob	-11.1764
dol	-11.1765
nun	-11.1765
мы	-11.1766
tě	-11.1766
▁mezi	-11.1771
▁bro	-11.1771
usi	-11.1771
fil	-11.1772
▁Lady	-11.1772
атор	-11.1774
lock	-11.1775
kap	-11.1775
۲	-11.1776
▁Sy	-11.1778
fec	-11.1778
▁cao	-11.178
▁verwendet	-11.1783
Sch	-11.1785
▁kinad	-11.1785
▁König	-11.1785
Jo	-11.1787
▁Cast	-11.1787
pil	-11.1788
ペ	-11.1789
fal	-11.179
дов	-11.179
വ	-11.1791
▁др	-11.1791
ики	-11.1793
▁суд	-11.1795
考	-11.1795
▁اند	-11.1796
攻	-11.1797
▁Після	-11.1797
ො	-11.1799
sled	-11.1801
事件	-11.1802
Ba	-11.1802
▁don	-11.1803
▁Fire	-11.1805
▁tako	-11.1805
▁62	-11.1808
▁č	-11.1808
▁Lewis	-11.1811
platz	-11.1812
▁63	-11.1812
江	-11.1814
▁1894	-11.1815
नी	-11.1816
▁servi	-11.182
дав	-11.182
▁num	-11.1824
▁thống	-11.1826
▁Vietnam	-11.1827
ając	-11.1828
sión	-11.1828
志	-11.1828
▁lượng	-11.1828
gur	-11.1831
▁forte	-11.1836
▁Ils	-11.1838
▁empresa	-11.1839
々	-11.1839
▁Dio	-11.184
▁added	-11.1841
ирован	-11.1841
▁Islam	-11.185
說	-11.185
▁books	-11.1851
▁porte	-11.1854
cken	-11.1855
▁Ор	-11.1855
▁Norte	-11.1857
ток	-11.186
▁Erişim	-11.186
▁food	-11.1861
গ	-11.1864
ө	-11.1865
▁66	-11.1866
종	-11.1866
ální	-11.1867
▁Сам	-11.1868
owania	-11.1871
持	-11.1872
▁Comp	-11.1872
kl	-11.1873
▁société	-11.1874
slav	-11.1877
▁ම	-11.1877
▁Fri	-11.1877
▁typ	-11.188
2011	-11.188
這	-11.188
堂	-11.188
liv	-11.188
▁كما	-11.1881
▁też	-11.1882
▁Volks	-11.1882
▁الر	-11.1882
▁move	-11.1883
▁всех	-11.1883
▁ante	-11.1883
ово	-11.1884
ワ	-11.1884
年から	-11.1885
▁Vis	-11.1886
雷	-11.1886
▁Pass	-11.1887
ното	-11.1887
▁bru	-11.189
▁Cruz	-11.1892
▁soon	-11.1892
んだ	-11.1893
▁recent	-11.1894
▁nije	-11.1894
hall	-11.1895
▁rap	-11.1895
station	-11.1897
ulo	-11.1898
从	-11.1899
▁foto	-11.1903
west	-11.1904
▁tiên	-11.1904
역	-11.1905
dunay	-11.1906
히	-11.1906
▁1892	-11.191
▁Рим	-11.1912
▁Wales	-11.1912
松	-11.1916
▁Су	-11.1916
▁flo	-11.1918
▁Are	-11.1921
▁себя	-11.1921
▁conocido	-11.1921
▁הע	-11.1921
ירה	-11.1923
▁comercial	-11.1923
▁Ри	-11.1923
▁gift	-11.1925
▁जो	-11.1926
루	-11.1927
側	-11.1929
بي	-11.193
uso	-11.193
▁Hol	-11.1932
name	-11.1933
▁primi	-11.1934
ева	-11.1935
ட்ட	-11.1937
▁Однако	-11.1938
▁Οι	-11.194
atie	-11.194
miento	-11.1941
ார்	-11.1942
▁הפ	-11.1944
lama	-11.1945
모	-11.1946
न्	-11.1949
▁EU	-11.1949
▁गया	-11.195
dit	-11.1951
ιστ	-11.1951
ников	-11.1951
▁однако	-11.1953
▁mange	-11.1953
ෙ	-11.1954
▁അ	-11.1954
▁brought	-11.1955
▁1991.	-11.1956
system	-11.1957
ison	-11.1957
▁superficie	-11.1957
▁année	-11.1958
rri	-11.1958
▁Phil	-11.1959
▁αν	-11.196
kami	-11.196
gh	-11.1961
ούς	-11.1962
▁here	-11.1962
▁terre	-11.1962
塔	-11.1965
▁fo	-11.1965
シュ	-11.1965
ussa	-11.1965
▁Gebäude	-11.1967
λε	-11.1968
▁Bridge	-11.1972
▁Pacific	-11.1973
ję	-11.1974
ίες	-11.1976
▁seen	-11.1976
▁baz	-11.1976
▁daha	-11.1977
▁Các	-11.1978
graf	-11.198
оп	-11.1981
יר	-11.1981
nder	-11.1981
ière	-11.1982
件	-11.1984
skiej	-11.1984
昭和	-11.1987
▁UN	-11.1987
▁Republik	-11.1988
eniu	-11.1991
يف	-11.1992
▁код	-11.1994
riz	-11.1994
▁nivel	-11.1994
那	-11.1994
▁февраля	-11.1996
Art	-11.2
▁ere	-11.2
ieron	-11.2001
▁publik	-11.2001
nega	-11.2002
切	-11.2002
▁singer	-11.2003
▁child	-11.2004
▁Fund	-11.2004
▁Jacques	-11.2005
両	-11.2012
▁religion	-11.2013
▁XVII	-11.2013
▁directed	-11.2015
▁Jahrhunderts	-11.2015
ért	-11.2016
ستان	-11.2017
算	-11.2018
szer	-11.2019
ables	-11.202
▁Sara	-11.202
▁Master	-11.2021
▁đại	-11.2021
友	-11.2022
▁quien	-11.2022
یم	-11.2023
sent	-11.2024
▁1885	-11.2024
ారు	-11.2025
лися	-11.2025
異	-11.2026
▁faz	-11.2027
▁Government	-11.2027
▁경	-11.2027
arse	-11.2028
▁famiglia	-11.2028
мін	-11.203
jung	-11.2031
▁function	-11.2032
▁رو	-11.2033
ER	-11.2034
đ	-11.2034
toria	-11.2036
▁hy	-11.2037
▁corps	-11.2038
▁fikk	-11.204
ffe	-11.2043
▁خلال	-11.2044
▁frei	-11.2044
unt	-11.2044
▁self	-11.2045
条	-11.2048
▁сил	-11.2049
ister	-11.2049
▁figura	-11.2053
▁provided	-11.2054
▁hang	-11.2058
▁resto	-11.2059
▁provide	-11.206
bourg	-11.2061
▁sale	-11.2065
▁Sommer	-11.2066
▁little	-11.2067
▁três	-11.2068
кра	-11.2072
적인	-11.2073
ники	-11.2073
▁madre	-11.2073
▁portal	-11.2074
vest	-11.2074
过	-11.2075
ической	-11.2076
dakong	-11.2076
▁Water	-11.2077
▁broj	-11.2078
▁член	-11.2078
▁paper	-11.2078
▁algunos	-11.2079
த்	-11.208
▁lower	-11.2081
▁stil	-11.2082
リン	-11.2082
kiem	-11.2082
▁peuvent	-11.2083
▁Mess	-11.2084
▁করেন	-11.2084
▁outubro	-11.2085
▁Carolina	-11.2085
▁trước	-11.2086
ラン	-11.2087
▁familjen	-11.2087
হ	-11.2088
▁decision	-11.2088
▁gru	-11.2088
▁summer	-11.2089
▁outside	-11.2089
▁subject	-11.2089
▁Eesti	-11.2089
motor	-11.209
▁lebih	-11.209
▁Buenos	-11.2091
▁prin	-11.2091
▁Nations	-11.2093
だが	-11.2095
▁kra	-11.2096
▁sv	-11.2097
▁можно	-11.2097
elor	-11.2098
AP	-11.2098
▁kada	-11.21
력	-11.2101
rre	-11.2102
포	-11.2103
▁vend	-11.2104
En	-11.2104
ged	-11.2104
▁observa	-11.2105
ье	-11.2105
▁Zealand	-11.2105
හ	-11.2107
▁nhận	-11.2108
▁steht	-11.2109
î	-11.211
front	-11.2111
▁ряд	-11.2112
▁1997.	-11.2112
▁flu	-11.2115
▁placed	-11.2116
▁Mak	-11.2116
▁Cambridge	-11.2117
키	-11.2117
▁Cur	-11.2118
tallet	-11.2118
▁第	-11.2119
▁previous	-11.2119
▁instead	-11.2122
▁bola	-11.2122
▁privat	-11.2124
▁Gil	-11.2124
▁ز	-11.2125
ヤ	-11.2129
▁vai	-11.2129
▁Тур	-11.213
▁kunne	-11.213
▁sk	-11.2131
▁raison	-11.2134
▁musique	-11.2134
▁الص	-11.2134
▁Brian	-11.2134
ු	-11.2135
▁роль	-11.2135
▁giải	-11.2135
ško	-11.2136
ச	-11.2136
▁мест	-11.2138
cem	-11.2138
ല	-11.2138
уд	-11.2138
eel	-11.2139
ellen	-11.2141
gem	-11.2142
速	-11.2142
▁Philip	-11.2143
▁1888	-11.2143
να	-11.2143
▁kunst	-11.2146
sty	-11.2147
▁Valley	-11.2147
▁phố	-11.2148
▁være	-11.2149
▁vive	-11.215
▁cơ	-11.215
▁Alfred	-11.2153
▁стан	-11.2154
美國	-11.2154
mana	-11.2156
▁finished	-11.2156
▁Anton	-11.2161
▁там	-11.2161
▁cinema	-11.2161
▁kleine	-11.2162
iran	-11.2162
▁hội	-11.2163
Di	-11.2164
▁Mario	-11.2165
▁Information	-11.2166
стро	-11.2166
шен	-11.2167
老	-11.2167
▁Од	-11.2168
▁gest	-11.2168
▁Ру	-11.2169
left	-11.2169
技	-11.217
▁Dol	-11.217
unda	-11.2171
▁Ludwig	-11.2172
lade	-11.2173
▁Klein	-11.2173
ξ	-11.2173
▁northern	-11.2173
ול	-11.2175
üm	-11.2176
▁ž	-11.2177
▁charge	-11.2179
▁saw	-11.218
ald	-11.2181
▁Liste	-11.2181
пор	-11.2184
勝	-11.2186
ления	-11.2187
▁conclu	-11.2188
▁має	-11.2188
ню	-11.2189
år	-11.2189
▁Victor	-11.219
▁Jon	-11.219
▁niveau	-11.2191
▁deuxième	-11.2193
ация	-11.2194
▁rang	-11.2194
▁sum	-11.2195
▁planta	-11.2195
▁acht	-11.2197
车	-11.2197
▁generally	-11.2198
▁Let	-11.22
۹	-11.2201
qué	-11.2201
▁chức	-11.2203
nta	-11.2203
▁Ö	-11.2203
avo	-11.2203
লা	-11.2204
▁maio	-11.2205
▁seis	-11.2209
▁health	-11.221
▁Sho	-11.2211
kem	-11.2211
1%	-11.2212
▁4-	-11.2212
▁entonces	-11.2212
▁1996.	-11.2214
englisch	-11.2214
зор	-11.2215
象	-11.2216
▁Jersey	-11.2218
▁नि	-11.222
▁logo	-11.222
اح	-11.222
▁Portal	-11.222
தி	-11.2222
pes	-11.2223
▁бы	-11.2226
labor	-11.2226
報	-11.2227
▁Sc	-11.2228
ified	-11.2229
▁telah	-11.2229
sio	-11.223
▁ప్ర	-11.2232
▁Ferdinand	-11.2234
▁living	-11.2235
▁عنوان	-11.2235
atori	-11.2236
▁writing	-11.2236
▁pare	-11.2238
▁està	-11.2239
▁nej	-11.2239
▁Like	-11.224
ців	-11.2242
sha	-11.2243
▁changed	-11.2244
▁группы	-11.2245
цу	-11.2245
▁تر	-11.2245
ട	-11.2246
▁68	-11.2247
ас	-11.2249
▁legend	-11.225
▁ін	-11.2251
Ho	-11.2253
▁word	-11.2254
▁85	-11.2254
bos	-11.2255
IN	-11.2255
賞	-11.2255
▁période	-11.2255
▁sondern	-11.2255
ják	-11.2256
iera	-11.2257
▁ball	-11.2258
Da	-11.2258
iam	-11.2258
▁1990.	-11.2259
▁troba	-11.226
ffer	-11.226
▁access	-11.2261
▁theory	-11.2261
▁vot	-11.2263
▁byly	-11.2263
▁Janeiro	-11.2264
▁app	-11.2264
ння	-11.2264
▁sina	-11.2266
▁chaque	-11.2267
▁Sverige	-11.2268
шы	-11.2271
▁cases	-11.2271
ES	-11.2272
▁euro	-11.2275
pati	-11.2276
eks	-11.2276
▁southern	-11.2276
▁Special	-11.228
▁Nick	-11.2281
entre	-11.2281
▁Uniti	-11.2281
tam	-11.2281
▁Spain	-11.2281
ill	-11.2282
▁adult	-11.2282
에게	-11.2282
ovo	-11.2283
▁1891	-11.2284
test	-11.2287
住	-11.2287
カー	-11.2288
▁nommé	-11.2289
zko	-11.2291
プロ	-11.2292
▁problema	-11.2294
зер	-11.2298
ो	-11.2299
服	-11.23
כל	-11.2302
utu	-11.2303
rü	-11.2303
2017	-11.2303
fan	-11.2305
▁mind	-11.2305
▁Standard	-11.2307
ρο	-11.2307
▁havet	-11.2312
rado	-11.2314
چ	-11.2314
▁Це	-11.2314
fest	-11.2315
ా	-11.2317
▁vara	-11.2318
gruppe	-11.2318
▁وفي	-11.2319
魔	-11.232
▁studies	-11.232
lk	-11.2321
▁sound	-11.2323
2009	-11.2324
▁hold	-11.2325
uli	-11.2326
نی	-11.2328
▁Your	-11.2329
▁trình	-11.2329
ними	-11.2329
Kr	-11.2331
▁Ski	-11.2331
▁sẽ	-11.2332
▁februari	-11.2333
fri	-11.2333
▁жизни	-11.2334
yr	-11.2335
sim	-11.2335
▁År	-11.2336
ník	-11.2337
▁Си	-11.2338
фи	-11.2339
kop	-11.2341
یه	-11.2342
▁presente	-11.2343
▁related	-11.2343
▁podczas	-11.2344
hit	-11.2345
▁Kaiser	-11.2345
▁featured	-11.2346
οί	-11.2348
▁актив	-11.2348
▁thường	-11.2349
▁стали	-11.2351
▁svoje	-11.2352
▁redu	-11.2353
kes	-11.2355
▁leven	-11.2355
▁give	-11.2355
bé	-11.2357
▁Ly	-11.2358
▁Anfang	-11.236
▁viele	-11.236
▁janeiro	-11.2362
▁система	-11.2363
Ja	-11.2363
中央	-11.2364
▁thought	-11.2366
▁jeu	-11.2367
ंग	-11.2368
хи	-11.2369
▁tim	-11.2372
森	-11.2374
伯	-11.2374
▁（	-11.2375
lio	-11.2376
mıştır	-11.2377
达	-11.2377
▁merupakan	-11.2377
ists	-11.2378
▁Trung	-11.2378
cup	-11.2381
▁travers	-11.2383
▁nuclear	-11.2384
▁모	-11.2384
▁Jam	-11.2385
ára	-11.2387
liste	-11.2388
▁Junior	-11.2388
igi	-11.2388
ність	-11.2391
IS	-11.2391
▁Alter	-11.2394
▁мал	-11.2394
▁Mah	-11.2397
▁tuvo	-11.2397
▁Theatre	-11.2398
▁kuri	-11.2398
ица	-11.2398
▁size	-11.2399
▁presso	-11.2399
▁kết	-11.2402
▁senza	-11.2404
▁adopt	-11.2404
uv	-11.2405
▁Santiago	-11.2407
punkt	-11.2407
ает	-11.2407
▁passa	-11.2409
▁1998,	-11.2409
▁minut	-11.2409
▁Sche	-11.241
司	-11.241
iek	-11.2411
lož	-11.2412
dica	-11.2412
▁whose	-11.2415
蘭	-11.2415
▁masa	-11.2416
pus	-11.2419
▁serve	-11.242
▁ön	-11.242
atge	-11.2421
▁Test	-11.2425
▁required	-11.2426
具	-11.2428
нар	-11.243
兰	-11.2431
▁pai	-11.2431
bli	-11.2433
zzo	-11.2433
′	-11.2433
▁Pr	-11.2436
程	-11.2436
▁volume	-11.2436
社会	-11.2438
急	-11.2438
▁роман	-11.2438
▁sechs	-11.2438
开	-11.2439
rill	-11.2439
▁players	-11.2439
▁Carlo	-11.244
▁110	-11.2441
▁0,	-11.2441
▁projet	-11.2442
▁sólo	-11.2443
▁allowed	-11.2444
jas	-11.2445
▁notable	-11.2445
2012	-11.2445
▁Сан	-11.2445
▁Bern	-11.245
enburg	-11.2451
差	-11.2451
声	-11.2453
▁Alan	-11.2453
ised	-11.2457
пол	-11.2457
וס	-11.2459
▁heavy	-11.246
▁ris	-11.246
▁61	-11.2461
甲	-11.2461
▁bun	-11.2462
SC	-11.2463
טי	-11.2467
▁tác	-11.2469
▁století	-11.2469
▁havde	-11.2469
иль	-11.247
hir	-11.247
▁Sus	-11.2471
DP	-11.2472
▁Φ	-11.2475
با	-11.2475
isce	-11.2476
▁chủ	-11.2476
צ	-11.2477
▁titolo	-11.2477
▁Part	-11.2477
▁130	-11.2478
bare	-11.2478
▁2018,	-11.2479
▁bilo	-11.2479
▁Ziel	-11.2479
▁وقد	-11.2479
▁connu	-11.2479
▁aprile	-11.248
Э	-11.248
▁Mei	-11.248
spel	-11.2482
▁separate	-11.2482
▁behind	-11.2483
▁grado	-11.2485
▁Personen	-11.2487
Ch	-11.2487
mut	-11.2488
kre	-11.2489
6.	-11.2489
▁chez	-11.2491
▁système	-11.2492
▁Amb	-11.2492
▁Gy	-11.2494
מד	-11.2494
▁сто	-11.2496
▁Wien	-11.2496
▁proceso	-11.2497
▁מס	-11.2497
зу	-11.2502
▁67	-11.2502
▁часто	-11.2503
フィ	-11.2503
▁Spe	-11.2503
куп	-11.2504
▁animal	-11.2504
رة	-11.2504
▁Sydney	-11.2505
ара	-11.2507
該	-11.2508
град	-11.2508
vier	-11.2509
tettiin	-11.251
▁Call	-11.2511
ёт	-11.2512
▁nous	-11.2512
▁पा	-11.2512
▁Venezuela	-11.2513
▁Revolution	-11.2513
צה	-11.2513
六	-11.2514
▁яка	-11.2514
dorf	-11.2515
および	-11.2516
▁Neben	-11.2519
宗	-11.2522
nner	-11.2524
▁Χ	-11.2526
ూ	-11.2527
ణ	-11.2529
▁seves	-11.2531
▁canción	-11.2532
▁Gebiet	-11.2533
▁Partei	-11.2533
되어	-11.2534
▁ए	-11.2534
▁этой	-11.2536
▁interest	-11.2537
▁complete	-11.254
▁κατα	-11.2541
主要	-11.2541
кан	-11.2543
fon	-11.2545
▁Hel	-11.2545
▁nuovo	-11.2546
▁Rosa	-11.2546
ιο	-11.2547
ių	-11.255
ках	-11.2551
▁München	-11.2552
のみ	-11.2553
▁Хо	-11.2553
arak	-11.2554
tru	-11.2555
▁genannt	-11.2557
▁akan	-11.2557
يم	-11.2559
jn	-11.2559
サン	-11.256
zug	-11.2562
іль	-11.2563
ισ	-11.2565
rna	-11.2565
こと	-11.2566
став	-11.2566
▁object	-11.2568
▁prime	-11.257
▁Tel	-11.2571
▁Samuel	-11.2571
▁begin	-11.2572
▁spa	-11.2572
一个	-11.2573
aï	-11.2573
▁today	-11.2573
양	-11.2573
▁Magazine	-11.2574
got	-11.2576
▁tend	-11.2576
str	-11.2577
tha	-11.2577
▁Wald	-11.2578
II	-11.2578
▁varia	-11.258
ед	-11.258
▁college	-11.2581
▁Frauen	-11.2582
▁eran	-11.2584
▁95	-11.2585
▁informa	-11.2586
▁때	-11.2586
▁klas	-11.2586
ட்	-11.2586
▁Mittel	-11.2588
▁Douglas	-11.2589
▁Jr	-11.2589
코	-11.2589
▁dalle	-11.259
▁Tab	-11.259
▁bili	-11.2591
▁Jewish	-11.2591
kę	-11.2591
▁времени	-11.2592
▁product	-11.2593
▁quali	-11.2594
▁שי	-11.2597
γκ	-11.2598
ило	-11.2598
▁Ü	-11.2599
last	-11.2599
hez	-11.2599
▁egyik	-11.26
cze	-11.26
▁mukaan	-11.26
▁create	-11.2601
街	-11.2601
▁travail	-11.2602
以及	-11.2602
▁remains	-11.2604
ぶ	-11.2604
lip	-11.2604
▁isang	-11.2604
▁cr	-11.2605
▁इ	-11.2607
▁hecho	-11.2611
▁higher	-11.2611
▁Bla	-11.2612
▁Ρ	-11.2614
▁Adolf	-11.2617
▁kreeg	-11.2618
рад	-11.2618
▁YouTube	-11.2619
極	-11.2619
▁karena	-11.262
aran	-11.2622
ெ	-11.2623
▁francés	-11.2623
tje	-11.2624
▁ever	-11.2624
या	-11.2625
▁Papa	-11.2625
▁пос	-11.2625
▁파	-11.2627
給	-11.2627
▁network	-11.2629
▁militaire	-11.2629
ується	-11.263
ե	-11.263
▁cô	-11.2634
▁Вы	-11.2635
▁Manchester	-11.2636
▁Tot	-11.2637
ből	-11.2637
她	-11.264
▁Ocean	-11.2641
▁sera	-11.2641
▁mol	-11.2642
▁fourth	-11.2642
▁Beach	-11.2643
▁Vid	-11.2644
▁julho	-11.2644
居	-11.2645
▁Bull	-11.2646
▁vit	-11.2651
▁storia	-11.2651
▁Carr	-11.2653
▁traditional	-11.2654
▁вместе	-11.2654
ней	-11.2654
elijk	-11.2655
▁average	-11.2656
кар	-11.2656
▁donne	-11.2657
▁Reg	-11.266
▁Andrew	-11.2661
▁sản	-11.2661
▁poet	-11.2661
▁ביותר	-11.2662
American	-11.2666
▁miles	-11.2667
нер	-11.2668
▁Duke	-11.2669
▁mini	-11.267
▁gene	-11.2672
}{	-11.2672
▁Fest	-11.2672
àn	-11.2672
▁DC	-11.2672
短	-11.2675
問題	-11.2675
▁trade	-11.2675
▁Hart	-11.2675
중	-11.2675
ath	-11.2676
▁Centro	-11.2678
auto	-11.2678
▁elő	-11.2678
▁sollte	-11.2678
ža	-11.2678
▁село	-11.2678
merk	-11.2679
▁dezembro	-11.268
We	-11.2681
▁ekonomi	-11.2685
▁stre	-11.2685
▁Cy	-11.2687
▁Под	-11.2687
▁Tokyo	-11.2688
agit	-11.2689
▁cri	-11.2689
▁instrument	-11.2689
▁Guerre	-11.2691
▁автор	-11.2693
▁Middle	-11.2694
足	-11.2695
▁Both	-11.2695
超	-11.2697
ství	-11.2697
令	-11.2699
▁zoals	-11.2699
▁influence	-11.27
▁Angel	-11.2701
▁pouvoir	-11.2701
ox	-11.2701
ился	-11.2702
▁Their	-11.2703
▁german	-11.2704
▁ही	-11.2707
▁ප	-11.2707
▁lý	-11.2707
І	-11.2708
▁Johannes	-11.2708
▁gold	-11.2708
▁سو	-11.2709
若	-11.2709
▁Apple	-11.271
▁cuenta	-11.2711
▁1995.	-11.2712
Am	-11.2712
לו	-11.2713
▁famous	-11.2713
▁территории	-11.2714
▁adapt	-11.2714
▁Georgia	-11.2715
▁kako	-11.2718
▁1887	-11.2719
Un	-11.2719
▁76	-11.272
▁عدد	-11.272
рен	-11.2721
一個	-11.2721
chter	-11.2721
had	-11.2724
ත	-11.2725
▁mellom	-11.2725
ంలో	-11.2728
▁pedig	-11.2728
tent	-11.2729
▁host	-11.2731
2008	-11.2731
▁coup	-11.2731
▁thu	-11.2733
▁tweede	-11.2735
▁assist	-11.2736
▁Creek	-11.2737
▁personas	-11.2738
しい	-11.2739
stil	-11.274
▁ста	-11.274
minen	-11.2742
▁च	-11.2743
止	-11.2743
▁organization	-11.2744
▁ide	-11.2744
▁gjorde	-11.2745
▁porque	-11.2746
▁Verein	-11.2747
바	-11.2749
▁fatto	-11.2751
▁cur	-11.2752
▁цел	-11.2753
män	-11.2754
▁rey	-11.2755
най	-11.2756
▁Afrika	-11.2757
ndi	-11.2757
▁classifica	-11.2758
▁день	-11.2759
▁manager	-11.2761
▁seria	-11.2762
▁Model	-11.2763
ында	-11.2764
ological	-11.2765
آ	-11.2765
▁latin	-11.2766
▁това	-11.2767
突	-11.2767
▁כמו	-11.2769
▁Que	-11.2769
۸	-11.2769
▁metres	-11.2772
▁personnes	-11.2773
char	-11.2773
abil	-11.2774
▁Mill	-11.2776
في	-11.2776
anta	-11.2778
arm	-11.278
▁Milan	-11.278
ovala	-11.2782
▁Werk	-11.2782
▁scene	-11.2783
də	-11.2783
▁livre	-11.2783
▁stark	-11.2783
▁Britain	-11.2783
▁ис	-11.2785
린	-11.2786
チーム	-11.2787
▁distance	-11.2788
▁опер	-11.279
▁passage	-11.2791
▁tế	-11.2791
▁couple	-11.2791
ір	-11.2791
▁ideal	-11.2793
▁Ara	-11.2793
жу	-11.2794
sive	-11.2795
▁Pir	-11.2795
変	-11.2796
tty	-11.2796
▁الك	-11.2796
▁Miguel	-11.2796
ப	-11.2797
euse	-11.2797
▁ස	-11.2797
▁Brazil	-11.2798
▁tank	-11.28
mba	-11.2801
ock	-11.2801
▁Rus	-11.2801
確	-11.2802
▁Natur	-11.2803
創	-11.2804
يو	-11.2805
▁1871	-11.2805
▁1881	-11.2807
عد	-11.2807
▁1990,	-11.2808
▁Castle	-11.2809
800	-11.281
elsen	-11.281
▁між	-11.2811
vali	-11.2812
▁IX	-11.2815
▁league	-11.2817
▁tutto	-11.2817
ంగా	-11.2818
寺	-11.2818
டி	-11.2818
Th	-11.2818
يين	-11.2819
▁центр	-11.2819
▁sports	-11.2819
▁nou	-11.2819
▁lloc	-11.2819
▁Chr	-11.282
▁när	-11.2821
▁Kel	-11.2822
▁цар	-11.2823
▁muerte	-11.2826
łu	-11.2826
▁фильм	-11.2831
▁Cerro	-11.2832
лек	-11.2833
▁남	-11.2833
▁Dream	-11.2833
▁page	-11.2834
изм	-11.2834
Ex	-11.2838
▁cele	-11.2839
皇	-11.284
▁থেকে	-11.2842
elo	-11.2843
bok	-11.2846
興	-11.2847
▁importantes	-11.2847
▁Matt	-11.2847
nju	-11.2849
▁competition	-11.2849
▁mille	-11.285
ять	-11.2851
rada	-11.2852
ації	-11.2852
における	-11.2852
地方	-11.2855
▁Norman	-11.2856
ын	-11.2857
▁było	-11.2858
▁مثل	-11.2858
▁god	-11.2859
▁Northern	-11.286
▁dira	-11.2861
▁Durant	-11.2861
«	-11.2862
▁thus	-11.2862
бы	-11.2862
nne	-11.2863
লে	-11.2863
▁1992.	-11.2864
sat	-11.2864
או	-11.2866
▁abgerufen	-11.2866
▁đi	-11.2868
▁already	-11.2868
▁Бар	-11.2869
ە	-11.2869
▁Quando	-11.2872
iä	-11.2872
果	-11.2873
cido	-11.2874
▁Раз	-11.2875
▁1884	-11.2876
AF	-11.2876
▁trường	-11.2877
▁Board	-11.2877
ds	-11.2878
▁پس	-11.2879
人口	-11.2879
▁र	-11.2879
קס	-11.288
▁interes	-11.2881
▁свет	-11.2881
▁multiple	-11.2882
政治	-11.2882
▁aasta	-11.2883
äng	-11.2885
mmel	-11.2885
▁tv	-11.2886
inus	-11.2886
۳	-11.2886
Ч	-11.2887
▁Bat	-11.2887
ális	-11.2888
чка	-11.2889
▁know	-11.289
包括	-11.289
女性	-11.289
其他	-11.2891
▁führte	-11.2893
▁>	-11.2893
▁sister	-11.2897
状	-11.2898
マー	-11.2899
▁Congress	-11.29
eiros	-11.2901
▁Frau	-11.2902
ough	-11.2903
uose	-11.2905
▁mass	-11.2906
형	-11.2907
cular	-11.2908
▁environ	-11.2909
▁både	-11.2909
ư	-11.2909
▁Santo	-11.2911
▁Był	-11.2911
бар	-11.2912
▁Jung	-11.2913
▁practice	-11.2914
AR	-11.2914
▁estos	-11.2914
▁brit	-11.2914
▁села	-11.2915
ろ	-11.2916
▁Est	-11.2918
▁mely	-11.2919
▁فیلم	-11.2919
▁dieses	-11.292
域	-11.2922
đen	-11.2922
gn	-11.2922
夏	-11.2922
▁energy	-11.2922
▁Colombia	-11.2923
nier	-11.2923
▁1886	-11.2923
▁ended	-11.2924
amiento	-11.2927
зы	-11.2929
atus	-11.293
▁1878	-11.293
ρ	-11.2931
▁тур	-11.2931
itä	-11.2931
dere	-11.2932
▁jours	-11.2934
▁Bach	-11.2937
▁Süd	-11.2938
▁све	-11.2938
▁একটি	-11.2939
▁longer	-11.2942
▁наук	-11.2942
▁рад	-11.2942
ema	-11.2942
▁boj	-11.2943
レー	-11.2944
▁mode	-11.2945
IP	-11.2945
nad	-11.2946
▁varias	-11.2946
sä	-11.2947
▁última	-11.2947
ライ	-11.2948
▁droit	-11.2949
quin	-11.2949
miş	-11.2951
▁Jordan	-11.2952
▁Studio	-11.2954
▁furent	-11.2954
নি	-11.2955
▁público	-11.2955
ního	-11.2957
とも	-11.2957
▁új	-11.2957
▁lived	-11.2958
▁Бу	-11.2959
uki	-11.2959
lid	-11.296
约	-11.296
schule	-11.296
▁ज	-11.2961
оф	-11.2964
lei	-11.2965
rend	-11.2965
ием	-11.2966
hd	-11.2967
izo	-11.2969
▁הברית	-11.2969
離	-11.2969
gis	-11.2969
فا	-11.2971
▁रूप	-11.2971
ී	-11.2971
vos	-11.2971
▁mang	-11.2971
kunta	-11.2973
serie	-11.2973
zh	-11.2977
▁tradicional	-11.2978
▁liste	-11.2978
تا	-11.2978
қ	-11.2979
nze	-11.298
▁điều	-11.2982
▁instal	-11.2983
적으로	-11.2983
▁1850	-11.2984
端	-11.2984
gla	-11.2987
▁하	-11.2987
▁ран	-11.2988
略	-11.299
ові	-11.299
▁agent	-11.299
▁già	-11.2991
wod	-11.2992
ац	-11.2992
▁lingua	-11.2993
)،	-11.2993
▁Luft	-11.2993
וח	-11.2994
▁stan	-11.2998
説	-11.2999
▁studied	-11.2999
▁сайт	-11.3
▁gain	-11.3
ując	-11.3
లి	-11.3
▁rural	-11.3
▁metro	-11.3001
alle	-11.3002
▁سنة	-11.3002
▁Entwicklung	-11.3003
▁Hamburg	-11.3004
▁pé	-11.3004
▁Main	-11.3004
▁zde	-11.3006
▁?	-11.3008
ım	-11.3008
▁prison	-11.3009
▁fragment	-11.3009
▁Four	-11.301
ук	-11.3011
▁Närmast	-11.3012
青	-11.3012
ography	-11.3012
▁Vater	-11.3013
▁Napoleon	-11.3014
▁людей	-11.3017
▁نا	-11.3018
▁kost	-11.3018
▁mateix	-11.3018
▁mü	-11.3019
▁Μπ	-11.302
番	-11.302
▁bzw	-11.3021
clu	-11.3022
▁Hard	-11.3022
▁Program	-11.3023
▁towards	-11.3025
▁Prime	-11.3027
▁vasta	-11.3027
mul	-11.3028
▁Italien	-11.3029
▁membro	-11.3029
mě	-11.3029
▁77	-11.3031
flu	-11.3032
▁Hin	-11.3032
▁selon	-11.3032
▁nave	-11.3032
вор	-11.3033
▁Jesus	-11.3033
2000	-11.3035
▁voz	-11.3036
▁Lebens	-11.3037
nam	-11.3038
פת	-11.3038
ζ	-11.3039
syn	-11.304
▁były	-11.304
▁nummer	-11.3041
▁highest	-11.3042
▁Roz	-11.3042
▁whom	-11.3043
inn	-11.3043
▁promo	-11.3045
ギ	-11.3045
▁~	-11.3046
▁issue	-11.3046
ellä	-11.3047
▁elements	-11.3049
護	-11.3049
лик	-11.3049
▁Mala	-11.3051
▁say	-11.3052
▁toujours	-11.3052
▁bre	-11.3054
▁내	-11.3054
▁progress	-11.3054
parti	-11.3054
9%	-11.3055
▁цього	-11.3055
▁consist	-11.3057
وب	-11.3057
▁diesen	-11.3057
▁права	-11.3058
sem	-11.3058
دا	-11.3058
iš	-11.3059
tiv	-11.3061
▁69	-11.3062
يه	-11.3062
▁arbeitete	-11.3063
総	-11.3065
bles	-11.3066
{\	-11.3066
мир	-11.3066
▁rum	-11.3068
▁Was	-11.3068
▁único	-11.3069
所有	-11.307
▁ima	-11.3071
מן	-11.3071
▁seorang	-11.3071
リア	-11.3073
▁работал	-11.3074
となり	-11.3075
▁tới	-11.3075
▁view	-11.3075
▁Suomen	-11.3075
▁Online	-11.3077
▁систем	-11.3077
▁tiếp	-11.3077
▁Він	-11.3077
▁stated	-11.3077
▁phía	-11.3077
▁loại	-11.3079
내	-11.3081
лення	-11.3082
uksen	-11.3083
▁Bus	-11.3084
vě	-11.3087
лич	-11.3087
▁caused	-11.3087
hä	-11.3087
▁contains	-11.309
▁број	-11.309
▁Review	-11.3091
▁название	-11.3093
aine	-11.3095
ED	-11.3096
▁prince	-11.3098
ós	-11.3099
▁1861	-11.3101
▁6,	-11.3101
ும்	-11.3101
▁aquesta	-11.3101
通常	-11.3102
tò	-11.3105
▁atom	-11.3107
▁protein	-11.3109
▁bok	-11.3109
▁solid	-11.311
▁according	-11.311
などの	-11.3111
▁liberal	-11.3112
▁karakter	-11.3113
▁wobe	-11.3113
後に	-11.3114
▁então	-11.3118
▁אחד	-11.3118
▁ম	-11.3119
▁continu	-11.312
▁1994.	-11.312
▁represent	-11.3121
▁מספר	-11.3123
pio	-11.3124
2015	-11.3124
▁tradition	-11.3124
▁besteht	-11.3125
esa	-11.3126
ös	-11.3127
handel	-11.3128
gl	-11.3129
英語	-11.3129
FC	-11.3129
のは	-11.3129
▁коли	-11.3131
▁prior	-11.3131
▁Luc	-11.3132
▁конце	-11.3134
ům	-11.3137
▁trabajo	-11.3137
▁Naj	-11.3137
реш	-11.3138
▁Kle	-11.3139
▁Después	-11.314
ril	-11.314
‘	-11.3142
ゲ	-11.3142
▁gor	-11.3143
▁tradu	-11.3144
つの	-11.3144
▁θ	-11.3145
美国	-11.3147
▁Vy	-11.3147
iet	-11.3147
になる	-11.3148
mathbf	-11.3148
▁серед	-11.3149
our	-11.3149
▁starb	-11.3149
кова	-11.315
▁czasie	-11.315
▁1882	-11.3151
▁Kam	-11.3151
ppi	-11.3152
▁द	-11.3153
▁programme	-11.3153
▁opening	-11.3154
stu	-11.3156
九	-11.3157
▁troops	-11.3157
员	-11.3158
▁março	-11.3159
▁español	-11.3159
▁industry	-11.3159
▁kommun	-11.316
▁имеет	-11.316
▁komen	-11.316
▁Holland	-11.3161
ట్	-11.3162
血	-11.3162
▁ky	-11.3163
▁relativ	-11.3166
▁강	-11.3168
▁Diego	-11.3171
▁variant	-11.3172
▁その後	-11.3172
▁הראשון	-11.3173
ability	-11.3174
▁komt	-11.3177
ax	-11.3178
▁בית	-11.318
▁ט	-11.3181
▁étant	-11.3181
▁arc	-11.3183
▁культур	-11.3187
▁shot	-11.3189
holm	-11.3189
▁Gr	-11.319
ভ	-11.319
▁magyar	-11.3191
안	-11.3192
uw	-11.3193
▁Massachusetts	-11.3193
▁igual	-11.3194
很	-11.3195
▁corte	-11.3197
傳	-11.3198
ents	-11.3199
登	-11.32
ゲーム	-11.3202
llis	-11.3203
▁epi	-11.3203
▁jonka	-11.3204
poli	-11.3207
▁pertama	-11.3207
ates	-11.3207
▁później	-11.3208
▁Krieg	-11.3208
▁Ras	-11.3208
▁করা	-11.3209
임	-11.3209
rob	-11.3211
料	-11.3211
▁conquista	-11.3212
eret	-11.3213
rade	-11.3214
▁Just	-11.3214
격	-11.3214
▁HMS	-11.3215
七	-11.3215
armée	-11.3215
成立	-11.3215
5,000	-11.3215
ҡ	-11.3215
▁Fernando	-11.3216
▁beide	-11.3217
▁Гор	-11.3217
▁പ	-11.3218
▁articles	-11.322
▁takes	-11.3223
▁Sound	-11.3223
▁Liber	-11.3224
▁demand	-11.3224
▁prema	-11.3226
englanniksi	-11.3226
▁1997,	-11.3226
▁документ	-11.3227
ایی	-11.3227
2007	-11.3228
▁Partido	-11.323
▁Ло	-11.323
▁Parlament	-11.3231
敗	-11.3231
▁prof	-11.3231
ових	-11.3232
▁които	-11.3233
資	-11.3233
▁ref	-11.3233
▁לש	-11.3236
▁rencontre	-11.3237
▁име	-11.3242
▁Также	-11.3243
owo	-11.3243
tors	-11.3244
▁map	-11.3247
νο	-11.3248
ね	-11.3248
▁Cel	-11.3249
▁வி	-11.3249
▁사용	-11.325
▁papa	-11.3251
▁female	-11.3251
▁ఇ	-11.3253
▁tag	-11.3253
▁Library	-11.3254
ása	-11.3254
▁пры	-11.3255
tid	-11.3255
▁брат	-11.3256
这	-11.3256
▁Railway	-11.3257
ていた	-11.3257
▁vivo	-11.3259
▁Dy	-11.326
每	-11.326
▁veces	-11.3261
▁Down	-11.3261
лат	-11.3263
ności	-11.3265
сер	-11.3265
▁increased	-11.3266
DS	-11.3267
▁наступ	-11.3267
amp	-11.3268
τά	-11.3269
▁toute	-11.327
cicl	-11.327
▁1883	-11.3271
öd	-11.3272
ява	-11.3273
境	-11.3273
영	-11.3274
▁situa	-11.3274
▁key	-11.3275
▁ejemplo	-11.3276
▁Ки	-11.3277
tato	-11.3277
tár	-11.3278
에서는	-11.3278
良	-11.328
▁sed	-11.3281
kil	-11.3282
لي	-11.3283
ector	-11.3284
based	-11.3284
▁своего	-11.3284
তি	-11.3285
▁кино	-11.3287
▁завод	-11.3287
ington	-11.3289
▁história	-11.3289
▁Uni	-11.3291
▁Poly	-11.3292
せ	-11.3293
sey	-11.3294
▁Hoa	-11.3294
wis	-11.3296
σε	-11.3297
橋	-11.3298
ző	-11.3298
ttu	-11.3299
порт	-11.3303
mektedir	-11.3304
▁situé	-11.3305
ジェ	-11.3306
▁aki	-11.3306
▁הר	-11.3306
ског	-11.3307
▁junho	-11.3307
ók	-11.3311
eksi	-11.3312
kai	-11.3312
▁Wind	-11.3312
▁welche	-11.3313
▁fosse	-11.3314
▁他	-11.3314
raum	-11.3314
▁Franco	-11.3315
▁quasi	-11.3316
cina	-11.3316
cja	-11.3317
▁programma	-11.3319
jun	-11.332
▁ин	-11.3323
▁tournament	-11.3324
ouest	-11.3324
▁meta	-11.3324
設	-11.3324
▁mình	-11.3324
hausen	-11.3324
▁argument	-11.3324
▁goal	-11.3325
▁Ι	-11.3326
öv	-11.3326
▁approximately	-11.3327
yang	-11.3327
▁degree	-11.3327
▁appears	-11.3328
▁our	-11.3329
▁Toronto	-11.3329
▁passe	-11.333
ført	-11.3334
奥	-11.3335
▁mala	-11.3336
유	-11.3336
▁Λ	-11.3336
▁geboren	-11.3336
AM	-11.3336
▁Voor	-11.3337
井	-11.3346
航	-11.3346
▁diễn	-11.3347
▁NBA	-11.3347
lou	-11.3348
▁불	-11.3349
xo	-11.3351
▁hatten	-11.3352
▁Mountain	-11.3352
▁vest	-11.3353
▁woman	-11.3353
▁aller	-11.3354
▁سي	-11.3355
亦	-11.3357
▁erhalten	-11.3359
zone	-11.336
▁ĝi	-11.3361
▁Epi	-11.3361
▁vuoden	-11.3362
▁הי	-11.3363
▁Его	-11.3363
▁kontrol	-11.3363
▁Bil	-11.3363
maal	-11.3364
▁union	-11.3368
▁pun	-11.3369
▁erfolgte	-11.337
▁Oslo	-11.337
▁ellos	-11.3371
▁ఎ	-11.3372
▁Rob	-11.3373
▁서	-11.3374
rp	-11.3374
▁gồm	-11.3374
▁зі	-11.3374
▁उ	-11.3375
▁sup	-11.3378
verk	-11.3378
zig	-11.3378
▁temperatura	-11.3379
던	-11.3379
▁sino	-11.3382
▁molupyo	-11.3383
▁villa	-11.3384
排	-11.3385
노	-11.3386
▁Nas	-11.3387
▁results	-11.3389
mien	-11.339
参	-11.339
ária	-11.3392
▁hoặc	-11.3394
ונים	-11.3394
দের	-11.3397
▁És	-11.3398
ジャ	-11.3399
▁88	-11.34
▁block	-11.34
wang	-11.34
TS	-11.34
лей	-11.3401
▁casi	-11.3401
CO	-11.3401
▁kau	-11.3401
wand	-11.3402
▁engine	-11.3402
▁rob	-11.3403
în	-11.3403
Sp	-11.3405
파	-11.3406
▁Millionen	-11.3406
py	-11.3406
断	-11.3407
tun	-11.3407
odo	-11.3407
ции	-11.3407
▁kerk	-11.3408
법	-11.3411
ària	-11.3412
▁Năm	-11.3414
▁allerdings	-11.3417
rett	-11.3417
他的	-11.3418
▁großen	-11.3418
pé	-11.3419
▁length	-11.3421
▁interpret	-11.3421
ετ	-11.3421
aŭ	-11.3425
▁дека	-11.3425
▁mise	-11.3425
drž	-11.3426
ume	-11.3428
▁Projekt	-11.3428
בי	-11.3428
board	-11.3429
कार	-11.343
▁commence	-11.343
უ	-11.3432
優	-11.3433
▁1,5	-11.3433
▁fl	-11.3434
▁Deutsche	-11.3435
szy	-11.3436
▁western	-11.3437
sco	-11.3438
ică	-11.344
▁두	-11.3443
▁న	-11.3443
קי	-11.3443
वि	-11.3443
λα	-11.3443
▁religious	-11.3445
ौ	-11.3447
▁Head	-11.345
université	-11.3451
▁París	-11.3451
민	-11.3454
自由	-11.3454
ией	-11.3455
ivat	-11.3456
▁seines	-11.3457
▁narod	-11.3457
pop	-11.3457
▁Doctor	-11.3458
▁שני	-11.3459
aco	-11.3461
ோ	-11.3462
単	-11.3464
▁Poli	-11.3464
▁entire	-11.3464
bak	-11.3464
▁Institut	-11.3465
▁등	-11.3465
igt	-11.3466
▁Kai	-11.3468
▁Prize	-11.3469
られ	-11.3471
▁senior	-11.3471
▁Би	-11.3472
▁sel	-11.3475
▁истории	-11.3476
▁ч	-11.3476
bili	-11.3476
▁elimina	-11.3477
▁població	-11.3477
▁mål	-11.348
▁Olympic	-11.3481
還	-11.3482
▁hänen	-11.3482
SI	-11.3483
▁Fre	-11.3483
вали	-11.3483
ന	-11.3484
▁Chu	-11.3484
▁quattro	-11.3485
▁Southern	-11.3485
▁duas	-11.3485
罗	-11.3487
▁Polish	-11.3487
▁см	-11.349
▁Пол	-11.349
ო	-11.3491
tö	-11.3493
kli	-11.3495
▁pom	-11.3496
▁tinha	-11.3496
bund	-11.3497
▁всего	-11.3497
ْ	-11.3499
▁arab	-11.35
▁міста	-11.35
▁França	-11.3502
­	-11.3502
▁scientific	-11.3502
▁140	-11.3502
▁Pla	-11.3502
eras	-11.3504
▁확인함	-11.3505
τη	-11.3507
ugh	-11.3512
▁মা	-11.3512
SP	-11.3513
ność	-11.3513
▁Cet	-11.3513
▁Last	-11.3515
一般	-11.3516
▁utiliza	-11.3516
–17	-11.3518
alta	-11.3521
▁money	-11.3521
▁kurz	-11.3522
اف	-11.3522
▁الا	-11.3523
第二	-11.3523
▁한다	-11.3524
▁1867	-11.3526
tage	-11.3526
ET	-11.3526
eld	-11.3527
сов	-11.3527
ூ	-11.3528
ware	-11.3529
▁arrest	-11.3529
rock	-11.353
▁10,	-11.3532
▁Wolf	-11.3532
▁buildings	-11.3535
経	-11.3537
*	-11.3538
انی	-11.354
▁Dead	-11.354
▁Three	-11.3541
▁monument	-11.3541
▁produ	-11.3543
atan	-11.3544
▁الب	-11.3544
OC	-11.3546
▁Ran	-11.3549
▁73	-11.355
▁1864	-11.355
▁sorti	-11.355
иш	-11.3552
বি	-11.3553
방	-11.3553
owanie	-11.3554
▁decide	-11.3555
রি	-11.3557
ίου	-11.3557
mai	-11.3559
▁hàng	-11.356
ατ	-11.3561
▁Us	-11.3562
oid	-11.3563
▁divers	-11.3563
▁anderem	-11.3563
ధ	-11.3564
▁ellen	-11.3566
▁הח	-11.3567
▁positive	-11.3567
gir	-11.3567
▁berg	-11.3568
ध	-11.3568
وت	-11.3568
arra	-11.3569
▁1996,	-11.3569
▁склад	-11.357
▁Site	-11.3571
rne	-11.3572
▁PS	-11.3572
hti	-11.3573
▁Ren	-11.3573
▁След	-11.3574
▁характер	-11.3575
▁denen	-11.3577
kari	-11.3579
▁استفاده	-11.3579
语	-11.3579
▁Another	-11.3583
▁senere	-11.3583
하게	-11.3584
мов	-11.3584
送	-11.3585
là	-11.3585
▁sy	-11.3586
▁1993.	-11.3587
▁بعض	-11.3588
▁sine	-11.3592
▁Kil	-11.3592
кол	-11.3592
rol	-11.3592
▁oltre	-11.3595
▁Ple	-11.3595
rö	-11.3596
▁hur	-11.3597
pers	-11.3597
▁haber	-11.3597
след	-11.3598
“)	-11.3599
▁உ	-11.3601
까지	-11.3602
ća	-11.3603
とする	-11.3603
生活	-11.3604
▁ruolo	-11.3604
▁conjunto	-11.3604
▁Box	-11.3606
ép	-11.3609
奇	-11.3611
▁затем	-11.3611
▁municipio	-11.3611
ップ	-11.3611
▁Report	-11.3612
▁vz	-11.3613
▁Dé	-11.3613
▁Mart	-11.3614
rier	-11.3615
▁đối	-11.3615
▁הג	-11.3616
▁בת	-11.3617
▁platform	-11.3618
pä	-11.3618
▁çok	-11.3622
▁always	-11.3623
ॉ	-11.3624
▁Syn	-11.3624
▁før	-11.3628
▁schi	-11.3629
ded	-11.363
▁Лі	-11.363
▁Bab	-11.3632
ghi	-11.3632
▁hizo	-11.3633
ink	-11.3634
夜	-11.3634
▁CO	-11.3634
術	-11.3636
ról	-11.3637
мар	-11.3639
ct	-11.364
府	-11.364
▁meist	-11.364
▁metod	-11.3642
▁Campeonato	-11.3643
▁Khan	-11.3643
ில்	-11.3644
地区	-11.3645
▁pil	-11.3645
onne	-11.3646
▁bridge	-11.3649
nant	-11.3649
uol	-11.365
▁cá	-11.365
▁годов	-11.365
ニー	-11.3652
▁lên	-11.3653
稱	-11.3653
▁político	-11.3656
▁misma	-11.3658
▁фон	-11.3658
▁Groß	-11.3658
▁seizoen	-11.366
▁wide	-11.366
▁barn	-11.3661
▁Way	-11.3662
▁בר	-11.3662
▁hace	-11.3664
▁Ir	-11.3664
camp	-11.3664
tani	-11.3665
番組	-11.3666
▁Natural	-11.3667
▁век	-11.3667
nyi	-11.3667
stor	-11.3667
▁marriage	-11.3669
owane	-11.3672
নে	-11.3673
▁prvi	-11.3673
▁Hoch	-11.3676
ி	-11.3676
aggio	-11.3677
▁cum	-11.3677
▁Ron	-11.3678
dek	-11.3678
▁Allen	-11.3678
▁Spa	-11.3678
▁Patrick	-11.3678
▁lực	-11.3679
rer	-11.368
▁одного	-11.368
▁vii	-11.3682
pris	-11.3682
▁XI	-11.3682
▁outras	-11.3683
ление	-11.3683
▁Regional	-11.3683
▁जाता	-11.3684
▁انگلیسی	-11.3685
vam	-11.3685
▁haut	-11.3685
AA	-11.3685
ання	-11.3686
▁menor	-11.3687
sza	-11.3688
ことを	-11.3688
▁interview	-11.369
▁момент	-11.369
移	-11.3692
vien	-11.3692
▁své	-11.3693
▁cinq	-11.3693
▁sources	-11.3694
▁Grad	-11.3694
▁rond	-11.3695
▁బ	-11.3695
кер	-11.3695
▁fon	-11.3696
▁lin	-11.3696
▁Unternehmen	-11.3696
▁unique	-11.3696
▁neo	-11.3696
âm	-11.3698
ून	-11.3698
θηκε	-11.3698
管理	-11.3699
ahan	-11.37
▁nime	-11.3701
▁read	-11.3702
▁bel	-11.3703
▁mano	-11.3703
권	-11.3703
▁nim	-11.3705
phe	-11.3707
▁генерал	-11.3707
▁themselves	-11.3709
▁Frankfurt	-11.371
様	-11.3712
ába	-11.3712
▁better	-11.3712
▁1876	-11.3715
衛	-11.3715
它	-11.3718
ệ	-11.3718
▁skr	-11.3718
رب	-11.3719
世紀	-11.372
▁•	-11.3721
▁које	-11.3721
anz	-11.3721
uko	-11.3722
▁units	-11.3723
▁parties	-11.3723
▁жив	-11.3724
punt	-11.3728
년에	-11.3728
sberg	-11.3729
经	-11.373
▁commission	-11.373
oka	-11.373
▁ži	-11.373
ář	-11.3731
maa	-11.3732
▁forest	-11.3735
▁ayant	-11.3736
▁المتحدة	-11.3736
▁BC	-11.3738
しており	-11.3739
ол	-11.3739
ymi	-11.374
జ	-11.3742
▁Ton	-11.3742
mmen	-11.3742
▁arti	-11.3745
گ	-11.3745
iar	-11.3745
ће	-11.3745
製	-11.3745
▁Мор	-11.3747
▁Ia	-11.3748
▁Fan	-11.375
▁binnen	-11.3751
▁yet	-11.3752
▁غ	-11.3752
▁pubblicato	-11.3757
ест	-11.3757
റ	-11.3757
▁שמ	-11.3758
▁vég	-11.3762
▁Jahres	-11.3763
中心	-11.3766
▁frente	-11.3766
▁eks	-11.3766
▁Kreis	-11.3766
爆	-11.3768
備	-11.3768
▁Hof	-11.3769
▁tog	-11.3769
▁Wo	-11.3771
PC	-11.3772
sjon	-11.3773
▁talent	-11.3774
nú	-11.3776
nnen	-11.3776
sburg	-11.3776
▁erstmals	-11.3777
▁kamen	-11.3777
izado	-11.3779
▁groot	-11.3781
▁стран	-11.3781
▁vì	-11.3781
duk	-11.3781
ад	-11.3781
verein	-11.3782
時代	-11.3783
њи	-11.3783
grav	-11.3783
▁resp	-11.3784
▁fevereiro	-11.3786
ൻ	-11.3786
jär	-11.379
▁Design	-11.379
▁guitar	-11.379
др	-11.3791
szcz	-11.3791
▁weg	-11.3792
▁verschillende	-11.3792
▁há	-11.3793
мп	-11.3793
ది	-11.3794
▁spent	-11.3795
ција	-11.3797
▁Gui	-11.3798
▁بي	-11.3798
क्ष	-11.3798
▁arm	-11.3799
富	-11.38
▁Following	-11.3801
▁foreign	-11.3801
▁Nar	-11.3802
▁которого	-11.3803
表示	-11.3804
▁única	-11.3804
▁method	-11.3805
▁Ernst	-11.3807
▁sota	-11.3809
▁Ç	-11.3809
dil	-11.3809
▁tính	-11.381
▁muchos	-11.3811
нето	-11.3812
▁hele	-11.3813
▁thông	-11.3815
▁1863	-11.3816
tol	-11.3817
рт	-11.3818
▁particularly	-11.3819
▁administra	-11.3819
▁ĉe	-11.3821
副	-11.3821
▁סי	-11.3822
▁która	-11.3824
Gu	-11.3824
▁relations	-11.3824
▁đá	-11.3825
▁gut	-11.3825
gol	-11.3826
amo	-11.3826
▁4:	-11.3827
стр	-11.3829
▁perform	-11.3829
▁ал	-11.3832
▁открыт	-11.3832
熱	-11.3833
2006	-11.3834
▁игра	-11.3835
▁cet	-11.3837
▁poly	-11.3837
▁jossa	-11.3838
▁prix	-11.3839
eten	-11.3839
▁jogo	-11.384
フェ	-11.384
▁letzten	-11.3841
▁mandat	-11.3841
▁grave	-11.3841
▁types	-11.3842
▁Kos	-11.3842
▁теле	-11.3842
▁Schul	-11.3843
úc	-11.3843
گاه	-11.3843
וק	-11.3844
▁contest	-11.3844
▁changes	-11.3844
öt	-11.3844
施	-11.3845
ming	-11.3846
▁Field	-11.3847
▁management	-11.3848
tch	-11.3849
иться	-11.385
っていた	-11.3852
▁1862	-11.3853
▁movie	-11.3856
kro	-11.3857
Te	-11.3859
▁toutes	-11.3859
αλ	-11.386
تي	-11.3861
▁What	-11.3862
работ	-11.3863
▁этот	-11.3863
▁Chor	-11.3865
▁Channel	-11.3865
▁bắt	-11.3866
▁Jazz	-11.3866
эй	-11.3867
▁уз	-11.3868
▁phase	-11.3868
eira	-11.3871
▁Vers	-11.3871
▁orient	-11.3872
ели	-11.3872
SS	-11.3873
▁περι	-11.3873
▁ه	-11.3874
▁ani	-11.3874
yle	-11.3876
▁statunitense	-11.3877
▁MTV	-11.3878
лося	-11.3878
meister	-11.3878
▁proprio	-11.3879
run	-11.3879
旧	-11.388
wick	-11.3882
▁Via	-11.3883
▁hours	-11.3883
▁še	-11.3883
▁seul	-11.3883
▁hommes	-11.3885
席	-11.3885
IT	-11.3886
▁patron	-11.3886
▁participa	-11.3889
лік	-11.3889
▁Democratic	-11.389
▁vain	-11.389
▁Dark	-11.389
yu	-11.389
▁99	-11.389
eza	-11.389
слав	-11.3891
oh	-11.3891
▁amor	-11.3891
овых	-11.3892
▁gọi	-11.3892
ره	-11.3892
▁Thor	-11.3892
▁Pil	-11.3894
▁dire	-11.3894
▁һәм	-11.3895
▁към	-11.3895
▁relationship	-11.3897
▁DNA	-11.3897
eron	-11.3897
bek	-11.3897
▁errichtet	-11.3898
▁master	-11.3898
シー	-11.3899
gs	-11.3899
dina	-11.39
終	-11.3902
essä	-11.3902
▁écrit	-11.3905
▁pul	-11.3906
Er	-11.3906
▁гол	-11.3907
یان	-11.3908
gil	-11.3908
▁break	-11.3908
▁dok	-11.3909
ナー	-11.391
▁koncert	-11.391
play	-11.3911
▁ausge	-11.3911
▁1830	-11.3912
▁Пер	-11.3912
▁meaning	-11.3912
▁zweiten	-11.3912
▁szer	-11.3912
看	-11.3913
blo	-11.3913
▁Planet	-11.3914
よ	-11.3915
▁prepara	-11.3916
▁entered	-11.3917
wen	-11.3918
inas	-11.392
ët	-11.3921
CC	-11.3921
▁terms	-11.3922
▁84	-11.3922
TA	-11.3923
▁femme	-11.3924
▁Dorf	-11.3925
实	-11.3925
ικής	-11.3925
ळ	-11.3925
jana	-11.3927
IM	-11.3929
利用	-11.393
▁Has	-11.3931
▁Việt	-11.3932
▁의	-11.3932
مل	-11.3933
▁nr	-11.3933
▁Education	-11.3933
эр	-11.3933
还	-11.3933
▁млн	-11.3934
▁samme	-11.3934
kot	-11.3934
ך	-11.3936
ան	-11.3936
▁listopada	-11.3937
▁lá	-11.3937
여	-11.3938
వి	-11.3939
lara	-11.3941
▁transform	-11.3941
▁processo	-11.3941
▁box	-11.3942
▁launched	-11.3942
▁सा	-11.3942
▁Fr	-11.3943
▁Bernard	-11.3943
▁Nella	-11.3943
▁Af	-11.3944
cou	-11.3945
習	-11.3945
сп	-11.3946
▁tale	-11.3947
ాలు	-11.3948
▁Corps	-11.3949
▁evidence	-11.3952
▁ар	-11.3952
▁λ	-11.3952
ạ	-11.3953
▁단	-11.3954
▁teatro	-11.3955
▁Peru	-11.3955
▁room	-11.3955
▁majority	-11.3955
форм	-11.3957
▁Budapest	-11.3958
лів	-11.3959
même	-11.3961
▁мир	-11.3962
▁Hospital	-11.3963
▁rappresenta	-11.3964
▁Jane	-11.3964
itti	-11.3964
inu	-11.3965
▁…	-11.3966
▁вони	-11.3966
最高	-11.3966
▁amount	-11.3966
▁succès	-11.3966
шу	-11.3967
▁versión	-11.3969
ają	-11.3972
tų	-11.3973
国際	-11.3973
zat	-11.3974
hara	-11.3975
▁пад	-11.3976
▁Digital	-11.3977
▁junior	-11.3978
▁vụ	-11.3978
tron	-11.3979
▁Mission	-11.3981
▁mere	-11.3983
cdot	-11.3983
▁Segunda	-11.3984
zni	-11.3987
yar	-11.3987
कर	-11.3988
escu	-11.3991
▁zwar	-11.3992
wel	-11.3992
agi	-11.3995
▁Margaret	-11.3996
אות	-11.3997
arre	-11.3997
▁друг	-11.3997
▁1995,	-11.3997
▁schools	-11.3999
ني	-11.3999
▁ச	-11.4
▁NASA	-11.4
▁previously	-11.4
▁وجود	-11.4001
vig	-11.4003
▁пост	-11.4003
▁dol	-11.4004
▁1868	-11.4004
ians	-11.4005
ningar	-11.4005
ovou	-11.4005
Su	-11.4005
ery	-11.4007
▁молод	-11.4007
▁Gruppe	-11.4008
▁generale	-11.4008
▁située	-11.4009
▁Moon	-11.401
私	-11.4011
SE	-11.4014
▁бол	-11.4014
2018	-11.4014
руч	-11.4014
只	-11.4014
▁bomb	-11.4015
▁Zur	-11.4015
연	-11.4015
wert	-11.4015
plat	-11.4016
▁rate	-11.4016
▁Porto	-11.4017
▁Autor	-11.4017
َّ	-11.4018
▁Schi	-11.4019
▁grupos	-11.4019
ichi	-11.402
▁gun	-11.4025
洛	-11.4026
▁なお	-11.4026
enda	-11.4026
アー	-11.4027
▁champion	-11.4027
▁Transport	-11.403
pha	-11.4031
іт	-11.4031
▁futbol	-11.4033
▁batalla	-11.4033
elen	-11.4034
اط	-11.4036
▁78	-11.4037
há	-11.4037
vie	-11.4037
טר	-11.4038
▁Irish	-11.4039
▁vert	-11.4039
▁원	-11.4039
▁החל	-11.404
ći	-11.404
▁Nur	-11.4041
龍	-11.4041
▁74	-11.4042
रे	-11.4046
▁Nem	-11.4047
▁sti	-11.4047
▁arasında	-11.4049
▁pelos	-11.4049
čka	-11.4052
재	-11.4053
gard	-11.4054
For	-11.4054
▁millions	-11.4055
ids	-11.4059
▁Ĝi	-11.406
äst	-11.4062
▁IMDb	-11.4065
▁fik	-11.4065
變	-11.4066
▁squadra	-11.4067
▁bao	-11.4067
ву	-11.4068
tiques	-11.4068
rick	-11.4068
▁bord	-11.4069
▁fill	-11.407
▁проти	-11.407
▁sc	-11.407
ונה	-11.4071
依	-11.4072
▁Development	-11.4072
▁coast	-11.4072
▁3:	-11.4077
▁plej	-11.4078
▁نو	-11.4079
디	-11.408
▁italiana	-11.408
際	-11.408
都市	-11.4081
illon	-11.4081
线	-11.4084
▁קו	-11.4084
mény	-11.4084
▁ildə	-11.4084
▁köz	-11.4086
над	-11.4086
限	-11.4087
▁Fal	-11.4088
▁value	-11.4088
▁vote	-11.4088
▁노	-11.4092
▁bronze	-11.4093
▁britannique	-11.4093
▁Dabei	-11.4094
▁Ду	-11.4094
多くの	-11.4094
▁cross	-11.4095
▁Din	-11.4096
рож	-11.4096
團	-11.4096
転	-11.4098
исти	-11.4098
0°	-11.4098
▁closed	-11.4099
▁drugi	-11.41
▁Cla	-11.4101
難	-11.4102
2013	-11.4102
reg	-11.4102
▁railway	-11.4102
ström	-11.4102
rò	-11.4103
ures	-11.4103
▁pes	-11.4105
லை	-11.4105
را	-11.4106
пл	-11.4106
생	-11.4108
jak	-11.4112
▁torre	-11.4114
▁liter	-11.4114
▁hệ	-11.4115
▁cell	-11.4115
ghe	-11.4116
▁Miller	-11.4117
rant	-11.4117
▁който	-11.4117
čen	-11.4117
inės	-11.4118
▁visual	-11.412
▁Cuba	-11.4122
」（	-11.4122
佐	-11.4123
служ	-11.4124
▁Eastern	-11.4125
ици	-11.4125
stellung	-11.4126
早	-11.4126
▁Bereich	-11.4126
問	-11.4126
MP	-11.4126
▁Rum	-11.4126
查	-11.4129
त्र	-11.413
▁agli	-11.413
ските	-11.4131
▁Business	-11.4131
lau	-11.4133
▁AS	-11.4133
krat	-11.4134
▁יו	-11.4135
ぎ	-11.4135
tail	-11.4135
ドイツ	-11.4136
因此	-11.4136
Cl	-11.4136
スター	-11.4137
ене	-11.4137
tour	-11.414
▁Qua	-11.4141
RI	-11.4142
▁completa	-11.4142
▁tenía	-11.4143
其中	-11.4143
god	-11.4144
aksi	-11.4146
υρ	-11.4146
往	-11.4148
▁hacer	-11.4149
▁Howard	-11.4149
ري	-11.415
敵	-11.415
난	-11.415
げ	-11.4152
▁tie	-11.4152
▁forced	-11.4153
▁മ	-11.4154
▁primary	-11.4154
속	-11.4154
▁dins	-11.4156
春	-11.4156
ucci	-11.4157
▁Studios	-11.4157
▁issues	-11.4158
zd	-11.4158
▁press	-11.4159
За	-11.4161
▁pad	-11.4162
印	-11.4162
assi	-11.4162
▁Airlines	-11.4163
總	-11.4164
κτ	-11.4165
Ц	-11.4167
יב	-11.4167
▁numerous	-11.4167
希	-11.4169
▁1879	-11.4169
▁popul	-11.4169
となっている	-11.417
dle	-11.417
▁oper	-11.4172
ương	-11.4174
▁territoire	-11.4175
▁spre	-11.4175
▁Puerto	-11.4175
▁ví	-11.4176
▁specie	-11.4176
▁Gau	-11.4178
▁1992,	-11.4179
▁pet	-11.418
▁лист	-11.4181
kabanay	-11.4181
▁tienen	-11.4182
ヘ	-11.4182
承	-11.4183
▁arrive	-11.4183
▁Сер	-11.4184
▁taking	-11.4187
からの	-11.4187
تی	-11.4188
▁мор	-11.4189
▁plays	-11.4189
▁Espesye	-11.419
すると	-11.4193
说	-11.4193
석	-11.4193
▁earlier	-11.4193
▁achter	-11.4195
▁Türk	-11.4196
▁1866	-11.4199
دن	-11.4199
▁lot	-11.42
▁bahasa	-11.4201
mata	-11.4204
▁Museo	-11.4205
▁če	-11.4205
▁Fair	-11.4205
中的	-11.4205
▁massa	-11.4207
▁blieb	-11.4208
ame	-11.4208
▁Río	-11.4209
▁mee	-11.421
stoff	-11.4211
sak	-11.4211
indo	-11.4211
▁feature	-11.4212
ソン	-11.4214
戦争	-11.4215
▁Ohio	-11.4215
▁وم	-11.4216
▁meses	-11.4216
turi	-11.4216
▁Chief	-11.4217
▁cour	-11.4217
▁disputa	-11.4217
▁mostly	-11.4218
▁confi	-11.422
▁done	-11.422
нім	-11.4221
▁före	-11.4221
▁writer	-11.4221
entes	-11.4222
▁Gas	-11.4222
emp	-11.4222
Α	-11.4223
▁Til	-11.4223
▁maakte	-11.4223
اک	-11.4226
彼	-11.4227
тися	-11.4227
рис	-11.4227
▁premio	-11.423
▁£	-11.4231
prop	-11.4234
正式	-11.4235
ரு	-11.4235
▁struktur	-11.4237
该	-11.4238
▁homes	-11.424
▁rico	-11.424
▁зв	-11.4241
▁dazu	-11.4241
RA	-11.4241
▁može	-11.4242
▁tornar	-11.4242
▁Gustav	-11.4245
▁USS	-11.4246
▁hijo	-11.4247
▁городе	-11.4248
▁거	-11.4249
ků	-11.4249
شر	-11.4249
zki	-11.425
▁voit	-11.425
▁расположен	-11.4252
▁sakop	-11.4252
▁Popular	-11.4253
▁februar	-11.4254
▁Door	-11.4254
icos	-11.4254
▁dice	-11.4254
ún	-11.4256
rap	-11.4256
▁square	-11.4256
▁غير	-11.4257
▁flor	-11.4259
▁Wol	-11.426
분	-11.426
▁Josef	-11.4261
Bu	-11.4261
ijo	-11.4261
▁afirma	-11.4261
▁Mind	-11.4262
▁associated	-11.4263
▁cantante	-11.4265
負	-11.4266
▁kommen	-11.4266
nc	-11.4267
▁doctor	-11.4268
▁Ä	-11.4268
関	-11.4269
AT	-11.427
▁zeuden	-11.4271
▁Amt	-11.4271
ować	-11.4272
sted	-11.4272
▁Swedish	-11.4272
港	-11.4277
ρά	-11.4277
▁stabil	-11.4278
▁operations	-11.4281
塞	-11.4282
香港	-11.4282
тал	-11.4283
▁francese	-11.4283
بل	-11.4284
▁journalist	-11.4285
▁tạo	-11.4286
lö	-11.4287
▁teori	-11.4288
刊	-11.4288
▁కా	-11.429
▁gaz	-11.4291
▁Story	-11.4291
復	-11.4294
FA	-11.4294
्या	-11.4295
▁1865	-11.4296
tón	-11.4296
▁présente	-11.4297
▁rich	-11.4298
RS	-11.4298
ακ	-11.4299
▁Egy	-11.4299
▁vu	-11.4299
০	-11.43
▁torna	-11.4302
▁1872	-11.4303
飛	-11.4303
ल्	-11.4303
▁Amerikaanse	-11.4304
tero	-11.4304
▁Mitte	-11.4305
▁населения	-11.4305
園	-11.4306
▁dwa	-11.4307
▁сезон	-11.4308
▁shown	-11.431
▁diferencia	-11.431
fahrt	-11.431
hum	-11.431
ander	-11.431
шта	-11.4311
ились	-11.4312
▁1873	-11.4312
▁Death	-11.4312
▁llamado	-11.4314
▁phim	-11.4314
אן	-11.4315
-21	-11.4316
!"	-11.4316
্	-11.4316
▁tidligere	-11.4317
▁än	-11.4317
▁Heart	-11.4317
▁лише	-11.4318
▁farm	-11.4318
▁flag	-11.432
▁одно	-11.432
▁Six	-11.4322
帝	-11.4322
sı	-11.4323
▁quartier	-11.4323
іс	-11.4323
▁bem	-11.4324
▁scène	-11.4324
dó	-11.4325
▁είχε	-11.4326
▁cosa	-11.4326
пт	-11.4328
급	-11.4329
lista	-11.4329
пре	-11.4331
▁mir	-11.4331
▁André	-11.4331
▁profit	-11.4332
mesi	-11.4332
▁eerst	-11.4334
инг	-11.4334
قا	-11.4335
ায়	-11.4337
▁nhiên	-11.4338
עות	-11.4338
▁alte	-11.4339
▁alter	-11.434
ούν	-11.434
應	-11.4341
洋	-11.4341
▁distrito	-11.4341
▁believed	-11.4342
sze	-11.4343
▁Islands	-11.4343
île	-11.4344
▁defeated	-11.4344
谷	-11.4344
च्या	-11.4344
inių	-11.4345
ikka	-11.4346
▁والم	-11.4346
▁Pet	-11.4347
▁первый	-11.4347
ark	-11.4348
esc	-11.4348
▁déc	-11.4349
uze	-11.4349
華	-11.435
kr	-11.435
影	-11.435
▁Хар	-11.435
遠	-11.435
▁Нью	-11.4351
tada	-11.4352
納	-11.4354
攻撃	-11.4354
solu	-11.4354
nă	-11.4354
▁стр	-11.4354
▁molti	-11.4354
▁varie	-11.4354
▁Johan	-11.4355
rim	-11.4356
ограф	-11.4356
▁account	-11.4357
▁ankaŭ	-11.4357
~	-11.4358
▁عليه	-11.4359
פר	-11.436
▁invece	-11.436
▁laatste	-11.4361
▁location	-11.4361
лем	-11.4361
ؤ	-11.4361
▁1877	-11.4362
cks	-11.4363
ують	-11.4364
▁stu	-11.4364
▁godina	-11.4365
πο	-11.4366
▁prominent	-11.4366
▁Mega	-11.4367
ා	-11.4368
現在	-11.4368
▁prove	-11.4368
勒	-11.4369
節	-11.4369
▁остров	-11.437
▁kali	-11.437
▁border	-11.437
▁Lincoln	-11.4372
選手	-11.4373
gebiet	-11.4374
▁présent	-11.4376
▁kommt	-11.4376
nap	-11.4377
kamp	-11.4378
▁fight	-11.4378
וע	-11.4378
評	-11.4378
▁θα	-11.4379
▁anglès	-11.4379
itel	-11.4381
▁1875	-11.4382
lijk	-11.4382
▁Pos	-11.4382
kunde	-11.4383
▁Sitz	-11.4383
▁names	-11.4386
▁Deutschen	-11.4386
reich	-11.4387
▁ఒక	-11.4387
▁Pot	-11.4387
▁origine	-11.4387
ље	-11.4388
▁Дл	-11.439
能力	-11.4391
▁corre	-11.4391
▁App	-11.4393
▁več	-11.4394
▁profesional	-11.4394
▁mayoría	-11.4397
▁prije	-11.4397
▁Jest	-11.4398
▁discovered	-11.4398
700	-11.44
▁château	-11.44
▁pels	-11.4402
▁역	-11.4403
tado	-11.4404
▁Global	-11.4405
래	-11.4406
jąc	-11.4407
▁carbon	-11.4407
▁mindre	-11.4409
▁liên	-11.4409
▁voice	-11.4412
▁Hamilton	-11.4413
ята	-11.4413
▁detta	-11.4415
▁kuin	-11.4416
یی	-11.4416
▁machine	-11.4416
▁død	-11.4418
運動	-11.4419
▁export	-11.4419
gui	-11.4419
▁września	-11.4419
ült	-11.4421
stelle	-11.4422
▁말	-11.4422
▁objekt	-11.4426
maktadır	-11.4427
▁х	-11.4427
▁שלו	-11.4427
ダー	-11.4427
чер	-11.4428
cije	-11.4428
▁bla	-11.4428
アルバム	-11.4429
AN	-11.4429
ança	-11.4431
▁quyền	-11.4432
▁nombreuses	-11.4432
▁emp	-11.4432
ић	-11.4433
▁Iron	-11.4433
klar	-11.4433
▁Además	-11.4435
że	-11.4435
▁pis	-11.4436
▁modelo	-11.4436
ihin	-11.4437
▁zm	-11.4438
tsch	-11.4438
▁seperti	-11.444
வு	-11.444
▁έχει	-11.4441
▁титул	-11.4442
ív	-11.4442
ності	-11.4443
▁trung	-11.4443
ован	-11.4443
▁gilt	-11.4443
▁পা	-11.4443
ступ	-11.4444
ður	-11.4444
▁ই	-11.4444
▁Danmark	-11.4445
ĝ	-11.4445
▁Вер	-11.4447
哈	-11.4447
▁αλλά	-11.4447
▁125	-11.4448
වා	-11.4448
▁přes	-11.4448
cum	-11.4449
BS	-11.4452
▁1994,	-11.4453
▁ara	-11.4454
▁Ş	-11.4454
▁Dragon	-11.4454
▁rue	-11.4456
▁Shu	-11.4457
Si	-11.446
▁mundial	-11.446
▁speed	-11.4462
urile	-11.4463
▁éxito	-11.4466
▁Mul	-11.4466
▁temple	-11.4466
▁energi	-11.4467
▁Кол	-11.4468
iente	-11.4471
▁referred	-11.4471
▁आहे	-11.4472
ρε	-11.4472
질	-11.4472
▁штат	-11.4475
ith	-11.4475
די	-11.4475
▁составе	-11.4476
▁link	-11.4478
неопр	-11.448
▁96	-11.448
book	-11.448
▁orbit	-11.4481
ller	-11.4481
ич	-11.4483
▁Bak	-11.4484
▁مو	-11.4485
▁muss	-11.4485
▁plans	-11.4486
▁Feld	-11.4486
▁سی	-11.4489
▁musste	-11.449
▁재	-11.4492
rata	-11.4494
ttä	-11.4494
όρ	-11.4494
▁1869	-11.4495
▁Bruce	-11.4495
▁hil	-11.4495
▁Beispiel	-11.4497
▁Typ	-11.4498
▁Vil	-11.4499
lığı	-11.4501
▁кој	-11.4502
▁Че	-11.4505
LA	-11.4505
rait	-11.4506
▁Гу	-11.4507
▁υπο	-11.4507
▁clear	-11.4508
▁cut	-11.4509
▁risk	-11.4509
ষ	-11.451
乗	-11.4512
▁тра	-11.4512
▁Dieser	-11.4513
唱	-11.4513
两	-11.4514
▁очень	-11.4514
▁département	-11.4514
לים	-11.4516
▁текст	-11.4516
▁staff	-11.4517
工作	-11.4518
ordre	-11.4519
▁Dort	-11.4519
ヌ	-11.452
▁society	-11.452
sed	-11.4521
ување	-11.4521
▁dock	-11.4522
▁Marco	-11.4522
▁Ман	-11.4523
▁Bit	-11.4523
kis	-11.4524
があり	-11.4525
tit	-11.4526
▁שם	-11.4526
刑	-11.4529
Bi	-11.4529
mad	-11.4531
▁Text	-11.4531
▁secara	-11.4531
ার	-11.4532
▁additional	-11.4532
▁המו	-11.4533
भ	-11.4533
илась	-11.4533
igkeit	-11.4533
▁chanson	-11.4534
▁characters	-11.4536
▁mental	-11.4536
▁ancient	-11.4537
▁Age	-11.4537
▁vast	-11.4537
lés	-11.4538
añ	-11.4538
▁questi	-11.454
▁joueur	-11.4543
EC	-11.4544
▁Bag	-11.4545
▁위	-11.4545
傷	-11.4545
▁Leipzig	-11.4545
▁Nintendo	-11.4545
▁ligt	-11.4545
▁való	-11.4546
▁Му	-11.4546
▁Run	-11.4547
李	-11.4547
▁dapit	-11.4553
▁82	-11.4554
▁produit	-11.4554
кою	-11.4555
▁11,	-11.4556
ssel	-11.4559
onic	-11.456
었다	-11.456
▁Ни	-11.4561
▁problems	-11.4562
ём	-11.4563
ères	-11.4563
pf	-11.4564
გ	-11.4564
omi	-11.4564
Bas	-11.4565
चा	-11.4567
▁mainly	-11.457
нда	-11.457
▁Ú	-11.457
▁otra	-11.4571
halt	-11.4572
tare	-11.4573
ств	-11.4574
ote	-11.4574
▁1991,	-11.4574
ване	-11.4575
精	-11.4576
cip	-11.4577
▁companies	-11.458
音楽	-11.458
▁tit	-11.4581
▁Staaten	-11.4582
oto	-11.4584
▁thức	-11.4587
▁journal	-11.4587
▁Mes	-11.4587
▁sva	-11.4587
联	-11.4587
ικ	-11.4588
CA	-11.4588
мон	-11.4588
▁Tang	-11.4589
asse	-11.459
を持つ	-11.459
▁szám	-11.4593
▁Website	-11.4593
lage	-11.4594
▁släktet	-11.4594
郎	-11.4596
بة	-11.4596
лін	-11.4596
aki	-11.4597
ൽ	-11.4598
▁integr	-11.4598
RC	-11.4599
▁protection	-11.4601
хан	-11.4601
stup	-11.4602
jin	-11.4603
gesetzt	-11.4605
▁Poland	-11.4605
▁Baron	-11.4606
▁Schw	-11.4606
▁예	-11.4606
▁חלק	-11.4607
CH	-11.4608
යි	-11.4608
يب	-11.4609
▁viel	-11.4609
৫	-11.4609
ған	-11.4609
▁Sou	-11.461
alia	-11.4612
chan	-11.4613
▁могут	-11.4614
rb	-11.4614
ď	-11.4614
tog	-11.4615
选	-11.4615
лық	-11.4615
▁cities	-11.4615
osz	-11.4616
ándose	-11.4616
نت	-11.4618
▁ф	-11.4618
▁đề	-11.4618
▁remporte	-11.4619
▁slik	-11.4619
そ	-11.462
ték	-11.4621
mpi	-11.4622
▁1874	-11.4622
▁Einsatz	-11.4622
▁Anderson	-11.4623
בו	-11.4623
▁prim	-11.4624
bei	-11.4624
TO	-11.4624
▁Bild	-11.4625
▁kaksi	-11.4625
▁nalazi	-11.4626
陸	-11.4627
▁trata	-11.4627
▁disease	-11.4628
▁manga	-11.4631
望	-11.4631
tő	-11.4633
洲	-11.4634
rm	-11.4634
▁1:	-11.4635
ked	-11.4635
jm	-11.4635
леж	-11.4636
ull	-11.4636
кт	-11.4636
رس	-11.4637
藤	-11.4637
▁3000	-11.4637
ages	-11.4638
▁tener	-11.4638
▁така	-11.4638
▁Cri	-11.4642
▁Ге	-11.4642
imin	-11.4642
рок	-11.4643
▁nueva	-11.4644
eno	-11.4644
ックス	-11.4645
▁jeune	-11.4646
▁appearance	-11.4647
▁Gesellschaft	-11.4647
▁안	-11.4647
▁пу	-11.4648
航空	-11.4649
▁গ	-11.4649
地域	-11.465
yi	-11.4651
▁principales	-11.4652
▁cos	-11.4653
開発	-11.4653
▁OS	-11.4655
scrit	-11.4655
aten	-11.4655
ッド	-11.4656
iej	-11.4656
▁aparece	-11.4657
▁annual	-11.4657
▁medieval	-11.4657
▁tall	-11.4658
▁měl	-11.4659
mbra	-11.4659
▁било	-11.466
ръ	-11.466
▁Gan	-11.466
اج	-11.4661
▁Dance	-11.4661
▁posterior	-11.4662
▁Gene	-11.4665
▁Ng	-11.4666
église	-11.4666
miştir	-11.4666
▁כאשר	-11.4666
ione	-11.4666
»).	-11.4667
▁condu	-11.4667
нич	-11.4667
パー	-11.4668
انه	-11.4668
enti	-11.4669
corre	-11.4669
RO	-11.4669
▁inoltre	-11.4669
▁이후	-11.467
▁ils	-11.4671
▁punt	-11.4672
▁Reichs	-11.4673
▁本	-11.4674
כר	-11.4674
▁സ	-11.4674
▁deriva	-11.4675
kum	-11.4676
meter	-11.4676
▁власти	-11.4677
▁Universal	-11.4679
▁certains	-11.4679
▁Anthony	-11.4679
▁championnat	-11.4679
teil	-11.4681
сте	-11.4682
ські	-11.4683
▁kry	-11.4683
▁propos	-11.4683
ത	-11.4684
änd	-11.4684
itt	-11.4684
▁anul	-11.4686
▁Stadium	-11.4686
čan	-11.4686
楽	-11.4688
tino	-11.4689
▁allemand	-11.469
標	-11.469
▁chief	-11.4692
ič	-11.4692
фе	-11.4693
graph	-11.4695
▁larger	-11.4696
▁części	-11.4696
東京	-11.4697
关	-11.4698
▁prie	-11.4699
point	-11.4699
▁speelde	-11.4699
bou	-11.4702
▁više	-11.4702
▁objetivo	-11.4702
▁član	-11.4702
▁Forest	-11.4703
нии	-11.4703
▁Girl	-11.4703
▁mediante	-11.4704
▁работ	-11.4704
▁sezon	-11.4704
ції	-11.4704
▁способ	-11.4704
▁تو	-11.4705
יד	-11.4706
▁Ved	-11.4706
وز	-11.4706
isia	-11.4706
tka	-11.4706
▁sand	-11.4706
赤	-11.4708
OR	-11.4709
▁επ	-11.471
になった	-11.4713
gri	-11.4713
ією	-11.4714
gam	-11.4714
سا	-11.4714
れた	-11.4715
▁insieme	-11.4716
害	-11.4717
▁politician	-11.4717
mini	-11.4717
味	-11.4719
▁tylko	-11.4721
▁teoria	-11.4722
▁attended	-11.4723
▁Canal	-11.4725
▁Ven	-11.4725
agem	-11.4726
ൂ	-11.4726
▁stanovnika	-11.4727
нен	-11.4728
▁Parliament	-11.4728
付け	-11.4728
▁عمل	-11.4729
▁1840	-11.4729
▁fusion	-11.473
хо	-11.473
lly	-11.473
▁combina	-11.473
мест	-11.473
会社	-11.4732
▁5-	-11.4735
▁1989.	-11.4738
ər	-11.4738
▁whole	-11.4738
▁Mus	-11.4739
▁oldu	-11.474
▁lần	-11.474
tika	-11.4741
▁Nr	-11.4741
blad	-11.4742
▁Einwohner	-11.4743
▁trị	-11.4743
iteit	-11.4744
합	-11.4744
▁Є	-11.4745
шли	-11.4745
▁call	-11.4745
aris	-11.4745
▁Был	-11.4745
cara	-11.4746
▁condition	-11.4746
▁mètres	-11.4748
▁Sab	-11.4748
רת	-11.475
▁review	-11.475
▁1993,	-11.475
tory	-11.4751
uge	-11.4753
組織	-11.4753
▁במהלך	-11.4754
▁diversi	-11.4754
▁знач	-11.4757
▁ז	-11.4757
▁histori	-11.4757
▁Dat	-11.4757
▁így	-11.4758
▁τ	-11.4759
ını	-11.4759
эт	-11.4761
vision	-11.4761
▁než	-11.4761
enta	-11.4762
들이	-11.4762
▁rim	-11.4763
▁ft	-11.4764
▁Ту	-11.4765
llo	-11.4765
nál	-11.4765
▁activities	-11.4766
8°	-11.4767
রে	-11.4767
▁plane	-11.4768
▁stycznia	-11.4769
▁Ис	-11.477
▁Bos	-11.4771
▁kes	-11.4772
esse	-11.4773
▁acid	-11.4774
uja	-11.4774
mil	-11.4776
▁எ	-11.4776
エル	-11.4777
lər	-11.4777
カル	-11.4777
amb	-11.4778
Per	-11.4778
duc	-11.4779
▁troisième	-11.4779
IA	-11.478
కి	-11.4781
Star	-11.4781
шки	-11.4785
unk	-11.4786
తి	-11.4786
рес	-11.4787
নের	-11.4787
bad	-11.4787
暴	-11.4789
они	-11.4791
▁игр	-11.4791
קה	-11.4791
▁azonban	-11.4792
▁unos	-11.4793
pping	-11.4794
autre	-11.4794
action	-11.4795
▁Lac	-11.4796
▁двор	-11.4797
▁pose	-11.4799
▁1980-	-11.4799
▁financial	-11.48
bran	-11.4801
試	-11.4801
ót	-11.4802
▁Michigan	-11.4802
▁образом	-11.4802
▁לי	-11.4802
రా	-11.4804
▁други	-11.4805
жд	-11.4805
▁möglich	-11.4805
▁Marcel	-11.4805
rez	-11.4806
εν	-11.4808
fond	-11.4808
悪	-11.4808
ফ	-11.4809
▁solar	-11.481
kun	-11.481
▁hát	-11.4811
▁Dur	-11.4811
▁हा	-11.4811
ブル	-11.4812
▁течение	-11.4812
▁Frankreich	-11.4812
▁kru	-11.4813
▁大	-11.4814
tou	-11.4814
尾	-11.4815
▁kommer	-11.4816
▁כדי	-11.4818
▁initial	-11.4819
▁travel	-11.4819
▁δι	-11.4819
▁Rolle	-11.4819
족	-11.4821
erin	-11.4822
▁Мал	-11.4822
▁county	-11.4822
▁regul	-11.4825
▁начал	-11.4826
▁Cour	-11.4826
▁grec	-11.4826
▁imperial	-11.4827
CS	-11.4827
έλ	-11.4828
vari	-11.4828
▁proto	-11.4828
▁büyük	-11.4829
育	-11.483
ことが	-11.4831
▁Pala	-11.4831
▁lig	-11.4832
▁nimi	-11.4832
▁Instituto	-11.4832
▁Все	-11.4833
ували	-11.4833
été	-11.4833
▁Gla	-11.4833
▁accident	-11.4834
▁attempt	-11.4834
▁ஒரு	-11.4834
▁вона	-11.4835
ografi	-11.4835
inte	-11.4835
skoj	-11.4837
Ri	-11.4837
▁gleich	-11.4837
▁לב	-11.4838
▁hus	-11.4838
▁originale	-11.4838
協	-11.4839
▁passed	-11.4842
dire	-11.4842
тро	-11.4843
ικού	-11.4843
cept	-11.4844
tów	-11.4845
▁71	-11.4846
▁amerikansk	-11.4846
ति	-11.4846
▁Dies	-11.4847
▁allen	-11.4847
▁Indi	-11.4849
▁centra	-11.485
▁konstru	-11.4851
▁рік	-11.4852
▁nove	-11.4852
στ	-11.4852
▁ද	-11.4853
▁Бр	-11.4853
▁Folge	-11.4856
▁Slov	-11.4857
usz	-11.4857
▁Province	-11.4857
▁mineral	-11.4857
▁considerado	-11.4857
ről	-11.4858
提供	-11.4858
▁Korean	-11.4859
фер	-11.486
▁siden	-11.486
ující	-11.4861
成為	-11.4861
▁север	-11.4862
▁إن	-11.4862
û	-11.4862
ր	-11.4865
判	-11.4865
▁bad	-11.4866
▁начале	-11.4868
▁Secret	-11.4871
▁uses	-11.4871
란	-11.4872
dział	-11.4872
roma	-11.4872
残	-11.4873
▁permit	-11.4873
永	-11.4873
itos	-11.4874
▁poor	-11.4874
▁مر	-11.4874
gni	-11.4875
▁less	-11.4877
وان	-11.4877
down	-11.4877
▁kraju	-11.4878
ющий	-11.488
5%	-11.488
▁Zijn	-11.4881
▁Ти	-11.4881
▁minden	-11.4883
▁finally	-11.4883
وی	-11.4883
▁кол	-11.4883
oja	-11.4883
дор	-11.4884
▁Weg	-11.4885
جر	-11.4885
▁ക	-11.4885
种	-11.4885
▁lipca	-11.4885
▁ließ	-11.4885
tara	-11.4885
▁gehört	-11.4886
について	-11.489
пад	-11.4891
▁fre	-11.4891
aq	-11.4891
▁după	-11.4893
▁policy	-11.4895
cza	-11.4895
دی	-11.4895
▁enfants	-11.4895
▁encara	-11.4896
وية	-11.4896
נט	-11.4897
▁த	-11.4898
▁manifest	-11.49
▁zuten	-11.4901
▁giáo	-11.4901
▁работы	-11.4901
Fa	-11.4902
zz	-11.4902
赛	-11.4903
ound	-11.4903
▁consiste	-11.4904
mış	-11.4904
figur	-11.4906
维	-11.4906
▁život	-11.4908
▁czerwca	-11.491
▁Hil	-11.491
niem	-11.4911
통	-11.4913
▁kä	-11.4913
Mi	-11.4913
Go	-11.4915
▁udział	-11.4915
▁Jeho	-11.4916
抗	-11.4916
温	-11.4916
▁bag	-11.4917
גן	-11.4917
zó	-11.4917
▁FA	-11.4917
ød	-11.4918
▁Due	-11.4921
に対して	-11.4922
ała	-11.4923
▁Fred	-11.4923
tör	-11.4925
▁Hat	-11.4925
வை	-11.4927
いて	-11.4928
▁בא	-11.4928
▁mới	-11.4928
gata	-11.493
▁mac	-11.493
▁81	-11.4931
▁tiu	-11.4932
▁pueblo	-11.4933
▁Å	-11.4935
▁omdat	-11.4935
▁spot	-11.4935
▁Wer	-11.4936
▁file	-11.4937
עת	-11.4937
▁realiza	-11.4937
satz	-11.4939
üs	-11.4939
സ്	-11.4939
dá	-11.494
▁niin	-11.494
ziel	-11.4941
▁Micro	-11.4943
▁lines	-11.4944
יצ	-11.4944
▁esca	-11.4945
維	-11.4946
▁SA	-11.4946
▁Esto	-11.4946
▁poden	-11.4949
▁дела	-11.495
▁één	-11.4951
quí	-11.4951
MI	-11.4952
quet	-11.4952
idades	-11.4953
▁Guy	-11.4953
▁Dem	-11.4953
▁Championships	-11.4955
▁Alice	-11.4955
ultimo	-11.4955
▁۲	-11.4956
▁מר	-11.4956
▁figlio	-11.4956
▁Besøk	-11.4957
书	-11.4959
uten	-11.496
চ	-11.496
▁Bart	-11.4962
▁kell	-11.4963
קט	-11.4963
హ	-11.4963
▁bà	-11.4964
tio	-11.4966
▁комплекс	-11.4966
▁Also	-11.4966
onder	-11.4966
ंड	-11.4968
such	-11.4969
roy	-11.497
6°	-11.497
titel	-11.4971
По	-11.4972
وار	-11.4972
▁Clo	-11.4973
mid	-11.4974
▁formar	-11.4976
ië	-11.4976
▁반	-11.4976
▁thì	-11.4977
測	-11.4979
rede	-11.498
וד	-11.4981
テレビ	-11.4981
▁image	-11.4982
erede	-11.4982
tation	-11.4982
▁Metal	-11.4983
▁Clark	-11.4983
чы	-11.4985
iny	-11.4985
geschichte	-11.4986
▁tête	-11.4987
▁Ann	-11.4987
innen	-11.4987
שי	-11.499
trag	-11.499
▁plu	-11.4991
▁сезона	-11.4992
uru	-11.4992
५	-11.4992
▁además	-11.4992
▁ama	-11.4992
even	-11.4993
wagen	-11.4994
葉	-11.4994
Uni	-11.4995
éré	-11.4995
返	-11.4996
neet	-11.4996
gado	-11.4997
▁enter	-11.4997
lung	-11.4998
▁어	-11.4998
яс	-11.4999
▁technique	-11.5
ät	-11.5001
▁dra	-11.5001
人物	-11.5002
許	-11.5002
▁οποία	-11.5002
▁francesa	-11.5002
▁ministro	-11.5004
▁forms	-11.5005
▁ط	-11.5005
▁участь	-11.5006
nale	-11.5006
▁joue	-11.5006
▁Vir	-11.5008
▁languages	-11.5008
▁находится	-11.5009
▁98	-11.501
▁Place	-11.501
orden	-11.5011
警	-11.5012
板	-11.5012
ható	-11.5014
▁friend	-11.5015
uju	-11.5015
▁Schiff	-11.5015
▁neben	-11.5015
2)	-11.5016
▁nine	-11.5017
聯	-11.5018
▁кои	-11.5018
▁bataille	-11.5019
▁deve	-11.5019
モン	-11.5019
▁introdu	-11.5019
▁denomina	-11.5021
▁clubs	-11.5021
stellen	-11.5022
候	-11.5022
▁máy	-11.5022
▁esse	-11.5022
تو	-11.5023
▁agua	-11.5023
▁interna	-11.5027
▁groep	-11.5028
▁వ	-11.5028
▁нов	-11.503
▁tranh	-11.503
▁rus	-11.5031
цій	-11.5031
real	-11.5033
▁фа	-11.5033
▁virus	-11.5035
▁luego	-11.5036
▁دیگر	-11.5037
▁Rai	-11.5037
▁thủ	-11.5038
▁бу	-11.5039
▁cầu	-11.504
scha	-11.504
▁chance	-11.5041
pac	-11.5041
▁Scotland	-11.5042
▁pessoas	-11.5042
▁siguiente	-11.5044
stal	-11.5044
▁veröffentlicht	-11.5044
▁분	-11.5046
现	-11.5048
▁arre	-11.5048
▁Hum	-11.5048
完成	-11.5049
▁erneut	-11.505
boj	-11.5052
▁900	-11.5052
ीय	-11.5053
▁tut	-11.5055
▁Germania	-11.5055
نس	-11.5055
zzi	-11.5056
▁מש	-11.5056
宣	-11.5058
аш	-11.5059
▁발	-11.5059
ரா	-11.506
▁그는	-11.5061
2014	-11.5062
iller	-11.5062
yak	-11.5063
▁Earl	-11.5064
▁Пе	-11.5065
нат	-11.5065
tama	-11.5065
▁храм	-11.5065
▁marque	-11.5066
▁đường	-11.5066
▁inglese	-11.5066
into	-11.5067
▁Norge	-11.5067
▁числе	-11.5067
ину	-11.5069
گی	-11.5069
▁WWE	-11.5072
▁verschiedenen	-11.5072
▁Kỳ	-11.5072
▁لو	-11.5074
▁habe	-11.5074
▁być	-11.5074
▁limited	-11.5075
▁Erst	-11.5075
▁makes	-11.5076
▁Пере	-11.5077
▁dum	-11.5078
▁ambos	-11.5079
tain	-11.5079
▁Metro	-11.508
akt	-11.508
▁broadcast	-11.5082
▁Armee	-11.5082
▁construit	-11.5083
izar	-11.5083
бри	-11.5084
ït	-11.5085
▁Uma	-11.5086
▁commun	-11.5086
▁Horn	-11.5087
▁Mutter	-11.5087
▁граф	-11.5088
▁award	-11.5088
▁luz	-11.5089
▁heart	-11.5089
ало	-11.509
▁grandi	-11.5091
▁content	-11.5092
▁Get	-11.5094
▁Atlantic	-11.5095
▁живот	-11.5095
▁тип	-11.5095
▁kuitenkin	-11.5096
▁gy	-11.5096
▁Arbeit	-11.5096
EP	-11.5097
▁kis	-11.5097
▁medical	-11.5099
▁вод	-11.51
komst	-11.5101
▁여	-11.5101
ине	-11.5102
৮	-11.5102
נת	-11.5104
▁86	-11.5104
ыя	-11.5106
סי	-11.5107
2°	-11.5108
▁имени	-11.5108
ží	-11.5108
▁gebruik	-11.5109
vec	-11.511
▁maken	-11.5111
namen	-11.5112
▁Provinz	-11.5112
aff	-11.5113
▁Cooper	-11.5114
フランス	-11.5114
點	-11.5116
▁persone	-11.5117
▁golf	-11.5117
ově	-11.5117
▁schließlich	-11.5119
▁пункт	-11.5119
Har	-11.512
▁utilisé	-11.512
▁pierwszy	-11.5121
фор	-11.5122
核	-11.5122
▁erreichte	-11.5123
▁robot	-11.5123
▁Legend	-11.5123
▁región	-11.5124
▁grudnia	-11.5126
▁тр	-11.5126
organisation	-11.5127
ニア	-11.5127
scheid	-11.5128
нс	-11.5128
arten	-11.5128
▁permanent	-11.5129
決定	-11.5129
▁sull	-11.513
▁больше	-11.513
▁gehörte	-11.513
▁Vice	-11.5131
▁hoofd	-11.5132
▁chart	-11.5132
▁resultado	-11.5132
▁royal	-11.5132
▁לח	-11.5132
▁periode	-11.5133
gd	-11.5134
▁הב	-11.5135
gres	-11.5136
久	-11.5136
▁rule	-11.5137
ők	-11.5138
▁inizia	-11.5139
lok	-11.5141
▁כך	-11.5141
anje	-11.5141
נק	-11.5141
▁sm	-11.5141
▁divenne	-11.5143
نو	-11.5143
▁mouvement	-11.5146
pren	-11.5146
▁Guide	-11.5146
▁Medal	-11.5148
▁recht	-11.5149
▁Mod	-11.5149
▁rất	-11.515
▁increase	-11.515
gie	-11.5153
▁focus	-11.5153
▁jejich	-11.5154
position	-11.5155
▁miasta	-11.5155
gers	-11.5155
▁prac	-11.5156
▁arra	-11.5156
▁dir	-11.5157
horn	-11.5157
zal	-11.5159
▁Shan	-11.5159
▁ந	-11.5159
cích	-11.516
−	-11.516
▁operation	-11.516
▁aplica	-11.5162
▁peng	-11.5163
▁Bé	-11.5163
▁класс	-11.5163
▁except	-11.5163
▁kwietnia	-11.5166
▁inwoners	-11.5166
רים	-11.5168
זה	-11.5169
▁دست	-11.5169
▁gibi	-11.517
ிய	-11.5171
▁Coast	-11.5171
ması	-11.5171
▁Erik	-11.5171
▁termin	-11.5172
▁kart	-11.5172
▁Kro	-11.5173
▁Zweiten	-11.5173
▁carried	-11.5175
чки	-11.5175
▁ahol	-11.5175
kit	-11.5176
▁becoming	-11.5176
▁Sri	-11.5177
▁families	-11.5177
▁اما	-11.5178
▁besar	-11.5179
ठ	-11.518
念	-11.5183
▁territori	-11.5183
ulu	-11.5184
inha	-11.5185
▁аб	-11.5187
▁coll	-11.5187
▁Hugo	-11.5188
▁erschien	-11.5189
▁maison	-11.5189
ifik	-11.5189
cono	-11.5191
▁allo	-11.5192
▁1990-	-11.5192
▁ç	-11.5192
▁Kla	-11.5192
▁conven	-11.5193
ljen	-11.5194
置	-11.5196
▁realiz	-11.5197
▁Version	-11.5197
ப்பு	-11.5198
▁pole	-11.5198
반	-11.5198
▁Express	-11.5198
ového	-11.5198
▁esposa	-11.52
들은	-11.52
ора	-11.52
▁capitale	-11.5201
тя	-11.5201
2005	-11.5201
▁noin	-11.5201
▁Vic	-11.5201
▁ó	-11.5201
מת	-11.5203
▁conhecido	-11.5203
▁kemudian	-11.5203
тин	-11.5206
▁Cuando	-11.5206
▁join	-11.5206
icht	-11.5207
łą	-11.5209
▁lançado	-11.521
âge	-11.5211
▁Data	-11.5211
▁Zwei	-11.5212
▁supported	-11.5213
电	-11.5213
čas	-11.5214
ении	-11.5214
seite	-11.5216
▁بین	-11.5216
▁weit	-11.5217
ீ	-11.5217
▁nation	-11.5217
تها	-11.5223
底	-11.5224
▁лишь	-11.5224
▁apresenta	-11.5225
gué	-11.5227
▁fur	-11.5227
▁días	-11.5227
レン	-11.523
▁property	-11.5231
▁développement	-11.5231
されていた	-11.5232
lant	-11.5233
▁един	-11.5233
▁impact	-11.5234
fici	-11.5234
▁região	-11.5235
▁بی	-11.5236
итель	-11.5236
▁клас	-11.5236
索	-11.5237
▁кра	-11.5238
▁anh	-11.5239
itaj	-11.524
▁wereld	-11.524
▁జ	-11.5241
forme	-11.5241
▁lever	-11.5241
▁parallel	-11.5242
▁parlament	-11.5243
関係	-11.5243
▁журнал	-11.5243
左	-11.5244
llinen	-11.5244
▁AG	-11.5244
▁Illinois	-11.5246
▁prote	-11.5247
▁종	-11.5248
また	-11.5248
gere	-11.525
▁weeks	-11.525
▁гг	-11.5251
tér	-11.5251
▁cấp	-11.5252
▁fell	-11.5253
▁đánh	-11.5254
lø	-11.5255
▁walk	-11.5255
▁alternative	-11.5255
▁meisten	-11.5256
主義	-11.5257
▁stations	-11.5257
以上	-11.5257
▁1859	-11.5257
ög	-11.5258
ені	-11.5258
▁ek	-11.5262
▁cambio	-11.5262
▁Grab	-11.5263
mani	-11.5264
ują	-11.5265
▁doch	-11.5265
гов	-11.5267
▁Had	-11.5267
لی	-11.5268
▁процес	-11.5268
court	-11.5269
віт	-11.5269
λο	-11.5269
▁второй	-11.527
▁дом	-11.5271
estä	-11.5271
යේ	-11.5272
hard	-11.5272
▁table	-11.5273
ode	-11.5274
lauf	-11.5275
▁spe	-11.5276
?"	-11.5277
▁might	-11.5278
封	-11.5278
處	-11.5278
LE	-11.5278
▁kör	-11.528
▁Fat	-11.5281
▁Viitattu	-11.5281
зо	-11.5281
技術	-11.5282
▁Jay	-11.5282
анс	-11.5282
isola	-11.5282
▁Verlag	-11.5282
igung	-11.5283
▁SM	-11.5283
▁Charlie	-11.5284
fic	-11.5284
гла	-11.5284
▁darauf	-11.5285
勢	-11.5286
▁пер	-11.5287
▁compar	-11.5289
вести	-11.5289
▁russe	-11.529
▁وهو	-11.529
mål	-11.529
▁совет	-11.529
един	-11.5292
cycl	-11.5294
▁którym	-11.5295
应	-11.5295
ること	-11.5295
яв	-11.5295
渡	-11.5296
▁Single	-11.5296
née	-11.5297
▁бер	-11.5297
▁premiers	-11.5298
époque	-11.5298
λη	-11.5299
вол	-11.5299
ように	-11.53
בל	-11.5302
▁Imperial	-11.5302
▁Meter	-11.5302
cr	-11.5303
▁soldiers	-11.5303
anto	-11.5304
▁Дан	-11.5305
▁ret	-11.5305
▁vä	-11.5305
▁koloni	-11.5306
▁הצ	-11.5306
бі	-11.5307
industrie	-11.5307
}}\	-11.5307
IL	-11.5308
探	-11.5309
ниот	-11.5309
▁czy	-11.5309
▁teve	-11.531
▁contiene	-11.5311
▁העיר	-11.5311
ම්	-11.5311
larında	-11.5312
▁церкви	-11.5312
▁census	-11.5313
▁aktor	-11.5313
нг	-11.5314
▁fung	-11.5315
▁possono	-11.5316
cl	-11.5316
yla	-11.5317
teurs	-11.5317
▁pic	-11.5317
ját	-11.5318
▁Gordon	-11.5318
▁Kevin	-11.5319
▁Federation	-11.5321
чат	-11.5321
DI	-11.5321
▁ενώ	-11.5321
▁результате	-11.5322
▁Ста	-11.5325
▁sierpnia	-11.5326
▁hol	-11.5327
box	-11.5327
▁транспорт	-11.5327
њу	-11.5327
bí	-11.5327
▁ישראל	-11.5327
olla	-11.5329
▁beberapa	-11.5329
ску	-11.533
▁chúng	-11.533
▁prefer	-11.5331
musik	-11.5332
▁180	-11.5332
azioni	-11.5333
▁department	-11.5333
יט	-11.5333
▁apo	-11.5334
Her	-11.5335
▁nunca	-11.5336
▁এর	-11.5336
posit	-11.5336
▁Schloss	-11.5336
ιά	-11.5336
▁trad	-11.5337
▁Lou	-11.5338
結果	-11.5338
Europe	-11.5338
▁situada	-11.5338
دو	-11.5339
▁ngalan	-11.5339
▁Пре	-11.5339
ável	-11.5341
▁października	-11.5342
故	-11.5342
media	-11.5342
无	-11.5343
▁Andre	-11.5343
▁failed	-11.5343
▁Nakon	-11.5343
▁című	-11.5343
▁Universidade	-11.5343
▁ev	-11.5344
▁ප්	-11.5344
▁tätig	-11.5345
▁visita	-11.5345
▁zog	-11.5346
лон	-11.5346
▁điểm	-11.5346
▁Salvador	-11.5347
▁דו	-11.5349
▁dance	-11.535
▁Sem	-11.535
黒	-11.5353
বা	-11.5354
▁strat	-11.5355
▁lungo	-11.5355
▁Today	-11.5356
▁annat	-11.5357
ítás	-11.5357
▁produkt	-11.5357
cció	-11.5358
▁Each	-11.5359
▁może	-11.5361
aat	-11.5361
▁branch	-11.5362
anse	-11.5363
▁represented	-11.5363
帯	-11.5364
eln	-11.5364
▁vilket	-11.5364
▁ім	-11.5367
▁below	-11.5368
▁(20	-11.5369
▁imagin	-11.537
cto	-11.537
ాడు	-11.537
▁reference	-11.5371
▁Bog	-11.5373
cka	-11.5373
ρι	-11.5373
ҙ	-11.5375
सा	-11.5375
із	-11.5377
▁Gol	-11.5377
▁response	-11.5377
▁Kirchen	-11.5379
ggio	-11.538
ији	-11.5381
▁Our	-11.5382
▁yksi	-11.5383
Ca	-11.5384
üh	-11.5384
▁owned	-11.5384
倒	-11.5384
萬	-11.5384
▁vod	-11.5384
rup	-11.5385
▁casos	-11.5386
▁Ble	-11.5389
▁будет	-11.5389
gran	-11.5389
▁totale	-11.539
』（	-11.5393
говор	-11.5394
▁kota	-11.5395
▁tenir	-11.5395
kaan	-11.5396
▁lit	-11.5397
▁habit	-11.5398
シーズン	-11.5398
▁ocupa	-11.5398
▁bou	-11.5399
▁చ	-11.5399
▁finalmente	-11.5399
hető	-11.5399
▁tập	-11.5399
డు	-11.54
▁siège	-11.5401
▁форм	-11.5402
▁Raum	-11.5403
സ	-11.5403
▁국	-11.5404
▁jugador	-11.5404
▁abge	-11.5406
▁Rap	-11.5406
▁Lip	-11.5406
▁stał	-11.5406
▁fille	-11.5407
cco	-11.5407
▁pois	-11.5407
λι	-11.5407
verse	-11.5409
▁тысяч	-11.5409
▁Coupe	-11.5411
▁Ei	-11.5411
dul	-11.5412
▁Technology	-11.5412
▁retour	-11.5412
Я	-11.5414
▁교	-11.5414
▁servir	-11.5415
ических	-11.5415
▁trí	-11.5415
▁Computer	-11.5415
▁Despite	-11.5416
oper	-11.5418
▁Diakses	-11.5419
▁mercado	-11.5419
▁май	-11.5421
▁Kennedy	-11.5422
▁79	-11.5423
▁Christopher	-11.5424
ives	-11.5424
▁destroyed	-11.5426
▁Justice	-11.5426
▁Як	-11.5427
▁asteroid	-11.5428
▁hip	-11.5429
▁naselje	-11.543
▁opere	-11.5431
▁своих	-11.5432
▁Dum	-11.5434
▁enough	-11.5434
EL	-11.5434
hov	-11.5434
▁ships	-11.5438
▁spirit	-11.5438
▁12,	-11.5438
▁versions	-11.544
▁composed	-11.544
▁kritik	-11.5441
▁удар	-11.5442
чев	-11.5443
ווה	-11.5444
ány	-11.5444
▁Lib	-11.5445
▁csapat	-11.5445
cut	-11.5445
▁pesar	-11.5446
▁ایران	-11.5446
dice	-11.5446
▁islam	-11.5447
▁Sierra	-11.5447
▁kadar	-11.5449
▁gör	-11.5449
▁Кан	-11.5449
terna	-11.545
▁kein	-11.545
ај	-11.545
▁یکی	-11.5451
▁анти	-11.5451
播	-11.5452
▁Francesco	-11.5452
▁gelegen	-11.5453
All	-11.5454
▁difficult	-11.5456
otti	-11.5456
▁Nan	-11.5457
izm	-11.5458
▁distribution	-11.5458
▁officer	-11.5459
▁Bass	-11.546
照	-11.546
▁توسط	-11.546
×	-11.5462
quel	-11.5464
▁destaca	-11.5464
▁160	-11.5465
▁jelent	-11.5465
▁parc	-11.5465
person	-11.5466
bt	-11.5466
ո	-11.5467
▁rin	-11.5467
したが	-11.5468
▁87	-11.5468
▁Рус	-11.5469
▁hom	-11.547
▁crew	-11.547
▁hel	-11.547
▁About	-11.5471
▁häufig	-11.5471
▁(†	-11.5471
▁Lie	-11.5473
rlo	-11.5473
▁inicia	-11.5473
▁prova	-11.5474
▁बा	-11.5475
▁native	-11.5475
erde	-11.5475
▁milieu	-11.5476
▁olivat	-11.5476
▁nota	-11.5477
▁ABC	-11.5477
стра	-11.5477
▁Kru	-11.5477
–3	-11.5477
bij	-11.5478
▁spesso	-11.5478
▁tax	-11.5479
▁Arena	-11.5479
klu	-11.5479
itan	-11.5479
▁वा	-11.548
ının	-11.5481
▁initially	-11.5481
房	-11.5481
▁श	-11.5482
▁μετα	-11.5482
▁Class	-11.5484
▁express	-11.5485
▁الخ	-11.5485
lika	-11.5488
▁tir	-11.5489
▁ру	-11.549
rab	-11.549
chod	-11.5491
ūr	-11.5491
▁Tat	-11.5492
▁tun	-11.5492
▁egen	-11.5493
▁되었다	-11.5493
keit	-11.5495
▁Aquest	-11.5495
vant	-11.5496
▁PlayStation	-11.5496
tang	-11.5497
class	-11.5497
▁Gri	-11.5497
▁nye	-11.5498
▁1980,	-11.5502
თ	-11.5502
▁legge	-11.5502
வி	-11.5503
▁titel	-11.5505
传	-11.5506
▁Family	-11.5506
▁koh	-11.5506
▁við	-11.5506
▁Jego	-11.5506
enz	-11.5507
▁Bang	-11.5507
alpha	-11.5507
▁Regierung	-11.5509
bian	-11.551
tec	-11.551
له	-11.5511
kam	-11.5511
PA	-11.5511
▁Hen	-11.5512
opp	-11.5512
▁între	-11.5513
즈	-11.5513
▁cat	-11.5513
шт	-11.5514
دي	-11.5515
cé	-11.5515
▁Bun	-11.5516
▁publicado	-11.5516
▁seat	-11.5516
总	-11.5516
roll	-11.5516
▁scored	-11.5517
▁работа	-11.5517
liği	-11.5518
ご	-11.5518
▁1988.	-11.5518
ෝ	-11.5518
єр	-11.5519
dou	-11.5519
▁dès	-11.5519
▁whether	-11.552
▁Teatro	-11.552
▁corso	-11.5522
ському	-11.5522
▁eri	-11.5523
lica	-11.5523
▁successo	-11.5523
▁Rud	-11.5523
▁Ша	-11.5524
voca	-11.5524
ари	-11.5525
▁emigr	-11.5525
moc	-11.5526
dzi	-11.5526
▁torn	-11.5527
стал	-11.5527
▁1980.	-11.5527
ई	-11.5528
▁Kali	-11.5529
▁Bond	-11.5529
गा	-11.553
▁Xi	-11.5531
▁Gel	-11.5531
層	-11.5534
▁wojny	-11.5534
00,000	-11.5536
▁scen	-11.5537
רה	-11.554
ঁ	-11.5541
▁Arbeits	-11.5541
▁Esp	-11.5541
organ	-11.5542
כי	-11.5544
▁architect	-11.5544
▁Neo	-11.5544
▁xa	-11.5544
판	-11.5545
▁khoảng	-11.5545
▁Sciences	-11.5546
▁ditu	-11.5546
ער	-11.5547
▁boy	-11.5547
▁tàu	-11.5548
▁Rey	-11.5549
dora	-11.5549
▁Silver	-11.5549
▁fil	-11.555
▁1970-	-11.555
▁карт	-11.5551
チェ	-11.5551
▁zituen	-11.5551
istische	-11.5551
▁look	-11.5552
▁þ	-11.5552
శ	-11.5552
▁carta	-11.5552
volu	-11.5553
▁pá	-11.5553
情報	-11.5554
▁meeting	-11.5554
～	-11.5555
indi	-11.5555
▁қа	-11.5556
ն	-11.5556
▁собствен	-11.5556
▁juego	-11.5557
▁vezes	-11.5557
▁remaining	-11.5558
▁يمكن	-11.5558
equip	-11.5559
▁Pennsylvania	-11.556
▁Jerusalem	-11.5562
эм	-11.5562
▁words	-11.5563
лит	-11.5563
fekt	-11.5564
▁gewählt	-11.5565
ț	-11.5565
▁energia	-11.5566
▁alatt	-11.5566
kład	-11.5568
ären	-11.5568
▁통	-11.5568
itate	-11.5569
注	-11.557
▁już	-11.557
参加	-11.5571
mma	-11.5571
utta	-11.5572
5°	-11.5572
ters	-11.5574
▁spar	-11.5575
úr	-11.5576
▁sĩ	-11.5576
lett	-11.5576
▁leave	-11.5576
▁winter	-11.5577
jou	-11.5579
▁83	-11.5579
▁350	-11.5581
PD	-11.5582
pole	-11.5583
▁Đại	-11.5583
▁назначен	-11.5583
進行	-11.5584
▁Tochter	-11.5584
asti	-11.5585
▁deutsche	-11.5586
▁Stefan	-11.5586
▁být	-11.5586
▁Champions	-11.5587
▁moderna	-11.5588
設計	-11.5588
▁egin	-11.559
unter	-11.5591
ष	-11.5592
▁rom	-11.5596
▁vocal	-11.5597
▁Đức	-11.5597
▁contrast	-11.5599
▁এক	-11.5599
▁jedna	-11.56
▁nes	-11.56
▁свой	-11.56
ious	-11.5602
rand	-11.5602
▁Golf	-11.5602
ഗ	-11.5603
lice	-11.5604
休	-11.5604
άλ	-11.5604
ओं	-11.5604
▁deren	-11.5604
▁kin	-11.5605
设	-11.5605
▁etapa	-11.5606
▁одной	-11.5607
ряд	-11.5608
▁Honor	-11.5608
▁spraw	-11.5608
▁üle	-11.5609
▁포	-11.561
рам	-11.561
▁domaine	-11.561
▁Bush	-11.5611
鉄道	-11.5612
nça	-11.5612
gericht	-11.5613
遺	-11.5613
▁dead	-11.5613
еј	-11.5614
▁sat	-11.5615
버	-11.5615
▁percent	-11.5616
iner	-11.5617
▁بار	-11.5618
▁Cependant	-11.5618
itar	-11.5619
acja	-11.562
▁Rudolf	-11.5622
ými	-11.5623
▁Chan	-11.5623
мір	-11.5623
▁אותו	-11.5623
wohl	-11.5624
torio	-11.5625
▁selle	-11.5626
▁Bien	-11.5626
iai	-11.5626
▁places	-11.5626
▁0.	-11.5626
▁winning	-11.5628
stö	-11.5628
▁Mid	-11.5628
직	-11.563
▁enkele	-11.5631
gono	-11.5632
すること	-11.5633
obra	-11.5633
▁defend	-11.5633
ियों	-11.5633
▁HD	-11.5633
kko	-11.5634
▁problemas	-11.5635
ළ	-11.5635
▁1800	-11.5636
Lu	-11.5637
▁92	-11.5637
▁وب	-11.5638
טל	-11.5638
▁произ	-11.5639
ై	-11.5639
▁Unido	-11.5639
▁mé	-11.5639
רו	-11.564
DR	-11.5642
▁Fußball	-11.5643
▁Mü	-11.5643
▁historical	-11.5645
▁Ay	-11.5645
エン	-11.5646
▁Management	-11.5646
▁nag	-11.5647
так	-11.5648
cima	-11.5649
証	-11.565
ファ	-11.565
cari	-11.565
▁gira	-11.565
▁allow	-11.565
ె	-11.5652
▁Insel	-11.5653
▁américaine	-11.5654
실	-11.5655
ड़	-11.5655
sund	-11.5656
▁армии	-11.5657
▁comenzó	-11.5657
ização	-11.5659
▁חי	-11.5659
▁Pap	-11.566
yama	-11.566
изма	-11.5662
pí	-11.5662
▁hoved	-11.5662
▁accord	-11.5662
▁Page	-11.5663
〜	-11.5664
▁reason	-11.5665
ég	-11.5666
之一	-11.5668
larda	-11.5668
▁Set	-11.5669
pte	-11.567
▁Boeing	-11.567
▁classes	-11.5671
▁Bert	-11.5672
hlen	-11.5672
літ	-11.5674
▁Off	-11.5674
▁Moore	-11.5674
जी	-11.5676
▁settlement	-11.5676
ள	-11.5676
▁depend	-11.5676
▁اس	-11.5677
وه	-11.5678
登場	-11.5678
▁пр	-11.5678
▁лі	-11.5679
ancia	-11.5679
▁Arten	-11.568
▁Stre	-11.568
ident	-11.568
–16	-11.568
－	-11.5681
دار	-11.5681
џ	-11.5683
έ	-11.5684
▁narra	-11.5684
▁Valencia	-11.5687
▁nama	-11.5687
他の	-11.5687
று	-11.5688
▁anglais	-11.5688
展	-11.5689
▁Conference	-11.5689
▁alcune	-11.5689
▁split	-11.569
▁университет	-11.569
talo	-11.5692
sign	-11.5692
▁Mun	-11.5693
▁Від	-11.5693
▁Sweden	-11.5693
▁Charlotte	-11.5694
▁especie	-11.5696
▁sociale	-11.5697
▁meet	-11.5699
▁địa	-11.5699
▁gav	-11.57
дон	-11.57
▁consists	-11.57
inos	-11.57
interno	-11.5701
хов	-11.5701
▁Hus	-11.5702
▁đoàn	-11.5703
▁вес	-11.5703
▁violent	-11.5705
▁género	-11.5707
▁Command	-11.5709
vul	-11.571
▁Бер	-11.5711
пу	-11.5711
▁helt	-11.5714
▁claimed	-11.5715
▁8,	-11.5716
▁desarrollo	-11.5717
者の	-11.5717
▁करने	-11.5718
▁стало	-11.5719
▁flera	-11.572
▁Фа	-11.5721
▁Гер	-11.5721
lli	-11.5721
▁във	-11.5722
▁Dienst	-11.5722
▁variety	-11.5722
бол	-11.5722
▁vrij	-11.5722
çon	-11.5724
тт	-11.5725
▁Liberal	-11.5726
tze	-11.5727
▁priest	-11.5728
＝	-11.5728
▁1857	-11.573
TC	-11.573
▁Außerdem	-11.5731
▁ollut	-11.5732
▁מא	-11.5732
▁Tin	-11.5733
ezza	-11.5733
▁running	-11.5734
ész	-11.5734
▁viz	-11.5734
▁homme	-11.5735
▁categoria	-11.5735
▁going	-11.5735
mista	-11.5736
▁month	-11.5739
Pi	-11.5739
▁anime	-11.574
ъл	-11.5741
▁zbog	-11.5742
▁Plant	-11.5744
gul	-11.5745
湖	-11.5746
▁beaucoup	-11.5746
▁détaillé	-11.5746
kata	-11.5746
▁diverses	-11.5748
▁Ark	-11.5748
▁runt	-11.5749
hid	-11.575
▁глав	-11.5751
ène	-11.5752
▁Edition	-11.5752
▁яких	-11.5752
▁собой	-11.5753
דה	-11.5754
▁Slav	-11.5754
▁fare	-11.5755
▁força	-11.5756
▁št	-11.5757
से	-11.5757
tava	-11.5757
▁oil	-11.5758
NA	-11.5758
年間	-11.5759
換	-11.576
▁podem	-11.576
යා	-11.576
язан	-11.576
설	-11.5761
▁€	-11.5761
▁want	-11.5761
дель	-11.5762
▁laquelle	-11.5763
▁93	-11.5763
▁Health	-11.5764
▁verb	-11.5764
▁Hermann	-11.5765
▁лес	-11.5765
ხ	-11.5765
▁keep	-11.5765
場合	-11.5766
оль	-11.5767
▁tropical	-11.5767
оў	-11.5767
▁Inglaterra	-11.5767
рів	-11.5769
オー	-11.577
▁Governor	-11.577
▁1945.	-11.577
▁persones	-11.5771
財	-11.5771
▁inferior	-11.5771
▁nazionale	-11.5772
▁הספר	-11.5773
▁eng	-11.5773
▁vực	-11.5774
弾	-11.5774
▁Say	-11.5775
rok	-11.5777
▁честь	-11.5777
察	-11.5778
▁línea	-11.5779
agne	-11.5779
▁Rei	-11.578
▁Mand	-11.5781
▁appear	-11.5782
trice	-11.5782
▁spring	-11.5784
▁presented	-11.5784
eze	-11.5785
▁sun	-11.5787
▁Muslim	-11.5788
▁Sua	-11.5788
救	-11.5789
▁conte	-11.579
ários	-11.579
▁Fame	-11.5792
▁svoj	-11.5792
zes	-11.5792
roz	-11.5792
ించ	-11.5792
▁floor	-11.5793
צו	-11.5793
vok	-11.5794
▁descend	-11.5795
іст	-11.5795
▁mountain	-11.5795
▁marine	-11.5796
eit	-11.5796
verband	-11.5798
にて	-11.5798
uran	-11.5798
scen	-11.5799
▁नहीं	-11.5799
▁đấu	-11.58
▁kirja	-11.58
ikke	-11.58
▁bl	-11.58
▁куп	-11.5801
▁thi	-11.5802
▁especialmente	-11.5802
▁أول	-11.5802
▁matches	-11.5802
ogo	-11.5803
▁око	-11.5804
▁Nederlandse	-11.5804
▁tru	-11.5804
▁kla	-11.5805
▁авто	-11.5806
科学	-11.5807
▁Hai	-11.5807
積	-11.5808
ppel	-11.5808
▁وا	-11.5809
▁방	-11.5809
▁oriental	-11.581
ე	-11.5811
dığı	-11.5811
▁população	-11.5812
نده	-11.5812
▁település	-11.5814
▁muut	-11.5816
iker	-11.5818
▁Harvard	-11.5818
▁Zen	-11.5819
▁middle	-11.5819
▁Person	-11.5819
▁build	-11.5821
ゼ	-11.5823
ацион	-11.5824
▁handelt	-11.5824
▁Lyon	-11.5825
▁thấy	-11.5825
▁tornou	-11.5825
▁Kad	-11.5826
▁ल	-11.5826
▁तथा	-11.5828
shin	-11.5828
▁sống	-11.5828
einander	-11.583
▁أي	-11.5831
вет	-11.5832
▁colonial	-11.5832
őr	-11.5835
▁tap	-11.5835
▁phân	-11.5836
▁만	-11.5836
anja	-11.5837
▁true	-11.5837
▁arch	-11.5838
▁Spring	-11.5838
▁bruk	-11.5841
サー	-11.5842
▁tham	-11.5843
▁kilometer	-11.5843
nna	-11.5844
rij	-11.5846
▁Emperor	-11.5846
▁király	-11.5846
মান	-11.5847
▁Miami	-11.5849
▁too	-11.5849
▁exemplo	-11.5849
▁Τα	-11.585
▁Eg	-11.585
▁retired	-11.5851
▁گ	-11.5851
イギリス	-11.5852
mio	-11.5852
ST	-11.5852
вала	-11.5854
ján	-11.5855
▁treball	-11.5855
▁tarihinde	-11.5855
▁Lors	-11.5856
▁runs	-11.5857
▁principe	-11.5857
▁Songs	-11.5858
▁Sci	-11.5859
▁Primera	-11.5861
rell	-11.5862
رات	-11.5863
帝国	-11.5863
▁1989,	-11.5866
題	-11.5867
▁eingesetzt	-11.5868
tzeko	-11.5868
▁gjennom	-11.5868
▁believe	-11.5871
cast	-11.5871
弟	-11.5871
成功	-11.5872
uca	-11.5873
aste	-11.5874
▁registr	-11.5874
▁Vas	-11.5875
RT	-11.5876
▁Рас	-11.5876
▁13,	-11.5876
▁numbers	-11.5877
kond	-11.5878
▁Studies	-11.5878
ografía	-11.5881
▁vele	-11.5881
cano	-11.5882
▁chuyển	-11.5882
▁Ст	-11.5883
ansa	-11.5885
▁Java	-11.5885
写	-11.5886
▁movimento	-11.5886
▁Seite	-11.5887
▁ради	-11.5887
▁cancer	-11.5888
발	-11.5888
BA	-11.5888
بار	-11.5889
▁university	-11.5889
žen	-11.589
▁Orden	-11.5891
▁verde	-11.5891
ണ	-11.5892
dini	-11.5892
גל	-11.5892
Ε	-11.5893
▁maggior	-11.5893
▁таких	-11.5895
似	-11.5896
▁stone	-11.5897
sini	-11.5898
ON	-11.5899
▁eigene	-11.59
▁Dette	-11.5901
▁proyecto	-11.5901
▁человека	-11.5901
▁seguir	-11.5901
tán	-11.5902
御	-11.5902
▁Пу	-11.5902
▁2,5	-11.5903
aram	-11.5903
図	-11.5904
▁Fur	-11.5905
▁sever	-11.5906
▁parla	-11.5906
▁CS	-11.5908
▁Country	-11.5909
▁news	-11.5909
१	-11.5911
▁пор	-11.5912
عا	-11.5912
▁pap	-11.5912
nese	-11.5912
▁Kreuz	-11.5913
▁بو	-11.5913
▁Стар	-11.5914
一些	-11.5915
▁estructura	-11.5915
▁Ši	-11.5916
nz	-11.5917
apa	-11.5917
egy	-11.5917
tila	-11.5918
▁bring	-11.5918
▁vissza	-11.5918
祭	-11.5919
atura	-11.5919
▁Polski	-11.592
▁баш	-11.592
rato	-11.5921
oga	-11.5921
ела	-11.5922
▁Vladimir	-11.5922
elser	-11.5923
vou	-11.5923
κο	-11.5924
cò	-11.5924
иг	-11.5924
▁obraz	-11.5924
rei	-11.5924
▁основан	-11.5925
▁senare	-11.5925
▁rare	-11.5925
kkel	-11.5926
ড	-11.5926
iak	-11.5926
▁treatment	-11.5928
▁популярн	-11.5928
▁Donald	-11.5928
ాల	-11.5929
▁čas	-11.5929
Italia	-11.5929
▁znajduje	-11.593
উ	-11.593
▁iar	-11.5934
itatea	-11.5934
iten	-11.5935
才	-11.5935
▁guard	-11.5935
▁exact	-11.5936
▁Kri	-11.5936
ME	-11.5937
▁Roll	-11.5937
як	-11.5938
▁παρα	-11.5938
▁raised	-11.5938
▁universitet	-11.5938
▁prav	-11.5939
ID	-11.594
▁sci	-11.5941
Fi	-11.5942
▁Krist	-11.5942
▁becomes	-11.5942
दा	-11.5943
▁genoemd	-11.5943
SD	-11.5944
把	-11.5944
וז	-11.5944
▁Gall	-11.5945
▁Ryan	-11.5945
▁divided	-11.5947
лас	-11.5948
kia	-11.5948
網	-11.5948
▁particulier	-11.5948
▁publié	-11.5948
ciu	-11.5949
almente	-11.5949
город	-11.5951
支持	-11.5952
▁côté	-11.5952
▁convert	-11.5953
ベル	-11.5953
anna	-11.5954
▁Cape	-11.5955
待	-11.5955
abord	-11.5956
type	-11.5956
하기	-11.5956
▁Ministry	-11.5957
▁norm	-11.5958
ران	-11.5958
▁קי	-11.5958
mara	-11.5958
бел	-11.5958
▁officiel	-11.596
نگ	-11.5962
dz	-11.5962
▁Leon	-11.5963
वर	-11.5964
自己	-11.5964
ற்ற	-11.5964
음	-11.5965
▁kup	-11.5965
ruh	-11.5966
▁stran	-11.5966
草	-11.5966
▁vùng	-11.5967
zion	-11.5967
된다	-11.5968
▁Weltkrieg	-11.5968
Europa	-11.5969
争	-11.5969
skou	-11.5969
▁turned	-11.597
fte	-11.597
rë	-11.5971
▁машин	-11.5971
кла	-11.5972
▁olika	-11.5972
▁lleva	-11.5972
▁reli	-11.5973
gne	-11.5973
▁Benjamin	-11.5973
▁Ва	-11.5975
MC	-11.5975
ৃ	-11.5976
▁관	-11.5976
skej	-11.5977
▁blood	-11.5977
place	-11.5978
▁страны	-11.5979
▁али	-11.5979
▁nego	-11.5981
ری	-11.5981
▁zweite	-11.5982
▁Leopold	-11.5985
▁концерт	-11.5985
▁omkring	-11.5985
jú	-11.5987
▁birth	-11.5988
▁Accesat	-11.5988
▁target	-11.5989
▁نفر	-11.5989
▁pressure	-11.599
ущ	-11.5991
黑	-11.5992
▁només	-11.5992
Union	-11.5992
▁DJ	-11.5992
▁quickly	-11.5993
try	-11.5993
εται	-11.5994
vere	-11.5995
▁mobil	-11.5995
▁security	-11.5995
▁již	-11.5996
▁insgesamt	-11.5996
udo	-11.5996
▁oblasti	-11.5997
▁constitu	-11.5997
▁salva	-11.5998
▁nearly	-11.5998
▁correspond	-11.5999
그	-11.5999
▁felt	-11.6
▁väl	-11.6002
uren	-11.6003
▁ск	-11.6003
▁Guard	-11.6003
▁élet	-11.6003
▁золот	-11.6003
平成	-11.6004
▁Raj	-11.6005
▁lider	-11.6006
ּ	-11.6006
ொ	-11.6007
ác	-11.6007
іл	-11.6007
▁trial	-11.6007
ehr	-11.6009
▁δύο	-11.601
▁Units	-11.601
▁Born	-11.601
▁resta	-11.6011
▁Tây	-11.6012
moto	-11.6012
ান	-11.6013
clav	-11.6013
▁tá	-11.6013
酒	-11.6014
▁correct	-11.6015
▁feet	-11.6015
ευ	-11.6016
▁metri	-11.6016
▁Pul	-11.6017
க்கு	-11.6018
▁puesto	-11.6019
▁jur	-11.6019
▁directly	-11.6021
ґ	-11.6021
▁linea	-11.6022
nach	-11.6022
енко	-11.6023
▁Pier	-11.6024
▁escritor	-11.6025
ése	-11.6026
▁Kent	-11.6026
▁năng	-11.6026
▁ISO	-11.6027
anske	-11.6028
▁ख	-11.6028
▁Gott	-11.6028
lös	-11.6029
лег	-11.6029
▁προσ	-11.603
▁subsequently	-11.6031
כו	-11.6032
▁Schwarz	-11.6032
▁Palm	-11.6032
▁offen	-11.6034
▁gradu	-11.6035
▁entstand	-11.6035
▁Sony	-11.6036
▁Ai	-11.6037
Bar	-11.6037
▁Stato	-11.6039
мал	-11.604
▁jamais	-11.604
▁extend	-11.604
거	-11.6042
瓦	-11.6043
▁entrar	-11.6044
▁média	-11.6044
▁Bevölkerung	-11.6044
▁більш	-11.6045
▁важ	-11.6047
עי	-11.6047
▁филм	-11.6048
▁Джон	-11.6048
thy	-11.6049
▁Cons	-11.6049
▁chamado	-11.6049
▁poeta	-11.605
▁übernahm	-11.6051
完	-11.6051
vang	-11.6051
▁aikana	-11.6051
▁vegeta	-11.6051
uno	-11.6052
▁IC	-11.6053
Ка	-11.6053
Wa	-11.6053
▁statue	-11.6054
ач	-11.6055
▁findet	-11.6056
▁zelf	-11.6056
▁azt	-11.6056
▁tennis	-11.6056
▁Rou	-11.6057
▁символ	-11.6058
▁implica	-11.6059
▁municipality	-11.606
رد	-11.606
ický	-11.6062
▁ක	-11.6062
zw	-11.6063
▁goals	-11.6063
4°	-11.6064
▁How	-11.6064
▁वे	-11.6066
sun	-11.6066
▁går	-11.6066
ош	-11.6066
▁acest	-11.6067
▁Stor	-11.6067
▁Carol	-11.6067
▁Key	-11.6068
▁antara	-11.6068
jí	-11.607
sek	-11.607
▁Unit	-11.6071
▁फ	-11.6072
▁Philadelphia	-11.6073
▁Cli	-11.6074
daki	-11.6075
твор	-11.6075
ąż	-11.6076
▁council	-11.6076
▁nhạc	-11.6076
▁Regel	-11.6077
▁Rand	-11.6077
▁پی	-11.6078
كت	-11.608
▁смерти	-11.608
рак	-11.608
▁lives	-11.608
▁demande	-11.608
▁visto	-11.6082
▁카	-11.6082
Ga	-11.6082
▁pasa	-11.6082
▁Ing	-11.6082
▁compagnie	-11.6084
▁prevent	-11.6084
大会	-11.6084
৪	-11.6084
ncia	-11.6085
▁Tower	-11.6085
σαν	-11.6086
▁crime	-11.6087
▁conform	-11.6089
▁yuta	-11.609
独	-11.6091
ética	-11.6092
▁Rusia	-11.6093
urt	-11.6093
ông	-11.6093
▁Wei	-11.6094
류	-11.6095
ۇ	-11.6095
▁territory	-11.6095
шла	-11.6095
loj	-11.6095
TE	-11.6098
▁তার	-11.6098
▁compañía	-11.6098
דר	-11.6099
▁consum	-11.61
▁Mini	-11.6101
кин	-11.6102
ección	-11.6102
▁około	-11.6103
unu	-11.6103
)\	-11.6103
▁další	-11.6104
гляд	-11.6104
▁வ	-11.6104
#	-11.6104
▁ثم	-11.6104
átor	-11.6104
ада	-11.6104
mena	-11.6105
▁Morgan	-11.6105
quit	-11.6105
▁husband	-11.6106
▁nên	-11.6107
krieg	-11.6107
jó	-11.6109
▁97	-11.611
▁Nazi	-11.611
▁Mỹ	-11.6111
▁Irak	-11.6111
브	-11.6112
▁technology	-11.6113
▁Torre	-11.6114
▁navn	-11.6114
selt	-11.6116
ож	-11.6116
哥	-11.6117
类	-11.6117
бл	-11.6117
▁donné	-11.6117
PR	-11.6119
altra	-11.6119
▁Beat	-11.612
▁relación	-11.612
▁traffic	-11.6121
տ	-11.6122
σι	-11.6123
▁administrative	-11.6123
cant	-11.6124
停	-11.6124
酸	-11.6124
dici	-11.6125
▁astronom	-11.6126
▁animals	-11.6127
▁sujet	-11.6128
ome	-11.6128
▁Original	-11.6128
▁responsible	-11.6128
▁realizar	-11.6129
▁rata	-11.6129
▁רק	-11.613
▁сайте	-11.6133
koa	-11.6133
▁világ	-11.6134
▁kolme	-11.6135
▁estudios	-11.6136
▁particolare	-11.6136
▁101	-11.6138
మి	-11.6139
費	-11.6139
右	-11.6139
▁Assembly	-11.6139
模	-11.614
qi	-11.6141
작	-11.6142
▁eram	-11.6142
▁pie	-11.6142
廣	-11.6143
▁війни	-11.6143
▁bestand	-11.6144
▁და	-11.6144
ites	-11.6145
▁Pháp	-11.6147
▁karşı	-11.6147
ač	-11.6147
▁тот	-11.6148
思	-11.6148
▁algunas	-11.6148
turm	-11.6148
▁کنند	-11.6148
▁щоб	-11.6149
ľ	-11.6149
▁Lit	-11.615
▁aproximadamente	-11.6151
పు	-11.6151
えた	-11.6151
▁годзе	-11.6151
▁Spieler	-11.6151
▁industri	-11.6152
▁알	-11.6152
▁інших	-11.6152
▁teki	-11.6153
த்து	-11.6153
▁incident	-11.6155
▁versione	-11.6157
▁tram	-11.6157
▁تع	-11.6159
kala	-11.616
▁αυτό	-11.6161
ares	-11.6161
▁evitar	-11.6162
▁substitu	-11.6162
▁chiesa	-11.6162
schrift	-11.6162
עה	-11.6163
▁episodio	-11.6163
▁Take	-11.6164
version	-11.6166
▁Österreich	-11.6166
स्त	-11.6166
▁پر	-11.6167
▁dispute	-11.6167
▁실	-11.6168
▁parece	-11.6168
кам	-11.6168
нт	-11.6169
▁davon	-11.6172
аг	-11.6173
検	-11.6173
紀	-11.6173
typ	-11.6173
[...]
