<unk>	0
<s>	0
</s>	0
.	-3.58969
▁	-3.626
,	-3.78059
s	-4.74939
a	-4.78653
▁de	-4.94035
e	-4.97441
i	-5.1574
▁(	-5.30845
-	-5.38387
o	-5.38497
▁a	-5.46469
)	-5.5876
u	-5.65935
t	-5.71525
▁i	-5.82517
▁la	-5.86035
'	-5.87075
en	-5.90591
n	-5.90733
:	-6.0313
▁en	-6.0445
y	-6.17494
▁e	-6.22709
▁na	-6.25716
▁на	-6.29149
▁sa	-6.29478
▁in	-6.31181
▁je	-6.33053
er	-6.40485
an	-6.44925
▁se	-6.45301
m	-6.46386
а	-6.47385
d	-6.57486
▁u	-6.59347
▁"	-6.64108
es	-6.64389
▁o	-6.66386
r	-6.6649
▁A	-6.71492
▁и	-6.73237
▁di	-6.75024
и	-6.76456
k	-6.77236
▁da	-6.78726
▁v	-6.78853
na	-6.79075
।	-6.80158
l	-6.80634
in	-6.81841
ne	-6.82079
▁do	-6.85164
▁d	-6.88163
te	-6.88679
▁l	-6.88868
。	-6.89358
▁s	-6.90297
h	-6.92074
).	-6.92152
de	-6.93092
ar	-6.93396
▁в	-6.96805
is	-6.98443
j	-6.98444
ta	-6.99248
"	-7.00484
▁un	-7.01492
z	-7.02152
▁que	-7.02208
g	-7.0248
da	-7.04063
▁-	-7.06506
▁el	-7.07374
et	-7.07694
у	-7.08072
е	-7.10642
ni	-7.10748
le	-7.10822
ja	-7.11136
),	-7.14525
▁za	-7.14627
▁og	-7.15163
as	-7.15404
▁the	-7.16006
us	-7.16982
▁su	-7.17294
la	-7.18105
▁S	-7.18435
no	-7.18925
▁al	-7.19673
▁за	-7.20232
to	-7.20412
os	-7.22725
▁у	-7.22725
al	-7.23043
▁po	-7.25199
c	-7.26317
▁m	-7.26403
▁of	-7.26555
▁–	-7.28184
،	-7.29252
▁z	-7.29405
re	-7.29703
ma	-7.30879
，	-7.3129
ti	-7.31371
b	-7.32073
ka	-7.32461
li	-7.32951
;	-7.33808
▁La	-7.34467
▁I	-7.34737
ko	-7.35649
se	-7.35661
▁del	-7.35702
▁و	-7.35911
▁per	-7.37097
▁«	-7.37787
on	-7.38904
о	-7.39676
▁er	-7.40928
▁to	-7.41199
je	-7.41404
om	-7.4271
、	-7.43497
на	-7.44436
▁се	-7.46155
▁по	-7.4629
st	-7.47725
▁ja	-7.47781
p	-7.49296
it	-7.49426
at	-7.49718
ci	-7.50372
▁for	-7.512
▁od	-7.51247
▁—	-7.51366
v	-7.52351
ra	-7.52658
ul	-7.53748
ch	-7.54171
の	-7.54202
▁et	-7.54588
я	-7.54596
si	-7.54909
▁le	-7.5667
▁ang	-7.57693
em	-7.59726
▁O	-7.60106
▁on	-7.60114
▁1	-7.60129
▁w	-7.6013
ed	-7.60198
f	-7.60247
▁के	-7.60918
▁2	-7.6133
▁con	-7.62157
▁De	-7.625
та	-7.64812
ce	-7.65626
的	-7.65629
▁с	-7.65632
м	-7.66213
ی	-7.67759
ia	-7.67796
▁av	-7.68484
▁der	-7.68489
▁در	-7.69165
▁ال	-7.69474
▁is	-7.69497
va	-7.6972
▁van	-7.69727
▁V	-7.70049
▁re	-7.71031
ga	-7.71065
▁ה	-7.71123
▁te	-7.72361
▁да	-7.7239
ve	-7.72774
т	-7.72963
▁y	-7.74415
um	-7.74524
ak	-7.74724
▁„	-7.74787
▁den	-7.75258
un	-7.7596
▁at	-7.76298
ge	-7.76712
▁ve	-7.76887
▁som	-7.77915
do	-7.77918
▁во	-7.78151
lo	-7.78345
▁and	-7.78383
ur	-7.785
é	-7.78519
▁е	-7.78589
ing	-7.78711
▁C	-7.79219
ы	-7.80584
▁T	-7.80783
me	-7.80824
▁të	-7.81051
ca	-7.812
/	-7.81828
▁k	-7.81982
▁ne	-7.824
ة	-7.82837
▁K	-7.83283
▁M	-7.83451
▁3	-7.83928
▁في	-7.84106
▁por	-7.84269
ki	-7.84347
mi	-7.84469
▁no	-7.84698
і	-7.84944
ir	-7.85842
й	-7.85963
di	-7.86265
▁an	-7.86315
▁E	-7.86436
ba	-7.8684
▁til	-7.87524
▁ka	-7.8758
▁од	-7.87972
▁var	-7.88044
▁је	-7.88466
ни	-7.89052
ro	-7.89104
▁з	-7.89363
▁L	-7.8953
▁में	-7.89887
í	-7.90144
ke	-7.91341
▁în	-7.91681
ка	-7.91844
il	-7.92321
▁U	-7.92481
x	-7.92575
▁D	-7.92715
▁be	-7.92732
▁si	-7.93088
▁pa	-7.93125
▁so	-7.93238
▁B	-7.93273
»	-7.93276
▁med	-7.93795
ha	-7.94211
ه	-7.94423
sa	-7.94735
с	-7.94772
ă	-7.94896
ku	-7.95408
▁af	-7.95747
▁है	-7.95985
el	-7.96268
의	-7.96844
▁The	-7.9713
’	-7.97454
▁і	-7.97773
ten	-7.97793
▁ב	-7.98049
▁op	-7.98541
но	-7.99093
▁iz	-7.99338
▁es	-7.99425
▁pro	-7.99459
▁du	-7.99562
▁il	-7.99887
▁του	-8.00039
be	-8.00057
ó	-8.00173
▁In	-8.00245
▁En	-8.01766
▁4	-8.0198
ov	-8.02104
▁una	-8.02187
▁på	-8.02611
▁και	-8.03052
▁des	-8.03101
▁dan	-8.03413
ri	-8.04502
▁от	-8.04578
w	-8.04753
年	-8.0504
or	-8.05383
▁до	-8.06121
S	-8.06173
(	-8.06237
▁не	-8.06426
oj	-8.06717
▁pre	-8.0692
man	-8.07007
▁P	-8.0705
л	-8.07085
▁va	-8.07179
A	-8.07237
▁5	-8.07662
2	-8.07808
1	-8.07997
▁Na	-8.08097
▁من	-8.08315
▁para	-8.08583
tu	-8.08652
ter	-8.08712
▁15	-8.08795
▁17	-8.09122
▁ki	-8.09579
н	-8.09762
▁а	-8.09907
▁به	-8.09999
".	-8.10137
ς	-8.10281
х	-8.11334
は	-8.11606
не	-8.11832
ang	-8.12243
▁16	-8.13101
▁pri	-8.13267
▁H	-8.13331
ju	-8.14231
от	-8.14485
ek	-8.14724
▁me	-8.14829
▁У	-8.14851
mo	-8.1486
▁die	-8.15097
den	-8.15217
ה	-8.15361
▁as	-8.16032
▁م	-8.16467
io	-8.16558
ou	-8.17062
▁në	-8.17391
go	-8.17717
ла	-8.17935
▁W	-8.18367
kan	-8.18721
▁eta	-8.19073
▁ng	-8.19235
▁Le	-8.19325
id	-8.19327
▁Sa	-8.19739
▁G	-8.19819
im	-8.19828
▁și	-8.19986
▁El	-8.20257
▁N	-8.20485
▁F	-8.20542
▁ke	-8.20593
▁com	-8.21037
ver	-8.21091
を	-8.2146
za	-8.21634
▁10	-8.21755
ie	-8.21853
▁est	-8.21856
ng	-8.21863
zi	-8.22189
C	-8.22345
ا	-8.22543
▁les	-8.23069
▁6	-8.23495
N	-8.24236
▁kaj	-8.24343
▁Po	-8.249
ž	-8.25024
に	-8.2518
ен	-8.25716
▁em	-8.2593
▁nga	-8.25935
ية	-8.2607
▁В	-8.2631
ом	-8.26356
▁och	-8.27048
▁pe	-8.27491
co	-8.27586
▁R	-8.27654
▁12	-8.27806
▁li	-8.28346
ut	-8.28352
▁c	-8.28725
▁lo	-8.28753
gi	-8.2902
ad	-8.29501
▁از	-8.29648
к	-8.29757
▁und	-8.3001
der	-8.30531
то	-8.30784
▁yang	-8.30999
nu	-8.31427
ের	-8.3185
이	-8.32198
ी	-8.32315
▁h	-8.32482
в	-8.32569
“	-8.32582
न	-8.3265
▁és	-8.32874
▁Se	-8.33029
ny	-8.33057
vi	-8.33329
▁7	-8.33448
‍	-8.33702
▁km	-8.33827
▁की	-8.33964
á	-8.34499
ina	-8.34586
jo	-8.34838
ho	-8.34866
du	-8.34888
ات	-8.35152
র	-8.35286
ler	-8.35336
▁Ang	-8.35538
が	-8.35545
ą	-8.35905
▁το	-8.36619
▁της	-8.36802
3	-8.36875
▁است	-8.36959
ya	-8.36981
▁со	-8.37061
▁ir	-8.37243
▁ha	-8.37299
▁b	-8.37324
ben	-8.37395
▁при	-8.37496
▁à	-8.37965
ли	-8.38414
ske	-8.38675
▁8	-8.39159
ш	-8.39187
ে	-8.39194
lu	-8.39436
▁14	-8.39494
▁và	-8.39682
▁ver	-8.39706
ji	-8.39715
ik	-8.40343
क	-8.40376
▁का	-8.40503
ment	-8.40538
ren	-8.40601
에	-8.41045
▁een	-8.41198
▁می	-8.41298
▁из	-8.41426
ите	-8.41572
vo	-8.41624
да	-8.41887
▁het	-8.42424
▁של	-8.42643
을	-8.42726
ada	-8.42911
▁os	-8.42958
▁ў	-8.43064
aj	-8.43247
▁é	-8.43365
ت	-8.43738
lar	-8.4385
ва	-8.43865
▁^	-8.44045
▁ל	-8.44045
▁С	-8.4406
wa	-8.44605
▁ni	-8.44747
ita	-8.44783
▁bi	-8.45704
▁ge	-8.45847
ం	-8.46031
▁ت	-8.46141
B	-8.46186
▁9	-8.46216
▁ta	-8.46359
▁men	-8.4654
（	-8.46685
▁f	-8.46696
▁ob	-8.4674
ska	-8.46791
ban	-8.47104
▁om	-8.47269
ski	-8.47542
▁um	-8.47567
sta	-8.47617
men	-8.47723
▁kon	-8.47733
ي	-8.47925
▁t	-8.47967
nya	-8.48159
▁са	-8.4824
▁của	-8.48266
ine	-8.48691
E	-8.48811
▁13	-8.49117
ven	-8.49269
г	-8.49392
th	-8.49741
▁ra	-8.4985
ado	-8.50114
ly	-8.50164
ty	-8.50227
те	-8.5038
ма	-8.50419
ih	-8.50554
▁और	-8.50612
po	-8.50712
▁har	-8.5082
▁से	-8.50825
з	-8.51073
V	-8.5121
▁ya	-8.51831
K	-8.51901
▁Re	-8.52071
bi	-8.5233
र	-8.52386
4	-8.52705
š	-8.52966
ата	-8.53072
▁Z	-8.53103
▁he	-8.53111
bo	-8.53932
▁az	-8.54011
▁11	-8.54088
ल	-8.54256
ze	-8.54626
ন	-8.54696
am	-8.5494
ų	-8.54981
▁par	-8.56109
▁là	-8.56137
ле	-8.56352
▁ma	-8.56459
”	-8.56536
▁n	-8.56552
▁p	-8.5658
▁Al	-8.56606
ste	-8.57042
는	-8.57153
п	-8.57464
que	-8.57625
ו	-8.57697
ok	-8.57821
ת	-8.57972
▁الم	-8.58401
р	-8.58452
D	-8.5849
▁pod	-8.58546
T	-8.58601
à	-8.58604
▁como	-8.58793
д	-8.58811
ים	-8.5888
▁г	-8.59202
ton	-8.59226
land	-8.59345
▁dhe	-8.59446
▁که	-8.5964
ck	-8.6056
▁ar	-8.60667
▁g	-8.60829
F	-8.6098
ло	-8.61022
▁про	-8.61139
▁los	-8.61313
▁को	-8.61333
▁20	-8.61442
▁dat	-8.61474
▁bir	-8.61665
ú	-8.62025
ти	-8.62081
pa	-8.62122
▁ca	-8.62168
▁din	-8.62353
gen	-8.62515
ю	-8.62685
▁cu	-8.62775
▁J	-8.62836
G	-8.62974
O	-8.63166
▁det	-8.63967
م	-8.64456
M	-8.64629
ist	-8.64655
▁ku	-8.65171
gu	-8.65199
ки	-8.65568
▁Li	-8.65633
▁von	-8.65792
cu	-8.66493
▁fra	-8.666
▁mga	-8.66688
▁í	-8.66742
▁was	-8.66798
H	-8.66884
▁/	-8.66913
▁Ne	-8.67495
ні	-8.67506
ant	-8.6776
ம்	-8.67839
га	-8.6789
».	-8.67974
P	-8.68168
è	-8.68302
▁film	-8.68383
q	-8.68629
▁mu	-8.68631
yle	-8.68945
hi	-8.68966
은	-8.68978
ж	-8.69053
he	-8.69287
ig	-8.69319
ud	-8.69508
og	-8.69598
▁au	-8.69631
ner	-8.69634
▁την	-8.6975
iz	-8.69794
ия	-8.69991
est	-8.70118
sen	-8.70268
▁han	-8.70432
ista	-8.70713
nt	-8.70752
▁á	-8.71134
▁ser	-8.71208
ј	-8.71244
ej	-8.71398
ов	-8.71693
ts	-8.71873
ung	-8.72186
▁एक	-8.72284
▁από	-8.72644
▁מ	-8.72785
6	-8.72804
）	-8.73246
lan	-8.73315
per	-8.73817
tion	-8.73875
б	-8.73963
ol	-8.7424
ку	-8.74522
ry	-8.74582
가	-8.74787
tra	-8.74908
ों	-8.7512
▁о	-8.75141
▁На	-8.75247
म	-8.75262
pi	-8.75296
▁Be	-8.75604
ය	-8.75612
mu	-8.75735
tar	-8.75839
né	-8.76039
W	-8.76178
ο	-8.762
▁су	-8.76254
pe	-8.76721
▁ga	-8.76874
ç	-8.77172
▁{\	-8.77578
–	-8.77849
ní	-8.77956
▁па	-8.78046
ima	-8.78102
▁godine	-8.78228
년	-8.7831
▁Il	-8.78345
▁را	-8.78376
स	-8.78551
▁ب	-8.78553
▁To	-8.78555
त	-8.78594
▁fi	-8.78594
ica	-8.78718
▁dos	-8.78926
▁ber	-8.7901
ч	-8.7906
α	-8.79067
ili	-8.79192
ë	-8.79301
로	-8.79547
▁roku	-8.79662
▁με	-8.79669
des	-8.79719
ь	-8.79788
",	-8.7979
ción	-8.7991
▁co	-8.80009
ή	-8.80202
▁một	-8.8048
ن	-8.80509
ken	-8.80549
č	-8.80736
▁این	-8.81105
▁fan	-8.81175
án	-8.81186
▁son	-8.81436
▁ter	-8.81559
▁estas	-8.81563
▁No	-8.81699
▁che	-8.81928
▁bu	-8.82083
▁amb	-8.82116
月	-8.82277
▁kao	-8.82413
▁är	-8.82613
son	-8.82696
ý	-8.82698
ну	-8.82779
ster	-8.82822
▁được	-8.82833
ش	-8.82858
▁năm	-8.82973
▁با	-8.82976
5	-8.83026
sti	-8.83365
ä	-8.83804
ль	-8.8384
▁Lo	-8.83889
▁Ta	-8.84017
▁“	-8.84095
dy	-8.8424
lik	-8.84374
ता	-8.84597
▁Mo	-8.84808
లో	-8.85116
ат	-8.8513
bu	-8.85267
ę	-8.85307
ा	-8.8569
▁Do	-8.85785
▁ho	-8.86054
▁Ma	-8.86057
tur	-8.86278
tor	-8.86378
com	-8.86379
▁im	-8.86387
▁Za	-8.86454
fa	-8.86558
ger	-8.8662
ό	-8.86776
ها	-8.87014
▁Si	-8.87024
del	-8.87141
व	-8.87402
▁è	-8.87419
nih	-8.87487
ber	-8.87615
▁fa	-8.87647
sk	-8.87914
}	-8.87937
▁man	-8.88097
ent	-8.88112
人	-8.88268
nom	-8.8832
▁II	-8.8833
tas	-8.88574
ми	-8.88606
▁Per	-8.88645
ά	-8.88688
ana	-8.88744
7	-8.88854
▁30	-8.89039
在	-8.89054
▁He	-8.89107
ele	-8.89229
ning	-8.89255
ari	-8.89267
▁mai	-8.89482
▁An	-8.89522
▁sin	-8.89685
▁by	-8.89714
▁Di	-8.89886
▁este	-8.90335
8	-8.90416
zo	-8.90461
▁për	-8.90551
ò	-8.90649
ски	-8.90691
▁x	-8.90733
dan	-8.90823
0	-8.90895
ان	-8.90911
▁för	-8.91112
ర్	-8.91157
fi	-8.912
od	-8.91533
ach	-8.91538
י	-8.91572
▁ko	-8.91632
▁ut	-8.91656
▁ad	-8.91691
ot	-8.91793
ks	-8.91843
▁अ	-8.91854
▁mit	-8.91957
と	-8.92358
న	-8.92617
▁ri	-8.92743
▁wa	-8.92928
▁По	-8.93141
I	-8.93275
ות	-8.93363
sko	-8.937
를	-8.93705
are	-8.93707
▁ي	-8.93715
ron	-8.93761
aren	-8.93924
▁А	-8.93958
े	-8.94
లు	-8.94036
ker	-8.94548
ల	-8.94553
で	-8.94643
▁koji	-8.94662
▁Ver	-8.94812
var	-8.94861
▁Su	-8.9491
mer	-8.95201
ini	-8.95201
▁على	-8.95381
ক	-8.95409
▁18	-8.95556
▁2009	-8.95794
▁2010	-8.95946
▁palibot	-8.96027
nie	-8.96044
▁sur	-8.96187
▁vi	-8.96214
U	-8.96456
▁2007	-8.96506
▁oli	-8.96702
▁ble	-8.96892
▁та	-8.96988
▁Er	-8.97109
▁Da	-8.97134
displayst	-8.97243
so	-8.9748
лі	-8.97571
▁Den	-8.9759
▁Me	-8.97595
是	-8.9764
▁2011	-8.97924
9	-8.97935
R	-8.98069
ndo	-8.98105
・	-8.98358
▁година	-8.98715
ului	-8.98851
▁tra	-8.98855
ри	-8.98988
मा	-8.991
▁Ka	-8.99123
▁=	-8.99248
▁có	-8.99308
ene	-8.99332
ला	-8.99405
▁Bu	-8.99451
nik	-8.99537
▁las	-8.99545
▁Co	-8.99571
▁25	-8.99656
che	-8.998
▁Ge	-8.99923
за	-8.99935
mente	-9.0005
nim	-9.00081
tes	-9.00161
▁als	-9.0022
▁X	-9.00738
▁את	-9.00815
▁हैं	-9.00864
jen	-9.0088
▁vun	-9.0115
η	-9.01173
ali	-9.01191
▁2008	-9.01368
ко	-9.01479
▁kan	-9.01524
ने	-9.01684
ria	-9.02044
ً	-9.02276
ky	-9.02332
ра	-9.02333
▁era	-9.02351
▁пре	-9.0238
▁های	-9.02529
▁San	-9.02533
日	-9.02542
ল	-9.03018
kon	-9.03147
les	-9.03199
▁அ	-9.03202
▁tre	-9.03683
▁entre	-9.03767
ска	-9.03774
▁r	-9.0389
ны	-9.04005
▁mo	-9.04047
▁ay	-9.04122
▁over	-9.04123
▁tr	-9.04762
▁раз	-9.04792
▁met	-9.0483
▁foi	-9.04907
ru	-9.04991
ai	-9.05089
ර	-9.05134
▁dari	-9.05177
mar	-9.0522
▁Ha	-9.05277
▁bo	-9.05315
ів	-9.05526
▁trong	-9.05527
ation	-9.05686
ů	-9.05815
ं	-9.05819
iti	-9.05831
▁Ar	-9.05886
ova	-9.05989
▁các	-9.06289
ب	-9.06514
▁mas	-9.06523
nes	-9.06609
tan	-9.06789
▁Te	-9.06826
▁να	-9.07074
▁Bo	-9.0722
▁das	-9.07285
د	-9.07315
ika	-9.07376
▁nu	-9.07436
ци	-9.07477
pen	-9.07611
eg	-9.07629
▁një	-9.07692
▁att	-9.07707
ня	-9.07719
▁أ	-9.07767
▁sem	-9.07838
大	-9.07869
uje	-9.07886
su	-9.07916
ec	-9.08089
▁pada	-9.08116
sh	-9.08268
10	-9.08281
▁על	-9.08282
fer	-9.08427
L	-9.08582
▁ru	-9.08586
▁vy	-9.08634
ah	-9.08765
▁ο	-9.08838
▁под	-9.08897
han	-9.0895
се	-9.09047
▁Pa	-9.09094
▁ل	-9.091
▁19	-9.09166
▁della	-9.09444
य	-9.09543
gar	-9.09682
▁seu	-9.0969
▁pas	-9.09722
▁η	-9.09738
▁jo	-9.09818
era	-9.09822
ля	-9.09999
ic	-9.10084
▁vo	-9.1016
▁आ	-9.10221
ila	-9.10328
리	-9.10757
hu	-9.10777
▁Ba	-9.10953
ன்	-9.11023
▁zen	-9.11103
·	-9.11175
க்	-9.11358
ல்	-9.11585
వ	-9.11641
గా	-9.11662
ν	-9.1169
by	-9.11694
ere	-9.11763
lin	-9.1178
де	-9.11967
▁पर	-9.11982
▁Vi	-9.12077
ם	-9.12143
▁am	-9.12193
▁Con	-9.12439
▁blev	-9.12722
С	-9.12797
▁2006	-9.12946
ers	-9.13214
▁bat	-9.13308
ర	-9.13385
ना	-9.13393
▁it	-9.13465
ert	-9.13493
ez	-9.13547
sch	-9.13651
▁kun	-9.13857
ac	-9.13986
го	-9.14084
▁tri	-9.14186
▁к	-9.14191
ser	-9.14236
red	-9.1437
▁mi	-9.14462
ale	-9.14486
ι	-9.1478
▁Man	-9.14824
ija	-9.14839
ий	-9.15081
▁lu	-9.15109
ovi	-9.15173
ја	-9.15181
át	-9.15193
▁Han	-9.15243
▁tu	-9.15271
ী	-9.15481
中	-9.15504
▁zu	-9.15532
ál	-9.15679
ர்	-9.15692
ната	-9.15774
мен	-9.15796
고	-9.15861
ş	-9.15922
▁ו	-9.15947
को	-9.15979
▁21	-9.16196
let	-9.16457
▁2012	-9.16464
met	-9.16473
ssa	-9.1648
▁Ko	-9.16496
val	-9.16672
sel	-9.16978
▁Ho	-9.16985
▁Y	-9.17025
▁mar	-9.17088
au	-9.17213
ба	-9.17225
tal	-9.17281
▁24	-9.17381
ala	-9.17389
las	-9.17493
স	-9.17636
▁till	-9.17809
ट	-9.17867
és	-9.17989
▁As	-9.18004
ama	-9.18068
▁이	-9.18069
kin	-9.18134
▁Pe	-9.18201
ам	-9.18401
vel	-9.1841
ди	-9.18459
ata	-9.18686
vis	-9.18794
tik	-9.18802
ке	-9.18807
че	-9.18855
▁her	-9.18956
van	-9.19046
에서	-9.19106
ча	-9.19232
▁ali	-9.19285
一	-9.19567
▁inter	-9.19636
ц	-9.19748
▁Ca	-9.19776
op	-9.19781
ين	-9.1987
▁dengan	-9.19911
ని	-9.20177
▁qui	-9.20286
▁1.	-9.20472
▁ein	-9.20613
▁об	-9.20696
кі	-9.20739
ع	-9.21049
▁cho	-9.2131
▁22	-9.21328
▁að	-9.21332
▁года	-9.21422
▁New	-9.21424
cia	-9.21586
ile	-9.2165
▁yn	-9.21747
有	-9.21796
!	-9.21852
▁ba	-9.21995
▁mal	-9.22013
ran	-9.22096
net	-9.22116
도	-9.22128
▁τον	-9.22202
kom	-9.22261
▁За	-9.22271
▁О	-9.22383
len	-9.22421
▁meg	-9.22422
য়	-9.22444
▁Es	-9.22591
”.	-9.2266
nje	-9.22811
ן	-9.22817
▁sub	-9.23044
dir	-9.23096
▁və	-9.23123
uri	-9.23132
ज	-9.23238
▁Ti	-9.2337
▁ved	-9.23426
ত	-9.23558
▁ש	-9.23563
ón	-9.23646
kar	-9.23706
प	-9.23845
▁Mar	-9.23876
ı	-9.23876
ম	-9.23898
▁uma	-9.23944
hr	-9.23983
ال	-9.24051
▁2013	-9.24144
한	-9.24249
▁К	-9.2427
▁raz	-9.24274
ले	-9.2433
▁Ri	-9.2448
▁го	-9.24504
ија	-9.24557
ami	-9.24586
fe	-9.2461
▁å	-9.24823
во	-9.24844
월	-9.24869
▁pu	-9.24904
▁ou	-9.25129
ව	-9.25159
টি	-9.25205
▁non	-9.25229
ர	-9.25275
ве	-9.25417
▁care	-9.2545
ion	-9.25561
▁fu	-9.25659
▁fost	-9.25798
ów	-9.25934
▁Die	-9.25968
ð	-9.26006
▁or	-9.26058
nd	-9.26141
nja	-9.26357
tel	-9.26436
▁2014	-9.26513
▁23	-9.2659
▁που	-9.26664
uk	-9.26759
▁|	-9.26852
▁kar	-9.26904
lle	-9.26986
θ	-9.2702
ft	-9.27065
▁המ	-9.27096
▁sta	-9.27247
▁kom	-9.27263
ට	-9.27348
▁parte	-9.27498
▁এবং	-9.27657
▁So	-9.2786
bar	-9.27907
▁అ	-9.27929
ම	-9.27964
▁ili	-9.27977
త	-9.28019
аў	-9.28163
ల్	-9.28185
으로	-9.28326
▁των	-9.28327
wi	-9.28386
им	-9.28531
▁Б	-9.28577
▁ze	-9.28607
ito	-9.28813
J	-9.28895
tro	-9.28944
их	-9.28993
ία	-9.29083
bre	-9.29117
▁Mi	-9.2916
▁што	-9.29166
ě	-9.29192
▁album	-9.29206
▁į	-9.29218
▁আ	-9.29226
▁mis	-9.29264
인	-9.29267
▁forma	-9.29383
nda	-9.29549
▁Fa	-9.29571
▁Ro	-9.29604
ル	-9.29614
ви	-9.2969
▁وال	-9.29697
▁voor	-9.29718
▁under	-9.29746
▁tak	-9.29782
▁bio	-9.29793
con	-9.29835
ció	-9.30055
▁де	-9.3007
ção	-9.30143
ł	-9.30201
▁się	-9.30348
ر	-9.30424
▁estis	-9.30462
▁Bar	-9.30466
▁100	-9.30466
▁آن	-9.30535
▁2005	-9.30536
gan	-9.30538
▁ch	-9.30629
ف	-9.30651
▁Or	-9.30652
▁tháng	-9.30675
ato	-9.30693
▁Ni	-9.30907
ian	-9.30945
ப்	-9.30953
න්	-9.31016
▁Un	-9.31037
res	-9.31126
▁Ke	-9.31207
ем	-9.31231
▁pi	-9.31331
ire	-9.31383
ز	-9.3148
▁вы	-9.31521
min	-9.3154
▁wy	-9.31767
▁ce	-9.31844
nin	-9.31889
ि	-9.31932
▁(18	-9.31932
ты	-9.31945
=	-9.32013
지	-9.32049
ė	-9.3207
он	-9.32251
▁بر	-9.32393
20	-9.32454
ン	-9.32568
nog	-9.32594
का	-9.32683
ның	-9.32781
▁že	-9.32835
gel	-9.32899
ша	-9.32912
▁ex	-9.32954
ně	-9.33134
▁St	-9.33146
mas	-9.33163
са	-9.33228
▁28	-9.33252
▁ro	-9.3333
ق	-9.33394
ná	-9.33399
స్	-9.3358
ил	-9.3367
ў	-9.33695
das	-9.3373
▁2015	-9.33744
া	-9.33748
ى	-9.33767
ite	-9.33806
ф	-9.33835
▁26	-9.33881
▁pred	-9.33917
ida	-9.33919
ните	-9.33953
கள்	-9.3427
tos	-9.34276
ड	-9.34277
▁στην	-9.3433
ет	-9.34671
య	-9.34695
ник	-9.34707
▁dans	-9.34715
′	-9.34726
či	-9.34815
ක	-9.34889
ları	-9.34915
ğ	-9.35095
18	-9.35133
ту	-9.35221
▁σε	-9.35324
▁dem	-9.35326
▁27	-9.35361
ах	-9.35402
▁bil	-9.35404
▁Ki	-9.35417
▁για	-9.35499
▁ও	-9.35699
ens	-9.35777
ου	-9.35779
క	-9.35847
én	-9.35873
▁হয়	-9.35885
lig	-9.35971
和	-9.3602
▁nel	-9.36119
ling	-9.3621
스	-9.36211
par	-9.36215
▁ist	-9.36261
▁Car	-9.36298
س	-9.36332
ली	-9.36416
vin	-9.36497
ix	-9.36514
ati	-9.36587
па	-9.36595
ide	-9.3669
న్	-9.36884
▁els	-9.36908
ura	-9.36912
ند	-9.36946
ක්	-9.36996
је	-9.37008
▁egy	-9.37046
▁kor	-9.37063
▁Pro	-9.37201
▁Du	-9.37214
▁untuk	-9.37387
ই	-9.37508
▁Во	-9.37695
А	-9.37744
▁З	-9.37758
▁या	-9.3782
ici	-9.37886
vu	-9.38039
▁στο	-9.38059
sku	-9.38066
for	-9.38111
ei	-9.38136
▁0	-9.38158
ara	-9.38166
द	-9.38243
일	-9.38317
tt	-9.3837
ting	-9.38412
ino	-9.38462
dos	-9.3849
cht	-9.38508
：	-9.38518
12	-9.38526
▁war	-9.38585
ал	-9.38625
ге	-9.38638
зи	-9.38712
una	-9.38988
ను	-9.38997
ون	-9.39007
11	-9.39195
dor	-9.39258
க்க	-9.39313
▁لل	-9.39341
▁2004	-9.39402
ण	-9.39442
zu	-9.39443
▁ها	-9.39459
ye	-9.39652
tek	-9.3967
した	-9.39763
rea	-9.39862
ل	-9.39908
ме	-9.39996
сы	-9.40022
▁ini	-9.40108
ува	-9.40109
ש	-9.40369
nia	-9.40382
▁हो	-9.40432
▁الأ	-9.40462
다	-9.40506
▁đã	-9.40583
ών	-9.4063
rik	-9.40843
chi	-9.40885
▁Tu	-9.4102
ll	-9.4102
তে	-9.41081
▁with	-9.41106
ið	-9.41227
ram	-9.41399
ית	-9.41607
ू	-9.41749
▁Va	-9.41762
ira	-9.41774
ి	-9.41833
▁Az	-9.41984
ación	-9.42019
च	-9.42098
ona	-9.42115
ando	-9.42118
nis	-9.42125
cha	-9.42126
če	-9.42167
них	-9.42239
▁إلى	-9.4224
nde	-9.42296
ate	-9.42456
▁یک	-9.42486
▁ఆ	-9.42515
?	-9.42563
প	-9.42606
기	-9.42655
▁2000	-9.42729
ice	-9.42777
ス	-9.42858
▁all	-9.42881
▁ug	-9.42928
▁ఈ	-9.42969
▁50	-9.42975
▁Jo	-9.4307
ə	-9.43137
ей	-9.43178
▁Je	-9.43205
ras	-9.43261
▁स	-9.43332
▁naj	-9.43336
」	-9.43386
lla	-9.43405
න	-9.43425
dar	-9.4344
uar	-9.43632
kov	-9.43687
тар	-9.43705
ре	-9.43734
▁Od	-9.43799
▁Bi	-9.43907
▁ju	-9.43949
elle	-9.44024
▁ви	-9.44156
30	-9.44187
»,	-9.44241
▁ny	-9.44249
과	-9.44588
ż	-9.44659
▁ने	-9.44667
ap	-9.44693
ित	-9.44766
ব	-9.44782
ு	-9.448
50	-9.44953
▁Ra	-9.45293
▁или	-9.45342
▁від	-9.45358
ella	-9.45366
ह	-9.45371
ret	-9.45442
▁Ja	-9.45494
vad	-9.45497
▁dels	-9.45645
tis	-9.45792
bel	-9.45827
い	-9.45891
we	-9.45899
ных	-9.45965
▁më	-9.46049
▁adalah	-9.46095
▁2016	-9.4613
ого	-9.46147
▁với	-9.46189
▁unha	-9.46237
▁او	-9.46252
▁iš	-9.46392
ojn	-9.46537
nak	-9.4658
tre	-9.46733
ше	-9.4682
し	-9.46903
▁fin	-9.46942
▁ten	-9.47003
art	-9.47019
mon	-9.47027
ල	-9.47149
▁Ku	-9.47198
nej	-9.47226
že	-9.47235
사	-9.47276
nen	-9.47341
ais	-9.47348
▁π	-9.47362
▁М	-9.47437
υ	-9.47485
▁سال	-9.47496
了	-9.47504
▁Th	-9.47569
▁val	-9.47586
ley	-9.47674
▁Ο	-9.47762
▁είναι	-9.47803
▁người	-9.47882
cz	-9.47923
▁ад	-9.47955
ры	-9.47981
▁2.	-9.48041
▁th	-9.48058
ം	-9.48199
▁tot	-9.482
「	-9.48211
ns	-9.48286
▁une	-9.48293
▁sobre	-9.48317
▁zijn	-9.48379
ın	-9.48383
▁fer	-9.48402
din	-9.48406
▁29	-9.48427
ante	-9.48482
▁+	-9.48516
▁И	-9.48517
▁dal	-9.48528
nek	-9.48532
و	-9.4873
15	-9.48737
ৰ	-9.4889
tter	-9.48901
ros	-9.48936
ور	-9.48968
து	-9.49
ор	-9.49092
ج	-9.49217
▁Os	-9.49325
מ	-9.49427
ár	-9.49472
ய	-9.49477
▁Lu	-9.49504
ard	-9.49505
ido	-9.49508
ës	-9.49527
த்த	-9.49632
▁plan	-9.49636
▁kal	-9.49684
श	-9.49692
▁pot	-9.49746
రి	-9.49757
ff	-9.49772
▁но	-9.4983
上	-9.49991
▁як	-9.5005
bor	-9.50071
ong	-9.50099
▁zo	-9.50225
rit	-9.50228
▁ab	-9.50238
▁कि	-9.50243
ప	-9.50283
▁τα	-9.50311
ست	-9.50362
ро	-9.50435
ell	-9.5046
ende	-9.50497
vet	-9.50498
▁&	-9.5065
▁для	-9.50651
ства	-9.50652
ö	-9.50729
▁fel	-9.50729
rat	-9.50968
▁си	-9.50996
▁ei	-9.51004
▁qu	-9.51013
му	-9.51169
▁gi	-9.51194
sion	-9.51231
ega	-9.51302
az	-9.51382
▁hu	-9.51441
▁प	-9.51554
ా	-9.5161
▁ن	-9.51674
lı	-9.5169
▁fe	-9.51753
ný	-9.51818
▁John	-9.51845
ego	-9.51861
pro	-9.51882
še	-9.51892
▁مع	-9.52005
▁Go	-9.52006
ம	-9.52008
ava	-9.52045
тер	-9.52059
▁किया	-9.52172
ग	-9.5219
stra	-9.52216
▁000	-9.52308
ć	-9.52325
ি	-9.52337
▁क	-9.52363
र्	-9.52372
\	-9.52432
iko	-9.52433
▁%	-9.52524
▁Па	-9.52609
ии	-9.5265
sz	-9.52714
ح	-9.52715
би	-9.52814
▁š	-9.52831
▁roz	-9.52876
▁व	-9.52979
க	-9.53156
▁Am	-9.53378
▁कर	-9.53478
kt	-9.53497
▁му	-9.53515
лы	-9.53528
▁Gi	-9.53558
ων	-9.53593
▁pour	-9.53597
रा	-9.536
▁Mu	-9.53618
pp	-9.53661
ー	-9.53866
ți	-9.53874
гі	-9.53924
ի	-9.54018
sten	-9.54115
té	-9.54167
tet	-9.5417
▁hi	-9.54176
▁Е	-9.54221
▁zuen	-9.54224
▁أن	-9.54232
▁شده	-9.54306
▁пра	-9.54311
ano	-9.54335
leri	-9.54457
ход	-9.54486
री	-9.54492
▁ре	-9.54514
▁க	-9.54536
ती	-9.5456
▁како	-9.54679
▁Ru	-9.54717
19	-9.54736
మ	-9.54892
issa	-9.54913
ер	-9.54917
▁dia	-9.54981
tus	-9.55066
▁ale	-9.55077
த	-9.55078
ος	-9.55114
▁Der	-9.55129
வ	-9.55136
ئ	-9.55264
zen	-9.5527
ся	-9.55331
ius	-9.55344
▁sam	-9.55365
ै	-9.55396
ো	-9.55449
▁što	-9.55524
mat	-9.5558
ње	-9.55591
ag	-9.55607
40	-9.55666
▁dalam	-9.55725
zione	-9.55757
▁भी	-9.55771
▁bila	-9.55832
▁ف	-9.55878
ٔ	-9.55958
ین	-9.55961
asi	-9.55993
▁tahun	-9.56148
▁werd	-9.56271
▁sig	-9.56342
▁është	-9.56372
pu	-9.56453
си	-9.56508
ét	-9.56549
▁For	-9.56726
av	-9.56751
ev	-9.56844
stan	-9.56948
X	-9.56973
কে	-9.57068
erne	-9.57109
▁Kon	-9.57126
ão	-9.57135
▁म	-9.57147
до	-9.57159
ң	-9.57221
cio	-9.57309
▁{	-9.5735
▁те	-9.57502
nica	-9.57513
▁wurde	-9.57565
ство	-9.57637
ға	-9.57689
▁form	-9.57712
名	-9.57713
▁Em	-9.57753
▁2001	-9.57787
tte	-9.57876
يا	-9.57891
▁Η	-9.57949
Z	-9.57987
▁auf	-9.58025
▁الت	-9.58031
bra	-9.58111
不	-9.58158
æ	-9.58235
▁Det	-9.58249
ân	-9.58256
ys	-9.58321
sto	-9.58335
▁మరియు	-9.58345
▁П	-9.58349
ब	-9.58588
ан	-9.58617
▁să	-9.58635
▁bol	-9.58708
ова	-9.58768
ев	-9.58807
16	-9.58821
ды	-9.58895
▁Ab	-9.58936
▁nie	-9.58956
illa	-9.58974
će	-9.59027
ε	-9.59078
tin	-9.59154
lor	-9.59176
″	-9.59269
▁2003	-9.593
lat	-9.5943
чи	-9.59496
mis	-9.59515
▁ao	-9.59535
▁2002	-9.59545
ab	-9.59661
ér	-9.59671
出	-9.59695
kel	-9.59706
어	-9.59713
▁כ	-9.59743
▁Her	-9.5978
▁pen	-9.59797
▁वि	-9.59893
ör	-9.59927
地	-9.60037
ade	-9.60054
ذ	-9.60094
bil	-9.60124
bat	-9.60146
ën	-9.60147
К	-9.60157
fo	-9.60175
—	-9.60249
자	-9.60268
ș	-9.60275
కు	-9.6031
же	-9.60311
det	-9.60342
xi	-9.604
▁40	-9.60464
don	-9.60515
िक	-9.60544
క్	-9.6058
ი	-9.6062
ados	-9.60621
वा	-9.60628
▁Wa	-9.60695
të	-9.60729
-1	-9.60837
ного	-9.60847
▁м	-9.60857
▁grad	-9.61039
▁st	-9.61127
▁ம	-9.61201
▁ма	-9.61223
▁Ка	-9.61241
▁car	-9.61509
tz	-9.61542
▁ud	-9.61598
▁था	-9.61603
ού	-9.61625
시	-9.61637
▁ci	-9.61687
ure	-9.61717
мі	-9.61753
ente	-9.61763
ط	-9.61767
▁În	-9.61789
ാ	-9.61809
amente	-9.61873
mp	-9.61875
行	-9.61954
ो	-9.62
와	-9.62031
є	-9.62067
▁nem	-9.62075
▁τη	-9.62126
▁mais	-9.62128
nar	-9.6213
mos	-9.62138
▁लिए	-9.62145
cy	-9.62189
ül	-9.62235
ב	-9.62244
▁III	-9.62282
▁இ	-9.62379
子	-9.62549
25	-9.62608
ు	-9.62614
▁Д	-9.62638
ex	-9.62659
qui	-9.6266
▁प्र	-9.62693
ят	-9.62811
▁It	-9.62852
jan	-9.62887
▁Tra	-9.62935
lt	-9.63114
▁pentru	-9.6319
leg	-9.63191
▁ngày	-9.63282
ει	-9.63295
▁mao	-9.63375
த்	-9.63384
по	-9.63385
▁që	-9.63581
▁sen	-9.63606
ast	-9.6361
ок	-9.63642
nosti	-9.63717
▁ба	-9.6373
▁mod	-9.63742
▁lui	-9.63755
ці	-9.63797
▁Q	-9.63822
▁vol	-9.6389
▁করে	-9.63901
اد	-9.63933
대	-9.63934
mit	-9.63949
dre	-9.63983
▁\	-9.64056
port	-9.64227
▁נ	-9.6424
이다	-9.64254
▁York	-9.64302
▁izan	-9.64449
▁31	-9.64452
ero	-9.64458
är	-9.64464
skog	-9.64534
17	-9.64613
יה	-9.64636
▁यह	-9.64657
▁2017	-9.64664
лу	-9.64672
ble	-9.64726
nika	-9.64807
χ	-9.64844
▁hij	-9.64867
tri	-9.64913
▁buvo	-9.64959
▁bar	-9.64963
▁pag	-9.6501
ст	-9.65038
14	-9.65049
▁pra	-9.65119
▁gr	-9.65131
▁kur	-9.65145
ien	-9.65326
ore	-9.65484
▁ở	-9.65498
80	-9.65537
ой	-9.6564
60	-9.6588
▁شد	-9.65921
▁ப	-9.66139
ל	-9.66191
ost	-9.66213
ول	-9.66215
▁има	-9.66223
лар	-9.6624
це	-9.66242
ії	-9.66259
ía	-9.66276
pan	-9.66309
ә	-9.6635
రు	-9.66401
রা	-9.66531
▁tan	-9.6656
ன	-9.66609
ef	-9.66659
kor	-9.66688
▁수	-9.66719
tă	-9.6676
▁eller	-9.66772
tä	-9.66822
ých	-9.66855
▁mot	-9.66873
▁pr	-9.66918
car	-9.67047
▁Ju	-9.67077
▁Hu	-9.67165
sche	-9.67203
isto	-9.67256
▁ब	-9.67265
“.	-9.67304
gy	-9.67314
▁إ	-9.67339
sia	-9.67368
ца	-9.67409
sse	-9.67417
ob	-9.67435
▁ја	-9.67446
িত	-9.67491
▁Ба	-9.67528
▁sau	-9.67543
ές	-9.67582
ත්	-9.67614
اء	-9.67623
▁sz	-9.67628
ју	-9.67652
▁пере	-9.67692
tak	-9.67814
▁Val	-9.67839
if	-9.67895
imo	-9.679
bri	-9.67939
ity	-9.68065
وا	-9.68069
▁koja	-9.68092
nost	-9.68171
స	-9.68189
ier	-9.68297
ര	-9.6831
het	-9.68425
ée	-9.68483
Y	-9.68533
ico	-9.68583
zer	-9.68593
ije	-9.68761
une	-9.6879
▁cap	-9.6888
мо	-9.68951
▁sua	-9.68953
δ	-9.68973
▁Pi	-9.68981
▁Pre	-9.69081
▁বা	-9.69155
▁(19	-9.69243
▁ez	-9.69314
ip	-9.69343
▁Les	-9.69463
も	-9.69488
The	-9.69556
▁Film	-9.69597
ү	-9.69703
▁nahimutang	-9.69712
ము	-9.69759
ста	-9.69762
▁ا	-9.69765
ена	-9.69798
ament	-9.69882
ü	-9.69895
ismo	-9.69911
ско	-9.70024
lé	-9.70024
ő	-9.70034
▁Το	-9.70035
▁ع	-9.70275
ს	-9.70306
▁uz	-9.70338
rá	-9.70342
ха	-9.70404
▁vào	-9.7042
▁dagat	-9.70437
▁kot	-9.70494
▁Σ	-9.70525
iv	-9.70672
berg	-9.70698
use	-9.70768
nan	-9.70804
▁Ш	-9.70916
70	-9.7092
cer	-9.7096
lje	-9.70973
ല	-9.70999
vor	-9.71007
▁contra	-9.71063
ु	-9.71127
28	-9.71149
ේ	-9.71161
▁године	-9.71209
jem	-9.71218
tat	-9.71222
ori	-9.71238
ു	-9.71268
ham	-9.71491
▁д	-9.71594
ena	-9.716
生	-9.71706
itat	-9.71753
mann	-9.71912
ени	-9.71969
rin	-9.72044
ంగా	-9.7205
ков	-9.72099
ද	-9.72109
র্	-9.72173
tr	-9.72188
▁aan	-9.72221
ła	-9.7226
者	-9.72342
▁ok	-9.72346
μ	-9.72353
ר	-9.72359
skih	-9.7239
β	-9.72391
▁Ob	-9.72451
▁On	-9.72481
ction	-9.72501
ži	-9.72509
ün	-9.72512
জ	-9.72535
π	-9.72636
▁seg	-9.7271
▁Par	-9.72751
ния	-9.72799
ُ	-9.72827
な	-9.72884
▁vid	-9.72922
ও	-9.72945
gin	-9.72947
26	-9.73039
▁প্র	-9.73066
▁सं	-9.73175
▁are	-9.73387
dur	-9.73407
ট	-9.73509
idade	-9.73525
▁ای	-9.73541
gang	-9.73567
గ	-9.73596
▁عام	-9.73613
▁ما	-9.73649
τα	-9.73701
ča	-9.73721
ep	-9.73749
▁Kar	-9.73796
▁part	-9.73802
▁অ	-9.73825
grad	-9.73859
mes	-9.73871
▁הוא	-9.73932
▁år	-9.74043
▁न	-9.74065
▁his	-9.74081
вер	-9.74084
▁برای	-9.74099
–19	-9.74215
int	-9.74225
27	-9.74233
▁пред	-9.74238
ši	-9.74246
▁final	-9.74255
end	-9.74271
ஸ்	-9.74284
hen	-9.74294
▁τους	-9.74346
lä	-9.74389
▁Sch	-9.74417
రా	-9.74439
▁can	-9.74467
▁isang	-9.74526
sin	-9.7457
pre	-9.74587
▁וה	-9.74672
▁кон	-9.74674
dis	-9.74789
▁Tr	-9.74796
ola	-9.74873
ار	-9.74883
hat	-9.74959
▁from	-9.75065
ring	-9.75136
13	-9.75138
ови	-9.75175
dra	-9.75176
▁Op	-9.75202
dal	-9.75206
ა	-9.75217
ном	-9.75256
iva	-9.75391
isi	-9.75442
▁3.	-9.75454
தி	-9.755
▁Fi	-9.75544
▁අ	-9.75563
▁alle	-9.75579
▁Mor	-9.7559
▁ur	-9.75614
▁Gu	-9.75643
خ	-9.7567
ында	-9.757
డ	-9.75738
sky	-9.75747
▁uit	-9.75766
ín	-9.75829
യ	-9.75842
െ	-9.75863
ės	-9.75889
Р	-9.76001
ස්	-9.76035
দ	-9.76142
gal	-9.76251
idae	-9.76325
》	-9.76476
up	-9.76528
▁pos	-9.76585
ك	-9.76624
נ	-9.76678
▁Ph	-9.76756
後	-9.7678
▁også	-9.76803
▁بود	-9.76891
ной	-9.76922
ld	-9.76999
ede	-9.7711
▁الع	-9.77125
å	-9.77157
iden	-9.77172
▁Г	-9.77182
▁Κ	-9.77201
▁dis	-9.77226
ani	-9.77235
tura	-9.77452
▁Т	-9.77598
라	-9.77709
her	-9.77715
vat	-9.77761
ces	-9.7785
21	-9.77851
▁Com	-9.77918
ман	-9.7792
ア	-9.7794
▁gran	-9.77945
▁Ve	-9.77948
▁ikke	-9.77993
▁min	-9.78066
▁इस	-9.78073
▁1999	-9.78102
ња	-9.78292
▁này	-9.78364
▁বি	-9.78406
get	-9.78427
▁nord	-9.78473
ар	-9.78474
▁2018	-9.78484
▁ज	-9.7852
hl	-9.78534
ön	-9.78548
tzen	-9.78555
▁Pu	-9.78572
eri	-9.78572
▁като	-9.78585
る	-9.78643
▁nad	-9.78762
▁र	-9.78839
▁1992	-9.79021
stvo	-9.79038
▁ج	-9.79153
▁ako	-9.79159
▁syn	-9.7924
▁এ	-9.79265
▁far	-9.79267
vá	-9.79385
fu	-9.79386
lige	-9.79426
▁door	-9.79508
▁tro	-9.79596
01	-9.79665
П	-9.79674
▁cre	-9.79694
▁ná	-9.79709
mor	-9.79711
▁Men	-9.79731
ins	-9.79758
▁thành	-9.79767
ela	-9.79807
▁that	-9.79824
uta	-9.79838
▁1991	-9.79838
יו	-9.79898
نا	-9.79992
▁ap	-9.79996
kur	-9.80132
ges	-9.80183
сі	-9.80222
▁come	-9.80252
ай	-9.80301
部	-9.80388
yo	-9.80424
▁general	-9.80432
▁1996	-9.80446
▁এই	-9.80564
mal	-9.80619
▁1997	-9.80639
▁sebagai	-9.80705
▁koje	-9.80733
▁عن	-9.80759
▁aus	-9.80765
los	-9.8079
шы	-9.80821
為	-9.80834
▁Har	-9.80838
▁그	-9.80863
▁oleh	-9.80953
▁Los	-9.80954
▁đ	-9.81043
ді	-9.81064
▁leta	-9.81072
ër	-9.8109
ça	-9.81114
정	-9.81123
▁Ber	-9.81137
▁أو	-9.81211
▁sp	-9.81242
▁jako	-9.81281
ες	-9.81328
▁있다	-9.81347
وم	-9.81369
ія	-9.81386
する	-9.81457
vr	-9.81487
▁Pri	-9.81618
ام	-9.8167
▁що	-9.81716
分	-9.81725
ris	-9.81885
line	-9.81986
▁maj	-9.82004
▁Mon	-9.82041
05	-9.8206
به	-9.82112
না	-9.82171
ther	-9.82175
▁Is	-9.82196
22	-9.82202
Д	-9.82205
ise	-9.82211
ê	-9.82225
▁Mal	-9.8223
ෙ	-9.82272
▁1990	-9.82302
▁gu	-9.82369
ence	-9.82379
cion	-9.82443
▁Can	-9.82444
யில்	-9.82492
▁Α	-9.82505
▁go	-9.82578
▁roman	-9.82594
డి	-9.82652
▁Ch	-9.82694
стан	-9.82749
▁ق	-9.82819
▁2011.	-9.82838
uz	-9.82874
▁ප	-9.82904
ves	-9.82908
af	-9.82915
aria	-9.82928
▁1994	-9.83025
lja	-9.83115
iga	-9.83124
õ	-9.8314
▁ind	-9.83162
▁upp	-9.83167
ல	-9.8321
oni	-9.83274
ந்த	-9.83284
▁року	-9.83315
▁không	-9.83323
ската	-9.83327
▁गया	-9.83521
lit	-9.83541
dom	-9.83543
▁през	-9.83639
00	-9.83683
san	-9.83692
yan	-9.83734
▁volt	-9.83751
▁Ben	-9.83765
dia	-9.83836
هم	-9.83864
М	-9.83873
▁pres	-9.83904
▁তিনি	-9.8395
▁Ci	-9.8398
▁cha	-9.84111
▁tal	-9.84161
▁Sam	-9.84197
▁út	-9.84198
ій	-9.84214
nte	-9.84234
드	-9.84348
斯	-9.84405
▁Cor	-9.84442
ίας	-9.84525
▁ett	-9.8455
ική	-9.8457
oval	-9.84614
▁fue	-9.8465
▁samo	-9.84715
▁für	-9.84733
one	-9.84746
isk	-9.8476
ත	-9.84838
▁bal	-9.84841
▁Chi	-9.84872
▁cel	-9.84981
▁1995	-9.84982
έ	-9.85008
▁जो	-9.85034
▁ré	-9.85054
▁س	-9.85058
ű	-9.85092
tom	-9.85105
prav	-9.85106
▁cor	-9.85131
▁wie	-9.85139
▁క	-9.8518
ñ	-9.85195
ак	-9.85275
də	-9.85333
▁Cha	-9.85353
ві	-9.85365
▁mat	-9.85374
35	-9.85405
tum	-9.85408
▁һәм	-9.8542
ett	-9.85437
mmer	-9.85487
▁то	-9.85495
ř	-9.85503
▁স	-9.85505
jar	-9.85577
nas	-9.85696
+	-9.85696
▁ح	-9.85746
▁bis	-9.8575
ట	-9.85764
▁2010.	-9.8577
any	-9.85814
▁ஆ	-9.85815
О	-9.85832
tta	-9.85898
َ	-9.85908
▁Не	-9.85919
ө	-9.85944
▁pp	-9.85963
▁sus	-9.85991
▁بال	-9.86009
▁dy	-9.86045
gre	-9.86077
ement	-9.86111
лен	-9.86294
സ്	-9.86296
전	-9.86335
▁ti	-9.86395
▁más	-9.86414
ym	-9.8643
ним	-9.86449
ণ	-9.86454
▁hal	-9.86518
lon	-9.86537
▁sve	-9.86539
24	-9.86626
Б	-9.86646
skom	-9.86667
ved	-9.86676
ами	-9.86691
ře	-9.86732
цы	-9.86736
▁1998	-9.86749
vy	-9.86792
▁ed	-9.86812
ario	-9.86813
▁ব	-9.86865
ారు	-9.86882
ən	-9.86886
90	-9.86936
ғы	-9.8699
ما	-9.8702
트	-9.87118
ille	-9.87178
ட	-9.87201
mel	-9.87203
ove	-9.87279
▁că	-9.87283
kal	-9.87289
φ	-9.87343
国	-9.87349
▁dar	-9.87382
▁Dan	-9.87382
tori	-9.87383
ස	-9.87408
▁60	-9.87409
▁sie	-9.87437
oli	-9.87446
ib	-9.87448
ద	-9.87467
ний	-9.875
▁ही	-9.87544
▁করেন	-9.87544
lukop	-9.87626
ht	-9.87639
▁време	-9.87683
hn	-9.87701
▁post	-9.87758
▁Hapit	-9.87768
γ	-9.87795
法	-9.87912
yn	-9.8793
pon	-9.8795
▁mer	-9.87955
▁alla	-9.8805
αν	-9.88083
xe	-9.88112
29	-9.88124
个	-9.88144
▁వి	-9.88155
▁само	-9.88243
ते	-9.88332
▁už	-9.88349
▁mor	-9.88387
В	-9.8842
imi	-9.88488
бо	-9.88548
ür	-9.88571
ంలో	-9.88674
▁byl	-9.88722
न्	-9.88725
▁olarak	-9.88774
ses	-9.88778
nut	-9.88787
log	-9.88825
▁dé	-9.8884
ൻ	-9.88982
ί	-9.89
▁từ	-9.8911
▁Kor	-9.89124
作	-9.89125
▁пры	-9.89258
ото	-9.89273
▁ఇ	-9.89314
vid	-9.89317
ì	-9.89336
כ	-9.89441
▁Cu	-9.89447
▁World	-9.89496
▁dell	-9.8951
por	-9.89519
31	-9.89556
ket	-9.89556
dig	-9.89565
▁Fe	-9.89568
ే	-9.89641
▁Sal	-9.89688
ის	-9.89724
vit	-9.89742
ub	-9.89748
nici	-9.89812
り	-9.89827
▁sú	-9.89879
から	-9.89901
07	-9.89917
inen	-9.89929
▁бил	-9.89938
noj	-9.90043
▁לה	-9.90056
сто	-9.90092
ator	-9.90105
▁би	-9.90112
ात	-9.90133
▁up	-9.90135
▁че	-9.9014
▁1993	-9.90198
▁tại	-9.90212
ර්	-9.90345
kat	-9.90351
ک	-9.90353
via	-9.90377
▁അ	-9.90399
lah	-9.90409
た	-9.90425
ум	-9.90433
jet	-9.9045
ச	-9.90451
ная	-9.90453
ير	-9.90487
cie	-9.90506
vol	-9.90529
ин	-9.90544
▁tudi	-9.90561
э	-9.9074
्य	-9.90745
ный	-9.90824
▁Đ	-9.90839
▁bei	-9.90844
ding	-9.9085
▁उ	-9.90862
▁ass	-9.90902
▁opp	-9.90993
▁program	-9.91039
lang	-9.91093
▁Tur	-9.91111
45	-9.91128
cí	-9.91137
か	-9.9115
▁metros	-9.9115
cho	-9.91168
イ	-9.91204
ných	-9.91226
form	-9.91234
▁Са	-9.91234
नी	-9.91257
ян	-9.91276
κ	-9.91281
ime	-9.91289
ி	-9.91307
тан	-9.9136
gor	-9.91371
tti	-9.91377
ון	-9.91385
했다	-9.91398
▁sistem	-9.91429
zy	-9.91433
▁land	-9.91459
nder	-9.91493
▁ди	-9.91505
ær	-9.91528
▁Ф	-9.91539
vod	-9.91545
08	-9.91566
▁sich	-9.91612
atu	-9.91632
以	-9.91654
мер	-9.91698
▁आहे	-9.91718
į	-9.91758
লি	-9.91785
▁تا	-9.9183
stva	-9.91837
ô	-9.91893
ische	-9.91945
ע	-9.91958
▁ste	-9.9196
дар	-9.91978
sam	-9.91981
▁ఒక	-9.91985
లి	-9.92005
▁vis	-9.9201
ium	-9.92074
bb	-9.92103
च्या	-9.92119
pis	-9.92133
▁những	-9.92161
ги	-9.92178
sid	-9.92185
▁olan	-9.92186
ї	-9.9219
▁Het	-9.92236
▁public	-9.92287
eur	-9.92355
▁α	-9.92366
pr	-9.92418
lag	-9.92435
“,	-9.92479
▁شود	-9.92497
eta	-9.92506
വ	-9.92514
ел	-9.92515
ക	-9.92542
ർ	-9.92643
▁रूप	-9.92678
定	-9.92691
ské	-9.9273
▁efter	-9.92771
ார்	-9.92826
ır	-9.92832
用	-9.92843
▁Park	-9.92865
▁bet	-9.92884
پ	-9.9296
▁pel	-9.92968
ania	-9.92987
▁aj	-9.93007
▁जा	-9.93139
rum	-9.93161
ικό	-9.93235
ър	-9.9336
▁1980	-9.93367
hod	-9.93373
্য	-9.9339
cs	-9.93393
Ma	-9.93403
▁Robert	-9.93424
wan	-9.93433
下	-9.93453
ής	-9.93459
ът	-9.93484
ted	-9.93543
▁Pra	-9.93585
▁4.	-9.93595
ие	-9.93615
▁একটি	-9.9363
്	-9.93673
▁ziren	-9.93748
▁Ре	-9.93779
ša	-9.93779
jer	-9.9383
ப்ப	-9.93875
iji	-9.93886
▁Tri	-9.93981
rus	-9.94006
▁ima	-9.94013
itu	-9.94025
▁ме	-9.94116
ksi	-9.9418
▁gra	-9.94201
ть	-9.94235
▁над	-9.94243
▁خ	-9.94267
被	-9.94298
ख	-9.94342
▁més	-9.94378
ص	-9.94397
前	-9.9441
▁tem	-9.94437
তা	-9.94462
▁kiel	-9.94529
etan	-9.94567
num	-9.94606
서	-9.94648
vers	-9.94668
्	-9.94672
или	-9.94701
▁ги	-9.94709
bal	-9.9473
اب	-9.94752
▁Para	-9.94811
encia	-9.94842
▁baş	-9.94851
ным	-9.94885
))	-9.94899
▁الن	-9.94931
르	-9.94972
▁1989	-9.95001
gt	-9.95024
▁1960	-9.95081
zia	-9.95193
▁ildə	-9.95203
ரி	-9.95212
pol	-9.95267
গ	-9.95276
tica	-9.95297
وس	-9.95311
▁hogy	-9.95322
ду	-9.95335
ord	-9.95348
▁bere	-9.95364
本	-9.95384
▁бо	-9.9547
гу	-9.95482
కి	-9.95527
▁súa	-9.95565
ాలు	-9.95578
▁থেকে	-9.95608
▁هو	-9.95613
ది	-9.9567
▁ol	-9.95746
gon	-9.95809
▁Hi	-9.95809
ť	-9.95895
75	-9.95924
ць	-9.95963
▁ка	-9.95982
▁pla	-9.96034
である	-9.9605
lá	-9.96064
ός	-9.96072
▁đến	-9.96072
ൽ	-9.96142
▁kod	-9.96144
▁Sta	-9.96247
వి	-9.963
ssen	-9.96307
▁tek	-9.96343
▁2013.	-9.96347
raz	-9.96381
수	-9.96386
▁Ex	-9.96407
டி	-9.96408
▁করা	-9.9641
ته	-9.96482
▁Ce	-9.96515
ω	-9.96556
ட்ட	-9.96604
ру	-9.9672
▁eine	-9.96728
▁parti	-9.96864
▁Bre	-9.96897
ologi	-9.96956
ća	-9.96995
ク	-9.96995
▁grup	-9.97003
▁Paul	-9.97054
▁آ	-9.97074
▁bel	-9.97091
br	-9.97122
ats	-9.97126
23	-9.97144
gra	-9.97214
িক	-9.97221
48	-9.97241
শ	-9.97243
ør	-9.97264
家	-9.97279
▁sud	-9.97301
33	-9.97345
▁ning	-9.97353
▁οι	-9.97369
▁Consultado	-9.9737
▁khi	-9.97399
▁hun	-9.9743
▁reg	-9.97447
▁ת	-9.97451
▁Bra	-9.97481
נה	-9.9749
▁ж	-9.97501
▁kultur	-9.97533
qu	-9.97578
▁200	-9.97635
szt	-9.97675
▁not	-9.97721
ис	-9.97735
kas	-9.97761
▁Ter	-9.97778
ean	-9.97789
ø	-9.97836
▁ήταν	-9.97967
ட்	-9.9798
nych	-9.98027
▁pol	-9.98027
▁vez	-9.98034
nju	-9.98074
Т	-9.98105
▁2012.	-9.9814
▁Та	-9.9815
-2	-9.98184
age	-9.98184
▁ஒரு	-9.98214
ден	-9.98219
▁mem	-9.98243
king	-9.98252
άν	-9.98273
най	-9.98292
▁1987	-9.98352
och	-9.98352
▁anti	-9.9836
▁న	-9.9836
ich	-9.98423
▁chi	-9.98436
000	-9.98456
▁mon	-9.98472
03	-9.98561
성	-9.98595
bit	-9.98601
рт	-9.98704
ora	-9.98706
▁My	-9.98715
▁USA	-9.98718
nın	-9.98744
▁All	-9.98747
▁Ur	-9.9875
▁trans	-9.98809
▁Van	-9.98821
▁hor	-9.98824
nov	-9.98826
sar	-9.98831
▁வி	-9.98941
▁pat	-9.98999
▁kre	-9.9901
cija	-9.99068
▁जाता	-9.99079
ض	-9.99129
pat	-9.99132
▁году	-9.99149
▁put	-9.99197
ło	-9.99222
and	-9.99296
▁q	-9.99322
▁1985	-9.99429
▁א	-9.9943
zel	-9.99438
رو	-9.99449
▁може	-9.99458
ள	-9.9947
▁ش	-9.9949
gna	-9.99547
▁προ	-9.99554
▁전	-9.99651
▁Ма	-9.9966
сти	-9.9968
▁Де	-9.99704
har	-9.9972
ог	-9.99763
مان	-9.99786
▁మ	-9.9979
成	-9.99805
ás	-9.9982
ερ	-9.99823
▁ва	-9.99877
ít	-9.99884
nud	-9.99922
ண	-9.99981
36	-10.0003
த்தில்	-10.0003
▁नि	-10.0004
▁לא	-10.0008
원	-10.0014
бу	-10.0014
ന	-10.0027
nos	-10.0041
▁До	-10.0042
ത	-10.0044
ила	-10.0045
rie	-10.0046
▁دو	-10.0046
пер	-10.0055
▁br	-10.0057
вод	-10.006
മ	-10.006
▁ile	-10.0066
多	-10.0071
リ	-10.0076
▁Pas	-10.008
▁2015.	-10.0084
▁kiu	-10.0087
dik	-10.0091
ador	-10.0091
하는	-10.0092
ّ	-10.0099
▁Се	-10.0111
ס	-10.0111
▁Star	-10.0118
ске	-10.0118
wo	-10.0118
sp	-10.0118
▁19.	-10.0121
ύ	-10.0123
can	-10.0126
osti	-10.0127
):	-10.0128
ща	-10.0135
);	-10.0136
ث	-10.0137
▁मा	-10.0138
▁sonra	-10.0139
awa	-10.0145
ീ	-10.0145
εί	-10.015
pri	-10.0153
ген	-10.0159
eko	-10.0164
▁Por	-10.0165
ове	-10.0166
▁2014.	-10.0167
ట్	-10.0169
▁1970	-10.0173
bas	-10.0177
▁δια	-10.0178
▁kwa	-10.0181
eren	-10.0186
55	-10.0187
▁ко	-10.0189
39	-10.019
elt	-10.0193
▁ප්	-10.0193
▁mil	-10.0193
англ	-10.0196
▁1945	-10.02
85	-10.0201
ణ	-10.0202
dio	-10.0205
▁بعد	-10.0206
дан	-10.0207
▁Saint	-10.021
ив	-10.0217
ją	-10.022
ോ	-10.022
▁regi	-10.022
▁או	-10.022
▁yra	-10.0222
02	-10.0223
ப	-10.0225
चे	-10.0226
ої	-10.0227
gg	-10.0238
▁Π	-10.0239
於	-10.0239
ою	-10.0242
▁dva	-10.0245
أ	-10.0247
های	-10.025
▁кој	-10.0256
▁kap	-10.0263
eb	-10.0271
}}	-10.0272
ира	-10.0277
ој	-10.0278
▁Estados	-10.0282
ில்	-10.0283
▁nom	-10.0286
▁plus	-10.0292
▁град	-10.0295
▁ह	-10.0303
tic	-10.0307
▁ఎ	-10.0311
жа	-10.0315
▁bas	-10.0317
▁Nord	-10.0318
pos	-10.0322
▁Unidos	-10.0324
ප	-10.0325
dır	-10.0328
ijos	-10.0339
rd	-10.0339
ette	-10.0339
▁hvor	-10.0343
pin	-10.0344
高	-10.0345
ав	-10.0348
ischen	-10.0348
▁Š	-10.0348
▁1979	-10.0351
▁lungsod	-10.0355
▁við	-10.0355
▁км	-10.0357
▁‘	-10.0359
47	-10.0361
32	-10.0363
▁1940	-10.0364
▁đầu	-10.0367
38	-10.0368
▁opera	-10.037
rt	-10.0378
adas	-10.0379
主	-10.0381
La	-10.0385
вен	-10.0391
学	-10.0392
μα	-10.0398
▁ban	-10.0401
far	-10.0401
▁jeho	-10.0402
inin	-10.0405
ँ	-10.0406
65	-10.0409
事	-10.0409
▁bez	-10.041
37	-10.0418
্যা	-10.0431
▁ந	-10.0431
ór	-10.0434
▁tur	-10.0436
之	-10.0436
یر	-10.0437
vé	-10.0438
the	-10.0443
ary	-10.0445
▁1982	-10.0446
fin	-10.045
▁Europa	-10.0456
bol	-10.0463
dem	-10.0464
hy	-10.0464
ু	-10.0472
ades	-10.0474
▁August	-10.0474
89	-10.0475
lis	-10.0476
tua	-10.0476
合	-10.0481
▁Fo	-10.0483
из	-10.0487
ын	-10.0494
வு	-10.0498
▁pli	-10.0503
▁која	-10.0505
▁μ	-10.0507
nh	-10.0508
▁kay	-10.0514
कर	-10.0515
டு	-10.0523
▁ibabaw	-10.0525
ா	-10.0535
tud	-10.0536
▁så	-10.0537
▁Β	-10.0539
dı	-10.0541
mba	-10.0541
פ	-10.0542
09	-10.0544
set	-10.0546
ví	-10.0546
א	-10.0548
ост	-10.0551
ern	-10.0555
ד	-10.0557
ικά	-10.0558
34	-10.0565
غ	-10.0568
▁Pr	-10.058
▁hans	-10.0582
▁који	-10.0584
▁nakon	-10.0589
부	-10.0591
▁সালে	-10.0592
▁প	-10.0593
க்கு	-10.0595
tele	-10.0595
తి	-10.0596
44	-10.0599
▁Im	-10.0601
▁−	-10.0602
06	-10.0613
else	-10.0617
▁два	-10.0617
ić	-10.0621
ps	-10.0626
%	-10.0628
▁Ga	-10.0634
ио	-10.0636
হ	-10.0637
dro	-10.0638
▁ස	-10.0639
mak	-10.0639
▁Ny	-10.064
▁pan	-10.0646
ラ	-10.065
▁Bel	-10.0651
99	-10.0652
isti	-10.0653
mus	-10.0655
▁ప	-10.0659
▁iki	-10.0659
▁지	-10.066
▁số	-10.066
▁bij	-10.0662
cre	-10.0668
▁star	-10.0669
লা	-10.0673
97	-10.0674
▁80	-10.0676
新	-10.0679
gue	-10.0682
या	-10.0683
▁primer	-10.0684
▁lan	-10.0685
▁máis	-10.0687
▁Inter	-10.0688
▁дека	-10.0691
ande	-10.0694
isme	-10.0698
۱	-10.0703
▁super	-10.0708
ено	-10.0712
而	-10.0713
ορ	-10.0714
und	-10.0716
став	-10.0717
ité	-10.0719
▁vý	-10.0723
▁roce	-10.0731
▁Pan	-10.074
▁במ	-10.0741
аль	-10.0744
▁prze	-10.0746
▁või	-10.0746
▁Ze	-10.0748
ilo	-10.0751
▁aastal	-10.0753
▁Maria	-10.0755
▁ك	-10.0758
ral	-10.0762
rze	-10.0763
時	-10.0769
oje	-10.0771
gli	-10.0774
▁συν	-10.0775
▁کرد	-10.0776
为	-10.0781
til	-10.0782
än	-10.0782
▁1988	-10.0783
ια	-10.0791
▁april	-10.0792
特	-10.0798
▁Ар	-10.0799
ώ	-10.08
Al	-10.0801
kup	-10.0803
mb	-10.0811
jal	-10.0814
▁1983	-10.0826
اس	-10.0827
nem	-10.0827
aya	-10.0832
▁É	-10.0835
ыя	-10.0836
stre	-10.0836
▁τις	-10.0836
ance	-10.0837
▁së	-10.0838
▁thể	-10.0838
vas	-10.084
тел	-10.0846
장	-10.0847
▁הת	-10.0848
▁nas	-10.0853
ాడు	-10.0857
ळ	-10.0858
▁Ad	-10.0861
ті	-10.0862
hin	-10.0864
ъ	-10.0865
▁đó	-10.0865
▁1975	-10.0875
ā	-10.0876
해	-10.0877
ης	-10.0881
상	-10.0881
бор	-10.0886
▁1972	-10.0886
ans	-10.0893
nce	-10.0895
रे	-10.0897
▁στη	-10.0899
▁Sol	-10.0904
▁1974	-10.0905
este	-10.0909
66	-10.0911
ана	-10.0914
უ	-10.0915
ajn	-10.0918
ரா	-10.0918
jos	-10.0919
ком	-10.0921
că	-10.0923
нов	-10.0926
ého	-10.0929
ré	-10.0929
▁hat	-10.0929
▁Pol	-10.0931
▁п	-10.0932
gas	-10.0935
▁годзе	-10.094
▁sistema	-10.094
èr	-10.0943
lus	-10.0943
plo	-10.0943
▁jest	-10.0944
стра	-10.095
▁Μ	-10.0956
▁خود	-10.0957
西	-10.0964
лек	-10.0967
▁tam	-10.0971
зе	-10.0974
▁1978	-10.0976
86	-10.0979
ové	-10.098
88	-10.0981
ém	-10.0982
zna	-10.0983
nji	-10.099
৯	-10.0993
▁mag	-10.0996
ško	-10.0997
jev	-10.0997
സ	-10.0998
▁1976	-10.0999
ningen	-10.1
ват	-10.1002
sson	-10.1004
ො	-10.1005
性	-10.1013
56	-10.1016
ive	-10.1018
ió	-10.1018
▁20.	-10.1019
ρ	-10.102
▁İ	-10.1022
â	-10.1027
▁Tre	-10.1029
아	-10.1029
▁top	-10.1036
▁대	-10.1037
rio	-10.104
zon	-10.1042
▁час	-10.1044
나	-10.1045
▁ప్ర	-10.1045
cul	-10.1047
भ	-10.1048
ike	-10.105
inn	-10.1055
යේ	-10.1062
හ	-10.1069
بر	-10.107
ава	-10.1072
95	-10.1073
▁التي	-10.1076
▁στις	-10.1076
ech	-10.108
▁5.	-10.1084
ιν	-10.1085
▁உ	-10.1085
▁पा	-10.1088
▁Ak	-10.1089
вед	-10.109
▁nije	-10.1091
▁ont	-10.1092
ниот	-10.1093
▁ג	-10.1097
く	-10.1098
कार	-10.11
▁제	-10.1105
▁we	-10.111
▁kahabog	-10.1112
▁च	-10.1115
▁quan	-10.1117
▁ere	-10.1119
су	-10.1122
▁1920	-10.1122
హ	-10.1122
nice	-10.1123
04	-10.1124
cije	-10.1128
iya	-10.1133
▁We	-10.1135
▁1977	-10.1137
nega	-10.1137
ր	-10.1138
▁1968	-10.114
bro	-10.114
dat	-10.1147
▁Cal	-10.1159
▁ग	-10.1159
נו	-10.1161
て	-10.1163
lí	-10.1164
▁David	-10.1165
aire	-10.1169
▁Ко	-10.1174
tul	-10.1174
▁یا	-10.1182
到	-10.1183
jel	-10.1185
0.000	-10.1192
tten	-10.1196
▁seus	-10.12
▁had	-10.1201
নি	-10.1207
▁த	-10.1209
eve	-10.1214
ação	-10.1218
▁sol	-10.1221
жи	-10.1223
යි	-10.1225
▁1986	-10.1226
ина	-10.1227
▁»	-10.1231
94	-10.1232
▁Sen	-10.1237
aka	-10.1243
org	-10.1244
ган	-10.1247
eti	-10.125
ீ	-10.1251
άρ	-10.1251
▁base	-10.1252
▁National	-10.1256
▁avec	-10.126
ιο	-10.126
cal	-10.1261
1.	-10.1263
ҡ	-10.1267
ust	-10.1269
▁autor	-10.1277
▁klub	-10.1278
േ	-10.1279
▁nuo	-10.1279
යා	-10.128
▁Vo	-10.128
қ	-10.1282
ər	-10.1284
▁sunt	-10.1285
lom	-10.1287
Ar	-10.129
°	-10.1295
μπ	-10.1295
49	-10.1297
▁durante	-10.1297
my	-10.13
46	-10.13
lich	-10.1304
ные	-10.1304
hor	-10.1305
τ	-10.1306
zio	-10.1308
▁2016.	-10.131
▁1950	-10.1311
ple	-10.1313
▁Ле	-10.1316
▁ס	-10.1317
ката	-10.1319
ई	-10.1319
▁рас	-10.1322
▁עם	-10.1323
ِ	-10.1324
lam	-10.1326
▁Bas	-10.1327
▁ক	-10.1327
道	-10.1328
▁1973	-10.133
דר	-10.1332
▁الس	-10.1336
লে	-10.1342
▁sto	-10.1344
ала	-10.1345
▁э	-10.1349
▁Bal	-10.1349
長	-10.1364
▁Min	-10.137
shi	-10.1371
vil	-10.1372
ение	-10.1373
▁IV	-10.1374
▁prop	-10.1376
ран	-10.1376
▁Э	-10.1378
ीय	-10.1382
▁sy	-10.1382
ிய	-10.1384
ings	-10.1386
▁str	-10.1387
rar	-10.1388
λ	-10.139
tive	-10.1392
चा	-10.1395
▁எ	-10.14
ació	-10.1401
ís	-10.1402
▁nome	-10.1402
▁Jan	-10.1404
▁real	-10.1405
▁роз	-10.1406
বি	-10.1407
λε	-10.1408
zar	-10.1408
▁Gar	-10.1411
sal	-10.1411
èt	-10.1412
小	-10.1412
το	-10.1417
ید	-10.1417
mento	-10.1418
gur	-10.1421
▁মা	-10.1421
58	-10.1422
▁wo	-10.1422
▁كان	-10.1424
▁stor	-10.143
вар	-10.1434
יים	-10.1448
▁без	-10.1452
41	-10.1454
град	-10.1457
lü	-10.1458
zioni	-10.1461
▁Ла	-10.1464
2.	-10.1468
▁съ	-10.147
▁Ya	-10.1474
▁Ban	-10.1478
ū	-10.1479
در	-10.1481
▁1971	-10.1482
▁công	-10.1483
-18	-10.1485
idad	-10.1487
ട	-10.1488
▁три	-10.149
所	-10.1495
way	-10.1495
put	-10.1497
▁tako	-10.1501
入	-10.1501
주	-10.151
রি	-10.1511
▁द	-10.1512
дер	-10.1513
42	-10.1514
▁oko	-10.1515
ト	-10.152
▁시	-10.1524
lie	-10.1525
थ	-10.1528
iĝis	-10.1533
第	-10.1534
会	-10.1537
ult	-10.1537
ουν	-10.1537
▁broj	-10.1538
stand	-10.1538
▁மற்றும்	-10.1539
▁cal	-10.154
▁från	-10.1544
▁2008.	-10.1546
76	-10.1546
ξ	-10.1548
▁má	-10.1549
▁mei	-10.1555
93	-10.1563
lem	-10.1563
▁principal	-10.1564
▁qua	-10.1568
▁απο	-10.1573
pl	-10.1576
▁Hal	-10.1583
ρα	-10.1586
▁gre	-10.1591
▁الق	-10.1601
▁juga	-10.1601
▁để	-10.1605
▁beste	-10.1605
▁Н	-10.1607
▁Au	-10.1608
▁Х	-10.1608
ног	-10.1609
ో	-10.1609
▁Ein	-10.1612
▁след	-10.1612
▁2009.	-10.1613
▁35	-10.1615
-3	-10.1617
lər	-10.1618
пе	-10.1619
▁Paris	-10.162
ight	-10.162
வி	-10.1622
Г	-10.1622
ių	-10.1625
ind	-10.1628
рі	-10.1628
▁सा	-10.163
▁pela	-10.1631
▁При	-10.1632
▁1969	-10.1633
▁Mac	-10.1634
▁Ал	-10.1641
▁Hor	-10.1645
зі	-10.1647
▁studi	-10.1648
про	-10.165
▁70	-10.1651
▁Mag	-10.166
২	-10.1661
ый	-10.1661
chen	-10.1662
▁över	-10.1665
화	-10.1666
▁rad	-10.1673
يد	-10.1675
stro	-10.1681
ula	-10.1682
voj	-10.1683
▁tidak	-10.1684
ους	-10.1684
ného	-10.1684
や	-10.169
cı	-10.1693
ド	-10.1698
▁1984	-10.1699
pt	-10.1704
▁tai	-10.1706
▁מה	-10.1713
▁TV	-10.1716
tó	-10.172
ând	-10.1721
ود	-10.1724
lay	-10.1725
▁6.	-10.1735
▁vend	-10.1736
▁için	-10.1738
▁ως	-10.1739
burg	-10.1746
▁1944	-10.175
43	-10.1751
वि	-10.1752
рэ	-10.1753
▁പ	-10.1753
▁Peter	-10.1754
▁nos	-10.1755
वर	-10.1756
77	-10.1756
▁და	-10.1761
▁gen	-10.1764
▁kada	-10.1764
▁Don	-10.1765
▁Rus	-10.1767
yl	-10.177
▁menjadi	-10.1771
itet	-10.1772
▁فر	-10.1775
▁bị	-10.1777
▁가	-10.1778
▁الج	-10.1779
ロ	-10.1781
tions	-10.1781
▁нај	-10.1783
▁element	-10.1786
64	-10.1788
▁kr	-10.179
ların	-10.1795
▁500	-10.1797
ך	-10.1799
▁لا	-10.18
sil	-10.1801
하였다	-10.1802
▁ger	-10.1803
▁الح	-10.1806
▁Про	-10.1806
하고	-10.1807
يل	-10.1807
▁1967	-10.1808
▁kad	-10.1814
ג	-10.1817
▁기	-10.1818
▁sự	-10.1818
▁Mark	-10.1824
ым	-10.1825
▁bili	-10.1826
された	-10.1838
▁første	-10.1839
▁Nam	-10.184
では	-10.1843
ён	-10.1848
▁total	-10.185
ност	-10.1851
pel	-10.1854
иот	-10.1856
▁hai	-10.1857
▁George	-10.1867
▁Dr	-10.187
wer	-10.1871
్	-10.1873
ო	-10.188
пис	-10.1885
▁స	-10.1887
91	-10.1888
▁І	-10.189
gun	-10.189
▁ven	-10.1892
▁histori	-10.1892
ंड	-10.1894
▁motor	-10.1894
cher	-10.19
ase	-10.1906
pun	-10.1908
▁về	-10.191
uma	-10.1912
▁yer	-10.1912
sor	-10.1916
ін	-10.1917
bur	-10.1917
১	-10.1918
▁Gra	-10.1918
war	-10.1923
оў	-10.1929
68	-10.1931
▁rod	-10.1934
iza	-10.1934
tá	-10.194
skim	-10.1943
ා	-10.1944
▁так	-10.1944
▁как	-10.1945
▁1939	-10.1953
pad	-10.1955
▁mes	-10.1958
▁Sz	-10.1959
▁Col	-10.1959
▁At	-10.196
ał	-10.1962
▁Port	-10.1963
他	-10.1964
▁če	-10.1964
78	-10.1965
87	-10.1966
ника	-10.1966
▁кои	-10.1967
▁dira	-10.1967
▁zá	-10.1968
tok	-10.1969
_{	-10.197
essa	-10.1975
▁dakong	-10.1983
▁Tar	-10.1983
▁klas	-10.1983
یت	-10.199
ako	-10.1994
▁May	-10.1994
arna	-10.1995
ీ	-10.1996
▁kinadu	-10.1997
ux	-10.1998
pil	-10.2001
ար	-10.201
lia	-10.2011
sco	-10.2012
vir	-10.2016
▁esta	-10.2017
▁Со	-10.2019
▁sil	-10.2026
از	-10.2029
▁এর	-10.2032
公	-10.2034
кс	-10.2035
gua	-10.2037
▁Son	-10.2038
文	-10.2039
▁ද	-10.204
▁کار	-10.2042
αλ	-10.2044
erte	-10.2045
▁ис	-10.2046
▁아	-10.2046
▁छ	-10.2046
έρ	-10.2046
ాన్ని	-10.2049
ување	-10.2052
ová	-10.2053
▁επι	-10.2053
ség	-10.2056
ður	-10.2057
▁7.	-10.2058
54	-10.2058
▁Roma	-10.2058
▁War	-10.206
ик	-10.206
83	-10.2062
▁mm	-10.2064
pas	-10.2067
vent	-10.2068
ף	-10.207
oc	-10.2075
angan	-10.2078
టి	-10.2085
eva	-10.2085
▁bilo	-10.2087
57	-10.2092
▁ра	-10.2092
லை	-10.2093
iri	-10.2094
ville	-10.2094
ෝ	-10.2095
▁ക	-10.2099
▁Fu	-10.21
▁Santa	-10.2102
area	-10.2103
ques	-10.2104
ూ	-10.2106
ան	-10.2107
▁gia	-10.2112
▁komp	-10.2116
구	-10.2116
▁ben	-10.2118
ët	-10.2119
ије	-10.2119
zh	-10.212
ై	-10.2127
ப்பு	-10.2131
▁تم	-10.2131
▁prima	-10.2132
▁Mont	-10.2132
き	-10.2135
lim	-10.214
ছ	-10.2143
ći	-10.2144
rak	-10.2145
vez	-10.2149
▁sono	-10.2151
▁nei	-10.2151
力	-10.2153
सा	-10.2156
ında	-10.2164
▁18.	-10.2166
ndi	-10.2168
▁Č	-10.2171
ský	-10.2173
▁तथा	-10.2181
▁seva	-10.2182
eli	-10.2188
▁1943	-10.2189
ří	-10.2192
▁1964	-10.2202
▁(17	-10.2204
59	-10.2205
▁West	-10.2209
uan	-10.2216
▁करने	-10.2216
מה	-10.222
▁हे	-10.2221
▁sv	-10.2223
нь	-10.2225
▁Karl	-10.2225
ای	-10.2226
мет	-10.2228
isch	-10.2228
দের	-10.2231
יות	-10.2235
ն	-10.2235
▁Те	-10.2235
tem	-10.2238
්	-10.2239
tina	-10.2247
ист	-10.2248
▁ek	-10.225
ాయి	-10.2251
98	-10.2252
▁vin	-10.2256
И	-10.2256
▁മ	-10.2259
▁हा	-10.2262
ság	-10.227
oz	-10.2274
▁či	-10.2276
▁anno	-10.2276
οι	-10.2276
▁hän	-10.2277
rre	-10.2282
imin	-10.2286
nio	-10.2289
72	-10.229
▁ар	-10.2291
த்து	-10.2292
▁mü	-10.2293
▁werden	-10.2294
▁као	-10.2296
umi	-10.2296
nit	-10.2296
▁Да	-10.2297
ंग	-10.2301
▁8.	-10.2303
eks	-10.2307
▁ر	-10.2308
sis	-10.231
▁1948	-10.2313
▁Kal	-10.2315
ük	-10.2316
лю	-10.2318
rod	-10.2326
▁била	-10.2326
▁1942	-10.2328
റ	-10.2331
tie	-10.2337
▁pak	-10.2337
▁model	-10.2338
▁kako	-10.2339
▁Vol	-10.234
bus	-10.234
▁James	-10.2345
nnen	-10.2349
▁Hy	-10.235
▁هم	-10.2354
▁аб	-10.2354
lə	-10.2357
▁col	-10.2358
ит	-10.2361
zie	-10.2361
▁auto	-10.2369
▁То	-10.237
▁let	-10.2372
▁trên	-10.2373
▁Ş	-10.2376
▁meng	-10.2378
▁Kr	-10.238
ரு	-10.2381
▁Um	-10.2382
67	-10.2384
▁د	-10.2386
ओं	-10.239
stri	-10.2395
▁был	-10.2395
osa	-10.2395
96	-10.2399
тра	-10.2399
itz	-10.24
మైన	-10.2401
sent	-10.2402
84	-10.2405
")	-10.2406
Н	-10.2406
ró	-10.2407
▁hon	-10.2407
69	-10.2409
щ	-10.2413
има	-10.2415
ده	-10.2415
ιστ	-10.2417
bert	-10.2419
नि	-10.2421
치	-10.2422
אי	-10.2424
ё	-10.243
ford	-10.2431
ения	-10.2431
rov	-10.2433
▁Var	-10.2434
ши	-10.2437
esta	-10.2438
bet	-10.2439
▁През	-10.244
stu	-10.2441
zor	-10.2443
▁साथ	-10.2445
▁Et	-10.2446
ල්	-10.2447
▁ק	-10.2449
și	-10.2451
ец	-10.2453
化	-10.2453
▁32	-10.2454
▁इ	-10.2455
▁°	-10.2456
79	-10.2457
▁Med	-10.2459
ış	-10.2461
ק	-10.2464
▁نام	-10.2464
খ	-10.2467
53	-10.2481
adi	-10.2482
ров	-10.2484
ture	-10.2484
▁Wi	-10.2485
able	-10.249
會	-10.2491
▁Ste	-10.2495
ග	-10.2496
▁10.	-10.2497
▁fram	-10.2498
ното	-10.2498
फ	-10.2498
ין	-10.2499
ità	-10.25
▁ச	-10.2507
ும்	-10.2508
▁1981	-10.2514
تر	-10.2515
ská	-10.2516
чы	-10.2518
▁með	-10.2519
▁ε	-10.252
inu	-10.2523
▁Ме	-10.2528
▁teh	-10.2529
▁Dam	-10.2529
▁như	-10.253
inde	-10.253
▁(1	-10.2531
▁London	-10.2531
▁polo	-10.2533
zem	-10.2535
▁Tom	-10.2535
ვ	-10.2537
dag	-10.2539
tung	-10.254
jn	-10.2542
▁Martin	-10.2543
▁↑	-10.2543
▁Ger	-10.2545
esi	-10.2546
▁1941	-10.2546
▁rol	-10.2548
fen	-10.2549
▁2017.	-10.255
▁الإ	-10.255
▁Bur	-10.2551
▁prin	-10.2555
ique	-10.2562
ách	-10.2567
▁사	-10.2569
▁Pen	-10.257
▁long	-10.2573
mir	-10.2581
۰	-10.2582
alis	-10.2583
star	-10.2584
stru	-10.2585
▁లో	-10.2586
▁х	-10.2587
०	-10.2592
ute	-10.2597
▁chính	-10.2599
Л	-10.26
ában	-10.26
ற	-10.2605
▁주	-10.2607
▁Tor	-10.2609
▁usa	-10.2612
endo	-10.2615
tiv	-10.2617
▁కా	-10.2619
▁kol	-10.2625
▁ing	-10.2627
自	-10.2627
med	-10.2628
▁1965	-10.263
ții	-10.2633
▁bes	-10.2636
teri	-10.2639
бе	-10.264
ските	-10.2649
于	-10.2653
ск	-10.2653
92	-10.2655
hel	-10.2656
dt	-10.2658
▁("	-10.2659
▁weer	-10.266
́	-10.2663
体	-10.2664
ès	-10.2664
ään	-10.2667
▁नहीं	-10.2669
isa	-10.2672
▁তার	-10.2673
▁katika	-10.2678
iste	-10.2679
▁వ	-10.2679
軍	-10.2682
ిన	-10.2682
ige	-10.2684
ct	-10.2689
kla	-10.2691
ας	-10.2694
天	-10.2698
市	-10.27
²	-10.2703
▁Ли	-10.2705
eira	-10.2709
▁Cap	-10.2709
▁gli	-10.2714
▁ए	-10.2716
▁1966	-10.2718
৬	-10.2718
▁svoje	-10.2719
pak	-10.2723
▁nag	-10.2726
▁1918	-10.2727
▁شهر	-10.2727
డ్	-10.2735
ол	-10.2739
▁nach	-10.2739
▁שה	-10.2745
ॉ	-10.275
▁vor	-10.2751
▁ông	-10.2752
ු	-10.2755
位	-10.2759
yon	-10.2759
▁Lake	-10.2765
тен	-10.2771
nic	-10.2775
кан	-10.2776
理	-10.2777
▁45	-10.2778
சி	-10.278
රි	-10.2782
cions	-10.2785
71	-10.2786
uda	-10.2787
ním	-10.2788
▁פ	-10.279
anti	-10.2793
tiva	-10.2797
▁보	-10.28
▁aŭ	-10.2803
wal	-10.2806
▁più	-10.2811
enia	-10.2813
▁श	-10.2813
74	-10.2814
▁11.	-10.2814
《	-10.2815
רי	-10.2816
sus	-10.2818
mm	-10.2818
▁Nor	-10.2827
unda	-10.2827
▁Commons	-10.2827
sur	-10.2828
▁вид	-10.2828
▁pal	-10.283
שי	-10.2831
gn	-10.2834
▁sont	-10.2835
▁tempo	-10.2837
usi	-10.2837
ō	-10.2837
▁prote	-10.2839
γκ	-10.2841
вы	-10.2842
▁kas	-10.2844
år	-10.2844
▁Ant	-10.2846
rë	-10.2846
▁ένα	-10.2846
▁Amerika	-10.2848
cas	-10.2851
led	-10.2856
lad	-10.2859
▁Gor	-10.286
제	-10.2863
▁होता	-10.2865
▁delle	-10.2871
all	-10.2873
▁produc	-10.2879
▁הש	-10.288
▁ai	-10.288
৮	-10.2886
▁9.	-10.289
▁sal	-10.2893
▁Ц	-10.2893
ude	-10.2898
uh	-10.2901
61	-10.2901
▁Bol	-10.2902
マ	-10.291
カ	-10.2911
▁học	-10.292
▁வ	-10.292
▁1962	-10.2921
▁august	-10.2922
▁1946	-10.2924
ată	-10.2928
uch	-10.293
ych	-10.2932
▁sk	-10.2937
▁2007.	-10.2938
nta	-10.2939
ский	-10.2943
gro	-10.2948
52	-10.2949
nou	-10.2951
▁Mel	-10.2953
ियों	-10.2954
क्ष	-10.2954
ug	-10.2957
dri	-10.2961
mun	-10.2965
▁1963	-10.297
jon	-10.2971
▁ανα	-10.2978
hold	-10.2979
pit	-10.2983
▁під	-10.2984
▁při	-10.2985
▁1930	-10.2986
▁এক	-10.2991
▁Ol	-10.2995
▁está	-10.2996
▁ac	-10.301
ciones	-10.3014
bon	-10.3016
וק	-10.3018
ాల	-10.3019
▁City	-10.3022
▁ос	-10.3024
ници	-10.3026
vali	-10.3029
cos	-10.303
nden	-10.3031
zet	-10.3031
ilor	-10.3039
نی	-10.3039
tı	-10.3041
يس	-10.3042
▁przez	-10.305
hal	-10.3058
assa	-10.3058
ця	-10.306
ası	-10.306
▁які	-10.3061
liga	-10.3062
iki	-10.3067
lev	-10.3067
▁пера	-10.3069
of	-10.3079
▁video	-10.3082
ím	-10.3083
▁Gr	-10.3088
数	-10.3089
▁prvi	-10.3089
▁Ali	-10.3092
▁William	-10.3095
لی	-10.3096
kk	-10.3097
▁ки	-10.3097
dí	-10.3102
aba	-10.3102
ח	-10.3103
▁cm	-10.3103
মা	-10.3105
▁original	-10.3105
▁Post	-10.3106
ос	-10.3109
اع	-10.3111
▁دارد	-10.3112
▁φ	-10.3113
来	-10.3114
क्	-10.3114
63	-10.3114
dé	-10.3116
لا	-10.312
ら	-10.312
ets	-10.3121
ono	-10.3123
ló	-10.3124
▁may	-10.3124
▁1961	-10.3128
itas	-10.3129
לי	-10.3132
্	-10.3134
▁1956	-10.3137
▁art	-10.3139
прав	-10.3139
бра	-10.3142
▁via	-10.3149
ish	-10.3151
▁וב	-10.3154
▁Në	-10.3155
با	-10.3157
▁90	-10.3158
▁ই	-10.3159
pal	-10.316
同	-10.3163
ney	-10.3165
নে	-10.3166
▁《	-10.3168
克	-10.3168
mark	-10.3169
ష	-10.317
rom	-10.3175
לו	-10.3178
▁он	-10.3178
▁Kan	-10.3179
ose	-10.318
동	-10.3183
bla	-10.3183
ム	-10.3184
▁tar	-10.3193
▁Nel	-10.3193
▁फ	-10.3195
৭	-10.3195
▁त्या	-10.3195
▁nella	-10.3198
σ	-10.32
bili	-10.3201
dd	-10.3204
▁inn	-10.3208
In	-10.3212
▁še	-10.3213
▁ম	-10.3216
çi	-10.3218
▁Che	-10.3219
三	-10.322
▁Qu	-10.322
ún	-10.322
▁κ	-10.322
ستان	-10.3222
ской	-10.3223
יק	-10.3225
▁tij	-10.3225
▁bor	-10.3226
▁zeuden	-10.323
也	-10.323
▁най	-10.3231
תו	-10.3232
▁obra	-10.3232
▁Jean	-10.3235
kä	-10.3237
ая	-10.3238
бы	-10.3238
▁Ха	-10.3238
Ro	-10.3238
▁ص	-10.3239
51	-10.3241
하	-10.3242
▁Kom	-10.3242
ľ	-10.3243
ус	-10.3245
▁зем	-10.325
ых	-10.325
▁유	-10.325
۸	-10.3254
▁Michael	-10.3256
적	-10.3256
方	-10.3258
▁local	-10.3258
kra	-10.3259
తో	-10.3269
فر	-10.3269
▁baz	-10.3273
▁cri	-10.3274
▁आणि	-10.3275
ui	-10.3276
ies	-10.3277
62	-10.3278
▁त	-10.3279
ே	-10.3279
▁12.	-10.328
▁plat	-10.3281
▁não	-10.3285
ља	-10.3286
лан	-10.3288
82	-10.3292
ij	-10.3293
▁radio	-10.3297
王	-10.33
را	-10.33
▁University	-10.3301
ù	-10.3304
ही	-10.3308
rang	-10.3312
▁họ	-10.3319
lli	-10.3319
▁popular	-10.3319
stav	-10.3319
në	-10.3322
▁Мар	-10.3322
তি	-10.3324
లా	-10.3325
lov	-10.3325
ול	-10.3331
isse	-10.3333
其	-10.3334
山	-10.3335
ssi	-10.3335
▁سر	-10.3339
▁भारत	-10.334
81	-10.3342
▁Ser	-10.3343
بل	-10.3344
ষ	-10.3347
▁Land	-10.3347
▁Tan	-10.3348
щи	-10.3354
வை	-10.3359
hol	-10.3362
▁przy	-10.3364
▁metal	-10.3368
৪	-10.3369
として	-10.337
▁NGC	-10.3372
bin	-10.3373
▁थे	-10.3374
пи	-10.3377
Re	-10.3377
rp	-10.338
ष	-10.338
▁Á	-10.3382
ował	-10.3383
ించ	-10.3383
চ	-10.3385
▁ele	-10.3394
▁oficial	-10.3396
uni	-10.3397
دا	-10.34
од	-10.3403
게	-10.3405
▁Hän	-10.3406
▁σ	-10.3408
enie	-10.3411
ул	-10.3412
73	-10.3415
oma	-10.3415
▁suo	-10.3415
▁International	-10.3425
مر	-10.3426
마	-10.3426
isht	-10.3426
sed	-10.3427
▁ח	-10.3428
टी	-10.3428
▁14.	-10.3433
▁dins	-10.3437
ža	-10.344
মান	-10.3441
▁tras	-10.3442
lum	-10.3443
手	-10.3444
▁द्वारा	-10.3445
inter	-10.3446
▁सु	-10.3451
▁کند	-10.3454
▁Des	-10.3455
▁Tro	-10.3457
மி	-10.346
при	-10.3462
▁مت	-10.3464
▁ph	-10.3472
▁ker	-10.3475
äh	-10.3475
▁sul	-10.3478
mine	-10.348
▁Ра	-10.3481
▁qual	-10.3482
▁সা	-10.3487
тор	-10.3488
▁nalazi	-10.3489
lık	-10.3489
▁stanovnika	-10.3494
gr	-10.3495
▁može	-10.3495
▁1947	-10.3496
ța	-10.3497
▁nacional	-10.3498
▁Ed	-10.3507
лет	-10.3508
kus	-10.3509
ড	-10.3512
▁Pal	-10.3515
▁ли	-10.3516
▁б	-10.3519
▁Iz	-10.3521
වා	-10.3527
ক্ষ	-10.3529
▁част	-10.3531
▁onder	-10.3532
▁vuonna	-10.3533
اه	-10.3535
Li	-10.3536
한다	-10.3538
лер	-10.354
ingen	-10.3541
▁ста	-10.3543
सी	-10.3544
kle	-10.3545
ица	-10.3547
▁वे	-10.3548
ступ	-10.3549
▁ఉంది	-10.355
נת	-10.3551
ského	-10.3553
-19	-10.3554
▁Fra	-10.3557
▁1958	-10.3557
ري	-10.3562
명	-10.3563
uose	-10.3563
ää	-10.3567
▁15.	-10.3567
sty	-10.3569
▁tres	-10.3572
வர்	-10.3573
یه	-10.3582
ए	-10.3583
ার	-10.3583
▁Ви	-10.3585
▁zuten	-10.3591
ција	-10.3592
amento	-10.3593
ז	-10.3594
相	-10.3595
面	-10.36
▁mest	-10.3602
▁Franc	-10.3602
▁भ	-10.3603
ത്	-10.3604
pet	-10.3612
▁fil	-10.3616
ற்ற	-10.3616
▁Sel	-10.3624
rk	-10.3625
▁אל	-10.363
די	-10.3631
▁জন্য	-10.3634
ун	-10.3638
ल्	-10.3638
tir	-10.3638
olo	-10.3638
德	-10.3642
وق	-10.3644
нос	-10.3644
ланд	-10.3649
frac	-10.365
▁molupyo	-10.3652
▁13.	-10.3654
ங்க	-10.3654
gia	-10.3654
ני	-10.3655
▁kui	-10.3655
ി	-10.3655
בר	-10.3657
▁camp	-10.366
▁Bla	-10.3661
ák	-10.3662
▁etter	-10.3663
機	-10.3669
нда	-10.3673
De	-10.3674
zin	-10.3675
▁Gre	-10.368
род	-10.368
▁Zi	-10.3682
añ	-10.3684
▁County	-10.3686
▁atau	-10.3687
מו	-10.3688
▁godina	-10.369
وب	-10.3691
dus	-10.3693
ക്ക	-10.3695
▁tip	-10.3696
▁им	-10.3696
▁Cla	-10.3702
▁region	-10.3703
▁hett	-10.3703
्या	-10.3704
iske	-10.3706
udi	-10.3708
▁band	-10.3712
▁bit	-10.3716
ま	-10.3716
ría	-10.3722
▁temp	-10.3723
ধ	-10.3724
ীয়	-10.3725
ొ	-10.3726
čan	-10.3728
ур	-10.3733
ור	-10.3741
▁Δ	-10.3746
mise	-10.3751
▁وت	-10.3751
海	-10.3752
-4	-10.3752
▁Parti	-10.3753
eng	-10.3755
non	-10.3756
ाई	-10.3758
tų	-10.3758
borg	-10.3763
▁fal	-10.3764
▁dok	-10.3765
î	-10.3765
ism	-10.3766
▁sti	-10.3766
xo	-10.3767
▁Pada	-10.377
ூ	-10.3771
▁vä	-10.3772
ias	-10.3778
cent	-10.3781
lea	-10.3785
ká	-10.3787
uf	-10.3789
ual	-10.3793
▁কা	-10.3795
▁быў	-10.3797
almente	-10.3798
ort	-10.3799
▁Zu	-10.38
▁Juli	-10.3802
物	-10.3803
▁1938	-10.3806
利	-10.381
erna	-10.3812
τε	-10.3813
▁militar	-10.3813
▁Av	-10.3814
▁সে	-10.3815
знач	-10.3821
ज़	-10.3823
its	-10.3824
ент	-10.3825
jes	-10.3827
för	-10.3829
▁cr	-10.383
κα	-10.383
▁ú	-10.3834
దు	-10.3835
▁modern	-10.3836
ções	-10.3838
يات	-10.3838
ици	-10.3839
▁1936	-10.3842
▁Frank	-10.3845
лин	-10.3845
▁Bir	-10.3848
ott	-10.3848
▁1959	-10.3849
▁ilə	-10.3852
উ	-10.3852
Ö	-10.3853
▁gel	-10.3854
vanje	-10.3856
תי	-10.3859
ச்	-10.3861
ισ	-10.3863
▁בשנת	-10.3865
▁quân	-10.3868
ван	-10.3868
▁δ	-10.387
▁sind	-10.3873
▁Eesti	-10.3874
۲	-10.3877
ś	-10.3881
ек	-10.3884
▁were	-10.3884
ligt	-10.3885
str	-10.3887
▁ook	-10.3892
igen	-10.3893
▁век	-10.3894
ానికి	-10.3904
南	-10.3904
ði	-10.3905
mist	-10.3905
▁vers	-10.3907
ph	-10.3907
▁has	-10.3909
▁Pod	-10.391
۵	-10.3913
னை	-10.3914
ensis	-10.3917
▁2018.	-10.3917
ظ	-10.3919
лық	-10.3923
fat	-10.3924
lama	-10.3925
▁২	-10.3925
ving	-10.3929
zik	-10.3929
long	-10.393
αρ	-10.3931
▁bra	-10.3933
lak	-10.3933
▁была	-10.3935
▁poli	-10.3935
與	-10.3936
▁cũng	-10.3938
uti	-10.395
▁בה	-10.395
▁വ	-10.3953
▁что	-10.3955
сь	-10.3955
▁هي	-10.3956
▁tersebut	-10.3956
۹	-10.3958
nal	-10.3958
৩	-10.3959
ред	-10.396
vě	-10.3961
任	-10.3961
மை	-10.3962
▁1949	-10.3963
pul	-10.3965
▁Art	-10.3965
ље	-10.3966
明	-10.3968
▁radi	-10.3968
imit	-10.3974
▁té	-10.3975
▁rat	-10.398
У	-10.3981
bir	-10.3982
▁vz	-10.3987
شر	-10.3988
▁vil	-10.3989
▁공	-10.3989
하여	-10.399
代	-10.3994
cra	-10.3995
ায়	-10.3997
zan	-10.4
▁Бо	-10.4002
nger	-10.4003
തി	-10.4003
▁Sh	-10.4005
azione	-10.4007
פו	-10.4007
▁joka	-10.401
mber	-10.401
▁Italia	-10.4013
ింది	-10.4015
▁Mai	-10.4019
lio	-10.4021
▁anos	-10.4021
ικ	-10.4022
tari	-10.4023
▁aktiv	-10.4026
ൂ	-10.4026
▁sch	-10.4026
▁정	-10.4027
▁වි	-10.4029
ow	-10.403
▁član	-10.403
anta	-10.4032
학	-10.4035
mont	-10.4036
소	-10.4037
нес	-10.4038
uka	-10.4039
▁yılında	-10.4042
全	-10.4043
ση	-10.4049
ून	-10.405
▁מו	-10.4051
▁više	-10.4051
toj	-10.4055
▁பா	-10.4056
由	-10.4058
▁hadde	-10.406
يو	-10.4064
▁až	-10.4065
دي	-10.4066
加	-10.4067
▁الف	-10.4069
ace	-10.4069
igi	-10.407
▁kabana	-10.4074
▁nhà	-10.4074
▁itu	-10.4078
uli	-10.4078
語	-10.408
▁lang	-10.4083
ese	-10.4083
▁Sin	-10.4083
০	-10.4084
hus	-10.4084
ôn	-10.4087
▁1957	-10.4088
には	-10.4091
்	-10.4091
इ	-10.4092
▁lại	-10.4093
سی	-10.4095
ĝ	-10.4096
▁300	-10.4096
北	-10.4101
isen	-10.4105
▁pää	-10.4107
▁andre	-10.4109
▁пад	-10.4109
eiro	-10.4109
cla	-10.411
▁Charles	-10.411
▁στα	-10.411
▁fond	-10.4112
nel	-10.4115
ின்	-10.4117
되었다	-10.4117
רו	-10.412
дел	-10.4121
▁যা	-10.4121
▁Mat	-10.4121
▁Ram	-10.4124
▁Island	-10.4126
▁imp	-10.4127
iku	-10.4131
民	-10.4132
त्र	-10.4133
ły	-10.4135
लो	-10.4139
▁Espesy	-10.4139
▁Ε	-10.4141
رس	-10.4143
▁gol	-10.4144
▁hel	-10.4145
▁Mil	-10.4148
tit	-10.415
▁қа	-10.415
së	-10.4154
Q	-10.4157
pur	-10.4157
ского	-10.4159
及	-10.4163
दा	-10.4164
▁Mad	-10.4165
▁ska	-10.4167
▁години	-10.4167
國	-10.4168
内	-10.4171
сел	-10.4171
ؤ	-10.4172
▁sakop	-10.4174
rad	-10.4176
▁народ	-10.4178
▁Ana	-10.4185
কা	-10.4185
▁ilk	-10.4188
▁jedno	-10.4191
▁бар	-10.4192
▁дел	-10.4194
स्त	-10.4195
llen	-10.4197
মি	-10.4198
▁Ми	-10.4202
ασ	-10.4202
раз	-10.4203
win	-10.4206
▁ин	-10.4208
&	-10.4209
اح	-10.4211
▁17.	-10.4212
клад	-10.4213
▁anche	-10.4214
▁Fin	-10.4215
▁aasta	-10.4215
”,	-10.4217
oko	-10.4217
▁1954	-10.4218
ering	-10.4219
等	-10.422
▁myös	-10.4222
▁β	-10.4222
▁вер	-10.4225
▁(*	-10.4225
▁1919	-10.4226
▁...	-10.4233
ane	-10.4234
▁Gro	-10.4238
ică	-10.4239
▁prema	-10.4241
▁list	-10.4243
▁ш	-10.4248
▁naar	-10.425
يم	-10.4252
som	-10.4252
▁US	-10.4252
nun	-10.4256
▁foar	-10.4258
ame	-10.426
▁test	-10.4262
али	-10.4263
▁tə	-10.4266
▁bola	-10.4272
▁1952	-10.4276
度	-10.4276
后	-10.4277
luk	-10.4278
لو	-10.4282
▁bak	-10.4282
ल्या	-10.4291
▁εκ	-10.4293
ελ	-10.4294
▁ligger	-10.4294
انی	-10.4294
৫	-10.4295
aux	-10.4296
él	-10.4296
간	-10.4297
▁oma	-10.4298
skej	-10.43
יד	-10.4301
▁acc	-10.4303
wie	-10.4303
film	-10.4303
aus	-10.4304
▁alt	-10.4306
ву	-10.4311
bia	-10.4313
▁Ek	-10.4315
▁கா	-10.4319
▁Р	-10.4321
▁cập	-10.4321
▁serie	-10.4322
һы	-10.4325
ныя	-10.4326
▁organiz	-10.4326
tivo	-10.4327
5%	-10.4327
外	-10.4328
▁же	-10.4333
۷	-10.4335
ago	-10.4335
▁By	-10.4337
ikan	-10.4338
州	-10.4341
▁social	-10.4342
asta	-10.4342
мы	-10.4342
ధ	-10.4342
ட்டு	-10.4346
▁Zo	-10.4347
вр	-10.4354
-10	-10.4356
▁hy	-10.4356
期	-10.4358
ити	-10.4358
った	-10.4359
▁Kur	-10.4359
▁sport	-10.4363
▁16.	-10.4364
▁eks	-10.4366
▁fr	-10.437
skoj	-10.437
拉	-10.4371
▁plu	-10.4374
▁ned	-10.4376
▁nhất	-10.4379
ভ	-10.438
▁1955	-10.4386
▁tanggal	-10.4386
▁ye	-10.4386
▁refer	-10.4389
ში	-10.439
dam	-10.4393
ã	-10.4397
▁היה	-10.4399
амі	-10.44
▁1953	-10.4403
▁वा	-10.4408
వు	-10.441
立	-10.441
spe	-10.4413
ध	-10.4414
۶	-10.4416
σε	-10.4423
할	-10.4423
▁dio	-10.4424
ət	-10.4425
▁XX	-10.4426
▁lokal	-10.4428
ому	-10.4432
schen	-10.4435
▁sed	-10.4436
▁2006.	-10.444
▁Brasil	-10.4443
▁Super	-10.4445
லி	-10.4447
▁році	-10.4449
ғ	-10.4455
ň	-10.4456
טי	-10.4457
قل	-10.4459
▁več	-10.446
heim	-10.4461
▁projekt	-10.4463
bli	-10.4463
▁auch	-10.4466
▁problem	-10.4471
▁мо	-10.4474
▁био	-10.4478
▁dag	-10.4484
elor	-10.4484
▁ד	-10.4486
cus	-10.4487
▁жылы	-10.4489
ös	-10.4492
▁über	-10.4492
unt	-10.4494
▁best	-10.4495
cat	-10.4496
教	-10.4496
gos	-10.45
cel	-10.4504
jó	-10.4504
sol	-10.4505
▁Berlin	-10.4506
sem	-10.4507
▁waard	-10.4513
▁Bor	-10.4513
▁tema	-10.4515
mul	-10.4518
ρι	-10.4519
▁end	-10.4522
된	-10.4524
пре	-10.4524
об	-10.4524
kol	-10.4525
лә	-10.4528
alo	-10.4529
▁Br	-10.4529
』	-10.453
ை	-10.453
ском	-10.4531
▁दि	-10.4539
؛	-10.4539
▁She	-10.4545
pra	-10.4548
ция	-10.4549
▁සහ	-10.4552
eix	-10.4557
▁pes	-10.4564
ência	-10.4565
▁Я	-10.4566
▁pl	-10.4568
▁ak	-10.4569
▁Brit	-10.457
▁kat	-10.4572
▁ĝi	-10.4573
יר	-10.4575
▁nur	-10.4575
▁היא	-10.4576
▁kul	-10.4577
▁pola	-10.458
▁Dor	-10.4584
▁bre	-10.4584
▁pero	-10.4585
▁سو	-10.4586
களை	-10.4586
ografi	-10.4588
лася	-10.4589
ls	-10.4594
▁ö	-10.4595
▁politi	-10.4597
▁لم	-10.46
рам	-10.46
εται	-10.4601
▁чи	-10.4601
▁Red	-10.4601
▁33	-10.4602
▁hem	-10.4603
▁سی	-10.4604
선	-10.4604
וס	-10.4606
レ	-10.4615
ζ	-10.4618
ole	-10.4624
▁have	-10.4624
▁fem	-10.4625
ï	-10.4626
alt	-10.4631
క్ష	-10.4631
▁prije	-10.4634
aja	-10.4638
▁domin	-10.4638
pie	-10.4638
sak	-10.464
▁causa	-10.4642
▁club	-10.4643
▁(3	-10.4647
ெ	-10.4647
格	-10.4647
ší	-10.4648
▁ότι	-10.4654
▁indi	-10.4656
식	-10.4656
ljen	-10.4659
ım	-10.466
▁exp	-10.466
▁Hans	-10.4663
жы	-10.4666
▁został	-10.4666
▁politik	-10.4669
मी	-10.4673
য়ে	-10.4674
▁bro	-10.4676
▁egin	-10.4677
▁person	-10.4679
ская	-10.4685
▁$	-10.4686
τά	-10.4686
vik	-10.4689
нар	-10.4689
▁vel	-10.469
টা	-10.469
▁njegov	-10.4692
면	-10.4693
元	-10.4698
▁인	-10.47
原	-10.47
金	-10.4701
ナ	-10.4702
ني	-10.4703
▁rus	-10.4703
▁Bro	-10.4704
öl	-10.4708
▁Esta	-10.471
מי	-10.4712
وت	-10.4713
ń	-10.4714
१	-10.4714
avi	-10.4715
▁кар	-10.4715
▁부	-10.4717
ον	-10.4717
اق	-10.4722
▁Mas	-10.4724
ungen	-10.4726
▁prie	-10.4727
▁spre	-10.4728
יי	-10.4728
ған	-10.4732
▁gener	-10.4737
פי	-10.4738
λι	-10.4739
నా	-10.4741
間	-10.4742
duk	-10.4745
usta	-10.4748
ക്	-10.4749
▁vu	-10.4751
▁оп	-10.4751
▁produ	-10.4751
▁ත	-10.4754
фі	-10.4756
▁stal	-10.4756
ති	-10.4758
▁Richard	-10.4758
drž	-10.4759
aan	-10.4765
▁الب	-10.4768
▁pasi	-10.477
▁XIX	-10.4772
ey	-10.4772
وف	-10.4774
▁Kra	-10.4774
களில்	-10.4777
▁zum	-10.4779
▁Eu	-10.4779
▁(2	-10.4779
▁Tal	-10.478
▁Τ	-10.4782
ної	-10.4785
ள்	-10.4787
▁động	-10.4789
enza	-10.4789
bes	-10.4791
▁Mari	-10.4794
▁ple	-10.4797
▁Grand	-10.48
нага	-10.4802
▁중	-10.4805
vre	-10.4806
▁Ки	-10.4806
▁وی	-10.4807
els	-10.4808
▁Су	-10.4809
▁Dia	-10.4811
ké	-10.4815
▁stud	-10.4815
▁1937	-10.4818
▁naselje	-10.4818
ương	-10.4821
▁sel	-10.4821
う	-10.4822
dica	-10.4826
фа	-10.4826
tia	-10.4827
▁kamp	-10.4828
eau	-10.483
ετ	-10.483
▁జ	-10.4835
యా	-10.4836
▁فى	-10.484
▁partir	-10.4842
anje	-10.4844
▁gal	-10.4846
▁Krist	-10.4847
▁nova	-10.4849
ρά	-10.4853
▁dapit	-10.4855
▁যে	-10.4857
rij	-10.4857
ną	-10.4862
▁Í	-10.4862
▁μια	-10.4863
▁ని	-10.4863
▁sva	-10.4864
▁Aus	-10.4865
ە	-10.4867
▁36	-10.487
▁Ρ	-10.4873
ám	-10.4875
▁Rad	-10.4876
ति	-10.4876
▁оста	-10.4877
▁Mer	-10.4879
вет	-10.488
▁ši	-10.4881
cé	-10.4881
ντ	-10.4881
გ	-10.4883
▁rep	-10.4884
▁General	-10.4884
▁बाद	-10.4887
چ	-10.4888
யா	-10.4894
조	-10.4895
▁leg	-10.4896
fect	-10.4899
bl	-10.4901
olog	-10.4903
▁була	-10.4907
▁mark	-10.4909
▁למ	-10.4912
▁Hun	-10.4914
▁novo	-10.4914
▁Dar	-10.4915
ং	-10.4916
ových	-10.4916
▁Canada	-10.4917
▁الص	-10.4919
يت	-10.492
▁Este	-10.4921
aŭ	-10.4924
іс	-10.4926
uto	-10.4927
▁Tour	-10.4928
용	-10.4928
хо	-10.4931
▁ע	-10.4931
part	-10.4933
▁ک	-10.4935
▁στον	-10.4935
▁बा	-10.4936
▁Ç	-10.4939
▁hann	-10.494
▁Ji	-10.4945
最	-10.4951
至	-10.4952
klad	-10.4956
▁Од	-10.4957
כה	-10.4959
tí	-10.4963
▁κατά	-10.4965
能	-10.4966
▁ख	-10.4974
▁American	-10.4977
▁Indi	-10.4978
▁ISBN	-10.4978
ую	-10.498
ključ	-10.4984
▁গ	-10.4985
nú	-10.4987
št	-10.4988
▁zituen	-10.4988
▁ή	-10.4989
▁hen	-10.499
ौ	-10.4991
▁Nu	-10.4995
schaft	-10.4998
নের	-10.5
ave	-10.5
▁frem	-10.5001
ίν	-10.5002
тон	-10.5003
▁Ag	-10.5003
▁rei	-10.5004
бі	-10.5004
ència	-10.5005
▁mereka	-10.5008
ుడు	-10.501
▁ĉe	-10.501
ढ	-10.5011
▁كل	-10.5012
чен	-10.5012
уваат	-10.5013
نت	-10.5014
ŝ	-10.5014
▁Stra	-10.5017
jä	-10.5018
ión	-10.5019
lic	-10.5021
▁lugar	-10.5023
eza	-10.5024
уч	-10.5024
ants	-10.5025
lega	-10.5027
▁wordt	-10.5029
ník	-10.5031
フ	-10.5034
▁waar	-10.5034
².	-10.5034
mme	-10.5034
зу	-10.5037
▁نا	-10.5037
скай	-10.504
▁Га	-10.5041
▁làm	-10.5045
▁termin	-10.5048
▁بين	-10.5049
ының	-10.5052
▁noch	-10.5054
▁due	-10.5056
हा	-10.5056
만	-10.5056
▁επ	-10.506
學	-10.5061
лік	-10.5064
tif	-10.5065
▁informa	-10.5066
ී	-10.5066
都	-10.5066
ঁ	-10.5067
wy	-10.5069
ына	-10.5071
▁1,	-10.5073
anza	-10.5075
ția	-10.5076
من	-10.5076
▁vida	-10.5079
▁Ĝi	-10.5083
eder	-10.5083
▁пер	-10.5086
▁njihov	-10.5087
ыр	-10.5087
▁data	-10.5092
со	-10.5092
ým	-10.5093
▁lei	-10.5095
iran	-10.5097
וג	-10.5098
▁Das	-10.51
اج	-10.51
▁основ	-10.5104
سا	-10.5104
yk	-10.5106
▁casa	-10.5107
▁باشد	-10.5109
ivo	-10.511
▁자	-10.5112
cc	-10.5112
▁hay	-10.5113
場	-10.5113
▁הנ	-10.5119
▁meter	-10.5123
dina	-10.5125
گ	-10.5126
▁Лу	-10.5126
اف	-10.5127
kum	-10.5128
▁오	-10.5128
ère	-10.5128
జ	-10.5128
kos	-10.5134
▁niet	-10.5137
▁poz	-10.5139
▁אי	-10.514
jí	-10.5141
▁سا	-10.5142
mbo	-10.5144
ivi	-10.5147
డు	-10.5147
▁Če	-10.5147
▁osa	-10.5149
▁ആ	-10.5152
▁مر	-10.5154
▁dom	-10.5157
tim	-10.5158
یم	-10.5158
▁exist	-10.516
▁grande	-10.5162
گاه	-10.5163
▁బ	-10.5165
فا	-10.5167
▁ор	-10.517
ини	-10.5171
▁proces	-10.5171
бер	-10.5172
tzeko	-10.5175
ут	-10.5176
▁Reg	-10.5176
ദ	-10.5177
▁which	-10.5177
▁род	-10.5178
kli	-10.5182
ppen	-10.5183
vjet	-10.5185
▁spo	-10.5187
ത്ത	-10.5188
mand	-10.519
▁gy	-10.5192
«	-10.5193
체	-10.5193
Ba	-10.5193
コ	-10.5195
oto	-10.5195
▁res	-10.5196
ným	-10.5196
-5	-10.5198
jung	-10.5198
▁Sur	-10.52
Le	-10.5201
ical	-10.5209
sjon	-10.5216
▁mur	-10.5216
니	-10.5218
кра	-10.5221
▁cum	-10.5222
▁кан	-10.5222
ां	-10.5227
ović	-10.5227
over	-10.5227
tag	-10.5229
וד	-10.523
ons	-10.523
▁ty	-10.5231
▁동	-10.5232
сп	-10.5232
▁Truy	-10.5233
ют	-10.5233
▁αν	-10.5233
ских	-10.5234
▁hra	-10.5238
సి	-10.5238
ची	-10.5239
▁ji	-10.524
lep	-10.5244
▁United	-10.5246
▁tradi	-10.5251
프	-10.5252
وي	-10.5253
▁Nakon	-10.5255
رت	-10.5259
▁ide	-10.5259
▁ал	-10.5261
▁होते	-10.5265
శ	-10.5267
▁comme	-10.5267
▁Þ	-10.5267
▁zbog	-10.5269
ッ	-10.5269
▁Music	-10.5269
ט	-10.527
▁Dal	-10.5274
kre	-10.5277
eret	-10.5278
۳	-10.528
వా	-10.5282
▁নি	-10.5283
ī	-10.5284
▁ankaŭ	-10.5286
▁Hol	-10.5286
▁hiện	-10.5288
▁Lin	-10.5291
లే	-10.5292
▁ham	-10.5296
heid	-10.5297
की	-10.5298
▁т	-10.53
▁tid	-10.53
enti	-10.5307
▁ту	-10.5308
▁fre	-10.5309
▁други	-10.5309
۴	-10.531
avo	-10.531
rek	-10.5311
▁stato	-10.5311
çe	-10.5311
ந்து	-10.5314
ează	-10.5316
has	-10.5321
▁my	-10.5321
▁Band	-10.5322
ить	-10.5322
▁Ok	-10.5323
水	-10.5323
sso	-10.5325
சு	-10.5326
▁familia	-10.5332
▁Ν	-10.5333
▁januar	-10.5338
▁От	-10.5338
▁ते	-10.5342
▁ру	-10.5343
次	-10.5344
▁бер	-10.5346
▁הא	-10.5347
čin	-10.5348
بي	-10.5349
band	-10.5349
▁tele	-10.5349
ifik	-10.535
▁2000.	-10.5351
▁ان	-10.5352
▁eru	-10.5352
▁இந்த	-10.5353
▁edo	-10.5355
odi	-10.5356
lás	-10.5357
▁1951	-10.536
▁pop	-10.536
ρο	-10.536
オ	-10.5363
目	-10.5365
ется	-10.5366
భ	-10.5367
▁क्षेत्र	-10.537
liv	-10.5372
▁zi	-10.5372
ности	-10.5376
inių	-10.5378
▁ngalan	-10.538
phi	-10.5381
국	-10.5381
3.	-10.5383
▁না	-10.5385
▁guerra	-10.5385
inta	-10.5386
čka	-10.5389
▁име	-10.539
rí	-10.5393
▁Cer	-10.5393
▁वह	-10.5395
से	-10.5395
▁će	-10.5396
▁εν	-10.5396
▁Thomas	-10.5397
▁రా	-10.5398
▁1917	-10.5399
진	-10.5399
▁plej	-10.5402
ejo	-10.5406
▁mort	-10.5407
▁worden	-10.5407
▁sebuah	-10.5407
▁kh	-10.5408
▁media	-10.541
▁nó	-10.5412
דו	-10.5412
▁web	-10.5415
▁Hill	-10.5416
▁constru	-10.5417
nat	-10.5419
пан	-10.542
тэ	-10.542
лад	-10.5421
バ	-10.5421
bud	-10.5426
mə	-10.5427
our	-10.5428
▁1933	-10.5428
위	-10.5428
▁but	-10.543
▁Las	-10.543
▁యొక్క	-10.5433
cima	-10.5433
▁Χ	-10.5434
нг	-10.5435
▁Ap	-10.5436
▁zona	-10.5437
८	-10.5438
like	-10.5438
ß	-10.544
aga	-10.544
als	-10.5441
▁fri	-10.5442
▁περι	-10.5443
bio	-10.5447
esti	-10.5448
ங்கள்	-10.545
ир	-10.5453
όν	-10.5454
ന്	-10.5459
▁été	-10.546
elo	-10.5461
mek	-10.5467
▁Ва	-10.5467
▁Ö	-10.547
idi	-10.5472
▁तक	-10.5473
▁maa	-10.5474
صر	-10.5476
یی	-10.5477
stup	-10.5478
세	-10.548
▁ছিল	-10.548
yd	-10.5481
▁svet	-10.5482
▁Би	-10.5482
▁така	-10.5483
▁δεν	-10.5484
▁број	-10.5487
പ	-10.5489
නය	-10.5492
▁(16	-10.5496
ител	-10.5498
▁aux	-10.5498
Е	-10.5498
ரை	-10.55
Ф	-10.5501
lip	-10.5502
cü	-10.5502
ැ	-10.5502
თ	-10.5503
kul	-10.5503
nova	-10.5505
जा	-10.5506
▁juli	-10.5506
जी	-10.5508
通	-10.551
ایی	-10.5514
▁وي	-10.5521
yer	-10.5522
gle	-10.5525
പ്പ	-10.5526
off	-10.5527
дж	-10.5532
▁גם	-10.5534
రీ	-10.5535
▁narod	-10.5535
rada	-10.5536
tig	-10.5536
nä	-10.5539
ós	-10.5543
▁ल	-10.5544
исти	-10.5547
ҳ	-10.5548
кар	-10.5549
▁Gran	-10.5551
ικής	-10.5551
प्र	-10.5552
業	-10.5553
▁Ye	-10.5553
▁Ir	-10.5555
خت	-10.5556
▁сп	-10.5562
یک	-10.5568
نس	-10.5569
回	-10.557
usa	-10.5571
von	-10.5574
▁defini	-10.5575
▁major	-10.5577
▁2,	-10.5578
nor	-10.5579
▁Roman	-10.5582
▁پ	-10.5583
▁چ	-10.5583
igo	-10.5584
▁cidade	-10.5588
եր	-10.5591
она	-10.5591
▁kes	-10.5592
▁Anti	-10.5592
▁And	-10.5593
▁Λ	-10.5596
rah	-10.5596
ඩ	-10.5601
තු	-10.5601
يه	-10.5602
▁teori	-10.5602
▁ishte	-10.5602
ləri	-10.5603
▁ktorý	-10.5605
ара	-10.5605
尔	-10.5606
гар	-10.5607
▁fund	-10.5609
▁minut	-10.561
ტ	-10.5613
دن	-10.5614
▁pře	-10.5614
▁кү	-10.5615
▁1934	-10.5615
סי	-10.5617
日本	-10.5618
ific	-10.5618
▁34	-10.5618
blo	-10.5618
▁publik	-10.5619
іі	-10.5625
▁ani	-10.5626
▁sä	-10.5626
ులు	-10.5627
▁also	-10.5629
ctor	-10.5631
▁november	-10.5631
▁마	-10.5632
স্ট	-10.5633
▁150	-10.5637
डी	-10.5637
▁1935	-10.5637
rra	-10.5639
رب	-10.5643
▁desde	-10.5643
ე	-10.5645
▁га	-10.5646
ない	-10.5646
▁Louis	-10.5647
▁juni	-10.5648
▁Мо	-10.5649
لة	-10.565
▁#	-10.5651
εν	-10.5654
▁j	-10.5655
▁ime	-10.5655
vio	-10.5657
▁tun	-10.5657
ще	-10.5661
hon	-10.5661
▁FC	-10.5663
▁42	-10.5665
বা	-10.5667
▁अपने	-10.5675
дзі	-10.5677
link	-10.5677
lek	-10.5682
ży	-10.5684
▁উ	-10.5688
èl	-10.5688
fr	-10.569
uc	-10.5692
▁där	-10.5693
▁september	-10.5693
ім	-10.5694
▁לאחר	-10.5696
▁mà	-10.5697
uw	-10.5697
里	-10.5697
▁nhiều	-10.5698
▁Rock	-10.5699
ovo	-10.5701
yr	-10.5703
▁Japan	-10.5703
▁това	-10.5705
▁Wo	-10.5706
▁Kas	-10.5706
▁400	-10.5707
ales	-10.5709
▁grupo	-10.5709
▁byla	-10.571
տ	-10.571
లను	-10.5711
문	-10.5712
ακ	-10.5715
▁نیز	-10.5715
কার	-10.5719
வா	-10.572
abil	-10.5724
टा	-10.5725
▁Del	-10.5727
▁nun	-10.573
fan	-10.573
▁sü	-10.5735
▁yuta	-10.5737
dol	-10.5743
nc	-10.5744
▁(15	-10.5747
lands	-10.5753
士	-10.5753
пу	-10.5753
▁musik	-10.5757
ines	-10.5758
▁*	-10.5759
රා	-10.5762
▁मे	-10.5763
▁Из	-10.5764
▁edhe	-10.5764
رة	-10.5765
скиот	-10.5766
▁verk	-10.5767
ම්	-10.5773
лов	-10.5775
uga	-10.5775
gne	-10.5776
७	-10.5778
όρ	-10.5778
పు	-10.5778
▁жа	-10.578
▁administra	-10.5781
iel	-10.5781
▁cada	-10.5786
▁stat	-10.5786
▁بن	-10.579
taan	-10.5798
vrš	-10.5798
▁Sun	-10.5799
rich	-10.5801
lina	-10.5803
▁ක	-10.5803
▁கு	-10.5807
得	-10.5808
ලි	-10.5812
▁비	-10.5813
sim	-10.5814
▁nev	-10.5816
▁1929	-10.5816
سم	-10.5816
▁poder	-10.5817
गा	-10.5817
す	-10.5817
▁वर्ष	-10.5817
tika	-10.5821
▁sor	-10.5822
▁lí	-10.5822
pia	-10.5823
скі	-10.5825
स्	-10.5825
uze	-10.5827
col	-10.583
צי	-10.583
▁peng	-10.583
ंद	-10.5833
▁1928	-10.5835
▁len	-10.5837
▁1-	-10.5841
>	-10.5844
bru	-10.5845
liku	-10.5848
ը	-10.585
kaz	-10.5851
оз	-10.5852
▁pala	-10.5856
isten	-10.5856
▁Mit	-10.586
දි	-10.5862
▁Ham	-10.5868
▁spa	-10.5869
stad	-10.5869
stat	-10.5869
▁þ	-10.587
▁было	-10.587
đa	-10.587
▁37	-10.5871
산	-10.5871
▁pří	-10.5875
pus	-10.5876
▁titul	-10.5877
чка	-10.5877
æl	-10.5881
inės	-10.5883
▁dân	-10.5885
▁št	-10.5888
njem	-10.589
født	-10.5893
▁1900	-10.5893
cur	-10.5894
▁mars	-10.5895
▁р	-10.5896
▁mund	-10.5899
▁Пе	-10.59
ա	-10.5901
כו	-10.5904
-12	-10.5904
100	-10.5905
重	-10.5906
بار	-10.5907
▁Mus	-10.591
▁You	-10.591
ミ	-10.5911
▁Mart	-10.5912
▁bur	-10.5913
신	-10.5915
nym	-10.5918
гор	-10.5918
५	-10.5919
▁num	-10.5922
ίες	-10.5923
▁phát	-10.5926
▁бу	-10.593
▁transport	-10.593
вид	-10.5932
ाय	-10.5932
▁inte	-10.5933
▁einer	-10.5934
دی	-10.5935
▁κατα	-10.5936
▁হা	-10.5936
स्ट	-10.5938
▁έ	-10.5939
నే	-10.594
▁normal	-10.5943
▁1914	-10.5944
xa	-10.5944
ір	-10.5944
να	-10.5945
וח	-10.5945
▁Gen	-10.5946
تی	-10.5949
基	-10.595
taj	-10.595
▁sou	-10.5955
рад	-10.5957
বে	-10.5957
lika	-10.5959
ץ	-10.5962
▁natural	-10.5965
▁Pla	-10.5967
ണ	-10.5967
▁сам	-10.5969
ták	-10.597
ҙ	-10.5971
▁هذه	-10.5972
▁Бу	-10.5974
▁ses	-10.5975
vä	-10.5976
▁Ž	-10.5978
acion	-10.5979
جر	-10.598
ίου	-10.5982
ations	-10.5986
▁fins	-10.5986
tara	-10.5988
▁gdje	-10.5988
нат	-10.599
토	-10.5993
▁1924	-10.5997
nad	-10.5998
▁civil	-10.6002
bis	-10.6002
▁sang	-10.6004
edi	-10.6006
▁most	-10.6007
▁Nacional	-10.6009
十	-10.601
ový	-10.6011
▁ఉన్న	-10.6012
▁зна	-10.6013
uju	-10.6013
aran	-10.6017
னி	-10.6024
τερ	-10.6024
▁spe	-10.6025
▁April	-10.6026
cri	-10.6027
▁stran	-10.6028
ill	-10.6031
lara	-10.6031
▁ஆண்டு	-10.6033
▁Ро	-10.6035
▁1921	-10.6037
比	-10.604
kke	-10.604
cional	-10.604
▁Ди	-10.6041
▁organ	-10.6041
නි	-10.6043
▁}	-10.6045
▁1932	-10.6049
▁ידי	-10.6056
mur	-10.6059
sing	-10.6059
▁lin	-10.6061
▁قرار	-10.6063
▁Οι	-10.6064
▁net	-10.6066
ên	-10.6069
▁oder	-10.6073
▁నుండి	-10.6073
▁तो	-10.6073
5°	-10.6075
ție	-10.6077
ijo	-10.6077
▁Club	-10.6077
▁cant	-10.6077
▁Internet	-10.608
▁ә	-10.6083
）。	-10.6085
▁الر	-10.6085
נות	-10.6085
▁הה	-10.6086
▁period	-10.6092
▁клуб	-10.6093
aceae	-10.6094
▁nam	-10.6094
anja	-10.6094
▁flere	-10.6094
▁historia	-10.6097
шта	-10.6098
тур	-10.6099
row	-10.61
▁tim	-10.6101
▁inglés	-10.6102
▁satu	-10.6103
वी	-10.6106
▁الش	-10.6108
▁מת	-10.611
პ	-10.611
ule	-10.6111
אל	-10.6112
jär	-10.6112
▁him	-10.6113
▁Kir	-10.6115
дзе	-10.6116
itt	-10.6121
平	-10.6122
▁прав	-10.6124
யை	-10.6124
▁kup	-10.6125
▁ஆம்	-10.6127
ную	-10.6128
ـ	-10.6128
ír	-10.6129
▁Kol	-10.613
ез	-10.613
mia	-10.6132
▁против	-10.6132
▁სა	-10.6135
▁između	-10.6135
sı	-10.6135
тов	-10.6139
▁tekst	-10.6139
மான	-10.614
మా	-10.614
▁cas	-10.614
▁هر	-10.6141
個	-10.6142
gens	-10.6144
ının	-10.6146
لي	-10.6146
dən	-10.6148
فت	-10.615
▁21.	-10.6151
▁38	-10.6153
▁dr	-10.6154
▁osob	-10.6154
jski	-10.6154
▁tarafından	-10.6157
員	-10.6157
▁γ	-10.6158
بی	-10.6159
▁kil	-10.616
றி	-10.6163
şa	-10.6165
▁rela	-10.6165
تا	-10.6167
▁تر	-10.6168
каз	-10.6171
▁थी	-10.6172
lö	-10.6173
▁Sant	-10.618
ری	-10.6183
▁1931	-10.6183
▁Far	-10.6183
dr	-10.6184
▁pun	-10.6185
mıştır	-10.6185
▁ži	-10.6186
vert	-10.6186
sum	-10.6186
ово	-10.6187
▁habagatan	-10.6189
út	-10.619
▁anni	-10.619
▁fol	-10.619
شت	-10.619
аш	-10.6191
ppe	-10.6191
plan	-10.6192
▁연	-10.6192
ブ	-10.6193
دو	-10.6193
ළ	-10.6195
ره	-10.6198
▁rock	-10.6198
▁kilometro	-10.6199
vos	-10.62
▁رو	-10.62
ত্র	-10.6201
▁Ul	-10.6204
ණ	-10.6204
당	-10.6205
கா	-10.6206
군	-10.6207
aca	-10.6208
cións	-10.6208
ског	-10.6211
טר	-10.6213
▁havde	-10.6215
▁sum	-10.6215
▁alebo	-10.6216
зер	-10.622
dit	-10.6222
दी	-10.6224
эн	-10.6228
▁god	-10.6228
▁Tam	-10.6228
▁banda	-10.623
▁Tele	-10.623
▁proti	-10.623
{	-10.623
tza	-10.623
θε	-10.6232
▁Dat	-10.6235
utu	-10.6239
▁mala	-10.624
kro	-10.624
▁relativ	-10.6242
▁capital	-10.6244
▁molt	-10.6245
女	-10.6246
υρ	-10.6246
iro	-10.6246
▁Bay	-10.6255
ota	-10.6257
▁член	-10.6258
शा	-10.6258
▁фа	-10.6258
보	-10.6258
nă	-10.6259
▁sm	-10.626
▁control	-10.6268
▁Under	-10.6268
fici	-10.6271
czy	-10.6273
ulo	-10.6273
▁hil	-10.6279
▁France	-10.6279
▁durch	-10.6282
gó	-10.6282
பா	-10.6282
^{	-10.6284
kut	-10.6286
▁Ker	-10.6288
nings	-10.6289
正	-10.629
mie	-10.6295
▁central	-10.6296
단	-10.6296
מן	-10.6297
▁दिया	-10.6299
▁vir	-10.6299
ქ	-10.63
dzie	-10.6301
▁소	-10.6302
ського	-10.6306
▁ano	-10.6307
dė	-10.6308
сен	-10.6308
▁биле	-10.6309
pla	-10.6309
და	-10.6311
비	-10.6313
▁sammen	-10.6314
▁lig	-10.6314
hä	-10.6315
gat	-10.6315
▁dum	-10.6315
演	-10.632
▁नाम	-10.6322
cji	-10.6322
계	-10.6328
▁நா	-10.633
ču	-10.6331
dob	-10.6334
Mar	-10.6335
▁Cel	-10.6335
▁thời	-10.6337
бар	-10.6337
▁solo	-10.6342
لى	-10.6343
미	-10.6347
يف	-10.6348
మి	-10.6349
லா	-10.6351
▁sia	-10.6353
▁כל	-10.6354
κο	-10.6356
▁sama	-10.6357
љ	-10.6358
▁Una	-10.6359
500	-10.636
وز	-10.6361
ony	-10.6361
ან	-10.6362
რ	-10.6363
▁však	-10.6364
▁bản	-10.6364
గ్	-10.6364
stein	-10.6365
ће	-10.6365
▁prav	-10.6368
▁ආ	-10.6368
▁sử	-10.6369
ggi	-10.637
▁الك	-10.6371
▁Ж	-10.6371
ră	-10.6373
ete	-10.6373
▁tiu	-10.6373
▁его	-10.6374
ηγ	-10.6374
▁Л	-10.6377
▁već	-10.6377
kun	-10.6383
▁hành	-10.6386
▁ම	-10.6387
ball	-10.6389
lap	-10.639
রে	-10.6391
krat	-10.6393
शी	-10.6398
▁२	-10.6399
エ	-10.6402
בי	-10.6402
▁Album	-10.6402
▁බ	-10.6403
Х	-10.6403
owa	-10.6407
▁उप	-10.6407
▁tut	-10.6411
кон	-10.6413
থ	-10.6414
▁пов	-10.6416
▁1922	-10.6416
آ	-10.6418
▁khác	-10.642
ď	-10.642
важ	-10.6425
ството	-10.6427
ாக	-10.6428
iska	-10.6428
ial	-10.6428
▁muzik	-10.6435
או	-10.6435
▁Μπ	-10.6435
▁राज्य	-10.6435
itaj	-10.6437
▁Sie	-10.6437
▁Filip	-10.6437
▁év	-10.6438
▁kam	-10.6439
ư	-10.644
ški	-10.644
مل	-10.6442
фи	-10.6442
▁nh	-10.6445
▁Hij	-10.6446
ller	-10.6449
▁тур	-10.6449
anı	-10.6449
ंत	-10.645
▁amin	-10.645
stin	-10.6451
ient	-10.6453
야	-10.6455
▁సం	-10.6455
▁bộ	-10.6456
gio	-10.6457
miş	-10.6458
tsu	-10.6459
ktor	-10.6461
▁chỉ	-10.6467
▁selv	-10.6468
▁मु	-10.6468
rica	-10.6469
కా	-10.6469
ično	-10.6471
נים	-10.6473
▁Air	-10.6473
▁Uni	-10.6475
orum	-10.6476
▁הע	-10.6476
ண்	-10.6476
σι	-10.6476
Pa	-10.6478
▁primeiro	-10.6478
▁nicht	-10.6478
▁però	-10.648
niu	-10.6484
kr	-10.6486
▁Black	-10.649
nne	-10.649
-6	-10.6492
している	-10.6494
▁Bru	-10.6495
▁পা	-10.6497
▁King	-10.6499
▁nuk	-10.65
▁اند	-10.6501
▁arti	-10.6503
дно	-10.6505
メ	-10.6506
κτ	-10.6511
ök	-10.6515
யின்	-10.6516
▁Ven	-10.6518
ու	-10.6526
▁بی	-10.6528
انه	-10.6528
බ	-10.6528
▁dokument	-10.6529
▁interes	-10.6533
▁bud	-10.6535
ўся	-10.6536
▁Els	-10.6536
▁хо	-10.6536
▁hit	-10.654
▁gar	-10.654
ulu	-10.6541
rije	-10.6542
▁εξ	-10.6543
▁تو	-10.6543
▁kahenera	-10.6544
тив	-10.6545
lk	-10.6546
▁ktoré	-10.6546
uro	-10.6546
▁ത	-10.6547
0,000	-10.6548
▁знач	-10.655
ե	-10.655
weg	-10.6551
gri	-10.6552
▁tom	-10.6553
duc	-10.6556
२	-10.6556
▁قبل	-10.6557
rem	-10.6559
йн	-10.6559
fre	-10.6561
▁זה	-10.6561
▁gang	-10.6562
▁nước	-10.6565
▁bli	-10.6566
-17	-10.6567
▁stra	-10.6567
sha	-10.6569
▁Europe	-10.6569
▁nes	-10.6571
▁dor	-10.6571
yang	-10.6574
号	-10.6575
에는	-10.6576
ама	-10.6577
kte	-10.6579
▁Om	-10.6579
▁bahwa	-10.6582
ад	-10.6582
▁இது	-10.6583
▁việc	-10.6585
вал	-10.6588
ското	-10.6588
▁చ	-10.6591
▁വി	-10.6591
▁poznat	-10.6592
▁Madrid	-10.6592
▁год	-10.6592
hti	-10.6594
wen	-10.6595
▁پی	-10.6595
▁aduna	-10.6596
但	-10.66
▁Hall	-10.6602
uko	-10.6602
▁Portugal	-10.6606
ða	-10.6606
▁daha	-10.6607
eld	-10.6607
list	-10.6609
▁Est	-10.6609
εύ	-10.6612
ote	-10.6614
▁අතර	-10.6621
іль	-10.6623
▁1925	-10.6625
▁나	-10.6625
▁सि	-10.6625
tera	-10.6626
िया	-10.6626
יט	-10.6627
▁개	-10.6629
▁”	-10.6629
tio	-10.6634
▁కూడా	-10.6634
ള	-10.6635
▁Carl	-10.6637
ña	-10.6639
▁gro	-10.664
▁persona	-10.664
▁Top	-10.664
호	-10.6641
▁1912	-10.6642
▁Cre	-10.6643
eh	-10.6645
터	-10.6647
mbi	-10.6649
우	-10.665
▁але	-10.665
▁eng	-10.6653
임	-10.6654
raj	-10.6655
▁був	-10.6656
زی	-10.6657
▁metod	-10.6659
ें	-10.666
▁meny	-10.6662
言	-10.6662
▁Sar	-10.6663
▁<	-10.6663
▁duke	-10.6666
▁India	-10.6666
ళ	-10.6668
▁dit	-10.6668
▁vrijeme	-10.6669
ант	-10.667
▁ন	-10.6671
lement	-10.6674
kou	-10.6674
▁tin	-10.6676
▁nä	-10.6677
ép	-10.6677
යක්	-10.6678
fra	-10.6679
タ	-10.668
▁және	-10.6683
▁selle	-10.6685
mış	-10.6686
дов	-10.6686
field	-10.6688
▁rok	-10.6688
mä	-10.669
рес	-10.6692
त्	-10.6695
rà	-10.6697
пол	-10.6697
Me	-10.6699
▁frá	-10.6701
▁grund	-10.6701
tare	-10.6702
▁kä	-10.6702
ৈ	-10.6703
وع	-10.6703
▁River	-10.6705
▁۲	-10.6707
▁ద	-10.6707
ага	-10.6709
ジ	-10.6712
ense	-10.6714
entes	-10.6716
▁thế	-10.6716
▁stil	-10.6716
vanja	-10.6718
▁pare	-10.6718
out	-10.6718
▁saj	-10.6718
dere	-10.6719
▁mille	-10.6721
▁הח	-10.6724
▁pus	-10.6724
世	-10.6725
фе	-10.6727
τη	-10.6727
▁ç	-10.6729
gem	-10.6731
lot	-10.6733
ූ	-10.6735
த்தை	-10.6735
），	-10.6737
mjer	-10.6745
▁vum	-10.6745
sje	-10.6748
рус	-10.6748
▁2005.	-10.6748
▁Ру	-10.6749
ttu	-10.6751
στ	-10.6752
▁zna	-10.6752
Po	-10.6752
▁kro	-10.6754
▁Fre	-10.6756
▁кө	-10.6756
rez	-10.6762
ску	-10.6766
▁rend	-10.6766
ék	-10.6767
oro	-10.6769
車	-10.677
▁stad	-10.6771
戦	-10.6772
▁Yu	-10.6773
zó	-10.6775
njo	-10.6778
St	-10.6781
ios	-10.6781
lica	-10.6782
ফ	-10.6783
▁후	-10.6784
▁kö	-10.6787
▁צ	-10.6787
して	-10.6791
▁бел	-10.6797
সা	-10.6797
▁Naj	-10.6804
AR	-10.6806
▁عنوان	-10.6807
▁fyrir	-10.681
rob	-10.681
▁Mir	-10.6811
▁quốc	-10.6814
▁saat	-10.6815
के	-10.6816
▁כי	-10.6817
گی	-10.6817
mana	-10.6818
▁Ky	-10.682
▁futbol	-10.6822
▁orang	-10.6823
Ch	-10.6824
▁1923	-10.6829
▁Ι	-10.683
▁Пер	-10.683
šč	-10.6831
מד	-10.6835
rup	-10.6837
▁oraz	-10.6841
▁pode	-10.6842
мат	-10.6842
mica	-10.6844
యం	-10.6844
▁1910	-10.6844
ță	-10.6844
▁Real	-10.6845
改	-10.6848
▁protiv	-10.6854
▁Ку	-10.6857
▁Sk	-10.686
áz	-10.6862
త్ర	-10.6866
සි	-10.6867
▁fik	-10.6869
ంద	-10.6869
dü	-10.687
मान	-10.6871
उ	-10.6871
▁dol	-10.6875
▁48	-10.6876
λα	-10.6877
무	-10.6877
čno	-10.6877
கை	-10.6878
▁Sau	-10.6879
දු	-10.688
قة	-10.688
ška	-10.688
▁Kam	-10.6882
acija	-10.6883
▁Sto	-10.6883
ప్	-10.6886
▁cui	-10.6889
সি	-10.689
▁свет	-10.6891
aci	-10.6893
見	-10.6894
đen	-10.6894
오	-10.6897
▁život	-10.6899
üm	-10.6899
▁ග	-10.6899
rán	-10.69
▁ara	-10.6901
▁pelo	-10.6901
▁било	-10.6901
ците	-10.6903
práv	-10.6906
▁1926	-10.6908
▁disse	-10.6911
zza	-10.6913
▁tarihi	-10.6914
ungs	-10.6914
čen	-10.6914
▁Sp	-10.6916
▁voi	-10.6916
mina	-10.6917
нд	-10.6918
куп	-10.6919
▁Pala	-10.692
▁등	-10.6926
▁VI	-10.6928
ява	-10.6929
▁সং	-10.6929
▁gant	-10.693
сты	-10.6932
▁svoj	-10.6934
▁சி	-10.6935
▁League	-10.6935
णा	-10.6936
ίσ	-10.6936
ume	-10.6937
▁maar	-10.6941
tru	-10.6943
istä	-10.6947
bí	-10.6947
inė	-10.6949
gla	-10.6949
ιά	-10.6949
並	-10.6949
ո	-10.6951
сон	-10.6952
▁important	-10.6954
▁الا	-10.6954
sat	-10.6956
▁(4	-10.6961
cen	-10.6962
αι	-10.6962
意	-10.6962
νο	-10.6965
▁হিসেবে	-10.6967
న్న	-10.6968
kı	-10.6969
osi	-10.6971
Bo	-10.6972
اط	-10.6973
▁kra	-10.6975
қы	-10.6976
atzen	-10.6977
jas	-10.6978
ussa	-10.6982
▁oktober	-10.6989
▁Spe	-10.699
▁Records	-10.6992
ində	-10.6992
▁Sc	-10.6993
iana	-10.6994
бро	-10.6995
خر	-10.6995
▁শ	-10.6997
▁일	-10.6997
ష్	-10.7
heit	-10.7002
型	-10.7005
▁sh	-10.7006
▁kraj	-10.7007
▁лі	-10.7009
时	-10.7009
▁metro	-10.701
▁قد	-10.7011
▁loc	-10.7013
▁கொண்ட	-10.7014
išk	-10.7019
▁skulle	-10.7019
ۇ	-10.7021
git	-10.7021
▁Kat	-10.7024
אה	-10.7025
дин	-10.7025
god	-10.7025
▁1927	-10.7026
Mo	-10.7027
ими	-10.7034
▁цел	-10.7036
ொ	-10.7037
▁2-	-10.704
▁actual	-10.704
▁centro	-10.7041
ėjo	-10.7046
▁وأ	-10.7047
▁objekt	-10.7048
▁pur	-10.705
enda	-10.7051
mic	-10.7054
▁kali	-10.7055
IS	-10.7055
zul	-10.7058
▁ry	-10.7062
▁பு	-10.7064
▁samt	-10.7065
NA	-10.7066
▁oan	-10.7067
▁ком	-10.7069
म्	-10.707
크	-10.707
pper	-10.7074
▁Mur	-10.7074
▁கோ	-10.7075
▁دی	-10.7076
▁còn	-10.7081
▁rem	-10.7083
žu	-10.7085
º	-10.7086
Se	-10.7086
tere	-10.7086
ód	-10.7087
кол	-10.7087
▁cả	-10.7088
▁skal	-10.7088
nije	-10.709
tima	-10.709
ბ	-10.7097
▁గ	-10.7098
stel	-10.71
1,	-10.7105
▁må	-10.7105
▁Sha	-10.7106
û	-10.7107
神	-10.711
yt	-10.711
ْ	-10.7112
мин	-10.7115
▁Gri	-10.7116
▁first	-10.7117
▁North	-10.7117
▁debut	-10.7119
▁पु	-10.712
fil	-10.7123
▁නි	-10.7123
سب	-10.7124
起	-10.7126
され	-10.7129
қа	-10.713
год	-10.7134
▁üle	-10.7137
ূ	-10.7137
▁Spi	-10.7137
చ	-10.7139
▁kata	-10.7139
▁Belgi	-10.7141
▁филм	-10.7142
▁Nova	-10.7143
רה	-10.7144
čí	-10.7149
▁oni	-10.7151
▁ditu	-10.7151
ხ	-10.7152
▁maior	-10.7152
cle	-10.7153
დ	-10.7153
kari	-10.7154
нето	-10.7155
rian	-10.7155
side	-10.7158
üü	-10.7162
Or	-10.7162
αστ	-10.7165
▁الذي	-10.7165
MA	-10.7169
▁jsou	-10.7169
جم	-10.717
ministr	-10.7171
ologia	-10.7173
▁još	-10.7174
ום	-10.7176
▁고	-10.7176
▁nap	-10.7177
▁ता	-10.7178
▁urbo	-10.7179
▁cara	-10.7183
rel	-10.7183
män	-10.7183
тай	-10.7184
▁September	-10.7185
▁kop	-10.7185
▁സ	-10.7186
ders	-10.7188
▁nor	-10.7189
集	-10.7189
▁vest	-10.7192
وی	-10.7192
mad	-10.7192
-15	-10.7196
טו	-10.7197
▁cun	-10.7197
일에	-10.7198
使	-10.7202
elsen	-10.7204
ண்ட	-10.7206
▁спо	-10.7206
▁boj	-10.7206
hit	-10.7207
つ	-10.7208
▁හා	-10.7208
▁amihanan	-10.7208
려	-10.7209
▁single	-10.721
▁Γ	-10.7211
▁nov	-10.7212
▁Auto	-10.7213
▁marca	-10.7213
դ	-10.7216
▁coa	-10.7217
▁ekonomi	-10.7219
אר	-10.722
▁fou	-10.722
ији	-10.722
▁район	-10.7222
▁também	-10.7222
νε	-10.7226
▁י	-10.7227
mesi	-10.7229
▁red	-10.7233
tako	-10.7234
▁onde	-10.7235
зы	-10.7236
▁nombre	-10.7236
ズ	-10.7236
త్	-10.7237
▁material	-10.7238
▁Ele	-10.7239
動	-10.7241
台	-10.7242
わ	-10.7243
▁zur	-10.7243
գ	-10.7243
וע	-10.7244
rac	-10.7246
▁nime	-10.7248
▁Prim	-10.725
관	-10.7251
حا	-10.7251
tun	-10.7251
▁mens	-10.7251
▁akt	-10.7251
▁arasında	-10.7253
idos	-10.7255
▁فیلم	-10.7258
юць	-10.7259
▁front	-10.7259
▁dapat	-10.726
рон	-10.7263
科	-10.7265
▁país	-10.7268
▁agosto	-10.7269
▁ذلك	-10.727
▁പ്ര	-10.7271
يب	-10.7272
▁bay	-10.7272
கு	-10.7273
▁funkci	-10.7273
▁dire	-10.728
ගේ	-10.7281
▁theo	-10.7281
表	-10.7281
▁प्रति	-10.7285
安	-10.7288
hed	-10.7289
▁industri	-10.7289
▁Gal	-10.7289
{\	-10.729
물	-10.729
▁ഇ	-10.7291
向	-10.7291
ző	-10.7291
lığı	-10.7292
▁Neu	-10.7295
konna	-10.7296
▁১	-10.7297
pes	-10.7299
தை	-10.73
형	-10.73
ес	-10.7301
▁ఇది	-10.7301
▁nich	-10.7302
▁тра	-10.7302
路	-10.7303
▁Ю	-10.7304
▁Φ	-10.7305
▁在	-10.7306
ذا	-10.7306
istas	-10.7307
▁Ten	-10.7308
▁1000	-10.7309
lerin	-10.7311
jin	-10.7311
此	-10.7311
രി	-10.7311
▁sitt	-10.7315
…	-10.7315
ræ	-10.7316
星	-10.7318
λη	-10.7318
jú	-10.7323
▁প্রথম	-10.7323
|	-10.7324
וש	-10.7326
য়া	-10.7327
kil	-10.7329
▁constitu	-10.7329
▁arte	-10.733
יב	-10.733
▁кор	-10.7335
▁Sud	-10.7336
러	-10.7338
ties	-10.734
▁mus	-10.7341
cor	-10.7342
▁той	-10.7343
▁Ši	-10.7345
▁його	-10.7345
შ	-10.7345
تو	-10.7347
jų	-10.7348
制	-10.7349
pres	-10.7349
ộ	-10.7349
▁होती	-10.735
fal	-10.7351
ması	-10.7351
цион	-10.7351
▁тоа	-10.7353
qua	-10.7354
έν	-10.7357
▁گ	-10.7358
iano	-10.736
nti	-10.736
არ	-10.736
له	-10.736
ευ	-10.7363
▁הס	-10.7363
ars	-10.7364
day	-10.7364
루	-10.7364
९	-10.7365
▁memiliki	-10.7365
rid	-10.7366
ც	-10.7366
その	-10.7369
▁هذا	-10.737
மாக	-10.7373
ంది	-10.7377
▁hau	-10.7379
▁Kun	-10.7381
tid	-10.7382
žen	-10.7384
▁ये	-10.7384
▁significa	-10.7386
כל	-10.7389
ශ	-10.7392
▁44	-10.7395
vant	-10.7397
▁মি	-10.7397
경	-10.7405
tern	-10.7405
zko	-10.7407
指	-10.7409
▁22.	-10.741
▁Kin	-10.7413
線	-10.7416
ель	-10.7418
əh	-10.7425
▁kde	-10.7427
sä	-10.7427
1°	-10.7427
sser	-10.7427
ûn	-10.7428
▁condi	-10.7436
▁39	-10.7436
▁എന്ന	-10.7437
▁پس	-10.7438
▁ומ	-10.7439
▁Cup	-10.7439
▁Love	-10.744
工	-10.7441
çı	-10.7443
chod	-10.7443
▁pris	-10.7444
▁ව	-10.7446
▁februar	-10.745
nego	-10.7454
dě	-10.7457
▁time	-10.746
ൈ	-10.7461
민	-10.7462
▁wird	-10.7465
low	-10.7465
▁udalerrian	-10.7467
ақ	-10.7469
stä	-10.7469
ठ	-10.7471
жен	-10.7474
gh	-10.7476
래	-10.7477
▁한	-10.7478
ウ	-10.748
차	-10.748
▁απ	-10.748
ृ	-10.7482
▁jedan	-10.7483
лас	-10.7484
▁Ло	-10.7487
▁Yn	-10.7487
院	-10.7489
kka	-10.749
▁बि	-10.7491
▁chiến	-10.7493
лог	-10.7493
▁Sil	-10.7497
బ్	-10.7497
ujú	-10.7497
vije	-10.7497
jući	-10.7499
хи	-10.75
ston	-10.75
▁Кон	-10.75
llo	-10.7501
ండ	-10.7501
▁Af	-10.7502
▁בין	-10.7502
tov	-10.7503
تي	-10.7506
ाच्या	-10.7507
גר	-10.7511
▁premier	-10.7517
▁ot	-10.7517
-11	-10.7517
シ	-10.7518
λά	-10.7518
▁Ан	-10.7519
▁ст	-10.7519
▁toimi	-10.752
یان	-10.7522
▁Monte	-10.7523
▁Кар	-10.7525
▁або	-10.7525
球	-10.7526
пт	-10.7526
bach	-10.753
rə	-10.753
test	-10.7532
anda	-10.7535
▁rehiyon	-10.7536
boj	-10.7536
▁jak	-10.7536
▁są	-10.7537
▁rata	-10.7537
нал	-10.7538
▁є	-10.7539
▁कार्य	-10.7539
பி	-10.754
ello	-10.7542
oso	-10.7544
نده	-10.7545
ський	-10.7547
éri	-10.7548
▁25.	-10.755
ivat	-10.755
▁상	-10.7551
▁ه	-10.7555
sidlakan	-10.7555
רים	-10.7556
▁পর	-10.7556
aĵo	-10.7557
▁мас	-10.756
▁compr	-10.756
▁unter	-10.7561
▁Vis	-10.7562
▁jej	-10.7563
▁drugi	-10.7563
hang	-10.7566
▁unu	-10.7568
▁Juan	-10.7568
šte	-10.757
▁조	-10.7573
▁신	-10.7573
πε	-10.7575
二	-10.7576
▁sever	-10.7576
▁해	-10.7576
▁janë	-10.7577
њу	-10.7578
회	-10.758
▁Ве	-10.7581
히	-10.7582
கி	-10.7582
▁dago	-10.7585
koa	-10.7585
रण	-10.7586
▁primeira	-10.7588
▁ас	-10.7589
▁стр	-10.7589
▁které	-10.759
對	-10.7593
стер	-10.7593
▁Joseph	-10.7596
▁май	-10.7598
ικού	-10.76
▁глав	-10.7602
공	-10.7605
гра	-10.7605
▁iş	-10.7609
▁نو	-10.7609
ként	-10.7612
ében	-10.7616
cción	-10.7618
etako	-10.7621
▁41	-10.7631
ளி	-10.7633
ól	-10.7634
інің	-10.7634
▁हुआ	-10.7635
▁mol	-10.7637
▁Indonesia	-10.764
▁Trans	-10.764
dul	-10.764
建	-10.7641
▁pin	-10.7642
dığı	-10.7646
▁கி	-10.7647
andi	-10.7647
uit	-10.7647
▁xa	-10.7648
▁který	-10.7648
▁xuất	-10.765
법	-10.7652
ndan	-10.7653
gul	-10.7653
tha	-10.7654
hur	-10.7659
ால்	-10.7661
නා	-10.7663
▁Hon	-10.7663
▁pang	-10.7668
bie	-10.7668
ёр	-10.7669
▁www	-10.7669
▁Pat	-10.7671
▁esp	-10.7674
ške	-10.7674
▁Wei	-10.7674
ダ	-10.7679
lice	-10.7679
ணி	-10.768
iam	-10.7681
skap	-10.7682
▁Но	-10.7683
▁president	-10.7683
▁пар	-10.7684
sión	-10.7686
▁Wy	-10.7687
ams	-10.7689
▁zich	-10.7689
chter	-10.769
ыш	-10.7693
रु	-10.7693
▁Rom	-10.7694
▁הק	-10.7694
ských	-10.7695
▁dụng	-10.7695
▁δι	-10.7695
ατ	-10.7698
▁బా	-10.7699
पा	-10.77
▁hand	-10.77
zat	-10.77
దా	-10.7701
▁Kap	-10.7702
▁November	-10.7703
デ	-10.7704
▁vie	-10.7705
stoj	-10.7708
ിയ	-10.7708
카	-10.7711
اص	-10.7711
kken	-10.7712
யாக	-10.7712
美	-10.7712
aron	-10.7714
▁dra	-10.7714
3°	-10.7714
▁cùng	-10.772
▁cur	-10.7723
etta	-10.7723
minister	-10.7724
4.	-10.7731
使用	-10.7733
jat	-10.7733
àn	-10.7734
▁mare	-10.774
▁भारतीय	-10.7741
▁సంఖ్య	-10.7748
▁turn	-10.7748
▁ни	-10.775
▁lahko	-10.775
బ	-10.7752
▁мі	-10.7752
키	-10.7754
əsi	-10.7755
与	-10.7756
▁José	-10.7757
σκ	-10.7757
▁যায়	-10.7759
可	-10.7763
▁tor	-10.7763
▁pré	-10.7767
▁one	-10.7767
▁2004.	-10.7767
▁Го	-10.7768
量	-10.7768
cca	-10.7768
вин	-10.7769
▁Evrop	-10.777
▁fort	-10.7771
▁hơn	-10.7771
▁втор	-10.7772
▁Vel	-10.7775
მა	-10.7775
▁ş	-10.7781
▁stre	-10.7782
▁Ú	-10.7782
▁30.	-10.7783
2,	-10.7783
▁Ü	-10.7785
மா	-10.7787
kö	-10.7788
ழ	-10.7788
こと	-10.7788
ơ	-10.7789
▁една	-10.779
cial	-10.779
업	-10.7791
erede	-10.7792
▁Ə	-10.7794
pend	-10.7794
ട്ട	-10.7796
▁선	-10.7799
▁vég	-10.7799
來	-10.7799
ments	-10.7801
iš	-10.7801
ער	-10.7801
或	-10.7801
gs	-10.7803
ям	-10.7803
▁Kara	-10.7803
▁Villa	-10.7804
▁Mol	-10.781
▁పా	-10.7815
cker	-10.7819
לה	-10.7821
ях	-10.7822
▁दो	-10.7824
▁Sir	-10.7826
▁Ut	-10.7826
ування	-10.7827
tár	-10.7829
פל	-10.7833
тын	-10.7834
ús	-10.7835
▁Бе	-10.7835
▁জ	-10.7836
hir	-10.7836
ера	-10.7837
▁són	-10.7837
▁organis	-10.7838
▁две	-10.784
cze	-10.7841
▁gor	-10.7842
roma	-10.7844
▁28.	-10.7845
mě	-10.7846
ög	-10.7846
▁스	-10.7848
▁все	-10.7848
ço	-10.7849
_	-10.785
gus	-10.7851
ték	-10.7852
km	-10.7852
ous	-10.7853
▁अधिक	-10.7854
ット	-10.7855
▁ris	-10.7855
▁biti	-10.7857
▁בת	-10.7857
نو	-10.7859
die	-10.786
▁دست	-10.7861
עו	-10.7861
लि	-10.7862
ούν	-10.7862
mmen	-10.7862
▁Kre	-10.7863
▁Anh	-10.7865
ської	-10.7866
▁план	-10.7874
owej	-10.7878
▁kiuj	-10.7884
▁Dra	-10.7886
ạ	-10.7888
▁Vor	-10.7889
cola	-10.7889
解	-10.7889
úc	-10.7889
▁43	-10.789
합	-10.7891
▁ville	-10.7892
▁tamén	-10.7892
ნა	-10.7895
ె	-10.7897
гы	-10.7898
сте	-10.79
ení	-10.7901
ött	-10.7901
वे	-10.7903
ствен	-10.7903
▁kontrol	-10.7904
larında	-10.7905
▁dalla	-10.7906
-8	-10.7908
čių	-10.7909
少	-10.7909
▁pis	-10.7911
ыл	-10.7912
ఖ	-10.7916
当	-10.7916
▁לש	-10.7917
run	-10.7921
▁Hann	-10.7922
▁vii	-10.7923
東	-10.7924
▁които	-10.7925
Sa	-10.7926
▁sai	-10.7928
▁cent	-10.793
රී	-10.7931
▁స్	-10.7933
▁later	-10.7934
▁spr	-10.7934
連	-10.7934
▁Henry	-10.7935
ću	-10.7937
▁brit	-10.7937
yar	-10.7938
onia	-10.7939
AN	-10.7939
▁kuri	-10.7944
▁Elle	-10.7945
форм	-10.7949
▁сто	-10.795
kė	-10.7951
ন্ড	-10.7952
iju	-10.7952
дә	-10.7953
▁waren	-10.7955
sul	-10.796
▁стар	-10.7962
▁వే	-10.7963
2°	-10.7963
▁masa	-10.7965
teen	-10.7965
▁sko	-10.7965
ror	-10.7966
▁24.	-10.7967
▁bran	-10.7967
וז	-10.7967
ế	-10.7968
тори	-10.7969
jak	-10.7969
キ	-10.797
▁mesmo	-10.797
▁German	-10.7973
টে	-10.7974
7°	-10.7975
▁ක්	-10.7977
▁حال	-10.7978
anske	-10.798
-16	-10.798
tant	-10.798
bran	-10.7982
nyt	-10.7982
▁special	-10.7982
▁tv	-10.7982
▁Ivan	-10.7984
று	-10.7984
▁سي	-10.7985
bang	-10.7988
▁23.	-10.7989
AC	-10.799
▁eerste	-10.799
テ	-10.7994
▁период	-10.7994
ric	-10.7996
▁distribu	-10.7996
▁direct	-10.7997
نج	-10.7998
ню	-10.7998
цу	-10.7999
▁син	-10.8
▁pet	-10.8001
▁кол	-10.8002
ικές	-10.8006
信	-10.8008
ோ	-10.8009
▁после	-10.8011
▁tipo	-10.8013
▁సా	-10.8013
ular	-10.8015
nto	-10.8015
well	-10.8015
▁মে	-10.802
▁bru	-10.8021
▁led	-10.8022
▁vitin	-10.8023
▁команд	-10.8027
知	-10.8029
rzy	-10.8029
▁Comp	-10.803
ток	-10.8032
த்தின்	-10.8036
▁moment	-10.8038
▁urte	-10.8039
ење	-10.8039
▁institu	-10.8039
▁nhân	-10.804
▁Cerro	-10.804
▁ár	-10.8041
ভাবে	-10.8051
גו	-10.8052
ॅ	-10.8053
▁живот	-10.8054
▁oldu	-10.8055
共	-10.8055
fon	-10.8056
▁Ez	-10.8056
▁Nach	-10.8057
cin	-10.8057
▁troch	-10.8057
ние	-10.8059
ръ	-10.8061
▁সু	-10.8061
▁ලෙස	-10.8062
وان	-10.8064
llis	-10.8064
bile	-10.8065
طب	-10.8065
dil	-10.8067
▁its	-10.8069
▁grand	-10.8069
chy	-10.8069
▁নাম	-10.8072
▁ඉ	-10.8074
▁CD	-10.8074
▁27.	-10.8075
▁gla	-10.8076
έλ	-10.8077
▁එ	-10.8077
४	-10.8078
▁மு	-10.8078
▁nebo	-10.8078
对	-10.8078
え	-10.8079
▁prí	-10.808
▁loài	-10.8083
▁све	-10.8084
▁הו	-10.8088
▁ఏ	-10.8089
әй	-10.809
రో	-10.8091
szcz	-10.8091
『	-10.8093
ид	-10.8094
३	-10.8095
قا	-10.8096
▁מש	-10.8096
안	-10.8099
ине	-10.8102
घ	-10.8105
4°	-10.8108
8.	-10.8108
▁thứ	-10.8111
▁మా	-10.8114
▁parlament	-10.8115
▁ভ	-10.8119
ées	-10.8119
▁වන	-10.812
ին	-10.8121
dz	-10.8121
▁انگلیسی	-10.8121
cip	-10.8123
▁Sim	-10.8123
▁she	-10.8124
дат	-10.8124
▁சு	-10.8125
▁realiz	-10.8125
moni	-10.8125
inis	-10.8126
▁Mü	-10.8127
цца	-10.8127
ëve	-10.8128
過	-10.8129
▁अस	-10.813
нт	-10.8131
▁ز	-10.8132
▁lebih	-10.8134
▁fun	-10.8136
ρε	-10.8136
ати	-10.8137
▁страна	-10.8137
▁Fer	-10.8137
開	-10.8139
६	-10.8139
▁ly	-10.8139
ark	-10.814
▁75	-10.8141
слов	-10.8141
ına	-10.8141
流	-10.8142
inte	-10.8144
ční	-10.8148
נית	-10.8149
θηκε	-10.8149
elli	-10.815
чу	-10.8153
ors	-10.8154
ming	-10.8154
▁яго	-10.8154
ούς	-10.8157
▁prej	-10.8157
रो	-10.8157
बा	-10.8157
נס	-10.8159
書	-10.8162
bora	-10.8162
発	-10.8163
▁thuộc	-10.8165
ping	-10.8165
idades	-10.8167
лін	-10.8168
Di	-10.8168
▁bun	-10.8169
sht	-10.8169
هد	-10.817
ped	-10.8173
ț	-10.8173
▁hình	-10.8173
▁være	-10.8174
▁Cho	-10.8175
▁Washington	-10.8177
▁исто	-10.8178
7.	-10.8179
eni	-10.818
▁định	-10.8181
け	-10.8184
▁→	-10.8185
▁Windows	-10.8185
▁Arab	-10.8187
▁mid	-10.8188
այ	-10.8189
▁рэ	-10.8189
अ	-10.8189
වි	-10.819
▁continu	-10.819
▁School	-10.8191
▁мал	-10.8193
▁profesor	-10.8194
öö	-10.8195
타	-10.8196
▁Mun	-10.8196
▁cer	-10.8198
▁Christian	-10.8199
cem	-10.8202
▁1913	-10.8202
▁toga	-10.8206
sas	-10.8206
▁тој	-10.8207
owych	-10.8208
▁сред	-10.8209
бли	-10.8211
aq	-10.8213
Ka	-10.8216
▁Bell	-10.8216
▁كانت	-10.8216
tje	-10.8217
ঙ্গ	-10.8217
ông	-10.8219
гә	-10.8219
ęs	-10.8222
ення	-10.8222
კ	-10.8223
ட்டி	-10.8224
ovima	-10.8224
rta	-10.8224
твор	-10.8226
▁55	-10.8226
ağı	-10.8227
▁घ	-10.8229
▁South	-10.8229
▁Radio	-10.823
▁kralj	-10.8233
יצ	-10.8233
▁primera	-10.8234
▁boli	-10.8236
top	-10.8236
sins	-10.8236
▁Nobel	-10.8238
ích	-10.8243
▁Ran	-10.8244
▁अनु	-10.8244
נט	-10.8245
▁ví	-10.8247
ում	-10.825
mpa	-10.825
無	-10.8251
fund	-10.8252
▁Festival	-10.8259
în	-10.8261
כן	-10.8261
ries	-10.8261
лив	-10.8262
larda	-10.8263
ért	-10.8264
িয়া	-10.8264
▁Sloven	-10.8264
▁tru	-10.8267
▁استفاده	-10.8269
▁programa	-10.827
▁Бер	-10.8271
▁Azərbaycan	-10.8274
ౌ	-10.8275
▁ми	-10.8276
▁সালের	-10.8276
dži	-10.8276
▁26.	-10.8277
ệ	-10.828
олог	-10.8281
aten	-10.8285
▁registr	-10.8286
πο	-10.8288
ड़	-10.8289
▁Bil	-10.8291
▁před	-10.8293
rot	-10.8295
▁mari	-10.8295
▁State	-10.8296
▁tiếng	-10.8296
arte	-10.8297
▁Din	-10.8297
मे	-10.8297
▁who	-10.8297
▁ans	-10.83
▁много	-10.8302
دى	-10.8303
▁fru	-10.8308
▁47	-10.8309
لم	-10.8309
▁ras	-10.831
lini	-10.8311
spel	-10.8312
యు	-10.8313
رد	-10.8316
2008	-10.8317
டை	-10.8319
▁মধ্যে	-10.8322
bide	-10.8323
vig	-10.8323
BA	-10.8324
iť	-10.8326
▁pilot	-10.8328
liği	-10.8332
▁лет	-10.8332
lė	-10.8333
▁human	-10.8334
色	-10.8335
2010	-10.8336
▁θα	-10.8339
▁ха	-10.8339
ema	-10.8346
skega	-10.8346
ως	-10.8349
hem	-10.835
ћа	-10.8351
חבר	-10.8353
itate	-10.8354
kem	-10.8355
▁vod	-10.8355
▁hos	-10.8356
▁estado	-10.8358
▁হ	-10.8358
연	-10.8362
्र	-10.8363
ót	-10.8363
▁einem	-10.8368
طر	-10.8368
ация	-10.8371
▁என	-10.8373
▁ski	-10.8373
▁성	-10.8374
selt	-10.8376
para	-10.8376
గు	-10.8377
▁quando	-10.8379
हि	-10.838
▁מא	-10.838
οί	-10.8382
保	-10.8383
ецца	-10.8383
▁gj	-10.8383
ница	-10.8384
ával	-10.8385
▁Kau	-10.8386
▁구	-10.8387
sie	-10.8387
äm	-10.8387
kir	-10.8388
레	-10.8389
▁তাঁর	-10.8389
▁ref	-10.8391
区	-10.8393
▁سنة	-10.8393
▁design	-10.8395
2009	-10.8397
nam	-10.8397
現	-10.8399
gno	-10.8399
▁Wikimedia	-10.8402
ию	-10.8404
yje	-10.8406
▁kie	-10.8406
וט	-10.8408
ovala	-10.8408
▁Israel	-10.8409
▁있는	-10.8411
ып	-10.8411
もの	-10.8411
šti	-10.8412
▁(5	-10.8412
▁oblik	-10.8412
кт	-10.8414
▁karakter	-10.8415
ють	-10.8416
▁få	-10.8419
kim	-10.842
▁ку	-10.842
reich	-10.8427
▁место	-10.8428
שר	-10.843
гер	-10.8431
మీ	-10.8432
рек	-10.8432
три	-10.8433
but	-10.8434
9°	-10.8434
iek	-10.8434
lju	-10.8435
▁Web	-10.8436
sled	-10.8438
ші	-10.8438
▁46	-10.8439
▁него	-10.8441
▁provin	-10.8441
ché	-10.8441
లలో	-10.8442
ニ	-10.8442
▁document	-10.8443
čke	-10.8444
cta	-10.8444
cov	-10.8444
الي	-10.8445
▁пос	-10.8448
▁aquest	-10.8448
സി	-10.845
ас	-10.8452
▁Albert	-10.8455
্রি	-10.8456
パ	-10.8457
urile	-10.8459
▁yap	-10.8459
▁erre	-10.846
мал	-10.8462
rö	-10.8465
▁мен	-10.8465
esc	-10.8465
▁twee	-10.8468
hari	-10.8469
▁fo	-10.847
album	-10.847
▁telah	-10.8471
nir	-10.8471
버	-10.8474
कि	-10.8474
nus	-10.8474
▁mora	-10.8476
▁mel	-10.8476
▁Cas	-10.8477
mond	-10.8477
▁मो	-10.8478
öt	-10.8479
▁воз	-10.8484
개	-10.8484
▁poste	-10.8485
▁Cur	-10.8488
▁65	-10.8488
▁mah	-10.8489
▁Up	-10.8489
כר	-10.8489
PDF	-10.8491
▁neu	-10.8491
▁hely	-10.8491
▁milit	-10.8494
▁भाग	-10.8495
שו	-10.8498
▁ole	-10.8498
வே	-10.8499
▁между	-10.85
tico	-10.8505
том	-10.8505
▁Camp	-10.8509
되어	-10.8509
▁गो	-10.8509
icht	-10.8509
▁mart	-10.851
▁29.	-10.8511
▁Bud	-10.8512
ūr	-10.8512
▁čas	-10.8515
▁See	-10.8516
ξε	-10.8517
ల్ల	-10.8518
riz	-10.852
▁sinh	-10.8521
▁flu	-10.8522
ból	-10.8523
▁premi	-10.8524
▁energi	-10.8525
мон	-10.8526
▁ky	-10.853
▁3-	-10.853
ðar	-10.853
▁Ти	-10.8533
▁disc	-10.8534
кова	-10.8534
richt	-10.8537
▁pinakadu	-10.8537
▁cit	-10.8538
▁För	-10.8539
लाई	-10.8539
▁غ	-10.854
ança	-10.8541
▁було	-10.8542
▁Mc	-10.8542
lân	-10.8543
▁bl	-10.8544
▁הר	-10.8545
▁Shi	-10.8546
pä	-10.8547
šči	-10.8547
яз	-10.8547
▁Об	-10.8549
▁gir	-10.855
verk	-10.8553
глед	-10.8555
äit	-10.8557
ény	-10.8557
reg	-10.8558
▁Win	-10.8559
▁Erişim	-10.8559
▁اس	-10.856
▁към	-10.8562
ژ	-10.8563
▁παρα	-10.8565
ләр	-10.8567
ink	-10.8567
▁пол	-10.8569
Ra	-10.8569
tati	-10.857
یس	-10.8571
ald	-10.8571
▁politic	-10.8573
▁pap	-10.8575
зна	-10.8575
▁حيث	-10.8575
发	-10.8575
zion	-10.8577
▁cele	-10.8579
mai	-10.8581
chten	-10.8581
—19	-10.8582
jek	-10.8583
▁são	-10.8584
▁সাথে	-10.8586
▁viên	-10.8588
كي	-10.859
్యా	-10.8594
▁latin	-10.8595
▁rest	-10.8596
стро	-10.8597
▁só	-10.86
kker	-10.86
▁сер	-10.8601
▁עד	-10.8602
▁Fri	-10.8602
▁1905	-10.8602
ште	-10.8602
▁Dom	-10.8602
роб	-10.8607
шен	-10.8609
నం	-10.8611
▁Ac	-10.8612
-7	-10.8613
▁центр	-10.8614
れ	-10.8614
еј	-10.8616
▁1908	-10.8617
▁hier	-10.8619
ाव	-10.8619
مة	-10.8622
tain	-10.8623
ции	-10.8623
▁Ros	-10.8623
교	-10.8625
▁करता	-10.8625
▁بي	-10.8625
від	-10.8627
▁игра	-10.8627
ांत	-10.8628
бит	-10.8628
▁december	-10.8628
▁వె	-10.8629
urs	-10.8631
▁fest	-10.8631
▁समय	-10.8634
ονται	-10.8634
▁цар	-10.8635
ril	-10.8635
kret	-10.8636
šta	-10.8636
▁đồng	-10.8638
▁set	-10.8638
fel	-10.8638
▁හ	-10.8639
говор	-10.8639
▁ін	-10.8639
tec	-10.864
asti	-10.864
пада	-10.8641
rop	-10.8643
▁който	-10.8644
▁cá	-10.8645
▁cuộc	-10.8645
▁text	-10.8646
trop	-10.8647
тә	-10.8649
rab	-10.8649
zd	-10.8649
שת	-10.8652
Ha	-10.8654
▁koristi	-10.8657
설	-10.8657
▁acest	-10.8657
▁бе	-10.8658
hou	-10.8659
四	-10.866
▁कुछ	-10.8661
▁Mes	-10.8661
fri	-10.8663
される	-10.8664
rig	-10.8666
▁Sy	-10.8667
▁port	-10.8667
▁Auf	-10.8671
▁रा	-10.8672
8°	-10.8674
мор	-10.8674
▁lat	-10.8674
iert	-10.8676
2)	-10.8677
ৌ	-10.868
лары	-10.868
களின்	-10.8685
▁kaumahan	-10.8685
čil	-10.8686
ents	-10.8688
▁På	-10.8688
▁চ	-10.869
▁ovat	-10.869
▁merupakan	-10.8693
mili	-10.8696
▁thu	-10.8697
ній	-10.8697
▁dre	-10.8699
яв	-10.8702
▁Euro	-10.8703
тро	-10.8704
وار	-10.8706
rs	-10.8708
αμ	-10.8709
roj	-10.8709
リー	-10.871
▁degli	-10.8711
sze	-10.8712
▁(14	-10.8712
نگ	-10.872
anto	-10.8721
eći	-10.8724
▁Ор	-10.8725
▁foto	-10.8725
RA	-10.8726
▁1915	-10.8731
sik	-10.8733
▁spor	-10.8734
▁thực	-10.8734
udo	-10.8735
反	-10.8735
▁Andre	-10.8735
▁denne	-10.8737
imas	-10.8737
acije	-10.8737
ged	-10.8738
▁работ	-10.8739
▁больш	-10.8739
fort	-10.874
空	-10.874
6°	-10.874
▁system	-10.8741
▁Spo	-10.8741
idas	-10.8744
▁był	-10.8744
▁теле	-10.8746
▁לב	-10.8746
▁Central	-10.8746
▁ఉ	-10.8748
व्य	-10.875
▁organiza	-10.875
▁Afrika	-10.8754
gni	-10.8754
▁kunne	-10.8754
▁yeni	-10.8756
▁vald	-10.8756
▁וא	-10.8756
itus	-10.8756
▁कारण	-10.8757
▁medal	-10.8758
▁پر	-10.8758
▁Ort	-10.8759
rse	-10.876
尼	-10.876
ендә	-10.876
▁andra	-10.876
Ja	-10.876
▁অব	-10.8761
чки	-10.8761
▁హ	-10.8761
inger	-10.8762
▁Arm	-10.8764
пі	-10.8764
miştir	-10.8765
ER	-10.8767
▁Mos	-10.8769
▁দ	-10.8772
▁san	-10.8773
▁Ry	-10.8775
liche	-10.8775
▁több	-10.8775
raš	-10.8776
▁deux	-10.8776
▁పరి	-10.8777
dje	-10.8782
cula	-10.8786
▁இவர்	-10.8788
öv	-10.879
▁έχει	-10.879
▁provincia	-10.8791
6.	-10.8792
ních	-10.8792
ика	-10.8792
há	-10.8792
tà	-10.8794
gir	-10.8794
행	-10.8796
tır	-10.8797
▁कम	-10.88
▁කර	-10.88
▁दे	-10.8801
▁vom	-10.8802
ৃ	-10.8804
rett	-10.8806
arra	-10.8809
▁Anna	-10.8812
يز	-10.8815
▁खा	-10.8819
دان	-10.8821
шт	-10.8824
וב	-10.8827
▁Rod	-10.8828
▁karena	-10.8829
itä	-10.883
▁уз	-10.8831
▁park	-10.8832
ガ	-10.8833
تم	-10.8833
▁suur	-10.8836
▁йылда	-10.8843
tab	-10.8844
▁הפ	-10.8845
пад	-10.8846
sini	-10.8846
▁১৯	-10.8849
▁무	-10.8849
爾	-10.8851
ward	-10.8851
ධ	-10.8852
קו	-10.8852
lijk	-10.8853
▁пот	-10.8854
ович	-10.8859
vara	-10.8862
אות	-10.8863
কি	-10.8863
onder	-10.8863
▁també	-10.8869
▁estat	-10.8871
čne	-10.8872
▁place	-10.8873
직	-10.8874
։	-10.8876
▁tab	-10.8876
▁1916	-10.8877
▁49	-10.8878
ней	-10.8878
▁déc	-10.8879
kis	-10.8881
▁†	-10.8883
▁version	-10.8883
▁mlad	-10.8885
шка	-10.8888
еді	-10.8889
▁kru	-10.8889
دار	-10.8889
▁akan	-10.8889
țe	-10.8891
▁representa	-10.8892
式	-10.8893
▁festival	-10.8896
▁nagy	-10.8899
alla	-10.8899
▁face	-10.89
ഹ	-10.89
णी	-10.8901
▁ĝis	-10.8901
▁their	-10.8903
atori	-10.8904
plat	-10.8904
▁todo	-10.8908
▁Lan	-10.8909
øy	-10.891
vest	-10.8914
রো	-10.8914
ibus	-10.8919
▁pá	-10.892
▁sens	-10.8921
ości	-10.8922
ќ	-10.8925
隊	-10.893
sek	-10.893
▁2002.	-10.893
hara	-10.8931
▁priv	-10.8932
మ్	-10.8933
Α	-10.8935
▁Form	-10.8935
క్క	-10.8936
▁αλλά	-10.8936
▁gri	-10.8938
▁ব্যবহার	-10.8939
ош	-10.8941
)،	-10.8943
ını	-10.8944
ổ	-10.8944
▁privat	-10.8945
луч	-10.8947
▁Barcelona	-10.8947
сер	-10.8948
▁patri	-10.8948
kond	-10.8949
रि	-10.8949
▁aber	-10.8949
▁प्रकार	-10.8951
▁стан	-10.8951
▁influ	-10.8952
▁pic	-10.8952
권	-10.8953
čni	-10.8955
рос	-10.8956
▁this	-10.8957
▁prac	-10.896
keta	-10.8961
bul	-10.8962
▁என்ற	-10.8962
في	-10.8966
▁52	-10.8968
▁mentre	-10.8968
volu	-10.8969
▁tá	-10.8969
డం	-10.897
eerde	-10.8971
▁ר	-10.8971
guèt	-10.8972
קי	-10.8972
▁kesk	-10.8973
уб	-10.8974
▁Plan	-10.8974
▁نفر	-10.8975
▁είχε	-10.8976
anse	-10.8978
▁mange	-10.8979
▁Vy	-10.8979
}}}	-10.8984
▁że	-10.8984
وك	-10.8986
Ca	-10.8988
েন	-10.8989
rono	-10.8992
▁Christ	-10.8992
dic	-10.8994
nca	-10.8995
▁slo	-10.8996
іст	-10.9
tze	-10.9
யி	-10.9001
νομ	-10.9001
▁త	-10.9002
▁51	-10.9002
▁prov	-10.9003
вор	-10.9005
▁바	-10.9005
世界	-10.9006
ści	-10.9006
lur	-10.9008
tuar	-10.9008
stal	-10.9009
inio	-10.901
▁köz	-10.9011
▁Ing	-10.9011
dá	-10.9013
▁neces	-10.9015
音	-10.9015
عد	-10.9016
atan	-10.9017
enne	-10.9018
­	-10.902
shme	-10.9021
ặ	-10.9023
▁कु	-10.9023
▁буд	-10.9023
යන්	-10.9024
▁Cri	-10.9024
lf	-10.9027
right	-10.9028
▁Pin	-10.9028
▁بو	-10.9029
ři	-10.9029
μη	-10.903
布	-10.9032
▁komon	-10.9032
▁मान	-10.9035
2011	-10.9035
prim	-10.9035
вој	-10.9036
古	-10.9038
ん	-10.9039
ĉ	-10.904
▁yıl	-10.9041
▁talagsaon	-10.9043
cep	-10.9046
▁segundo	-10.9046
年に	-10.9047
کی	-10.9049
▁Ia	-10.9049
rø	-10.9049
וני	-10.905
atge	-10.905
ання	-10.9051
▁करते	-10.9051
tch	-10.9054
光	-10.9054
▁שי	-10.9055
▁God	-10.9055
▁vật	-10.9057
оп	-10.9057
зда	-10.9058
▁new	-10.906
ിൽ	-10.9063
feld	-10.9064
Kr	-10.9064
▁এটি	-10.9066
▁punt	-10.9066
מת	-10.9068
首	-10.9069
بة	-10.9071
ネ	-10.9072
iwa	-10.9076
交	-10.9078
▁Quốc	-10.9082
vec	-10.9084
ంత	-10.9088
zá	-10.9088
нем	-10.9089
▁орган	-10.909
âm	-10.909
తా	-10.9091
▁Royal	-10.9091
▁wurden	-10.9091
itse	-10.9091
▁ofte	-10.9091
ට්	-10.9091
cup	-10.9092
mektedir	-10.9093
аны	-10.9093
▁osta	-10.9093
מים	-10.9093
gil	-10.9093
jö	-10.9093
eller	-10.9097
▁lớn	-10.9099
▁scen	-10.9099
▁shumë	-10.9101
ब्	-10.9101
cro	-10.9104
▁முதல்	-10.9104
λο	-10.9105
ful	-10.9107
ския	-10.9108
വി	-10.9108
▁även	-10.9109
kh	-10.9109
▁(12	-10.9111
▁ול	-10.9112
▁Edi	-10.9114
атор	-10.9114
▁kg	-10.9114
▁pom	-10.9115
gé	-10.9116
들	-10.9117
drag	-10.9117
▁él	-10.9117
▁1911	-10.9118
▁első	-10.9121
▁Angeles	-10.9121
δο	-10.9122
తు	-10.9124
▁prim	-10.913
ív	-10.913
▁със	-10.9132
▁पूर्व	-10.9133
ologie	-10.9136
یل	-10.9139
ाचे	-10.9139
▁multi	-10.9141
dini	-10.9142
▁120	-10.9143
▁ফ	-10.9147
оф	-10.9148
▁instrument	-10.9149
って	-10.9149
iĝas	-10.915
má	-10.915
tava	-10.9151
▁Lee	-10.9152
З	-10.9152
рак	-10.9153
▁popul	-10.9155
▁Guerra	-10.9155
▁שב	-10.9155
▁μετα	-10.9155
bot	-10.9156
▁Rio	-10.9156
▁tên	-10.9158
стар	-10.9161
old	-10.9161
প্র	-10.9162
izi	-10.9162
פר	-10.9162
▁potreb	-10.9164
▁తన	-10.9165
▁mundo	-10.9165
▁font	-10.9165
زا	-10.9165
»)	-10.9166
مي	-10.9166
▁kaip	-10.917
άσ	-10.917
▁بین	-10.9172
▁Lietuvos	-10.9172
▁seorang	-10.9174
▁độ	-10.9175
قت	-10.9175
▁זו	-10.9175
iniai	-10.9176
▁andere	-10.9178
বার	-10.9181
द्र	-10.9183
lder	-10.9184
cr	-10.9185
▁وجود	-10.9185
kop	-10.9191
ква	-10.9191
▁número	-10.9192
antes	-10.9193
▁राज	-10.9194
▁Cat	-10.9194
іл	-10.9198
నీ	-10.9198
军	-10.9199
▁Tru	-10.92
যোগ	-10.92
ιτ	-10.9201
▁2001.	-10.9201
▁ön	-10.9202
නු	-10.9203
etik	-10.9204
tien	-10.9205
▁Daniel	-10.9205
▁glas	-10.9207
▁тип	-10.9208
ران	-10.921
поль	-10.921
itatea	-10.9211
▁চা	-10.9212
рок	-10.9213
曲	-10.9214
▁Ren	-10.9215
ání	-10.9215
▁kri	-10.9215
▁nego	-10.9217
▁داد	-10.9217
рк	-10.9217
▁determin	-10.9218
▁heeft	-10.9218
▁marzo	-10.9219
▁bởi	-10.922
άλ	-10.9223
amp	-10.9224
▁siya	-10.9224
হা	-10.9225
ენ	-10.9225
▁cách	-10.9227
▁Dy	-10.9228
TA	-10.9228
▁Francisco	-10.9229
▁între	-10.9231
мін	-10.9232
▁two	-10.9232
▁Dun	-10.9233
▁alg	-10.9234
約	-10.9234
њи	-10.9235
ац	-10.9235
▁Ста	-10.9238
скага	-10.9241
াই	-10.9242
ും	-10.9243
др	-10.9244
ातील	-10.9247
▁laŭ	-10.9248
▁mutta	-10.9248
▁pertama	-10.9251
stil	-10.9252
▁වූ	-10.9256
進	-10.9256
ont	-10.9259
▁इन	-10.926
▁nekoliko	-10.926
нен	-10.926
▁motiv	-10.926
▁Som	-10.9261
ahan	-10.9262
▁ev	-10.9263
čas	-10.9264
վ	-10.9265
▁sien	-10.9265
sted	-10.9266
▁Ч	-10.9267
▁trở	-10.9267
ষ্ট	-10.9268
▁64	-10.9269
lije	-10.9269
▁nhưng	-10.927
aldi	-10.9271
▁inform	-10.9274
laget	-10.9275
▁huet	-10.9276
ffer	-10.9276
▁Smith	-10.9277
gj	-10.9279
▁numero	-10.9279
米	-10.9281
של	-10.9281
тары	-10.9282
AT	-10.9284
rri	-10.9286
▁ant	-10.9286
əl	-10.929
tán	-10.9292
▁Itali	-10.9292
▁ĉi	-10.9293
φορ	-10.9293
▁utiliza	-10.9293
eze	-10.9294
▁ito	-10.9294
身	-10.9294
▁προσ	-10.9294
▁sí	-10.9295
cara	-10.9295
5.	-10.9297
▁הב	-10.9298
▁Пре	-10.9301
▁ഉ	-10.9301
▁dun	-10.9301
0°	-10.9302
ối	-10.9302
▁Các	-10.9303
ս	-10.9303
lagt	-10.9304
වේ	-10.9306
▁bul	-10.9306
2007	-10.9306
▁medi	-10.9306
▁ім	-10.9307
alde	-10.9307
200	-10.9307
–18	-10.9308
▁după	-10.9308
mışdır	-10.9309
▁typ	-10.9311
Lo	-10.9312
ација	-10.9313
جه	-10.9315
▁mir	-10.9316
▁Poli	-10.9316
gara	-10.9317
ওয়া	-10.9317
티	-10.9317
hte	-10.9319
種	-10.9319
▁След	-10.9321
▁univers	-10.9322
▁vas	-10.9325
sign	-10.9325
▁пи	-10.933
oči	-10.933
ち	-10.9331
▁ط	-10.9333
tado	-10.9334
み	-10.9334
парт	-10.9335
▁Wal	-10.9338
▁Cy	-10.9339
▁deze	-10.9339
მ	-10.934
culo	-10.9342
ovan	-10.9344
siya	-10.9346
▁الط	-10.9346
▁szám	-10.9348
▁Cra	-10.9348
▁كما	-10.935
▁durant	-10.935
ед	-10.9351
ப்பட்ட	-10.9351
יס	-10.9351
▁Database	-10.9354
▁ел	-10.9356
eco	-10.9357
ické	-10.9357
▁Ken	-10.9359
▁Fil	-10.9359
вала	-10.936
▁bla	-10.936
▁Ty	-10.9361
▁Hel	-10.9363
▁হয়ে	-10.9364
kai	-10.9364
ীর	-10.9364
▁ocupa	-10.9366
druž	-10.9367
след	-10.9371
ød	-10.9371
werk	-10.9373
ated	-10.9374
▁cop	-10.9374
يع	-10.9377
形	-10.9377
عة	-10.9377
▁Met	-10.9379
▁kont	-10.9379
▁Че	-10.938
owy	-10.9381
▁Cro	-10.9383
▁hold	-10.9384
вся	-10.9384
rdi	-10.9386
El	-10.9386
▁בר	-10.9386
スト	-10.9389
并	-10.9389
قر	-10.939
▁vị	-10.939
пор	-10.939
▁다	-10.9392
▁2003.	-10.9392
▁sina	-10.9393
issä	-10.9394
slag	-10.9395
▁komand	-10.9395
英语	-10.9397
SA	-10.94
TV	-10.9401
▁מי	-10.9401
леж	-10.9402
EN	-10.9403
rand	-10.9405
maktadır	-10.9407
▁Хо	-10.9407
電	-10.9407
ıl	-10.9407
בו	-10.9408
ень	-10.941
зо	-10.9411
▁Out	-10.9413
▁nej	-10.9414
đe	-10.9415
▁состав	-10.9417
▁apo	-10.9418
կ	-10.9419
ısı	-10.9419
▁natur	-10.9419
мп	-10.9421
vus	-10.9421
мов	-10.9422
▁ich	-10.9422
aksi	-10.9423
▁dove	-10.9426
各	-10.9429
▁ना	-10.9429
▁europ	-10.9429
akt	-10.943
▁wat	-10.9431
▁Berg	-10.9432
ному	-10.9434
suba	-10.9434
лей	-10.9435
▁οποία	-10.9437
gina	-10.9438
▁pul	-10.9439
▁ఉన్నాయి	-10.944
▁খ	-10.9445
amo	-10.9445
icos	-10.9449
кла	-10.9449
ந	-10.9451
еш	-10.9453
osta	-10.9453
soci	-10.9454
▁lý	-10.9455
سر	-10.9456
▁ama	-10.9457
graf	-10.9457
▁Pop	-10.9457
▁1906	-10.9457
▁nivel	-10.9457
▁истори	-10.9459
ικών	-10.9459
ক্ত	-10.946
lima	-10.946
▁také	-10.9463
▁até	-10.9466
zal	-10.9468
▁živ	-10.9469
uru	-10.9469
бай	-10.9469
▁standard	-10.9469
cou	-10.9469
takse	-10.947
بط	-10.9471
laş	-10.9471
▁друг	-10.9471
Da	-10.9471
▁части	-10.9472
μο	-10.9472
gü	-10.9473
▁stanovništva	-10.9476
வர	-10.9478
мар	-10.9479
است	-10.948
디	-10.9481
▁phải	-10.9483
▁proizvod	-10.9484
sili	-10.9485
ైన	-10.9485
▁(10	-10.9485
्स	-10.9486
nka	-10.9486
▁giới	-10.9488
あ	-10.9488
సు	-10.9488
▁prostor	-10.9489
ητ	-10.9492
ное	-10.9492
лег	-10.9493
දී	-10.9494
▁ü	-10.9496
tón	-10.9496
▁य	-10.9498
▁vagy	-10.9499
▁mono	-10.9504
sun	-10.9504
ging	-10.9504
▁Rim	-10.9507
▁coma	-10.9508
▁بار	-10.9511
ктор	-10.9512
itelj	-10.9513
ført	-10.9514
vaj	-10.9514
▁600	-10.9514
称	-10.9514
imu	-10.9516
▁porta	-10.9517
ք	-10.9517
▁anul	-10.9518
▁bon	-10.9519
िका	-10.952
бран	-10.952
▁Kim	-10.952
▁др	-10.9521
OS	-10.9521
▁세	-10.9521
што	-10.9524
ড়া	-10.9524
▁faz	-10.9525
слав	-10.9527
▁noong	-10.9527
▁especial	-10.9528
cken	-10.9531
yen	-10.9531
▁един	-10.9532
ew	-10.9533
tog	-10.9534
əm	-10.9538
▁које	-10.9539
▁gradu	-10.9539
▁החל	-10.954
▁beg	-10.9542
tada	-10.9543
▁خلال	-10.9545
▁دیگر	-10.9545
▁చేయ	-10.9546
мент	-10.9548
▁αρχ	-10.955
த்தி	-10.955
▁اما	-10.9551
▁arab	-10.9551
ének	-10.9552
врш	-10.9553
▁це	-10.9553
sit	-10.9554
דה	-10.9554
िंग	-10.9555
유	-10.9557
ाइ	-10.9558
ário	-10.9559
▁Mars	-10.9565
▁sezon	-10.9565
вели	-10.9566
roz	-10.9567
jana	-10.9569
әр	-10.957
opp	-10.9574
मि	-10.9576
ndar	-10.9576
jun	-10.9577
്യ	-10.9578
という	-10.9578
▁igra	-10.9578
▁клас	-10.9578
tér	-10.9578
▁skr	-10.9578
-20	-10.9579
fla	-10.9581
▁fait	-10.9581
城	-10.9581
▁új	-10.9583
▁tour	-10.9585
arı	-10.9585
ҫ	-10.9586
centr	-10.9586
▁прет	-10.9588
▁szer	-10.9589
▁lev	-10.9592
▁One	-10.9592
▁अन्य	-10.9592
èn	-10.9593
קר	-10.9593
▁gaz	-10.9594
illo	-10.9595
▁lập	-10.9596
ন্দ	-10.9597
ιλ	-10.9598
toria	-10.96
ार	-10.96
ष्ट	-10.96
▁strane	-10.9601
னர்	-10.9601
▁Κα	-10.9601
лат	-10.9602
▁সম্	-10.9602
▁khu	-10.9604
▁مس	-10.9605
▁הי	-10.9607
nsa	-10.9608
rii	-10.9609
нер	-10.9611
-9	-10.9612
▁kritik	-10.9613
▁суд	-10.9614
▁né	-10.9615
▁viol	-10.962
рен	-10.962
▁இந்திய	-10.9622
▁hiri	-10.9623
▁njen	-10.9626
▁hasta	-10.9627
▁عدد	-10.9627
▁descri	-10.9627
íð	-10.9628
رف	-10.963
▁smrti	-10.963
ľa	-10.9631
▁preko	-10.9632
▁వా	-10.9632
ttiin	-10.9633
cido	-10.9633
stor	-10.9633
ók	-10.9635
okat	-10.9635
▁בו	-10.9637
fic	-10.9638
▁मि	-10.9638
ണ്ട	-10.9639
▁Jen	-10.964
kes	-10.9641
dek	-10.9642
రే	-10.9642
Na	-10.9643
▁Lang	-10.9643
▁Lib	-10.9644
ters	-10.9644
gis	-10.9646
ール	-10.9646
▁උ	-10.9646
рим	-10.9647
▁milion	-10.9649
ology	-10.965
esse	-10.9654
iques	-10.9654
▁dette	-10.9657
gues	-10.9658
▁uno	-10.9658
▁ενώ	-10.9658
▁mun	-10.9658
▁rằng	-10.9658
▁more	-10.9659
▁rit	-10.9659
доб	-10.966
tör	-10.966
chu	-10.9662
▁सम	-10.9662
▁sine	-10.9662
dha	-10.9665
råd	-10.9665
▁Best	-10.9666
さ	-10.9673
ησε	-10.9674
▁također	-10.9674
▁Len	-10.9675
děl	-10.9676
▁систем	-10.9677
kap	-10.9677
▁שנ	-10.9677
quer	-10.9678
적인	-10.9679
▁kus	-10.968
▁פר	-10.9681
سي	-10.9682
▁muut	-10.9683
اك	-10.9684
вали	-10.9685
SS	-10.9685
інде	-10.9686
▁Bab	-10.9686
oon	-10.9686
צ	-10.9686
▁1907	-10.9687
ச்ச	-10.9688
▁chủ	-10.9688
▁υπο	-10.9688
▁situa	-10.9688
点	-10.9689
ిక	-10.9689
tallet	-10.9691
тно	-10.9693
psi	-10.9698
▁פי	-10.9699
▁tie	-10.9699
▁모	-10.97
▁High	-10.9701
Be	-10.9701
owe	-10.9703
▁Bau	-10.9704
▁pil	-10.9704
▁прави	-10.9705
▁महा	-10.9706
bak	-10.9707
ffen	-10.9708
sť	-10.9708
近	-10.9708
кә	-10.9708
▁він	-10.9709
▁China	-10.9709
▁నా	-10.9711
田	-10.9712
ств	-10.9713
▁Ә	-10.9713
▁kab	-10.9713
лся	-10.9713
▁present	-10.9715
dist	-10.9715
2012	-10.9717
▁Jack	-10.9719
ි	-10.9721
▁kommun	-10.9722
קה	-10.9722
יל	-10.9723
valt	-10.9728
ches	-10.9728
▁Press	-10.9729
čio	-10.973
mena	-10.9731
▁valor	-10.9731
阿	-10.9732
▁내	-10.9733
▁చే	-10.9735
uel	-10.9738
▁py	-10.9738
▁مح	-10.9738
рав	-10.9739
▁Regi	-10.9741
תה	-10.9741
▁Sul	-10.9743
еле	-10.9744
ship	-10.9744
բ	-10.9746
중	-10.9748
發	-10.9751
这	-10.9753
klo	-10.9756
社	-10.9758
▁sup	-10.9759
▁Bou	-10.9764
еж	-10.9765
ంట	-10.9765
زو	-10.9765
শা	-10.9768
▁남	-10.9769
▁ایران	-10.9769
▁struktur	-10.9769
▁rom	-10.977
▁tiên	-10.9771
▁भाषा	-10.9771
▁cos	-10.9771
▁도	-10.9772
റ്റ	-10.9772
An	-10.9772
▁labor	-10.9772
▁gru	-10.9773
нс	-10.9775
▁Angli	-10.9776
▁mogu	-10.9776
▁tự	-10.9777
▁tren	-10.9779
সে	-10.9779
▁hợp	-10.9779
anie	-10.9781
Ш	-10.9781
▁Ни	-10.9782
lichen	-10.9784
tani	-10.9786
▁bằng	-10.9786
종	-10.9786
選	-10.9788
ড়	-10.979
▁nog	-10.9791
▁Pel	-10.9791
▁result	-10.9791
pot	-10.9791
▁Bon	-10.9791
▁glu	-10.9792
gled	-10.9794
▁закон	-10.9796
▁Си	-10.9796
azio	-10.9797
zzo	-10.9797
lade	-10.9797
mé	-10.9798
σσ	-10.9799
гән	-10.9799
teko	-10.98
sio	-10.9802
ック	-10.9805
▁einen	-10.9806
▁phần	-10.9811
▁ф	-10.9814
jena	-10.9814
▁Bukid	-10.9816
eria	-10.9816
pok	-10.9816
рал	-10.9817
▁توسط	-10.9818
escu	-10.9819
nico	-10.9819
arak	-10.982
ნ	-10.9821
▁Dre	-10.9821
loj	-10.9821
erade	-10.9821
▁করতে	-10.9827
mil	-10.9827
yi	-10.9828
kit	-10.983
▁Ly	-10.983
▁Long	-10.9832
ovej	-10.9833
ির	-10.9833
▁Europ	-10.9834
▁Edward	-10.9836
ions	-10.9837
▁ќе	-10.9837
▁personal	-10.9837
▁//	-10.9837
▁kasnije	-10.9837
ství	-10.9839
▁बे	-10.9839
▁mesto	-10.9841
లీ	-10.9842
▁maka	-10.9843
дав	-10.9844
ლ	-10.9844
▁Kanada	-10.9845
▁tap	-10.9846
▁उत्तर	-10.9846
▁presenta	-10.9846
′00″	-10.9846
▁इसके	-10.9846
2000	-10.9848
▁kuulu	-10.9849
كس	-10.9851
ভি	-10.9852
▁ഒരു	-10.9852
রু	-10.9856
чин	-10.9856
▁main	-10.9857
mission	-10.9858
▁(13	-10.986
ビ	-10.9862
פה	-10.9862
▁posta	-10.9862
▁ర	-10.9863
irao	-10.9863
ива	-10.9863
lut	-10.9864
▁2010,	-10.9865
tty	-10.9867
▁Green	-10.9868
τι	-10.9872
▁장	-10.9872
utta	-10.9873
▁comun	-10.9873
▁kvin	-10.9873
ką	-10.9874
▁Day	-10.9875
کس	-10.9877
शन	-10.9877
▁Amb	-10.9882
ač	-10.9883
▁permet	-10.9883
town	-10.9884
pta	-10.9884
▁форм	-10.9884
ации	-10.9886
▁काम	-10.9886
οσ	-10.9888
▁familie	-10.9888
▁Sve	-10.9889
піс	-10.989
▁Leta	-10.9891
ox	-10.9892
력	-10.9892
▁student	-10.9894
▁rang	-10.9895
жу	-10.9895
tol	-10.9897
▁fill	-10.9899
▁свој	-10.9901
▁баш	-10.9903
▁terra	-10.9903
▁đội	-10.9903
ач	-10.9909
رات	-10.9909
▁mere	-10.9909
ാണ്	-10.991
▁է	-10.9912
rou	-10.9916
▁Eg	-10.9918
mini	-10.9919
kri	-10.9919
▁ise	-10.992
▁Temp	-10.992
▁rin	-10.9921
▁mult	-10.9921
▁log	-10.9921
thy	-10.9923
जन	-10.9923
mod	-10.9925
рә	-10.9925
적으로	-10.9926
ване	-10.9926
سو	-10.9928
hm	-10.9928
▁viz	-10.9929
▁αντι	-10.9932
jom	-10.9933
▁dass	-10.9933
ề	-10.9934
сна	-10.9934
кен	-10.9935
▁Glo	-10.9935
дор	-10.9936
ány	-10.9936
uj	-10.9937
心	-10.9937
▁एवं	-10.9938
▁hade	-10.994
tore	-10.994
ијата	-10.9942
AS	-10.9943
▁(6	-10.9943
മാ	-10.9944
մ	-10.9944
운	-10.9944
▁Кор	-10.9945
мог	-10.9945
main	-10.9947
▁bin	-10.9949
දා	-10.995
▁היו	-10.9951
▁havia	-10.9951
activ	-10.9954
▁eftir	-10.9955
▁out	-10.9956
ъл	-10.9957
▁Kong	-10.996
punkt	-10.9961
▁बन	-10.9962
▁isto	-10.9963
دة	-10.9964
▁ले	-10.9964
గి	-10.9964
▁Trong	-10.9965
▁oh	-10.9966
▁Vin	-10.9968
اخ	-10.9968
▁dopo	-10.9969
▁Kos	-10.997
اری	-10.9971
▁þar	-10.9971
▁প্রতি	-10.9974
▁Zeit	-10.9975
ји	-10.9975
▁সি	-10.9977
ൊ	-10.9978
ŭ	-10.9978
▁хи	-10.998
vå	-10.998
▁vlast	-10.9981
▁fut	-10.9984
স্ত	-10.9985
рет	-10.9987
▁אר	-10.9987
rer	-10.9988
खा	-10.9989
▁31.	-10.999
건	-10.9991
▁процес	-10.9991
stig	-10.9991
ttä	-10.9991
▁start	-10.9991
▁japon	-10.9996
▁рад	-10.9996
▁مثل	-10.9996
▁german	-10.9997
▁κατ	-11
పా	-11.0003
larının	-11.0003
חת	-11.0003
ház	-11.0006
ull	-11.0008
▁Bank	-11.0008
Mi	-11.0009
▁Му	-11.001
▁välja	-11.0012
анд	-11.0012
pir	-11.0012
esa	-11.0015
্ম	-11.0015
vie	-11.0018
字	-11.002
çon	-11.002
yı	-11.0021
ování	-11.0023
▁milli	-11.0027
▁உள்ள	-11.003
ான	-11.003
▁thị	-11.0031
▁Spa	-11.0032
▁ça	-11.0033
ела	-11.0033
ыз	-11.0035
▁çok	-11.0036
記	-11.0036
▁Ту	-11.0036
▁filme	-11.0038
▁Fle	-11.0038
дей	-11.0038
▁grav	-11.0038
▁сайт	-11.0039
음	-11.004
גי	-11.004
লো	-11.0041
▁Vene	-11.0041
hé	-11.0041
scrit	-11.0043
▁fő	-11.0043
▁1909	-11.0043
▁Plat	-11.0044
ास	-11.0044
▁között	-11.0044
ান	-11.0045
▁செ	-11.0045
ически	-11.0045
cchi	-11.0045
▁මෙම	-11.0045
▁교	-11.0046
rok	-11.0046
эй	-11.0048
▁остров	-11.0048
▁Us	-11.0049
raf	-11.005
cció	-11.0051
巴	-11.0051
بت	-11.0052
bos	-11.0054
▁veliko	-11.0055
▁conserva	-11.0055
常	-11.0057
אור	-11.0057
ningar	-11.0057
▁inspir	-11.006
▁یکی	-11.0061
▁χ	-11.0062
قي	-11.0063
▁vien	-11.0063
ева	-11.0067
▁Stadt	-11.0067
▁havas	-11.0069
დი	-11.007
▁kann	-11.0072
بع	-11.0074
▁2008,	-11.0074
모	-11.0075
ppa	-11.0076
▁οποίο	-11.0076
яс	-11.0077
▁मिल	-11.0078
▁מס	-11.0078
▁kli	-11.0078
▁kanal	-11.0079
▁Ά	-11.0079
▁kü	-11.008
▁код	-11.008
tino	-11.0082
▁له	-11.0082
يق	-11.0083
ratu	-11.0084
▁This	-11.0084
▁ек	-11.0087
şi	-11.0088
▁பி	-11.0089
▁(«	-11.009
▁thống	-11.009
▁sek	-11.0093
▁direkt	-11.0094
ети	-11.0095
▁senere	-11.0096
▁Yo	-11.0096
нан	-11.0096
▁Kö	-11.0096
ολ	-11.0096
ං	-11.0097
▁sex	-11.0097
rol	-11.0098
▁Jos	-11.0099
hand	-11.01
dzi	-11.0102
務	-11.0102
جل	-11.0102
ére	-11.0104
▁että	-11.0104
pé	-11.0104
▁الخ	-11.0105
▁hlav	-11.0105
▁sna	-11.0106
fé	-11.0106
pli	-11.0107
▁zwei	-11.0107
ả	-11.0107
дава	-11.011
они	-11.011
就	-11.011
▁recon	-11.0111
▁já	-11.0112
schap	-11.0113
▁competi	-11.0114
▁just	-11.0115
jih	-11.0116
גל	-11.0117
Co	-11.0117
역	-11.0118
▁בי	-11.0119
▁Point	-11.0119
ington	-11.0119
▁List	-11.0119
▁हुए	-11.0119
иш	-11.0122
▁pam	-11.0122
▁пу	-11.0123
▁وقد	-11.0123
segu	-11.0125
▁υπ	-11.0125
נד	-11.0126
▁kang	-11.0129
gut	-11.0129
▁pea	-11.0129
πλ	-11.013
rke	-11.0131
ירה	-11.0131
포	-11.0131
▁anima	-11.0134
py	-11.0135
ões	-11.0136
вез	-11.0137
▁lượng	-11.0137
kala	-11.0138
vano	-11.0139
▁jedna	-11.0139
チ	-11.0139
lok	-11.014
ossa	-11.014
▁وفي	-11.0142
▁Gy	-11.0143
▁Open	-11.0143
лем	-11.0143
mani	-11.0145
▁abril	-11.0146
κά	-11.0147
▁aby	-11.0148
arekin	-11.0152
▁también	-11.0152
▁considera	-11.0153
lec	-11.0154
dores	-11.0156
etti	-11.0157
syon	-11.0157
▁3,	-11.0157
▁1904	-11.0158
2006	-11.0159
долж	-11.0159
uki	-11.0161
▁Fort	-11.0161
再	-11.0162
▁Juni	-11.0164
try	-11.0165
▁وم	-11.0167
জা	-11.0167
▁във	-11.0168
▁2011,	-11.0169
eerd	-11.017
▁начал	-11.017
می	-11.017
▁XVI	-11.0172
tvor	-11.0172
stęp	-11.0173
stve	-11.0173
▁Liber	-11.0173
front	-11.0173
jeli	-11.0174
▁Accesat	-11.0174
▁cest	-11.0174
ụ	-11.0175
站	-11.0175
వే	-11.0177
νη	-11.0177
▁Song	-11.0177
▁lett	-11.0178
igis	-11.0178
▁불	-11.0178
▁homo	-11.0179
▁professor	-11.0179
ंस	-11.0181
נק	-11.0181
▁शहर	-11.0182
▁System	-11.0183
▁Bah	-11.0185
ശ	-11.0186
▁años	-11.0186
Ne	-11.0188
చి	-11.0188
spor	-11.0189
▁نظر	-11.0191
בל	-11.0193
▁England	-11.0194
εία	-11.0195
ието	-11.0196
▁kimi	-11.0197
parte	-11.0198
rado	-11.0198
▁teatr	-11.0198
quel	-11.0199
mény	-11.02
ції	-11.02
▁asteroid	-11.0201
▁الد	-11.0203
▁Of	-11.0203
▁Movie	-11.0203
িং	-11.0204
tě	-11.0204
▁거	-11.0204
官	-11.0206
▁tog	-11.0206
▁मुख्य	-11.0209
mata	-11.021
▁emp	-11.0212
თა	-11.0212
हरू	-11.0212
ється	-11.0213
erd	-11.0214
ński	-11.0215
RI	-11.0216
ად	-11.0218
уз	-11.022
لات	-11.0221
▁Medi	-11.0221
▁dua	-11.0222
టు	-11.0222
▁stan	-11.0222
▁venne	-11.0223
laz	-11.0224
▁atom	-11.0225
þ	-11.0226
▁Kri	-11.0226
كت	-11.0228
szer	-11.0228
천	-11.0228
Ho	-11.0229
▁сезон	-11.0231
▁Τα	-11.0232
▁reform	-11.0232
▁mang	-11.0237
קל	-11.0238
▁sünd	-11.0238
katu	-11.0239
▁Кра	-11.024
▁Nar	-11.0241
▁пр	-11.0243
금	-11.0244
জি	-11.0245
▁सो	-11.0247
▁مج	-11.0248
cil	-11.0249
*	-11.025
▁Bio	-11.0252
ද්	-11.0253
apa	-11.0254
table	-11.0254
ψ	-11.0256
dele	-11.0257
▁Dol	-11.0257
áva	-11.0258
▁وا	-11.026
▁oblasti	-11.0262
▁하	-11.0263
To	-11.0263
▁ша	-11.0264
עת	-11.0265
шир	-11.0265
▁Ст	-11.0266
wit	-11.0266
mara	-11.0266
▁trop	-11.0266
▁začal	-11.0267
дра	-11.0268
unu	-11.0268
▁Hen	-11.0269
stava	-11.027
οπ	-11.0271
enberg	-11.0272
dung	-11.0273
▁경	-11.0276
▁ак	-11.0276
▁genom	-11.0277
▁Bei	-11.0277
ිය	-11.0277
opa	-11.0278
▁seri	-11.0278
▁Luc	-11.0278
▁outros	-11.028
maan	-11.0281
▁sit	-11.0281
▁neo	-11.0281
▁XVIII	-11.0283
ész	-11.0283
▁koloni	-11.0284
▁देश	-11.0287
kki	-11.0287
▁bai	-11.0288
got	-11.0288
რა	-11.0289
ето	-11.029
spr	-11.029
ezh	-11.0292
▁2006,	-11.0293
▁rezultat	-11.0293
ान	-11.0295
arch	-11.0296
جا	-11.0297
▁Max	-11.0298
णे	-11.0298
▁Kh	-11.0299
යට	-11.0299
ξη	-11.0299
▁출	-11.0299
گر	-11.0299
ঠ	-11.0299
cke	-11.03
hop	-11.03
cident	-11.0301
▁Gene	-11.0301
тин	-11.0302
▁popisu	-11.0303
seks	-11.0304
tzea	-11.0305
lekt	-11.0305
▁வா	-11.0307
▁nhận	-11.0308
view	-11.0308
zki	-11.0311
▁250	-11.0312
-14	-11.0314
▁קו	-11.0315
▁Prema	-11.0316
сә	-11.0316
▁úr	-11.0318
▁Мі	-11.0318
グ	-11.0321
éc	-11.0322
▁пл	-11.0323
▁anys	-11.0323
scen	-11.0324
▁Will	-11.0325
▁jih	-11.0325
馬	-11.0325
▁primo	-11.0327
dde	-11.0329
rje	-11.0329
ため	-11.033
▁округ	-11.033
戰	-11.033
برا	-11.0332
▁कहा	-11.0333
▁Vir	-11.0333
▁conta	-11.0333
ाने	-11.0333
tü	-11.0333
▁എ	-11.0338
comp	-11.0339
تها	-11.0339
▁থাকে	-11.034
पुर	-11.0341
pse	-11.0341
▁Efter	-11.0342
▁fl	-11.0344
▁אך	-11.0345
aris	-11.0348
ద్	-11.0348
▁vit	-11.0348
τό	-11.035
ונות	-11.035
▁शि	-11.035
▁आहेत	-11.0352
▁elő	-11.0354
▁meer	-11.0355
▁Ос	-11.0356
ovali	-11.0356
بال	-11.0357
▁Trung	-11.0359
▁temps	-11.0361
▁Jahr	-11.0362
eck	-11.0362
▁Blo	-11.0362
▁viet	-11.0362
▁rast	-11.0363
▁Ara	-11.0366
бри	-11.0368
ৎ	-11.0368
יא	-11.0369
▁Grad	-11.037
▁todos	-11.0371
рв	-11.0372
▁thường	-11.0372
сов	-11.0373
ජ	-11.0375
▁ef	-11.0375
▁Hil	-11.0376
▁gew	-11.0376
達	-11.0376
▁800	-11.0377
ాలను	-11.0377
olu	-11.0379
▁ஏ	-11.0381
▁בש	-11.0382
▁Spring	-11.0385
▁produkt	-11.0386
▁eigen	-11.0386
▁pove	-11.0386
Te	-11.0388
нија	-11.0388
شی	-11.0391
▁meta	-11.0391
дың	-11.0391
flu	-11.0393
▁č	-11.0397
itar	-11.0398
▁Stan	-11.0399
last	-11.04
▁Mala	-11.0401
యి	-11.0401
▁store	-11.0402
朝	-11.0403
spect	-11.0403
eel	-11.0404
▁epi	-11.0404
ഷ	-11.0404
▁među	-11.0406
まで	-11.041
▁hin	-11.041
太	-11.0411
vide	-11.0412
▁zakon	-11.0413
▁Mei	-11.0414
▁publi	-11.0415
▁trình	-11.0415
던	-11.0416
זה	-11.0418
тара	-11.0418
uks	-11.0418
▁sik	-11.042
▁αυτό	-11.0421
▁taj	-11.0422
방	-11.0424
tý	-11.0424
▁2007,	-11.0425
ograf	-11.0428
▁кри	-11.0429
жд	-11.0431
▁után	-11.0431
σαν	-11.0431
▁servi	-11.0434
▁Alexandr	-11.0438
parti	-11.0438
ήθηκε	-11.0438
നി	-11.0438
▁aki	-11.0439
▁בא	-11.0441
▁Tai	-11.0441
чет	-11.0444
meter	-11.0446
▁trước	-11.0446
ём	-11.0446
рас	-11.0447
▁бас	-11.0447
živ	-11.0447
▁Flor	-11.0448
hoz	-11.0448
▁ഈ	-11.0448
skem	-11.0449
▁پا	-11.0449
sinde	-11.045
nz	-11.0451
صل	-11.0451
టీ	-11.0452
стат	-11.0452
▁been	-11.0453
▁ছিলেন	-11.0454
עי	-11.0454
▁UEFA	-11.0455
因	-11.0455
▁jou	-11.0458
▁kin	-11.0459
ots	-11.0459
EC	-11.046
niku	-11.046
lei	-11.046
bě	-11.0461
टर	-11.0462
▁Henri	-11.0464
▁universitet	-11.0466
▁haar	-11.0466
ĝa	-11.0467
čia	-11.0468
▁đi	-11.0469
որ	-11.0469
вър	-11.0469
▁bank	-11.047
ální	-11.0471
▁университет	-11.0472
соб	-11.0472
talet	-11.0473
▁hội	-11.0474
hov	-11.0474
▁East	-11.0474
ഗ	-11.0477
ides	-11.0478
вање	-11.0478
க்கும்	-11.048
lain	-11.0483
▁ध	-11.0483
▁liga	-11.0484
uv	-11.0485
▁않	-11.0485
ește	-11.0486
ья	-11.0489
ними	-11.0489
чна	-11.049
▁đại	-11.049
زي	-11.0491
ික	-11.0491
에게	-11.0492
▁bahasa	-11.0492
▁آمریکا	-11.0492
▁druge	-11.0493
거	-11.0493
▁미	-11.0495
▁trup	-11.0497
éncia	-11.0498
▁Sport	-11.05
▁பிர	-11.0502
▁gali	-11.0502
▁Leon	-11.0503
▁lik	-11.0506
▁unua	-11.0506
ativ	-11.0508
ovat	-11.0508
▁יותר	-11.0508
rė	-11.0509
▁উপ	-11.0511
▁jaroj	-11.0512
▁সময়	-11.0515
▁Sub	-11.0516
vern	-11.0517
lles	-11.0517
jø	-11.0517
rei	-11.0519
▁cơ	-11.0522
ière	-11.0523
оч	-11.0525
скім	-11.0526
ihin	-11.0529
öd	-11.053
జ్	-11.053
vere	-11.0531
tique	-11.0532
林	-11.0534
ics	-11.0537
חי	-11.0537
wel	-11.0537
ομ	-11.0538
▁novembre	-11.0539
áci	-11.054
ключ	-11.054
עות	-11.0541
तो	-11.0541
جو	-11.0541
▁lain	-11.0542
▁veel	-11.0543
▁edil	-11.0544
▁Asia	-11.0546
pag	-11.0547
▁Bis	-11.0547
ări	-11.0547
▁jer	-11.055
2013	-11.0552
島	-11.0553
οντας	-11.0553
▁где	-11.0554
рија	-11.0555
▁niin	-11.0556
▁anterior	-11.0558
▁treba	-11.0559
pod	-11.0561
lif	-11.0562
რი	-11.0562
fall	-11.0562
▁monument	-11.0563
▁slav	-11.0565
▁סי	-11.0566
▁дзе	-11.0568
dhë	-11.0568
मध्ये	-11.057
ӣ	-11.057
yor	-11.0571
▁giải	-11.0571
odo	-11.0572
▁Antonio	-11.0572
time	-11.0573
去	-11.0573
prov	-11.0574
▁phố	-11.0575
▁بعض	-11.0576
viz	-11.0577
iser	-11.0579
mble	-11.0579
▁pirm	-11.058
qi	-11.0582
▁VII	-11.0583
▁hod	-11.0585
▁때	-11.0586
▁여	-11.0588
▁Ai	-11.059
aires	-11.0591
▁mint	-11.0592
følge	-11.0593
▁والم	-11.0593
æk	-11.0593
▁essere	-11.0595
▁música	-11.0595
стр	-11.0595
▁Liga	-11.0595
II	-11.0595
aju	-11.0596
क्स	-11.0596
пло	-11.0597
αδ	-11.0598
▁diplom	-11.0599
isë	-11.06
یا	-11.0601
vár	-11.0601
ợ	-11.0602
▁lid	-11.0603
2014	-11.0604
▁IC	-11.0604
死	-11.0605
нк	-11.0605
ntes	-11.0605
▁також	-11.0606
hre	-11.0609
▁bolo	-11.0609
▁Hand	-11.0609
стап	-11.0609
ію	-11.0612
kova	-11.0612
初	-11.0613
▁शा	-11.0614
}{	-11.0619
▁xe	-11.0619
▁najbolj	-11.0619
▁हि	-11.062
ків	-11.0621
öld	-11.0621
▁color	-11.0621
▁사용	-11.0621
inas	-11.0621
veg	-11.0622
kata	-11.0622
ína	-11.0623
Vi	-11.0623
▁Vil	-11.0624
জন	-11.0624
ром	-11.0625
▁Boy	-11.0625
cja	-11.0626
тка	-11.0626
▁kunst	-11.0627
sport	-11.0628
▁kết	-11.0628
Ε	-11.063
▁membro	-11.0632
▁chức	-11.0633
▁plaats	-11.0634
▁sekä	-11.0634
将	-11.0634
▁gör	-11.0637
▁jud	-11.0637
▁Akademi	-11.0639
tang	-11.0641
▁서	-11.0642
▁genera	-11.0642
▁многу	-11.0643
▁väl	-11.0645
▁bile	-11.0646
itan	-11.0647
bau	-11.0648
මා	-11.0651
moc	-11.0653
▁కు	-11.0653
実	-11.0654
مثل	-11.0655
코	-11.0656
بات	-11.0657
zés	-11.0658
▁bylo	-11.0658
стор	-11.0658
сли	-11.0659
▁két	-11.0659
ES	-11.0661
egy	-11.0661
▁studio	-11.0662
ტი	-11.0663
गर	-11.0664
ады	-11.0664
dade	-11.0664
කු	-11.0665
आ	-11.0665
êm	-11.0666
▁jaar	-11.0668
يك	-11.067
лай	-11.0671
▁स्	-11.0672
mper	-11.0673
ക്ഷ	-11.0673
iai	-11.0676
▁Iran	-11.0676
▁Francia	-11.0676
uden	-11.0677
▁노	-11.0678
SP	-11.068
bed	-11.0681
▁№	-11.0681
τρ	-11.0683
اش	-11.0683
αγ	-11.0683
▁Time	-11.0684
يين	-11.0685
▁znan	-11.0686
▁distin	-11.0688
▁کا	-11.0688
кот	-11.0689
më	-11.0691
▁перш	-11.0691
ակ	-11.0694
▁iar	-11.0695
▁Res	-11.0695
etto	-11.0696
▁Dio	-11.0698
ью	-11.0699
여	-11.0699
▁člen	-11.07
생	-11.07
▁δύο	-11.0701
లకు	-11.0702
فی	-11.0702
▁tidligere	-11.0703
▁shk	-11.0703
▁Сер	-11.0704
▁उन्होंने	-11.0705
▁Latin	-11.0707
▁College	-11.0707
лес	-11.071
▁Has	-11.0714
sad	-11.0716
▁adı	-11.0718
ত্ত	-11.0718
▁کنند	-11.0721
판	-11.0724
ема	-11.0724
τέ	-11.0725
nez	-11.0727
▁Сан	-11.0727
▁ച	-11.0728
كا	-11.073
▁fon	-11.0731
▁তা	-11.0731
ుల	-11.0732
vær	-11.0732
▁fir	-11.0733
▁Sverige	-11.0733
ერ	-11.0734
▁eus	-11.0734
양	-11.0736
ohet	-11.0736
lung	-11.0737
AL	-11.0738
യും	-11.0738
kl	-11.074
▁وب	-11.074
وه	-11.0741
▁tiếp	-11.0741
say	-11.0742
▁Лі	-11.0743
▁Kla	-11.0744
▁Ис	-11.0744
að	-11.0745
aine	-11.0747
ティ	-11.0747
▁lor	-11.0747
סט	-11.0748
िल	-11.0749
מר	-11.0749
▁1903	-11.0751
▁ŝ	-11.0752
čko	-11.0753
▁bomb	-11.0753
▁sido	-11.0753
▁مو	-11.0757
▁fiind	-11.0758
ait	-11.076
▁equipo	-11.076
▁pik	-11.076
-13	-11.0762
ліся	-11.0762
▁hom	-11.0762
ned	-11.0763
ssel	-11.0764
▁versi	-11.0764
En	-11.0767
ath	-11.0767
ווי	-11.0769
dent	-11.077
πα	-11.0771
רת	-11.0771
SC	-11.0773
▁sản	-11.0773
▁situat	-11.0774
stvu	-11.0774
љу	-11.0774
adores	-11.0774
▁бор	-11.0774
▁53	-11.0776
▁కో	-11.0778
liz	-11.0779
▁ап	-11.078
מות	-11.0782
yu	-11.0782
▁þess	-11.0783
▁Johann	-11.0783
▁ט	-11.0783
oru	-11.0783
▁ত	-11.0783
లె	-11.0784
CA	-11.0785
мир	-11.0785
▁inglês	-11.0786
ое	-11.0787
▁Tak	-11.0789
▁Danmark	-11.079
▁око	-11.0791
▁pass	-11.0791
▁원	-11.0792
▁있	-11.0793
serv	-11.0793
èc	-11.0793
▁রা	-11.0794
రం	-11.0795
▁internet	-11.0795
受	-11.0796
▁sẽ	-11.0796
ness	-11.0801
▁libro	-11.0803
оль	-11.0804
▁θ	-11.0804
र्ड	-11.0806
ového	-11.0807
▁dog	-11.0808
▁klo	-11.0808
فع	-11.081
ව්	-11.081
▁रो	-11.081
ég	-11.0811
▁Company	-11.0813
▁tradu	-11.0814
▁прв	-11.0815
зем	-11.0815
pai	-11.0816
▁말	-11.0816
▁okup	-11.0817
▁déi	-11.0817
ifica	-11.0817
ങ്ങൾ	-11.0819
ιών	-11.0819
IC	-11.082
ेट	-11.082
▁obr	-11.082
dov	-11.0822
▁bygg	-11.0827
治	-11.0828
▁ŝi	-11.083
▁ము	-11.0831
▁관	-11.0832
אס	-11.0833
▁cro	-11.0833
▁promo	-11.0833
zni	-11.0835
teli	-11.0836
▁kla	-11.0837
▁бр	-11.0837
▁داشت	-11.0839
тите	-11.0839
▁interna	-11.0839
▁пат	-11.084
imento	-11.084
wis	-11.084
3)	-11.0841
▁کرده	-11.0842
كر	-11.0843
▁Char	-11.0843
▁hele	-11.0845
পা	-11.0845
larını	-11.0847
▁ජ	-11.0847
▁ljudi	-11.0848
slu	-11.0849
turi	-11.0849
wood	-11.085
чат	-11.0851
▁kost	-11.0853
▁islam	-11.0854
▁seperti	-11.0854
▁dne	-11.0854
ඳ	-11.0855
▁הג	-11.0855
▁orden	-11.0855
▁ndër	-11.0855
▁Play	-11.0856
работ	-11.0857
תח	-11.0858
▁(11	-11.0858
▁Kaz	-11.0859
▁област	-11.086
▁thủ	-11.086
τος	-11.0862
▁soci	-11.0862
سط	-11.0862
ары	-11.0863
▁kis	-11.0863
tam	-11.0864
fur	-11.0865
▁Rei	-11.0865
▁Kel	-11.0866
ег	-11.0866
alia	-11.0867
サ	-11.0868
▁hag	-11.0868
▁način	-11.0869
2005	-11.0871
▁koncert	-11.0871
▁reprezenta	-11.0872
▁aos	-11.0873
ването	-11.0873
নো	-11.0874
▁norte	-11.0874
шо	-11.0875
ję	-11.0876
▁հ	-11.0877
vien	-11.0877
▁act	-11.0878
inci	-11.0878
▁বছর	-11.0879
znač	-11.0879
І	-11.0881
tyr	-11.0881
▁روی	-11.0881
rav	-11.0881
▁már	-11.0882
ряд	-11.0883
▁წელს	-11.0884
ння	-11.0884
னா	-11.0884
▁3:	-11.0884
abb	-11.0885
stop	-11.0885
▁dintre	-11.0887
▁గా	-11.0887
▁Ev	-11.0888
▁Final	-11.0889
රු	-11.0889
▁परि	-11.089
ছে	-11.0891
▁álbum	-11.0891
▁secara	-11.0895
▁1991.	-11.0895
▁indica	-11.0896
▁Fal	-11.0897
gă	-11.0899
ரிய	-11.0899
ഡ	-11.0899
亞	-11.0899
▁ஆகும்	-11.09
▁Australia	-11.09
руш	-11.0905
▁koos	-11.0907
▁강	-11.0907
ията	-11.0907
▁bot	-11.0909
obi	-11.091
جز	-11.091
▁cont	-11.0911
▁нов	-11.0911
vý	-11.0911
▁Pont	-11.0912
тәр	-11.0913
IN	-11.0913
وش	-11.0914
től	-11.0914
▁svensk	-11.0916
▁Prin	-11.0916
▁Britani	-11.092
▁work	-11.0923
▁apar	-11.0924
▁samme	-11.0924
體	-11.0925
kali	-11.0928
عر	-11.093
▁finale	-11.0931
▁jar	-11.0933
ạn	-11.0933
kó	-11.0933
▁lehen	-11.0933
rul	-11.0934
инг	-11.0938
mbe	-11.0938
▁alta	-11.0938
▁ඇති	-11.0942
▁জন	-11.0942
eran	-11.0943
▁status	-11.0945
這	-11.0946
▁सकता	-11.0946
▁2009,	-11.0947
ίκ	-11.0948
So	-11.0949
स्प	-11.095
ზე	-11.095
▁역	-11.0952
▁Feder	-11.0952
ration	-11.0952
ിച്ച	-11.0953
▁பல	-11.0953
гр	-11.0955
▁savo	-11.0956
gger	-11.0958
▁século	-11.0959
など	-11.0959
әт	-11.0962
ృ	-11.0963
ило	-11.0963
mán	-11.0963
mik	-11.0966
υς	-11.0967
ansa	-11.0967
▁prva	-11.0969
▁عمل	-11.097
rim	-11.0971
ポ	-11.0971
ät	-11.0972
раб	-11.0972
▁arri	-11.0974
▁volta	-11.0974
▁также	-11.0975
тр	-11.0975
fik	-11.0976
İ	-11.0977
алі	-11.0978
▁particip	-11.0979
▁bizi	-11.0982
▁lanaw	-11.0983
▁مد	-11.0985
▁other	-11.0985
▁koju	-11.0986
▁Ја	-11.0987
내	-11.0988
▁Part	-11.0989
▁bos	-11.0989
ディ	-11.0989
▁trường	-11.0989
unun	-11.0991
▁Free	-11.0991
фер	-11.0994
था	-11.0994
▁vasta	-11.0994
tero	-11.0994
▁sent	-11.0994
▁کشور	-11.0995
শ্	-11.0996
▁Harry	-11.0998
▁segon	-11.0999
▁spel	-11.1
▁circ	-11.1
PA	-11.1001
▁திரு	-11.1001
stant	-11.1002
ম্ব	-11.1003
▁importante	-11.1004
▁pit	-11.1004
వర్	-11.1004
▁fikk	-11.1004
▁Awards	-11.1005
یز	-11.1005
Su	-11.1005
▁creat	-11.1006
ότητα	-11.1006
posit	-11.1006
evi	-11.1006
պ	-11.1009
▁бір	-11.101
▁karşı	-11.101
▁vai	-11.1011
టా	-11.1011
▁sob	-11.1011
ật	-11.1012
▁Bet	-11.1013
▁Bri	-11.1016
ノ	-11.1017
sione	-11.1018
Ge	-11.1019
िन	-11.1019
qa	-11.1021
바	-11.1021
cord	-11.1022
▁54	-11.1023
▁francés	-11.1027
labor	-11.1028
ád	-11.1028
ује	-11.1029
ρό	-11.103
цыя	-11.1031
▁lingua	-11.1031
▁ജ	-11.1032
▁この	-11.1033
▁Japon	-11.1033
▁Group	-11.1034
▁moi	-11.1035
hrad	-11.1036
eiros	-11.1036
▁vier	-11.1036
bild	-11.1037
уд	-11.1038
ally	-11.1039
▁Als	-11.1039
め	-11.104
▁Simon	-11.104
ël	-11.104
لح	-11.1042
夫	-11.1043
shëm	-11.1044
▁उस	-11.1044
▁term	-11.1046
nı	-11.1046
▁flor	-11.1046
▁superior	-11.1046
▁Entre	-11.1047
▁Гор	-11.1047
ának	-11.1051
▁Dé	-11.1051
▁2012,	-11.1052
بلغ	-11.1053
議	-11.1061
colo	-11.1061
▁sé	-11.1061
ible	-11.1063
▁druh	-11.1065
브	-11.1068
лом	-11.1068
▁توان	-11.1069
ന്ന	-11.1069
▁jaro	-11.1069
▁Foi	-11.1071
▁før	-11.1071
▁smatra	-11.1072
▁Bos	-11.1072
▁adapt	-11.1072
ग्	-11.1073
igt	-11.1074
ター	-11.1074
ojnë	-11.1075
tual	-11.1076
▁voz	-11.1076
린	-11.1078
script	-11.1079
аз	-11.108
▁nama	-11.108
▁إن	-11.1082
▁oper	-11.1084
wang	-11.1084
▁গা	-11.1084
▁брат	-11.1085
krig	-11.1085
放	-11.1087
▁rek	-11.1087
над	-11.1088
청	-11.1091
erer	-11.1091
▁format	-11.1093
▁disa	-11.1093
▁Mary	-11.1093
ета	-11.1095
▁Jar	-11.1095
更	-11.1095
mens	-11.1096
▁пут	-11.1097
▁Museum	-11.1098
ада	-11.1098
bū	-11.1099
лення	-11.1099
tettiin	-11.11
shë	-11.1101
▁princip	-11.1102
жан	-11.1104
ūn	-11.1105
dens	-11.1106
테	-11.1107
نش	-11.1107
نه	-11.1109
五	-11.1109
ലി	-11.1109
igas	-11.111
lect	-11.1111
वाद	-11.1111
нува	-11.1113
τική	-11.1114
▁Cons	-11.1114
já	-11.1114
uste	-11.1115
▁Vid	-11.1117
ιμ	-11.1118
▁Award	-11.1118
IT	-11.1119
ones	-11.1119
זי	-11.1119
▁novi	-11.1121
ị	-11.1121
now	-11.1122
ibi	-11.1122
koj	-11.1125
▁tik	-11.1126
кай	-11.1126
▁March	-11.1128
zien	-11.1129
▁bilang	-11.1129
▁punto	-11.1131
pte	-11.1131
▁право	-11.1132
छ	-11.1132
бел	-11.1133
owany	-11.1135
חל	-11.1135
▁evolu	-11.1136
▁Má	-11.1136
▁ს	-11.1136
lă	-11.1137
more	-11.1138
▁అని	-11.1138
▁pasa	-11.1139
▁파	-11.114
ুল	-11.114
▁ला	-11.1141
كن	-11.1143
annya	-11.1143
хан	-11.1144
▁tym	-11.1148
▁combat	-11.115
vari	-11.115
ray	-11.1151
政	-11.1151
lando	-11.1153
▁ktorá	-11.1153
▁iku	-11.1154
▁ז	-11.1154
▁Life	-11.1154
▁cao	-11.1154
▁fla	-11.1155
rap	-11.1156
▁tế	-11.1156
niki	-11.1156
čkog	-11.1156
kti	-11.1158
tą	-11.1161
تس	-11.1161
▁compar	-11.1161
ости	-11.1166
aĵoj	-11.1168
▁odnosno	-11.1168
▁Norge	-11.1169
▁jego	-11.117
▁lista	-11.117
ingu	-11.1172
vär	-11.1172
ült	-11.1173
لب	-11.1173
jeva	-11.1173
▁Sand	-11.1174
tsch	-11.1176
长	-11.1176
▁Pir	-11.1176
▁Chu	-11.1177
▁slik	-11.1178
ින්	-11.1179
kasadpan	-11.1179
▁ა	-11.1181
▁baina	-11.1184
indi	-11.1186
▁elle	-11.1187
ფ	-11.1188
一个	-11.1189
estre	-11.1189
וי	-11.1191
▁Jur	-11.1191
▁Durante	-11.1192
▁Bak	-11.1193
▁dute	-11.1195
▁gün	-11.1196
▁пла	-11.1197
වල	-11.1197
జి	-11.1199
▁predstavlja	-11.1199
兵	-11.12
ベ	-11.1201
aro	-11.1202
?)	-11.1202
diği	-11.1203
дина	-11.1203
▁show	-11.1203
▁जाती	-11.1205
研究	-11.1205
sió	-11.1206
▁mez	-11.1207
▁naziv	-11.1209
▁μετά	-11.1209
▁Ferr	-11.121
elser	-11.1211
ডি	-11.1214
▁Qua	-11.1215
жда	-11.1217
▁تحت	-11.1218
▁পরি	-11.1219
▁BBC	-11.122
lau	-11.122
වන	-11.1221
▁điều	-11.1222
에서는	-11.1223
âr	-11.1223
▁Friedrich	-11.1224
▁स्व	-11.1226
dak	-11.1226
omis	-11.1227
▁árið	-11.1227
viv	-11.1228
▁कई	-11.1229
▁nou	-11.123
▁bod	-11.1231
đ	-11.1231
ικός	-11.1232
ন্ত	-11.1233
石	-11.1234
schi	-11.1235
צו	-11.1235
▁fast	-11.1236
neb	-11.1236
шки	-11.1238
▁phía	-11.1238
نة	-11.1238
▁både	-11.1239
▁නො	-11.124
ற்று	-11.1241
gere	-11.1241
ケ	-11.1241
▁vastu	-11.1243
ił	-11.1244
▁Hitler	-11.1245
ность	-11.1247
▁Inc	-11.1247
▁hori	-11.1249
imp	-11.125
▁склад	-11.1251
நா	-11.1253
▁musical	-11.1253
▁Mé	-11.1255
ским	-11.1256
čel	-11.1257
可以	-11.1258
▁Bad	-11.1258
කි	-11.1258
▁56	-11.1258
노	-11.1259
▁tuli	-11.1259
ního	-11.126
ழு	-11.126
▁foram	-11.1261
▁হয়েছে	-11.1261
プ	-11.1261
セ	-11.1263
▁tới	-11.1263
alle	-11.1263
pati	-11.1265
▁1999.	-11.1266
▁viene	-11.1266
мест	-11.1267
▁brat	-11.1268
▁õ	-11.1269
кли	-11.1269
▁elektron	-11.127
ppi	-11.127
네	-11.127
▁sein	-11.127
▁strani	-11.1271
চার	-11.1272
결	-11.1273
▁فا	-11.1274
▁ellen	-11.1274
▁cette	-11.1275
َّ	-11.1276
大学	-11.1277
▁لو	-11.1277
▁pru	-11.1278
▁Blue	-11.1278
▁mie	-11.1279
так	-11.1279
وية	-11.128
▁kai	-11.1281
▁graf	-11.1282
▁Sho	-11.1283
ंक	-11.1285
▁нови	-11.1288
▁Carlos	-11.1289
bun	-11.1289
SI	-11.1289
▁America	-11.1289
격	-11.129
▁වේ	-11.1292
nimi	-11.1292
forma	-11.1293
▁반	-11.1294
ங்கு	-11.1294
naj	-11.1295
▁dla	-11.1296
▁ඇත	-11.1296
sula	-11.1296
тал	-11.1297
ऊ	-11.1297
▁jam	-11.1298
▁1901	-11.1299
▁use	-11.1299
ovom	-11.1299
AM	-11.13
stavlja	-11.13
stí	-11.1302
tent	-11.1303
სი	-11.1303
قام	-11.1305
ത്ര	-11.1306
polis	-11.1306
▁antes	-11.1308
eket	-11.1308
ინ	-11.1308
іт	-11.131
▁Gru	-11.1312
▁kasuta	-11.1313
▁Marie	-11.1313
されている	-11.1314
кор	-11.1315
▁mosunod	-11.1315
OL	-11.1315
▁grada	-11.1316
▁పో	-11.1316
TS	-11.1316
▁tõ	-11.1317
сці	-11.1318
▁தி	-11.1318
бира	-11.1318
▁Oktober	-11.1318
lož	-11.1319
▁aver	-11.132
рин	-11.1321
▁חי	-11.1322
▁olduğu	-11.1322
▁1890	-11.1322
▁behar	-11.1323
▁moral	-11.1323
▁då	-11.1324
guna	-11.1324
▁Center	-11.1326
▁name	-11.1327
رق	-11.1329
▁veik	-11.1329
▁स्थान	-11.1329
▁Mis	-11.1331
gado	-11.1331
▁després	-11.1332
යු	-11.1332
▁ord	-11.1332
ois	-11.1335
▁kategori	-11.1339
west	-11.134
bə	-11.1341
аваны	-11.1341
ките	-11.1342
▁واقع	-11.1343
rina	-11.1344
mera	-11.1345
▁loro	-11.1345
US	-11.1345
orden	-11.1345
enc	-11.1346
▁interpreta	-11.1346
▁tanto	-11.1347
▁cô	-11.1348
итель	-11.1349
▁Pap	-11.135
LA	-11.135
▁urtean	-11.1351
▁විය	-11.1351
egen	-11.1352
▁ام	-11.1352
yal	-11.1352
rü	-11.1354
▁planta	-11.1355
▁Ри	-11.1355
ハ	-11.1357
ális	-11.1357
oš	-11.1358
inahabo	-11.1359
▁সম	-11.1359
ister	-11.1361
klu	-11.1365
▁غير	-11.1367
▁роман	-11.1367
▁Lind	-11.1367
▁הייתה	-11.1368
▁sér	-11.1369
వర	-11.1369
▁kama	-11.1369
▁instru	-11.1371
取	-11.1371
ácie	-11.1373
pred	-11.1373
ając	-11.1376
ене	-11.1376
▁мә	-11.1377
нка	-11.1378
▁origin	-11.138
hof	-11.1381
enta	-11.1382
യിൽ	-11.1384
▁át	-11.1384
▁sendo	-11.1386
▁død	-11.1388
بد	-11.1388
রাজ	-11.1388
▁Wilhelm	-11.1389
▁होने	-11.1389
▁కొ	-11.139
▁sign	-11.139
▁því	-11.139
▁čin	-11.1391
▁São	-11.1391
mag	-11.1391
▁Opera	-11.1393
trag	-11.1394
ound	-11.1395
▁సి	-11.1395
කා	-11.1395
styr	-11.1396
▁ч	-11.1396
cto	-11.1397
چه	-11.1398
300	-11.1399
▁Pos	-11.1399
▁المت	-11.1401
▁vita	-11.1401
▁isə	-11.1402
▁kemudian	-11.1402
▁site	-11.1403
tól	-11.1404
கள	-11.1404
мина	-11.1404
CH	-11.1405
▁första	-11.1406
CE	-11.1407
▁Gaz	-11.1409
▁παρ	-11.1409
iş	-11.1411
гре	-11.1412
▁ബ	-11.1412
buru	-11.1412
ப்பி	-11.1413
▁побед	-11.1415
▁صورت	-11.1419
▁ciutat	-11.1421
▁mende	-11.1421
глас	-11.1423
▁генерал	-11.1423
▁еден	-11.1424
roll	-11.1424
لف	-11.1428
اک	-11.1429
▁disco	-11.1429
▁चि	-11.143
üz	-11.143
▁News	-11.143
▁время	-11.143
▁morte	-11.1433
▁populasyon	-11.1438
設	-11.1439
SO	-11.1441
ref	-11.1441
wod	-11.1441
▁mé	-11.1442
▁بد	-11.1442
ijoje	-11.1442
▁மா	-11.1442
syn	-11.1443
▁torn	-11.1443
җ	-11.1447
mati	-11.1447
▁besar	-11.1447
▁national	-11.1448
▁Kai	-11.1448
jor	-11.145
▁dve	-11.1452
▁svi	-11.1452
▁58	-11.1452
menn	-11.1453
▁coll	-11.1454
▁Nov	-11.1455
хов	-11.1455
oga	-11.1458
▁dall	-11.1458
miseks	-11.1459
mene	-11.1459
▁prve	-11.146
▁Ду	-11.146
cum	-11.1461
▁분	-11.1461
τες	-11.1463
хран	-11.1463
▁عليه	-11.1463
രു	-11.1463
αντ	-11.1463
IA	-11.1463
бил	-11.1463
▁veći	-11.1464
▁Vu	-11.1465
▁specie	-11.1466
увањето	-11.1466
局	-11.1466
▁ти	-11.1468
із	-11.1468
▁complet	-11.1469
▁caso	-11.1469
dim	-11.147
▁Brazil	-11.1471
類	-11.1471
صد	-11.1472
▁Це	-11.1474
ори	-11.1475
▁lag	-11.1475
mmt	-11.1475
ორ	-11.1475
先	-11.1476
▁aga	-11.1476
حق	-11.1476
▁мест	-11.1477
▁lung	-11.1478
नो	-11.1478
▁medicin	-11.1479
▁పు	-11.148
▁उनके	-11.148
PS	-11.148
нә	-11.1481
yat	-11.1482
ора	-11.1483
파	-11.1484
اي	-11.1488
▁reco	-11.1488
hibi	-11.1488
що	-11.1489
زم	-11.149
gl	-11.1491
igita	-11.1491
▁север	-11.1492
▁실	-11.1493
까지	-11.1493
▁بازی	-11.1494
maz	-11.1495
ljub	-11.1495
2015	-11.1496
ирован	-11.1497
ლო	-11.1497
FC	-11.1497
вис	-11.1497
ený	-11.1498
▁கொ	-11.1499
ków	-11.15
ич	-11.1501
ngen	-11.1501
තා	-11.1504
イン	-11.1505
ať	-11.1505
▁57	-11.1508
owego	-11.1509
▁bahin	-11.151
▁exc	-11.1511
থা	-11.1513
light	-11.1513
▁krist	-11.1514
▁المتحدة	-11.1515
ίδ	-11.1515
jske	-11.1516
▁அவர்	-11.1517
▁parë	-11.1518
ంచ	-11.1518
кр	-11.1519
▁siden	-11.152
juk	-11.1521
▁doktor	-11.1522
hend	-11.1522
お	-11.1523
▁Studi	-11.1523
▁govern	-11.1526
▁सबसे	-11.1526
▁beberapa	-11.1528
▁kota	-11.1528
landa	-11.1529
zas	-11.153
inë	-11.153
cade	-11.1531
机	-11.1533
▁yaşa	-11.1534
ouse	-11.1535
▁किसी	-11.1536
▁egun	-11.1536
▁सी	-11.1537
▁2019	-11.1537
▁nje	-11.1539
▁לו	-11.154
▁liber	-11.1541
▁finns	-11.1541
mək	-11.1543
系	-11.1543
яр	-11.1546
▁fos	-11.1547
mez	-11.1549
▁начин	-11.1551
▁appar	-11.1552
▁2:	-11.1553
▁Alexander	-11.1553
sional	-11.1553
bó	-11.1554
었다	-11.1556
ться	-11.1559
语	-11.1559
數	-11.156
rier	-11.156
гон	-11.1561
▁nomin	-11.1563
ыс	-11.1563
▁дар	-11.1564
▁liv	-11.1564
க்கி	-11.1566
tav	-11.1566
▁његов	-11.1567
æng	-11.1567
mişdir	-11.1568
סו	-11.1568
▁tác	-11.1568
rne	-11.1569
ப்பட்டது	-11.157
2004	-11.1571
asyon	-11.1571
▁dub	-11.1572
icus	-11.1573
▁jul	-11.1573
▁კ	-11.1574
▁það	-11.1574
సా	-11.1575
leng	-11.1577
品	-11.1582
▁zaman	-11.1583
स्थ	-11.1583
▁čo	-11.1583
▁Tek	-11.1583
▁blir	-11.1584
▁Scott	-11.1584
▁kle	-11.1586
ვი	-11.1586
▁antara	-11.1587
▁lên	-11.1587
▁loại	-11.1587
▁terre	-11.1587
▁diễn	-11.1588
ючи	-11.1588
항	-11.159
rës	-11.159
▁kort	-11.1591
將	-11.1591
ক্র	-11.1592
ارت	-11.1593
ధి	-11.1596
ების	-11.1597
▁kirja	-11.1599
"।	-11.1599
vision	-11.1606
▁sous	-11.1607
▁போ	-11.1608
要	-11.1608
▁gemeente	-11.1609
▁която	-11.1609
Pro	-11.1611
morf	-11.1611
פת	-11.1612
реш	-11.1613
üs	-11.1616
bah	-11.1619
rás	-11.1619
றை	-11.1619
영	-11.162
▁بزرگ	-11.1621
тың	-11.1622
情	-11.1623
▁Bill	-11.1623
▁Jam	-11.1624
üüd	-11.1624
列	-11.1624
▁mobil	-11.1625
един	-11.1625
נג	-11.1626
▁Diaks	-11.1626
▁Not	-11.1627
▁мор	-11.1628
mien	-11.1629
▁nove	-11.163
izm	-11.1631
▁ana	-11.1632
▁timp	-11.1632
▁büyük	-11.1633
rbi	-11.1633
tage	-11.1633
shire	-11.1633
▁जाते	-11.1633
校	-11.1636
oka	-11.1637
book	-11.1637
▁1902	-11.1637
▁ostat	-11.1638
▁gồm	-11.1639
पी	-11.164
ალ	-11.164
шко	-11.164
్య	-11.1643
empat	-11.1643
ύρ	-11.1643
اعت	-11.1643
▁lähe	-11.1644
지만	-11.1644
▁(7	-11.1645
anna	-11.1645
▁fly	-11.1646
rium	-11.1646
▁ஒ	-11.1646
▁Wiki	-11.1648
naw	-11.1648
▁jednak	-11.1649
nike	-11.1652
ект	-11.1652
act	-11.1654
hil	-11.1655
▁발	-11.1655
rò	-11.1655
ηση	-11.1662
bé	-11.1663
▁చె	-11.1663
klop	-11.1663
▁Times	-11.1664
чно	-11.1666
▁prezent	-11.1666
ište	-11.1666
गे	-11.1666
ани	-11.1667
▁Oscar	-11.1667
ச்சி	-11.1668
▁두	-11.1668
▁Angel	-11.1668
mol	-11.167
lv	-11.1672
ෂ	-11.1672
▁kadar	-11.1672
спо	-11.1674
icas	-11.1674
άτ	-11.1676
థ	-11.1676
▁đối	-11.1676
▁کل	-11.1678
bok	-11.1679
▁Petr	-11.1682
éiert	-11.1684
OR	-11.1685
▁mình	-11.1686
▁நி	-11.1686
иле	-11.1687
ými	-11.1688
фу	-11.1689
▁favor	-11.169
著	-11.169
▁California	-11.1691
टि	-11.1691
झ	-11.1693
šen	-11.1693
政府	-11.1694
ұ	-11.1694
Ta	-11.1696
ість	-11.1696
▁jezik	-11.1697
сла	-11.1699
хід	-11.1699
rede	-11.1701
▁nasod	-11.1701
eres	-11.1701
ував	-11.1701
▁Rome	-11.1703
eno	-11.1704
▁Ä	-11.1705
▁kjer	-11.1706
▁prvo	-11.1707
كو	-11.1707
▁около	-11.1708
களுக்கு	-11.1708
▁record	-11.1708
▁urban	-11.1709
▁tard	-11.1709
spiel	-11.1711
▁тө	-11.1712
▁política	-11.1712
dział	-11.1713
▁deres	-11.1714
川	-11.1714
▁група	-11.1714
asan	-11.1715
▁tính	-11.1715
rib	-11.1715
্র	-11.1716
▁Бр	-11.1716
είται	-11.1717
▁talde	-11.1719
öm	-11.1719
▁çox	-11.1721
▁Гу	-11.1721
▁první	-11.1721
ంగ	-11.1722
ђе	-11.1722
ουσ	-11.1723
ത്തിൽ	-11.1723
daki	-11.1724
▁Пи	-11.1724
▁(8	-11.1726
▁sett	-11.1727
▁bild	-11.1727
하게	-11.1727
ungan	-11.1729
geri	-11.173
лись	-11.173
▁확인함	-11.1731
њето	-11.1731
лось	-11.1733
AP	-11.1733
خا	-11.1733
әк	-11.1735
▁пара	-11.1735
మ్మ	-11.1736
ục	-11.1736
нич	-11.1736
laga	-11.174
شي	-11.1741
▁което	-11.1741
內	-11.1741
▁Türk	-11.1741
▁Ei	-11.1742
▁cin	-11.1742
خو	-11.1742
▁(9	-11.1743
gam	-11.1745
▁কো	-11.1748
口	-11.1749
änd	-11.175
白	-11.1751
ară	-11.1752
▁Pic	-11.1753
▁nisu	-11.1756
▁மே	-11.1756
upa	-11.1756
▁danas	-11.1757
▁série	-11.1758
лиза	-11.1758
▁kina	-11.1758
داد	-11.1759
▁success	-11.1762
▁پیش	-11.1762
õi	-11.1763
▁λ	-11.1767
▁наоѓа	-11.1768
гляд	-11.1768
ூர்	-11.1768
віч	-11.1769
asis	-11.177
▁House	-11.1773
gers	-11.1774
ић	-11.1774
直	-11.1774
▁euro	-11.1775
لك	-11.1778
misel	-11.1778
▁ljud	-11.1778
▁nær	-11.1779
fizi	-11.178
tuur	-11.178
చే	-11.1782
▁after	-11.1783
▁ஜ	-11.1783
цыі	-11.1784
▁մ	-11.1784
▁основа	-11.1784
òr	-11.1785
曾	-11.1785
бав	-11.1786
lərin	-11.1788
რე	-11.1788
torio	-11.1789
如	-11.179
rico	-11.1792
óp	-11.1793
▁disp	-11.1793
дық	-11.1794
పి	-11.1794
▁pie	-11.1795
▁state	-11.1795
▁öz	-11.1795
▁한다	-11.1796
▁History	-11.1796
▁गए	-11.18
▁resid	-11.18
dad	-11.1803
০০	-11.1804
▁Με	-11.1804
▁stabil	-11.1804
▁mont	-11.1805
▁opis	-11.1806
▁fog	-11.1807
▁President	-11.1807
▁bao	-11.1807
සේ	-11.1808
ỏ	-11.1808
ाची	-11.1809
عا	-11.181
ovať	-11.181
▁gọi	-11.181
ונה	-11.1811
▁Argentina	-11.1813
伊	-11.1813
և	-11.1813
كل	-11.1814
▁hàng	-11.1814
nell	-11.1815
▁Тур	-11.1818
kad	-11.1818
ids	-11.1819
скіх	-11.1822
▁hoặc	-11.1822
▁ث	-11.1822
好	-11.1823
▁Lit	-11.1823
iks	-11.1824
▁није	-11.1826
▁Plu	-11.1827
▁آب	-11.1828
ely	-11.1828
kta	-11.1828
జా	-11.1829
▁Otto	-11.183
භ	-11.183
波	-11.183
란	-11.183
ubi	-11.1831
▁Suba	-11.1831
মে	-11.1833
kaj	-11.1833
ligen	-11.1834
▁temperatur	-11.1835
▁ordin	-11.1836
وج	-11.1837
▁Bat	-11.1838
▁права	-11.1838
वन	-11.1839
δε	-11.1839
▁বে	-11.184
dige	-11.184
iä	-11.1841
▁imperi	-11.1841
њ	-11.1841
ước	-11.1841
ம்ப	-11.1842
▁qə	-11.1842
▁össze	-11.1842
▁Bot	-11.1843
▁Minister	-11.1844
▁Mak	-11.1844
▁కి	-11.1844
▁planet	-11.1846
▁kart	-11.1846
sett	-11.1849
▁Parlament	-11.1849
▁شرکت	-11.1849
▁potom	-11.185
essä	-11.185
▁Рим	-11.1852
▁lực	-11.1852
gai	-11.1853
گان	-11.1854
▁Gold	-11.1854
iny	-11.1854
rita	-11.1856
▁ඇ	-11.1856
▁пес	-11.1858
▁Luis	-11.1861
▁проект	-11.1861
페	-11.1861
▁oso	-11.1862
▁국	-11.1863
лод	-11.1863
oare	-11.1864
▁ada	-11.1865
ίων	-11.1865
▁kir	-11.1866
▁प्राप्त	-11.1867
造	-11.1869
▁republik	-11.187
▁istor	-11.1871
թ	-11.1871
▁извест	-11.1872
tott	-11.1876
▁administrativ	-11.1878
▁nell	-11.188
▁2005,	-11.1882
ffe	-11.1883
нас	-11.1883
శ్	-11.1884
▁위	-11.1885
▁Njegov	-11.1885
служ	-11.1886
통	-11.1887
結	-11.1887
▁nye	-11.1887
▁Casa	-11.1888
▁Ад	-11.1889
cké	-11.1889
▁Alb	-11.189
ധ	-11.189
lių	-11.1892
▁White	-11.1892
▁spec	-11.1893
tsiooni	-11.1893
▁mellom	-11.1894
▁али	-11.1894
▁із	-11.1896
श्	-11.1897
сан	-11.1897
▁кога	-11.1898
ුව	-11.1901
வில்	-11.1901
Σ	-11.1904
▁Gui	-11.1904
▁Live	-11.1905
طة	-11.1905
▁sla	-11.1907
▁amely	-11.1908
tali	-11.1908
▁аз	-11.1908
ára	-11.1909
▁bắt	-11.1909
isha	-11.191
▁restaur	-11.1911
▁psi	-11.1914
들은	-11.1916
▁team	-11.1917
بان	-11.192
▁há	-11.192
▁వారి	-11.192
▁वाले	-11.1922
cono	-11.1922
▁second	-11.1923
▁foguèt	-11.1923
▁Een	-11.1924
▁aquel	-11.1924
lise	-11.1924
▁были	-11.1925
לט	-11.1926
▁Epi	-11.1929
лығы	-11.193
শে	-11.1931
বাদ	-11.1931
ből	-11.1932
DA	-11.1935
тель	-11.1935
ує	-11.1935
▁kwadrado	-11.1935
kot	-11.1936
për	-11.1937
స్థ	-11.1938
▁маг	-11.194
▁यस	-11.194
▁juh	-11.1942
▁Năm	-11.1942
වු	-11.1943
▁Comun	-11.1945
дағы	-11.1945
▁Ова	-11.1947
移	-11.1947
usu	-11.1948
ლი	-11.1949
ята	-11.1949
tale	-11.195
onte	-11.195
inti	-11.1951
▁최	-11.1951
ално	-11.1952
arri	-11.1953
▁நீ	-11.1953
▁apie	-11.1954
▁програм	-11.1954
ložen	-11.1954
▁Islam	-11.1955
▁DVD	-11.1957
dő	-11.1958
вол	-11.1958
土	-11.1959
maya	-11.1959
▁~	-11.196
▁შე	-11.196
βα	-11.196
▁خط	-11.1961
পি	-11.1963
نى	-11.1963
▁conce	-11.1963
عمل	-11.1963
接	-11.1964
▁Leg	-11.1965
▁Finland	-11.1966
▁predstav	-11.1967
bund	-11.1967
اني	-11.1967
bles	-11.1967
じ	-11.1968
▁Пол	-11.1968
▁tawo	-11.1968
▁Big	-11.1969
стој	-11.197
ebb	-11.1971
器	-11.1971
meni	-11.1972
運	-11.1972
▁arv	-11.1975
▁того	-11.1976
owym	-11.1977
▁Việt	-11.1978
▁liter	-11.1979
▁csak	-11.198
ரோ	-11.198
▁Bog	-11.1982
▁decid	-11.1983
كم	-11.1983
▁каде	-11.1984
ňa	-11.1984
▁جو	-11.1985
▁Korea	-11.1985
병	-11.1986
▁FIFA	-11.1988
▁ret	-11.1988
▁brug	-11.199
この	-11.1991
▁gibi	-11.1992
pop	-11.1995
▁низ	-11.1995
кер	-11.1996
▁bë	-11.1997
▁Hoa	-11.1999
ované	-11.2
شان	-11.2
▁základ	-11.2002
गी	-11.2003
լ	-11.2003
▁مورد	-11.2003
▁werk	-11.2003
▁أي	-11.2004
prin	-11.2004
▁হন	-11.2005
бре	-11.2005
▁Let	-11.2006
рд	-11.2007
▁Ча	-11.2008
бург	-11.2008
раў	-11.2009
DS	-11.201
▁jälkeen	-11.201
शु	-11.2011
kia	-11.2011
emi	-11.2012
▁dvor	-11.2012
cò	-11.2013
▁državi	-11.2014
▁Patri	-11.2016
ender	-11.2016
daj	-11.2016
чар	-11.2017
▁poč	-11.2017
▁ciudad	-11.2017
▁якія	-11.2017
iche	-11.2017
टो	-11.2018
رم	-11.2018
▁giá	-11.2019
▁познат	-11.2019
▁presidente	-11.202
مه	-11.202
▁המו	-11.202
▁Έ	-11.2021
rut	-11.2022
년에	-11.2022
ნი	-11.2022
cks	-11.2023
재	-11.2025
▁кра	-11.2025
ству	-11.2026
▁cerca	-11.2027
▁Grande	-11.2031
ать	-11.2035
▁bien	-11.2035
धी	-11.2036
▁Ша	-11.2036
ėje	-11.2036
pala	-11.2037
▁бол	-11.2038
ப்பா	-11.2038
ambi	-11.2038
可能	-11.2039
ҡы	-11.204
▁də	-11.2041
▁stop	-11.2041
شا	-11.2041
त्त	-11.2042
char	-11.2043
▁Ng	-11.2044
article	-11.2044
▁Union	-11.2045
▁hoved	-11.2046
▁maja	-11.2047
зор	-11.2048
▁ø	-11.2048
ppel	-11.2049
спе	-11.205
▁Бел	-11.205
▁kry	-11.2051
tsi	-11.2054
▁문	-11.2054
▁Maj	-11.2055
ják	-11.2055
▁tant	-11.2055
▁Wor	-11.2056
ήσει	-11.2056
ලා	-11.2057
▁pjesë	-11.2058
▁extra	-11.2058
vät	-11.2059
▁фе	-11.206
ели	-11.206
▁बहुत	-11.206
ione	-11.2061
inə	-11.2061
▁وع	-11.2062
lici	-11.2063
▁1:	-11.2063
αφ	-11.2063
▁जब	-11.2064
▁там	-11.2064
^{2}	-11.2065
▁Gau	-11.2065
▁lub	-11.2066
▁verb	-11.2068
ope	-11.2069
▁Pred	-11.207
رش	-11.2073
▁fransk	-11.2074
▁অনু	-11.2077
▁Wil	-11.2078
▁compa	-11.2081
▁অ্যা	-11.2081
▁н	-11.2084
skiego	-11.2085
▁komun	-11.2085
▁Lac	-11.2085
tës	-11.2087
▁ду	-11.2088
▁όπως	-11.2089
teil	-11.2089
▁Histori	-11.209
ωρ	-11.209
▁passa	-11.2091
ciu	-11.2092
▁thông	-11.2093
▁iba	-11.2093
zional	-11.2094
▁edir	-11.2094
▁svojim	-11.2095
▁într	-11.2095
जे	-11.2096
hkan	-11.2096
▁dvije	-11.2096
▁inclu	-11.2097
lys	-11.2097
▁diri	-11.2098
▁알	-11.2101
ιδ	-11.2101
ונים	-11.2101
持	-11.2101
ეს	-11.2104
▁áll	-11.2105
▁мај	-11.2106
ిత	-11.2106
arbeid	-11.2107
▁tü	-11.2108
nő	-11.2108
▁Бар	-11.2111
▁Hay	-11.2112
▁менән	-11.2112
mė	-11.2114
▁võ	-11.2114
▁centre	-11.2115
▁zaradi	-11.2115
▁Qa	-11.2115
▁vụ	-11.2115
ولد	-11.2116
ayı	-11.2116
▁tegen	-11.2116
▁Zen	-11.2117
▁rež	-11.2117
sjonen	-11.2118
dh	-11.212
▁अपनी	-11.212
וצ	-11.2122
1%	-11.2122
▁Republik	-11.2123
बी	-11.2123
▁popula	-11.2123
фт	-11.2124
▁আর	-11.2124
ік	-11.2124
anın	-11.2124
ninger	-11.2125
але	-11.2126
ियन	-11.2127
iški	-11.2128
شار	-11.2129
▁село	-11.2129
нні	-11.2129
ෙන්	-11.213
rend	-11.213
بية	-11.2131
सं	-11.2132
ují	-11.2133
▁liên	-11.2135
ক্স	-11.2136
▁अव	-11.2137
▁centra	-11.2138
▁1880	-11.2139
itti	-11.214
▁близ	-11.2141
kers	-11.2142
tén	-11.2143
▁transfer	-11.2145
الی	-11.2145
▁sun	-11.2146
▁Pedro	-11.2147
▁तर	-11.2148
▁былі	-11.2149
rade	-11.2149
ein	-11.215
▁ड	-11.2151
lıq	-11.2151
BS	-11.2151
ssä	-11.2151
▁gouf	-11.2152
్యూ	-11.2153
эт	-11.2153
▁rib	-11.2155
▁kau	-11.2156
िस	-11.2157
▁bang	-11.2157
Qu	-11.2157
▁ঘ	-11.2158
gång	-11.2161
▁koh	-11.2161
ினார்	-11.2162
▁tout	-11.2163
モ	-11.2164
ovanje	-11.2164
мена	-11.2165
onen	-11.2165
Ko	-11.2165
uş	-11.2166
▁Он	-11.2168
▁proto	-11.2168
ცი	-11.217
▁nomina	-11.217
ये	-11.2171
hall	-11.2171
už	-11.2173
opera	-11.2175
ප්	-11.2176
ҙә	-11.2176
▁పి	-11.2176
RS	-11.2177
යෙන්	-11.2177
▁سن	-11.2181
▁Mah	-11.2182
द्ध	-11.2182
▁käyt	-11.2183
▁syd	-11.2184
▁بم	-11.2185
এ	-11.2186
bung	-11.2187
fekt	-11.2187
ைய	-11.2189
cev	-11.219
▁방	-11.219
িয়ে	-11.2191
▁таксама	-11.2191
▁elektro	-11.2191
හි	-11.2192
▁online	-11.2192
лик	-11.2193
нски	-11.2195
eten	-11.2195
مت	-11.2195
▁Qui	-11.2195
त्य	-11.2195
▁kuwa	-11.2197
elen	-11.2197
▁varie	-11.2197
polit	-11.22
▁לי	-11.22
▁کتاب	-11.2201
▁автор	-11.2201
anci	-11.2201
rani	-11.2203
3%	-11.2203
2%	-11.2205
▁ran	-11.2206
рж	-11.2206
tama	-11.2207
ण्ड	-11.2207
nig	-11.2209
ματα	-11.2211
▁особ	-11.2213
；	-11.2213
mbra	-11.2213
кин	-11.2214
▁पहले	-11.2214
pto	-11.2214
AD	-11.2214
ữ	-11.2214
▁сви	-11.2215
▁Brown	-11.2217
iện	-11.2222
▁இல்	-11.2222
▁vlada	-11.2222
▁minister	-11.2223
pha	-11.2223
łu	-11.2223
పై	-11.2224
apan	-11.2225
سل	-11.2226
אן	-11.2227
uff	-11.223
cco	-11.223
zony	-11.2232
▁Alt	-11.2232
卡	-11.2232
eň	-11.2232
対	-11.2234
万	-11.2234
vic	-11.2235
structur	-11.2237
фор	-11.2239
ук	-11.224
命	-11.2241
уы	-11.2243
zett	-11.2244
cept	-11.2246
▁ilin	-11.2246
▁skup	-11.2247
ارة	-11.2247
▁Emil	-11.2249
▁Vä	-11.2249
Bi	-11.2253
▁سل	-11.2254
▁teritorij	-11.2254
هر	-11.2254
▁τ	-11.2254
shin	-11.2255
▁Dit	-11.2255
▁ран	-11.2257
▁بوده	-11.2257
ҙа	-11.2257
▁tạo	-11.2258
▁بخش	-11.2259
▁así	-11.2259
ues	-11.226
▁Bere	-11.2268
▁entra	-11.2268
▁повеќе	-11.2268
টির	-11.2269
lock	-11.227
动	-11.2271
▁kuid	-11.2271
▁två	-11.2271
▁הצ	-11.2271
ක්ෂ	-11.2271
▁après	-11.2272
رك	-11.2272
)}	-11.2273
ৰ্	-11.2273
▁arme	-11.2273
▁vjer	-11.2274
ște	-11.2275
ლა	-11.2275
▁hệ	-11.2276
žil	-11.2277
іў	-11.2278
▁tart	-11.2279
ály	-11.2279
▁merk	-11.228
▁Nag	-11.228
▁škol	-11.228
pression	-11.2281
▁pravi	-11.2281
▁کو	-11.2284
ješ	-11.2284
▁इं	-11.2284
posición	-11.2285
шу	-11.2286
Ang	-11.2287
handel	-11.229
류	-11.229
▁vojni	-11.2291
▁Media	-11.2292
번	-11.2293
ء	-11.2293
").	-11.2293
lou	-11.2294
▁bruk	-11.2295
ються	-11.2296
ự	-11.2297
lán	-11.2299
▁dêr	-11.2299
它	-11.2299
▁هستند	-11.2299
ജ	-11.2299
prem	-11.23
▁eða	-11.23
분	-11.2301
мір	-11.2302
tanto	-11.2303
▁mam	-11.2304
ensi	-11.2304
▁British	-11.2304
▁Phil	-11.2306
▁گر	-11.2306
▁multe	-11.2306
mmel	-11.2307
বল	-11.2307
▁Airport	-11.231
ично	-11.231
ատ	-11.2311
Do	-11.2311
ektor	-11.2312
▁vál	-11.2313
商	-11.2314
▁метр	-11.2314
ною	-11.2314
▁гу	-11.2314
▁monta	-11.2315
trum	-11.2316
▁తరువాత	-11.2317
▁Stre	-11.2317
inda	-11.2319
▁vì	-11.2319
▁varia	-11.2319
ický	-11.2321
ítás	-11.2323
▁Kro	-11.2323
▁دا	-11.2324
kami	-11.2325
▁pokr	-11.2326
gum	-11.2327
ží	-11.2328
▁Fr	-11.2329
לים	-11.233
▁הכ	-11.2334
▁produk	-11.2336
riko	-11.2337
زر	-11.2337
کر	-11.2338
▁menga	-11.2339
্ৰ	-11.2339
▁Tim	-11.234
২০	-11.234
No	-11.234
強	-11.234
stol	-11.2341
tín	-11.2342
▁mellem	-11.2342
çu	-11.2342
শি	-11.2345
inum	-11.2345
▁_{	-11.2345
kuu	-11.2346
uten	-11.2346
▁గు	-11.2346
tila	-11.2347
τελ	-11.2347
▁Бри	-11.2347
▁sca	-11.2347
жо	-11.2347
▁povas	-11.2349
क्रम	-11.235
▁Jer	-11.235
▁kanssa	-11.235
wei	-11.2351
left	-11.2351
▁esca	-11.2352
ჯ	-11.2352
▁È	-11.2352
uð	-11.2353
شن	-11.2354
▁Hot	-11.2354
▁ag	-11.2354
질	-11.2355
wier	-11.2357
ores	-11.2358
elles	-11.2358
בור	-11.2358
▁director	-11.236
▁우	-11.2361
▁март	-11.2362
lid	-11.2362
inden	-11.2363
תר	-11.2363
▁novembro	-11.2364
‘	-11.2365
fir	-11.2365
▁இரு	-11.2365
亚	-11.2366
ंच	-11.2367
edia	-11.2368
रू	-11.2368
▁amerikansk	-11.2369
▁३	-11.237
英	-11.237
▁funk	-11.2372
కే	-11.2372
▁Jackson	-11.2373
▁καθ	-11.2374
уда	-11.2375
▁miest	-11.2375
ான்	-11.2375
▁razvoj	-11.2375
▁svoju	-11.2376
▁بت	-11.2377
▁став	-11.2378
דות	-11.2378
▁कै	-11.2378
▁ata	-11.2379
▁ई	-11.2381
фр	-11.2381
cis	-11.2382
▁tradicional	-11.2383
▁जि	-11.2383
▁کر	-11.2384
▁redu	-11.2384
nosť	-11.2384
▁yol	-11.2384
▁לע	-11.2385
eux	-11.2386
▁maxim	-11.239
▁Hind	-11.2391
▁dir	-11.2392
чко	-11.2392
▁মু	-11.2392
▁pisa	-11.2397
cular	-11.2397
▁وهو	-11.2398
▁kontra	-11.2398
▁Sor	-11.2399
▁مصر	-11.2399
第一	-11.24
реж	-11.2401
▁מכ	-11.2401
▁চলচ্চিত্র	-11.2402
rena	-11.2402
▁stand	-11.2402
rako	-11.2403
fica	-11.2403
▁full	-11.2404
bou	-11.2404
▁pé	-11.2405
▁წლის	-11.2405
▁rapid	-11.2406
▁neg	-11.2406
guard	-11.2407
▁Свет	-11.2408
ίλ	-11.2408
점	-11.2408
▁držav	-11.2409
▁mesta	-11.2412
▁ஓ	-11.2412
▁كو	-11.2412
▁rá	-11.2412
imet	-11.2413
▁Era	-11.2413
leb	-11.2413
▁sidlakan	-11.2414
ωση	-11.2415
ంతో	-11.2415
▁শুরু	-11.2415
пра	-11.2419
иран	-11.2419
ば	-11.2419
▁était	-11.242
▁side	-11.242
▁सह	-11.2422
ण्या	-11.2422
▁televisi	-11.2424
овите	-11.2424
野	-11.2424
сед	-11.2424
بس	-11.2425
▁À	-11.2426
zeit	-11.2426
ției	-11.2426
심	-11.2427
▁2000,	-11.2428
manda	-11.2428
zí	-11.2429
ായ	-11.2434
ించారు	-11.2435
▁انت	-11.2435
hra	-11.2437
ப்பட	-11.2439
ół	-11.2439
izira	-11.2439
Con	-11.244
wat	-11.2442
▁fine	-11.2442
кси	-11.2443
▁2013,	-11.2444
riu	-11.2445
ளை	-11.2445
▁veliki	-11.2446
टे	-11.2449
中国	-11.245
جد	-11.245
مین	-11.2451
▁antaŭ	-11.2452
▁stri	-11.2452
▁Stor	-11.2453
▁доби	-11.2455
▁XVII	-11.2455
έχ	-11.2455
當	-11.2457
metri	-11.2457
tegi	-11.2457
▁mô	-11.2458
▁služb	-11.2459
▁đá	-11.2459
▁bulun	-11.246
మో	-11.2461
▁Nuo	-11.2462
lingen	-11.2463
dou	-11.2463
чер	-11.2465
തു	-11.2465
▁சா	-11.2465
▁España	-11.2466
▁Ві	-11.2467
▁ami	-11.2467
ন্ট	-11.2468
isia	-11.247
▁esti	-11.2471
देश	-11.2472
cili	-11.2473
▁fire	-11.2473
▁Stat	-11.2474
▁protest	-11.2475
▁природ	-11.2477
▁Ama	-11.2478
▁portu	-11.2479
▁тем	-11.2479
डा	-11.2479
▁phim	-11.2479
▁Association	-11.2481
দা	-11.2481
着	-11.2482
▁metu	-11.2483
▁rak	-11.2484
▁gas	-11.2484
డా	-11.2484
ját	-11.2484
▁सम्	-11.2485
▁medio	-11.2486
ական	-11.2486
속	-11.2486
liza	-11.2486
▁fact	-11.2486
▁fet	-11.2487
▁anh	-11.2487
▁Dum	-11.2488
ао	-11.2488
▁tarihinde	-11.2489
λογ	-11.249
ൾ	-11.2492
inni	-11.2492
bija	-11.2492
ிருந்த	-11.2492
тора	-11.2492
కర	-11.2492
glas	-11.2493
석	-11.2493
kamp	-11.2493
šir	-11.2494
ვა	-11.2495
史	-11.2495
부터	-11.2496
où	-11.2496
▁cirk	-11.2497
▁encontra	-11.2498
quí	-11.2499
▁granda	-11.2499
▁setelah	-11.2499
верс	-11.2499
शि	-11.25
▁सरकार	-11.25
▁құр	-11.2501
▁கால	-11.2501
পুর	-11.2501
κό	-11.2501
▁αυτή	-11.2502
జీ	-11.2503
haf	-11.2503
▁brz	-11.2503
▁спорт	-11.2503
▁ν	-11.2504
▁Ober	-11.2505
ğa	-11.2506
ებ	-11.2508
▁همچنین	-11.2508
▁tyre	-11.2509
ovaný	-11.251
▁bà	-11.251
▁quyền	-11.251
▁jur	-11.251
▁1896	-11.2511
▁август	-11.2511
▁гор	-11.2513
▁Mid	-11.2514
2016	-11.2515
▁রয়েছে	-11.2515
▁Water	-11.2516
普	-11.2516
派	-11.2517
▁Zagreb	-11.2518
सि	-11.2519
πολ	-11.252
▁same	-11.252
riek	-11.2524
▁Francis	-11.2524
egi	-11.2525
▁segui	-11.2526
▁მ	-11.2527
ेल	-11.2528
λυ	-11.2529
TC	-11.2531
▁retir	-11.2532
jör	-11.2533
غا	-11.2534
▁예	-11.2534
▁grunn	-11.2535
itza	-11.2535
▁граф	-11.2536
▁Ved	-11.2537
ậ	-11.2537
▁Rum	-11.2537
ピ	-11.2538
▁என்று	-11.2542
حت	-11.2542
يون	-11.2543
iera	-11.2544
ोर	-11.2545
hla	-11.2546
mpe	-11.2546
▁glavni	-11.2547
▁একজন	-11.2547
recht	-11.2548
тым	-11.2549
▁tanom	-11.2549
рис	-11.2549
▁lim	-11.2549
▁üçün	-11.2552
▁Svet	-11.2552
ירות	-11.2553
▁Дж	-11.2553
▁СССР	-11.2553
▁propos	-11.2553
ác	-11.2555
nap	-11.2556
▁vode	-11.2558
ални	-11.2558
▁divid	-11.2559
igu	-11.2559
▁विशेष	-11.2559
▁Jud	-11.2563
பு	-11.2564
קט	-11.2564
▁रहे	-11.2564
▁pia	-11.2566
त्व	-11.2566
landi	-11.2568
оло	-11.2569
tatud	-11.2569
्यू	-11.257
▁После	-11.257
▁गु	-11.257
▁kapit	-11.2572
ekin	-11.2574
дни	-11.2574
טה	-11.2576
lej	-11.2578
spira	-11.2581
вяр	-11.2582
▁any	-11.2582
klar	-11.2582
▁1898	-11.2585
▁단	-11.2587
▁navn	-11.2587
급	-11.2589
▁His	-11.2591
▁زبان	-11.2591
فن	-11.2592
▁kut	-11.2593
▁ekki	-11.2593
▁மக்கள்	-11.2596
▁יש	-11.2597
▁Billboard	-11.2597
szy	-11.2597
kter	-11.2598
istoj	-11.2598
mbol	-11.2598
然	-11.2599
scher	-11.26
ματ	-11.2601
▁स्थित	-11.2603
}\	-11.2604
▁vari	-11.2606
▁Mill	-11.2607
“)	-11.2607
난	-11.2609
тот	-11.2609
mula	-11.2611
తీ	-11.2612
ष्	-11.2614
нова	-11.2614
▁2014,	-11.2615
▁sebe	-11.2617
400	-11.2618
▁gain	-11.2618
бан	-11.262
தாக	-11.2624
ần	-11.2624
λέ	-11.2625
দে	-11.2625
▁భ	-11.2626
▁Cast	-11.2627
▁tank	-11.2629
▁prof	-11.2629
unta	-11.2631
▁अर्थ	-11.2631
hez	-11.2631
▁temporada	-11.2632
▁1998.	-11.2634
▁اله	-11.2634
jama	-11.2635
男	-11.2635
▁Provincia	-11.2637
▁año	-11.2637
RE	-11.2637
צה	-11.2638
▁Хар	-11.2638
▁počet	-11.2638
ætt	-11.264
▁home	-11.264
▁trung	-11.264
тура	-11.2643
▁matri	-11.2643
pio	-11.2643
arren	-11.2643
▁visi	-11.2643
vna	-11.2643
▁Ross	-11.2645
ené	-11.2645
mester	-11.2645
▁into	-11.2645
▁bekend	-11.2645
lari	-11.2646
opo	-11.2647
▁විසින්	-11.2648
▁ओ	-11.2648
賽	-11.2649
▁bibli	-11.2649
▁jos	-11.2649
vala	-11.2649
ható	-11.2649
▁Раз	-11.265
▁rajon	-11.265
▁muito	-11.2651
▁uso	-11.2652
▁गई	-11.2653
ării	-11.2654
kunde	-11.2654
▁1897	-11.2655
erat	-11.2655
лон	-11.2655
вил	-11.2656
▁när	-11.2657
母	-11.2658
dder	-11.2658
оли	-11.2659
nil	-11.2659
цый	-11.2662
uhan	-11.2663
ках	-11.2663
▁pertsona	-11.2664
▁air	-11.2664
okra	-11.2664
▁বলে	-11.2665
mbang	-11.2665
▁mål	-11.2665
δρ	-11.2667
ият	-11.2667
משחק	-11.2668
ovu	-11.2669
press	-11.2669
зар	-11.2669
itta	-11.2669
رض	-11.2669
▁въз	-11.2671
voz	-11.2673
▁circa	-11.2673
lez	-11.2673
▁biztanle	-11.2675
нае	-11.2676
לח	-11.2676
▁mjesto	-11.2677
ограф	-11.2678
lant	-11.2679
ију	-11.2679
▁1990.	-11.268
meri	-11.268
▁2004,	-11.2683
▁அல்லது	-11.2683
▁Ple	-11.2684
οκ	-11.2685
▁жыл	-11.2685
tka	-11.2686
тим	-11.2686
▁Fla	-11.2688
talo	-11.2689
కొ	-11.269
▁mikro	-11.2692
▁बना	-11.2692
ljena	-11.2695
ツ	-11.2695
hard	-11.2696
лија	-11.2697
▁ұ	-11.2697
▁নিয়ে	-11.2697
بو	-11.2698
uja	-11.2698
CO	-11.2699
▁vys	-11.27
▁matematik	-11.27
▁Aleksandr	-11.27
▁1870	-11.2701
▁مق	-11.2703
▁până	-11.2704
▁ह्या	-11.2704
yak	-11.2705
తర	-11.2705
He	-11.2707
ურ	-11.2707
kú	-11.2708
istan	-11.2709
itos	-11.271
Κ	-11.271
aks	-11.2711
غرب	-11.2711
▁হল	-11.2712
лась	-11.2712
止	-11.2712
ĥ	-11.2713
mot	-11.2713
▁Society	-11.2713
▁दी	-11.2714
ners	-11.2715
atur	-11.2716
▁లేదా	-11.2716
ičar	-11.2717
▁nhiên	-11.2717
▁zam	-11.2717
▁byen	-11.2718
▁Ball	-11.2718
▁Bes	-11.2719
▁Matt	-11.2721
дро	-11.2722
▁hver	-11.2722
▁izvor	-11.2723
▁Zá	-11.2723
μέν	-11.2724
wor	-11.2725
ėja	-11.2725
vět	-11.2725
maal	-11.2726
▁1500	-11.2727
र्क	-11.2727
▁×	-11.2727
▁700	-11.2727
tő	-11.2727
程	-11.2727
▁Arti	-11.2728
ιρ	-11.2729
धा	-11.2731
ボ	-11.2734
▁Estado	-11.2734
▁Ray	-11.2734
რო	-11.2735
szak	-11.2736
▁Book	-11.2736
mund	-11.2737
nata	-11.2738
▁אשר	-11.2738
打	-11.2738
▁Pierre	-11.2738
데	-11.2739
vam	-11.2741
سان	-11.2742
क्र	-11.2743
▁observa	-11.2743
▁posl	-11.2745
нди	-11.2745
▁том	-11.2746
dó	-11.2746
nuncia	-11.2747
hid	-11.2749
▁pont	-11.2749
▁seine	-11.275
▁States	-11.275
vek	-11.2751
yti	-11.2751
▁Jahre	-11.2754
ன்ற	-11.2755
yri	-11.2756
▁variant	-11.2758
ська	-11.2758
▁cultura	-11.2763
υσ	-11.2764
がある	-11.2764
▁مش	-11.2765
근	-11.2766
▁கட	-11.2766
ція	-11.2767
▁intens	-11.2767
▁arba	-11.2768
gres	-11.2768
論	-11.2768
马	-11.2769
ல்ல	-11.2769
▁particular	-11.2771
ച	-11.2771
▁הם	-11.2771
▁комп	-11.2771
mid	-11.2773
urt	-11.2774
koak	-11.2775
▁Philipp	-11.2775
▁प्रयोग	-11.2775
▁차	-11.2775
▁Unit	-11.2775
▁mä	-11.2776
▁tuo	-11.2777
▁leid	-11.2777
▁(„	-11.2778
▁66	-11.2778
ുള്ള	-11.278
भाव	-11.2781
▁иде	-11.2783
uran	-11.2783
ντα	-11.2784
▁збор	-11.2785
niji	-11.2785
▁contribu	-11.2785
▁získal	-11.2785
ені	-11.2788
дал	-11.2788
▁דו	-11.2789
lind	-11.279
▁Rat	-11.2791
linn	-11.2791
metro	-11.2792
▁VIII	-11.2792
estra	-11.2793
rug	-11.2793
▁Are	-11.2793
▁لي	-11.2795
▁reci	-11.2797
▁Science	-11.2798
ðu	-11.2801
▁metr	-11.2802
河	-11.2803
▁integr	-11.2803
▁তাদের	-11.2804
▁пример	-11.2805
▁kendi	-11.2807
▁만	-11.2808
aug	-11.2808
▁limit	-11.2809
▁Google	-11.281
світ	-11.281
rien	-11.2811
▁кара	-11.2811
▁asi	-11.2813
▁재	-11.2814
ớ	-11.2815
▁troba	-11.2815
▁জা	-11.2816
сил	-11.2816
8%	-11.2817
lji	-11.2819
ирани	-11.2819
▁števil	-11.2819
ične	-11.2821
dž	-11.2823
нік	-11.2826
δι	-11.2827
වත්	-11.2827
ován	-11.2827
▁околу	-11.283
▁ді	-11.2831
itev	-11.2831
▁59	-11.2832
рат	-11.2832
▁linna	-11.2832
▁이후	-11.2833
▁đề	-11.2833
الية	-11.2833
تين	-11.2834
vine	-11.2834
bá	-11.2834
او	-11.2834
▁Michel	-11.2836
ỗ	-11.2836
لعب	-11.2837
▁petit	-11.2837
▁leur	-11.2837
▁نه	-11.2839
cti	-11.2839
修	-11.2841
▁пет	-11.2841
תק	-11.2842
▁1992.	-11.2842
izo	-11.2843
דים	-11.2844
lės	-11.2845
ọ	-11.2845
▁År	-11.2845
нең	-11.2846
leh	-11.2846
▁stu	-11.2847
▁legend	-11.2847
▁мир	-11.2847
house	-11.2849
vje	-11.2851
لت	-11.2851
▁опера	-11.2852
leid	-11.2852
▁път	-11.2852
2003	-11.2852
▁sín	-11.2853
▁селото	-11.2853
▁Street	-11.2854
صف	-11.2855
門	-11.2856
ични	-11.2856
▁Tun	-11.2856
цкі	-11.2857
δα	-11.2858
вай	-11.2859
▁mali	-11.286
▁cost	-11.2861
▁lá	-11.2861
▁momento	-11.2861
▁rim	-11.2861
▁саны	-11.2863
▁fen	-11.2864
्म	-11.2864
▁trị	-11.2866
sljed	-11.2866
äär	-11.2866
σα	-11.2871
त्या	-11.2871
Ju	-11.2872
半	-11.2873
▁۳	-11.2875
▁hab	-11.2877
ról	-11.288
▁тор	-11.2881
▁Hai	-11.2881
гол	-11.2883
配	-11.2885
۲۰۰	-11.2886
▁Қ	-11.2886
▁medzi	-11.2887
itor	-11.2887
tiques	-11.2887
▁Adam	-11.2888
▁fino	-11.289
larına	-11.289
▁života	-11.289
veni	-11.289
▁کن	-11.289
ności	-11.2891
арх	-11.2891
தா	-11.2893
ضر	-11.2893
там	-11.2895
▁тим	-11.2895
▁Lim	-11.2896
গা	-11.2896
4%	-11.2897
yb	-11.2897
رى	-11.2898
▁sempre	-11.2898
들이	-11.2898
gol	-11.2898
▁komunumo	-11.2899
▁lần	-11.29
eksi	-11.2901
न्द	-11.2902
▁باز	-11.2902
▁prae	-11.2903
▁Nikola	-11.2903
चार	-11.2905
▁форма	-11.2905
▁1895	-11.2906
▁zgod	-11.2906
зон	-11.2906
uoja	-11.2907
likuwa	-11.2907
▁dünya	-11.2907
ае	-11.2908
džio	-11.2908
maks	-11.2909
ять	-11.2909
▁Que	-11.2909
▁4-	-11.2909
▁1899	-11.2909
יון	-11.2911
šla	-11.2911
▁Papa	-11.2912
歌	-11.2912
▁cili	-11.2912
▁hall	-11.2913
حر	-11.2913
histori	-11.2913
▁72	-11.2916
▁लि	-11.2916
▁दक्षिण	-11.2916
নার	-11.2916
elijk	-11.2917
jska	-11.2917
lő	-11.2919
▁ট	-11.2919
iere	-11.292
iksi	-11.2921
osios	-11.2921
▁Microsoft	-11.2924
▁Nederland	-11.2924
lly	-11.2926
▁гр	-11.2927
▁Vie	-11.2928
മായ	-11.2928
▁thức	-11.2928
сия	-11.2929
كون	-11.2929
യുടെ	-11.293
▁comuna	-11.2931
▁проблем	-11.2932
кри	-11.2933
▁Alang	-11.2934
引	-11.2934
▁individu	-11.2935
5.000	-11.2935
▁ന	-11.2936
▁0.	-11.2936
auto	-11.2936
tė	-11.2937
她	-11.2937
▁ton	-11.2937
▁dil	-11.2938
▁tarp	-11.2938
▁ху	-11.2938
▁Rich	-11.2939
▁reli	-11.294
▁Austria	-11.294
ている	-11.2941
ellen	-11.2941
▁ubang	-11.2941
▁Hau	-11.2941
ব্য	-11.2943
jsko	-11.2947
мит	-11.2947
јќи	-11.2948
তার	-11.2949
hul	-11.2951
sund	-11.2952
▁char	-11.2952
čev	-11.2954
▁Sara	-11.2954
ടി	-11.2955
▁större	-11.2955
fte	-11.2955
▁gjorde	-11.2956
▁keli	-11.2957
▁simbol	-11.2957
head	-11.2958
▁hak	-11.2959
лося	-11.2959
vista	-11.2959
▁زمان	-11.2959
rätt	-11.296
▁krit	-11.296
Par	-11.2962
▁către	-11.2962
▁která	-11.2963
jela	-11.2964
▁작	-11.2964
فس	-11.2965
▁Рос	-11.2966
▁França	-11.2967
വാ	-11.2967
tív	-11.2967
solu	-11.2967
未	-11.2968
են	-11.2968
▁•	-11.2969
▁sõ	-11.2969
ikka	-11.297
ҷ	-11.297
য়ার	-11.297
إ	-11.297
तर	-11.2971
▁نوع	-11.2972
▁יו	-11.2972
▁Video	-11.2973
кін	-11.2974
ості	-11.2974
holm	-11.2975
vist	-11.2976
▁don	-11.2976
▁කළ	-11.2978
εργ	-11.2979
itel	-11.298
eus	-11.2981
▁disk	-11.2982
▁Ке	-11.2982
компан	-11.2985
▁aliaj	-11.2987
iak	-11.2987
atta	-11.2988
▁според	-11.2989
▁grandes	-11.2989
ása	-11.299
hos	-11.299
▁Рус	-11.2991
▁কাজ	-11.2992
▁матч	-11.2992
7%	-11.2992
ঃ	-11.2995
▁geh	-11.2995
▁aper	-11.2996
▁borg	-11.2996
פות	-11.2996
▁oca	-11.2996
▁prezident	-11.2997
▁bok	-11.2997
▁Kỳ	-11.2998
ями	-11.2998
toč	-11.2999
▁Rou	-11.2999
iyyət	-11.2999
ezi	-11.3
פרס	-11.3
wart	-11.3002
tys	-11.3002
▁62	-11.3003
▁Bakı	-11.3004
thi	-11.3004
త్త	-11.3005
▁يمكن	-11.3005
▁EU	-11.3006
▁cam	-11.3006
யான	-11.3008
▁postao	-11.3009
gine	-11.301
ינו	-11.3012
▁artist	-11.3012
▁дан	-11.3012
▁ری	-11.3013
2001	-11.3014
кур	-11.3014
nila	-11.3014
▁denomina	-11.3015
جی	-11.3017
ې	-11.3017
ений	-11.3017
▁أل	-11.302
atie	-11.302
▁Anton	-11.3022
▁kepada	-11.3022
▁ల	-11.3023
▁gjen	-11.3024
▁поради	-11.3025
gent	-11.3028
▁kant	-11.303
рым	-11.303
▁සං	-11.3031
▁tok	-11.3032
▁kommer	-11.3034
ावर	-11.3034
kva	-11.3034
NK	-11.3034
真	-11.3035
šao	-11.3036
▁Peru	-11.3036
BC	-11.3036
▁stav	-11.3037
▁Vas	-11.3037
▁María	-11.3039
▁кер	-11.3039
ắ	-11.304
бур	-11.304
▁زیر	-11.304
сход	-11.304
ğı	-11.304
▁gihapon	-11.304
▁اول	-11.3041
▁mateix	-11.3042
pani	-11.3042
▁nå	-11.3043
▁sø	-11.3044
vni	-11.3046
▁convert	-11.3048
▁இருந்த	-11.3048
▁পে	-11.3048
ћи	-11.305
區	-11.305
▁театр	-11.3052
eken	-11.3053
▁države	-11.3054
:00	-11.3054
▁επί	-11.3055
ST	-11.3055
▁mind	-11.3056
kład	-11.3056
▁tir	-11.3056
ști	-11.3059
uksen	-11.306
▁área	-11.306
▁condu	-11.3061
ച്ച	-11.3061
▁papa	-11.3063
▁наук	-11.3063
ഭ	-11.3067
▁qytet	-11.3069
alne	-11.307
▁63	-11.3071
വര	-11.3071
cida	-11.3072
▁egiten	-11.3073
▁Jed	-11.3073
born	-11.3073
pf	-11.3074
▁Hong	-11.3074
еп	-11.3075
족	-11.3075
yla	-11.3075
र्म	-11.3075
▁जन्म	-11.3076
вая	-11.3076
кам	-11.3078
▁Според	-11.3078
laj	-11.3078
▁herri	-11.3079
ండ్	-11.308
▁Bern	-11.308
▁mini	-11.308
ঞ্জ	-11.3081
▁negara	-11.3081
ierte	-11.3082
▁város	-11.3083
▁fall	-11.3086
▁Vest	-11.3087
▁Рад	-11.3088
rius	-11.3089
গুলো	-11.3089
▁हुई	-11.3089
ccion	-11.309
सन	-11.3091
▁XIV	-11.3091
కో	-11.3091
కూ	-11.3091
▁două	-11.3092
తం	-11.3092
▁djelo	-11.3094
▁bagian	-11.3094
íz	-11.3094
▁phá	-11.3096
▁ҡа	-11.3096
▁CS	-11.3098
▁üks	-11.3099
▁tiene	-11.3099
åg	-11.31
atus	-11.31
RO	-11.31
lisi	-11.31
serva	-11.3101
▁bulan	-11.3101
изм	-11.3101
مال	-11.3102
бол	-11.3102
▁विश्व	-11.3103
іне	-11.3103
▁SS	-11.3103
nö	-11.3105
▁dje	-11.3105
DP	-11.3106
▁কিছু	-11.3106
jum	-11.3108
ట్ట	-11.3109
rist	-11.311
▁Alg	-11.3112
زه	-11.3112
▁భారత	-11.3113
▁sö	-11.3115
dian	-11.3118
تش	-11.3118
ග්	-11.3118
▁hát	-11.3119
מא	-11.3119
јата	-11.312
вой	-11.312
οποι	-11.3121
▁ori	-11.3121
нет	-11.3122
গ্র	-11.3123
urd	-11.3123
rm	-11.3123
▁Nicola	-11.3124
▁Wood	-11.3124
ánh	-11.3126
θεί	-11.3126
▁επίσης	-11.3127
ക്കാ	-11.3129
党	-11.313
▁όπου	-11.3131
▁Godine	-11.3131
▁artean	-11.3131
jur	-11.3131
ழி	-11.3133
erek	-11.3134
стиг	-11.3135
сад	-11.3136
▁XIII	-11.3136
važ	-11.3139
ამ	-11.3139
NO	-11.314
ària	-11.3141
▁Αν	-11.3141
lés	-11.3143
నె	-11.3143
▁안	-11.3144
▁گروه	-11.3144
mål	-11.3144
▁fizik	-11.3145
ング	-11.3145
▁става	-11.3146
▁simple	-11.315
▁forte	-11.315
▁mới	-11.315
▁vila	-11.3151
▁영	-11.3151
cell	-11.3152
▁folk	-11.3152
שות	-11.3153
▁בס	-11.3153
▁mehr	-11.3154
▁Mann	-11.3155
চে	-11.3155
AF	-11.3155
лата	-11.3155
াল	-11.3156
6%	-11.3156
▁گو	-11.3156
تن	-11.3156
▁statu	-11.3157
tò	-11.3158
skiej	-11.3159
▁njegove	-11.3159
slav	-11.3159
קים	-11.3161
▁అను	-11.3161
קס	-11.3162
cki	-11.3164
▁Cam	-11.3164
मार	-11.3164
ילה	-11.3164
▁Dette	-11.3167
▁1848	-11.3168
руч	-11.317
вых	-11.317
phe	-11.3171
ilu	-11.3171
▁הד	-11.3172
▁giáo	-11.3174
▁беше	-11.3174
▁Chicago	-11.3176
▁nú	-11.3176
▁Football	-11.3176
ácia	-11.3177
▁Egipt	-11.3177
యో	-11.3178
kų	-11.3178
▁लोक	-11.3178
iĝo	-11.3178
▁Pac	-11.3178
bier	-11.3178
ाचा	-11.318
▁були	-11.3181
▁tio	-11.3181
▁लेकिन	-11.3182
▁яр	-11.3182
inski	-11.3184
▁partido	-11.3185
▁Jun	-11.3186
ixo	-11.3186
▁ار	-11.3187
▁Mod	-11.3187
аб	-11.3187
нім	-11.3188
▁letech	-11.3188
▁pojav	-11.3188
uter	-11.3189
свет	-11.3189
▁família	-11.3189
▁poden	-11.3189
▁animal	-11.319
kord	-11.3193
▁Til	-11.3193
提	-11.3193
ndur	-11.3196
▁chu	-11.3197
▁mula	-11.3197
▁శ	-11.3201
েই	-11.3201
kë	-11.3202
▁kita	-11.3202
▁educa	-11.3205
▁otkri	-11.3205
▁πα	-11.3206
▁гра	-11.3206
▁krij	-11.3207
▁jää	-11.3207
puol	-11.3207
▁දී	-11.3207
▁máy	-11.3207
▁그는	-11.3208
nza	-11.3211
▁اش	-11.3212
כת	-11.3213
уби	-11.3214
δη	-11.3215
▁soldat	-11.3216
uva	-11.3217
эк	-11.3218
▁العالم	-11.3218
▁जन	-11.3219
住	-11.3219
zwa	-11.3219
▁politika	-11.322
ず	-11.322
ellä	-11.322
▁konstru	-11.3221
tres	-11.3221
▁दिन	-11.3222
▁punkt	-11.3224
▁resto	-11.3225
చ్చ	-11.3225
ιού	-11.3225
म्ब	-11.3227
рб	-11.3229
▁hü	-11.323
vreme	-11.323
▁Sm	-11.3231
▁68	-11.3231
▁kapa	-11.3231
otto	-11.3233
కె	-11.3235
▁app	-11.3235
▁Dis	-11.3236
▁filma	-11.3236
κιν	-11.3236
▁வரை	-11.3237
είο	-11.3237
함	-11.324
vă	-11.324
Bu	-11.3241
Sp	-11.3242
ická	-11.3243
▁Night	-11.3244
десет	-11.3244
руд	-11.3245
vej	-11.3246
▁gift	-11.3246
ート	-11.3247
▁через	-11.3251
▁lov	-11.3253
cit	-11.3254
רג	-11.3254
قد	-11.3255
▁бра	-11.3255
▁यो	-11.3255
Univers	-11.3256
ïn	-11.3256
▁astronom	-11.3256
spod	-11.3256
tribu	-11.3257
▁šest	-11.3257
யே	-11.3259
▁Gun	-11.326
▁Ком	-11.326
▁ühe	-11.3261
скую	-11.3262
ciju	-11.3264
▁Ге	-11.3264
▁rész	-11.3264
▁logo	-11.3265
▁komen	-11.3265
čar	-11.3266
ज्ञा	-11.3266
▁מק	-11.3267
llä	-11.3267
▁rö	-11.3268
फ़	-11.3268
ஞ்ச	-11.3269
▁banyak	-11.3269
into	-11.327
Go	-11.3271
anju	-11.3271
▁използва	-11.3271
▁৩	-11.3272
বু	-11.3272
vė	-11.3273
சா	-11.3274
съ	-11.3275
▁estaba	-11.3275
सू	-11.3276
ற்	-11.3277
поч	-11.3277
▁һ	-11.3277
him	-11.3278
ứ	-11.3278
anska	-11.328
owie	-11.3281
▁play	-11.3282
broj	-11.3282
ürü	-11.3282
frica	-11.3283
▁Roger	-11.3284
我	-11.3285
▁2015,	-11.3285
▁Lungsod	-11.3286
روس	-11.3287
▁orde	-11.3287
▁vlasti	-11.3287
volv	-11.3288
▁voe	-11.3289
σία	-11.3289
liste	-11.329
せ	-11.3292
▁Так	-11.3292
àng	-11.3293
dale	-11.3294
▁latach	-11.3294
▁hidro	-11.3295
firm	-11.3295
▁محمد	-11.3296
haus	-11.3297
qué	-11.3297
▁61	-11.33
sburg	-11.3301
▁йылдың	-11.3303
▁omkring	-11.3303
▁어	-11.3304
यो	-11.3304
ME	-11.3306
▁Creek	-11.3306
pina	-11.3307
▁voru	-11.3307
▁становника	-11.3308
CI	-11.3308
▁жер	-11.3309
▁govori	-11.3309
dru	-11.331
一個	-11.3311
▁arra	-11.3312
folk	-11.3313
▁ביותר	-11.3314
крат	-11.3314
▁obje	-11.3314
▁gegen	-11.3315
kara	-11.3315
気	-11.3316
ంగ్	-11.3316
▁fyrst	-11.3316
عرف	-11.3317
▁Johan	-11.3318
ikus	-11.3318
mpi	-11.3319
eurs	-11.3321
▁situ	-11.3321
تون	-11.3321
MI	-11.3322
poli	-11.3323
▁Great	-11.3323
▁Mik	-11.3323
ndum	-11.3324
▁आय	-11.3324
بور	-11.3325
▁colon	-11.3327
▁1,5	-11.3327
imą	-11.3329
▁Jeho	-11.3329
▁Stockholm	-11.333
wing	-11.333
பட்ட	-11.3331
▁Quest	-11.3332
組	-11.3333
▁없	-11.3333
tö	-11.3333
ês	-11.3334
dala	-11.3335
▁გ	-11.3335
▁произ	-11.3336
kaan	-11.3337
nev	-11.3338
▁postal	-11.3338
▁diplomat	-11.3338
▁cen	-11.3338
▁جا	-11.3339
▁kojem	-11.334
tiko	-11.334
省	-11.3342
্ব	-11.3342
▁kamen	-11.3343
즈	-11.3343
bă	-11.3343
▁vse	-11.3344
tier	-11.3345
▁bland	-11.3345
周	-11.3346
▁للم	-11.3346
▁regul	-11.3347
порт	-11.3348
нак	-11.3348
▁Terra	-11.335
▁drugih	-11.335
ischer	-11.3351
дна	-11.3351
▁svo	-11.3351
bú	-11.3353
▁revi	-11.3353
spekt	-11.3353
▁Mountain	-11.3354
반	-11.3356
lede	-11.3357
ulan	-11.3358
▁majd	-11.3359
šie	-11.3359
कृत	-11.3362
trans	-11.3362
emia	-11.3363
uku	-11.3363
こ	-11.3363
▁nii	-11.3364
▁Texas	-11.3364
▁ό	-11.3365
▁دور	-11.3365
▁español	-11.3365
pí	-11.3365
joje	-11.3366
üt	-11.3367
βλ	-11.3367
χωρ	-11.3368
▁كا	-11.3368
▁obraz	-11.3369
▁ప్రతి	-11.3369
▁deriva	-11.337
▁pose	-11.3372
▁sezoni	-11.3372
طل	-11.3373
arse	-11.3373
▁חו	-11.3375
▁filmu	-11.3376
ालय	-11.3376
▁hum	-11.3377
▁điểm	-11.3377
літ	-11.3379
unan	-11.3379
▁పె	-11.3379
▁δε	-11.3379
▁mostra	-11.3379
ttle	-11.338
▁même	-11.338
▁futur	-11.3381
▁vrlo	-11.3381
▁Lig	-11.3385
▁স্	-11.3385
atura	-11.3386
wał	-11.3387
nál	-11.3387
▁який	-11.3388
kow	-11.3388
risti	-11.3389
▁đường	-11.339
ildi	-11.339
▁сме	-11.3391
▁производ	-11.3391
▁parto	-11.3393
▁Prince	-11.3394
ална	-11.3396
व्ह	-11.3397
oslav	-11.3398
師	-11.3399
▁गा	-11.3399
▁drugo	-11.3399
বাস	-11.34
▁කිරීම	-11.34
greg	-11.34
입	-11.3401
ờ	-11.3401
▁cat	-11.3401
ovou	-11.3402
ठा	-11.3402
নী	-11.3402
গত	-11.3403
ঘ	-11.3403
▁често	-11.3403
▁Пра	-11.3404
▁hö	-11.3405
spec	-11.3405
anca	-11.3406
mah	-11.3406
▁Miss	-11.3406
techn	-11.3407
▁напад	-11.3407
▁Motor	-11.3408
▁Lev	-11.3408
middel	-11.3408
mbu	-11.3408
요	-11.3408
rijk	-11.3409
▁Sankt	-11.3409
▁ব্যা	-11.3409
skou	-11.341
न्न	-11.341
ழை	-11.341
ורה	-11.341
rata	-11.3412
▁Për	-11.3414
yə	-11.3415
▁Flu	-11.3416
▁grote	-11.3416
▁Alfred	-11.3418
話	-11.3418
CD	-11.3419
▁баз	-11.3419
čku	-11.3419
quin	-11.3419
▁Manuel	-11.3419
cita	-11.342
▁profil	-11.3421
ৱ	-11.3421
▁4,	-11.3421
зд	-11.3422
▁לח	-11.3424
zir	-11.3425
过	-11.3426
nais	-11.3428
▁என்பது	-11.3428
▁profesional	-11.3429
dana	-11.3429
▁Ел	-11.3431
õr	-11.3431
▁Anne	-11.3431
ander	-11.3432
▁European	-11.3433
ivät	-11.3434
ëm	-11.3435
सर	-11.3435
▁வெ	-11.3436
oaren	-11.3436
तात	-11.3437
▁перед	-11.3437
▁করেছে	-11.3438
ĵ	-11.3438
2002	-11.3439
▁bá	-11.3439
шти	-11.3441
▁Game	-11.3445
▁Bungto	-11.3446
sey	-11.3446
▁جنگ	-11.3448
▁Pie	-11.3448
presa	-11.3449
▁hạ	-11.3449
▁época	-11.345
otta	-11.3452
peri	-11.3453
▁آر	-11.3455
غر	-11.3456
武	-11.3457
kü	-11.3458
▁elev	-11.3458
▁jarcento	-11.3459
▁magnet	-11.3459
▁종	-11.346
ப்படுகிறது	-11.346
ження	-11.346
buk	-11.3461
▁сил	-11.3462
▁segle	-11.3463
▁tranh	-11.3463
▁šal	-11.3463
▁Dur	-11.3463
fær	-11.3464
▁школ	-11.3464
▁দিয়ে	-11.3464
该	-11.3465
λί	-11.3466
imen	-11.3466
▁gav	-11.3467
iers	-11.3467
▁Bundes	-11.3469
▁अनेक	-11.3472
ringen	-11.3472
כי	-11.3472
▁handi	-11.3472
▁född	-11.3472
සු	-11.3473
▁Kaliforni	-11.3473
рем	-11.3474
▁Sco	-11.3475
兩	-11.3475
صب	-11.3476
sında	-11.3478
ești	-11.3479
maður	-11.3481
చు	-11.3481
ійськ	-11.3481
▁שמ	-11.3482
▁τρ	-11.3482
ận	-11.3483
ils	-11.3483
▁adopt	-11.3483
출	-11.3484
ライ	-11.3484
Th	-11.3485
▁Bob	-11.3486
▁manten	-11.3487
tää	-11.3487
▁kroz	-11.3489
▁১৮	-11.3492
▁firm	-11.3492
бек	-11.3492
نف	-11.3493
▁Jon	-11.3494
▁aero	-11.3494
ország	-11.3494
部分	-11.3495
▁Nga	-11.3496
▁sayı	-11.3496
▁روز	-11.3499
kkel	-11.35
áp	-11.3501
▁emakume	-11.3501
▁cầu	-11.3505
βι	-11.3505
▁Пу	-11.3506
▁кре	-11.3506
▁sĩ	-11.3507
▁proced	-11.3507
▁kraljev	-11.3509
則	-11.3509
▁тә	-11.351
σης	-11.3511
ән	-11.3513
स्था	-11.3514
▁Franz	-11.3515
izma	-11.3515
▁أس	-11.3516
▁dirigi	-11.3516
ських	-11.3517
ities	-11.3517
▁Sky	-11.3518
ங்	-11.3518
স্থ	-11.352
▁その	-11.352
▁dur	-11.3521
▁1997.	-11.3522
▁thì	-11.3522
▁atac	-11.3525
▁gest	-11.3525
▁systém	-11.3526
park	-11.3526
▁elektr	-11.3528
▁Act	-11.3531
▁खेल	-11.3531
失	-11.3532
황	-11.3533
▁Στη	-11.3534
ked	-11.3534
▁крај	-11.3534
under	-11.3536
▁live	-11.3536
▁znám	-11.3537
ába	-11.3538
zol	-11.3539
▁postup	-11.3541
▁أول	-11.3541
▁কে	-11.3541
▁regional	-11.3542
▁tule	-11.3542
зв	-11.3542
▁lle	-11.3542
dah	-11.3543
▁nimi	-11.3544
▁hindi	-11.3544
▁imao	-11.3545
vill	-11.3545
dav	-11.3546
лага	-11.3547
▁bag	-11.3547
FI	-11.3547
▁सर्व	-11.3549
▁sim	-11.3549
▁még	-11.355
ijan	-11.3551
座	-11.3552
▁arm	-11.3552
пар	-11.3552
दार	-11.3554
▁ці	-11.3554
ील	-11.3554
štit	-11.3556
istik	-11.3557
ари	-11.3558
டா	-11.3558
▁Chart	-11.3558
лич	-11.3558
▁numer	-11.3559
ங்களில்	-11.3559
▁куп	-11.356
хар	-11.3561
▁mindre	-11.3562
iteľ	-11.3562
ıldı	-11.3562
▁članak	-11.3563
▁Whi	-11.3564
▁통	-11.3564
▁наступ	-11.3565
▁franc	-11.3566
قی	-11.3567
▁fle	-11.3568
▁varð	-11.3568
▁okres	-11.3569
itsi	-11.3569
▁аст	-11.357
hing	-11.3571
енә	-11.3572
व्या	-11.3573
েল	-11.3573
فه	-11.3573
lais	-11.3573
▁fotografi	-11.3573
mož	-11.3574
4)	-11.3574
బడింది	-11.3574
▁njih	-11.3575
ësi	-11.3575
▁1996.	-11.3576
רות	-11.3576
сол	-11.3576
сында	-11.3578
гла	-11.3579
▁rất	-11.3579
▁Over	-11.3579
pole	-11.358
ద్ద	-11.3581
ология	-11.3581
tävä	-11.3582
▁85	-11.3583
িন	-11.3583
ున్న	-11.3583
▁Mul	-11.3584
▁kron	-11.3584
יקה	-11.3585
▁Palm	-11.3586
jskih	-11.3587
▁olma	-11.3588
▁questo	-11.3589
▁Хе	-11.3589
▁modo	-11.3591
لر	-11.3591
तु	-11.3591
▁Williams	-11.3591
▁elektri	-11.3592
ց	-11.3593
তু	-11.3593
▁штат	-11.3593
▁Sed	-11.3595
tric	-11.3596
▁đánh	-11.3596
▁they	-11.3596
лися	-11.3598
టె	-11.3598
fly	-11.3598
▁chúng	-11.3599
lerini	-11.36
inę	-11.36
▁fakt	-11.36
മാണ്	-11.3602
SR	-11.3603
勒	-11.3604
▁۱۳	-11.3604
▁груп	-11.3605
▁постав	-11.3605
▁figura	-11.3608
kama	-11.3608
除	-11.3609
▁едно	-11.361
▁ih	-11.361
▁posto	-11.361
▁vodi	-11.3611
▁संघ	-11.3612
post	-11.3612
▁Besøkt	-11.3612
▁point	-11.3612
ičke	-11.3612
▁это	-11.3613
hom	-11.3613
彼	-11.3614
▁off	-11.3616
λή	-11.3616
dium	-11.3616
搭	-11.3621
gå	-11.3621
ък	-11.3622
▁தே	-11.3622
ჩ	-11.3622
lal	-11.3623
эр	-11.3623
▁Pur	-11.3623
ilen	-11.3623
▁match	-11.3624
▁donde	-11.3624
merk	-11.3624
▁skil	-11.3624
पर	-11.3625
▁Nas	-11.3625
▁seda	-11.3625
片	-11.3625
vana	-11.3627
вел	-11.3627
ელ	-11.3631
▁Eric	-11.3631
▁game	-11.3631
▁susi	-11.3632
▁பகுதி	-11.3632
▁participa	-11.3634
cka	-11.3635
▁première	-11.3636
ogen	-11.3636
▁Cab	-11.3637
▁station	-11.3638
ফা	-11.3639
▁taip	-11.364
vz	-11.3641
▁Nem	-11.3641
jár	-11.3641
▁dau	-11.3641
▁مختلف	-11.3642
জে	-11.3642
vice	-11.3643
▁ஐ	-11.3644
▁fy	-11.3645
рия	-11.3645
▁campo	-11.3646
فة	-11.3647
▁slut	-11.3647
▁měst	-11.3647
▁Championship	-11.3648
As	-11.3648
مساعدة	-11.3649
▁उन्हें	-11.3651
лика	-11.3652
gune	-11.3653
ză	-11.3653
▁tập	-11.3655
현	-11.3655
▁शब्द	-11.3655
▁biz	-11.3655
▁Lud	-11.3658
রণ	-11.3659
▁sjever	-11.3659
▁ён	-11.366
▁città	-11.366
wak	-11.366
IV	-11.3661
▁Lä	-11.3661
▁Copa	-11.3663
▁nr	-11.3664
vati	-11.3664
▁выс	-11.3664
现	-11.3665
тери	-11.3667
▁আস	-11.3667
ından	-11.3667
gust	-11.3667
NS	-11.3668
▁וי	-11.3668
hran	-11.3668
▁1990-	-11.3671
rant	-11.3671
১৯	-11.3671
▁XII	-11.3673
▁XV	-11.3674
▁okoli	-11.3674
▁стал	-11.3676
لند	-11.3678
ických	-11.3678
▁había	-11.3679
▁Вы	-11.368
▁කරන	-11.3681
Si	-11.3683
開始	-11.3685
lø	-11.3685
াস	-11.3686
øl	-11.3687
▁Bun	-11.3687
ndus	-11.3688
義	-11.3688
ху	-11.3688
њем	-11.3688
公司	-11.3688
▁Pot	-11.3691
мә	-11.3691
πτ	-11.3691
▁67	-11.3691
ංග	-11.3692
▁포	-11.3692
▁drejt	-11.3692
东	-11.3693
əz	-11.3694
chia	-11.3695
רד	-11.3695
καν	-11.3695
▁engelsk	-11.3696
▁Ay	-11.3697
теп	-11.3698
▁धर्म	-11.3698
веден	-11.3698
▁pomoć	-11.3699
сно	-11.37
oloji	-11.37
овић	-11.3701
▁objav	-11.3701
▁empresa	-11.3702
▁април	-11.3703
▁అనే	-11.3704
▁могу	-11.3705
efter	-11.3705
μένη	-11.3706
經	-11.3706
ניה	-11.3706
▁110	-11.3707
леп	-11.3707
еб	-11.3708
▁голов	-11.3708
▁pad	-11.3708
▁দা	-11.371
된다	-11.371
▁Milli	-11.3711
▁fur	-11.3711
ující	-11.3712
非	-11.3713
▁Št	-11.3714
ković	-11.3714
▁problema	-11.3714
▁tit	-11.3715
限	-11.3715
▁mbi	-11.3715
▁شوند	-11.3715
गण	-11.3715
not	-11.3715
▁назва	-11.3716
нде	-11.3716
▁দল	-11.3717
نان	-11.3717
sloven	-11.3717
▁المن	-11.3718
▁Nie	-11.3719
▁aplica	-11.3719
rung	-11.372
源	-11.3721
▁წ	-11.3721
vier	-11.3721
SD	-11.3721
وری	-11.3722
▁lát	-11.3722
drom	-11.3722
ग्रह	-11.3725
▁ति	-11.3725
tora	-11.3725
asında	-11.3726
בת	-11.3727
▁उपयोग	-11.3727
언	-11.3729
▁abi	-11.3729
xes	-11.3729
anski	-11.373
▁inicia	-11.3731
▁Joan	-11.3731
EM	-11.3732
ग्र	-11.3734
▁США	-11.3734
▁албум	-11.3736
לר	-11.3736
иј	-11.3736
uloj	-11.3737
▁mac	-11.3738
▁malo	-11.3738
令	-11.3741
veden	-11.3741
▁gene	-11.3741
▁medlem	-11.3743
gawa	-11.3743
▁member	-11.3743
telli	-11.3744
▁cấp	-11.3746
system	-11.3748
ried	-11.3748
нин	-11.3748
▁образ	-11.3748
▁principale	-11.3748
▁paro	-11.3752
ipun	-11.3754
ление	-11.3754
▁их	-11.3754
▁بیشتر	-11.3756
đu	-11.3758
▁Gö	-11.3759
▁दा	-11.3761
▁tàu	-11.3762
▁Ark	-11.3762
კა	-11.3762
ολογ	-11.3762
▁sür	-11.3763
eign	-11.3763
iei	-11.3764
▁вз	-11.3764
স্থা	-11.3764
wol	-11.3765
▁metų	-11.3766
각	-11.3766
ுகிறது	-11.3766
alist	-11.3768
úr	-11.3769
▁ona	-11.3771
ష్ట	-11.3771
▁göre	-11.3771
▁dunha	-11.3772
య్య	-11.3772
కాల	-11.3772
בד	-11.3773
▁měl	-11.3773
編	-11.3773
оби	-11.3775
▁kül	-11.3775
ాలలో	-11.3775
dun	-11.3776
ovým	-11.3776
▁këtë	-11.3777
ице	-11.3779
▁lå	-11.378
▁ondoren	-11.378
сет	-11.378
▁система	-11.3781
▁Kle	-11.3783
族	-11.3783
גור	-11.3784
віт	-11.3784
bliž	-11.3784
版	-11.3785
▁verzi	-11.3785
▁сите	-11.3786
øde	-11.3787
كتب	-11.3788
సం	-11.379
position	-11.379
кал	-11.3791
мага	-11.3791
론	-11.3792
▁mana	-11.3792
menti	-11.3792
▁ге	-11.3792
اعة	-11.3792
ソ	-11.3793
fol	-11.3794
▁Thi	-11.3795
▁Stone	-11.3796
bygg	-11.3797
▁چند	-11.3797
▁Kul	-11.3797
▁тога	-11.3797
יז	-11.3797
▁רו	-11.3798
▁ది	-11.3799
▁usu	-11.3799
ेन	-11.3801
ença	-11.3801
开	-11.3802
600	-11.3802
▁dagoen	-11.3803
pris	-11.3803
▁Jones	-11.3804
govor	-11.3805
▁සඳහා	-11.3806
▁título	-11.3806
tory	-11.3807
▁kraju	-11.3811
uß	-11.3812
▁regel	-11.3813
▁bé	-11.3813
دل	-11.3814
gge	-11.3814
станов	-11.3815
انت	-11.3815
acji	-11.3816
כתב	-11.3817
▁drama	-11.3818
▁pomoc	-11.3819
skrift	-11.3819
gene	-11.382
投	-11.382
▁пе	-11.382
əş	-11.3821
cap	-11.3821
▁حتى	-11.3821
oid	-11.3821
mõ	-11.3822
▁vice	-11.3822
▁ఆమె	-11.3823
▁turist	-11.3823
▁drugim	-11.3823
▁अनुसार	-11.3824
▁Napoleon	-11.3824
▁molekul	-11.3825
ử	-11.3825
దీ	-11.3825
▁internacional	-11.3826
쪽	-11.3828
▁mandat	-11.3828
▁ζ	-11.3829
had	-11.3829
▁रह	-11.3829
▁buru	-11.383
▁kwam	-11.383
▁Hier	-11.383
▁Joe	-11.3831
ični	-11.3831
▁සි	-11.3833
▁địa	-11.3834
▁ল	-11.3834
ంప	-11.3835
▁Mount	-11.3836
न्त	-11.3836
▁sortu	-11.3836
▁Old	-11.3837
diri	-11.3839
ीं	-11.3839
▁národ	-11.3841
zioa	-11.3841
향	-11.3843
भा	-11.3846
▁bö	-11.3846
дон	-11.3846
▁lands	-11.3846
unni	-11.3846
ادة	-11.3847
▁firma	-11.3848
istes	-11.3848
▁cens	-11.3849
▁Fall	-11.385
ত্ব	-11.3851
ística	-11.3852
رن	-11.3852
oak	-11.3853
▁Mundial	-11.3853
ിക്ക	-11.3853
▁진	-11.3855
мб	-11.3856
ulat	-11.3856
ről	-11.3857
gui	-11.3857
iranje	-11.3859
unk	-11.386
▁abandon	-11.386
Ο	-11.3861
▁používa	-11.3861
ışı	-11.3861
geb	-11.3862
▁zituzten	-11.3863
▁szerint	-11.3863
▁Кан	-11.3864
▁Lor	-11.3865
ബ	-11.3866
▁otok	-11.3867
▁крал	-11.3867
▁آل	-11.3868
▁жив	-11.3868
▁ihre	-11.3868
ෙන	-11.3869
žni	-11.3869
▁Ré	-11.3869
mental	-11.387
gram	-11.3873
cina	-11.3875
র্থ	-11.3875
▁made	-11.3876
▁தா	-11.3876
gard	-11.3876
тры	-11.3876
lett	-11.3877
ático	-11.3878
ирање	-11.3879
тата	-11.388
γεν	-11.388
▁pels	-11.3881
▁1994.	-11.3882
▁Atlant	-11.3884
▁Ale	-11.3884
▁erabiltzen	-11.3884
▁său	-11.3885
▁spolu	-11.3885
▁5-	-11.3886
कल	-11.3888
▁Arte	-11.3888
▁autonom	-11.3889
▁Soviet	-11.389
▁Fran	-11.3891
kraft	-11.3891
тол	-11.3892
"),	-11.3892
rog	-11.3893
рма	-11.3893
▁గ్రామం	-11.3896
▁atas	-11.3896
▁salah	-11.3897
▁1889	-11.3898
9%	-11.3898
▁Wie	-11.3898
▁lider	-11.3899
▁landet	-11.3899
ído	-11.3899
ления	-11.3899
▁Гер	-11.3901
▁kombin	-11.3901
تى	-11.3902
1-	-11.3903
stem	-11.3903
▁automobil	-11.3903
▁кеше	-11.3904
▁altres	-11.3904
▁anak	-11.3906
ضا	-11.3906
▁институт	-11.3907
▁hatte	-11.3907
ன்ன	-11.3907
▁american	-11.3908
▁уче	-11.3909
▁Dunay	-11.391
▁perd	-11.391
▁phân	-11.3913
staan	-11.3913
вра	-11.3913
▁atra	-11.3913
asse	-11.3913
téri	-11.3914
▁doma	-11.3915
ory	-11.3916
▁వీ	-11.3916
▁napad	-11.3916
ijn	-11.3916
感	-11.3916
şə	-11.3918
्व	-11.3919
ців	-11.3919
▁nomo	-11.392
▁ර	-11.392
бл	-11.3921
חו	-11.3922
▁lingvo	-11.3923
ക്ക്	-11.3923
▁स्ट	-11.3924
▁Institut	-11.3924
▁termo	-11.3925
▁departament	-11.3925
jë	-11.3926
▁mí	-11.3926
ıyla	-11.3926
▁están	-11.3928
ించి	-11.3929
stadt	-11.3931
▁ఆయన	-11.3931
▁hotel	-11.3931
▁agent	-11.3931
▁dá	-11.3932
išta	-11.3932
木	-11.3933
yong	-11.3933
র্ড	-11.3935
Au	-11.3936
▁Hell	-11.3936
▁dobro	-11.3936
▁dự	-11.3937
▁ثم	-11.3937
▁요	-11.3938
තර	-11.3938
▁контрол	-11.3938
▁1885	-11.3938
▁Fel	-11.3939
оном	-11.394
botan	-11.394
▁także	-11.394
▁Brun	-11.3942
skip	-11.3942
nių	-11.3942
▁harr	-11.3942
▁esse	-11.3943
▁sống	-11.3944
▁sedan	-11.3944
▁ese	-11.3945
izam	-11.3946
rick	-11.3947
▁فرا	-11.3947
ंट	-11.3947
vall	-11.3948
▁své	-11.3948
火	-11.3949
▁Grup	-11.3949
ელი	-11.3949
bry	-11.3949
▁aussi	-11.395
▁گرفت	-11.3951
ώς	-11.3951
清	-11.3951
ність	-11.3952
▁أكثر	-11.3953
υμ	-11.3953
ברי	-11.3954
ansk	-11.3954
▁Vuonna	-11.3955
▁Ras	-11.3955
▁тре	-11.3955
enca	-11.3956
වීම	-11.3956
alda	-11.3956
▁toda	-11.3957
▁wurdt	-11.3958
jedno	-11.3958
▁Produ	-11.396
▁unui	-11.3961
▁mata	-11.3961
▁kojima	-11.3961
▁också	-11.3961
▁топ	-11.3961
▁تع	-11.3962
食	-11.3962
▁елда	-11.3964
lova	-11.3964
løs	-11.3964
صاد	-11.3964
час	-11.3966
▁داده	-11.3966
導	-11.3966
▁duen	-11.3967
▁patag	-11.3967
▁ident	-11.3967
ън	-11.3968
amba	-11.3969
▁tham	-11.3969
רק	-11.3971
mobil	-11.3972
ає	-11.3972
▁vực	-11.3972
čki	-11.3972
рот	-11.3972
統	-11.3973
하기	-11.3973
▁Γκ	-11.3973
▁२०	-11.3974
▁4:	-11.3975
▁súas	-11.3975
Sh	-11.3975
▁bố	-11.3976
λλ	-11.3976
enburg	-11.3977
▁1995.	-11.3979
יין	-11.398
ject	-11.3981
그	-11.3981
▁studij	-11.3982
▁đấu	-11.3982
skab	-11.3982
وري	-11.3983
▁neki	-11.3983
אד	-11.3983
▁puta	-11.3985
率	-11.3985
▁Ак	-11.3986
لغ	-11.3986
▁Team	-11.3986
сім	-11.3986
▁kemi	-11.3987
▁Region	-11.3987
▁également	-11.3988
elijke	-11.3989
▁nepo	-11.399
▁సు	-11.3991
▁чу	-11.3992
▁will	-11.3993
اض	-11.3994
க்கப்பட்ட	-11.3995
▁defin	-11.3995
ియన్	-11.3996
▁Bran	-11.3996
ෘ	-11.3996
▁Sti	-11.3997
▁drei	-11.3997
ுடன்	-11.3997
▁Mỹ	-11.3997
രാ	-11.4
کار	-11.4001
here	-11.4002
▁1860	-11.4003
▁mwaka	-11.4003
▁import	-11.4004
▁Uz	-11.4004
▁través	-11.4007
▁ră	-11.4008
PL	-11.4008
▁skip	-11.4008
kah	-11.4009
ゴ	-11.4009
▁music	-11.4009
τικό	-11.401
Man	-11.401
▁Ey	-11.4011
jeni	-11.4011
▁puis	-11.4013
עוד	-11.4013
пы	-11.4013
▁kompleks	-11.4014
▁वै	-11.4015
▁мар	-11.4015
今	-11.4016
iller	-11.4016
▁kung	-11.4017
▁lasang	-11.4019
▁dana	-11.4019
fü	-11.4021
ペ	-11.4021
▁hus	-11.4022
超	-11.4022
▁bord	-11.4023
wegen	-11.4023
▁nhạc	-11.4023
▁ממ	-11.4024
פס	-11.4024
mín	-11.4024
unum	-11.4025
▁destaca	-11.4026
▁adlı	-11.4026
jskog	-11.4027
कु	-11.4027
▁Theo	-11.4028
▁eri	-11.4028
▁Карл	-11.4029
tään	-11.403
▁win	-11.4032
▁되었다	-11.4033
ラン	-11.4034
联	-11.4034
▁verið	-11.4035
gá	-11.4036
base	-11.4037
▁rob	-11.4037
ımı	-11.4037
▁mara	-11.4037
▁west	-11.4037
▁भा	-11.4037
▁অনেক	-11.4038
कों	-11.4038
▁aktor	-11.4039
▁Ost	-11.4042
Is	-11.4042
▁Bert	-11.4043
▁khoảng	-11.4044
▁kojoj	-11.4045
яў	-11.4045
▁Gregor	-11.4045
ordina	-11.4045
▁kez	-11.4045
ілі	-11.4046
maga	-11.4046
▁பெற்ற	-11.4047
▁vùng	-11.4049
▁partie	-11.405
▁Đức	-11.405
usia	-11.405
ege	-11.405
▁klar	-11.4052
▁hóa	-11.4052
σπ	-11.4052
خانه	-11.4052
terior	-11.4053
であった	-11.4053
▁Анг	-11.4053
▁यु	-11.4054
▁כמו	-11.4054
▁تن	-11.4055
eş	-11.4056
ieren	-11.4056
び	-11.4057
▁uporab	-11.4058
▁Bosni	-11.4059
▁much	-11.406
aldeko	-11.406
员	-11.4061
▁دهد	-11.4061
▁seis	-11.4063
▁đô	-11.4063
▁audi	-11.4063
سون	-11.4064
▁Pres	-11.4064
مار	-11.4065
业	-11.4065
▁alternativ	-11.4065
▁хор	-11.4066
▁χρ	-11.4066
liber	-11.4068
shtë	-11.4068
▁idi	-11.4069
лена	-11.4069
▁Вер	-11.4071
▁último	-11.4071
lóg	-11.4071
bbi	-11.4072
כים	-11.4074
▁sale	-11.4074
▁عم	-11.4075
▁thi	-11.4076
▁barn	-11.4076
ON	-11.4079
erland	-11.4079
pada	-11.4081
حة	-11.4081
σμ	-11.4082
によって	-11.4083
вест	-11.4083
kam	-11.4083
▁pole	-11.4084
gré	-11.4085
▁Sum	-11.4088
▁ла	-11.4088
ниците	-11.4088
fond	-11.4089
▁živi	-11.4089
▁seiner	-11.409
xan	-11.4091
▁Fund	-11.4091
ые	-11.4092
▁ولكن	-11.4092
現在	-11.4092
▁Show	-11.4092
▁Đại	-11.4093
羅	-11.4093
▁совет	-11.4094
별	-11.4094
ghi	-11.4094
hun	-11.4095
engelsk	-11.4095
ăng	-11.4095
guer	-11.4096
anno	-11.4097
▁Milan	-11.4098
▁habitantes	-11.4099
بح	-11.41
స్త	-11.4101
▁পারে	-11.4102
▁segunda	-11.4103
éra	-11.4103
▁rokoch	-11.4103
jad	-11.4104
lerde	-11.4104
▁vyr	-11.4106
iten	-11.4106
▁Luci	-11.4107
ძ	-11.4107
▁tran	-11.4108
נא	-11.4108
ería	-11.4108
ராக	-11.4109
▁tarde	-11.4109
▁нас	-11.411
лған	-11.411
▁dunia	-11.4113
Jo	-11.4114
MS	-11.4114
że	-11.4115
▁lit	-11.4115
▁پو	-11.4115
▁trí	-11.4116
volution	-11.4117
isin	-11.4117
온	-11.4118
পার	-11.4119
▁conten	-11.412
▁case	-11.4121
▁suure	-11.4122
▁Alex	-11.4125
▁Ա	-11.4125
▁Deze	-11.4125
ными	-11.4125
όλ	-11.4125
되	-11.4126
だ	-11.4126
saks	-11.4126
▁yksi	-11.4127
실	-11.4128
indu	-11.4128
▁станов	-11.4128
▁wiel	-11.4129
▁wel	-11.4129
▁ще	-11.413
siden	-11.4131
▁Jacob	-11.4132
▁nữ	-11.4133
▁biskup	-11.4133
▁carr	-11.4134
준	-11.4135
uš	-11.4135
▁Raz	-11.4135
▁இட	-11.4135
▁झ	-11.4136
江	-11.4138
▁República	-11.4139
計	-11.4139
tisk	-11.4139
▁öl	-11.414
▁havet	-11.414
▁శా	-11.414
тік	-11.4141
sø	-11.4143
▁mezi	-11.4143
مو	-11.4143
tasuna	-11.4143
có	-11.4144
▁69	-11.4148
ikke	-11.4148
▁років	-11.4148
ђа	-11.4149
სა	-11.415
▁prirod	-11.415
▁menos	-11.4151
▁basa	-11.4152
alak	-11.4154
▁jis	-11.4154
▁piano	-11.4154
রী	-11.4154
▁hav	-11.4155
έτ	-11.4155
▁Pia	-11.4155
▁avant	-11.4155
▁различни	-11.4156
▁Ам	-11.4157
hely	-11.4157
▁Sea	-11.4157
▁বিভিন্ন	-11.4158
lav	-11.4162
tui	-11.4162
▁Arthur	-11.4163
മ്പ	-11.4163
服	-11.4163
▁регион	-11.4164
▁модел	-11.4166
íu	-11.4168
يرة	-11.4169
▁συγ	-11.417
▁žup	-11.4171
▁stata	-11.4171
▁deel	-11.4172
▁आप	-11.4173
▁warrt	-11.4174
vanju	-11.4176
ించిన	-11.4178
▁ست	-11.4178
스트	-11.4178
øj	-11.4179
▁bog	-11.4179
owi	-11.4179
ање	-11.418
▁imaju	-11.4181
▁جنوب	-11.4182
▁apoi	-11.4183
▁पो	-11.4184
▁130	-11.4185
▁primi	-11.4186
ായി	-11.4187
▁kogu	-11.4187
పడ	-11.4188
registr	-11.4188
με	-11.4189
▁municipal	-11.419
▁работа	-11.4191
▁luo	-11.4191
lling	-11.4193
▁Nap	-11.4193
kseen	-11.4194
يح	-11.4195
▁zlat	-11.4196
▁često	-11.4196
▁similar	-11.4197
ρί	-11.4198
想	-11.4198
役	-11.4199
▁yön	-11.4199
▁පැ	-11.42
রের	-11.4201
зија	-11.4201
DR	-11.4201
স্ক	-11.4202
▁critic	-11.4202
ఘ	-11.4203
▁oto	-11.4203
▁daug	-11.4203
▁तीन	-11.4203
▁Inggris	-11.4204
▁Гр	-11.4204
мед	-11.4205
▁Sala	-11.4205
▁năng	-11.4206
別	-11.4206
ág	-11.4208
tlich	-11.421
قال	-11.4211
▁გა	-11.4213
▁(2006)	-11.4213
čaj	-11.4214
کن	-11.4214
lod	-11.4215
tega	-11.4216
▁fung	-11.4216
өл	-11.4217
bord	-11.4218
▁orta	-11.4219
▁Kirk	-11.422
▁обја	-11.422
▁Sem	-11.422
цей	-11.4221
▁1980-	-11.4222
▁fix	-11.4222
ænd	-11.4222
▁Sid	-11.4222
स्क	-11.4223
వల	-11.4223
▁зав	-11.4223
Com	-11.4225
▁avut	-11.4226
▁Alp	-11.4226
дің	-11.4227
▁інш	-11.4227
▁Journal	-11.4227
▁Pháp	-11.4229
gov	-11.423
▁jeden	-11.4231
ody	-11.4231
sinin	-11.4231
ద్ధ	-11.4232
తే	-11.4233
▁দি	-11.4233
▁høj	-11.4233
▁Bernard	-11.4234
▁honor	-11.4234
бир	-11.4234
plas	-11.4234
satt	-11.4235
▁1894	-11.4235
пон	-11.4236
lp	-11.4236
ест	-11.4237
▁guzti	-11.4239
меж	-11.4239
ỉ	-11.4239
▁הברית	-11.424
▁đoàn	-11.4241
▁Mass	-11.4241
kler	-11.4241
بن	-11.4242
▁160	-11.4243
lardan	-11.4243
▁Bry	-11.4244
EA	-11.4244
▁než	-11.4244
▁Прв	-11.4246
EL	-11.4247
▁Pag	-11.4247
▁стил	-11.4247
▁Novo	-11.4247
▁また	-11.4248
hot	-11.4249
▁रि	-11.4249
思	-11.4249
lac	-11.425
▁কিন্তু	-11.4252
inus	-11.4252
▁Ent	-11.4253
ovanja	-11.4253
γραφ	-11.4254
▁95	-11.4254
▁temperatura	-11.4254
פים	-11.4255
▁Πα	-11.4255
▁அமை	-11.4256
▁בע	-11.4257
▁egen	-11.4257
ації	-11.4258
▁Kil	-11.4259
nikov	-11.4259
▁tysk	-11.4262
属	-11.4263
▁esco	-11.4263
▁Como	-11.4264
▁Pet	-11.4264
NT	-11.4265
▁полу	-11.4265
▁moderne	-11.4265
ást	-11.4265
작	-11.4266
▁1888	-11.4267
▁הז	-11.4267
▁skupin	-11.4267
ồ	-11.4268
samling	-11.4269
jala	-11.427
צות	-11.427
▁seks	-11.4271
▁тро	-11.4272
লী	-11.4272
▁idő	-11.4272
▁მე	-11.4273
блі	-11.4274
uses	-11.4274
bina	-11.4275
gabe	-11.4275
חיל	-11.4275
ढ़	-11.4275
ових	-11.4275
ίστηκε	-11.4276
▁Cle	-11.4276
RT	-11.4277
лады	-11.4277
õl	-11.4277
ద్ర	-11.4279
▁koko	-11.428
बल	-11.428
▁உள்ளது	-11.428
نامه	-11.428
▁Фе	-11.4281
▁অংশ	-11.4282
krát	-11.4282
utan	-11.4283
množ	-11.4284
రె	-11.4285
▁But	-11.4285
чан	-11.4285
temp	-11.4285
ária	-11.4285
示	-11.4286
▁विकास	-11.4286
ാന	-11.4287
ּ	-11.4287
מל	-11.4287
▁göster	-11.4288
▁পু	-11.429
▁σκ	-11.4292
ED	-11.4292
▁করার	-11.4292
fs	-11.4293
▁කි	-11.4294
beri	-11.4294
iger	-11.4294
▁kirke	-11.4297
▁mand	-11.4298
▁1892	-11.4298
сының	-11.4301
ember	-11.4301
▁kjent	-11.4302
vaju	-11.4302
▁تاریخ	-11.4303
හැ	-11.4306
atore	-11.4307
▁zou	-11.4308
▁ново	-11.4308
▁ను	-11.4311
loc	-11.4312
љен	-11.4313
விய	-11.4313
▁Olimp	-11.4313
फा	-11.4314
▁separa	-11.4314
▁thấy	-11.4315
▁میلادی	-11.4317
▁حر	-11.4317
▁consider	-11.4318
dhi	-11.4321
toja	-11.4321
▁추	-11.4321
▁Ot	-11.4321
лото	-11.4322
визи	-11.4323
▁byly	-11.4323
▁76	-11.4324
вання	-11.4324
▁Ash	-11.4324
▁corre	-11.4325
ML	-11.4326
Cl	-11.4326
▁ken	-11.4326
джа	-11.4327
nay	-11.4327
告	-11.4327
бата	-11.4328
οχ	-11.4329
▁века	-11.433
▁Amsterdam	-11.4333
beh	-11.4333
居	-11.4334
ել	-11.4334
▁Друг	-11.4335
صور	-11.4337
▁fie	-11.4337
фо	-11.4337
мил	-11.4338
2018	-11.4338
▁Vr	-11.4338
段	-11.4338
▁hə	-11.4339
obra	-11.434
ает	-11.434
ikas	-11.4341
غال	-11.4341
▁être	-11.4341
하지	-11.4342
òn	-11.4343
final	-11.4344
зан	-11.4344
lín	-11.4344
▁фон	-11.4346
▁zde	-11.4346
▁тр	-11.4346
▁toe	-11.4348
لار	-11.4349
terna	-11.435
plica	-11.435
ρια	-11.4351
nant	-11.4353
пен	-11.4353
▁موقع	-11.4354
source	-11.4354
▁הראשון	-11.4354
Fr	-11.4354
حي	-11.4355
▁Stein	-11.4355
▁raja	-11.4356
▁۴	-11.4356
нга	-11.4356
▁quart	-11.4357
uzi	-11.4358
øv	-11.4358
μι	-11.4358
llow	-11.4359
▁Nó	-11.4359
യാ	-11.4359
νά	-11.436
யும்	-11.436
pek	-11.436
метр	-11.4362
▁1893	-11.4362
▁akademi	-11.4362
▁ప్రకారం	-11.4363
▁hari	-11.4364
▁ай	-11.4365
kirja	-11.4365
▁දෙ	-11.4365
▁ডি	-11.4366
▁коли	-11.4368
ப்படும்	-11.4368
▁muž	-11.4368
pisan	-11.437
▁власт	-11.437
ída	-11.4371
▁orient	-11.4372
autor	-11.4372
▁extrem	-11.4372
êu	-11.4372
plass	-11.4373
ულ	-11.4373
▁kişi	-11.4374
▁Syn	-11.4376
aza	-11.4376
box	-11.4377
ище	-11.4377
▁Musik	-11.4379
დე	-11.4379
▁vok	-11.4379
▁význam	-11.4379
村	-11.4379
شكل	-11.438
▁резултат	-11.438
▁oyna	-11.4381
▁Disney	-11.4381
חות	-11.4382
पन	-11.4384
пат	-11.4384
▁दु	-11.4384
οδ	-11.4385
irana	-11.4385
lub	-11.4386
tala	-11.4387
▁שלו	-11.4388
▁Κο	-11.4391
頭	-11.4392
▁espe	-11.4392
▁оч	-11.4392
cijos	-11.4394
ია	-11.4396
▁ομάδα	-11.4396
▁Johannes	-11.4397
으나	-11.4399
▁κα	-11.44
தே	-11.44
▁ऑ	-11.44
▁trata	-11.4402
▁двор	-11.4404
▁experiment	-11.4404
ками	-11.4404
▁साहित्य	-11.4405
▁স্ব	-11.4407
▁Tây	-11.4409
оне	-11.4409
▁Dru	-11.441
glav	-11.441
áció	-11.4411
тыр	-11.4412
▁metais	-11.4412
каў	-11.4412
▁gian	-11.4412
▁McC	-11.4413
מט	-11.4413
వచ్చు	-11.4413
▁מספר	-11.4413
బు	-11.4414
▁util	-11.4415
▁invånare	-11.4417
▁Ман	-11.4417
שה	-11.4417
rink	-11.4418
▁один	-11.4418
▁mellan	-11.4418
రణ	-11.4419
▁Bul	-11.4419
skrib	-11.4419
אותה	-11.442
فل	-11.442
సీ	-11.4421
வது	-11.4421
tse	-11.4421
کو	-11.4422
arab	-11.4422
▁izena	-11.4423
ано	-11.4423
▁zato	-11.4423
▁heim	-11.4423
▁පි	-11.4423
▁sort	-11.4423
▁Konstantin	-11.4423
▁kanyang	-11.4423
берг	-11.4424
ndra	-11.4424
mest	-11.4426
▁encara	-11.4426
ांचे	-11.4427
ळा	-11.4427
▁पद	-11.4427
ාව	-11.4429
एस	-11.443
▁automat	-11.443
▁카	-11.4431
▁libre	-11.4433
▁Bibli	-11.4435
▁stro	-11.4435
кой	-11.4436
കൾ	-11.4439
装	-11.4439
pang	-11.444
▁طول	-11.4441
ദ്	-11.4441
▁stol	-11.4441
▁bisa	-11.4441
janje	-11.4442
▁καθώς	-11.4442
ipa	-11.4442
കാര	-11.4442
κε	-11.4443
▁luft	-11.4444
▁Ferdinand	-11.4444
▁mnoh	-11.4444
▁alte	-11.4445
▁mineral	-11.4446
మం	-11.4446
▁Мор	-11.4447
▁tubig	-11.4448
▁Swe	-11.4448
▁Georg	-11.4448
rige	-11.4449
वाह	-11.4449
lič	-11.4449
chung	-11.445
▁대한	-11.445
▁efekt	-11.4451
kiem	-11.4451
▁značaj	-11.4451
vale	-11.4453
יום	-11.4453
▁töö	-11.4454
συ	-11.4455
▁klima	-11.4455
▁명	-11.4456
tata	-11.4456
▁tada	-11.4457
▁ан	-11.4458
▁Luk	-11.4459
▁rekord	-11.4459
▁2003,	-11.446
mut	-11.446
plu	-11.4461
हार	-11.4461
▁παρά	-11.4462
рын	-11.4463
الة	-11.4464
viš	-11.4464
▁Кол	-11.4464
▁estava	-11.4464
igh	-11.4464
פני	-11.4465
ראש	-11.4466
▁Institute	-11.4469
▁اخت	-11.4469
ily	-11.4469
▁Alle	-11.4471
▁ауыл	-11.4471
čius	-11.4471
▁האי	-11.4471
▁SAD	-11.4472
⁡	-11.4472
▁стала	-11.4472
▁لت	-11.4472
領	-11.4473
[...]
