<pad>	0
<s>	0
</s>	0
<unk>	0
<sep>	0
▁ t	-0
▁ a	-1
h e	-2
i n	-3
r e	-4
o n	-5
▁t he	-6
e r	-7
▁ s	-8
a t	-9
▁ w	-10
▁ o	-11
e n	-12
▁ c	-13
i t	-14
i s	-15
a n	-16
o r	-17
e s	-18
▁ b	-19
e d	-20
▁ f	-21
in g	-22
▁ p	-23
o u	-24
▁a n	-25
a l	-26
a r	-27
▁t o	-28
▁ m	-29
▁o f	-30
▁ in	-31
▁ d	-32
▁ h	-33
▁an d	-34
i c	-35
a s	-36
l e	-37
▁t h	-38
i on	-39
o m	-40
l l	-41
en t	-42
▁ n	-43
▁ l	-44
s t	-45
▁ re	-46
v e	-47
▁ e	-48
r o	-49
l y	-50
▁b e	-51
▁ g	-52
▁ T	-53
c t	-54
▁ S	-55
i d	-56
o t	-57
▁ I	-58
u t	-59
e t	-60
▁ A	-61
▁ is	-62
▁ on	-63
i m	-64
a m	-65
o w	-66
a y	-67
a d	-68
s e	-69
▁th at	-70
▁ C	-71
i g	-72
▁f or	-73
a c	-74
▁ y	-75
v er	-76
u r	-77
▁ u	-78
l d	-79
▁s t	-80
▁ M	-81
' s	-82
▁ he	-83
▁ it	-84
at ion	-85
it h	-86
i r	-87
c e	-88
▁y ou	-89
i l	-90
▁ B	-91
▁w h	-92
o l	-93
▁ P	-94
▁w ith	-95
▁ 1	-96
t er	-97
c h	-98
▁a s	-99
▁w e	-100
▁ (	-101
n d	-102
i ll	-103
▁ D	-104
i f	-105
▁ 2	-106
a g	-107
er s	-108
k e	-109
▁ "	-110
▁ H	-111
e m	-112
▁c on	-113
▁ W	-114
▁ R	-115
he r	-116
▁w as	-117
▁ r	-118
o d	-119
▁ F	-120
u l	-121
at e	-122
▁a t	-123
r i	-124
p p	-125
o re	-126
▁T he	-127
▁s e	-128
u s	-129
▁p ro	-130
▁h a	-131
u m	-132
▁a re	-133
▁d e	-134
a in	-135
an d	-136
▁o r	-137
ig h	-138
es t	-139
is t	-140
a b	-141
r om	-142
▁ N	-143
t h	-144
▁c om	-145
▁ G	-146
u n	-147
o p	-148
0 0	-149
▁ L	-150
▁n ot	-151
es s	-152
▁e x	-153
▁ v	-154
re s	-155
▁ E	-156
e w	-157
it y	-158
an t	-159
▁b y	-160
e l	-161
o s	-162
or t	-163
o c	-164
q u	-165
▁f rom	-166
▁ha ve	-167
▁s u	-168
i ve	-169
ou ld	-170
▁s h	-171
▁th is	-172
n t	-173
r a	-174
p e	-175
igh t	-176
ar t	-177
m ent	-178
▁a l	-179
u st	-180
en d	-181
- -	-182
al l	-183
▁ O	-184
ac k	-185
▁c h	-186
▁ le	-187
i es	-188
re d	-189
ar d	-190
â Ģ	-191
ou t	-192
▁ J	-193
▁a b	-194
e ar	-195
i v	-196
al ly	-197
ou r	-198
o st	-199
g h	-200
p t	-201
▁p l	-202
as t	-203
▁c an	-204
a k	-205
om e	-206
u d	-207
T he	-208
▁h is	-209
▁d o	-210
▁g o	-211
▁h as	-212
g e	-213
' t	-214
▁ U	-215
r ou	-216
▁s a	-217
▁ j	-218
▁b ut	-219
▁w or	-220
▁a ll	-221
e ct	-222
▁ k	-223
am e	-224
▁w ill	-225
o k	-226
▁w he	-227
▁the y	-228
id e	-229
0 1	-230
f f	-231
ic h	-232
p l	-233
t her	-234
▁t r	-235
. .	-236
▁in t	-237
i e	-238
u re	-239
ag e	-240
▁n e	-241
i al	-242
a p	-243
in e	-244
ic e	-245
▁m e	-246
▁o ut	-247
an s	-248
on e	-249
on g	-250
ion s	-251
▁wh o	-252
▁ K	-253
▁u p	-254
▁the ir	-255
▁a d	-256
▁ 3	-257
▁u s	-258
at ed	-259
ou s	-260
▁m ore	-261
u e	-262
o g	-263
▁S t	-264
in d	-265
i ke	-266
▁s o	-267
im e	-268
p er	-269
. "	-270
b er	-271
i z	-272
a ct	-273
▁on e	-274
▁sa id	-275
▁ -	-276
a re	-277
▁you r	-278
c c	-279
▁T h	-280
▁c l	-281
e p	-282
a ke	-283
ab le	-284
i p	-285
▁con t	-286
▁wh ich	-287
i a	-288
▁ im	-289
▁ab out	-290
▁we re	-291
ver y	-292
u b	-293
▁h ad	-294
▁ en	-295
▁com p	-296
, "	-297
▁I n	-298
▁u n	-299
▁a g	-300
i re	-301
ac e	-302
a u	-303
ar y	-304
▁w ould	-305
as s	-306
r y	-307
▁ âĢ	-308
c l	-309
o ok	-310
e re	-311
s o	-312
▁ V	-313
ig n	-314
i b	-315
▁of f	-316
▁t e	-317
v en	-318
▁ Y	-319
i le	-320
o se	-321
it e	-322
or m	-323
▁2 01	-324
▁re s	-325
▁m an	-326
▁p er	-327
▁o ther	-328
or d	-329
ul t	-330
▁be en	-331
▁l ike	-332
as e	-333
an ce	-334
k s	-335
ay s	-336
ow n	-337
en ce	-338
▁d is	-339
ct ion	-340
▁an y	-341
▁a pp	-342
▁s p	-343
in t	-344
res s	-345
ation s	-346
a il	-347
▁ 4	-348
ic al	-349
▁the m	-350
▁he r	-351
ou nt	-352
▁C h	-353
▁a r	-354
▁ if	-355
▁the re	-356
▁p e	-357
▁y ear	-358
a v	-359
▁m y	-360
▁s ome	-361
▁whe n	-362
ou gh	-363
ac h	-364
▁th an	-365
r u	-366
on d	-367
ic k	-368
▁o ver	-369
ve l	-370
▁ qu	-371
Ċ Ċ	-372
▁s c	-373
re at	-374
re e	-375
▁I t	-376
ou nd	-377
p ort	-378
▁al so	-379
▁p art	-380
f ter	-381
▁k n	-382
▁be c	-383
▁t ime	-384
en s	-385
▁ 5	-386
op le	-387
▁wh at	-388
▁n o	-389
d u	-390
m er	-391
an g	-392
▁n ew	-393
-- --	-394
▁g et	-395
or y	-396
it ion	-397
ing s	-398
▁j ust	-399
▁int o	-400
▁ 0	-401
ent s	-402
o ve	-403
t e	-404
▁pe ople	-405
▁p re	-406
▁it s	-407
▁re c	-408
▁t w	-409
i an	-410
ir st	-411
ar k	-412
or s	-413
▁wor k	-414
ad e	-415
o b	-416
▁s he	-417
▁o ur	-418
w n	-419
in k	-420
l ic	-421
▁1 9	-422
▁H e	-423
is h	-424
nd er	-425
au se	-426
▁h im	-427
on s	-428
▁ [	-429
▁ ro	-430
f orm	-431
i ld	-432
at es	-433
ver s	-434
▁on ly	-435
o ll	-436
▁s pe	-437
c k	-438
e ll	-439
am p	-440
▁a cc	-441
▁b l	-442
i ous	-443
ur n	-444
f t	-445
o od	-446
▁h ow	-447
he d	-448
▁ '	-449
▁a fter	-450
a w	-451
▁at t	-452
o v	-453
n e	-454
▁pl ay	-455
er v	-456
ic t	-457
▁c ould	-458
it t	-459
▁a m	-460
▁f irst	-461
▁ 6	-462
▁a ct	-463
▁ $	-464
e c	-465
h ing	-466
u al	-467
u ll	-468
▁com m	-469
o y	-470
o ld	-471
c es	-472
at er	-473
▁f e	-474
▁be t	-475
w e	-476
if f	-477
▁tw o	-478
oc k	-479
▁b ack	-480
) .	-481
id ent	-482
▁u nder	-483
rou gh	-484
se l	-485
x t	-486
▁m ay	-487
rou nd	-488
▁p o	-489
p h	-490
is s	-491
▁d es	-492
▁m ost	-493
▁d id	-494
▁ad d	-495
j ect	-496
▁in c	-497
f ore	-498
▁p ol	-499
on t	-500
▁ag ain	-501
cl ud	-502
ter n	-503
▁kn ow	-504
▁ne ed	-505
▁con s	-506
▁c o	-507
▁ .	-508
▁w ant	-509
▁se e	-510
▁ 7	-511
n ing	-512
i ew	-513
▁Th is	-514
c ed	-515
▁e ven	-516
▁in d	-517
t y	-518
▁W e	-519
at h	-520
▁the se	-521
▁p r	-522
▁u se	-523
▁bec ause	-524
▁f l	-525
n g	-526
▁n ow	-527
▁âĢ ĵ	-528
c om	-529
is e	-530
▁m ake	-531
▁the n	-532
ow er	-533
▁e very	-534
▁U n	-535
▁se c	-536
os s	-537
u ch	-538
▁e m	-539
▁ =	-540
▁R e	-541
i ed	-542
r it	-543
▁in v	-544
le ct	-545
▁su pp	-546
at ing	-547
▁l ook	-548
m an	-549
pe ct	-550
▁ 8	-551
ro w	-552
▁b u	-553
▁whe re	-554
if ic	-555
▁year s	-556
i ly	-557
▁d iff	-558
▁sh ould	-559
▁re m	-560
T h	-561
I n	-562
▁e v	-563
d ay	-564
' re	-565
ri b	-566
▁re l	-567
s s	-568
▁de f	-569
▁r ight	-570
▁s y	-571
) ,	-572
l es	-573
00 0	-574
he n	-575
▁th rough	-576
▁T r	-577
_ _	-578
▁w ay	-579
▁d on	-580
▁ ,	-581
▁1 0	-582
as ed	-583
▁as s	-584
ub lic	-585
▁re g	-586
▁A nd	-587
i x	-588
▁ very	-589
▁in clud	-590
ot her	-591
▁im p	-592
ot h	-593
▁su b	-594
▁âĢ Ķ	-595
▁be ing	-596
ar g	-597
▁W h	-598
= =	-599
ib le	-600
▁do es	-601
an ge	-602
r am	-603
▁ 9	-604
er t	-605
p s	-606
it ed	-607
ation al	-608
▁b r	-609
▁d own	-610
▁man y	-611
ak ing	-612
▁c all	-613
ur ing	-614
it ies	-615
▁p h	-616
ic s	-617
al s	-618
▁de c	-619
at ive	-620
en er	-621
▁be fore	-622
il ity	-623
▁we ll	-624
▁m uch	-625
ers on	-626
▁th ose	-627
▁su ch	-628
▁ ke	-629
▁ end	-630
▁B ut	-631
as on	-632
t ing	-633
▁l ong	-634
e f	-635
▁th ink	-636
y s	-637
▁be l	-638
▁s m	-639
it s	-640
a x	-641
▁o wn	-642
▁pro v	-643
▁s et	-644
if e	-645
ment s	-646
b le	-647
w ard	-648
▁sh ow	-649
▁p res	-650
m s	-651
om et	-652
▁o b	-653
▁s ay	-654
▁S h	-655
t s	-656
f ul	-657
▁e ff	-658
▁g u	-659
▁in st	-660
u nd	-661
re n	-662
c ess	-663
▁ ent	-664
▁Y ou	-665
▁go od	-666
▁st art	-667
in ce	-668
▁m ade	-669
t t	-670
st em	-671
ol og	-672
u p	-673
▁ |	-674
um p	-675
▁he l	-676
ver n	-677
ul ar	-678
u ally	-679
▁a c	-680
▁m on	-681
▁l ast	-682
▁2 00	-683
1 0	-684
▁st ud	-685
u res	-686
▁A r	-687
sel f	-688
ar s	-689
mer ic	-690
u es	-691
c y	-692
▁m in	-693
oll ow	-694
▁c ol	-695
i o	-696
▁m od	-697
▁c ount	-698
▁C om	-699
he s	-700
▁f in	-701
a ir	-702
i er	-703
âĢ Ķ	-704
re ad	-705
an k	-706
at ch	-707
e ver	-708
▁st r	-709
▁po int	-710
or k	-711
▁N ew	-712
▁s ur	-713
o ol	-714
al k	-715
em ent	-716
▁us ed	-717
ra ct	-718
we en	-719
▁s ame	-720
ou n	-721
▁A l	-722
c i	-723
▁diff ere	-724
▁wh ile	-725
---- ----	-726
▁g ame	-727
ce pt	-728
▁s im	-729
.. .	-730
▁in ter	-731
e k	-732
▁re port	-733
▁pro du	-734
▁st ill	-735
l ed	-736
a h	-737
▁he re	-738
▁wor ld	-739
▁th ough	-740
▁n um	-741
ar ch	-742
im es	-743
al e	-744
▁S e	-745
▁I f	-746
/ /	-747
▁L e	-748
▁re t	-749
▁re f	-750
▁tr ans	-751
n er	-752
ut ion	-753
ter s	-754
▁t ake	-755
▁C l	-756
▁con f	-757
w ay	-758
a ve	-759
▁go ing	-760
▁s l	-761
u g	-762
▁A meric	-763
▁spe c	-764
▁h and	-765
▁bet ween	-766
ist s	-767
▁D e	-768
o ot	-769
I t	-770
▁e ar	-771
▁again st	-772
▁h igh	-773
g an	-774
a z	-775
at her	-776
▁ex p	-777
▁o p	-778
▁in s	-779
▁g r	-780
▁hel p	-781
▁re qu	-782
et s	-783
in s	-784
▁P ro	-785
is m	-786
▁f ound	-787
l and	-788
at a	-789
us s	-790
am es	-791
▁p erson	-792
▁g reat	-793
p r	-794
▁s ign	-795
▁A n	-796
' ve	-797
▁s omet	-798
▁s er	-799
h ip	-800
▁r un	-801
▁ :	-802
▁t er	-803
ire ct	-804
▁f ollow	-805
▁d et	-806
ic es	-807
▁f ind	-808
1 2	-809
▁m em	-810
▁c r	-811
e red	-812
e x	-813
▁ex t	-814
ut h	-815
en se	-816
c o	-817
▁te am	-818
v ing	-819
ou se	-820
as h	-821
at t	-822
v ed	-823
▁sy stem	-824
▁A s	-825
d er	-826
iv es	-827
m in	-828
▁le ad	-829
▁B l	-830
c ent	-831
▁a round	-832
▁go vern	-833
▁c ur	-834
vel op	-835
an y	-836
▁c our	-837
al th	-838
ag es	-839
iz e	-840
▁c ar	-841
od e	-842
▁l aw	-843
▁re ad	-844
' m	-845
c on	-846
▁re al	-847
▁supp ort	-848
▁1 2	-849
.. ..	-850
▁re ally	-851
n ess	-852
▁f act	-853
▁d ay	-854
▁b oth	-855
y ing	-856
▁s erv	-857
▁F or	-858
▁th ree	-859
▁w om	-860
▁m ed	-861
od y	-862
▁The y	-863
5 0	-864
▁ex per	-865
t on	-866
▁e ach	-867
ak es	-868
▁c he	-869
▁c re	-870
in es	-871
▁re p	-872
1 9	-873
g g	-874
ill ion	-875
▁g rou	-876
ut e	-877
i k	-878
W e	-879
g et	-880
E R	-881
▁m et	-882
▁s ays	-883
o x	-884
▁d uring	-885
er n	-886
iz ed	-887
a red	-888
▁f am	-889
ic ally	-890
▁ha pp	-891
▁I s	-892
▁ch ar	-893
m ed	-894
v ent	-895
▁g ener	-896
i ent	-897
p le	-898
i et	-899
re nt	-900
1 1	-901
v es	-902
pt ion	-903
▁2 0	-904
form ation	-905
▁c or	-906
▁off ic	-907
ie ld	-908
▁to o	-909
is ion	-910
▁in f	-911
▁ Z	-912
t he	-913
o ad	-914
▁p ublic	-915
▁pro g	-916
r ic	-917
* *	-918
▁w ar	-919
▁p ower	-920
v iew	-921
▁f ew	-922
▁l oc	-923
▁differe nt	-924
▁st ate	-925
▁he ad	-926
' ll	-927
▁p oss	-928
▁st at	-929
re t	-930
ant s	-931
▁v al	-932
▁is s	-933
▁c le	-934
i vers	-935
an c	-936
▁ex pl	-937
▁an other	-938
▁ Q	-939
▁a v	-940
th ing	-941
n ce	-942
W h	-943
▁ch ild	-944
▁s ince	-945
i red	-946
l ess	-947
▁l ife	-948
▁de velop	-949
itt le	-950
▁de p	-951
▁p ass	-952
ã ĥ	-953
▁t urn	-954
or n	-955
Th is	-956
b ers	-957
ro ss	-958
▁A d	-959
▁f r	-960
▁res p	-961
▁sec ond	-962
o h	-963
▁ /	-964
▁dis c	-965
▁ &	-966
▁somet hing	-967
▁comp le	-968
▁ ed	-969
▁f il	-970
▁mon th	-971
a j	-972
u c	-973
▁govern ment	-974
▁with out	-975
▁le g	-976
▁d ist	-977
▁p ut	-978
▁qu est	-979
an n	-980
▁pro t	-981
2 0	-982
▁ne ver	-983
i ence	-984
▁le vel	-985
▁ar t	-986
▁th ings	-987
▁m ight	-988
▁eff ect	-989
▁cont ro	-990
▁c ent	-991
▁1 8	-992
▁all ow	-993
▁bel ie	-994
ch ool	-995
ot t	-996
▁inc re	-997
▁fe el	-998
▁res ult	-999
▁l ot	-1000
▁f un	-1001
ot e	-1002
▁t y	-1003
ere st	-1004
▁cont in	-1005
▁us ing	-1006
▁b ig	-1007
2 01	-1008
▁as k	-1009
▁b est	-1010
▁ )	-1011
I N	-1012
▁o pp	-1013
3 0	-1014
▁num ber	-1015
in ess	-1016
S t	-1017
le ase	-1018
▁c a	-1019
▁m ust	-1020
▁d irect	-1021
▁g l	-1022
▁ <	-1023
▁op en	-1024
▁p ost	-1025
▁com e	-1026
▁se em	-1027
ord ing	-1028
▁we ek	-1029
ate ly	-1030
it al	-1031
▁e l	-1032
ri end	-1033
▁f ar	-1034
▁t ra	-1035
in al	-1036
▁p ri	-1037
▁U S	-1038
▁pl ace	-1039
▁for m	-1040
▁to ld	-1041
" :	-1042
ain s	-1043
at ure	-1044
▁Tr ump	-1045
▁st and	-1046
▁ #	-1047
id er	-1048
▁F r	-1049
▁ne xt	-1050
▁s oc	-1051
▁p ur	-1052
▁le t	-1053
▁l ittle	-1054
▁h um	-1055
▁ i	-1056
r on	-1057
1 5	-1058
▁1 5	-1059
▁comm un	-1060
▁m ark	-1061
▁The re	-1062
▁w r	-1063
▁Th at	-1064
▁in formation	-1065
w ays	-1066
▁b us	-1067
a pp	-1068
▁inv est	-1069
m e	-1070
▁h ard	-1071
ain ed	-1072
e ad	-1073
▁im port	-1074
▁app ro	-1075
▁t est	-1076
▁t ri	-1077
▁re st	-1078
os ed	-1079
▁f ull	-1080
▁c are	-1081
▁S p	-1082
▁c ase	-1083
O N	-1084
▁s k	-1085
▁l ess	-1086
▁ +	-1087
▁part ic	-1088
▁P l	-1089
ab ly	-1090
u ck	-1091
is hed	-1092
ch n	-1093
b e	-1094
▁l ist	-1095
at or	-1096
▁to p	-1097
▁ad v	-1098
▁B e	-1099
ru ct	-1100
▁d em	-1101
r ation	-1102
l ing	-1103
g y	-1104
re en	-1105
g er	-1106
▁h ome	-1107
▁le ft	-1108
▁bet ter	-1109
▁d ata	-1110
▁1 1	-1111
▁att ack	-1112
▁pro ble	-1113
l ine	-1114
ard s	-1115
▁be h	-1116
r al	-1117
▁H ow	-1118
▁S he	-1119
ar ge	-1120
▁ --	-1121
: //	-1122
▁b ro	-1123
▁P h	-1124
at s	-1125
▁bu ild	-1126
w w	-1127
id ed	-1128
a im	-1129
as es	-1130
en cy	-1131
▁m ain	-1132
in ed	-1133
▁includ ing	-1134
▁ {	-1135
▁g ot	-1136
▁int erest	-1137
▁ke ep	-1138
▁ X	-1139
▁e as	-1140
ain ing	-1141
▁cl ass	-1142
âĢ ¦	-1143
▁N o	-1144
▁v ar	-1145
▁sm all	-1146
amp le	-1147
A T	-1148
▁ ide	-1149
▁S o	-1150
▁re ce	-1151
▁pol it	-1152
▁m ov	-1153
▁pl an	-1154
▁per cent	-1155
iv ing	-1156
▁c amp	-1157
▁p ay	-1158
1 4	-1159
s c	-1160
is ed	-1161
▁u nt	-1162
one y	-1163
pl oy	-1164
== ==	-1165
▁did n	-1166
▁I nd	-1167
el s	-1168
ert ain	-1169
▁p os	-1170
__ __	-1171
i ver	-1172
▁pro cess	-1173
▁prog ram	-1174
if ied	-1175
▁R ep	-1176
1 6	-1177
u ro	-1178
olog y	-1179
at ter	-1180
in a	-1181
▁n ame	-1182
▁A ll	-1183
▁f our	-1184
▁ret urn	-1185
v ious	-1186
b s	-1187
▁call ed	-1188
▁m ove	-1189
▁S c	-1190
ir d	-1191
▁grou p	-1192
▁b re	-1193
▁m en	-1194
▁c ap	-1195
t en	-1196
e e	-1197
▁d ri	-1198
le g	-1199
he re	-1200
uth or	-1201
▁p at	-1202
▁cur rent	-1203
id es	-1204
▁p op	-1205
t o	-1206
ent ion	-1207
▁al ways	-1208
▁m il	-1209
▁wom en	-1210
▁1 6	-1211
▁o ld	-1212
iv en	-1213
ra ph	-1214
▁O r	-1215
r or	-1216
ent ly	-1217
▁n ear	-1218
▁E x	-1219
re am	-1220
s h	-1221
▁1 4	-1222
▁f ree	-1223
iss ion	-1224
st and	-1225
▁C on	-1226
al ity	-1227
us ed	-1228
1 3	-1229
▁des ign	-1230
▁ch ange	-1231
▁ch ang	-1232
▁b o	-1233
▁v is	-1234
em ber	-1235
▁b ook	-1236
read y	-1237
▁k ill	-1238
2 5	-1239
pp ed	-1240
▁a way	-1241
▁ab le	-1242
▁count ry	-1243
▁con st	-1244
ar n	-1245
▁or der	-1246
A R	-1247
i or	-1248
i um	-1249
or th	-1250
1 8	-1251
ail able	-1252
▁s w	-1253
▁m illion	-1254
▁1 3	-1255
at ic	-1256
t ed	-1257
▁G o	-1258
▁o per	-1259
en g	-1260
▁th ing	-1261
aj or	-1262
con om	-1263
▁Com m	-1264
▁wh y	-1265
u red	-1266
ur al	-1267
▁s chool	-1268
b y	-1269
▁M ar	-1270
▁a ff	-1271
▁d ays	-1272
▁an n	-1273
us h	-1274
an e	-1275
I f	-1276
e g	-1277
▁pro f	-1278
▁he alth	-1279
ou th	-1280
B ut	-1281
ion al	-1282
. ,	-1283
▁s ol	-1284
▁al ready	-1285
▁3 0	-1286
▁char act	-1287
H e	-1288
▁f riend	-1289
E S	-1290
i ans	-1291
ic le	-1292
' d	-1293
▁O n	-1294
▁le ast	-1295
▁p rom	-1296
▁d r	-1297
▁h ist	-1298
it her	-1299
▁ est	-1300
i qu	-1301
1 7	-1302
s on	-1303
▁te ll	-1304
▁t alk	-1305
oh n	-1306
o int	-1307
le ction	-1308
A N	-1309
▁unt il	-1310
au gh	-1311
▁l ater	-1312
▁ ve	-1313
▁v iew	-1314
end ing	-1315
iv ed	-1316
▁wor d	-1317
w are	-1318
▁c ost	-1319
▁en ough	-1320
▁g ive	-1321
▁Un ited	-1322
▁te chn	-1323
are nt	-1324
O R	-1325
▁p ar	-1326
▁D r	-1327
▁201 6	-1328
r ist	-1329
er ing	-1330
▁ Â	-1331
▁l arge	-1332
s ide	-1333
ac y	-1334
cc ess	-1335
▁w in	-1336
▁import ant	-1337
▁19 9	-1338
▁does n	-1339
▁1 7	-1340
▁bus iness	-1341
▁cle ar	-1342
▁re se	-1343
" ,	-1344
ur y	-1345
▁e qu	-1346
as ter	-1347
al f	-1348
▁Americ an	-1349
n ect	-1350
▁ex pect	-1351
ivers ity	-1352
▁o cc	-1353
▁F l	-1354
▁k ind	-1355
▁me an	-1356
▁p ast	-1357
▁de v	-1358
▁b as	-1359
le t	-1360
ra ft	-1361
▁or gan	-1362
▁de l	-1363
▁per form	-1364
▁st ory	-1365
▁se ason	-1366
▁C ol	-1367
▁cl aim	-1368
▁c ame	-1369
▁with in	-1370
▁l ine	-1371
▁pro ject	-1372
▁A t	-1373
▁contro l	-1374
end ed	-1375
▁S y	-1376
▁a ir	-1377
iz ation	-1378
▁ *	-1379
le y	-1380
▁m oney	-1381
id d	-1382
Y ou	-1383
f or	-1384
▁fam ily	-1385
▁m aking	-1386
▁b it	-1387
▁pol ice	-1388
▁happ en	-1389
▁ vers	-1390
on y	-1391
u ff	-1392
▁W hen	-1393
▁s it	-1394
ide o	-1395
l f	-1396
is on	-1397
▁su re	-1398
g in	-1399
▁app ear	-1400
▁l ight	-1401
▁ es	-1402
o f	-1403
▁w ater	-1404
▁t imes	-1405
n ot	-1406
▁g row	-1407
▁comp any	-1408
▁T e	-1409
ow s	-1410
▁m ar	-1411
our ce	-1412
i ol	-1413
ar m	-1414
b r	-1415
▁ex ample	-1416
▁con c	-1417
▁f ore	-1418
▁T o	-1419
p ro	-1420
E N	-1421
ri es	-1422
▁2 5	-1423
▁C an	-1424
ne y	-1425
▁act ually	-1426
▁e ver	-1427
ur ity	-1428
ak en	-1429
ap s	-1430
▁t ax	-1431
▁m ajor	-1432
am a	-1433
▁of ten	-1434
er al	-1435
▁hum an	-1436
▁j ob	-1437
is ter	-1438
▁av ailable	-1439
oc r	-1440
en n	-1441
a id	-1442
iv id	-1443
▁rec ord	-1444
? "	-1445
▁s ing	-1446
▁A m	-1447
id ence	-1448
▁new s	-1449
st er	-1450
▁e conom	-1451
▁follow ing	-1452
▁B r	-1453
is ing	-1454
▁h our	-1455
m ost	-1456
um ent	-1457
▁se x	-1458
▁des c	-1459
▁bec ome	-1460
▁E d	-1461
▁to ok	-1462
▁ha ving	-1463
▁produ ct	-1464
a ult	-1465
A s	-1466
ar ing	-1467
▁me ans	-1468
▁h op	-1469
un e	-1470
▁ch o	-1471
▁c ertain	-1472
▁n on	-1473
▁de al	-1474
2 4	-1475
le ment	-1476
oc i	-1477
en e	-1478
▁s ide	-1479
▁P r	-1480
▁M ay	-1481
▁re ason	-1482
u ed	-1483
c hed	-1484
ul ation	-1485
▁e lect	-1486
▁offic ial	-1487
▁poss ible	-1488
▁h old	-1489
and s	-1490
ot s	-1491
▁c ity	-1492
or ies	-1493
▁se ver	-1494
▁child ren	-1495
▁on ce	-1496
▁act iv	-1497
l er	-1498
▁n ight	-1499
it ions	-1500
▁J ohn	-1501
a pe	-1502
pl ay	-1503
▁d one	-1504
▁l im	-1505
▁work ing	-1506
▁P res	-1507
or ld	-1508
e b	-1509
▁C o	-1510
▁b ody	-1511
ail s	-1512
ut es	-1513
▁M r	-1514
▁whe ther	-1515
▁a uthor	-1516
ro p	-1517
▁pro per	-1518
▁se en	-1519
) ;	-1520
▁f ac	-1521
▁S u	-1522
▁con d	-1523
it ing	-1524
▁cour se	-1525
▁ }	-1526
-------- --------	-1527
a ign	-1528
▁ev ent	-1529
▁en g	-1530
▁p ot	-1531
▁in tern	-1532
i am	-1533
▁sh ort	-1534
em pt	-1535
ã Ĥ	-1536
▁G od	-1537
il ar	-1538
8 0	-1539
▁or ig	-1540
I S	-1541
our n	-1542
ab ility	-1543
it ive	-1544
▁d am	-1545
▁1 00	-1546
▁p ress	-1547
▁do ing	-1548
▁prot ect	-1549
r ing	-1550
▁though t	-1551
▁quest ion	-1552
re w	-1553
▁W ar	-1554
▁sever al	-1555
▁St ate	-1556
▁g iven	-1557
▁f und	-1558
▁T w	-1559
▁w ent	-1560
an ces	-1561
w ork	-1562
p or	-1563
m y	-1564
4 0	-1565
▁ar g	-1566
art ment	-1567
ust om	-1568
▁pol ic	-1569
▁me et	-1570
▁c reat	-1571
2 2	-1572
▁St ates	-1573
▁g ames	-1574
ra w	-1575
ut ure	-1576
▁under stand	-1577
ur s	-1578
▁O b	-1579
l ish	-1580
s y	-1581
▁m akes	-1582
▁w on	-1583
ag on	-1584
▁h tt	-1585
▁l ove	-1586
ent ial	-1587
▁comple te	-1588
p ar	-1589
▁I m	-1590
A L	-1591
▁acc ount	-1592
Â ł	-1593
ore d	-1594
ver t	-1595
▁ ident	-1596
▁201 5	-1597
▁other s	-1598
▁M in	-1599
i ber	-1600
ver age	-1601
The re	-1602
ition al	-1603
d d	-1604
▁pro b	-1605
▁you ng	-1606
▁al ong	-1607
▁acc ording	-1608
▁y et	-1609
▁mem bers	-1610
▁Wh at	-1611
o id	-1612
▁M an	-1613
A nd	-1614
▁am ong	-1615
a i	-1616
▁em ploy	-1617
▁R es	-1618
▁ >	-1619
▁inv ol	-1620
▁l ow	-1621
a f	-1622
▁C ar	-1623
▁h ig	-1624
▁O ne	-1625
▁S ec	-1626
in ation	-1627
▁like ly	-1628
▁an t	-1629
ag ed	-1630
▁R uss	-1631
▁b en	-1632
▁re le	-1633
F or	-1634
b ack	-1635
▁N ot	-1636
▁pres ident	-1637
b all	-1638
▁acc ess	-1639
ivid ual	-1640
▁D em	-1641
▁E uro	-1642
6 0	-1643
▁kn own	-1644
ir l	-1645
▁G r	-1646
▁ear ly	-1647
u se	-1648
iet y	-1649
âĢ ĵ	-1650
▁f ight	-1651
▁s ent	-1652
▁to day	-1653
▁mark et	-1654
" .	-1655
▁b ased	-1656
▁str ong	-1657
ur ther	-1658
▁de b	-1659
m ber	-1660
▁proble m	-1661
▁de ath	-1662
▁soc ial	-1663
im ate	-1664
A S	-1665
ort un	-1666
▁camp aign	-1667
er y	-1668
C h	-1669
▁e y	-1670
i ally	-1671
▁m us	-1672
w h	-1673
p os	-1674
▁ er	-1675
▁sa f	-1676
▁month s	-1677
ir on	-1678
▁v iol	-1679
▁f ive	-1680
▁st re	-1681
▁play ers	-1682
in c	-1683
al d	-1684
y ear	-1685
a un	-1686
▁su ccess	-1687
▁pres ent	-1688
ere nce	-1689
▁201 4	-1690
▁su gg	-1691
▁partic ular	-1692
▁tr y	-1693
▁sugg est	-1694
▁Ch rist	-1695
on es	-1696
▁pri v	-1697
2 3	-1698
▁c rit	-1699
▁l and	-1700
▁loc al	-1701
if y	-1702
2 9	-1703
▁a ut	-1704
E D	-1705
▁G u	-1706
▁m ult	-1707
▁polit ical	-1708
▁ask ed	-1709
▁for mer	-1710
it ter	-1711
ri pt	-1712
▁cl ose	-1713
▁p ract	-1714
▁Y ork	-1715
▁get ting	-1716
▁ac ross	-1717
▁com b	-1718
▁belie ve	-1719
▁ z	-1720
▁to get	-1721
▁toget her	-1722
▁C ent	-1723
ir c	-1724
▁ind ividual	-1725
▁M c	-1726
2 7	-1727
is k	-1728
▁E ng	-1729
▁f ace	-1730
▁2 4	-1731
▁val ue	-1732
▁are a	-1733
e v	-1734
▁w rit	-1735
▁Pres ident	-1736
▁v ot	-1737
▁ke y	-1738
▁m om	-1739
p ut	-1740
▁any thing	-1741
▁exper ience	-1742
att le	-1743
▁m ind	-1744
a ff	-1745
om m	-1746
▁f uture	-1747
g ed	-1748
▁c ut	-1749
▁to t	-1750
it ch	-1751
▁v ideo	-1752
▁invest ig	-1753
▁n et	-1754
▁M y	-1755
r ict	-1756
i en	-1757
. )	-1758
▁imp ro	-1759
th ough	-1760
ward s	-1761
▁con nect	-1762
▁M ed	-1763
sel ves	-1764
ens ive	-1765
m b	-1766
o ber	-1767
at ors	-1768
A n	-1769
▁5 0	-1770
▁re du	-1771
res ent	-1772
▁ab ove	-1773
▁f re	-1774
▁Euro pe	-1775
s w	-1776
▁am ount	-1777
▁A pp	-1778
▁e ither	-1779
▁mil it	-1780
▁an al	-1781
▁f ail	-1782
▁E n	-1783
al es	-1784
▁spec ial	-1785
▁bl ack	-1786
I T	-1787
c her	-1788
▁look ing	-1789
▁f ire	-1790
y n	-1791
▁al most	-1792
o on	-1793
▁stud y	-1794
▁m iss	-1795
c hes	-1796
ro wn	-1797
▁t re	-1798
▁commun ity	-1799
▁med ia	-1800
▁f ood	-1801
▁com es	-1802
▁Un iversity	-1803
▁sing le	-1804
Wh at	-1805
u ly	-1806
▁h alf	-1807
ag ue	-1808
h od	-1809
▁Rep ublic	-1810
▁start ed	-1811
▁qu ick	-1812
ot o	-1813
b ook	-1814
▁iss ue	-1815
it or	-1816
▁el se	-1817
▁cons ider	-1818
2 6	-1819
ro du	-1820
▁t aken	-1821
2 8	-1822
9 9	-1823
▁W ith	-1824
▁tr ue	-1825
▁w a	-1826
▁tr ad	-1827
▁ag o	-1828
▁m ess	-1829
ie f	-1830
▁add ed	-1831
o ke	-1832
▁b ad	-1833
▁f av	-1834
3 3	-1835
▁sim ilar	-1836
as k	-1837
▁D on	-1838
▁charact er	-1839
ort s	-1840
▁H ouse	-1841
▁report ed	-1842
▁ty pe	-1843
v al	-1844
i od	-1845
▁How ever	-1846
▁t arg	-1847
▁ent ire	-1848
pp ing	-1849
▁hist ory	-1850
▁l ive	-1851
ff ic	-1852
.... ....	-1853
ed eral	-1854
▁tr ying	-1855
▁disc uss	-1856
▁H ar	-1857
ac es	-1858
l ished	-1859
▁se lf	-1860
os p	-1861
re st	-1862
▁ro om	-1863
el t	-1864
▁f all	-1865
ol ution	-1866
▁e t	-1867
▁ x	-1868
▁is n	-1869
▁ide a	-1870
b o	-1871
▁s ound	-1872
▁D ep	-1873
▁some one	-1874
ci ally	-1875
ull y	-1876
▁f oc	-1877
▁ob ject	-1878
if t	-1879
ap er	-1880
▁play er	-1881
▁r ather	-1882
▁serv ice	-1883
as hing	-1884
▁D o	-1885
▁P art	-1886
ru g	-1887
m on	-1888
p ly	-1889
▁m or	-1890
▁not hing	-1891
▁prov ide	-1892
I C	-1893
un g	-1894
▁part y	-1895
▁ex ist	-1896
▁m ag	-1897
7 0	-1898
▁r ul	-1899
▁h ouse	-1900
▁beh ind	-1901
▁how ever	-1902
▁W orld	-1903
▁s um	-1904
▁app lic	-1905
▁ ;	-1906
▁fun ction	-1907
g r	-1908
▁P ol	-1909
▁fr ont	-1910
2 00	-1911
▁ser ies	-1912
▁t em	-1913
▁ty p	-1914
ill s	-1915
▁o pt	-1916
▁point s	-1917
▁bel ow	-1918
itt ed	-1919
▁spec ific	-1920
▁201 7	-1921
um b	-1922
▁r a	-1923
▁pre vious	-1924
▁pre t	-1925
re me	-1926
▁c ustom	-1927
▁cour t	-1928
▁M e	-1929
▁re pl	-1930
▁who le	-1931
g o	-1932
c er	-1933
▁t reat	-1934
▁A ct	-1935
▁prob ably	-1936
▁le arn	-1937
end er	-1938
▁A ss	-1939
▁vers ion	-1940
n ow	-1941
▁che ck	-1942
▁C al	-1943
R E	-1944
min ist	-1945
O n	-1946
our ces	-1947
▁ben ef	-1948
▁d oc	-1949
▁det er	-1950
▁en c	-1951
▁su per	-1952
▁add ress	-1953
▁v ict	-1954
▁201 3	-1955
▁me as	-1956
t r	-1957
▁f ield	-1958
W hen	-1959
▁sign ific	-1960
u ge	-1961
▁fe at	-1962
▁comm on	-1963
l oad	-1964
▁be gin	-1965
▁br ing	-1966
▁a ction	-1967
er man	-1968
▁desc rib	-1969
▁ind ust	-1970
▁want ed	-1971
ri ed	-1972
m ing	-1973
▁att empt	-1974
4 5	-1975
f er	-1976
▁d ue	-1977
ress ion	-1978
# #	-1979
▁sh all	-1980
▁s ix	-1981
o o	-1982
▁st ep	-1983
▁p ub	-1984
▁him self	-1985
▁2 3	-1986
▁c op	-1987
▁d est	-1988
▁st op	-1989
A C	-1990
ib ility	-1991
▁l ab	-1992
ic ult	-1993
▁hour s	-1994
▁cre ate	-1995
▁f urther	-1996
▁Americ a	-1997
▁C ity	-1998
▁d ou	-1999
he ad	-2000
S T	-2001
▁N orth	-2002
c ing	-2003
▁n ational	-2004
u le	-2005
▁In st	-2006
▁t aking	-2007
▁Q u	-2008
ir t	-2009
▁re d	-2010
▁rese arch	-2011
v iron	-2012
▁G e	-2013
▁bre ak	-2014
an a	-2015
▁sp ace	-2016
ater ial	-2017
▁rec ent	-2018
▁A b	-2019
▁gener al	-2020
▁h it	-2021
▁per iod	-2022
▁every thing	-2023
ive ly	-2024
▁ph ys	-2025
▁say ing	-2026
an ks	-2027
▁c ou	-2028
▁c ult	-2029
ac ed	-2030
e al	-2031
u ation	-2032
▁c oun	-2033
l u	-2034
▁includ e	-2035
▁pos ition	-2036
▁A fter	-2037
▁Can ad	-2038
▁E m	-2039
▁im m	-2040
▁R ed	-2041
▁p ick	-2042
▁com pl	-2043
▁m atter	-2044
re g	-2045
e xt	-2046
ang u	-2047
is c	-2048
o le	-2049
a ut	-2050
▁comp et	-2051
e ed	-2052
f ect	-2053
▁2 1	-2054
▁S en	-2055
▁The se	-2056
as ing	-2057
▁can not	-2058
▁in it	-2059
▁rel ations	-2060
ac hed	-2061
▁b ar	-2062
▁4 0	-2063
▁T H	-2064
▁201 2	-2065
▁v ol	-2066
▁g round	-2067
▁sec urity	-2068
▁up d	-2069
il t	-2070
3 5	-2071
▁conc ern	-2072
▁J ust	-2073
▁wh ite	-2074
▁seem s	-2075
▁H er	-2076
pe cially	-2077
i ents	-2078
▁ann oun	-2079
▁f ig	-2080
ight s	-2081
▁st ri	-2082
l ike	-2083
id s	-2084
▁s us	-2085
▁w atch	-2086
▁ â	-2087
▁w ind	-2088
▁C ont	-2089
▁it self	-2090
▁m ass	-2091
A l	-2092
y le	-2093
iqu e	-2094
▁N ational	-2095
▁ab s	-2096
▁p ack	-2097
▁out side	-2098
▁an im	-2099
▁p ain	-2100
et er	-2101
▁man ag	-2102
du ct	-2103
og n	-2104
▁ ]	-2105
▁Se pt	-2106
se c	-2107
o ff	-2108
▁J an	-2109
▁f oot	-2110
ad es	-2111
▁th ird	-2112
▁m ot	-2113
▁ev idence	-2114
int on	-2115
▁th reat	-2116
a pt	-2117
pl es	-2118
c le	-2119
▁l o	-2120
▁de cl	-2121
▁it em	-2122
med i	-2123
▁rep resent	-2124
om b	-2125
am er	-2126
▁signific ant	-2127
og raph	-2128
s u	-2129
▁c al	-2130
i res	-2131
00 00	-2132
I D	-2133
A M	-2134
▁sim ply	-2135
▁long er	-2136
▁f ile	-2137
O T	-2138
c he	-2139
S o	-2140
ate g	-2141
or g	-2142
▁H is	-2143
▁en er	-2144
▁d om	-2145
▁up on	-2146
il i	-2147
": "	-2148
▁them selves	-2149
▁com ing	-2150
▁qu ite	-2151
▁diff icult	-2152
▁B ar	-2153
il ities	-2154
re l	-2155
end s	-2156
c ial	-2157
6 4	-2158
▁wom an	-2159
ra p	-2160
y r	-2161
▁ne cess	-2162
ip s	-2163
▁te xt	-2164
▁requ ire	-2165
▁milit ary	-2166
▁re view	-2167
▁resp ons	-2168
7 5	-2169
▁sub ject	-2170
▁inst ead	-2171
▁iss ues	-2172
▁g en	-2173
" ,"	-2174
▁min utes	-2175
▁we ap	-2176
r ay	-2177
am ed	-2178
t ime	-2179
b l	-2180
H ow	-2181
▁c ode	-2182
▁S m	-2183
▁hig her	-2184
▁St e	-2185
r is	-2186
▁p age	-2187
▁stud ents	-2188
▁In tern	-2189
▁met hod	-2190
▁A ug	-2191
▁P er	-2192
▁A g	-2193
▁polic y	-2194
▁S w	-2195
▁ex ec	-2196
▁ac cept	-2197
um e	-2198
rib ut	-2199
▁word s	-2200
▁fin al	-2201
▁chang es	-2202
▁Dem ocr	-2203
▁friend s	-2204
▁res pect	-2205
▁e p	-2206
▁comp an	-2207
iv il	-2208
▁dam age	-2209
** **	-2210
og le	-2211
viron ment	-2212
▁ne g	-2213
ent al	-2214
▁a p	-2215
▁tot al	-2216
iv al	-2217
! "	-2218
l im	-2219
▁need s	-2220
▁ag re	-2221
▁develop ment	-2222
▁a ge	-2223
ip le	-2224
2 1	-2225
▁result s	-2226
▁A f	-2227
S h	-2228
▁g un	-2229
▁Ob ama	-2230
ro ll	-2231
▁ @	-2232
▁right s	-2233
▁B rit	-2234
▁run ning	-2235
▁was n	-2236
▁p ort	-2237
▁r ate	-2238
▁pret ty	-2239
▁targ et	-2240
▁sa w	-2241
▁c irc	-2242
▁wor ks	-2243
ic ro	-2244
al t	-2245
o ver	-2246
ww w	-2247
Th at	-2248
l ier	-2249
▁every one	-2250
ud e	-2251
▁p ie	-2252
idd le	-2253
ra el	-2254
▁r ad	-2255
▁bl ock	-2256
▁w alk	-2257
T o	-2258
ã ģ	-2259
n es	-2260
▁A ust	-2261
a ul	-2262
ro te	-2263
▁S outh	-2264
ess ion	-2265
op h	-2266
▁show s	-2267
▁s ite	-2268
▁j o	-2269
▁r isk	-2270
cl us	-2271
l t	-2272
▁in j	-2273
id ing	-2274
▁S pe	-2275
▁ch all	-2276
ir m	-2277
▁2 2	-2278
itt ing	-2279
st r	-2280
▁h y	-2281
L E	-2282
ke y	-2283
▁be gan	-2284
at ur	-2285
ashing ton	-2286
l am	-2287
▁D av	-2288
b it	-2289
▁s ize	-2290
▁P ar	-2291
3 8	-2292
ourn al	-2293
f ace	-2294
▁dec ision	-2295
▁l arg	-2296
▁j ud	-2297
re ct	-2298
▁contin ue	-2299
▁O ct	-2300
ove red	-2301
▁I nt	-2302
==== ====	-2303
▁p arent	-2304
▁W ill	-2305
▁eas y	-2306
▁d rug	-2307
ang er	-2308
▁s ense	-2309
▁d i	-2310
id ay	-2311
▁ener gy	-2312
ist ic	-2313
▁ass oci	-2314
ar ter	-2315
ob al	-2316
e ks	-2317
▁E l	-2318
ur ch	-2319
▁g irl	-2320
o e	-2321
it le	-2322
▁2 8	-2323
▁C he	-2324
▁requ est	-2325
▁so on	-2326
▁h ost	-2327
k y	-2328
▁st ates	-2329
om es	-2330
▁m aterial	-2331
le x	-2332
▁mom ent	-2333
▁an sw	-2334
on se	-2335
▁es pecially	-2336
▁n orm	-2337
▁serv ices	-2338
p ite	-2339
r an	-2340
▁ro le	-2341
4 4	-2342
) :	-2343
▁c red	-2344
C l	-2345
____ ____	-2346
▁m at	-2347
▁l og	-2348
▁Cl inton	-2349
O U	-2350
▁off ice	-2351
▁2 6	-2352
▁ch arg	-2353
▁tr ack	-2354
m a	-2355
▁he art	-2356
▁b all	-2357
▁person al	-2358
▁build ing	-2359
n a	-2360
s et	-2361
b ody	-2362
▁Bl ack	-2363
▁incre ase	-2364
itt en	-2365
▁need ed	-2366
3 6	-2367
3 2	-2368
= "	-2369
▁l ost	-2370
▁bec ame	-2371
▁grou ps	-2372
▁M us	-2373
▁w rote	-2374
▁P e	-2375
▁pro p	-2376
j oy	-2377
Ã ©	-2378
▁Wh ite	-2379
▁de ad	-2380
. '	-2381
▁htt p	-2382
▁we bs	-2383
O S	-2384
▁ins ide	-2385
▁wr ong	-2386
▁stat ement	-2387
▁ ...	-2388
y l	-2389
▁fil m	-2390
▁mus ic	-2391
▁sh are	-2392
ific ation	-2393
▁re lease	-2394
▁for ward	-2395
▁st ay	-2396
▁comp ut	-2397
it te	-2398
s er	-2399
▁orig inal	-2400
▁c ard	-2401
▁c and	-2402
▁d iv	-2403
at ural	-2404
▁fav or	-2405
O M	-2406
▁c ases	-2407
us es	-2408
▁se ction	-2409
▁le ave	-2410
g ing	-2411
ov ed	-2412
▁W ashington	-2413
3 9	-2414
▁G l	-2415
▁requ ired	-2416
act ion	-2417
ap an	-2418
o or	-2419
it er	-2420
▁K ing	-2421
▁count ries	-2422
▁G erman	-2423
ll ing	-2424
▁2 7	-2425
3 4	-2426
▁quest ions	-2427
▁pr im	-2428
▁c ell	-2429
▁sh oot	-2430
▁any one	-2431
▁W est	-2432
▁aff ect	-2433
ep end	-2434
▁on line	-2435
▁Is rael	-2436
▁Sept ember	-2437
▁ab ility	-2438
▁cont ent	-2439
is es	-2440
▁re ve	-2441
▁l aun	-2442
▁ind ic	-2443
▁for ce	-2444
c ast	-2445
▁so ld	-2446
av ing	-2447
f l	-2448
▁so ft	-2449
▁compan ies	-2450
ce ed	-2451
▁art icle	-2452
▁a ud	-2453
▁re v	-2454
▁ed uc	-2455
▁play ing	-2456
0 5	-2457
▁he ld	-2458
ct or	-2459
▁rele ased	-2460
▁f ederal	-2461
3 7	-2462
▁ad minist	-2463
▁inter view	-2464
▁inst all	-2465
▁rece ived	-2466
▁s ource	-2467
u k	-2468
P h	-2469
▁ser ious	-2470
▁cre ated	-2471
▁c ause	-2472
▁im medi	-2473
▁def in	-2474
u el	-2475
▁Dep artment	-2476
ct ions	-2477
▁C our	-2478
▁N ow	-2479
z e	-2480
it es	-2481
it ution	-2482
▁l ate	-2483
▁spe ak	-2484
n ers	-2485
▁leg al	-2486
ar i	-2487
▁C or	-2488
▁we eks	-2489
▁mod el	-2490
▁p red	-2491
▁ex act	-2492
B C	-2493
▁B y	-2494
IN G	-2495
os ing	-2496
▁t akes	-2497
▁reg ard	-2498
▁opp ortun	-2499
▁pr ice	-2500
▁19 8	-2501
▁A pr	-2502
f ully	-2503
▁or d	-2504
▁proble ms	-2505
ru ction	-2506
h am	-2507
▁C ount	-2508
le ge	-2509
▁lead ers	-2510
E T	-2511
le v	-2512
▁de ep	-2513
olog ical	-2514
es e	-2515
h aps	-2516
▁S ome	-2517
▁p ers	-2518
▁cont ract	-2519
▁relations hip	-2520
s p	-2521
ou d	-2522
▁b ase	-2523
4 8	-2524
m it	-2525
A d	-2526
anc ial	-2527
▁cons um	-2528
▁pot ential	-2529
▁l angu	-2530
re m	-2531
et h	-2532
▁rel ig	-2533
ress ed	-2534
6 6	-2535
▁l ink	-2536
▁l ower	-2537
ay er	-2538
▁J une	-2539
▁f em	-2540
un t	-2541
er c	-2542
ur d	-2543
▁cont act	-2544
▁ ill	-2545
▁m other	-2546
▁est ab	-2547
h tt	-2548
▁M arch	-2549
▁B ro	-2550
▁Ch ina	-2551
▁2 9	-2552
▁s qu	-2553
▁prov ided	-2554
▁a verage	-2555
as ons	-2556
▁201 1	-2557
▁ex am	-2558
l in	-2559
5 5	-2560
n ed	-2561
▁per fect	-2562
▁t ou	-2563
al se	-2564
u x	-2565
▁bu y	-2566
▁sh ot	-2567
▁col lect	-2568
▁ph ot	-2569
▁play ed	-2570
▁sur pr	-2571
▁official s	-2572
▁sim ple	-2573
av y	-2574
▁indust ry	-2575
▁hand s	-2576
g round	-2577
▁p ull	-2578
▁r ound	-2579
▁us er	-2580
▁r ange	-2581
u ary	-2582
▁priv ate	-2583
op s	-2584
e es	-2585
▁w ays	-2586
▁M ich	-2587
▁ve h	-2588
▁ex cept	-2589
▁ter ms	-2590
im um	-2591
pp er	-2592
I ON	-2593
ore s	-2594
▁Dr agon	-2595
ou l	-2596
▁d en	-2597
▁perform ance	-2598
▁b ill	-2599
c il	-2600
4 7	-2601
▁en vironment	-2602
▁ex c	-2603
ad d	-2604
▁wor th	-2605
▁p ict	-2606
▁ch ance	-2607
▁201 8	-2608
b or	-2609
▁spe ed	-2610
ict ion	-2611
▁al leg	-2612
▁J apan	-2613
at ory	-2614
re et	-2615
▁m atch	-2616
▁I I	-2617
▁st ru	-2618
ord er	-2619
▁st e	-2620
▁l iving	-2621
▁st ruct	-2622
in o	-2623
▁se par	-2624
her n	-2625
▁resp onse	-2626
▁en joy	-2627
▁v ia	-2628
A D	-2629
um ents	-2630
ace book	-2631
▁mem ber	-2632
ib r	-2633
iz ing	-2634
▁to ol	-2635
▁M on	-2636
▁Wh ile	-2637
h ood	-2638
▁A ng	-2639
▁D ef	-2640
▁off er	-2641
T r	-2642
a ur	-2643
▁turn ed	-2644
▁J uly	-2645
d own	-2646
an ced	-2647
▁rec ently	-2648
▁E ar	-2649
▁c e	-2650
▁St ar	-2651
▁C ong	-2652
rough t	-2653
▁bl ood	-2654
▁hop e	-2655
▁com ment	-2656
ain t	-2657
▁ar ri	-2658
il es	-2659
▁partic ip	-2660
ough t	-2661
ri ption	-2662
0 8	-2663
4 9	-2664
▁g ave	-2665
▁se lect	-2666
▁kill ed	-2667
sy ch	-2668
▁go es	-2669
i j	-2670
▁c oll	-2671
▁imp act	-2672
at ives	-2673
▁S er	-2674
0 9	-2675
▁Aug ust	-2676
▁b oy	-2677
d e	-2678
▁D es	-2679
▁f elt	-2680
U S	-2681
▁expect ed	-2682
▁im age	-2683
▁M ark	-2684
cc ording	-2685
o ice	-2686
E C	-2687
▁M ag	-2688
en ed	-2689
h old	-2690
▁P ost	-2691
▁pre vent	-2692
N o	-2693
▁invol ved	-2694
▁ey es	-2695
▁quick ly	-2696
A t	-2697
un k	-2698
▁beh av	-2699
▁ ur	-2700
▁l ed	-2701
c ome	-2702
e y	-2703
▁cand id	-2704
▁ear lier	-2705
▁foc us	-2706
et y	-2707
P ro	-2708
led ge	-2709
ix ed	-2710
ill ed	-2711
▁pop ular	-2712
A P	-2713
▁set t	-2714
l ight	-2715
▁var ious	-2716
in ks	-2717
▁level s	-2718
▁ro ad	-2719
ell ig	-2720
ab les	-2721
he l	-2722
itte e	-2723
▁G ener	-2724
y pe	-2725
▁he ard	-2726
ic les	-2727
▁m is	-2728
▁us ers	-2729
▁S an	-2730
▁impro ve	-2731
▁f ather	-2732
▁se arch	-2733
The y	-2734
v il	-2735
▁prof ess	-2736
▁kn ew	-2737
▁l oss	-2738
▁ev ents	-2739
6 5	-2740
▁b illion	-2741
0 7	-2742
0 2	-2743
▁New s	-2744
▁A M	-2745
▁co ver	-2746
w here	-2747
ens ion	-2748
▁b ott	-2749
▁are as	-2750
en ces	-2751
op e	-2752
▁Tw itter	-2753
a el	-2754
▁get s	-2755
▁Go ogle	-2756
▁s n	-2757
i ant	-2758
▁v ote	-2759
▁near ly	-2760
▁includ ed	-2761
▁rec ogn	-2762
z z	-2763
m m	-2764
al ed	-2765
▁happen ed	-2766
0 4	-2767
▁h ot	-2768
▁who se	-2769
▁c ivil	-2770
▁su ff	-2771
o es	-2772
it iz	-2773
▁Sy ri	-2774
▁resp ond	-2775
▁h on	-2776
▁feat ures	-2777
▁econom ic	-2778
▁Apr il	-2779
r im	-2780
▁techn ology	-2781
▁o ption	-2782
ag ing	-2783
▁pur ch	-2784
R e	-2785
▁l at	-2786
ch ie	-2787
is l	-2788
▁rec omm	-2789
u f	-2790
▁tr aining	-2791
▁effect s	-2792
▁f ast	-2793
▁201 0	-2794
▁occ ur	-2795
▁webs ite	-2796
▁em ail	-2797
▁s ens	-2798
e ch	-2799
▁o il	-2800
▁inf lu	-2801
▁current ly	-2802
▁S ch	-2803
▁Ad d	-2804
▁go al	-2805
▁sc ient	-2806
▁con v	-2807
1 00	-2808
em y	-2809
▁dec ided	-2810
▁tra vel	-2811
▁m ention	-2812
L L	-2813
0 3	-2814
▁e lection	-2815
▁ph one	-2816
▁look s	-2817
▁sit uation	-2818
▁c y	-2819
▁h or	-2820
b ed	-2821
▁Cour t	-2822
a ily	-2823
av es	-2824
▁qu ality	-2825
▁Com p	-2826
w ise	-2827
▁t able	-2828
▁st aff	-2829
▁W ind	-2830
et t	-2831
▁tri ed	-2832
ide red	-2833
▁add ition	-2834
▁b ox	-2835
▁l ack	-2836
ar ily	-2837
▁w ide	-2838
▁m id	-2839
▁bo ard	-2840
ys is	-2841
▁ant i	-2842
h a	-2843
▁d ig	-2844
en ing	-2845
▁d ro	-2846
C on	-2847
6 8	-2848
▁sl ow	-2849
b ased	-2850
se qu	-2851
▁p ath	-2852
E x	-2853
ak er	-2854
▁work ed	-2855
▁p en	-2856
▁eng ine	-2857
▁look ed	-2858
▁Su per	-2859
▁S erv	-2860
▁vict im	-2861
U n	-2862
▁proper ty	-2863
▁int rodu	-2864
▁exec ut	-2865
▁P M	-2866
L e	-2867
▁col or	-2868
▁M ore	-2869
▁6 0	-2870
▁net work	-2871
▁d ate	-2872
c ul	-2873
id ge	-2874
▁ext ra	-2875
3 1	-2876
▁s le	-2877
6 7	-2878
▁w ond	-2879
▁report s	-2880
j ust	-2881
▁Aust ral	-2882
▁cap ital	-2883
▁en s	-2884
▁comm and	-2885
▁allow ed	-2886
▁pre p	-2887
▁ca pt	-2888
h ib	-2889
▁num bers	-2890
ch an	-2891
▁f air	-2892
m p	-2893
om s	-2894
▁re ach	-2895
W ith	-2896
t ain	-2897
▁bro ad	-2898
▁cou ple	-2899
ec ause	-2900
ly ing	-2901
▁F eb	-2902
▁sc reen	-2903
▁l ives	-2904
▁pri or	-2905
▁Cong ress	-2906
A r	-2907
▁appro ach	-2908
▁e mer	-2909
ar ies	-2910
▁D is	-2911
s erv	-2912
▁N e	-2913
▁bu ilt	-2914
c ies	-2915
▁re pe	-2916
▁rul es	-2917
for ce	-2918
▁P al	-2919
▁fin ancial	-2920
▁cons idered	-2921
▁Ch ar	-2922
n ces	-2923
▁I S	-2924
▁b rought	-2925
▁b i	-2926
i ers	-2927
▁S im	-2928
O P	-2929
▁product s	-2930
▁vis it	-2931
▁doc ument	-2932
▁con duct	-2933
▁complete ly	-2934
in ing	-2935
▁Cal if	-2936
ib ly	-2937
▁wr itten	-2938
▁T V	-2939
em ents	-2940
▁d raw	-2941
O ne	-2942
▁pub lished	-2943
▁sec ret	-2944
r ain	-2945
he t	-2946
▁F acebook	-2947
ond ay	-2948
▁U p	-2949
▁sex ual	-2950
▁th ous	-2951
▁P at	-2952
▁ ess	-2953
▁stand ard	-2954
▁ar m	-2955
g es	-2956
ect ion	-2957
▁f ell	-2958
▁fore ign	-2959
an i	-2960
▁Fr iday	-2961
▁reg ular	-2962
in ary	-2963
▁incre ased	-2964
▁us ually	-2965
▁dem on	-2966
▁d ark	-2967
▁add itional	-2968
ro l	-2969
▁O f	-2970
▁produ ction	-2971
! !	-2972
und red	-2973
▁intern ational	-2974
id ents	-2975
▁F ree	-2976
rou p	-2977
▁r ace	-2978
▁m ach	-2979
▁h uge	-2980
A ll	-2981
le ar	-2982
ove mber	-2983
▁to wn	-2984
▁att ention	-2985
▁O ff	-2986
y ond	-2987
▁The n	-2988
f ield	-2989
▁ter ror	-2990
ra z	-2991
▁B o	-2992
▁meet ing	-2993
▁P ark	-2994
▁ar rest	-2995
▁f ear	-2996
▁a w	-2997
▁V al	-2998
or ing	-2999
' ,	-3000
▁ext reme	-3001
ar r	-3002
▁work ers	-3003
A fter	-3004
▁3 1	-3005
n et	-3006
am ent	-3007
▁direct ly	-3008
▁pop ulation	-3009
ub e	-3010
▁Oct ober	-3011
▁I N	-3012
▁Jan uary	-3013
5 9	-3014
▁Dav id	-3015
▁c ross	-3016
ce mber	-3017
▁F irst	-3018
▁mess age	-3019
ir it	-3020
▁n ation	-3021
▁p oll	-3022
is ions	-3023
▁answ er	-3024
n y	-3025
is ode	-3026
▁car ry	-3027
▁Russ ia	-3028
▁he ar	-3029
eng th	-3030
ro y	-3031
▁n atural	-3032
in ally	-3033
▁do g	-3034
m itted	-3035
▁tr ade	-3036
▁sub st	-3037
▁mult iple	-3038
▁Af ric	-3039
▁f ans	-3040
▁s ort	-3041
▁gl obal	-3042
ic ation	-3043
▁W ed	-3044
ar a	-3045
▁a chie	-3046
▁langu age	-3047
ve y	-3048
▁t al	-3049
▁necess ary	-3050
▁det ails	-3051
▁s en	-3052
▁S und	-3053
▁Re g	-3054
▁R ec	-3055
0 6	-3056
▁s il	-3057
ress ive	-3058
▁med ical	-3059
un ch	-3060
orn ia	-3061
▁u nd	-3062
f ort	-3063
oc ks	-3064
▁M onday	-3065
ues day	-3066
c raft	-3067
7 7	-3068
ur t	-3069
▁ ver	-3070
▁H ill	-3071
▁rece ive	-3072
▁mor ning	-3073
es tern	-3074
▁b ank	-3075
▁s at	-3076
ir th	-3077
▁H igh	-3078
▁dev ice	-3079
▁TH E	-3080
▁Cent er	-3081
▁saf e	-3082
▁p le	-3083
▁Canad a	-3084
▁system s	-3085
▁ass ist	-3086
▁sur v	-3087
▁b attle	-3088
▁S oc	-3089
vert is	-3090
S he	-3091
▁p aper	-3092
▁grow th	-3093
▁c ast	-3094
S c	-3095
▁pl ans	-3096
ll ed	-3097
▁part s	-3098
▁w all	-3099
▁move ment	-3100
▁pract ice	-3101
im ately	-3102
▁dis play	-3103
▁somet imes	-3104
om p	-3105
▁P aul	-3106
▁Y es	-3107
k ing	-3108
5 8	-3109
o ly	-3110
▁s on	-3111
▁av oid	-3112
ok es	-3113
▁J ew	-3114
▁to wards	-3115
as c	-3116
▁ //	-3117
▁K ore	-3118
▁talk ing	-3119
▁cor rect	-3120
▁sp ent	-3121
ic ks	-3122
i able	-3123
e ared	-3124
▁ter m	-3125
▁want s	-3126
om ing	-3127
▁ ut	-3128
▁dou b	-3129
▁for ces	-3130
▁p lease	-3131
6 9	-3132
▁N ovember	-3133
at form	-3134
ond on	-3135
▁on es	-3136
▁immedi ately	-3137
▁Russ ian	-3138
▁M et	-3139
▁de g	-3140
▁parent s	-3141
C H	-3142
▁Americ ans	-3143
al y	-3144
▁M od	-3145
▁sh own	-3146
▁cond itions	-3147
▁st uff	-3148
▁re b	-3149
▁Y our	-3150
▁includ es	-3151
n own	-3152
▁S am	-3153
▁exper ien	-3154
m ission	-3155
▁E ven	-3156
augh t	-3157
▁announ ced	-3158
▁Republic an	-3159
▁deter min	-3160
▁describ ed	-3161
▁Count y	-3162
( )	-3163
▁do or	-3164
▁chang ed	-3165
▁ne igh	-3166
▁H ere	-3167
▁cle an	-3168
▁p an	-3169
▁De cember	-3170
▁Europe an	-3171
ir ing	-3172
ap ter	-3173
▁cl ub	-3174
▁T uesday	-3175
▁p aid	-3176
▁N et	-3177
▁attack s	-3178
▁charact ers	-3179
▁al one	-3180
▁direct or	-3181
d om	-3182
▁3 5	-3183
▁l oad	-3184
▁r out	-3185
▁Calif ornia	-3186
▁fin ally	-3187
▁r ac	-3188
▁cont r	-3189
▁exact ly	-3190
res h	-3191
p ri	-3192
▁Is lam	-3193
▁n ature	-3194
▁care er	-3195
▁lat est	-3196
▁con vers	-3197
▁S l	-3198
p ose	-3199
ci ent	-3200
▁In c	-3201
iv ity	-3202
8 8	-3203
▁A tt	-3204
▁M or	-3205
nes day	-3206
▁we ight	-3207
k en	-3208
▁not e	-3209
▁team s	-3210
▁ \	-3211
air s	-3212
▁G reen	-3213
▁h undred	-3214
on ent	-3215
▁stre ng	-3216
▁cons ist	-3217
ic ated	-3218
▁reg ul	-3219
▁l ic	-3220
ast ic	-3221
▁t en	-3222
urs day	-3223
ellig ence	-3224
ous ly	-3225
▁U K	-3226
B I	-3227
▁cost s	-3228
▁ind epend	-3229
▁A P	-3230
▁norm al	-3231
▁h om	-3232
▁ob vious	-3233
▁s we	-3234
▁st ar	-3235
▁read y	-3236
ac her	-3237
▁imp lement	-3238
g est	-3239
▁s ong	-3240
▁G et	-3241
▁L ab	-3242
▁interest ing	-3243
us ing	-3244
▁g iving	-3245
▁Sund ay	-3246
▁et c	-3247
▁m iddle	-3248
▁rem ember	-3249
r ight	-3250
os ition	-3251
ut ions	-3252
▁m ax	-3253
4 6	-3254
▁your self	-3255
▁dem and	-3256
▁treat ment	-3257
▁d anger	-3258
▁C ons	-3259
▁gu y	-3260
▁Brit ish	-3261
▁phys ical	-3262
▁rel ated	-3263
▁rem ain	-3264
▁could n	-3265
▁ref er	-3266
▁c itiz	-3267
b ox	-3268
EN T	-3269
bo ard	-3270
▁in n	-3271
I G	-3272
er o	-3273
▁St reet	-3274
osp ital	-3275
ren ch	-3276
cher s	-3277
▁st ra	-3278
O L	-3279
ag er	-3280
▁A N	-3281
▁eas ily	-3282
I A	-3283
en ge	-3284
in y	-3285
▁cl os	-3286
ock ed	-3287
▁us es	-3288
▁C oun	-3289
I m	-3290
u ild	-3291
? ?	-3292
m ore	-3293
▁an g	-3294
▁wr ite	-3295
ol ute	-3296
5 7	-3297
▁lead er	-3298
▁read ing	-3299
< /	-3300
▁aut om	-3301
est s	-3302
4 3	-3303
▁leg isl	-3304
▁G old	-3305
▁design ed	-3306
▁S T	-3307
▁Le g	-3308
a res	-3309
▁be aut	-3310
▁T ex	-3311
▁appear s	-3312
▁stru gg	-3313
▁R om	-3314
▁ 00	-3315
▁cho ice	-3316
▁particular ly	-3317
▁F rom	-3318
op er	-3319
▁L ondon	-3320
ann ed	-3321
▁allow s	-3322
ob ile	-3323
▁differe nce	-3324
âĢ ¢	-3325
▁V iew	-3326
▁Wed nesday	-3327
▁al though	-3328
▁rel ative	-3329
▁applic ation	-3330
ate ver	-3331
▁are n	-3332
▁my self	-3333
▁im ag	-3334
▁dis e	-3335
▁soc iety	-3336
▁fre qu	-3337
▁Eng lish	-3338
▁po or	-3339
▁D ay	-3340
▁writ ing	-3341
▁se ven	-3342
▁start ing	-3343
▁b ud	-3344
▁pr int	-3345
▁Tr ans	-3346
uf act	-3347
▁St ud	-3348
n ew	-3349
▁cr im	-3350
▁g ives	-3351
▁co ol	-3352
a e	-3353
i ance	-3354
▁Gener al	-3355
▁think ing	-3356
▁sa ve	-3357
▁lim ited	-3358
▁Part y	-3359
▁mean ing	-3360
p en	-3361
ow ers	-3362
▁J ack	-3363
E M	-3364
▁n ice	-3365
ru pt	-3366
▁g as	-3367
▁e ight	-3368
▁fe et	-3369
▁eff ort	-3370
▁ ign	-3371
ic it	-3372
B l	-3373
co in	-3374
▁op in	-3375
▁br ain	-3376
Wh ile	-3377
he st	-3378
▁Th ursday	-3379
▁would n	-3380
augh ter	-3381
▁tou ch	-3382
le ments	-3383
▁stud ies	-3384
▁cent er	-3385
c ont	-3386
or ge	-3387
▁comput er	-3388
▁investig ation	-3389
P l	-3390
or ks	-3391
▁200 8	-3392
▁incre asing	-3393
▁st ore	-3394
▁com ments	-3395
▁b al	-3396
m en	-3397
▁do ll	-3398
▁l iber	-3399
▁w ife	-3400
▁law s	-3401
atur day	-3402
it ness	-3403
▁mod ern	-3404
▁S k	-3405
▁administ ration	-3406
▁opportun ity	-3407
▁s al	-3408
▁power ful	-3409
M y	-3410
▁claim s	-3411
▁Ear th	-3412
ord s	-3413
▁t itle	-3414
▁es c	-3415
n ame	-3416
N ot	-3417
om en	-3418
▁be yond	-3419
▁c amer	-3420
▁se ll	-3421
it ute	-3422
ear ch	-3423
▁app l	-3424
im ent	-3425
4 2	-3426
▁Ar t	-3427
▁un f	-3428
▁viol ence	-3429
ur g	-3430
▁E ast	-3431
▁comp ared	-3432
▁opt ions	-3433
▁through out	-3434
▁v s	-3435
ig r	-3436
. [	-3437
ac hes	-3438
7 8	-3439
▁fil es	-3440
F L	-3441
E L	-3442
ar ian	-3443
▁J ames	-3444
▁A ir	-3445
an ch	-3446
▁det ail	-3447
▁pie ce	-3448
P S	-3449
▁n amed	-3450
▁educ ation	-3451
▁dri ve	-3452
▁item s	-3453
▁stud ent	-3454
ic ed	-3455
: :	-3456
ic o	-3457
▁th row	-3458
▁sc ene	-3459
▁comple x	-3460
▁200 9	-3461
▁pre c	-3462
▁B re	-3463
7 9	-3464
▁con cept	-3465
▁stat us	-3466
am ing	-3467
▁d ied	-3468
▁know ledge	-3469
▁begin ning	-3470
O D	-3471
ru ary	-3472
▁certain ly	-3473
▁gu ys	-3474
▁sl ight	-3475
in n	-3476
ound s	-3477
▁f ine	-3478
▁f at	-3479
ic ations	-3480
▁per haps	-3481
▁A nt	-3482
▁inc ome	-3483
▁htt ps	-3484
▁major ity	-3485
port s	-3486
st on	-3487
▁great er	-3488
▁fe ed	-3489
ent ially	-3490
▁saf ety	-3491
▁un ique	-3492
and om	-3493
▁g one	-3494
▁show ed	-3495
▁hist or	-3496
▁coun ter	-3497
i us	-3498
id a	-3499
▁lead ing	-3500
i pe	-3501
▁s end	-3502
▁Don ald	-3503
er ve	-3504
▁def ense	-3505
ines e	-3506
▁y es	-3507
▁F ire	-3508
▁Mus lim	-3509
ra q	-3510
▁contin ued	-3511
os h	-3512
▁prov ides	-3513
▁pr ison	-3514
▁P re	-3515
▁happ y	-3516
▁econom y	-3517
▁tr ust	-3518
ag s	-3519
▁G ame	-3520
▁weap ons	-3521
um an	-3522
▁C le	-3523
it ation	-3524
▁anal ysis	-3525
▁T imes	-3526
▁sc ience	-3527
- >	-3528
▁fig ure	-3529
▁dis app	-3530
ent y	-3531
▁soft ware	-3532
▁u lt	-3533
▁offic ers	-3534
N ew	-3535
I s	-3536
▁rem ains	-3537
▁Ind ia	-3538
▁p sych	-3539
ri ef	-3540
▁c at	-3541
es c	-3542
▁ob serv	-3543
▁st age	-3544
▁D ark	-3545
▁ent er	-3546
ch ange	-3547
▁pass ed	-3548
▁des pite	-3549
▁O ut	-3550
▁mov ie	-3551
r s	-3552
▁v oice	-3553
m ine	-3554
▁Pl ay	-3555
▁to ward	-3556
▁T er	-3557
▁reg ion	-3558
▁val ues	-3559
or ters	-3560
▁m ount	-3561
▁offic er	-3562
▁O ther	-3563
b an	-3564
▁h ous	-3565
w ood	-3566
ro om	-3567
I V	-3568
▁S un	-3569
se e	-3570
▁O ver	-3571
ro g	-3572
9 0	-3573
▁l ay	-3574
▁T ur	-3575
a wn	-3576
▁press ure	-3577
▁S ub	-3578
▁book s	-3579
ed om	-3580
▁S and	-3581
A A	-3582
ag o	-3583
▁re asons	-3584
f ord	-3585
▁activ ity	-3586
U T	-3587
N ow	-3588
▁Sen ate	-3589
ce ll	-3590
n ight	-3591
▁call s	-3592
in ter	-3593
▁let ter	-3594
▁R ob	-3595
▁J e	-3596
▁cho ose	-3597
▁L aw	-3598
G et	-3599
B e	-3600
▁ro b	-3601
▁typ es	-3602
▁pl atform	-3603
▁qu arter	-3604
R A	-3605
▁T ime	-3606
▁may be	-3607
▁C r	-3608
9 5	-3609
p re	-3610
▁mov ing	-3611
▁l if	-3612
▁go ld	-3613
▁s om	-3614
▁pat ients	-3615
▁tr uth	-3616
▁K e	-3617
ur ance	-3618
ant ly	-3619
m ar	-3620
▁char ge	-3621
▁G reat	-3622
▁ce le	-3623
---------------- ----------------	-3624
▁ro ck	-3625
ro id	-3626
an cy	-3627
▁cred it	-3628
a ud	-3629
B y	-3630
▁E very	-3631
▁mov ed	-3632
ing er	-3633
rib ution	-3634
▁n ames	-3635
▁stra ight	-3636
▁He alth	-3637
▁W ell	-3638
▁fe ature	-3639
▁r ule	-3640
▁sc he	-3641
in ated	-3642
▁Mich ael	-3643
ber g	-3644
4 1	-3645
il ed	-3646
b and	-3647
▁cl ick	-3648
▁Ang el	-3649
on ents	-3650
Â Ń	-3651
▁I raq	-3652
▁S aturday	-3653
▁a ware	-3654
p art	-3655
▁pat tern	-3656
O W	-3657
▁L et	-3658
▁gr ad	-3659
ign ed	-3660
▁associ ated	-3661
▁st yle	-3662
n o	-3663
i ation	-3664
a ith	-3665
il ies	-3666
▁st ories	-3667
ur ation	-3668
▁individual s	-3669
▁âĢ ¦	-3670
m iss	-3671
▁Ass oci	-3672
ish ing	-3673
ab y	-3674
▁sum mer	-3675
▁B en	-3676
▁3 2	-3677
▁ar ch	-3678
ut y	-3679
▁Tex as	-3680
h ol	-3681
▁full y	-3682
▁m ill	-3683
▁follow ed	-3684
▁B ill	-3685
▁Ind ian	-3686
▁Sec ret	-3687
▁B el	-3688
▁Feb ruary	-3689
▁job s	-3690
▁seem ed	-3691
▁Go vern	-3692
i pped	-3693
▁real ity	-3694
▁l ines	-3695
▁p ark	-3696
▁meas ure	-3697
▁O ur	-3698
I M	-3699
▁bro ther	-3700
▁grow ing	-3701
▁b an	-3702
▁est im	-3703
▁c ry	-3704
▁S chool	-3705
▁me chan	-3706
▁O F	-3707
▁Wind ows	-3708
▁r ates	-3709
▁O h	-3710
▁pos itive	-3711
▁cult ure	-3712
ist ics	-3713
ic a	-3714
▁h ar	-3715
y a	-3716
ite ly	-3717
i pp	-3718
▁m ap	-3719
en cies	-3720
▁Will iam	-3721
I I	-3722
ak ers	-3723
5 6	-3724
▁M art	-3725
▁R em	-3726
▁al tern	-3727
it ude	-3728
▁co ach	-3729
row d	-3730
D on	-3731
▁k ids	-3732
▁j ournal	-3733
▁cor por	-3734
▁f alse	-3735
▁we b	-3736
▁sle ep	-3737
▁cont ain	-3738
▁st o	-3739
▁b ed	-3740
iver se	-3741
▁R ich	-3742
▁Ch inese	-3743
▁p un	-3744
▁me ant	-3745
k nown	-3746
▁not ice	-3747
▁favor ite	-3748
a ven	-3749
▁cond ition	-3750
▁pur pose	-3751
) )	-3752
▁organ ization	-3753
▁chall eng	-3754
▁man ufact	-3755
▁sus p	-3756
▁A c	-3757
▁crit ic	-3758
un es	-3759
uc lear	-3760
▁m er	-3761
vent ion	-3762
▁8 0	-3763
▁m ist	-3764
▁U s	-3765
▁T or	-3766
htt p	-3767
ol f	-3768
▁larg er	-3769
▁adv ant	-3770
▁rese ar	-3771
▁act ions	-3772
m l	-3773
▁ke pt	-3774
▁a im	-3775
, '	-3776
c ol	-3777
▁benef its	-3778
if ying	-3779
▁act ual	-3780
▁Intern ational	-3781
▁veh icle	-3782
▁ch ief	-3783
▁eff orts	-3784
▁Le ague	-3785
▁M ost	-3786
▁wa it	-3787
▁ad ult	-3788
▁over all	-3789
▁spe ech	-3790
▁high ly	-3791
▁fem ale	-3792
▁er ror	-3793
▁effect ive	-3794
5 4	-3795
▁enc our	-3796
w ell	-3797
▁fail ed	-3798
▁cons erv	-3799
▁program s	-3800
▁t rou	-3801
▁a head	-3802
5 00	-3803
vertis ement	-3804
I P	-3805
▁F ound	-3806
p ir	-3807
▁ %	-3808
▁cr ime	-3809
and er	-3810
▁loc ation	-3811
▁I ran	-3812
▁behav ior	-3813
az ing	-3814
▁r are	-3815
▁em b	-3816
▁ca used	-3817
▁sh ip	-3818
▁act ive	-3819
▁cont ribut	-3820
▁g reen	-3821
▁ac qu	-3822
▁ref lect	-3823
ven ue	-3824
▁f irm	-3825
▁b irth	-3826
] .	-3827
▁clear ly	-3828
▁em ot	-3829
▁ag ency	-3830
ri age	-3831
▁mem ory	-3832
9 8	-3833
S A	-3834
▁Se e	-3835
ac ing	-3836
C C	-3837
▁big gest	-3838
▁r ap	-3839
▁bas ic	-3840
▁b and	-3841
e at	-3842
▁sus pect	-3843
▁M ac	-3844
▁9 0	-3845
m ark	-3846
ist an	-3847
▁sp read	-3848
am s	-3849
k i	-3850
as y	-3851
ra v	-3852
▁R ober	-3853
▁demon str	-3854
r ated	-3855
▁abs olute	-3856
▁pl aces	-3857
▁im pl	-3858
ibr ary	-3859
▁c ards	-3860
▁dest roy	-3861
▁v irt	-3862
ve re	-3863
▁app eared	-3864
y an	-3865
p oint	-3866
▁be g	-3867
▁tem per	-3868
s pe	-3869
ant ed	-3870
ear s	-3871
▁D irect	-3872
▁l ength	-3873
▁bl og	-3874
am b	-3875
▁int eg	-3876
▁res ources	-3877
ac c	-3878
if ul	-3879
▁sp ot	-3880
▁for ced	-3881
▁thous ands	-3882
▁Min ister	-3883
▁qu al	-3884
▁F rench	-3885
at ically	-3886
▁gener ally	-3887
▁dr ink	-3888
▁th us	-3889
I L	-3890
od es	-3891
▁appro pri	-3892
▁Re ad	-3893
▁wh om	-3894
▁ey e	-3895
▁col lege	-3896
▁4 5	-3897
ire ction	-3898
▁ens ure	-3899
▁app arent	-3900
id ers	-3901
▁relig ious	-3902
▁min or	-3903
ol ic	-3904
▁t ro	-3905
▁Wh y	-3906
rib ute	-3907
m et	-3908
▁prim ary	-3909
▁develop ed	-3910
▁pe ace	-3911
▁sk in	-3912
st e	-3913
av a	-3914
▁bl ue	-3915
▁fam ilies	-3916
▁ ir	-3917
▁app ly	-3918
▁in form	-3919
▁Sm ith	-3920
C T	-3921
i i	-3922
▁lim it	-3923
▁res ist	-3924
........ ........	-3925
um n	-3926
▁conf lic	-3927
▁tw e	-3928
ud d	-3929
▁T om	-3930
▁l iter	-3931
qu e	-3932
b on	-3933
▁ha ir	-3934
▁event ually	-3935
▁p us	-3936
▁help ed	-3937
▁ag g	-3938
or ney	-3939
▁App le	-3940
▁f it	-3941
▁S ur	-3942
▁pre m	-3943
▁s ales	-3944
▁second s	-3945
▁streng th	-3946
▁feel ing	-3947
¿ ½	-3948
▁t our	-3949
▁know s	-3950
o om	-3951
▁ex erc	-3952
▁som ew	-3953
ï ¿½	-3954
> >	-3955
▁sp okes	-3956
▁ide as	-3957
▁reg ist	-3958
so ft	-3959
▁D el	-3960
▁P C	-3961
▁pro pos	-3962
▁laun ch	-3963
▁bott om	-3964
T H	-3965
▁P lease	-3966
v est	-3967
it z	-3968
▁In ter	-3969
▁sc ript	-3970
▁r at	-3971
ar ning	-3972
▁ il	-3973
▁J er	-3974
▁A re	-3975
▁wh atever	-3976
ok en	-3977
ci ence	-3978
▁mod e	-3979
▁ag ree	-3980
▁s ources	-3981
▁init ial	-3982
▁rest rict	-3983
▁wond er	-3984
us ion	-3985
## ##	-3986
▁S il	-3987
vil le	-3988
▁b urn	-3989
t w	-3990
as ion	-3991
▁Â £	-3992
▁n or	-3993
u ing	-3994
▁re ached	-3995
▁s un	-3996
▁c ateg	-3997
ig ration	-3998
▁c ook	-3999
▁prom ot	-4000
▁m ale	-4001
▁cl imate	-4002
▁f ix	-4003
▁alleg ed	-4004
U R	-4005
all ed	-4006
▁im ages	-4007
C ont	-4008
ot a	-4009
▁school s	-4010
i os	-4011
▁d rop	-4012
▁st ream	-4013
▁M o	-4014
▁previous ly	-4015
al ing	-4016
▁p et	-4017
▁dou ble	-4018
▁( @	-4019
ann el	-4020
▁def ault	-4021
t ies	-4022
▁r ank	-4023
▁D ec	-4024
▁Coun cil	-4025
▁weap on	-4026
▁st ock	-4027
▁anal y	-4028
▁St r	-4029
▁pict ure	-4030
▁Pol ice	-4031
f erence	-4032
▁cent ury	-4033
▁citiz ens	-4034
▁on to	-4035
▁exp and	-4036
▁he ro	-4037
▁S ol	-4038
▁w ild	-4039
▁upd ate	-4040
▁custom ers	-4041
r ont	-4042
d ef	-4043
▁l ik	-4044
▁crim inal	-4045
▁Christ ian	-4046
S P	-4047
7 6	-4048
▁le aving	-4049
▁other wise	-4050
▁D ist	-4051
▁bas is	-4052
5 2	-4053
5 3	-4054
ic ip	-4055
▁B er	-4056
▁recomm end	-4057
▁fl oor	-4058
▁c rowd	-4059
ol es	-4060
▁7 0	-4061
▁cent ral	-4062
▁E v	-4063
▁d ream	-4064
▁down load	-4065
▁conf ir	-4066
▁Th om	-4067
▁wind ow	-4068
▁happ ens	-4069
▁un it	-4070
▁t end	-4071
▁s pl	-4072
▁bec omes	-4073
▁fight ing	-4074
▁pred ict	-4075
▁P ress	-4076
▁P ower	-4077
▁he avy	-4078
ak ed	-4079
▁f an	-4080
or ter	-4081
ate gy	-4082
B A	-4083
iz es	-4084
▁sp end	-4085
H ere	-4086
▁200 7	-4087
▁ad op	-4088
▁H am	-4089
▁foot ball	-4090
▁P ort	-4091
od ay	-4092
5 1	-4093
amp ions	-4094
▁trans fer	-4095
h t	-4096
▁3 8	-4097
ter m	-4098
ac ity	-4099
▁b ur	-4100
] ,	-4101
tern al	-4102
r ig	-4103
b ut	-4104
▁there fore	-4105
▁B ecause	-4106
res p	-4107
re y	-4108
▁m ission	-4109
S ome	-4110
▁not ed	-4111
▁ass um	-4112
▁dise ase	-4113
▁ed it	-4114
▁prog ress	-4115
r d	-4116
▁B rown	-4117
oc al	-4118
▁add ing	-4119
▁ra ised	-4120
▁An y	-4121
▁t ick	-4122
▁see ing	-4123
▁Pe ople	-4124
▁agre ement	-4125
▁ser ver	-4126
▁w at	-4127
▁deb ate	-4128
▁supp osed	-4129
il ing	-4130
▁larg est	-4131
▁success ful	-4132
▁P ri	-4133
▁Democr atic	-4134
▁j ump	-4135
▁Syri a	-4136
▁own ers	-4137
▁off ers	-4138
▁shoot ing	-4139
▁eff ic	-4140
se y	-4141
▁ha ven	-4142
ver se	-4143
te red	-4144
▁L ight	-4145
im al	-4146
▁B ig	-4147
▁def end	-4148
▁be at	-4149
▁record s	-4150
% )	-4151
▁sc en	-4152
▁employ ees	-4153
▁dev ices	-4154
he m	-4155
▁com mer	-4156
▁M ex	-4157
▁benef it	-4158
▁Pro f	-4159
▁il leg	-4160
▁sur face	-4161
▁Al so	-4162
▁h arm	-4163
ing ly	-4164
w ide	-4165
▁A lex	-4166
▁sh ut	-4167
▁C ur	-4168
▁l ose	-4169
p m	-4170
▁chall enge	-4171
se mb	-4172
▁st ation	-4173
▁int elligence	-4174
▁acc ur	-4175
▁Fl or	-4176
▁requ ires	-4177
▁M al	-4178
b um	-4179
▁h ospital	-4180
▁sp irit	-4181
▁off ered	-4182
▁produ ce	-4183
▁Comm un	-4184
▁creat ing	-4185
▁cr is	-4186
s pect	-4187
▁end ed	-4188
▁d aily	-4189
▁vot ers	-4190
land s	-4191
i as	-4192
i h	-4193
on a	-4194
▁sm art	-4195
▁Off ice	-4196
▁L ord	-4197
ri al	-4198
▁Intern et	-4199
▁circ um	-4200
▁extreme ly	-4201
' .	-4202
▁opin ion	-4203
▁M il	-4204
▁g ain	-4205
B S	-4206
▁F in	-4207
y p	-4208
▁use ful	-4209
▁bud get	-4210
▁com fort	-4211
is f	-4212
▁back ground	-4213
el ine	-4214
▁ep isode	-4215
▁en emy	-4216
▁tri al	-4217
▁estab lish	-4218
d ate	-4219
▁C ap	-4220
▁contin ues	-4221
▁show ing	-4222
▁Un ion	-4223
w ith	-4224
▁post ed	-4225
▁Sy stem	-4226
▁e at	-4227
ri an	-4228
▁r ise	-4229
▁German y	-4230
il s	-4231
▁sign ed	-4232
▁v ill	-4233
▁gr and	-4234
m or	-4235
▁Eng land	-4236
▁project s	-4237
um ber	-4238
▁conf erence	-4239
z a	-4240
▁respons ible	-4241
▁Ar ab	-4242
▁learn ed	-4243
âĢĶ âĢĶ	-4244
i pping	-4245
▁Ge orge	-4246
O C	-4247
▁return ed	-4248
▁Austral ia	-4249
▁b rief	-4250
Q u	-4251
▁br and	-4252
ill ing	-4253
ab led	-4254
▁hig hest	-4255
▁tr ain	-4256
▁Comm ission	-4257
wh ile	-4258
▁n om	-4259
cept ion	-4260
▁m ut	-4261
▁Bl ue	-4262
▁inc ident	-4263
v ant	-4264
8 6	-4265
▁I D	-4266
▁n uclear	-4267
7 4	-4268
▁L ike	-4269
▁R E	-4270
▁M icro	-4271
l i	-4272
m ail	-4273
▁charg es	-4274
8 9	-4275
▁ad just	-4276
ad o	-4277
▁ear th	-4278
N A	-4279
▁pr ices	-4280
P A	-4281
▁d raft	-4282
▁run s	-4283
▁candid ate	-4284
ens es	-4285
▁manag ement	-4286
▁Ph il	-4287
▁M iss	-4288
▁te ach	-4289
g ram	-4290
▁understand ing	-4291
a it	-4292
ic ago	-4293
A dd	-4294
▁E p	-4295
sec ut	-4296
▁separ ate	-4297
▁inst ance	-4298
▁e th	-4299
▁un less	-4300
**** ****	-4301
▁F ore	-4302
in ate	-4303
▁oper ations	-4304
S p	-4305
▁f aith	-4306
g ar	-4307
▁Ch urch	-4308
ron ic	-4309
▁conf ig	-4310
os ure	-4311
▁activ ities	-4312
▁trad itional	-4313
▁3 6	-4314
▁d irection	-4315
▁mach ine	-4316
▁sur round	-4317
▁p ush	-4318
un ction	-4319
▁E U	-4320
▁eas ier	-4321
▁arg ument	-4322
G B	-4323
▁m icro	-4324
▁sp ending	-4325
iz ations	-4326
▁the ory	-4327
ad ow	-4328
▁call ing	-4329
▁L ast	-4330
▁d er	-4331
▁influ ence	-4332
▁comm it	-4333
▁ph oto	-4334
▁un c	-4335
ist ry	-4336
g n	-4337
ast e	-4338
ack s	-4339
▁dis p	-4340
ad y	-4341
d o	-4342
▁G ood	-4343
▁ `	-4344
▁w ish	-4345
▁reve aled	-4346
Âł Âł	-4347
l ig	-4348
▁en force	-4349
▁Comm ittee	-4350
▁che m	-4351
▁mil es	-4352
▁interest ed	-4353
▁sol ution	-4354
ic y	-4355
in ct	-4356
▁- >	-4357
▁D et	-4358
▁rem oved	-4359
▁comp ar	-4360
e ah	-4361
▁pl ant	-4362
▁S ince	-4363
▁achie ve	-4364
▁advant age	-4365
▁slight ly	-4366
b ing	-4367
▁pl aced	-4368
u nder	-4369
201 5	-4370
▁M ad	-4371
▁t im	-4372
os es	-4373
▁c ru	-4374
▁R ock	-4375
▁most ly	-4376
▁neg ative	-4377
▁set ting	-4378
▁produ ced	-4379
▁m ur	-4380
▁connect ion	-4381
▁M er	-4382
▁dri ver	-4383
▁execut ive	-4384
▁ass ault	-4385
▁b orn	-4386
▁V er	-4387
t ained	-4388
▁struct ure	-4389
▁redu ce	-4390
▁dec ades	-4391
▁d ed	-4392
u ke	-4393
▁M any	-4394
idd en	-4395
▁le ague	-4396
S e	-4397
▁jo in	-4398
▁dis co	-4399
▁d ie	-4400
c ks	-4401
act ions	-4402
▁ass ess	-4403
ag n	-4404
▁go als	-4405
our s	-4406
I R	-4407
▁sen ior	-4408
ill er	-4409
m od	-4410
ip ment	-4411
oc ol	-4412
u y	-4413
▁Q ue	-4414
▁part ies	-4415
ir gin	-4416
▁le arning	-4417
it able	-4418
▁stre et	-4419
▁camer a	-4420
A pp	-4421
▁sk ills	-4422
b re	-4423
c ious	-4424
▁cele br	-4425
▁Fr anc	-4426
▁exist ing	-4427
▁will ing	-4428
l or	-4429
▁ id	-4430
▁Sp ace	-4431
▁crit ical	-4432
▁L a	-4433
ortun ately	-4434
▁ser ve	-4435
▁c old	-4436
▁spec ies	-4437
T S	-4438
▁anim als	-4439
▁B ay	-4440
▁old er	-4441
▁U nder	-4442
est ic	-4443
▁T re	-4444
▁te acher	-4445
▁pre fer	-4446
v is	-4447
▁th read	-4448
▁M att	-4449
▁manag er	-4450
ãĥ »	-4451
▁profess ional	-4452
▁V ol	-4453
▁not es	-4454
The se	-4455
ul a	-4456
▁f resh	-4457
ent ed	-4458
u zz	-4459
ed y	-4460
clus ion	-4461
▁R el	-4462
▁doub t	-4463
E O	-4464
▁open ed	-4465
▁B it	-4466
Ad vertisement	-4467
▁gu ess	-4468
▁U N	-4469
▁se qu	-4470
▁expl ain	-4471
ott en	-4472
▁att ract	-4473
ak s	-4474
▁str ing	-4475
▁cont ext	-4476
oss ible	-4477
▁Republic ans	-4478
▁sol id	-4479
▁c ities	-4480
▁ask ing	-4481
▁r andom	-4482
u ps	-4483
ur ies	-4484
ar ant	-4485
dd en	-4486
g l	-4487
▁Flor ida	-4488
▁dep end	-4489
▁Sc ott	-4490
▁3 3	-4491
▁i T	-4492
ic on	-4493
▁mention ed	-4494
▁2 000	-4495
▁claim ed	-4496
▁defin itely	-4497
ul f	-4498
▁c ore	-4499
▁open ing	-4500
▁Con st	-4501
wh ich	-4502
▁T ra	-4503
A G	-4504
7 2	-4505
▁belie ved	-4506
ad a	-4507
▁4 8	-4508
▁Sec urity	-4509
yr ight	-4510
▁P et	-4511
▁L ou	-4512
▁hold ing	-4513
======== ========	-4514
▁ ice	-4515
▁b row	-4516
▁author ities	-4517
h ost	-4518
w ord	-4519
▁sc ore	-4520
▁D iv	-4521
▁cell s	-4522
▁trans l	-4523
▁neigh bor	-4524
▁rem ove	-4525
u ct	-4526
▁dist rict	-4527
▁A ccording	-4528
▁wor se	-4529
▁concern s	-4530
▁president ial	-4531
▁polic ies	-4532
▁H all	-4533
7 3	-4534
▁h us	-4535
A Y	-4536
▁200 6	-4537
▁J ud	-4538
▁independ ent	-4539
▁Just ice	-4540
ili ar	-4541
pr int	-4542
igh ter	-4543
▁protect ion	-4544
z en	-4545
▁su dden	-4546
h ouse	-4547
▁J es	-4548
P R	-4549
▁In f	-4550
▁b ul	-4551
▁ _	-4552
▁Serv ice	-4553
▁P R	-4554
▁str ategy	-4555
ff ect	-4556
▁girl s	-4557
▁miss ing	-4558
oy al	-4559
▁Te am	-4560
ul ated	-4561
▁d at	-4562
▁polit ics	-4563
ab or	-4564
A ccording	-4565
▁spe ll	-4566
▁g raph	-4567
ort hern	-4568
T C	-4569
A b	-4570
▁lab or	-4571
is her	-4572
▁k ick	-4573
▁iT unes	-4574
▁step s	-4575
pos es	-4576
▁small er	-4577
E n	-4578
ber t	-4579
▁ro ll	-4580
▁resear chers	-4581
▁cl osed	-4582
▁trans port	-4583
▁law y	-4584
________ ________	-4585
▁Ch icago	-4586
▁as pect	-4587
▁n one	-4588
▁mar riage	-4589
9 6	-4590
▁e lements	-4591
▁F re	-4592
▁S al	-4593
▁d ram	-4594
F C	-4595
t op	-4596
e qu	-4597
▁he aring	-4598
▁support ed	-4599
▁test ing	-4600
co hol	-4601
▁mass ive	-4602
▁st ick	-4603
▁gu ard	-4604
is co	-4605
ph one	-4606
F rom	-4607
How ever	-4608
▁b order	-4609
▁cop y	-4610
ograph y	-4611
l ist	-4612
7 1	-4613
▁own er	-4614
cl ass	-4615
ru it	-4616
r ate	-4617
▁O nce	-4618
▁dig ital	-4619
▁t ask	-4620
ER S	-4621
▁inc red	-4622
t es	-4623
+ +	-4624
▁Fr ance	-4625
▁b reat	-4626
ow l	-4627
▁iss ued	-4628
▁W estern	-4629
▁det ect	-4630
▁part ners	-4631
▁sh ared	-4632
▁C all	-4633
▁can cer	-4634
ac he	-4635
rib e	-4636
▁expl ained	-4637
▁he at	-4638
{ "	-4639
▁invest ment	-4640
▁B ook	-4641
▁w ood	-4642
▁tool s	-4643
▁Al though	-4644
▁belie f	-4645
▁cris is	-4646
▁g e	-4647
▁M P	-4648
▁oper ation	-4649
ty pe	-4650
~ ~	-4651
g a	-4652
▁cont ains	-4653
ant a	-4654
▁exp ress	-4655
▁G roup	-4656
▁J ournal	-4657
k a	-4658
▁am b	-4659
▁US A	-4660
▁find ing	-4661
▁fund ing	-4662
h ow	-4663
▁estab lished	-4664
ide os	-4665
▁deg ree	-4666
▁danger ous	-4667
ang ing	-4668
▁fre edom	-4669
pp ort	-4670
out hern	-4671
▁ch urch	-4672
▁c atch	-4673
▁Tw o	-4674
▁pres ence	-4675
▁Gu ard	-4676
U p	-4677
▁author ity	-4678
▁Pro ject	-4679
▁but ton	-4680
▁con sequ	-4681
▁val id	-4682
▁we ak	-4683
▁start s	-4684
▁ref erence	-4685
▁M em	-4686
" )	-4687
U N	-4688
or age	-4689
▁O pen	-4690
▁col lection	-4691
y m	-4692
g ency	-4693
▁beaut iful	-4694
ro s	-4695
▁tell s	-4696
▁wa iting	-4697
n el	-4698
▁prov iding	-4699
▁Democr ats	-4700
▁d aughter	-4701
▁m aster	-4702
▁pur poses	-4703
▁Japan ese	-4704
▁equ al	-4705
▁turn s	-4706
▁doc uments	-4707
▁watch ing	-4708
R es	-4709
▁r an	-4710
201 4	-4711
▁re ject	-4712
▁Kore a	-4713
▁victim s	-4714
Le vel	-4715
ere nces	-4716
▁w itness	-4717
▁3 4	-4718
▁re form	-4719
com ing	-4720
▁occ up	-4721
▁c aught	-4722
▁tra ffic	-4723
ad ing	-4724
▁mod els	-4725
ar io	-4726
▁serv ed	-4727
▁b atter	-4728
u ate	-4729
▁Secret ary	-4730
▁agre ed	-4731
▁tr uly	-4732
yn am	-4733
▁R et	-4734
▁un its	-4735
▁Res earch	-4736
h and	-4737
az ine	-4738
▁M ike	-4739
▁var iety	-4740
ot al	-4741
▁am azing	-4742
▁confir med	-4743
▁entire ly	-4744
▁purch ase	-4745
▁e lement	-4746
▁c ash	-4747
▁deter mine	-4748
D e	-4749
▁c ars	-4750
▁W all	-4751
â ĸ	-4752
▁view s	-4753
▁drug s	-4754
▁dep artment	-4755
▁St ep	-4756
u it	-4757
▁3 9	-4758
as ure	-4759
▁Cl ass	-4760
▁c overed	-4761
▁B ank	-4762
▁me re	-4763
u ana	-4764
▁mult i	-4765
▁m ix	-4766
▁un like	-4767
lev ision	-4768
▁sto pped	-4769
▁s em	-4770
▁G al	-4771
ul es	-4772
▁we l	-4773
▁John son	-4774
l a	-4775
▁sk ill	-4776
▁bec oming	-4777
ri e	-4778
▁appropri ate	-4779
f e	-4780
ell ow	-4781
▁Pro t	-4782
ul ate	-4783
oc ation	-4784
▁week end	-4785
od ies	-4786
▁sit es	-4787
▁anim al	-4788
▁T im	-4789
▁sc ale	-4790
▁charg ed	-4791
▁inst ruct	-4792
ill a	-4793
▁method s	-4794
▁c ert	-4795
▁jud ge	-4796
▁H el	-4797
▁doll ars	-4798
▁stand ing	-4799
▁S qu	-4800
▁deb t	-4801
l iam	-4802
▁dri ving	-4803
▁S um	-4804
▁Ed ition	-4805
▁al bum	-4806
and on	-4807
I F	-4808
▁U k	-4809
6 3	-4810
ad er	-4811
▁commer cial	-4812
es h	-4813
▁Govern ment	-4814
▁disc overed	-4815
▁out put	-4816
▁Hill ary	-4817
▁Car ol	-4818
▁200 5	-4819
▁ab use	-4820
anc ing	-4821
▁sw itch	-4822
▁ann ual	-4823
T w	-4824
▁st ated	-4825
ag ement	-4826
in ner	-4827
▁dem ocr	-4828
▁res idents	-4829
▁allow ing	-4830
▁fact ors	-4831
od d	-4832
▁f uck	-4833
em ies	-4834
▁occur red	-4835
ot i	-4836
▁n orth	-4837
▁P ublic	-4838
▁inj ury	-4839
▁ins urance	-4840
C L	-4841
oll y	-4842
ã Ģ	-4843
▁repe ated	-4844
▁ar ms	-4845
ang ed	-4846
▁const ruction	-4847
▁f le	-4848
P U	-4849
ic ians	-4850
▁for ms	-4851
▁Mc C	-4852
ant ic	-4853
▁m ental	-4854
p ire	-4855
▁equ ipment	-4856
▁f ant	-4857
▁discuss ion	-4858
▁regard ing	-4859
k in	-4860
ar p	-4861
▁ch air	-4862
og ue	-4863
▁pro ceed	-4864
▁I d	-4865
O ur	-4866
▁mur der	-4867
M an	-4868
▁4 9	-4869
as p	-4870
▁supp ly	-4871
▁in put	-4872
▁we alth	-4873
liam ent	-4874
▁pro ced	-4875
or ial	-4876
▁St at	-4877
▁N FL	-4878
hen s	-4879
▁Inst itute	-4880
▁put ting	-4881
ourn ament	-4882
et ic	-4883
▁loc ated	-4884
▁k id	-4885
er ia	-4886
r un	-4887
▁pr inc	-4888
▁ !	-4889
go ing	-4890
▁B et	-4891
▁cl ot	-4892
▁tell ing	-4893
▁prop osed	-4894
i ot	-4895
or ry	-4896
▁fund s	-4897
g ment	-4898
▁L ife	-4899
▁b aby	-4900
▁B ack	-4901
▁sp oke	-4902
Im age	-4903
▁ear n	-4904
▁A T	-4905
g u	-4906
▁ex change	-4907
▁L in	-4908
ov ing	-4909
▁p air	-4910
M ore	-4911
az on	-4912
▁arrest ed	-4913
▁kill ing	-4914
c an	-4915
▁C ard	-4916
y d	-4917
▁ident ified	-4918
▁m obile	-4919
▁than ks	-4920
ony m	-4921
▁F orm	-4922
▁hundred s	-4923
▁Ch ris	-4924
▁C at	-4925
▁tre nd	-4926
h at	-4927
▁A v	-4928
om an	-4929
▁elect ric	-4930
▁W il	-4931
S E	-4932
O f	-4933
▁rest aur	-4934
ot ed	-4935
▁tr ig	-4936
▁n ine	-4937
▁b omb	-4938
Wh y	-4939
Â ¯	-4940
▁co verage	-4941
▁app eal	-4942
▁Rober t	-4943
▁S up	-4944
▁fin ished	-4945
▁fl ow	-4946
▁del iver	-4947
▁cal cul	-4948
▁phot os	-4949
▁ph il	-4950
▁pie ces	-4951
▁app re	-4952
k es	-4953
▁r ough	-4954
D o	-4955
▁part ner	-4956
▁concern ed	-4957
▁3 7	-4958
▁G en	-4959
C ol	-4960
ct ors	-4961
▁= >	-4962
st ate	-4963
▁suggest ed	-4964
▁For ce	-4965
C E	-4966
▁her self	-4967
▁Pl an	-4968
w orks	-4969
o oth	-4970
ren cy	-4971
▁cor ner	-4972
▁hus band	-4973
▁intern et	-4974
▁A ut	-4975
em s	-4976
os en	-4977
▁At l	-4978
g en	-4979
▁bal ance	-4980
6 2	-4981
▁sound s	-4982
te xt	-4983
▁ar r	-4984
ov es	-4985
▁mill ions	-4986
▁rad io	-4987
▁sat isf	-4988
▁D am	-4989
M r	-4990
G o	-4991
S pe	-4992
▁comb at	-4993
r ant	-4994
▁G ree	-4995
▁f uel	-4996
▁dist ance	-4997
▁test s	-4998
▁dec re	-4999
▁E r	-5000
▁man aged	-5001
D S	-5002
▁t it	-5003
▁meas ures	-5004
▁L iber	-5005
▁att end	-5006
as hed	-5007
▁J ose	-5008
▁N ight	-5009
d it	-5010
▁N ov	-5011
▁E nd	-5012
out s	-5013
▁gener ation	-5014
▁adv oc	-5015
y th	-5016
▁convers ation	-5017
▁S ky	-5018
act ive	-5019
ce l	-5020
ri er	-5021
▁Fr ank	-5022
▁g ender	-5023
▁con cent	-5024
▁car ried	-5025
and a	-5026
▁V irgin	-5027
▁arri ved	-5028
ic ide	-5029
ad ed	-5030
▁fail ure	-5031
▁min imum	-5032
le ts	-5033
▁wor st	-5034
▁keep ing	-5035
▁int ended	-5036
▁illeg al	-5037
▁sub sc	-5038
▁determin ed	-5039
▁tri p	-5040
Y es	-5041
▁ra ise	-5042
▁ ~	-5043
▁feel s	-5044
▁pack age	-5045
▁J o	-5046
h i	-5047
201 6	-5048
re al	-5049
▁f ra	-5050
▁sy mb	-5051
M e	-5052
uck y	-5053
p ret	-5054
▁K h	-5055
▁Ed it	-5056
▁We b	-5057
em ic	-5058
▁Col or	-5059
▁just ice	-5060
I nt	-5061
▁far m	-5062
ck now	-5063
" >	-5064
el ess	-5065
▁redu ced	-5066
▁5 00	-5067
x x	-5068
▁R ad	-5069
▁W ood	-5070
▁cl in	-5071
▁hy p	-5072
il er	-5073
ur a	-5074
k ins	-5075
8 5	-5076
6 1	-5077
▁The ir	-5078
▁M ary	-5079
▁s an	-5080
▁no vel	-5081
▁Wh o	-5082
▁cap acity	-5083
▁imp ossible	-5084
▁pl ays	-5085
▁min ister	-5086
ij uana	-5087
ic ate	-5088
▁S et	-5089
▁f ram	-5090
▁ ing	-5091
▁commun ities	-5092
▁F BI	-5093
it a	-5094
▁b on	-5095
▁str ateg	-5096
▁interest s	-5097
l ock	-5098
g ers	-5099
m as	-5100
▁AN D	-5101
▁conflic t	-5102
▁require ments	-5103
▁s ac	-5104
▁oper ating	-5105
in i	-5106
rel ated	-5107
▁comm itted	-5108
▁relative ly	-5109
▁s outh	-5110
Â¯ Â¯	-5111
▁aff ord	-5112
▁ident ity	-5113
▁dec isions	-5114
▁acc used	-5115
pl ace	-5116
▁vict ory	-5117
o ch	-5118
i at	-5119
N ame	-5120
C om	-5121
t ion	-5122
ed s	-5123
▁see k	-5124
▁t ight	-5125
▁Im ages	-5126
▁init i	-5127
▁hum ans	-5128
▁fam iliar	-5129
▁aud ience	-5130
▁intern al	-5131
vent ure	-5132
▁s ides	-5133
▁T O	-5134
▁d im	-5135
▁con clud	-5136
▁app oint	-5137
▁enforce ment	-5138
▁J im	-5139
▁Associ ation	-5140
▁circum st	-5141
▁Canad ian	-5142
▁jo ined	-5143
▁differe nces	-5144
▁L os	-5145
▁prot est	-5146
▁tw ice	-5147
w in	-5148
▁gl ass	-5149
ars h	-5150
▁Ar my	-5151
▁exp ression	-5152
▁dec ide	-5153
▁plan ning	-5154
an ia	-5155
▁hand le	-5156
▁Micro soft	-5157
▁N or	-5158
▁max imum	-5159
▁Re v	-5160
▁se a	-5161
▁ev al	-5162
▁hel ps	-5163
re f	-5164
▁b ound	-5165
▁m outh	-5166
▁stand ards	-5167
▁cl im	-5168
▁C amp	-5169
▁F ox	-5170
cl es	-5171
▁ar my	-5172
▁Te chn	-5173
ack ing	-5174
x y	-5175
S S	-5176
▁4 2	-5177
▁bu g	-5178
▁Uk rain	-5179
▁M ax	-5180
▁J ones	-5181
▁Sh ow	-5182
l o	-5183
▁plan et	-5184
▁7 5	-5185
▁win ning	-5186
▁f aster	-5187
▁spe ct	-5188
▁bro ken	-5189
T R	-5190
▁def ined	-5191
▁health y	-5192
▁compet ition	-5193
htt ps	-5194
▁Is land	-5195
▁F e	-5196
▁announ ce	-5197
▁C up	-5198
▁Inst ead	-5199
▁cl ient	-5200
▁poss ibly	-5201
se ction	-5202
ock et	-5203
l ook	-5204
▁fin ish	-5205
▁cre w	-5206
▁res erv	-5207
▁ed itor	-5208
▁h ate	-5209
▁s ale	-5210
▁contro vers	-5211
▁p ages	-5212
w ing	-5213
▁num er	-5214
▁opp osition	-5215
▁200 4	-5216
▁ref uge	-5217
▁fl ight	-5218
▁ap art	-5219
▁L at	-5220
A meric	-5221
▁Afric a	-5222
▁applic ations	-5223
▁Pal est	-5224
▁B ur	-5225
▁g ar	-5226
▁Soc ial	-5227
▁up gr	-5228
▁sh ape	-5229
▁spe aking	-5230
ans ion	-5231
a o	-5232
▁S n	-5233
▁wor ry	-5234
▁Brit ain	-5235
P lease	-5236
rou d	-5237
▁h un	-5238
▁introdu ced	-5239
▁d iet	-5240
I nd	-5241
▁Sec ond	-5242
▁fun ctions	-5243
ut s	-5244
▁E ach	-5245
▁Je ff	-5246
▁st ress	-5247
▁account s	-5248
▁gu arant	-5249
▁An n	-5250
ed ia	-5251
▁hon est	-5252
▁t ree	-5253
▁Afric an	-5254
▁B ush	-5255
} ,	-5256
▁s ch	-5257
▁On ly	-5258
▁f if	-5259
ig an	-5260
▁exerc ise	-5261
▁Ex p	-5262
▁scient ists	-5263
▁legisl ation	-5264
▁W ork	-5265
▁S pr	-5266
Ã Ĥ	-5267
▁H uman	-5268
▁ è	-5269
▁sur vey	-5270
▁r ich	-5271
ri p	-5272
▁main tain	-5273
▁fl o	-5274
▁leaders hip	-5275
st ream	-5276
▁Islam ic	-5277
▁ 01	-5278
▁Col lege	-5279
▁mag ic	-5280
▁Pr ime	-5281
▁fig ures	-5282
201 7	-5283
ind er	-5284
x ual	-5285
▁De ad	-5286
▁absolute ly	-5287
▁four th	-5288
▁present ed	-5289
resp ond	-5290
rib le	-5291
▁al cohol	-5292
at o	-5293
▁D E	-5294
por ary	-5295
▁gr ab	-5296
▁var i	-5297
▁qu ant	-5298
▁Ph oto	-5299
▁pl us	-5300
r ick	-5301
ar ks	-5302
▁altern ative	-5303
▁p il	-5304
▁appro x	-5305
th at	-5306
▁object s	-5307
▁R o	-5308
▁And roid	-5309
▁significant ly	-5310
▁R oad	-5311
k ay	-5312
R ead	-5313
av or	-5314
▁a cknow	-5315
▁H D	-5316
▁S ing	-5317
O r	-5318
▁M ont	-5319
▁un s	-5320
pro f	-5321
▁neg oti	-5322
▁Ar ch	-5323
ik i	-5324
▁te levision	-5325
▁Jew ish	-5326
▁comm ittee	-5327
▁mot or	-5328
▁appear ance	-5329
▁s itting	-5330
▁stri ke	-5331
▁D own	-5332
com p	-5333
▁H ist	-5334
▁f old	-5335
ac ement	-5336
▁Lou is	-5337
▁bel ong	-5338
▁âĢ ¢	-5339
▁m ort	-5340
▁prep ared	-5341
▁6 4	-5342
▁M aster	-5343
▁ind eed	-5344
▁D en	-5345
▁re nt	-5346
T A	-5347
our ney	-5348
ar c	-5349
S u	-5350
9 7	-5351
▁adv ice	-5352
▁chang ing	-5353
▁list ed	-5354
▁laun ched	-5355
is ation	-5356
▁P eter	-5357
is hes	-5358
▁l ived	-5359
▁M el	-5360
▁Sup reme	-5361
▁F ederal	-5362
▁) ;	-5363
ruct ure	-5364
▁set s	-5365
▁phil os	-5366
u ous	-5367
▁Â ł	-5368
▁appl ied	-5369
▁N OT	-5370
▁hous ing	-5371
▁M ount	-5372
▁o dd	-5373
▁su st	-5374
D A	-5375
ffic ient	-5376
▁ ?	-5377
ol ved	-5378
▁p owers	-5379
▁th r	-5380
▁rem aining	-5381
▁W ater	-5382
L C	-5383
▁ca uses	-5384
ãģ ®	-5385
▁man ner	-5386
ad s	-5387
▁suggest s	-5388
▁end s	-5389
stand ing	-5390
f ig	-5391
▁D un	-5392
id th	-5393
▁g ay	-5394
▁ter min	-5395
▁Angel es	-5396
M S	-5397
▁scient ific	-5398
▁co al	-5399
ap ers	-5400
b ar	-5401
▁Thom as	-5402
▁sy m	-5403
▁R un	-5404
th is	-5405
P C	-5406
igr ants	-5407
▁min ute	-5408
▁Dist rict	-5409
cell ent	-5410
▁le aves	-5411
▁comple ted	-5412
am in	-5413
▁foc used	-5414
▁mon itor	-5415
▁veh icles	-5416
M A	-5417
▁M ass	-5418
▁Gr and	-5419
▁affect ed	-5420
itution al	-5421
▁const ruct	-5422
▁follow s	-5423
▁t on	-5424
re ens	-5425
▁h omes	-5426
▁E xt	-5427
▁Le vel	-5428
r ast	-5429
▁I r	-5430
▁el im	-5431
▁large ly	-5432
▁J oe	-5433
▁vot es	-5434
all s	-5435
▁business es	-5436
▁Found ation	-5437
▁Cent ral	-5438
▁y ards	-5439
▁material s	-5440
ul ner	-5441
▁gu ide	-5442
▁clos er	-5443
um s	-5444
▁sp orts	-5445
ed er	-5446
J ust	-5447
▁tax es	-5448
8 4	-5449
▁O ld	-5450
▁dec ade	-5451
ol a	-5452
▁v ir	-5453
▁dro pped	-5454
▁del ay	-5455
it ect	-5456
▁sec ure	-5457
ste in	-5458
le vel	-5459
▁tre ated	-5460
▁fil ed	-5461
ain e	-5462
▁v an	-5463
▁m ir	-5464
▁col umn	-5465
ict ed	-5466
e per	-5467
▁ro t	-5468
▁cons ult	-5469
▁ent ry	-5470
▁mar ijuana	-5471
▁D ou	-5472
▁apparent ly	-5473
ok ing	-5474
clus ive	-5475
▁incre ases	-5476
an o	-5477
▁specific ally	-5478
▁te le	-5479
ens ions	-5480
▁relig ion	-5481
ab ilities	-5482
▁fr ame	-5483
▁N ote	-5484
▁Le e	-5485
▁help ing	-5486
▁ed ge	-5487
ost on	-5488
▁organ izations	-5489
Ã ĥ	-5490
▁B oth	-5491
hip s	-5492
▁big ger	-5493
▁bo ost	-5494
▁St and	-5495
▁ro w	-5496
ul s	-5497
ab ase	-5498
▁r id	-5499
L et	-5500
are n	-5501
ra ve	-5502
▁st ret	-5503
P D	-5504
▁v ision	-5505
▁we aring	-5506
▁appre ci	-5507
▁a ward	-5508
▁U se	-5509
▁fact or	-5510
w ar	-5511
ul ations	-5512
) (	-5513
▁g od	-5514
▁ter rit	-5515
▁par am	-5516
ast s	-5517
8 7	-5518
▁en emies	-5519
▁G ames	-5520
F F	-5521
▁acc ident	-5522
W ell	-5523
▁Mart in	-5524
T ER	-5525
▁at h	-5526
▁He ll	-5527
▁for g	-5528
▁ve ter	-5529
▁Med ic	-5530
f ree	-5531
▁st ars	-5532
▁exp ensive	-5533
▁ac ad	-5534
ra wn	-5535
▁W he	-5536
▁l ock	-5537
▁form at	-5538
▁sold iers	-5539
s m	-5540
▁ag ent	-5541
▁respons ibility	-5542
or a	-5543
▁S cience	-5544
▁rap id	-5545
▁t ough	-5546
▁Jes us	-5547
▁belie ves	-5548
M L	-5549
▁we ar	-5550
le te	-5551
Ãĥ ÃĤ	-5552
▁D ri	-5553
▁comm ission	-5554
▁B ob	-5555
O h	-5556
ap ed	-5557
▁war m	-5558
ÃĥÃĤ ÃĥÃĤ	-5559
▁200 3	-5560
ort ion	-5561
▁has n	-5562
ust er	-5563
▁un ivers	-5564
▁I ll	-5565
▁k ing	-5566
olog ies	-5567
9 4	-5568
▁T em	-5569
▁M os	-5570
▁pat ient	-5571
▁Mex ico	-5572
ce an	-5573
▁De ath	-5574
▁Sand ers	-5575
y ou	-5576
▁C ast	-5577
▁Comp any	-5578
pt y	-5579
▁happen ing	-5580
F P	-5581
▁B attle	-5582
▁b ought	-5583
A m	-5584
M od	-5585
U s	-5586
ut ers	-5587
▁C re	-5588
▁Th ose	-5589
▁4 4	-5590
is er	-5591
▁s oul	-5592
▁T op	-5593
▁Har ry	-5594
▁A w	-5595
▁se at	-5596
ff ee	-5597
▁rev olution	-5598
▁( "	-5599
▁D uring	-5600
et te	-5601
▁r ing	-5602
▁off ensive	-5603
▁return s	-5604
▁v ideos	-5605
▁dis cl	-5606
▁fam ous	-5607
en ced	-5608
▁S ign	-5609
▁R iver	-5610
▁3 00	-5611
P M	-5612
▁B us	-5613
▁C H	-5614
▁candid ates	-5615
ard en	-5616
▁percent age	-5617
▁vis ual	-5618
▁than k	-5619
▁trou ble	-5620
ner gy	-5621
▁200 1	-5622
▁pro ve	-5623
ash ion	-5624
▁en h	-5625
▁L ong	-5626
U M	-5627
▁connect ed	-5628
▁poss ibility	-5629
O ver	-5630
▁exper t	-5631
▁l ibrary	-5632
art s	-5633
▁Direct or	-5634
▁fell ow	-5635
9 2	-5636
ir ty	-5637
▁d ry	-5638
▁sign s	-5639
▁L ove	-5640
▁qu iet	-5641
f oot	-5642
▁p ure	-5643
▁H un	-5644
▁f illed	-5645
ph as	-5646
▁E lect	-5647
end ment	-5648
▁Ex pl	-5649
▁un able	-5650
n s	-5651
m o	-5652
▁v ast	-5653
ob e	-5654
▁ident ify	-5655
app ing	-5656
▁Carol ina	-5657
g ress	-5658
▁pro te	-5659
▁f ish	-5660
▁circumst ances	-5661
raz y	-5662
▁Ph ot	-5663
▁b odies	-5664
▁M ur	-5665
▁develop ing	-5666
▁A R	-5667
▁experien ced	-5668
▁subst ant	-5669
▁Bo ard	-5670
es ome	-5671
▁dom estic	-5672
▁comb ined	-5673
▁P ut	-5674
▁chem ical	-5675
▁Ch ild	-5676
▁po ol	-5677
▁C y	-5678
▁e gg	-5679
c ons	-5680
st ers	-5681
▁h urt	-5682
▁mark ets	-5683
▁conserv ative	-5684
▁supp orters	-5685
▁ag encies	-5686
id el	-5687
O b	-5688
ur b	-5689
▁4 3	-5690
▁Def ense	-5691
y e	-5692
▁A p	-5693
du le	-5694
▁temper ature	-5695
▁conduct ed	-5696
▁Ch ief	-5697
▁pull ed	-5698
▁f ol	-5699
L ast	-5700
ont o	-5701
os is	-5702
V ER	-5703
D es	-5704
▁P an	-5705
F irst	-5706
▁adv ance	-5707
▁lic ense	-5708
r ors	-5709
▁J on	-5710
▁imag ine	-5711
▁he ll	-5712
▁f ixed	-5713
▁inc or	-5714
os ite	-5715
▁L og	-5716
ick en	-5717
] :	-5718
▁surpr ise	-5719
h ab	-5720
▁c raft	-5721
ol t	-5722
▁J ul	-5723
▁d ial	-5724
▁rele vant	-5725
▁ent ered	-5726
▁lead s	-5727
▁A D	-5728
▁Cle an	-5729
▁pict ures	-5730
ess or	-5731
▁al t	-5732
▁pay ing	-5733
P er	-5734
▁Mark et	-5735
▁upd ates	-5736
am ily	-5737
▁T ype	-5738
▁H ome	-5739
▁5 5	-5740
semb ly	-5741
rom e	-5742
8 3	-5743
▁great est	-5744
▁he ight	-5745
▁he av	-5746
ain ts	-5747
▁list en	-5748
as er	-5749
▁S H	-5750
▁cap able	-5751
ac le	-5752
▁pers pect	-5753
in ating	-5754
▁off ering	-5755
ry pt	-5756
▁De velop	-5757
ab in	-5758
r c	-5759
▁br ight	-5760
al ty	-5761
ar row	-5762
▁supp l	-5763
ind ing	-5764
ack ed	-5765
gy pt	-5766
▁An other	-5767
p g	-5768
▁Virgin ia	-5769
▁L u	-5770
▁pl anned	-5771
▁p it	-5772
▁swe et	-5773
T ype	-5774
▁D i	-5775
▁typ ically	-5776
▁Franc isco	-5777
▁pro spect	-5778
▁D an	-5779
▁te en	-5780
re es	-5781
▁sc hed	-5782
▁h ol	-5783
▁sc r	-5784
▁lot s	-5785
l ife	-5786
▁news p	-5787
▁for get	-5788
▁N one	-5789
▁M iddle	-5790
▁R yan	-5791
ed d	-5792
▁se vere	-5793
▁su it	-5794
ll er	-5795
9 3	-5796
▁cor respond	-5797
▁expl os	-5798
u ations	-5799
▁fl ag	-5800
g ame	-5801
r id	-5802
▁pr in	-5803
▁D ata	-5804
▁de ploy	-5805
▁En ter	-5806
su it	-5807
gh an	-5808
▁M en	-5809
▁though ts	-5810
▁mat ters	-5811
▁ad apt	-5812
▁A ri	-5813
▁f ill	-5814
▁for th	-5815
▁s am	-5816
▁4 1	-5817
▁pay ment	-5818
▁H or	-5819
▁sp ring	-5820
du c	-5821
▁l osing	-5822
▁bring ing	-5823
F O	-5824
al a	-5825
▁dist ribution	-5826
he red	-5827
b our	-5828
▁Israel i	-5829
om a	-5830
▁comb ination	-5831
▁pl enty	-5832
V E	-5833
C an	-5834
▁H aw	-5835
▁per man	-5836
▁Spe cial	-5837
▁to w	-5838
▁see king	-5839
▁exam ples	-5840
▁class es	-5841
c r	-5842
▁be er	-5843
▁mov es	-5844
▁I P	-5845
▁K n	-5846
▁pan el	-5847
E ven	-5848
▁proper ly	-5849
▁r is	-5850
▁pl ug	-5851
▁estim ated	-5852
E very	-5853
▁def ensive	-5854
ag raph	-5855
▁pre gn	-5856
▁inst it	-5857
▁V ict	-5858
▁vol ume	-5859
▁pos itions	-5860
▁l inks	-5861
▁Pro gram	-5862
▁We ek	-5863
ag ues	-5864
▁trans form	-5865
k er	-5866
▁C EO	-5867
▁c as	-5868
▁opp onent	-5869
▁twe et	-5870
▁C ode	-5871
▁sh op	-5872
▁f ly	-5873
▁tal ks	-5874
▁b ag	-5875
Ph one	-5876
▁a id	-5877
▁pl ants	-5878
▁6 5	-5879
▁att orney	-5880
ar ters	-5881
qu est	-5882
▁Mag ic	-5883
▁beg ins	-5884
▁my ster	-5885
▁environment al	-5886
▁st orage	-5887
N N	-5888
▁m arg	-5889
▁s ke	-5890
▁met al	-5891
ell y	-5892
▁ord ered	-5893
▁rem ained	-5894
▁l oved	-5895
▁prom pt	-5896
▁upd ated	-5897
▁exper ts	-5898
▁walk ing	-5899
▁an cient	-5900
▁perform ed	-5901
AT E	-5902
▁ne ither	-5903
i ency	-5904
▁manufact ure	-5905
▁P ak	-5906
▁select ed	-5907
▁m ine	-5908
▁ult imately	-5909
▁expl an	-5910
▁lab el	-5911
▁Serv ices	-5912
ribut ed	-5913
Tr ump	-5914
▁sy n	-5915
▁U lt	-5916
S C	-5917
▁me at	-5918
▁g iant	-5919
▁W ars	-5920
▁O N	-5921
▁ad m	-5922
▁inter pret	-5923
▁even ing	-5924
▁ev il	-5925
▁B oston	-5926
▁W ild	-5927
▁ Ã	-5928
▁Bit coin	-5929
▁Am azon	-5930
D r	-5931
▁In formation	-5932
▁obvious ly	-5933
▁adv anced	-5934
Ph oto	-5935
ol ar	-5936
▁we ather	-5937
▁symb ol	-5938
▁so le	-5939
▁pot entially	-5940
ost er	-5941
▁orig inally	-5942
m un	-5943
3 00	-5944
az e	-5945
ess ions	-5946
▁de ck	-5947
▁st ood	-5948
▁you th	-5949
▁B ern	-5950
R ep	-5951
▁T est	-5952
▁bas ically	-5953
ot ic	-5954
▁invol ve	-5955
ol it	-5956
ly n	-5957
S ee	-5958
▁air craft	-5959
▁conf irm	-5960
E W	-5961
▁mess ages	-5962
▁Rich ard	-5963
▁k it	-5964
▁pro hib	-5965
▁v ulner	-5966
is ters	-5967
▁exist ence	-5968
▁turn ing	-5969
▁S P	-5970
▁des ire	-5971
▁fl at	-5972
▁m ent	-5973
se ason	-5974
ang es	-5975
▁neighbor hood	-5976
▁L ake	-5977
AT ION	-5978
▁point ed	-5979
b ur	-5980
▁inn ov	-5981
uc ks	-5982
U L	-5983
▁profess or	-5984
▁exp ressed	-5985
A B	-5986
ic ious	-5987
▁200 2	-5988
▁De v	-5989
▁s ession	-5990
▁b are	-5991
s en	-5992
▁dis s	-5993
▁C ath	-5994
▁P ass	-5995
▁P oint	-5996
▁do ctor	-5997
or row	-5998
ail ed	-5999
▁R ub	-6000
▁D C	-6001
▁Char l	-6002
p erson	-6003
▁writ er	-6004
igh ters	-6005
ure au	-6006
▁ob lig	-6007
▁record ed	-6008
▁bro ke	-6009
▁ord ers	-6010
il ty	-6011
▁mot ion	-6012
in ity	-6013
l aw	-6014
ad ium	-6015
▁imm igration	-6016
▁contr ast	-6017
▁b att	-6018
▁ex cellent	-6019
▁techn ical	-6020
am i	-6021
▁t un	-6022
▁cl oud	-6023
▁Y ear	-6024
ge on	-6025
▁cre ation	-6026
▁str ange	-6027
▁a uth	-6028
▁for t	-6029
b orn	-6030
▁ext ent	-6031
▁T oday	-6032
▁Cl ub	-6033
▁r ain	-6034
▁s ample	-6035
▁accept ed	-6036
▁t act	-6037
▁f ired	-6038
▁S on	-6039
▁stand s	-6040
▁b oot	-6041
▁4 7	-6042
▁stat ements	-6043
▁vers ions	-6044
▁se lling	-6045
ound ed	-6046
▁199 0	-6047
▁were n	-6048
▁W atch	-6049
▁exper iment	-6050
P ost	-6051
▁ret ail	-6052
ul ed	-6053
In st	-6054
un te	-6055
ãĥ ¼	-6056
▁dep art	-6057
▁b ond	-6058
i very	-6059
om pl	-6060
▁re action	-6061
▁Syri an	-6062
▁P ac	-6063
app ed	-6064
ani el	-6065
D P	-6066
▁res olution	-6067
▁re act	-6068
▁appro ved	-6069
on om	-6070
m ond	-6071
▁O ffic	-6072
-- -	-6073
▁repl ace	-6074
▁t ack	-6075
▁sp ort	-6076
▁ch ain	-6077
▁emer gency	-6078
r ad	-6079
▁Palest in	-6080
▁4 6	-6081
▁autom atically	-6082
▁rout e	-6083
▁p al	-6084
▁b anks	-6085
▁Par is	-6086
▁Med ia	-6087
ro ad	-6088
ic ing	-6089
i xt	-6090
ist ed	-6091
▁g rew	-6092
▁co ord	-6093
▁W here	-6094
om in	-6095
▁sub s	-6096
ï¿½ ï¿½	-6097
▁Â ±	-6098
▁corpor ate	-6099
▁se lection	-6100
n oon	-6101
▁Rep ort	-6102
c s	-6103
clud ing	-6104
ord ers	-6105
anc he	-6106
▁It s	-6107
▁slow ly	-6108
▁E gypt	-6109
▁A cc	-6110
▁col le	-6111
iqu es	-6112
E X	-6113
▁attempt s	-6114
ur l	-6115
▁C ross	-6116
▁find ings	-6117
▁S C	-6118
▁O R	-6119
▁ind ex	-6120
ens ity	-6121
▁W ay	-6122
▁L and	-6123
▁sh ock	-6124
d is	-6125
▁d ynam	-6126
▁c art	-6127
m osp	-6128
S ince	-6129
i est	-6130
▁B oy	-6131
▁st orm	-6132
▁Cont in	-6133
201 3	-6134
he w	-6135
il it	-6136
▁ess ential	-6137
iqu id	-6138
O ther	-6139
ive red	-6140
▁reason able	-6141
A ct	-6142
▁sub sequ	-6143
▁P ack	-6144
▁F ort	-6145
▁consider ing	-6146
▁un iversity	-6147
l og	-6148
▁mar ried	-6149
▁ill ust	-6150
▁Tr ue	-6151
£ ı	-6152
▁numer ous	-6153
rast ructure	-6154
▁serious ly	-6155
▁refer red	-6156
u a	-6157
▁consist ent	-6158
on na	-6159
▁Re al	-6160
ru ption	-6161
ci ples	-6162
▁fact s	-6163
9 1	-6164
ot es	-6165
er g	-6166
The n	-6167
▁acc ompl	-6168
N ote	-6169
▁re venue	-6170
▁pass ing	-6171
▁m al	-6172
e en	-6173
▁Y et	-6174
▁g ather	-6175
ter day	-6176
ew ork	-6177
▁A uthor	-6178
P e	-6179
▁opt im	-6180
▁r ub	-6181
▁è £ı	-6182
▁un known	-6183
st one	-6184
▁un ion	-6185
ol ve	-6186
▁opportun ities	-6187
▁brow ser	-6188
▁W al	-6189
▁C ost	-6190
▁report ing	-6191
st s	-6192
p et	-6193
▁s and	-6194
▁sudden ly	-6195
▁surpr ising	-6196
▁V R	-6197
▁somew hat	-6198
▁B as	-6199
ult ure	-6200
iz z	-6201
▁C D	-6202
▁challeng es	-6203
▁sett ings	-6204
▁experien ces	-6205
▁F ull	-6206
▁can n	-6207
▁rece iving	-6208
ES T	-6209
▁j oint	-6210
▁cult ural	-6211
▁a st	-6212
8 2	-6213
as tern	-6214
ce ived	-6215
▁C ru	-6216
▁b ull	-6217
p ired	-6218
am m	-6219
▁fac ing	-6220
p ower	-6221
▁b oss	-6222
▁H ol	-6223
▁inst r	-6224
▁increasing ly	-6225
▁sh ift	-6226
▁stre ets	-6227
▁William s	-6228
ab b	-6229
▁l ie	-6230
▁l augh	-6231
▁C a	-6232
P L	-6233
▁adult s	-6234
▁custom er	-6235
▁ob tained	-6236
▁support ing	-6237
ht ml	-6238
f ire	-6239
▁detail ed	-6240
▁pick ed	-6241
▁R ight	-6242
ld er	-6243
E E	-6244
st ood	-6245
▁K im	-6246
▁w ire	-6247
▁s ight	-6248
▁develop ers	-6249
▁pers ons	-6250
▁s ad	-6251
▁c up	-6252
▁war ning	-6253
▁boy s	-6254
l ong	-6255
▁b ird	-6256
f o	-6257
▁w al	-6258
▁observ ed	-6259
▁z one	-6260
iven ess	-6261
▁ch annel	-6262
c ript	-6263
▁ref used	-6264
▁Ag ain	-6265
▁su c	-6266
▁spokes man	-6267
▁Re f	-6268
r ite	-6269
ou ston	-6270
ãĥ ³	-6271
▁S her	-6272
▁act s	-6273
▁N ame	-6274
▁strugg le	-6275
ar ry	-6276
omet imes	-6277
▁disc rim	-6278
H T	-6279
▁categ ory	-6280
▁real ize	-6281
▁employ ee	-6282
▁Af ghan	-6283
en ger	-6284
▁gun s	-6285
▁Ste ve	-6286
▁M ot	-6287
▁O l	-6288
ok ed	-6289
▁th ick	-6290
▁fair ly	-6291
ill y	-6292
▁sur ve	-6293
▁M at	-6294
we ight	-6295
â Ķ	-6296
▁tro ops	-6297
▁ag ents	-6298
▁batter y	-6299
▁mot iv	-6300
Ã ¡	-6301
S ec	-6302
d en	-6303
o very	-6304
L S	-6305
▁fl u	-6306
▁conf ident	-6307
▁O per	-6308
▁em pty	-6309
▁p hen	-6310
▁se ctor	-6311
▁exc ited	-6312
▁rem ote	-6313
ap h	-6314
o en	-6315
▁destroy ed	-6316
▁mor al	-6317
▁H P	-6318
▁R on	-6319
▁d ress	-6320
▁B at	-6321
▁l it	-6322
▁M S	-6323
▁a f	-6324
H L	-6325
r um	-6326
is ms	-6327
▁should n	-6328
▁sym pt	-6329
▁Tor onto	-6330
het ic	-6331
▁car bon	-6332
▁install ed	-6333
▁viol ent	-6334
▁sol ar	-6335
j a	-6336
▁pract ices	-6337
▁r ide	-6338
▁P enn	-6339
▁impro ved	-6340
▁aud io	-6341
▁behav i	-6342
▁P S	-6343
▁e ating	-6344
D ata	-6345
▁Re view	-6346
p ass	-6347
cl aim	-6348
u ated	-6349
ang ers	-6350
c hen	-6351
▁proper ties	-6352
▁any where	-6353
An other	-6354
▁bl ow	-6355
▁Jack son	-6356
▁p roud	-6357
▁plan e	-6358
l ines	-6359
▁squ are	-6360
▁pro of	-6361
ans as	-6362
▁talk ed	-6363
m akers	-6364
▁s ister	-6365
▁hold s	-6366
▁res ident	-6367
▁= =	-6368
▁resist ance	-6369
▁spl it	-6370
▁pro secut	-6371
▁conf idence	-6372
res ents	-6373
▁cut s	-6374
▁except ion	-6375
▁z ero	-6376
Get ty	-6377
▁cop yright	-6378
▁tot ally	-6379
orm al	-6380
ific ations	-6381
▁Austral ian	-6382
▁s ick	-6383
▁1 50	-6384
▁house hold	-6385
▁fe es	-6386
▁dri vers	-6387
og en	-6388
▁N Y	-6389
▁necess arily	-6390
▁regul ations	-6391
ear ing	-6392
s l	-6393
▁perspect ive	-6394
c are	-6395
ic ial	-6396
H is	-6397
▁esc ape	-6398
▁surpr ised	-6399
▁V an	-6400
ur rent	-6401
▁v ac	-6402
8 1	-6403
▁Th us	-6404
▁em phas	-6405
▁Ch ampions	-6406
▁I ce	-6407
▁n arr	-6408
▁head s	-6409
▁ca using	-6410
b el	-6411
f ortunately	-6412
▁M a	-6413
▁targ ets	-6414
ci pl	-6415
▁after noon	-6416
▁add s	-6417
▁May be	-6418
▁F our	-6419
ess ed	-6420
ple te	-6421
▁us ual	-6422
ch o	-6423
ing u	-6424
▁with d	-6425
▁E nergy	-6426
▁E conom	-6427
O O	-6428
▁art icles	-6429
▁inj ured	-6430
▁man age	-6431
▁expl ains	-6432
▁di agn	-6433
R ec	-6434
at ures	-6435
▁link ed	-6436
▁discuss ed	-6437
▁expl o	-6438
▁occ asion	-6439
ath an	-6440
▁opp osite	-6441
▁fac es	-6442
▁den ied	-6443
▁K night	-6444
▁n ut	-6445
▁approx imately	-6446
▁disapp oint	-6447
onym ous	-6448
▁B est	-6449
▁L o	-6450
▁H y	-6451
▁A ff	-6452
▁vot ing	-6453
an while	-6454
▁II I	-6455
▁instit utions	-6456
ag ram	-6457
▁D aily	-6458
▁dr ag	-6459
▁near by	-6460
▁gu ilty	-6461
▁con ver	-6462
P re	-6463
s hip	-6464
▁re ward	-6465
▁philos oph	-6466
▁S S	-6467
u gh	-6468
▁app s	-6469
f riend	-6470
▁u pper	-6471
▁ad vert	-6472
▁s now	-6473
▁fr ust	-6474
▁our selves	-6475
F r	-6476
▁D ie	-6477
amp ion	-6478
▁dis miss	-6479
▁c ere	-6480
▁sign al	-6481
f rom	-6482
▁ ).	-6483
▁5 2	-6484
▁cr imes	-6485
it ors	-6486
est ival	-6487
use um	-6488
▁coun cil	-6489
▁S aud	-6490
M ay	-6491
▁G un	-6492
ic ian	-6493
et her	-6494
▁su fficient	-6495
▁H en	-6496
so le	-6497
▁histor ical	-6498
▁F ar	-6499
▁T urn	-6500
▁p in	-6501
▁suc ceed	-6502
m at	-6503
ly mp	-6504
▁trad ition	-6505
▁O k	-6506
▁c ro	-6507
▁desc ription	-6508
al le	-6509
▁sk y	-6510
T e	-6511
▁wide ly	-6512
▁w ave	-6513
▁defin ition	-6514
▁Jew s	-6515
▁cy cle	-6516
▁ref ere	-6517
▁br ings	-6518
us al	-6519
▁al ive	-6520
▁frequ ently	-6521
▁int ention	-6522
▁Cont rol	-6523
l v	-6524
y stem	-6525
▁priv acy	-6526
g ent	-6527
ren ce	-6528
▁Qu est	-6529
▁Christ mas	-6530
▁r ail	-6531
▁co oper	-6532
▁test ed	-6533
▁C apt	-6534
as ks	-6535
▁comfort able	-6536
▁del ivered	-6537
sc ape	-6538
▁dep th	-6539
▁G OP	-6540
▁writ es	-6541
▁ass ets	-6542
▁sa v	-6543
im ents	-6544
▁trans ition	-6545
▁art ist	-6546
▁L ook	-6547
▁l ob	-6548
▁comp onents	-6549
ar ity	-6550
▁walk ed	-6551
▁ro ot	-6552
▁particip ants	-6553
▁not iced	-6554
▁res c	-6555
▁n av	-6556
▁Ad minist	-6557
d a	-6558
ut ral	-6559
pl ate	-6560
▁import ance	-6561
▁ass ert	-6562
ious ly	-6563
c ription	-6564
▁inj uries	-6565
▁Che ck	-6566
▁regist ered	-6567
▁int ent	-6568
▁miss ed	-6569
ograph ic	-6570
▁sent ence	-6571
oun ter	-6572
▁assist ance	-6573
ev in	-6574
▁dat abase	-6575
▁build ings	-6576
▁class ic	-6577
▁th inks	-6578
▁Oh io	-6579
P r	-6580
ug g	-6581
▁fe e	-6582
p an	-6583
▁effect ively	-6584
▁fac ility	-6585
▁be ar	-6586
▁ch apter	-6587
▁dog s	-6588
▁Col umb	-6589
▁l atter	-6590
it ial	-6591
▁ad mitted	-6592
T V	-6593
▁Ge org	-6594
▁post s	-6595
\ \	-6596
▁lawy er	-6597
▁equ ival	-6598
▁m and	-6599
▁contro lled	-6600
▁W alk	-6601
▁And rew	-6602
▁men u	-6603
am ental	-6604
▁protect ed	-6605
v a	-6606
▁administ r	-6607
or al	-6608
▁re in	-6609
▁S ar	-6610
▁amount s	-6611
▁n ative	-6612
▁M oon	-6613
▁rep resents	-6614
▁ab andon	-6615
▁carry ing	-6616
▁t ank	-6617
m ary	-6618
▁decl ared	-6619
T ube	-6620
▁h at	-6621
▁pun ish	-6622
el lect	-6623
m es	-6624
▁un iverse	-6625
▁R od	-6626
ph y	-6627
▁inf rastructure	-6628
▁5 1	-6629
▁opp osed	-6630
ow nt	-6631
c a	-6632
▁M ake	-6633
▁hard ware	-6634
▁co ffee	-6635
R el	-6636
b al	-6637
w orld	-6638
▁S af	-6639
▁Se a	-6640
in als	-6641
▁own ed	-6642
▁h all	-6643
ers ion	-6644
▁describ e	-6645
▁P ot	-6646
▁port ion	-6647
▁at mosp	-6648
▁govern ments	-6649
▁dep ending	-6650
▁off ense	-6651
▁tr ick	-6652
aw a	-6653
▁L ine	-6654
▁V is	-6655
▁H ard	-6656
▁Or ig	-6657
▁Cl ick	-6658
▁des k	-6659
▁Val ley	-6660
▁S ov	-6661
▁mov ies	-6662
▁rem ark	-6663
▁m ail	-6664
▁cons cious	-6665
▁rul ing	-6666
▁R ights	-6667
▁med ic	-6668
he nt	-6669
▁W omen	-6670
> <	-6671
▁repl aced	-6672
▁P rem	-6673
▁Th anks	-6674
▁re new	-6675
▁B all	-6676
if orm	-6677
▁sh ots	-6678
C omm	-6679
▁ar med	-6680
▁const ant	-6681
▁t aste	-6682
▁real ized	-6683
▁bu ff	-6684
▁m o	-6685
▁effic ient	-6686
M ost	-6687
or ation	-6688
if ies	-6689
▁commun ication	-6690
▁fl ood	-6691
▁consequ ences	-6692
▁any way	-6693
ig g	-6694
▁G M	-6695
▁Th ank	-6696
▁ iron	-6697
▁ev olution	-6698
▁C op	-6699
tw itter	-6700
▁9 5	-6701
▁relationship s	-6702
ad el	-6703
▁You ng	-6704
▁propos al	-6705
ay ers	-6706
uild ing	-6707
▁H ot	-6708
OR E	-6709
c os	-6710
▁coll abor	-6711
P G	-6712
ax y	-6713
▁know ing	-6714
▁support s	-6715
ow ed	-6716
▁control s	-6717
▁mere ly	-6718
um er	-6719
▁ath let	-6720
▁f ashion	-6721
p ath	-6722
▁g ift	-6723
▁er a	-6724
AN D	-6725
▁kind s	-6726
▁Kore an	-6727
▁leg it	-6728
ul ous	-6729
▁ess entially	-6730
▁the rap	-6731
n ic	-6732
▁suff ered	-6733
▁h ur	-6734
▁prom ise	-6735
▁ex cess	-6736
▁over w	-6737
▁pr ime	-6738
▁H ouston	-6739
er ry	-6740
▁M s	-6741
R S	-6742
201 2	-6743
▁st ores	-6744
▁O lymp	-6745
▁j ourney	-6746
Al though	-6747
S ub	-6748
▁E duc	-6749
▁Ch apter	-6750
▁request s	-6751
▁consum ers	-6752
▁t iny	-6753
▁is ol	-6754
▁F air	-6755
b a	-6756
▁Y OU	-6757
▁cr ash	-6758
ce ler	-6759
▁emot ional	-6760
▁good s	-6761
▁elect ed	-6762
▁mod er	-6763
▁Lin ux	-6764
▁bl ocks	-6765
▁is land	-6766
▁Soc iety	-6767
▁elect ions	-6768
▁broad cast	-6769
▁che ap	-6770
▁n ations	-6771
▁se asons	-6772
4 00	-6773
▁was te	-6774
▁S at	-6775
▁field s	-6776
em ploy	-6777
▁prof ile	-6778
▁auth ors	-6779
AL L	-6780
▁G ra	-6781
w est	-6782
▁T y	-6783
▁death s	-6784
▁v acc	-6785
▁for med	-6786
▁d u	-6787
▁on going	-6788
▁Muslim s	-6789
el f	-6790
ig ure	-6791
▁ass ume	-6792
▁Ukrain e	-6793
w ater	-6794
▁co ast	-6795
▁vot ed	-6796
g or	-6797
▁A S	-6798
▁Mich igan	-6799
az a	-6800
▁Ar m	-6801
i ro	-6802
▁f lex	-6803
as ters	-6804
' '	-6805
▁wel come	-6806
ar l	-6807
▁loc ations	-6808
ig ation	-6809
▁F il	-6810
▁bu ying	-6811
▁arch itect	-6812
▁hard er	-6813
▁C ub	-6814
▁inter face	-6815
▁restaur ant	-6816
▁disco ver	-6817
▁ex ceed	-6818
▁fav our	-6819
ger y	-6820
▁d uty	-6821
▁p itch	-6822
ad or	-6823
▁M ach	-6824
b oy	-6825
▁respond ed	-6826
▁ext ended	-6827
her s	-6828
M any	-6829
ra id	-6830
if er	-6831
▁In s	-6832
S er	-6833
▁med ium	-6834
s he	-6835
▁S ports	-6836
▁mag azine	-6837
ut ation	-6838
▁lim its	-6839
▁G all	-6840
▁ex ternal	-6841
raz il	-6842
▁young er	-6843
t le	-6844
▁rem ind	-6845
▁C ON	-6846
▁immedi ate	-6847
▁h idden	-6848
▁vol unte	-6849
▁sim pl	-6850
od cast	-6851
▁ph ase	-6852
d r	-6853
▁pl ot	-6854
▁exp osure	-6855
R I	-6856
og rap	-6857
v in	-6858
an ish	-6859
▁Ac ad	-6860
▁Eng ine	-6861
▁exp ansion	-6862
▁P ay	-6863
Y our	-6864
▁pus hed	-6865
▁E ll	-6866
▁He ad	-6867
▁market ing	-6868
▁A C	-6869
k et	-6870
▁h its	-6871
▁g ro	-6872
▁A ge	-6873
▁Sc ot	-6874
] [	-6875
▁st im	-6876
▁i Phone	-6877
Ī Ĵ	-6878
▁n arrow	-6879
▁Get ty	-6880
▁Tur key	-6881
▁perfect ly	-6882
▁en able	-6883
ut ch	-6884
▁prec ise	-6885
▁reg ime	-6886
▁sh if	-6887
▁comp ens	-6888
g un	-6889
d iv	-6890
▁ch osen	-6891
▁K en	-6892
An y	-6893
▁tre es	-6894
▁recomm ended	-6895
▁R en	-6896
u able	-6897
▁H T	-6898
F ollow	-6899
E G	-6900
▁H and	-6901
▁K enn	-6902
▁arg uments	-6903
▁ex ists	-6904
▁b ike	-6905
▁Cons erv	-6906
▁bre aking	-6907
▁G ar	-6908
▁c razy	-6909
▁virt ual	-6910
ay lor	-6911
ix el	-6912
▁19 80	-6913
▁per mission	-6914
▁Ser ies	-6915
▁consum er	-6916
▁close ly	-6917
c alled	-6918
▁5 4	-6919
▁hop es	-6920
▁ar ray	-6921
▁W in	-6922
▁Lab our	-6923
▁sp ons	-6924
▁I re	-6925
▁p ow	-6926
▁read ers	-6927
▁employ ment	-6928
▁creat ure	-6929
▁result ing	-6930
▁accur ate	-6931
▁mom ents	-6932
▁arg ued	-6933
▁p ed	-6934
D uring	-6935
▁5 3	-6936
▁T al	-6937
▁s ought	-6938
▁suff ering	-6939
▁ icon	-6940
le e	-6941
▁( $	-6942
al ian	-6943
Â °	-6944
▁p ra	-6945
▁bon us	-6946
( "	-6947
k o	-6948
▁act ing	-6949
D E	-6950
f all	-6951
▁compar ison	-6952
▁sm ooth	-6953
▁N AS	-6954
u pp	-6955
▁Jose ph	-6956
ep ing	-6957
▁T ake	-6958
▁M id	-6959
▁s ending	-6960
f ast	-6961
▁F all	-6962
▁deal ing	-6963
us er	-6964
▁Or gan	-6965
C o	-6966
▁att ached	-6967
▁se es	-6968
% .	-6969
▁typ ical	-6970
AR T	-6971
▁find s	-6972
▁As ia	-6973
um in	-6974
▁C ore	-6975
▁E nt	-6976
in ent	-6977
u ce	-6978
▁Bl ood	-6979
▁N ever	-6980
▁em ails	-6981
▁high light	-6982
▁conf ront	-6983
at us	-6984
ut ed	-6985
▁un us	-6986
▁top ic	-6987
▁Ad am	-6988
▁b le	-6989
at i	-6990
▁under stood	-6991
S et	-6992
st ruct	-6993
T P	-6994
▁m ob	-6995
a a	-6996
▁St art	-6997
pect ed	-6998
se ll	-6999
▁ded icated	-7000
▁C A	-7001
u an	-7002
▁song s	-7003
esc ription	-7004
▁te ch	-7005
▁r ape	-7006
▁as ide	-7007
▁gr ant	-7008
▁5 6	-7009
s ub	-7010
▁arg ue	-7011
▁cont aining	-7012
▁sche dule	-7013
▁liber al	-7014
▁public ly	-7015
▁heav ily	-7016
▁U t	-7017
in er	-7018
▁S ection	-7019
▁C are	-7020
we et	-7021
l s	-7022
D is	-7023
âĶ Ģ	-7024
▁F ollow	-7025
B ack	-7026
▁I T	-7027
▁b es	-7028
j i	-7029
▁H it	-7030
est ed	-7031
▁every body	-7032
▁Sw ed	-7033
▁fem in	-7034
▁fac ilities	-7035
▁con ven	-7036
C omp	-7037
▁O S	-7038
c ore	-7039
▁an x	-7040
▁div ision	-7041
▁C am	-7042
▁St an	-7043
m ates	-7044
▁expl ore	-7045
pl om	-7046
▁sh ares	-7047
pl oad	-7048
an es	-7049
▁ide al	-7050
et ers	-7051
▁B ase	-7052
▁pl astic	-7053
▁dist inct	-7054
▁Net work	-7055
▁Se attle	-7056
▁trad ing	-7057
ens us	-7058
int end	-7059
▁ex hib	-7060
▁init ially	-7061
▁F ood	-7062
▁thous and	-7063
▁Bus iness	-7064
act er	-7065
▁par agraph	-7066
▁rough ly	-7067
▁w ww	-7068
▁creat ive	-7069
▁Con f	-7070
▁consum ption	-7071
▁fil ms	-7072
ag an	-7073
▁ob tain	-7074
▁t all	-7075
▁t or	-7076
▁acknow led	-7077
▁g rown	-7078
al o	-7079
K E	-7080
▁4 00	-7081
end ers	-7082
t aining	-7083
U G	-7084
▁su icide	-7085
▁wat ched	-7086
▁L ist	-7087
al i	-7088
re hens	-7089
▁surround ing	-7090
▁p ip	-7091
▁f lying	-7092
▁J ava	-7093
ord an	-7094
▁serv ing	-7095
in ations	-7096
p ost	-7097
▁sh o	-7098
A v	-7099
▁j ail	-7100
z y	-7101
▁199 9	-7102
▁< /	-7103
▁liter ally	-7104
▁S ir	-7105
▁exp osed	-7106
▁l ies	-7107
st ar	-7108
▁b at	-7109
▁ear ned	-7110
▁D ig	-7111
▁spec ified	-7112
▁Se ason	-7113
▁deg rees	-7114
Don ald	-7115
▁cent re	-7116
▁sh aring	-7117
▁win ter	-7118
▁C O	-7119
C he	-7120
▁ Î	-7121
M P	-7122
▁un w	-7123
▁few er	-7124
▁M ir	-7125
▁somew here	-7126
▁K ey	-7127
▁attack ed	-7128
▁K ir	-7129
▁dom ain	-7130
▁strong er	-7131
▁9 9	-7132
▁pen alty	-7133
I d	-7134
Sc ript	-7135
▁decl ined	-7136
▁ne ck	-7137
▁fra ud	-7138
▁cur rency	-7139
▁r ising	-7140
R C	-7141
âĢ¦ âĢ¦	-7142
H z	-7143
▁t ab	-7144
▁tal ent	-7145
n am	-7146
▁N BA	-7147
▁vill age	-7148
▁leg s	-7149
▁N ext	-7150
E d	-7151
▁ac id	-7152
▁hy d	-7153
8 00	-7154
▁invol ving	-7155
▁Im age	-7156
▁Be fore	-7157
F l	-7158
▁yes terday	-7159
S ource	-7160
▁terror ist	-7161
▁su p	-7162
▁sy nt	-7163
▁Saud i	-7164
▁w est	-7165
▁r u	-7166
b urg	-7167
▁vis ible	-7168
▁stru ck	-7169
r ison	-7170
▁aw esome	-7171
▁d rawn	-7172
▁answ ers	-7173
▁G irl	-7174
▁R am	-7175
▁threat s	-7176
▁def eat	-7177
os it	-7178
▁v ent	-7179
atur ally	-7180
Americ an	-7181
end a	-7182
▁H oly	-7183
▁r um	-7184
% ,	-7185
c ase	-7186
▁Hist ory	-7187
▁You Tube	-7188
▁sit uations	-7189
▁D NA	-7190
S te	-7191
▁sa ved	-7192
It em	-7193
▁rec ip	-7194
olog ist	-7195
▁fac ed	-7196
▁el ig	-7197
O nce	-7198
▁L i	-7199
u h	-7200
▁mist ake	-7201
▁Div ision	-7202
▁B ell	-7203
▁sympt oms	-7204
Â ®	-7205
▁dom in	-7206
▁fall ing	-7207
▁end ing	-7208
as hes	-7209
▁mat ches	-7210
▁On line	-7211
▁explan ation	-7212
D ef	-7213
red it	-7214
▁any more	-7215
▁T otal	-7216
▁F OR	-7217
us hed	-7218
▁let ters	-7219
▁ris ks	-7220
▁O K	-7221
▁reported ly	-7222
: \	-7223
▁pl ate	-7224
▁subject s	-7225
▁attempt ed	-7226
if ier	-7227
ian a	-7228
▁unlike ly	-7229
▁Th ough	-7230
um a	-7231
▁In vest	-7232
▁Pr in	-7233
ic an	-7234
▁D ar	-7235
▁Color ado	-7236
au g	-7237
▁ve get	-7238
a os	-7239
ri a	-7240
▁she l	-7241
▁mark ed	-7242
▁( )	-7243
▁sp r	-7244
p o	-7245
▁L ink	-7246
▁def e	-7247
▁J r	-7248
▁them e	-7249
▁pass ion	-7250
▁P en	-7251
▁inf o	-7252
iz er	-7253
▁sh it	-7254
▁C ivil	-7255
ap se	-7256
c re	-7257
▁po ly	-7258
▁comp onent	-7259
▁Char les	-7260
▁Ire land	-7261
▁Pro v	-7262
▁do ctors	-7263
▁gr anted	-7264
▁pain t	-7265
▁hon or	-7266
▁sm oke	-7267
▁pay ments	-7268
▁prim arily	-7269
▁King dom	-7270
r ich	-7271
ate ll	-7272
▁de als	-7273
▁sched uled	-7274
▁fund amental	-7275
▁prote in	-7276
▁newsp aper	-7277
▁cl ients	-7278
yth on	-7279
▁D ate	-7280
h us	-7281
▁feed back	-7282
▁stret ch	-7283
▁c ock	-7284
▁hot el	-7285
▁Que en	-7286
▁su gar	-7287
▁j u	-7288
▁mil k	-7289
▁appro val	-7290
▁L ive	-7291
▁equival ent	-7292
ef ully	-7293
▁ins ert	-7294
z ona	-7295
▁ext ension	-7296
d ri	-7297
J ohn	-7298
▁acc omp	-7299
S m	-7300
▁F und	-7301
▁const antly	-7302
▁` `	-7303
▁gener ated	-7304
▁A ction	-7305
▁P sych	-7306
▁T ri	-7307
▁recogn ize	-7308
▁v ary	-7309
ph a	-7310
▁R a	-7311
d f	-7312
et ch	-7313
▁Sov iet	-7314
Tw o	-7315
▁pattern s	-7316
▁prof ession	-7317
an ing	-7318
T ime	-7319
▁L im	-7320
▁col ors	-7321
▁A z	-7322
▁T R	-7323
▁inf ect	-7324
▁phen omen	-7325
▁she ll	-7326
Al so	-7327
▁put s	-7328
▁del ivery	-7329
▁bro wn	-7330
▁process ing	-7331
▁light s	-7332
ess age	-7333
▁Bro ok	-7334
▁A ud	-7335
l ation	-7336
▁indust rial	-7337
L ike	-7338
▁B razil	-7339
rou s	-7340
ES S	-7341
▁L uc	-7342
▁some how	-7343
▁8 5	-7344
▁pro port	-7345
▁polit icians	-7346
▁indic ate	-7347
▁h ole	-7348
▁techn iques	-7349
▁compet itive	-7350
▁ph r	-7351
▁v o	-7352
ist ent	-7353
▁D ream	-7354
▁camp us	-7355
▁aspect s	-7356
▁help ful	-7357
▁sh ield	-7358
or se	-7359
▁trig ger	-7360
m al	-7361
▁5 8	-7362
▁t ort	-7363
▁person ally	-7364
▁t ag	-7365
▁keep s	-7366
▁V ideo	-7367
▁ben ch	-7368
▁g ap	-7369
a ire	-7370
▁e ast	-7371
▁rec overy	-7372
per ial	-7373
▁prof it	-7374
▁M ic	-7375
▁5 7	-7376
▁col on	-7377
▁strong ly	-7378
st yle	-7379
▁alleg ations	-7380
h an	-7381
▁rep orters	-7382
j o	-7383
r ine	-7384
arg et	-7385
and al	-7386
▁0 3	-7387
▁fl ash	-7388
tr ans	-7389
▁str ict	-7390
▁park ing	-7391
▁Pak istan	-7392
▁l i	-7393
▁we ird	-7394
▁E ric	-7395
▁reg ions	-7396
▁J un	-7397
▁int ellect	-7398
▁W H	-7399
od ing	-7400
rib utes	-7401
up id	-7402
▁T it	-7403
▁f inger	-7404
or ia	-7405
▁e lev	-7406
▁F ield	-7407
▁con clusion	-7408
; ;	-7409
▁feel ings	-7410
▁ext ensive	-7411
▁m ixed	-7412
▁ne uro	-7413
v y	-7414
▁har ass	-7415
▁C irc	-7416
ou ch	-7417
▁territ ory	-7418
▁success fully	-7419
M ar	-7420
▁ing red	-7421
▁overw hel	-7422
▁l ayer	-7423
V iew	-7424
▁all ies	-7425
ill ance	-7426
▁Th ree	-7427
▁b unch	-7428
▁norm ally	-7429
▁net works	-7430
▁sac r	-7431
▁C IA	-7432
b les	-7433
▁ch ose	-7434
▁opp onents	-7435
▁regard less	-7436
▁fr anch	-7437
▁pre f	-7438
▁P o	-7439
▁br idge	-7440
ann a	-7441
▁Sil ver	-7442
▁w age	-7443
p age	-7444
ri or	-7445
▁rad ical	-7446
▁L ittle	-7447
▁man ip	-7448
▁secret ary	-7449
▁g ang	-7450
D R	-7451
F A	-7452
▁dec ent	-7453
▁Sp irit	-7454
▁un cle	-7455
▁Develop ment	-7456
▁invest ors	-7457
▁wall s	-7458
▁pub lish	-7459
▁gener ate	-7460
iss ions	-7461
c ar	-7462
▁prom ote	-7463
▁cut ting	-7464
▁che st	-7465
▁drink ing	-7466
▁collect ed	-7467
▁7 2	-7468
▁hop ing	-7469
▁em br	-7470
gor ith	-7471
▁war ned	-7472
▁instruct ions	-7473
O G	-7474
▁D id	-7475
▁Ag ency	-7476
▁g ear	-7477
▁critic ism	-7478
▁F urther	-7479
▁ut il	-7480
ann y	-7481
R ed	-7482
▁coun sel	-7483
▁As ian	-7484
▁redu ction	-7485
p ool	-7486
▁teach ing	-7487
▁deep ly	-7488
i y	-7489
▁estim ates	-7490
▁cho ices	-7491
▁perman ent	-7492
in em	-7493
ke l	-7494
▁f asc	-7495
p se	-7496
f ile	-7497
▁L ow	-7498
▁P erson	-7499
▁t ournament	-7500
st al	-7501
▁m el	-7502
U ST	-7503
▁R ay	-7504
az i	-7505
V al	-7506
▁cont ained	-7507
▁H olly	-7508
▁w ake	-7509
▁reve al	-7510
▁process es	-7511
▁IS IS	-7512
▁0 9	-7513
▁bl ind	-7514
▁ste el	-7515
▁B ad	-7516
▁care fully	-7517
app y	-7518
ro it	-7519
▁g aming	-7520
▁hous es	-7521
▁C oll	-7522
▁tr uck	-7523
er m	-7524
▁sc ored	-7525
▁occ as	-7526
ret urn	-7527
b ound	-7528
v ar	-7529
▁sh arp	-7530
▁af raid	-7531
▁E X	-7532
am ber	-7533
c ific	-7534
▁sche me	-7535
N C	-7536
▁Pol it	-7537
▁decl ine	-7538
▁199 8	-7539
▁pus hing	-7540
▁poss ession	-7541
▁priv ile	-7542
▁teacher s	-7543
▁y ield	-7544
H A	-7545
▁Dav is	-7546
it led	-7547
#### ####	-7548
▁r ig	-7549
▁D aniel	-7550
ac on	-7551
▁h ide	-7552
ut en	-7553
▁colle agues	-7554
▁prin ciples	-7555
▁l oud	-7556
▁s in	-7557
▁Dem on	-7558
▁st one	-7559
▁0 2	-7560
▁t aught	-7561
▁ter rible	-7562
▁st uck	-7563
▁Pol icy	-7564
te en	-7565
▁implement ation	-7566
▁B BC	-7567
▁AP I	-7568
▁whe el	-7569
all as	-7570
▁ch ampions	-7571
ol ars	-7572
play er	-7573
▁repeated ly	-7574
▁St ill	-7575
▁lik es	-7576
ast y	-7577
es ter	-7578
▁Cath olic	-7579
R L	-7580
▁b ath	-7581
▁no ise	-7582
t itle	-7583
▁n orthern	-7584
P art	-7585
▁mag n	-7586
▁f ab	-7587
▁As h	-7588
▁dis pl	-7589
▁tick et	-7590
▁m urd	-7591
▁along side	-7592
▁Mus ic	-7593
▁r iver	-7594
▁Ste el	-7595
▁C L	-7596
▁Pl ayer	-7597
▁M ult	-7598
ow ing	-7599
re p	-7600
s ize	-7601
▁t ur	-7602
▁Georg ia	-7603
isc al	-7604
ra ction	-7605
▁c able	-7606
▁5 9	-7607
▁w ins	-7608
▁up coming	-7609
▁surv ive	-7610
▁ins pired	-7611
▁Educ ation	-7612
▁stat istics	-7613
▁F oot	-7614
iam i	-7615
▁y ellow	-7616
▁P age	-7617
. -	-7618
▁H as	-7619
▁ur ban	-7620
▁a x	-7621
es sel	-7622
\ "	-7623
▁quarter back	-7624
▁reg ister	-7625
▁Lab or	-7626
▁ab ilities	-7627
▁F amily	-7628
▁var iable	-7629
▁Pr ice	-7630
▁cont em	-7631
▁th in	-7632
▁E qu	-7633
d ata	-7634
▁g otten	-7635
▁const it	-7636
▁as ks	-7637
▁t ail	-7638
▁exc iting	-7639
▁E ffect	-7640
▁Sp anish	-7641
▁encour age	-7642
ins on	-7643
▁A h	-7644
▁commit ment	-7645
C S	-7646
▁r ally	-7647
▁: :	-7648
▁subs id	-7649
▁sp in	-7650
▁capt ured	-7651
201 8	-7652
▁inn oc	-7653
▁alleged ly	-7654
▁C ome	-7655
▁art ists	-7656
▁N umber	-7657
▁elect ronic	-7658
▁reg ional	-7659
ap es	-7660
▁w ra	-7661
▁my th	-7662
pr ise	-7663
▁M iller	-7664
▁C reat	-7665
▁Ep isode	-7666
b ell	-7667
▁direct ed	-7668
▁ext ract	-7669
▁s orry	-7670
▁v ice	-7671
ag ger	-7672
▁Su pport	-7673
▁6 6	-7674
▁I ron	-7675
▁wonder ful	-7676
▁g ra	-7677
N et	-7678
ion e	-7679
E ng	-7680
▁sh ips	-7681
ik es	-7682
▁K evin	-7683
it ar	-7684
▁activ ists	-7685
tr ue	-7686
▁Ari zona	-7687
ent h	-7688
▁Des pite	-7689
▁S E	-7690
▁ha bit	-7691
ern el	-7692
▁in qu	-7693
▁ab ortion	-7694
▁v oid	-7695
▁expl icit	-7696
▁eng aged	-7697
▁ang ry	-7698
▁r ating	-7699
▁fr ag	-7700
b ro	-7701
ick ing	-7702
d ev	-7703
▁wor ried	-7704
▁ob ser	-7705
▁ap artment	-7706
▁G T	-7707
▁est ate	-7708
▁Const itution	-7709
em on	-7710
▁S now	-7711
▁count y	-7712
▁dis ag	-7713
▁Step hen	-7714
▁imm igrants	-7715
w ind	-7716
▁N ations	-7717
▁fol ks	-7718
O ut	-7719
▁g all	-7720
▁target ed	-7721
▁st ead	-7722
▁B on	-7723
▁L ib	-7724
▁inform ed	-7725
▁12 0	-7726
ch ain	-7727
idel ines	-7728
or ough	-7729
▁dri ven	-7730
▁regular ly	-7731
▁bas ket	-7732
▁princ iple	-7733
oc ument	-7734
▁st un	-7735
ib ilities	-7736
▁Rom an	-7737
▁Ab out	-7738
▁al ert	-7739
▁democr acy	-7740
▁represent ed	-7741
H S	-7742
c ers	-7743
p arent	-7744
Ar t	-7745
p ack	-7746
▁di plom	-7747
re ts	-7748
▁N O	-7749
▁capt ure	-7750
▁Ad v	-7751
Ħ ¢	-7752
▁announce ment	-7753
▁L ear	-7754
▁h ook	-7755
▁pur s	-7756
▁S uch	-7757
▁C amer	-7758
▁refuge es	-7759
▁V e	-7760
P ol	-7761
▁recogn ized	-7762
l ib	-7763
▁had n	-7764
A ss	-7765
▁pil ot	-7766
us hing	-7767
▁return ing	-7768
▁tra il	-7769
▁St one	-7770
▁rout ine	-7771
▁cour ts	-7772
▁des per	-7773
▁friend ly	-7774
▁It aly	-7775
▁pl ed	-7776
▁breat h	-7777
▁stud io	-7778
N S	-7779
▁imp ressive	-7780
▁Afghan istan	-7781
▁f ing	-7782
▁d ownt	-7783
ink ing	-7784
▁R og	-7785
i ary	-7786
col or	-7787
se x	-7788
ar on	-7789
▁f ault	-7790
▁N ick	-7791
D own	-7792
▁R ose	-7793
▁S outhern	-7794
X X	-7795
is odes	-7796
L ist	-7797
6 00	-7798
▁out come	-7799
er r	-7800
▁else where	-7801
▁ret ire	-7802
▁p ounds	-7803
▁Gl obal	-7804
Pe ople	-7805
▁commun ications	-7806
▁lo an	-7807
▁rat io	-7808
▁Em pire	-7809
▁g onna	-7810
▁inv ent	-7811
D F	-7812
▁19 70	-7813
▁Comm on	-7814
p at	-7815
▁prom ised	-7816
▁d inner	-7817
▁H om	-7818
▁creat es	-7819
▁oper ate	-7820
ver ty	-7821
▁J ordan	-7822
et ime	-7823
▁sust ain	-7824
R eg	-7825
▁incred ible	-7826
im a	-7827
▁war rant	-7828
▁m m	-7829
A tt	-7830
▁law suit	-7831
▁review s	-7832
it ure	-7833
▁S ource	-7834
l ights	-7835
▁F ord	-7836
▁6 3	-7837
g roup	-7838
st ore	-7839
▁feat ured	-7840
▁fore ver	-7841
▁po verty	-7842
▁P op	-7843
▁C NN	-7844
az z	-7845
ab is	-7846
ach ing	-7847
▁l aid	-7848
▁Su pp	-7849
▁fil ter	-7850
en a	-7851
▁Commun ity	-7852
▁creat ures	-7853
u ction	-7854
▁R oyal	-7855
▁associ ation	-7856
▁Con nect	-7857
▁Br ad	-7858
âĸ Ī	-7859
l ers	-7860
the re	-7861
▁G i	-7862
▁val uable	-7863
AC K	-7864
▁T aylor	-7865
▁l iquid	-7866
▁Att orney	-7867
▁Car l	-7868
▁F inal	-7869
ag a	-7870
▁Wil son	-7871
B ecause	-7872
▁Prof essor	-7873
ak a	-7874
▁incred ibly	-7875
r ance	-7876
! )	-7877
R ef	-7878
s k	-7879
▁sol utions	-7880
▁atmosp here	-7881
▁bl ame	-7882
um es	-7883
▁N ob	-7884
C A	-7885
um ps	-7886
r ical	-7887
▁Put in	-7888
▁D est	-7889
or ic	-7890
▁P A	-7891
▁respect ively	-7892
w an	-7893
▁fif th	-7894
â Ħ¢	-7895
▁C ry	-7896
▁govern or	-7897
res ident	-7898
▁purch ased	-7899
▁h ack	-7900
▁int ense	-7901
ob s	-7902
▁orig in	-7903
▁def ine	-7904
▁care ful	-7905
** *	-7906
▁should er	-7907
Cl ick	-7908
▁t ied	-7909
▁dest ruction	-7910
ou red	-7911
▁no body	-7912
▁h o	-7913
▁Ex per	-7914
▁t ip	-7915
" ;	-7916
▁techn ique	-7917
▁j ur	-7918
▁P ok	-7919
b ow	-7920
▁leg end	-7921
▁acc ord	-7922
▁bus y	-7923
▁Int el	-7924
▁h ang	-7925
ak i	-7926
. ]	-7927
âĢĶâĢĶ âĢĶâĢĶ	-7928
▁sur gery	-7929
▁rep rodu	-7930
▁un iform	-7931
▁scen es	-7932
c ode	-7933
▁6 2	-7934
l isher	-7935
▁H ave	-7936
ph ia	-7937
▁cry pt	-7938
▁rec on	-7939
▁sc ream	-7940
▁adop ted	-7941
▁sc ores	-7942
N e	-7943
▁It alian	-7944
in cluding	-7945
B O	-7946
▁indic ated	-7947
▁ent ertain	-7948
G u	-7949
T ext	-7950
i el	-7951
▁tw enty	-7952
▁eng age	-7953
off s	-7954
▁Pac ific	-7955
▁sm ile	-7956
▁person nel	-7957
▁to ler	-7958
▁do ors	-7959
▁t one	-7960
▁mach ines	-7961
▁ent ering	-7962
ten ance	-7963
C O	-7964
▁Jer sey	-7965
▁fore st	-7966
▁hor se	-7967
▁compl aint	-7968
▁Spr ing	-7969
y o	-7970
▁Pl us	-7971
ed ing	-7972
▁Ret urn	-7973
qu arters	-7974
ial s	-7975
c ow	-7976
▁acad emic	-7977
▁f ruit	-7978
▁199 6	-7979
og ether	-7980
▁w ine	-7981
▁pur su	-7982
▁Ste ven	-7983
▁lic ens	-7984
Wh o	-7985
▁clot hes	-7986
re ction	-7987
▁squ ad	-7988
▁st able	-7989
▁r aw	-7990
z ens	-7991
St ar	-7992
ut ies	-7993
anc er	-7994
▁ke ys	-7995
▁M u	-7996
▁compl icated	-7997
ig er	-7998
▁Te xt	-7999
▁abs or	-8000
▁6 8	-8001
▁fun ny	-8002
▁rel ief	-8003
▁L ew	-8004
▁C ook	-8005
▁ch art	-8006
▁draw ing	-8007
G E	-8008
▁mod ule	-8009
▁B ull	-8010
I LL	-8011
▁s alt	-8012
0000 0000	-8013
il le	-8014
▁res ource	-8015
aw ay	-8016
adel phia	-8017
▁B ru	-8018
▁6 7	-8019
▁some body	-8020
▁particip ate	-8021
▁ro se	-8022
we red	-8023
▁mus cle	-8024
▁cons ent	-8025
▁contin uing	-8026
▁Guard ian	-8027
▁Or der	-8028
reg on	-8029
▁re ar	-8030
▁prov ision	-8031
▁lik ed	-8032
ri ent	-8033
▁b ra	-8034
Tr ans	-8035
▁meet ings	-8036
▁to x	-8037
▁con vent	-8038
▁aut o	-8039
▁rec ording	-8040
▁So ft	-8041
00 1	-8042
▁R oll	-8043
▁program ming	-8044
▁p ic	-8045
▁prov ed	-8046
▁st ab	-8047
▁A st	-8048
▁ca ption	-8049
ul ating	-8050
▁Att ack	-8051
▁new ly	-8052
▁199 7	-8053
f r	-8054
▁dis cipl	-8055
▁Gree k	-8056
▁ed ition	-8057
▁Do es	-8058
▁B ox	-8059
if le	-8060
ack et	-8061
▁pass es	-8062
▁gu est	-8063
▁ac celer	-8064
it als	-8065
U D	-8066
▁aut hent	-8067
▁R est	-8068
ov al	-8069
t a	-8070
u ine	-8071
▁arm or	-8072
▁T own	-8073
▁comp at	-8074
▁inc hes	-8075
Des pite	-8076
▁ass ign	-8077
he rent	-8078
▁prep are	-8079
▁M eg	-8080
oc key	-8081
▁dep ends	-8082
▁track s	-8083
w atch	-8084
▁l ists	-8085
▁N orthern	-8086
▁al ter	-8087
re c	-8088
▁E astern	-8089
▁cond em	-8090
▁every where	-8091
? '	-8092
▁aff ili	-8093
▁f ought	-8094
": {"	-8095
▁m ac	-8096
it arian	-8097
▁sc ope	-8098
▁A L	-8099
aw s	-8100
ar ms	-8101
▁qu e	-8102
▁enjoy ed	-8103
nes ota	-8104
▁agg ressive	-8105
▁St ory	-8106
▁I V	-8107
▁rec ipe	-8108
▁rare ly	-8109
▁Med ical	-8110
val ue	-8111
ang el	-8112
ay ing	-8113
omet hing	-8114
▁sub section	-8115
▁s outhern	-8116
▁frequ ency	-8117
re te	-8118
roll ed	-8119
ult s	-8120
▁N ic	-8121
▁beh alf	-8122
▁sequ ence	-8123
ab et	-8124
▁controvers ial	-8125
▁comp rom	-8126
▁work er	-8127
▁main ly	-8128
▁al gorith	-8129
▁M ajor	-8130
or ce	-8131
g ender	-8132
▁organ ized	-8133
▁f ake	-8134
▁conclud ed	-8135
▁E D	-8136
▁Ex ec	-8137
r age	-8138
▁ch ances	-8139
ber ry	-8140
▁Tr ad	-8141
▁config uration	-8142
▁withd raw	-8143
▁f ro	-8144
ud es	-8145
▁Bro ther	-8146
▁B rian	-8147
▁tri es	-8148
▁sam ples	-8149
▁b id	-8150
▁Gold en	-8151
▁phot ograph	-8152
if est	-8153
▁D O	-8154
▁Par liament	-8155
******** ********	-8156
R em	-8157
▁cont est	-8158
▁sign ing	-8159
p x	-8160
▁Z eal	-8161
âĶĢ âĶĢ	-8162
E ar	-8163
▁ex it	-8164
Be fore	-8165
▁Cor por	-8166
n ull	-8167
mon th	-8168
▁rac ial	-8169
ott ed	-8170
▁V eg	-8171
▁Re uters	-8172
▁sw ord	-8173
ps on	-8174
▁Rom ney	-8175
a ed	-8176
▁t rib	-8177
▁in ner	-8178
▁prot ocol	-8179
▁B i	-8180
▁M iami	-8181
ever al	-8182
p ress	-8183
▁sh ipping	-8184
▁Am endment	-8185
▁How ard	-8186
con nect	-8187
▁D isc	-8188
▁J ac	-8189
iam ond	-8190
▁There fore	-8191
s es	-8192
▁Prin cess	-8193
▁US B	-8194
▁An th	-8195
▁surve illance	-8196
▁ap olog	-8197
▁6 1	-8198
ow a	-8199
▁f ulf	-8200
j s	-8201
▁l uck	-8202
ust ed	-8203
▁Â §	-8204
n i	-8205
▁ant icip	-8206
em an	-8207
▁win ner	-8208
▁sil ver	-8209
ll a	-8210
ic ity	-8211
▁unus ual	-8212
▁cr ack	-8213
▁t ies	-8214
e z	-8215
▁pract ical	-8216
▁prov ince	-8217
▁Pl ace	-8218
▁prior ity	-8219
IC E	-8220
▁describ es	-8221
▁br anch	-8222
F orm	-8223
ask a	-8224
miss ions	-8225
b i	-8226
▁p orn	-8227
▁Tur k	-8228
▁ent hus	-8229
▁f ighters	-8230
▁0 8	-8231
▁Det roit	-8232
▁found ation	-8233
av id	-8234
A re	-8235
▁jud gment	-8236
cl ing	-8237
▁sol ve	-8238
▁Des ign	-8239
W here	-8240
hes is	-8241
▁T ro	-8242
a fter	-8243
▁ne utral	-8244
▁Palestin ian	-8245
▁Holly wood	-8246
▁adv is	-8247
▁N on	-8248
y es	-8249
ol is	-8250
▁rep utation	-8251
▁sm ell	-8252
▁b read	-8253
▁B ul	-8254
▁Be ach	-8255
▁claim ing	-8256
▁gen etic	-8257
▁techn ologies	-8258
▁upgr ade	-8259
row s	-8260
▁develop er	-8261
▁J osh	-8262
▁Dis ney	-8263
erv ed	-8264
ip al	-8265
▁un ex	-8266
▁bare ly	-8267
t hen	-8268
▁P ub	-8269
▁ill ness	-8270
et ary	-8271
▁B al	-8272
▁p atch	-8273
▁but t	-8274
▁st upid	-8275
▁D og	-8276
▁D allas	-8277
f ront	-8278
ie ce	-8279
▁prot ests	-8280
▁ch at	-8281
oen ix	-8282
▁w ing	-8283
▁par liament	-8284
▁7 7	-8285
ose xual	-8286
▁re nder	-8287
pt ions	-8288
▁Co ast	-8289
os a	-8290
▁G reg	-8291
h op	-8292
▁Man agement	-8293
▁bit coin	-8294
▁rec over	-8295
▁incor por	-8296
or ne	-8297
▁Us ing	-8298
▁pre ced	-8299
▁threat ened	-8300
▁spirit ual	-8301
▁E vent	-8302
▁F red	-8303
▁advert ising	-8304
▁improve ments	-8305
▁C ustom	-8306
▁er rors	-8307
▁sens itive	-8308
▁N avy	-8309
▁cre am	-8310
L ook	-8311
▁ex clusive	-8312
▁comp rehens	-8313
▁de leg	-8314
▁con ce	-8315
▁rem em	-8316
▁struct ures	-8317
▁st ored	-8318
N D	-8319
▁1 000	-8320
U P	-8321
▁B udd	-8322
A F	-8323
w oman	-8324
▁Acad emy	-8325
ð Ł	-8326
se a	-8327
▁tem porary	-8328
Ab out	-8329
es ters	-8330
▁tick ets	-8331
▁poss ess	-8332
in ch	-8333
o z	-8334
▁l a	-8335
▁contract s	-8336
▁un p	-8337
▁c ig	-8338
▁K at	-8339
ult ural	-8340
as m	-8341
▁mount ain	-8342
▁Capt ain	-8343
St ep	-8344
m aking	-8345
▁Sp ain	-8346
▁equ ally	-8347
▁l ands	-8348
at ers	-8349
▁reject ed	-8350
er a	-8351
im m	-8352
ri x	-8353
C D	-8354
▁trans action	-8355
g ener	-8356
less ly	-8357
▁| |	-8358
▁c os	-8359
▁Hen ry	-8360
▁prov isions	-8361
▁g ained	-8362
▁direct ory	-8363
▁ra ising	-8364
▁S ep	-8365
ol en	-8366
ond er	-8367
▁con sole	-8368
in st	-8369
▁b om	-8370
▁unc ertain	-8371
1 50	-8372
ock ing	-8373
▁meas ured	-8374
▁pl ain	-8375
▁se ats	-8376
▁d ict	-8377
S L	-8378
af e	-8379
▁est imate	-8380
iz on	-8381
at hered	-8382
▁contribut ed	-8383
▁ep isodes	-8384
omm od	-8385
G r	-8386
AN T	-8387
▁6 9	-8388
G ener	-8389
▁2 50	-8390
vious ly	-8391
rog en	-8392
▁terror ism	-8393
▁move ments	-8394
ent le	-8395
oun ce	-8396
▁S oul	-8397
▁pre v	-8398
▁T able	-8399
act s	-8400
ri ors	-8401
t ab	-8402
▁suff er	-8403
▁n erv	-8404
▁main stream	-8405
▁W olf	-8406
▁franch ise	-8407
b at	-8408
▁dem ands	-8409
▁ag enda	-8410
▁do zen	-8411
▁clin ical	-8412
iz ard	-8413
▁O p	-8414
t d	-8415
▁vis ited	-8416
▁Per haps	-8417
▁act or	-8418
▁de lic	-8419
▁cont ribute	-8420
▁in ject	-8421
▁E s	-8422
ac co	-8423
▁list ening	-8424
▁con gress	-8425
epend ent	-8426
▁prem ium	-8427
▁7 6	-8428
▁Ir ish	-8429
▁ass igned	-8430
▁Ph ys	-8431
▁world wide	-8432
▁narr ative	-8433
ot ype	-8434
m ont	-8435
b ase	-8436
▁B owl	-8437
▁Administ ration	-8438
▁rel ation	-8439
▁E V	-8440
C P	-8441
▁co vers	-8442
▁7 8	-8443
▁cert ific	-8444
▁gr ass	-8445
▁0 4	-8446
pir acy	-8447
ir a	-8448
▁engine ering	-8449
▁M ars	-8450
▁un employ	-8451
▁Fore ign	-8452
st ract	-8453
▁v en	-8454
▁st eal	-8455
▁repl ied	-8456
▁ult imate	-8457
▁tit les	-8458
d ated	-8459
▁j oy	-8460
a us	-8461
▁hy per	-8462
ak u	-8463
▁offic ially	-8464
▁Pro duct	-8465
▁difficult y	-8466
per or	-8467
▁result ed	-8468
rib ed	-8469
l ink	-8470
wh o	-8471
~~ ~~	-8472
▁Spe ed	-8473
▁V iet	-8474
W ind	-8475
▁Bar ack	-8476
▁restrict ions	-8477
▁Sh are	-8478
▁199 5	-8479
ition ally	-8480
▁beaut y	-8481
op t	-8482
▁m aps	-8483
▁C R	-8484
▁N ation	-8485
▁Cru z	-8486
W ill	-8487
▁electric ity	-8488
▁or g	-8489
▁b urd	-8490
▁viol ation	-8491
▁us age	-8492
▁per mit	-8493
▁Ch ron	-8494
▁F ant	-8495
▁n aturally	-8496
▁0 7	-8497
▁th rown	-8498
▁Aw oken	-8499
▁al ien	-8500
▁Her o	-8501
▁K ent	-8502
▁R ick	-8503
ri ke	-8504
▁p ace	-8505
}, {"	-8506
G L	-8507
▁po ison	-8508
▁T ower	-8509
▁form al	-8510
al ysis	-8511
▁gen uine	-8512
▁k il	-8513
a ver	-8514
▁proced ure	-8515
▁Pro p	-8516
intend o	-8517
▁M ain	-8518
as ant	-8519
▁tr ained	-8520
G ame	-8521
▁L oad	-8522
▁M A	-8523
▁cru cial	-8524
▁le ts	-8525
▁F R	-8526
▁ch ampion	-8527
1 01	-8528
▁Con ference	-8529
▁writ ers	-8530
▁connect ions	-8531
▁o kay	-8532
ir ms	-8533
▁R and	-8534
▁enc ounter	-8535
▁B uff	-8536
▁achie ved	-8537
▁che cks	-8538
isc ons	-8539
▁assist ant	-8540
▁when ever	-8541
▁A ccess	-8542
▁U r	-8543
b in	-8544
▁cl ock	-8545
is p	-8546
op her	-8547
▁b orrow	-8548
▁m ad	-8549
▁person ality	-8550
on ly	-8551
IS T	-8552
ab ama	-8553
▁g ains	-8554
▁common ly	-8555
▁ter r	-8556
▁hyp ot	-8557
▁re ly	-8558
▁t iss	-8559
iscons in	-8560
▁rid ic	-8561
f unction	-8562
▁O regon	-8563
▁un com	-8564
r ating	-8565
el and	-8566
▁N C	-8567
▁m oon	-8568
ann on	-8569
▁vulner able	-8570
ut ive	-8571
ÂłÂł ÂłÂł	-8572
▁Rad io	-8573
▁w estern	-8574
se ct	-8575
▁T ony	-8576
▁occ urs	-8577
▁O s	-8578
▁H on	-8579
Ã Ń	-8580
▁v essel	-8581
▁Scot land	-8582
▁discrim ination	-8583
▁subsequ ent	-8584
st ring	-8585
▁fant asy	-8586
▁Sh adow	-8587
▁test im	-8588
W E	-8589
it i	-8590
r as	-8591
▁bo at	-8592
▁mar ks	-8593
▁ord inary	-8594
▁re n	-8595
▁represent ative	-8596
▁pet ition	-8597
▁7 3	-8598
▁ad venture	-8599
▁ign ore	-8600
▁Phil adelphia	-8601
▁S av	-8602
V P	-8603
▁fact ory	-8604
▁t asks	-8605
▁dep ression	-8606
z ed	-8607
................ ................	-8608
▁St orm	-8609
▁c ogn	-8610
▁elig ible	-8611
▁redu cing	-8612
v ia	-8613
▁0 5	-8614
▁stri king	-8615
▁doll ar	-8616
h o	-8617
O V	-8618
▁instr ument	-8619
▁philosoph y	-8620
▁Mo ore	-8621
▁A venue	-8622
▁rul ed	-8623
▁Fr ont	-8624
IN E	-8625
▁M ah	-8626
▁scen ario	-8627
▁NAS A	-8628
▁en orm	-8629
▁deb ut	-8630
▁te a	-8631
T oday	-8632
▁abs ence	-8633
S im	-8634
▁h am	-8635
le ep	-8636
▁t ables	-8637
▁He art	-8638
M I	-8639
K e	-8640
re qu	-8641
V D	-8642
m ap	-8643
▁chair man	-8644
▁p ump	-8645
▁rapid ly	-8646
v i	-8647
▁substant ial	-8648
E P	-8649
d es	-8650
ch ant	-8651
ili pp	-8652
▁S anta	-8653
ri ers	-8654
anche ster	-8655
L oad	-8656
▁C ase	-8657
▁sa ving	-8658
▁7 4	-8659
▁A FP	-8660
er ning	-8661
oun ced	-8662
▁Min nesota	-8663
▁W as	-8664
▁rec ru	-8665
▁assess ment	-8666
▁B ron	-8667
U E	-8668
▁dynam ic	-8669
▁f urn	-8670
ul ator	-8671
▁prop ag	-8672
h igh	-8673
▁acc ommod	-8674
▁st ack	-8675
▁S us	-8676
w rit	-8677
▁re ven	-8678
▁God d	-8679
▁Zeal and	-8680
ab s	-8681
▁br ut	-8682
▁per pet	-8683
h ot	-8684
▁hard ly	-8685
▁B urn	-8686
ãĤ ¹	-8687
▁st y	-8688
▁trans actions	-8689
▁g ate	-8690
▁sc reens	-8691
▁sub mitted	-8692
▁1 01	-8693
▁langu ages	-8694
ugh t	-8695
em en	-8696
▁fall s	-8697
▁c oc	-8698
Ĥ ¬	-8699
▁stri kes	-8700
p a	-8701
▁del iber	-8702
▁I M	-8703
▁rel ax	-8704
ann els	-8705
▁Sen ator	-8706
▁ext rem	-8707
▁} ,	-8708
▁De b	-8709
▁be ll	-8710
▁dis order	-8711
c ut	-8712
▁i OS	-8713
▁l ocked	-8714
▁em issions	-8715
▁short ly	-8716
" ]	-8717
▁Jud ge	-8718
▁S ometimes	-8719
▁r ival	-8720
▁d ust	-8721
▁reach ing	-8722
F ile	-8723
Â¯Â¯ Â¯Â¯	-8724
ino is	-8725
▁J ason	-8726
▁s atell	-8727
are t	-8728
▁st ations	-8729
▁ag ric	-8730
▁Techn ology	-8731
com es	-8732
▁Un fortunately	-8733
▁Child ren	-8734
▁appl ies	-8735
ast ed	-8736
▁an ger	-8737
ail ability	-8738
▁Dam age	-8739
▁comp are	-8740
▁Stand ard	-8741
▁aim ed	-8742
▁B a	-8743
angu age	-8744
▁reg ulation	-8745
▁j ury	-8746
▁air port	-8747
▁se ctions	-8748
▁Pr ince	-8749
em ed	-8750
▁medic ine	-8751
▁h itting	-8752
▁sp ark	-8753
ol ves	-8754
▁ad s	-8755
St ate	-8756
▁food s	-8757
▁repl acement	-8758
▁ch icken	-8759
▁low est	-8760
▁mind s	-8761
▁invol ves	-8762
u i	-8763
▁arr ang	-8764
▁proced ures	-8765
▁Wh ich	-8766
ivers ary	-8767
▁b ills	-8768
▁improve ment	-8769
▁in ev	-8770
▁expect ations	-8771
▁intellect ual	-8772
▁sp aces	-8773
▁mechan ism	-8774
2 50	-8775
bre ak	-8776
▁Z e	-8777
▁T enn	-8778
▁B alt	-8779
▁bar rel	-8780
▁stat ic	-8781
man n	-8782
Pol ice	-8783
▁t ips	-8784
▁hand ling	-8785
c us	-8786
od ed	-8787
il ton	-8788
ir y	-8789
▁journal ists	-8790
our se	-8791
▁com ic	-8792
▁nom ine	-8793
IT Y	-8794
▁vers us	-8795
▁lo op	-8796
▁sur f	-8797
▁Ind ust	-8798
▁Hun ter	-8799
▁belief s	-8800
is an	-8801
▁set up	-8802
▁bre w	-8803
im age	-8804
▁comput ers	-8805
f ol	-8806
} ,"	-8807
▁Med al	-8808
▁tax p	-8809
▁display ed	-8810
▁g rav	-8811
▁f iscal	-8812
M on	-8813
▁Mos cow	-8814
▁K ong	-8815
▁Cent re	-8816
▁camer as	-8817
▁Mr s	-8818
▁H ay	-8819
▁a ver	-8820
▁K elly	-8821
p y	-8822
▁require ment	-8823
▁ent itled	-8824
omb ie	-8825
▁sh adow	-8826
ag ic	-8827
▁A k	-8828
▁el ite	-8829
▁div ided	-8830
▁head ing	-8831
▁cop ies	-8832
▁loss es	-8833
▁v it	-8834
k ed	-8835
▁B ry	-8836
▁an s	-8837
▁Ste am	-8838
▁rep orter	-8839
he im	-8840
▁It em	-8841
▁super ior	-8842
d on	-8843
ere nt	-8844
Ã ¶	-8845
▁therap y	-8846
▁pe ak	-8847
▁Mod el	-8848
▁l ying	-8849
▁g am	-8850
z er	-8851
r itten	-8852
▁respons es	-8853
▁consider ation	-8854
▁B ible	-8855
▁l oyal	-8856
▁inst ant	-8857
▁p m	-8858
▁Fore st	-8859
Ã ¼	-8860
▁ext end	-8861
▁conv icted	-8862
▁found er	-8863
▁conv in	-8864
▁O ak	-8865
che ck	-8866
▁sch olars	-8867
p ed	-8868
▁over se	-8869
T op	-8870
c ount	-8871
▁Ar k	-8872
Â ·	-8873
▁0 6	-8874
▁L A	-8875
m d	-8876
▁Lat in	-8877
im ental	-8878
▁C PU	-8879
▁subst ance	-8880
▁minor ity	-8881
▁manufact uring	-8882
E r	-8883
ocol ate	-8884
▁att ended	-8885
▁Man ager	-8886
r ations	-8887
▁appreci ate	-8888
om y	-8889
GB T	-8890
id ency	-8891
B L	-8892
▁guarant ee	-8893
pos ition	-8894
▁o cean	-8895
clud e	-8896
▁head ed	-8897
▁t ape	-8898
▁lo ose	-8899
▁log ic	-8900
▁pro ven	-8901
▁sp ir	-8902
▁ad mit	-8903
is a	-8904
▁investig ate	-8905
▁199 4	-8906
sy lv	-8907
▁L ost	-8908
c est	-8909
▁7 1	-8910
▁request ed	-8911
▁wind ows	-8912
▁Pok Ã©	-8913
▁With out	-8914
M et	-8915
▁behavi our	-8916
▁read er	-8917
▁h ung	-8918
▁Ke ep	-8919
▁ro les	-8920
▁implement ed	-8921
▁bl ank	-8922
▁serv es	-8923
▁J ay	-8924
▁c ited	-8925
▁F riend	-8926
prof it	-8927
ap on	-8928
▁rep air	-8929
it em	-8930
arr ass	-8931
▁crit ics	-8932
ad i	-8933
▁F ather	-8934
▁sh out	-8935
▁f ool	-8936
▁8 8	-8937
▁produ cing	-8938
▁l ib	-8939
▁round s	-8940
▁circ le	-8941
▁pre par	-8942
▁sub mit	-8943
▁n ic	-8944
mor row	-8945
ãĥ «	-8946
U nder	-8947
▁v ital	-8948
ater n	-8949
▁pass word	-8950
▁public ation	-8951
▁prom inent	-8952
▁speak s	-8953
▁b ars	-8954
▁de eper	-8955
▁M ill	-8956
port ed	-8957
▁w id	-8958
▁but ter	-8959
▁sm oking	-8960
▁indic ates	-8961
K ey	-8962
rop ri	-8963
▁F ile	-8964
all ing	-8965
ast ing	-8966
▁R us	-8967
▁ad j	-8968
▁7 9	-8969
av al	-8970
▁pres um	-8971
bur gh	-8972
on ic	-8973
▁f ur	-8974
▁poll s	-8975
ik a	-8976
▁second ary	-8977
▁mon ster	-8978
ig s	-8979
▁Cur rent	-8980
E vent	-8981
▁owners hip	-8982
end ar	-8983
▁arri ve	-8984
▁T ax	-8985
▁n ull	-8986
▁Pri v	-8987
▁th ro	-8988
▁k iss	-8989
c at	-8990
▁up set	-8991
ang le	-8992
it ches	-8993
ect or	-8994
olog ists	-8995
▁Gal axy	-8996
▁cor ruption	-8997
▁h int	-8998
ent er	-8999
▁H ospital	-9000
▁great ly	-9001
▁beg un	-9002
es y	-9003
▁so il	-9004
▁Ant on	-9005
▁main tenance	-9006
ãĥ ©	-9007
▁do zens	-9008
▁human ity	-9009
▁Al abama	-9010
▁r om	-9011
w orth	-9012
ap ing	-9013
sylv ania	-9014
l ah	-9015
▁g athered	-9016
G A	-9017
▁attack ing	-9018
f ound	-9019
▁Squ are	-9020
▁ar bit	-9021
ict ions	-9022
▁W isconsin	-9023
▁d ance	-9024
▁S aint	-9025
arch y	-9026
▁base ball	-9027
▁contribut ions	-9028
▁liter ature	-9029
▁ex ha	-9030
per ty	-9031
t est	-9032
▁b ab	-9033
▁contain er	-9034
let ter	-9035
▁fall en	-9036
▁webs ites	-9037
▁bott le	-9038
▁S ac	-9039
▁bre ast	-9040
▁P L	-9041
▁veter an	-9042
▁interview s	-9043
▁A le	-9044
▁b anned	-9045
eng ers	-9046
▁Rev olution	-9047
in th	-9048
▁conc erning	-9049
IV E	-9050
▁exp enses	-9051
▁Matt hew	-9052
▁Columb ia	-9053
d s	-9054
ist ance	-9055
▁ent ity	-9056
.. ."	-9057
▁rel iable	-9058
▁par alle	-9059
▁Christ ians	-9060
▁opin ions	-9061
▁in du	-9062
l ow	-9063
▁compet e	-9064
▁th orough	-9065
▁employ ed	-9066
▁establish ment	-9067
ig en	-9068
▁C ro	-9069
▁lawy ers	-9070
▁St ation	-9071
T E	-9072
▁L ind	-9073
▁P ur	-9074
it ary	-9075
▁effic iency	-9076
âĢ Ĳ	-9077
▁L y	-9078
▁m ask	-9079
▁dis aster	-9080
▁ag es	-9081
ER E	-9082
es is	-9083
▁H old	-9084
▁cas ual	-9085
b led	-9086
▁en abled	-9087
▁En vironment	-9088
▁Int elligence	-9089
i per	-9090
▁M ap	-9091
▁B E	-9092
▁emer ged	-9093
is dom	-9094
▁c abin	-9095
▁regist ration	-9096
▁fing ers	-9097
▁ro ster	-9098
▁fram ework	-9099
▁Do ctor	-9100
et ts	-9101
▁transport ation	-9102
▁aware ness	-9103
H er	-9104
▁attempt ing	-9105
O ff	-9106
▁St ore	-9107
ÃĥÃĤÃĥÃĤ ÃĥÃĤÃĥÃĤ	-9108
▁K now	-9109
▁def ence	-9110
▁sc an	-9111
▁T en	-9112
▁Ch air	-9113
▁P H	-9114
▁Atl anta	-9115
▁fuck ing	-9116
▁ans wered	-9117
b n	-9118
▁K ar	-9119
▁categ ories	-9120
▁r ational	-9121
▁c ust	-9122
▁rob ot	-9123
▁correct ly	-9124
▁g if	-9125
▁graph ics	-9126
m ic	-9127
▁ground s	-9128
▁O pp	-9129
i ate	-9130
▁dist ributed	-9131
▁san ctions	-9132
▁challeng ing	-9133
ut o	-9134
▁ingred ients	-9135
▁inv ited	-9136
▁found ed	-9137
▁Re qu	-9138
d ed	-9139
▁b owl	-9140
▁brother s	-9141
▁H a	-9142
I O	-9143
▁w ages	-9144
im ore	-9145
oc ial	-9146
▁se ed	-9147
ative ly	-9148
▁address es	-9149
▁I owa	-9150
ab eth	-9151
▁att itude	-9152
is d	-9153
ch ild	-9154
▁m ole	-9155
▁disco very	-9156
y ard	-9157
B r	-9158
▁8 2	-9159
▁suppl ies	-9160
ell ing	-9161
▁dist ingu	-9162
C R	-9163
▁re cept	-9164
▁ vert	-9165
▁sw im	-9166
b ec	-9167
d oor	-9168
▁Y eah	-9169
▁g al	-9170
▁inter act	-9171
▁E SP	-9172
▁C S	-9173
amp s	-9174
▁convin ced	-9175
▁object ive	-9176
▁dis h	-9177
▁Phot os	-9178
l ad	-9179
▁downt own	-9180
o il	-9181
in ction	-9182
▁to morrow	-9183
▁C OM	-9184
▁surv ival	-9185
sh ot	-9186
▁sett lement	-9187
C ons	-9188
▁X box	-9189
int erest	-9190
▁S M	-9191
arg o	-9192
en ess	-9193
▁eth nic	-9194
b ered	-9195
M in	-9196
▁T ok	-9197
▁inc ent	-9198
▁Comm and	-9199
▁main tained	-9200
▁break s	-9201
br idge	-9202
at ar	-9203
ag g	-9204
▁F inally	-9205
un icip	-9206
▁O nt	-9207
le ft	-9208
▁recogn ition	-9209
▁* /	-9210
▁P ers	-9211
▁we lf	-9212
▁address ed	-9213
▁K ansas	-9214
▁vir us	-9215
▁where as	-9216
▁p apers	-9217
ram s	-9218
▁Min istry	-9219
▁ple asure	-9220
▁acqu ired	-9221
▁d uration	-9222
j pg	-9223
▁cal m	-9224
▁N HL	-9225
▁burn ing	-9226
▁fold er	-9227
ick ed	-9228
▁P y	-9229
▁Ill inois	-9230
Cl ass	-9231
▁Godd ess	-9232
▁perform ing	-9233
▁welf are	-9234
j ar	-9235
In ter	-9236
▁l in	-9237
▁enh ance	-9238
▁not ion	-9239
f are	-9240
yp es	-9241
▁Are a	-9242
▁cann abis	-9243
▁Die go	-9244
f s	-9245
▁M anchester	-9246
com m	-9247
in ite	-9248
▁cover ing	-9249
▁S ound	-9250
▁19 60	-9251
▁8 4	-9252
e lect	-9253
z ing	-9254
▁citiz en	-9255
▁ph ones	-9256
▁r aid	-9257
▁ign ored	-9258
▁Ob ject	-9259
▁u pload	-9260
c ard	-9261
▁mod ified	-9262
▁room s	-9263
ia h	-9264
r ange	-9265
he ast	-9266
ach us	-9267
▁suggest ing	-9268
âĢ ĭ	-9269
gr ade	-9270
E l	-9271
▁clot hing	-9272
▁r h	-9273
▁H an	-9274
un ity	-9275
en cing	-9276
▁Aust in	-9277
sec ution	-9278
t ra	-9279
d em	-9280
▁Q ual	-9281
▁he aven	-9282
▁st ages	-9283
▁w edd	-9284
pl us	-9285
ific ial	-9286
▁Im m	-9287
▁H o	-9288
iet ies	-9289
▁phr ase	-9290
▁br ill	-9291
act ory	-9292
▁prov iders	-9293
▁sil ence	-9294
▁a er	-9295
▁A I	-9296
▁Ad venture	-9297
▁platform s	-9298
▁demonstr ated	-9299
▁inter f	-9300
ing ton	-9301
▁r aces	-9302
▁gr ade	-9303
ult ane	-9304
▁Th rough	-9305
f alse	-9306
▁b ow	-9307
▁A B	-9308
▁fl avor	-9309
▁histor ic	-9310
g ov	-9311
▁col our	-9312
▁view ed	-9313
▁Em ail	-9314
el come	-9315
▁inter vention	-9316
▁d iversity	-9317
▁period s	-9318
▁re verse	-9319
▁V ery	-9320
▁qu ote	-9321
▁Le ft	-9322
th rough	-9323
▁sc rew	-9324
▁land ing	-9325
▁p ill	-9326
▁w et	-9327
▁prot esters	-9328
▁repe at	-9329
av ed	-9330
er k	-9331
▁sal ary	-9332
▁Penn sylvania	-9333
St ill	-9334
▁may or	-9335
▁kit chen	-9336
▁feat uring	-9337
▁M useum	-9338
▁T ournament	-9339
▁F al	-9340
▁ser vers	-9341
U C	-9342
▁any body	-9343
im g	-9344
▁Tr ade	-9345
ixt ure	-9346
the less	-9347
▁fin ance	-9348
▁cl osing	-9349
▁Pat ri	-9350
i ac	-9351
ab el	-9352
▁> >	-9353
or ous	-9354
▁f irms	-9355
sc reen	-9356
un a	-9357
▁emb arrass	-9358
ul se	-9359
▁let ting	-9360
▁th rew	-9361
ile y	-9362
▁ch annels	-9363
l an	-9364
▁Veg as	-9365
▁se ar	-9366
▁fant astic	-9367
ar re	-9368
uzz le	-9369
▁D er	-9370
Th ose	-9371
▁sw ing	-9372
▁she et	-9373
ind ex	-9374
co ver	-9375
og an	-9376
▁vari ables	-9377
▁Te ch	-9378
▁sp oken	-9379
ac hel	-9380
▁D a	-9381
▁Mount ain	-9382
▁load ed	-9383
▁foot age	-9384
vers ion	-9385
▁un l	-9386
▁Ph oenix	-9387
▁throw ing	-9388
▁f iring	-9389
▁track ing	-9390
▁w idth	-9391
▁strugg ling	-9392
ro oms	-9393
ot ion	-9394
▁month ly	-9395
▁Ser ver	-9396
▁egg s	-9397
op en	-9398
M C	-9399
▁199 3	-9400
▁h ired	-9401
▁stay ed	-9402
▁All en	-9403
▁st ro	-9404
▁9 8	-9405
st ep	-9406
▁Turk ish	-9407
▁fab ric	-9408
ist ing	-9409
▁D om	-9410
▁d ates	-9411
▁pr on	-9412
▁basket ball	-9413
▁l ucky	-9414
▁Arab ia	-9415
▁assum ed	-9416
est y	-9417
▁aff airs	-9418
▁gl ad	-9419
▁Ind eed	-9420
▁F A	-9421
▁W ord	-9422
▁jo ining	-9423
if ice	-9424
p read	-9425
ir ts	-9426
▁Se lect	-9427
▁pop ulations	-9428
aw are	-9429
▁n ose	-9430
▁compl aints	-9431
st art	-9432
▁sc oring	-9433
Th anks	-9434
▁min ing	-9435
▁visit ors	-9436
S H	-9437
▁dam aged	-9438
▁character istics	-9439
▁P ent	-9440
D C	-9441
▁8 3	-9442
▁S ix	-9443
r ates	-9444
▁fl ags	-9445
▁B rew	-9446
d og	-9447
M ark	-9448
// //	-9449
▁exec ution	-9450
▁j oke	-9451
ph ones	-9452
▁testim ony	-9453
▁ob st	-9454
Q L	-9455
▁C ut	-9456
▁stud ied	-9457
▁N intendo	-9458
ick et	-9459
▁N BC	-9460
▁l ad	-9461
▁B ra	-9462
▁M oh	-9463
▁k ernel	-9464
▁overwhel ming	-9465
▁ag ed	-9466
▁applic able	-9467
▁C ond	-9468
▁road s	-9469
▁Bl ock	-9470
m ade	-9471
od ge	-9472
▁comm ands	-9473
▁off ices	-9474
vel and	-9475
▁t ut	-9476
▁rece iver	-9477
▁F ro	-9478
▁sho pping	-9479
▁i P	-9480
▁St re	-9481
▁A BC	-9482
▁entertain ment	-9483
▁B ow	-9484
ort ed	-9485
M c	-9486
▁read s	-9487
gr ad	-9488
▁Col lect	-9489
▁â ĪĴ	-9490
▁Cap ital	-9491
eder ation	-9492
▁employ er	-9493
▁involve ment	-9494
▁anx iety	-9495
al ia	-9496
▁ro of	-9497
▁Am ong	-9498
▁Democr at	-9499
▁stat s	-9500
▁V ill	-9501
▁const itutional	-9502
▁refer ring	-9503
itt y	-9504
▁tack le	-9505
out ube	-9506
▁back ed	-9507
▁H ong	-9508
▁Bro ad	-9509
▁e le	-9510
▁O tt	-9511
▁199 2	-9512
h our	-9513
achus etts	-9514
C al	-9515
▁defe ated	-9516
▁8 1	-9517
es p	-9518
▁seem ingly	-9519
w as	-9520
▁J enn	-9521
▁K urd	-9522
▁g ene	-9523
▁disc ount	-9524
R et	-9525
EC T	-9526
( );	-9527
▁club s	-9528
▁s id	-9529
▁M arsh	-9530
Che ck	-9531
▁p p	-9532
▁E ag	-9533
ides pread	-9534
▁be ings	-9535
F T	-9536
▁introdu ction	-9537
▁Ch ange	-9538
AR D	-9539
▁1 10	-9540
ad ows	-9541
ier ce	-9542
▁me al	-9543
a uthor	-9544
▁B ang	-9545
lah oma	-9546
▁r anks	-9547
201 1	-9548
?? ??	-9549
m ax	-9550
▁coll apse	-9551
▁op ens	-9552
▁e cho	-9553
▁s oph	-9554
▁rac ist	-9555
▁enorm ous	-9556
▁w aves	-9557
▁t ap	-9558
▁comprehens ive	-9559
. --	-9560
▁R oy	-9561
▁farm ers	-9562
Rel ated	-9563
a ired	-9564
ron es	-9565
▁C rim	-9566
▁proport ion	-9567
▁design s	-9568
▁negoti ations	-9569
▁virt ually	-9570
▁Bat man	-9571
▁war n	-9572
▁legit imate	-9573
m ate	-9574
▁con vention	-9575
, ,	-9576
net ic	-9577
▁S D	-9578
▁consist ently	-9579
▁compens ation	-9580
▁punish ment	-9581
▁y e	-9582
▁t ie	-9583
▁B ureau	-9584
ir lf	-9585
▁B u	-9586
▁A ren	-9587
▁Ph ilipp	-9588
▁kn ife	-9589
▁mem ories	-9590
▁R oss	-9591
▁ang le	-9592
▁8 6	-9593
▁Th under	-9594
▁re nd	-9595
▁T our	-9596
▁count s	-9597
s ung	-9598
▁Im p	-9599
▁educ ational	-9600
▁access ible	-9601
C OM	-9602
▁d rew	-9603
y er	-9604
G l	-9605
am ine	-9606
OR T	-9607
O B	-9608
I B	-9609
m aster	-9610
▁tri als	-9611
og y	-9612
h ar	-9613
▁Tr ust	-9614
▁prefer red	-9615
irlf riend	-9616
▁N ev	-9617
▁b in	-9618
▁c ow	-9619
P age	-9620
▁sign ature	-9621
▁B L	-9622
7 00	-9623
▁ret ired	-9624
▁by tes	-9625
▁neigh b	-9626
▁Leg end	-9627
▁dev ast	-9628
▁suspect ed	-9629
is ons	-9630
▁PokÃ© mon	-9631
sc ale	-9632
▁cap abilities	-9633
▁re vel	-9634
▁che ese	-9635
d y	-9636
igr ant	-9637
▁fail ing	-9638
b its	-9639
▁Her oes	-9640
▁G host	-9641
▁S cient	-9642
▁appoint ed	-9643
ur i	-9644
▁inst itution	-9645
▁expand ed	-9646
g reg	-9647
▁monitor ing	-9648
▁p odcast	-9649
▁coal ition	-9650
▁9 6	-9651
J o	-9652
▁st olen	-9653
▁S ab	-9654
▁stop s	-9655
▁hol iday	-9656
▁int r	-9657
C ar	-9658
Bl ack	-9659
▁L GBT	-9660
▁war ming	-9661
▁And erson	-9662
▁8 9	-9663
▁produ cer	-9664
M ed	-9665
▁accur acy	-9666
▁Mar vel	-9667
iz abeth	-9668
▁Pat rick	-9669
m ony	-9670
▁min i	-9671
ac les	-9672
▁over t	-9673
the y	-9674
▁members hip	-9675
▁V en	-9676
▁ex ch	-9677
▁rem oval	-9678
▁D ave	-9679
T Y	-9680
m ad	-9681
▁F ind	-9682
▁ad equ	-9683
▁e c	-9684
▁te eth	-9685
▁emot ion	-9686
▁per m	-9687
▁sole ly	-9688
d b	-9689
▁extra ord	-9690
IG HT	-9691
c al	-9692
▁gu idelines	-9693
▁d ying	-9694
▁susp ended	-9695
▁Prem ier	-9696
▁Anth ony	-9697
el ve	-9698
▁d ad	-9699
▁E th	-9700
▁Foot ball	-9701
▁abandon ed	-9702
▁< <	-9703
▁m arch	-9704
▁hor ror	-9705
âĢ¦ "	-9706
▁child hood	-9707
▁campaign s	-9708
▁l unch	-9709
▁Al bert	-9710
bl ock	-9711
âĸĪ âĸĪ	-9712
ound ing	-9713
▁b one	-9714
or gan	-9715
ad ers	-9716
▁Fl ash	-9717
▁Dri ve	-9718
▁ton ight	-9719
▁w ars	-9720
▁F L	-9721
▁form ation	-9722
con st	-9723
New s	-9724
▁com pe	-9725
or ious	-9726
▁St aff	-9727
▁discuss ions	-9728
▁Prot ection	-9729
▁J am	-9730
▁crit eria	-9731
▁install ation	-9732
▁accompl ish	-9733
iz za	-9734
▁pub lisher	-9735
▁resc ue	-9736
▁T ry	-9737
U LL	-9738
▁S om	-9739
▁H op	-9740
ore t	-9741
th s	-9742
ord on	-9743
▁p ocket	-9744
▁In v	-9745
Down load	-9746
▁Cr ime	-9747
▁b ene	-9748
▁Gu ide	-9749
▁As sembly	-9750
▁param eters	-9751
I E	-9752
▁Alex ander	-9753
▁conc ert	-9754
▁Sc he	-9755
▁sh oes	-9756
▁vis iting	-9757
▁rec all	-9758
▁b ub	-9759
▁r ural	-9760
▁conc rete	-9761
▁R os	-9762
N ext	-9763
R uss	-9764
▁lo ans	-9765
▁Sh ield	-9766
▁tre m	-9767
hem at	-9768
k g	-9769
▁Har ris	-9770
is ition	-9771
▁M ove	-9772
▁F C	-9773
▁f ate	-9774
▁Ch o	-9775
▁t ired	-9776
▁princ ipal	-9777
h ist	-9778
ien ces	-9779
ath y	-9780
▁se vent	-9781
▁m ood	-9782
▁strateg ic	-9783
▁dise ases	-9784
▁for um	-9785
▁tem por	-9786
▁head quarters	-9787
P ar	-9788
ig e	-9789
fl ix	-9790
▁gu itar	-9791
▁9 4	-9792
On ly	-9793
▁rele ases	-9794
ro ph	-9795
================ ================	-9796
▁6 00	-9797
▁Contin ue	-9798
ig ate	-9799
▁C rit	-9800
sy stem	-9801
▁dis abled	-9802
▁unex pected	-9803
ith ub	-9804
▁uncle ar	-9805
▁E st	-9806
▁contr ad	-9807
▁strateg ies	-9808
vent ures	-9809
▁pass age	-9810
AM E	-9811
▁impro ving	-9812
▁reve als	-9813
▁decre ase	-9814
ov a	-9815
▁ann oy	-9816
▁Sh ort	-9817
▁L ibrary	-9818
▁cy ber	-9819
n ell	-9820
▁H ur	-9821
▁C B	-9822
▁phot ograp	-9823
U I	-9824
▁s ed	-9825
G e	-9826
▁8 7	-9827
▁d iverse	-9828
▁encour aged	-9829
▁cons piracy	-9830
▁bird s	-9831
▁oper ator	-9832
▁hand ful	-9833
▁class ified	-9834
? )	-9835
▁dram atic	-9836
▁investig ators	-9837
it o	-9838
▁w idespread	-9839
▁R oom	-9840
-------------------------------- --------------------------------	-9841
▁collect ive	-9842
▁journal ist	-9843
St ring	-9844
▁temper atures	-9845
il a	-9846
▁gu id	-9847
▁ins pect	-9848
▁miss ile	-9849
▁May or	-9850
▁man ual	-9851
▁sim ultane	-9852
▁rat ings	-9853
▁su ck	-9854
▁9 7	-9855
▁univers al	-9856
▁ph arm	-9857
▁dis rupt	-9858
ian o	-9859
A V	-9860
▁f t	-9861
▁stat ist	-9862
old s	-9863
▁Walk er	-9864
ph p	-9865
▁under t	-9866
▁L as	-9867
ish op	-9868
nt il	-9869
res hold	-9870
▁Whe ther	-9871
M s	-9872
▁den y	-9873
▁Cl oud	-9874
▁prov ider	-9875
▁surv iv	-9876
▁Up date	-9877
h as	-9878
▁mist akes	-9879
ch arge	-9880
pl ed	-9881
r ity	-9882
▁n ode	-9883
▁Mass achusetts	-9884
ool s	-9885
lic ation	-9886
▁f ails	-9887
em ale	-9888
or i	-9889
back s	-9890
▁sh irt	-9891
▁' '	-9892
▁N AT	-9893
▁wat ers	-9894
els on	-9895
▁e ase	-9896
▁sc ar	-9897
▁cont ents	-9898
m ind	-9899
▁cont ribution	-9900
▁sh r	-9901
▁hand ed	-9902
▁st ability	-9903
▁tra ve	-9904
E m	-9905
▁mir ror	-9906
12 3	-9907
▁we igh	-9908
▁f iction	-9909
ou ver	-9910
ist ant	-9911
r ition	-9912
▁F ed	-9913
▁phys ically	-9914
▁st ake	-9915
▁Art icle	-9916
▁Ar c	-9917
▁Lew is	-9918
▁M ind	-9919
▁demonstr ate	-9920
▁prof its	-9921
v ision	-9922
om ic	-9923
ol id	-9924
▁batt les	-9925
▁dri ves	-9926
▁eas tern	-9927
▁S ony	-9928
!! !	-9929
ar ation	-9930
v ard	-9931
▁G L	-9932
port ation	-9933
▁9 2	-9934
▁law makers	-9935
▁protect ing	-9936
▁E PA	-9937
▁y eah	-9938
▁sh ame	-9939
ol ph	-9940
e ven	-9941
x it	-9942
▁att ach	-9943
▁represent ing	-9944
▁ob s	-9945
▁Ut ah	-9946
iff s	-9947
▁Fre edom	-9948
Ã ³	-9949
A K	-9950
▁inc idents	-9951
it age	-9952
▁view ers	-9953
c d	-9954
▁m ouse	-9955
▁cl ar	-9956
▁accord ance	-9957
▁b ot	-9958
c or	-9959
▁Sum mer	-9960
he ld	-9961
▁innoc ent	-9962
▁initi ative	-9963
ol s	-9964
________________ ________________	-9965
▁sp ots	-9966
p ace	-9967
▁convent ional	-9968
▁corpor ations	-9969
▁block ed	-9970
H D	-9971
at tered	-9972
▁ref ers	-9973
▁bu ck	-9974
▁Dig ital	-9975
12 0	-9976
▁top ics	-9977
T F	-9978
Ä ģ	-9979
br id	-9980
re ement	-9981
▁under lying	-9982
▁M ember	-9983
▁investig ating	-9984
▁pregn ancy	-9985
▁touch down	-9986
▁B and	-9987
▁Call er	-9988
▁inst ances	-9989
P P	-9990
w a	-9991
G ood	-9992
▁199 1	-9993
▁C old	-9994
▁fear s	-9995
▁rem arks	-9996
Ĩ Ĵ	-9997
at al	-9998
▁m it	-9999
▁exper iments	-10000
i pt	-10001
Col or	-10002
ind u	-10003
Up date	-10004
▁9 3	-10005
A g	-10006
▁ å	-10007
anc ouver	-10008
B oth	-10009
▁jud ges	-10010
Ob ject	-10011
▁st ere	-10012
umb n	-10013
▁particip ation	-10014
▁St ars	-10015
▁J ere	-10016
▁week ly	-10017
▁B an	-10018
▁convers ations	-10019
▁P itt	-10020
u z	-10021
▁Indian a	-10022
▁K ick	-10023
▁inf ection	-10024
▁hero es	-10025
▁sett led	-10026
▁stri p	-10027
▁h al	-10028
▁d ump	-10029
▁S ci	-10030
▁l es	-10031
▁ref erences	-10032
▁U RL	-10033
▁Br idge	-10034
▁want ing	-10035
For ce	-10036
▁ex clus	-10037
Me anwhile	-10038
m n	-10039
▁g entle	-10040
m aker	-10041
sen al	-10042
▁G ro	-10043
ou ri	-10044
▁R ain	-10045
▁All iance	-10046
▁l ift	-10047
el a	-10048
S D	-10049
▁Cle veland	-10050
▁rank ed	-10051
▁st adium	-10052
▁dead ly	-10053
ä ¸	-10054
▁r iding	-10055
ar ia	-10056
▁Ar mor	-10057
▁document ation	-10058
▁Gree ce	-10059
ree k	-10060
▁l ens	-10061
▁S a	-10062
▁g ross	-10063
▁E mer	-10064
ag ers	-10065
▁D ub	-10066
▁R h	-10067
▁AM D	-10068
▁arri val	-10069
▁des ert	-10070
▁supp lement	-10071
▁Res p	-10072
▁kn ee	-10073
▁marg in	-10074
f ont	-10075
og g	-10076
201 0	-10077
▁P ir	-10078
▁P rom	-10079
iv als	-10080
▁int ake	-10081
▁different ly	-10082
ug s	-10083
▁b its	-10084
clud ed	-10085
▁search ing	-10086
▁D u	-10087
um ble	-10088
▁function al	-10089
▁Balt imore	-10090
▁C ould	-10091
▁des ired	-10092
▁circ uit	-10093
▁L yn	-10094
▁G O	-10095
▁F alse	-10096
re pre	-10097
' :	-10098
alt ies	-10099
▁min im	-10100
▁dro ve	-10101
▁Sh ould	-10102
▁h ip	-10103
▁pro s	-10104
▁ut ility	-10105
▁N ature	-10106
▁M ode	-10107
P resident	-10108
o pp	-10109
r at	-10110
form ance	-10111
▁concent ration	-10112
▁f ont	-10113
▁B ud	-10114
▁am id	-10115
▁re vers	-10116
▁M L	-10117
B ar	-10118
▁inter action	-10119
▁jur isd	-10120
▁spell s	-10121
d ep	-10122
f il	-10123
▁civil ians	-10124
ut ter	-10125
▁Co oper	-10126
▁Bel ow	-10127
▁ent rance	-10128
▁con vert	-10129
▁controvers y	-10130
ow ered	-10131
▁contr ary	-10132
▁ar c	-10133
▁Exec utive	-10134
▁Offic er	-10135
▁pack ages	-10136
▁prog ressive	-10137
w idth	-10138
▁reserv ed	-10139
v ol	-10140
▁Sam sung	-10141
▁print ed	-10142
▁cent ers	-10143
▁introdu ce	-10144
▁Kenn edy	-10145
▁odd s	-10146
▁sure ly	-10147
▁independ ence	-10148
▁pass engers	-10149
repre ne	-10150
▁Be h	-10151
▁l oves	-10152
▁ESP N	-10153
▁fac ilit	-10154
▁ident ical	-10155
▁do ct	-10156
▁partners hip	-10157
con f	-10158
▁H ide	-10159
▁conf used	-10160
▁C ow	-10161
M en	-10162
▁w rest	-10163
▁Iraq i	-10164
▁h oles	-10165
▁Stud ies	-10166
▁pregn ant	-10167
h ard	-10168
▁sign als	-10169
I X	-10170
▁pull ing	-10171
▁grad uate	-10172
▁nomine e	-10173
D ate	-10174
▁per mitted	-10175
▁â Ĥ¬	-10176
▁Ok lahoma	-10177
St art	-10178
▁author ized	-10179
▁al arm	-10180
▁C os	-10181
v an	-10182
▁gener ations	-10183
c ular	-10184
▁dr agon	-10185
▁Soft ware	-10186
▁Ed ward	-10187
▁contro ller	-10188
S en	-10189
ge red	-10190
▁V ik	-10191
▁appro ached	-10192
Th ank	-10193
▁can ce	-10194
▁form ula	-10195
▁Sm all	-10196
▁weak ness	-10197
▁r amp	-10198
it udes	-10199
j ud	-10200
▁brill iant	-10201
▁acc us	-10202
s ource	-10203
▁8 00	-10204
▁E vil	-10205
S w	-10206
▁hom eless	-10207
we ek	-10208
i ens	-10209
r ics	-10210
▁Th ird	-10211
T O	-10212
▁organ ic	-10213
▁present ation	-10214
ag h	-10215
▁Down load	-10216
v ation	-10217
▁as sembly	-10218
or able	-10219
hold ers	-10220
▁Bern ie	-10221
▁Hel p	-10222
▁t ong	-10223
▁F ight	-10224
▁be ach	-10225
B ook	-10226
▁L ic	-10227
▁r ush	-10228
▁R ound	-10229
ou p	-10230
▁Mar x	-10231
▁calcul ated	-10232
▁De vil	-10233
▁Sar ah	-10234
▁occasion ally	-10235
▁bul let	-10236
Av ailable	-10237
g ate	-10238
▁9 1	-10239
▁h osp	-10240
▁prom ises	-10241
▁H IV	-10242
▁St adium	-10243
▁St ock	-10244
▁Corpor ation	-10245
g age	-10246
N G	-10247
▁C redit	-10248
▁s ne	-10249
ib l	-10250
▁acc um	-10251
s uch	-10252
▁terror ists	-10253
▁conscious ness	-10254
▁Z h	-10255
▁dram a	-10256
ool a	-10257
pir ation	-10258
▁lab our	-10259
▁N in	-10260
▁ut ter	-10261
▁democr atic	-10262
▁ass ass	-10263
il ation	-10264
▁g est	-10265
▁ab road	-10266
▁met ab	-10267
▁s orts	-10268
▁fl av	-10269
U B	-10270
▁m g	-10271
▁Not hing	-10272
▁O d	-10273
▁mus ical	-10274
200 9	-10275
▁dro ps	-10276
oc ated	-10277
ater al	-10278
0000 00	-10279
▁g re	-10280
▁equ ality	-10281
▁burd en	-10282
▁v ig	-10283
▁Le ader	-10284
-------- ----	-10285
▁cere mony	-10286
▁f ighter	-10287
▁act ors	-10288
▁ æ	-10289
am an	-10290
F i	-10291
▁al ign	-10292
put er	-10293
▁e lder	-10294
▁N SA	-10295
▁represent ation	-10296
▁Ont ario	-10297
IT H	-10298
usal em	-10299
▁harass ment	-10300
itz er	-10301
▁sy mp	-10302
▁box es	-10303
▁D R	-10304
▁man ifest	-10305
at re	-10306
▁ ^	-10307
▁d ies	-10308
le ton	-10309
▁miss ions	-10310
et he	-10311
▁res olve	-10312
▁follow ers	-10313
▁as c	-10314
▁k m	-10315
l ord	-10316
am med	-10317
▁sil ent	-10318
▁Associ ated	-10319
▁tim ing	-10320
▁prison ers	-10321
▁K ings	-10322
▁F ive	-10323
▁tow er	-10324
▁appro aches	-10325
▁precise ly	-10326
▁b ureau	-10327
▁M other	-10328
▁I ss	-10329
▁key board	-10330
it ual	-10331
▁fund ed	-10332
▁stay ing	-10333
▁psych ological	-10334
▁m ile	-10335
▁Le on	-10336
▁Bar b	-10337
w ill	-10338
▁w ider	-10339
▁Atl antic	-10340
▁t ill	-10341
▁R ome	-10342
ro t	-10343
▁accomp an	-10344
▁fl our	-10345
ac o	-10346
W orld	-10347
▁Exp ress	-10348
▁Y u	-10349
C or	-10350
▁ple ased	-10351
part y	-10352
▁point ing	-10353
▁inf lation	-10354
▁ro y	-10355
▁ ),	-10356
ain er	-10357
▁wedd ing	-10358
orm on	-10359
▁requ iring	-10360
▁qual ified	-10361
▁se gment	-10362
EN D	-10363
▁s izes	-10364
e als	-10365
▁cor rupt	-10366
ass ador	-10367
▁cele b	-10368
▁dream s	-10369
▁M ess	-10370
▁check ing	-10371
▁V ersion	-10372
▁prep aring	-10373
▁act ively	-10374
▁D iff	-10375
▁l ux	-10376
▁W inter	-10377
act eria	-10378
▁N E	-10379
▁dep uty	-10380
▁trans gender	-10381
▁sum mary	-10382
▁in her	-10383
er ies	-10384
ch ar	-10385
▁Y an	-10386
▁kn ock	-10387
▁P ath	-10388
▁l ip	-10389
roll er	-10390
▁imp ression	-10391
▁celebr ate	-10392
▁sl ide	-10393
▁gu ests	-10394
▁cl ip	-10395
F S	-10396
▁sav ings	-10397
▁capt ain	-10398
▁leg acy	-10399
▁Den ver	-10400
▁w ounded	-10401
tab oola	-10402
AC T	-10403
▁purs ue	-10404
▁o xy	-10405
▁ q	-10406
▁sem i	-10407
▁N eed	-10408
▁Aff airs	-10409
▁ob sc	-10410
▁check ed	-10411
▁d ual	-10412
C ode	-10413
▁M D	-10414
le m	-10415
ult y	-10416
▁Â ©	-10417
▁El izabeth	-10418
▁cent uries	-10419
ard ed	-10420
s rc	-10421
▁ev ident	-10422
enn is	-10423
at in	-10424
▁unemploy ment	-10425
▁Mar io	-10426
▁int im	-10427
Ch rist	-10428
▁bi ological	-10429
▁sold ier	-10430
▁Add ed	-10431
▁m ath	-10432
▁G il	-10433
▁bi as	-10434
▁d ating	-10435
▁O cean	-10436
▁m ice	-10437
M us	-10438
h ire	-10439
▁T es	-10440
Ser ver	-10441
lim ited	-10442
S ize	-10443
▁met ers	-10444
▁rock et	-10445
es see	-10446
▁certific ate	-10447
▁Iran ian	-10448
AS S	-10449
▁gr id	-10450
D ec	-10451
▁ro lling	-10452
com mun	-10453
▁Swed en	-10454
b ury	-10455
▁tiss ue	-10456
▁rac ism	-10457
▁L ocal	-10458
▁myster y	-10459
▁exam ine	-10460
▁st em	-10461
▁s its	-10462
▁hop ed	-10463
ot ing	-10464
▁dial ogue	-10465
▁pers u	-10466
W atch	-10467
l ay	-10468
M AN	-10469
▁ch ronic	-10470
▁Port land	-10471
mark et	-10472
▁S EC	-10473
▁paralle l	-10474
▁sc andal	-10475
▁car ries	-10476
▁phenomen on	-10477
h uman	-10478
ack er	-10479
▁O x	-10480
▁retire ment	-10481
tain ment	-10482
ov ie	-10483
▁G ear	-10484
▁d uties	-10485
▁do se	-10486
▁sc roll	-10487
M B	-10488
in f	-10489
▁sa uce	-10490
▁land scape	-10491
red dit	-10492
▁Champions hip	-10493
▁Red dit	-10494
al id	-10495
▁co in	-10496
▁over s	-10497
▁post ing	-10498
ab out	-10499
▁f el	-10500
and y	-10501
▁b old	-10502
▁focus ing	-10503
e ffect	-10504
G R	-10505
▁de emed	-10506
▁recommend ations	-10507
▁ste pped	-10508
▁vot er	-10509
▁De ep	-10510
▁Inst agram	-10511
▁moder ate	-10512
▁Mary land	-10513
▁restrict ed	-10514
▁M B	-10515
▁Ch all	-10516
▁to b	-10517
▁c ir	-10518
▁O cc	-10519
▁E ver	-10520
▁coll aps	-10521
IN FO	-10522
= -	-10523
▁P ict	-10524
▁Acc ount	-10525
n c	-10526
▁o ught	-10527
▁ex port	-10528
▁dr unk	-10529
( '	-10530
▁w ise	-10531
▁M ort	-10532
ne cess	-10533
▁an cest	-10534
▁Inc re	-10535
▁frequ ent	-10536
m ir	-10537
▁interpret ation	-10538
▁depend ent	-10539
▁co ins	-10540
▁B ol	-10541
V ideo	-10542
▁Just in	-10543
▁fat al	-10544
▁cook ing	-10545
▁conf usion	-10546
ip her	-10547
▁cust ody	-10548
▁Mor gan	-10549
om ach	-10550
▁Govern or	-10551
▁restaur ants	-10552
el ing	-10553
▁acknowled ged	-10554
▁the r	-10555
▁gen es	-10556
ch ing	-10557
He y	-10558
▁tact ics	-10559
▁Mex ican	-10560
▁v end	-10561
▁he s	-10562
qu er	-10563
▁not ing	-10564
▁Camer on	-10565
▁target ing	-10566
ro ck	-10567
▁cred its	-10568
▁emot ions	-10569
▁represent atives	-10570
new s	-10571
▁legisl ative	-10572
▁rem oving	-10573
▁tweet ed	-10574
▁Car ter	-10575
▁F ixed	-10576
▁for cing	-10577
▁speak er	-10578
▁m ales	-10579
▁Viet nam	-10580
l ined	-10581
▁concept s	-10582
▁vo ices	-10583
o ir	-10584
▁T rib	-10585
W he	-10586
▁Jer usalem	-10587
▁S ant	-10588
▁c ul	-10589
▁l ady	-10590
▁Haw ai	-10591
▁ar ts	-10592
▁In n	-10593
▁Mach ine	-10594
▁Em peror	-10595
▁sl ot	-10596
g ly	-10597
▁Pro cess	-10598
II I	-10599
▁athlet es	-10600
▁Tem ple	-10601
▁Rep resent	-10602
▁pres c	-10603
▁t ons	-10604
▁gold en	-10605
▁p unch	-10606
▁G R	-10607
iver pool	-10608
▁en act	-10609
▁lob by	-10610
▁m os	-10611
▁pick ing	-10612
▁lif etime	-10613
▁cogn itive	-10614
E ach	-10615
z o	-10616
▁d ub	-10617
▁cons ists	-10618
ol n	-10619
▁f estival	-10620
am ous	-10621
▁int ellig	-10622
w ords	-10623
▁Sm art	-10624
▁de le	-10625
▁l apt	-10626
▁mag ical	-10627
▁S in	-10628
b us	-10629
ur ities	-10630
igh th	-10631
▁Rub y	-10632
▁S ure	-10633
ol ving	-10634
▁j un	-10635
O ST	-10636
▁imp osed	-10637
▁ast ron	-10638
▁cor rel	-10639
▁N S	-10640
▁K it	-10641
▁F uture	-10642
b urn	-10643
▁imm une	-10644
oc us	-10645
▁cour ses	-10646
▁St ring	-10647
▁le an	-10648
▁g host	-10649
▁out comes	-10650
▁exp ense	-10651
▁every day	-10652
▁accept able	-10653
A h	-10654
▁equ ipped	-10655
▁or ange	-10656
F R	-10657
▁D utch	-10658
Th ough	-10659
▁R ank	-10660
Q U	-10661
▁Rober ts	-10662
wh at	-10663
re nd	-10664
▁disapp ear	-10665
▁sp awn	-10666
▁L am	-10667
o is	-10668
▁des erve	-10669
▁min imal	-10670
▁nerv ous	-10671
▁W ould	-10672
▁ro ok	-10673
▁V ancouver	-10674
▁res ign	-10675
sh ire	-10676
▁W orks	-10677
▁B uild	-10678
▁afford able	-10679
▁G ary	-10680
▁Aren a	-10681
▁h anging	-10682
▁impl ications	-10683
▁S ong	-10684
▁main taining	-10685
▁gu ards	-10686
C ON	-10687
▁der ived	-10688
▁execut ed	-10689
▁the ories	-10690
▁qu oted	-10691
▁And re	-10692
og a	-10693
sel ess	-10694
in fo	-10695
▁Bel g	-10696
▁t ears	-10697
▁Sur v	-10698
▁birth day	-10699
ig ious	-10700
im mer	-10701
▁spect rum	-10702
▁architect ure	-10703
▁rec ruit	-10704
arm a	-10705
T able	-10706
▁mon sters	-10707
▁G ov	-10708
▁dest ination	-10709
▁attract ive	-10710
▁f oss	-10711
▁More over	-10712
▁pres ents	-10713
TH E	-10714
▁rep ly	-10715
pt on	-10716
▁c um	-10717
▁del ight	-10718
▁affect s	-10719
▁don ations	-10720
▁T oy	-10721
▁H im	-10722
M ENT	-10723
▁over come	-10724
it ched	-10725
▁Fant asy	-10726
▁H at	-10727
▁Be ast	-10728
b ott	-10729
▁investig ations	-10730
R un	-10731
▁hun ting	-10732
d i	-10733
f und	-10734
▁s essions	-10735
est yle	-10736
▁port ray	-10737
oid s	-10738
Y eah	-10739
▁commun icate	-10740
▁com edy	-10741
▁Y ang	-10742
▁bel t	-10743
▁Mar ine	-10744
▁predict ed	-10745
Pl ay	-10746
▁important ly	-10747
▁remark able	-10748
▁elim inate	-10749
D avid	-10750
▁b ind	-10751
V ID	-10752
▁advoc ates	-10753
▁G aza	-10754
im p	-10755
D B	-10756
▁N a	-10757
▁Sim ilar	-10758
I ES	-10759
▁char ity	-10760
v as	-10761
m ath	-10762
▁â ĸ	-10763
ok er	-10764
nd um	-10765
▁cap s	-10766
▁H al	-10767
2 000	-10768
e an	-10769
▁fle et	-10770
▁rec re	-10771
R ight	-10772
▁sleep ing	-10773
ij ing	-10774
k ind	-10775
▁design ated	-10776
Ã ¤	-10777
▁anim ation	-10778
ke e	-10779
▁Int rodu	-10780
▁/ >	-10781
▁delay ed	-10782
▁trem end	-10783
▁cur ious	-10784
U se	-10785
▁le ct	-10786
d am	-10787
▁innov ation	-10788
▁Point s	-10789
▁load ing	-10790
▁disp ute	-10791
ct ic	-10792
ird s	-10793
▁B Y	-10794
▁n urs	-10795
▁Val ue	-10796
ION S	-10797
▁H um	-10798
▁tem plate	-10799
m ers	-10800
▁appear ances	-10801
▁Enter tainment	-10802
▁transl ation	-10803
▁sa ke	-10804
▁bene ath	-10805
▁in hib	-10806
▁e uro	-10807
abet es	-10808
▁stud ying	-10809
▁M as	-10810
▁per ceived	-10811
▁exam ined	-10812
▁e ager	-10813
▁co aches	-10814
▁im per	-10815
ch i	-10816
▁produ ces	-10817
" ).	-10818
▁Every one	-10819
▁m unicip	-10820
▁g irlfriend	-10821
▁h ire	-10822
▁V ice	-10823
▁su itable	-10824
op y	-10825
▁in equ	-10826
▁D uke	-10827
f ish	-10828
f irst	-10829
▁O bs	-10830
▁inter ior	-10831
▁Bru ce	-10832
▁R y	-10833
▁anal ys	-10834
▁consider able	-10835
▁fore cast	-10836
▁f ert	-10837
ors hip	-10838
▁D rug	-10839
▁A LL	-10840
: "	-10841
th ur	-10842
▁M ail	-10843
▁ball ot	-10844
▁inst antly	-10845
▁Ch annel	-10846
▁p icks	-10847
▁198 9	-10848
▁t ent	-10849
ol i	-10850
▁civil ian	-10851
b ling	-10852
ell o	-10853
b u	-10854
▁in ch	-10855
▁log o	-10856
▁cooper ation	-10857
▁wal ks	-10858
▁invest ments	-10859
▁imp rison	-10860
▁F estival	-10861
▁K y	-10862
▁leg ally	-10863
▁g ri	-10864
ch arg	-10865
S l	-10866
▁threat ening	-10867
du ction	-10868
fl ow	-10869
▁dismiss ed	-10870
ibr aries	-10871
c ap	-10872
e le	-10873
▁Mc G	-10874
▁Har vard	-10875
▁Conserv ative	-10876
▁C BS	-10877
p ng	-10878
▁ro ots	-10879
▁H aving	-10880
umb led	-10881
▁F un	-10882
\ /	-10883
▁S earch	-10884
ple x	-10885
▁discuss ing	-10886
▁contin u	-10887
▁T ai	-10888
▁W ik	-10889
F ree	-10890
f it	-10891
▁ref use	-10892
▁manag ing	-10893
▁sy nd	-10894
ip edia	-10895
w alk	-10896
▁profession als	-10897
▁guid ance	-10898
▁univers ities	-10899
▁as semb	-10900
unt u	-10901
F inally	-10902
AS E	-10903
▁Aut o	-10904
▁H ad	-10905
▁ann iversary	-10906
L D	-10907
▁D ur	-10908
▁Ult imate	-10909
ih ad	-10910
pro duct	-10911
▁trans it	-10912
▁rest ore	-10913
▁expl aining	-10914
▁ass et	-10915
▁transfer red	-10916
▁bur st	-10917
ap olis	-10918
▁Mag azine	-10919
▁C ra	-10920
▁B R	-10921
gg ed	-10922
▁H E	-10923
M ich	-10924
b et	-10925
▁L ady	-10926
yl um	-10927
erv es	-10928
▁me ets	-10929
wh ite	-10930
L og	-10931
▁correspond ing	-10932
▁ins isted	-10933
G G	-10934
▁surround ed	-10935
▁t ens	-10936
▁l ane	-10937
▁co inc	-10938
h ome	-10939
▁exist ed	-10940
ect ed	-10941
▁Dou ble	-10942
lam m	-10943
▁ske pt	-10944
ex p	-10945
▁per ception	-10946
ie v	-10947
▁Be ing	-10948
o ft	-10949
▁adop t	-10950
. :	-10951
] ;	-10952
Wind ows	-10953
▁satell ite	-10954
AS H	-10955
▁inf ant	-10956
d escription	-10957
▁Me anwhile	-10958
c m	-10959
oc a	-10960
▁T reat	-10961
act or	-10962
▁tob acco	-10963
▁N orm	-10964
em ption	-10965
▁fl esh	-10966
▁j e	-10967
o op	-10968
▁He aven	-10969
▁be ating	-10970
an im	-10971
▁gather ing	-10972
▁cult iv	-10973
G O	-10974
ab e	-10975
▁Jon athan	-10976
▁Saf ety	-10977
▁bad ly	-10978
pro t	-10979
▁cho osing	-10980
▁contact ed	-10981
▁qu it	-10982
▁dist ur	-10983
▁st ir	-10984
▁to ken	-10985
D et	-10986
▁P a	-10987
▁function ality	-10988
00 3	-10989
s ome	-10990
▁limit ations	-10991
▁met h	-10992
b uild	-10993
con fig	-10994
N T	-10995
re ll	-10996
ble m	-10997
▁M om	-10998
▁veter ans	-10999
▁H u	-11000
▁trend s	-11001
are r	-11002
▁G iven	-11003
▁Ca ption	-11004
m ay	-11005
AS T	-11006
▁wond ering	-11007
▁Cl ark	-11008
n ormal	-11009
▁separ ated	-11010
▁des p	-11011
st ic	-11012
b rew	-11013
▁rel ating	-11014
▁N ik	-11015
▁F arm	-11016
▁enthus i	-11017
g ood	-11018
d eb	-11019
▁activ ist	-11020
▁m art	-11021
▁explos ion	-11022
▁Econom ic	-11023
L ink	-11024
▁ins ight	-11025
▁conven ient	-11026
▁counter part	-11027
su pport	-11028
▁V irt	-11029
ag en	-11030
▁Tenn essee	-11031
▁Sim on	-11032
▁A ward	-11033
OC K	-11034
▁F igure	-11035
▁overse as	-11036
▁pr ide	-11037
▁C as	-11038
n ote	-11039
m g	-11040
C urrent	-11041
▁displ ays	-11042
cont ent	-11043
▁travel ing	-11044
▁hosp itals	-11045
▁Fin ancial	-11046
▁P ast	-11047
▁defend ant	-11048
▁stream ing	-11049
m ble	-11050
▁Ber lin	-11051
uk i	-11052
▁dist ribut	-11053
▁ant ib	-11054
▁ch ocolate	-11055
▁Cast le	-11056
▁inter rupt	-11057
▁R ow	-11058
▁convers ion	-11059
▁bug s	-11060
▁R ather	-11061
li est	-11062
L Y	-11063
▁Je an	-11064
com mon	-11065
ak h	-11066
▁1 30	-11067
ot ton	-11068
▁De an	-11069
▁am endment	-11070
▁game play	-11071
▁War ren	-11072
od a	-11073
▁high lights	-11074
▁ir re	-11075
▁NAT O	-11076
▁ball s	-11077
▁demand ing	-11078
U RE	-11079
▁L uke	-11080
F igure	-11081
st op	-11082
on ia	-11083
z one	-11084
iz ers	-11085
▁W R	-11086
▁award ed	-11087
▁regul atory	-11088
▁H art	-11089
▁S N	-11090
pl ing	-11091
▁s our	-11092
▁P ixel	-11093
us ive	-11094
▁f et	-11095
▁S ent	-11096
▁autom atic	-11097
▁f er	-11098
vern ment	-11099
▁Kh an	-11100
T ON	-11101
f ather	-11102
▁extraord inary	-11103
th rop	-11104
▁P ython	-11105
▁G PU	-11106
▁sex ually	-11107
▁desk top	-11108
it ivity	-11109
▁Anton io	-11110
▁o rient	-11111
▁e ars	-11112
ob by	-11113
ous es	-11114
vertis ements	-11115
▁manufacture rs	-11116
ic ient	-11117
min ute	-11118
▁conv iction	-11119
▁g arden	-11120
p ublic	-11121
▁satisf ied	-11122
f old	-11123
O K	-11124
▁in hab	-11125
▁Th ink	-11126
▁program me	-11127
▁st omach	-11128
▁coord in	-11129
▁h oly	-11130
▁th reshold	-11131
▁r het	-11132
▁ser ial	-11133
▁employ ers	-11134
▁Every thing	-11135
ra h	-11136
▁b other	-11137
▁br ands	-11138
Val ue	-11139
▁T ed	-11140
▁Plan et	-11141
▁p ink	-11142
▁Further more	-11143
s a	-11144
P E	-11145
re ck	-11146
▁US D	-11147
ot te	-11148
▁& &	-11149
▁land ed	-11150
g ets	-11151
▁produ cers	-11152
▁health care	-11153
▁domin ant	-11154
▁dest ro	-11155
▁am ended	-11156
ch ron	-11157
▁f its	-11158
▁Sy d	-11159
▁Author ity	-11160
AT CH	-11161
▁fight s	-11162
▁L LC	-11163
▁-- -	-11164
▁Cor p	-11165
▁tox ic	-11166
spe cific	-11167
▁C orn	-11168
▁Che l	-11169
▁tele phone	-11170
▁P ant	-11171
▁myster ious	-11172
aun ch	-11173
od ox	-11174
med ia	-11175
▁witness es	-11176
ag u	-11177
▁question ed	-11178
▁Bre xit	-11179
▁Rem ember	-11180
ene z	-11181
▁end orse	-11182
iat ric	-11183
▁Id ent	-11184
▁ridic ulous	-11185
1 10	-11186
▁pr ayer	-11187
▁scient ist	-11188
▁19 50	-11189
▁A qu	-11190
▁under ground	-11191
▁U FC	-11192
m are	-11193
▁L ater	-11194
w ich	-11195
▁subsc rib	-11196
▁host s	-11197
▁er r	-11198
▁gr ants	-11199
ant om	-11200
▁sum mon	-11201
ear ly	-11202
▁C lear	-11203
▁Pr im	-11204
▁susp ension	-11205
▁guarant eed	-11206
app er	-11207
▁r ice	-11208
▁Se an	-11209
▁Sh in	-11210
▁refere ndum	-11211
▁fl ed	-11212
r ust	-11213
▁3 60	-11214
ter y	-11215
▁sh ocked	-11216
B R	-11217
▁O il	-11218
▁All ah	-11219
▁part ly	-11220
▁ign or	-11221
▁trans mission	-11222
▁hom osexual	-11223
ivers al	-11224
▁hop efully	-11225
ãĤ ¤	-11226
▁less on	-11227
L eg	-11228
▁ ..	-11229
Y et	-11230
t able	-11231
app ropri	-11232
re tt	-11233
▁bo ards	-11234
▁incor rect	-11235
▁b acteria	-11236
ar u	-11237
am ac	-11238
▁sn ap	-11239
.' "	-11240
▁par ad	-11241
t em	-11242
he art	-11243
▁av ailability	-11244
▁w isdom	-11245
▁( +	-11246
▁pri est	-11247
▁Âł ĠÂł	-11248
O pen	-11249
▁sp an	-11250
▁param eter	-11251
▁conv ince	-11252
▁( %)	-11253
r ac	-11254
▁f o	-11255
▁safe ly	-11256
▁conver ted	-11257
▁Olymp ic	-11258
▁res erve	-11259
▁he aling	-11260
▁M ine	-11261
M ax	-11262
▁in herent	-11263
▁Gra ham	-11264
▁integ rated	-11265
D em	-11266
▁pip eline	-11267
▁app lying	-11268
▁em bed	-11269
▁Charl ie	-11270
▁c ave	-11271
200 8	-11272
▁cons ensus	-11273
▁re wards	-11274
P al	-11275
▁HT ML	-11276
▁popular ity	-11277
look ing	-11278
▁Sw ord	-11279
▁Ar ts	-11280
' )	-11281
▁elect ron	-11282
clus ions	-11283
▁integ rity	-11284
▁exclus ively	-11285
▁gr ace	-11286
▁tort ure	-11287
▁burn ed	-11288
tw o	-11289
▁18 0	-11290
P rodu	-11291
▁ent reprene	-11292
raph ics	-11293
▁g ym	-11294
ric ane	-11295
▁T am	-11296
▁administr ative	-11297
▁manufacture r	-11298
▁ vel	-11299
▁N i	-11300
▁isol ated	-11301
▁Medic ine	-11302
▁back up	-11303
▁promot ing	-11304
▁command er	-11305
▁fle e	-11306
▁Rus sell	-11307
▁forg otten	-11308
▁Miss ouri	-11309
▁res idence	-11310
m ons	-11311
▁rese mb	-11312
▁w and	-11313
▁meaning ful	-11314
P T	-11315
▁b ol	-11316
▁he lic	-11317
▁wealth y	-11318
▁r ifle	-11319
str ong	-11320
row ing	-11321
pl an	-11322
as ury	-11323
âĢ¦ .	-11324
▁expand ing	-11325
▁Ham ilton	-11326
▁rece ives	-11327
S I	-11328
eat ures	-11329
▁An im	-11330
RE E	-11331
P ut	-11332
▁brief ly	-11333
ri ve	-11334
▁stim ul	-11335
▁`` (	-11336
▁ __	-11337
▁ch ip	-11338
▁ha z	-11339
▁pri ze	-11340
▁Th ings	-11341
AC E	-11342
ul in	-11343
d ict	-11344
ok u	-11345
▁associ ate	-11346
ock ets	-11347
y outube	-11348
St ory	-11349
ateg ory	-11350
▁m ild	-11351
ail ing	-11352
▁Y e	-11353
O rig	-11354
▁K a	-11355
or ig	-11356
▁propag anda	-11357
▁an onymous	-11358
▁strugg led	-11359
▁out rage	-11360
AT ED	-11361
▁Be ijing	-11362
r ary	-11363
▁le ather	-11364
▁world s	-11365
▁broad er	-11366
12 5	-11367
id al	-11368
▁Bet ter	-11369
▁t ear	-11370
E xt	-11371
▁propos als	-11372
▁it er	-11373
▁Squ ad	-11374
▁vol unt	-11375
m i	-11376
D id	-11377
▁P u	-11378
p in	-11379
▁speak ers	-11380
▁b orders	-11381
▁fig ured	-11382
= '	-11383
▁simultane ously	-11384
aed a	-11385
▁charg ing	-11386
▁ur ged	-11387
▁con j	-11388
25 6	-11389
▁G ordon	-11390
mer ce	-11391
▁document ary	-11392
Sh are	-11393
it ol	-11394
ON E	-11395
▁G arden	-11396
h att	-11397
▁Thom pson	-11398
ane ous	-11399
ap ore	-11400
▁t anks	-11401
▁less ons	-11402
tr ack	-11403
▁out standing	-11404
▁volunte ers	-11405
▁sp ray	-11406
▁manag ers	-11407
l arge	-11408
▁camp s	-11409
▁art ificial	-11410
▁R u	-11411
▁b ags	-11412
th al	-11413
▁compat ible	-11414
▁Bl ade	-11415
▁f ed	-11416
▁arg ues	-11417
F I	-11418
▁unf air	-11419
▁cor n	-11420
▁off set	-11421
▁direct ions	-11422
▁disappoint ed	-11423
▁Con vention	-11424
▁view ing	-11425
M E	-11426
oc ity	-11427
▁town s	-11428
▁lay ers	-11429
▁ro lled	-11430
▁jump ed	-11431
▁att ribute	-11432
▁un necess	-11433
inc oln	-11434
▁supp ose	-11435
▁Net her	-11436
ch a	-11437
▁bur ied	-11438
▁six th	-11439
B en	-11440
ress ing	-11441
OU R	-11442
▁w ound	-11443
▁cy cl	-11444
▁mechan isms	-11445
▁congress ional	-11446
▁E lement	-11447
▁agre ements	-11448
▁dec or	-11449
▁clos est	-11450
▁M it	-11451
Go ogle	-11452
} }	-11453
▁m ixture	-11454
▁flu id	-11455
S ign	-11456
▁Sch olar	-11457
▁p ist	-11458
ask et	-11459
ab ling	-11460
▁rac ing	-11461
he ro	-11462
ri el	-11463
ass y	-11464
▁che aper	-11465
b en	-11466
▁vert ical	-11467
amac are	-11468
▁Read ing	-11469
g ments	-11470
▁helic op	-11471
▁sacr ifice	-11472
ay a	-11473
p aren	-11474
V A	-11475
▁L es	-11476
▁Stud io	-11477
▁viol ations	-11478
▁An na	-11479
ac er	-11480
é ¾	-11481
▁R at	-11482
▁Be ck	-11483
▁D ick	-11484
▁A CT	-11485
▁comp osition	-11486
▁text ure	-11487
▁O wn	-11488
▁smart phone	-11489
▁N A	-11490
▁for b	-11491
im port	-11492
▁def ending	-11493
il st	-11494
re r	-11495
▁o h	-11496
▁Jere my	-11497
▁bank ing	-11498
cept ions	-11499
▁respect ive	-11500
/ .	-11501
▁dr inks	-11502
▁W i	-11503
▁b ands	-11504
▁L iverpool	-11505
▁g rip	-11506
▁B uy	-11507
▁open ly	-11508
▁review ed	-11509
per t	-11510
▁ver ify	-11511
▁Co le	-11512
▁W ales	-11513
M O	-11514
▁un pre	-11515
▁shel ter	-11516
▁Im perial	-11517
▁gu i	-11518
▁D ak	-11519
▁suggest ions	-11520
▁explicit ly	-11521
▁sl ave	-11522
▁block chain	-11523
▁compet ing	-11524
▁prom ising	-11525
S ON	-11526
▁soc cer	-11527
▁const itution	-11528
4 29	-11529
▁dist ract	-11530
▁U ser	-11531
es ides	-11532
▁Met hod	-11533
▁Tok yo	-11534
▁accompan ied	-11535
Cl ient	-11536
s ur	-11537
al og	-11538
▁ident ification	-11539
▁inv asion	-11540
as ma	-11541
▁indust ries	-11542
pp ers	-11543
▁sub tle	-11544
▁Un it	-11545
n atural	-11546
▁surv ived	-11547
▁fl aw	-11548
ĺ ħ	-11549
▁H oll	-11550
▁def icit	-11551
▁tut orial	-11552
▁Ch ance	-11553
▁arg uing	-11554
▁contem porary	-11555
▁integ ration	-11556
for ward	-11557
▁t um	-11558
it is	-11559
▁h iding	-11560
▁D omin	-11561
▁T an	-11562
▁B uilding	-11563
▁V in	-11564
▁spokes person	-11565
▁Not es	-11566
▁emer ging	-11567
▁prepar ation	-11568
▁pro st	-11569
▁suspect s	-11570
▁aut onom	-11571
D escription	-11572
▁deal t	-11573
▁P ear	-11574
▁stead y	-11575
▁decre ased	-11576
▁so vere	-11577
▁Cl in	-11578
▁grad ually	-11579
ors es	-11580
▁W AR	-11581
S erv	-11582
ãĤ ¢	-11583
h r	-11584
▁d irty	-11585
▁B arn	-11586
▁B C	-11587
▁d il	-11588
▁cal endar	-11589
▁compl iance	-11590
▁ch amber	-11591
b b	-11592
▁pass enger	-11593
ate ful	-11594
▁T itle	-11595
▁Syd ney	-11596
▁G ot	-11597
▁dark ness	-11598
▁def ect	-11599
▁pack ed	-11600
ass ion	-11601
▁god s	-11602
▁h arsh	-11603
IC K	-11604
le ans	-11605
▁algorith m	-11606
▁oxy gen	-11607
▁vis its	-11608
▁bl ade	-11609
▁kil omet	-11610
▁Kent ucky	-11611
▁kill er	-11612
P ack	-11613
enn y	-11614
▁div ine	-11615
▁nom ination	-11616
be ing	-11617
▁eng ines	-11618
▁c ats	-11619
▁buff er	-11620
▁Ph ill	-11621
▁tra ff	-11622
AG E	-11623
▁tong ue	-11624
▁rad iation	-11625
ere r	-11626
m em	-11627
▁Expl icit	-11628
é¾ į	-11629
▁cou ples	-11630
▁phys ics	-11631
▁Mc K	-11632
▁polit ically	-11633
aw ks	-11634
▁Bl oom	-11635
▁wor ship	-11636
e ger	-11637
ut er	-11638
▁F O	-11639
▁mat hemat	-11640
▁sent enced	-11641
▁dis k	-11642
▁M arg	-11643
▁/ *	-11644
P I	-11645
▁option al	-11646
▁bab ies	-11647
▁se eds	-11648
▁Scott ish	-11649
▁th y	-11650
] ]	-11651
▁Hit ler	-11652
P H	-11653
ng th	-11654
▁rec overed	-11655
ing e	-11656
▁pow der	-11657
▁l ips	-11658
▁design er	-11659
▁dis orders	-11660
▁cour age	-11661
▁ch aos	-11662
" },{"	-11663
▁car rier	-11664
b ably	-11665
H igh	-11666
▁R T	-11667
es ity	-11668
l en	-11669
▁rout es	-11670
u ating	-11671
F il	-11672
N OT	-11673
w all	-11674
s burgh	-11675
▁eng aging	-11676
▁Java Script	-11677
ore r	-11678
li hood	-11679
▁un ions	-11680
▁F ederation	-11681
▁Tes la	-11682
▁comple tion	-11683
▁T a	-11684
▁privile ge	-11685
▁Or ange	-11686
▁ne ur	-11687
paren cy	-11688
▁b ones	-11689
▁tit led	-11690
▁prosecut ors	-11691
▁M E	-11692
▁engine er	-11693
▁Un iverse	-11694
▁H ig	-11695
n ie	-11696
o ard	-11697
▁heart s	-11698
▁G re	-11699
uss ion	-11700
▁min istry	-11701
▁pen et	-11702
▁N ut	-11703
▁O w	-11704
▁X P	-11705
in stein	-11706
▁bul k	-11707
S ystem	-11708
ic ism	-11709
▁Market able	-11710
▁pre val	-11711
▁post er	-11712
▁att ending	-11713
ur able	-11714
▁licens ed	-11715
▁G h	-11716
et ry	-11717
▁Trad able	-11718
▁bl ast	-11719
à ¤	-11720
▁Tit an	-11721
ell ed	-11722
d ie	-11723
H ave	-11724
▁Fl ame	-11725
▁prof ound	-11726
▁particip ating	-11727
▁an ime	-11728
▁E ss	-11729
▁spec ify	-11730
▁regard ed	-11731
▁Spe ll	-11732
▁s ons	-11733
own ed	-11734
▁m erc	-11735
▁exper imental	-11736
land o	-11737
h s	-11738
▁Dun geon	-11739
in os	-11740
▁comp ly	-11741
▁System s	-11742
ar th	-11743
▁se ized	-11744
l ocal	-11745
▁Girl s	-11746
ud o	-11747
on ed	-11748
▁F le	-11749
▁construct ed	-11750
▁host ed	-11751
▁sc ared	-11752
act ic	-11753
▁Is lands	-11754
▁M ORE	-11755
▁bl ess	-11756
▁block ing	-11757
▁ch ips	-11758
▁ev ac	-11759
P s	-11760
▁corpor ation	-11761
▁o x	-11762
▁light ing	-11763
▁neighb ors	-11764
▁U b	-11765
ar o	-11766
▁be ef	-11767
▁U ber	-11768
F acebook	-11769
ar med	-11770
it ate	-11771
▁R ating	-11772
▁Qu ick	-11773
▁occup ied	-11774
▁aim s	-11775
▁Add itionally	-11776
▁Int erest	-11777
▁dram atically	-11778
▁he al	-11779
▁pain ting	-11780
▁engine ers	-11781
M M	-11782
▁M ust	-11783
▁quant ity	-11784
P aul	-11785
▁earn ings	-11786
▁Post s	-11787
st ra	-11788
ãĥ¼ ãĥ	-11789
▁st ance	-11790
▁dro pping	-11791
sc ript	-11792
▁d ressed	-11793
M ake	-11794
▁just ify	-11795
▁L td	-11796
▁prompt ed	-11797
▁scr ut	-11798
▁speed s	-11799
▁Gi ants	-11800
om er	-11801
▁Ed itor	-11802
▁describ ing	-11803
▁L ie	-11804
ment ed	-11805
▁now here	-11806
oc aly	-11807
▁inst ruction	-11808
fort able	-11809
▁ent ities	-11810
▁c m	-11811
▁N atural	-11812
▁inqu iry	-11813
▁press ed	-11814
iz ont	-11815
for ced	-11816
▁ra ises	-11817
▁Net flix	-11818
▁S ide	-11819
▁out er	-11820
▁among st	-11821
im s	-11822
ows ki	-11823
▁clim b	-11824
ne ver	-11825
▁comb ine	-11826
d ing	-11827
▁comp r	-11828
▁signific ance	-11829
▁remem bered	-11830
▁Nev ada	-11831
▁T el	-11832
▁Sc ar	-11833
▁War riors	-11834
▁J ane	-11835
▁cou p	-11836
b as	-11837
▁termin al	-11838
, -	-11839
O H	-11840
▁t ension	-11841
▁w ings	-11842
▁My ster	-11843
ï¿½ï¿½ ï¿½ï¿½	-11844
▁Un like	-11845
val id	-11846
viron ments	-11847
▁Al i	-11848
▁n aked	-11849
book s	-11850
▁M un	-11851
▁G ulf	-11852
▁d ensity	-11853
▁dim in	-11854
▁desper ate	-11855
▁pres idency	-11856
▁198 6	-11857
h y	-11858
IN D	-11859
▁un lock	-11860
im ens	-11861
▁hand led	-11862
▁E b	-11863
▁disapp eared	-11864
▁gen re	-11865
▁198 8	-11866
▁determin ation	-11867
St ream	-11868
ik o	-11869
ap ters	-11870
▁acknow ledge	-11871
J an	-11872
▁capital ism	-11873
P at	-11874
▁20 20	-11875
▁pain ful	-11876
▁cur ve	-11877
▁bom bs	-11878
st orm	-11879
▁Met al	-11880
en cer	-11881
▁F ig	-11882
▁A aron	-11883
anc hes	-11884
▁ins piration	-11885
▁exha ust	-11886
t ains	-11887
ash i	-11888
▁desc ript	-11889
▁r itual	-11890
▁Chel sea	-11891
▁promot ion	-11892
▁H ung	-11893
▁W ard	-11894
iv a	-11895
▁E T	-11896
▁to ss	-11897
all ow	-11898
▁Franc is	-11899
D ep	-11900
▁happ iness	-11901
▁Gl ass	-11902
▁bet a	-11903
▁streng then	-11904
N E	-11905
o a	-11906
▁butt ons	-11907
▁Mur ray	-11908
▁kick ed	-11909
Qu est	-11910
▁T alk	-11911
▁S everal	-11912
▁Z ero	-11913
▁dr one	-11914
ul k	-11915
▁c am	-11916
▁M obile	-11917
▁prevent ing	-11918
▁ret ro	-11919
▁A x	-11920
▁cru el	-11921
▁flo at	-11922
. ),	-11923
▁fil ing	-11924
▁Gr ant	-11925
▁B or	-11926
▁r ib	-11927
▁champions hip	-11928
▁M erc	-11929
▁sty les	-11930
▁c ake	-11931
▁build s	-11932
▁S elf	-11933
io x	-11934
▁ep ic	-11935
oy d	-11936
B el	-11937
▁St ew	-11938
. (	-11939
ah u	-11940
▁Be yond	-11941
▁out s	-11942
▁sol o	-11943
▁T ree	-11944
▁pres erve	-11945
▁t ub	-11946
AR E	-11947
ro c	-11948
▁Im pro	-11949
▁W right	-11950
▁bu nd	-11951
▁tr aged	-11952
▁occas ional	-11953
b ian	-11954
Sec ond	-11955
r ons	-11956
▁inter actions	-11957
form ed	-11958
s ing	-11959
▁own s	-11960
▁h ockey	-11961
Gener al	-11962
▁log ical	-11963
▁exp end	-11964
▁esc al	-11965
▁Gr iff	-11966
▁C rown	-11967
▁Res erve	-11968
▁sto pping	-11969
▁exc use	-11970
sec ond	-11971
▁oper ated	-11972
▁re aches	-11973
▁Mal ays	-11974
▁poll ution	-11975
▁Brook lyn	-11976
▁de lete	-11977
▁has h	-11978
Bl ock	-11979
ah a	-11980
âĢ ³	-11981
▁sh orter	-11982
p iece	-11983
> </	-11984
▁h orm	-11985
▁W at	-11986
▁Bre ak	-11987
▁prohib ited	-11988
▁int ensity	-11989
▁Al an	-11990
▁li ability	-11991
? !	-11992
and ed	-11993
▁neigh bour	-11994
▁Col lection	-11995
▁f ires	-11996
▁revolution ary	-11997
f ly	-11998
▁Or leans	-11999
Wh ite	-12000
▁W rit	-12001
▁D awn	-12002
▁sett le	-12003
▁exec ute	-12004
B M	-12005
▁spokes woman	-12006
▁lif estyle	-12007
▁click ing	-12008
▁K ill	-12009
▁Liber al	-12010
▁N azi	-12011
▁tra iler	-12012
▁mount ains	-12013
▁dam n	-12014
z es	-12015
p es	-12016
▁press ing	-12017
▁b ail	-12018
▁Organ ization	-12019
▁p ir	-12020
▁th irty	-12021
▁elect rical	-12022
▁1 15	-12023
▁P oly	-12024
▁R ap	-12025
▁St rike	-12026
▁C ann	-12027
▁demand ed	-12028
▁back ing	-12029
def ault	-12030
spe ed	-12031
▁Leg isl	-12032
▁mother s	-12033
▁B ody	-12034
▁var iation	-12035
ced ented	-12036
p owered	-12037
le ading	-12038
N ever	-12039
▁g rave	-12040
▁Ant i	-12041
A W	-12042
▁interview ed	-12043
▁G ab	-12044
▁F at	-12045
▁rook ie	-12046
u u	-12047
▁dep os	-12048
ix on	-12049
▁am pl	-12050
ret ion	-12051
▁He at	-12052
▁peace ful	-12053
S M	-12054
ie ve	-12055
▁d iver	-12056
▁Vict oria	-12057
▁m ic	-12058
p df	-12059
▁st ating	-12060
▁l ung	-12061
▁critic ized	-12062
▁vacc ine	-12063
▁Load ing	-12064
ur se	-12065
T ake	-12066
▁Fr an	-12067
▁S old	-12068
▁Rob in	-12069
▁detect ed	-12070
▁Sc ript	-12071
▁adjust ed	-12072
▁sen ator	-12073
▁opp osing	-12074
Er ror	-12075
C ount	-12076
▁conflic ts	-12077
▁o w	-12078
▁Ar gent	-12079
▁match ing	-12080
h h	-12081
▁Tre k	-12082
st arter	-12083
" ),	-12084
▁A F	-12085
od er	-12086
xx xx	-12087
▁Al t	-12088
ac re	-12089
▁P ick	-12090
▁Sol ar	-12091
▁D al	-12092
O ct	-12093
▁B att	-12094
▁s rc	-12095
▁eng agement	-12096
▁execut ives	-12097
▁liber ty	-12098
j ava	-12099
▁tal ented	-12100
igen ous	-12101
▁con secut	-12102
.. ...	-12103
In fo	-12104
▁hor rible	-12105
▁surprising ly	-12106
f eed	-12107
ic ating	-12108
▁L ED	-12109
▁fem ales	-12110
St ation	-12111
ell er	-12112
▁Oak land	-12113
▁mechan ical	-12114
i ology	-12115
▁V ar	-12116
▁rob ust	-12117
ett ings	-12118
ott a	-12119
▁the oret	-12120
▁ret ain	-12121
k ward	-12122
▁d a	-12123
▁deploy ed	-12124
d el	-12125
▁And y	-12126
▁subsc ribe	-12127
we b	-12128
▁n a	-12129
▁Mic hel	-12130
▁part ially	-12131
▁Come y	-12132
▁c rown	-12133
▁M aj	-12134
▁Bl u	-12135
r ator	-12136
D ay	-12137
IN T	-12138
▁document ed	-12139
▁G DP	-12140
g i	-12141
che ll	-12142
▁brut al	-12143
▁B ab	-12144
st ration	-12145
▁the ft	-12146
▁t ube	-12147
@ @	-12148
▁qu ery	-12149
▁L incoln	-12150
▁publish ing	-12151
▁w ore	-12152
or ical	-12153
▁r ic	-12154
▁not able	-12155
▁subsequ ently	-12156
ne x	-12157
▁obser ve	-12158
▁B oe	-12159
▁c odes	-12160
m ain	-12161
W H	-12162
▁S L	-12163
▁resident ial	-12164
av an	-12165
▁m as	-12166
are st	-12167
ade on	-12168
OU T	-12169
▁soph istic	-12170
ant e	-12171
▁c ens	-12172
▁ **	-12173
▁mort ality	-12174
▁your s	-12175
▁occas ions	-12176
▁rec alled	-12177
▁Dri ver	-12178
▁v ocal	-12179
▁bath room	-12180
▁sh ops	-12181
▁collabor ation	-12182
▁Ob amacare	-12183
▁C ell	-12184
Ch ar	-12185
Su per	-12186
C re	-12187
▁t ends	-12188
▁t orn	-12189
▁econom ics	-12190
a very	-12191
▁R aid	-12192
▁S em	-12193
▁should ers	-12194
▁expect ing	-12195
▁exam ination	-12196
en ame	-12197
▁U I	-12198
i ability	-12199
ol as	-12200
▁Am b	-12201
▁D ra	-12202
▁mid field	-12203
▁I C	-12204
▁lay out	-12205
▁flo ating	-12206
f i	-12207
it ative	-12208
▁tremend ous	-12209
▁ Ð	-12210
▁ab und	-12211
W ork	-12212
▁Light ning	-12213
▁similar ly	-12214
▁conserv atives	-12215
▁pr ay	-12216
B E	-12217
iz arre	-12218
▁t empt	-12219
▁emphas is	-12220
▁Met ro	-12221
▁f ishing	-12222
▁mar ry	-12223
ne g	-12224
▁Stud y	-12225
▁rec k	-12226
▁dis pos	-12227
on ing	-12228
bs ite	-12229
▁susp ic	-12230
▁mer ch	-12231
▁G ib	-12232
▁Des cription	-12233
▁D VD	-12234
w he	-12235
▁Y emen	-12236
▁en vironments	-12237
oot ing	-12238
▁Mod ern	-12239
e u	-12240
▁reflect s	-12241
▁h oney	-12242
▁analy st	-12243
▁g ut	-12244
d ec	-12245
A ction	-12246
▁household s	-12247
▁st er	-12248
▁tem ple	-12249
▁reform s	-12250
▁favour ite	-12251
▁dead line	-12252
▁L E	-12253
Th ree	-12254
▁With in	-12255
A ug	-12256
▁night s	-12257
elt a	-12258
▁inv alid	-12259
▁Ex change	-12260
▁Del hi	-12261
w hen	-12262
inc ome	-12263
▁ ðŁ	-12264
▁wire less	-12265
sc ribe	-12266
ist a	-12267
▁host ile	-12268
▁all y	-12269
▁g ig	-12270
▁out lets	-12271
▁D or	-12272
EM ENT	-12273
▁as h	-12274
▁ab stract	-12275
OR D	-12276
▁Mot or	-12277
▁adv iser	-12278
ist le	-12279
▁b ases	-12280
▁court esy	-12281
▁cross ing	-12282
▁cle ared	-12283
▁refuge e	-12284
cos ystem	-12285
▁throw s	-12286
f un	-12287
bour ne	-12288
d ays	-12289
▁disag ree	-12290
▁N ative	-12291
▁reflect ed	-12292
▁F ast	-12293
▁Y ellow	-12294
▁Sing apore	-12295
▁R aven	-12296
▁embr ace	-12297
▁K u	-12298
▁C hen	-12299
▁Ear ly	-12300
▁appoint ment	-12301
▁Min i	-12302
it ement	-12303
▁pl acing	-12304
▁b icy	-12305
S R	-12306
▁wh is	-12307
S U	-12308
▁investig ated	-12309
▁photograph s	-12310
g ithub	-12311
▁Be at	-12312
▁R ing	-12313
ig hed	-12314
i ar	-12315
▁ev olved	-12316
eral d	-12317
▁d un	-12318
▁h ub	-12319
I AL	-12320
▁encour aging	-12321
▁Pr int	-12322
▁D ays	-12323
▁pro secution	-12324
▁p ants	-12325
az y	-12326
l ive	-12327
▁foss il	-12328
▁J u	-12329
▁ro cks	-12330
ud ge	-12331
▁R ace	-12332
▁g reet	-12333
b ie	-12334
▁f illing	-12335
▁L en	-12336
▁di abetes	-12337
▁fire arms	-12338
um ing	-12339
enez uel	-12340
▁B B	-12341
▁accept ing	-12342
AT H	-12343
▁res ort	-12344
▁h unt	-12345
ri k	-12346
uck er	-12347
am ents	-12348
▁sust ained	-12349
▁cross ed	-12350
▁break fast	-12351
▁att ributes	-12352
lect ed	-12353
at ile	-12354
▁v ibr	-12355
▁K al	-12356
ars on	-12357
op les	-12358
▁tou ched	-12359
▁dam ages	-12360
▁imp ressed	-12361
ru p	-12362
▁an ch	-12363
▁Ad ams	-12364
H el	-12365
▁Vict or	-12366
▁mount ed	-12367
▁C C	-12368
▁delic ious	-12369
sp an	-12370
ell a	-12371
▁el abor	-12372
am ples	-12373
▁def ic	-12374
▁constit u	-12375
u ates	-12376
▁M ission	-12377
▁T her	-12378
▁Mon ster	-12379
b es	-12380
Re uters	-12381
▁Ind ones	-12382
h ill	-12383
mun ition	-12384
▁confirm ation	-12385
▁Cons ider	-12386
ac ent	-12387
▁j et	-12388
▁Em ploy	-12389
▁GT X	-12390
n an	-12391
▁Sp ider	-12392
▁process or	-12393
▁pat ri	-12394
▁Pent agon	-12395
▁Rob inson	-12396
▁real istic	-12397
Ã ±	-12398
▁appear ing	-12399
▁p ipe	-12400
om ed	-12401
▁f ru	-12402
▁aw ful	-12403
▁eval uation	-12404
▁intellig ent	-12405
▁C itiz	-12406
▁fund ra	-12407
od ium	-12408
▁twe ets	-12409
▁wor n	-12410
pr ing	-12411
▁kid n	-12412
▁reb els	-12413
▁K am	-12414
▁Nether lands	-12415
▁S W	-12416
▁acqu isition	-12417
▁M ale	-12418
ãĥ ª	-12419
omb ies	-12420
▁trad em	-12421
▁Stat us	-12422
B re	-12423
▁TH IS	-12424
▁ad verse	-12425
▁N EW	-12426
s ign	-12427
▁organ isation	-12428
en c	-12429
▁Har per	-12430
ap or	-12431
▁Mem bers	-12432
▁Pe ace	-12433
▁Air port	-12434
▁Other s	-12435
▁scr atch	-12436
▁P il	-12437
▁sens or	-12438
▁adop tion	-12439
▁Hot el	-12440
▁Dr ag	-12441
▁honest ly	-12442
▁y ard	-12443
▁For ces	-12444
▁pat ent	-12445
▁b ass	-12446
▁quiet ly	-12447
▁breat hing	-12448
▁p ose	-12449
i ors	-12450
▁J ess	-12451
st atic	-12452
IT E	-12453
O ffic	-12454
▁j ew	-12455
w cs	-12456
▁14 0	-12457
▁pre view	-12458
ipp i	-12459
▁unf ortunately	-12460
oke mon	-12461
▁h orn	-12462
▁re ass	-12463
▁pe er	-12464
ock er	-12465
▁unt o	-12466
▁Gr ay	-12467
▁clean ing	-12468
▁attract ed	-12469
200 7	-12470
P oint	-12471
k ill	-12472
▁Ag reement	-12473
ur ches	-12474
▁hor r	-12475
▁Miss iss	-12476
▁worth y	-12477
▁fl owers	-12478
t own	-12479
d ll	-12480
▁re actions	-12481
▁de ce	-12482
▁indic ating	-12483
M D	-12484
▁pre ference	-12485
▁M VP	-12486
ess ional	-12487
▁T arget	-12488
g ence	-12489
▁Ind ians	-12490
▁m isc	-12491
▁free ly	-12492
▁mus cles	-12493
▁line up	-12494
▁impact s	-12495
ous ing	-12496
om i	-12497
ac ular	-12498
▁contro lling	-12499
ag ine	-12500
c ery	-12501
he ll	-12502
▁rank ing	-12503
▁N ich	-12504
▁A ve	-12505
12 8	-12506
▁high way	-12507
▁inc ons	-12508
▁b inding	-12509
▁strugg les	-12510
▁Pitt sburgh	-12511
▁gr ay	-12512
r in	-12513
▁com ics	-12514
▁S port	-12515
▁rel atives	-12516
▁fr ight	-12517
▁pro be	-12518
▁Port ug	-12519
▁v oc	-12520
▁t u	-12521
▁Cor ps	-12522
▁poss ibilities	-12523
▁qual ify	-12524
wcs store	-12525
▁l ibraries	-12526
▁m igrants	-12527
▁ent ries	-12528
▁consecut ive	-12529
v als	-12530
▁Chair man	-12531
▁h ill	-12532
IM E	-12533
▁G ard	-12534
▁inequ ality	-12535
f ox	-12536
▁S ave	-12537
▁c ort	-12538
claim ed	-12539
▁tra its	-12540
▁p our	-12541
▁miss iles	-12542
▁ess ence	-12543
▁s ends	-12544
▁all iance	-12545
▁w ishes	-12546
▁Christ opher	-12547
B ig	-12548
N Y	-12549
▁Jac ob	-12550
s an	-12551
ur red	-12552
▁S O	-12553
ll y	-12554
▁advoc ate	-12555
▁B ond	-12556
▁" /	-12557
Us ing	-12558
▁district s	-12559
▁G ate	-12560
▁B ir	-12561
r idge	-12562
▁N az	-12563
▁R s	-12564
bo ards	-12565
▁G a	-12566
▁Re agan	-12567
▁influ enced	-12568
1 000	-12569
ap y	-12570
▁challeng ed	-12571
▁b arg	-12572
▁fac ulty	-12573
▁F if	-12574
▁acqu ire	-12575
A c	-12576
▁in sect	-12577
▁instr uments	-12578
▁le af	-12579
th odox	-12580
M essage	-12581
▁t ale	-12582
▁there by	-12583
▁tra p	-12584
▁strong est	-12585
▁Mil itary	-12586
is ible	-12587
▁198 4	-12588
ethe less	-12589
▁flex ible	-12590
▁kill s	-12591
▁fin ishing	-12592
▁S ize	-12593
▁redu ces	-12594
▁ep id	-12595
▁orient ation	-12596
f ull	-12597
▁tr ace	-12598
▁l aser	-12599
▁opp ose	-12600
▁ed iting	-12601
▁moment um	-12602
ä º	-12603
sh ow	-12604
V I	-12605
▁L ad	-12606
▁198 5	-12607
▁murd ered	-12608
9 00	-12609
ut her	-12610
▁prob ability	-12611
▁P oll	-12612
▁rel uct	-12613
▁Che m	-12614
▁Mont real	-12615
▁adequ ate	-12616
▁Pol and	-12617
▁Sher iff	-12618
um ph	-12619
▁o k	-12620
▁ 000	-12621
▁" [	-12622
▁oper ators	-12623
▁F er	-12624
▁mod es	-12625
▁E ve	-12626
▁discipl ine	-12627
N ET	-12628
H and	-12629
▁or al	-12630
▁W E	-12631
em ail	-12632
J P	-12633
▁Palestin ians	-12634
▁he nce	-12635
▁L ess	-12636
▁over l	-12637
d ig	-12638
▁intim id	-12639
▁Co al	-12640
▁r anging	-12641
th a	-12642
▁dist ant	-12643
▁f ib	-12644
▁Ind ex	-12645
▁W onder	-12646
▁P el	-12647
hatt an	-12648
▁H ug	-12649
Ã Ĺ	-12650
ra it	-12651
▁wra pped	-12652
▁R PG	-12653
▁chemical s	-12654
▁M oney	-12655
▁fro zen	-12656
▁ind irect	-12657
▁Again st	-12658
E nd	-12659
▁uncom fortable	-12660
▁Gall ery	-12661
▁Post ed	-12662
Ø §	-12663
ond uct	-12664
▁consequ ence	-12665
▁bit ter	-12666
▁198 7	-12667
p op	-12668
▁count less	-12669
▁Al aska	-12670
ff ff	-12671
▁depart ure	-12672
▁ref und	-12673
▁I an	-12674
i ated	-12675
▁see ks	-12676
▁mechan ics	-12677
▁jurisd iction	-12678
lyn n	-12679
▁al ike	-12680
▁H unt	-12681
ath on	-12682
▁res olved	-12683
▁c ache	-12684
▁dist inction	-12685
d irect	-12686
▁enc ount	-12687
ou b	-12688
be at	-12689
▁Count ry	-12690
se arch	-12691
▁contin uous	-12692
▁mod est	-12693
▁R ail	-12694
th ood	-12695
1 30	-12696
B UG	-12697
▁crim inals	-12698
▁indic ation	-12699
▁encount ered	-12700
l ast	-12701
▁W y	-12702
▁ide ology	-12703
▁P DF	-12704
sec urity	-12705
] )	-12706
▁Jim my	-12707
▁E N	-12708
▁h iring	-12709
T em	-12710
▁p ig	-12711
aun t	-12712
▁Cry stal	-12713
▁pen alties	-12714
▁cap ability	-12715
▁p y	-12716
▁product ive	-12717
▁bal anced	-12718
▁Ge Force	-12719
cl ick	-12720
olit an	-12721
od s	-12722
▁after wards	-12723
▁play offs	-12724
▁G ill	-12725
U ser	-12726
▁back s	-12727
p ub	-12728
t ag	-12729
▁abs urd	-12730
p iring	-12731
▁c iting	-12732
▁tr illion	-12733
▁oblig ation	-12734
▁max im	-12735
ah oo	-12736
c f	-12737
um i	-12738
▁Al pha	-12739
▁N elson	-12740
▁pursu ant	-12741
in itely	-12742
▁f ract	-12743
ent ry	-12744
ber y	-12745
▁Th or	-12746
Add ed	-12747
▁D J	-12748
▁G ene	-12749
▁aw kward	-12750
St ud	-12751
▁wal let	-12752
▁Div ine	-12753
ari os	-12754
▁rele asing	-12755
▁ed ited	-12756
▁accompl ished	-12757
B est	-12758
▁ed ges	-12759
▁plan es	-12760
▁feed ing	-12761
" },"	-12762
▁discl osure	-12763
▁gr ain	-12764
air y	-12765
o ons	-12766
ern and	-12767
V R	-12768
▁reason ably	-12769
▁dr um	-12770
▁part ial	-12771
▁graph ic	-12772
▁unpre cedented	-12773
▁adv ised	-12774
M icro	-12775
▁Ass ad	-12776
point s	-12777
sc ar	-12778
▁Z one	-12779
tt es	-12780
▁7 00	-12781
v o	-12782
▁H amp	-12783
▁fix es	-12784
▁ca ution	-12785
▁str ings	-12786
▁pan els	-12787
▁le ak	-12788
▁pr icing	-12789
row th	-12790
▁Er ror	-12791
▁S aints	-12792
f ix	-12793
▁observ ations	-12794
▁A bs	-12795
▁suggest ion	-12796
▁Ukrain ian	-12797
▁bar rier	-12798
▁pain ted	-12799
B et	-12800
im ir	-12801
▁S pect	-12802
p ot	-12803
orne ys	-12804
▁comp ound	-12805
▁be ars	-12806
▁R ush	-12807
▁lux ury	-12808
S um	-12809
▁or bit	-12810
▁Mar c	-12811
▁ex empt	-12812
▁Tra il	-12813
▁M O	-12814
▁H ans	-12815
▁We apon	-12816
oc used	-12817
umin um	-12818
▁Jer ry	-12819
▁b ust	-12820
▁A G	-12821
▁W iki	-12822
▁end less	-12823
▁V lad	-12824
▁B ah	-12825
▁R adeon	-12826
ke ys	-12827
▁Sur vey	-12828
▁V iol	-12829
def ine	-12830
le an	-12831
▁comm od	-12832
▁reven ues	-12833
Å į	-12834
▁furn iture	-12835
▁cast ing	-12836
▁diplom atic	-12837
▁Play ers	-12838
▁K illed	-12839
▁mod ify	-12840
▁innov ative	-12841
▁Ab u	-12842
n or	-12843
▁bond s	-12844
▁coach ing	-12845
M er	-12846
▁mod ules	-12847
▁Patri ots	-12848
▁enh anced	-12849
▁proceed ings	-12850
▁team mates	-12851
▁12 8	-12852
ard o	-12853
▁comprom ise	-12854
▁M uch	-12855
▁fle w	-12856
▁Ed ge	-12857
▁unnecess ary	-12858
▁doct rine	-12859
re port	-12860
▁Or lando	-12861
▁Prof ile	-12862
▁play off	-12863
friend ly	-12864
▁compl ain	-12865
▁M C	-12866
▁O pt	-12867
▁G B	-12868
▁beat en	-12869
▁g olf	-12870
▁pl acement	-12871
B it	-12872
▁news letter	-12873
▁201 9	-12874
vis or	-12875
raw l	-12876
▁iP ad	-12877
▁act ed	-12878
▁ju ice	-12879
▁dec ks	-12880
P N	-12881
su ccess	-12882
▁H alf	-12883
▁dele ted	-12884
▁sec rets	-12885
▁as ylum	-12886
M art	-12887
▁Act iv	-12888
▁Gu y	-12889
▁T s	-12890
▁d ys	-12891
▁assum ing	-12892
▁man a	-12893
▁sub ur	-12894
▁12 5	-12895
M edia	-12896
AR Y	-12897
r ide	-12898
c p	-12899
▁difficult ies	-12900
▁collect ing	-12901
▁bank rupt	-12902
n on	-12903
▁comp osed	-12904
▁vol t	-12905
▁milit ants	-12906
▁> >>	-12907
▁M ormon	-12908
t or	-12909
▁partic les	-12910
▁B art	-12911
ry ption	-12912
▁ad min	-12913
▁squ ee	-12914
VID IA	-12915
▁creat or	-12916
iam eter	-12917
ic ular	-12918
N BC	-12919
▁grab bed	-12920
▁n odd	-12921
▁r ated	-12922
▁rot ation	-12923
▁gr asp	-12924
▁excess ive	-12925
▁E C	-12926
▁Wh it	-12927
▁invent ory	-12928
ault s	-12929
▁F B	-12930
▁e cosystem	-12931
▁bill ions	-12932
▁vent ure	-12933
n amed	-12934
▁def ender	-12935
out e	-12936
Inst ead	-12937
ir able	-12938
W ar	-12939
▁assum ption	-12940
▁b ite	-12941
▁earth qu	-12942
t ail	-12943
sp ace	-12944
▁gif ts	-12945
boy s	-12946
▁inev itable	-12947
▁struct ural	-12948
▁benef icial	-12949
▁compe lling	-12950
h ole	-12951
erv ation	-12952
▁co at	-12953
o j	-12954
inc arn	-12955
▁Y ears	-12956
▁determin ing	-12957
▁rhet oric	-12958
▁bound aries	-12959
▁wh ites	-12960
A nt	-12961
add y	-12962
) -	-12963
ra ham	-12964
eter min	-12965
▁har vest	-12966
▁Con c	-12967
▁lapt op	-12968
▁M atch	-12969
▁enjoy ing	-12970
cc a	-12971
oll ar	-12972
▁tri ps	-12973
▁add iction	-12974
▁S ak	-12975
▁pow ered	-12976
▁c ous	-12977
▁Russ ians	-12978
ie re	-12979
▁ret rie	-12980
qu ality	-12981
▁diff er	-12982
▁king dom	-12983
▁L aur	-12984
▁Cap itol	-12985
▁con clusions	-12986
▁Al tern	-12987
▁N av	-12988
▁trans parent	-12989
B ER	-12990
G roup	-12991
▁Com plete	-12992
▁inf er	-12993
▁int rig	-12994
▁ins ane	-12995
R O	-12996
oph ob	-12997
is en	-12998
qu al	-12999
Mich ael	-13000
▁m useum	-13001
▁P ope	-13002
▁res et	-13003
r ative	-13004
f ive	-13005
▁agg reg	-13006
itte es	-13007
osit ory	-13008
▁car b	-13009
▁Rec ord	-13010
▁dec ides	-13011
▁F ix	-13012
▁except ions	-13013
▁Commission er	-13014
un s	-13015
▁Environment al	-13016
▁legend ary	-13017
ist ence	-13018
▁tun nel	-13019
k m	-13020
▁ins ult	-13021
▁t roll	-13022
▁sh ake	-13023
▁det ention	-13024
qu es	-13025
▁Ch rome	-13026
▁F iles	-13027
▁sub t	-13028
▁prospect s	-13029
▁pro l	-13030
re nder	-13031
pro of	-13032
▁perform ances	-13033
St r	-13034
▁h ref	-13035
ern ame	-13036
▁achieve ment	-13037
▁f ut	-13038
F ull	-13039
▁Le ban	-13040
go ogle	-13041
ãĥ Ī	-13042
amp a	-13043
May be	-13044
▁project ed	-13045
▁E mb	-13046
▁col leg	-13047
▁a wards	-13048
▁â Ķ	-13049
G old	-13050
▁Bl ake	-13051
▁R aj	-13052
if ting	-13053
▁p ending	-13054
▁inst inct	-13055
▁develop ments	-13056
Con nect	-13057
▁M and	-13058
▁W ITH	-13059
▁Philipp ines	-13060
prof ile	-13061
▁alt ogether	-13062
▁B und	-13063
▁T D	-13064
oo oo	-13065
amp ed	-13066
ip h	-13067
▁ste am	-13068
▁old est	-13069
▁det ection	-13070
ul pt	-13071
▁ ç	-13072
▁Way ne	-13073
200 6	-13074
f a	-13075
▁cir cles	-13076
▁F u	-13077
▁don ors	-13078
appropri ate	-13079
▁Dak ota	-13080
j amin	-13081
▁motiv ated	-13082
▁purch ases	-13083
▁Louis iana	-13084
▁S pl	-13085
▁gl obe	-13086
▁10 5	-13087
z ip	-13088
c all	-13089
▁depart ments	-13090
▁sustain able	-13091
10 5	-13092
▁O P	-13093
if iers	-13094
▁prevent ed	-13095
▁inc omp	-13096
▁Comm ander	-13097
▁dom inated	-13098
▁Â »	-13099
▁invest ed	-13100
▁complex ity	-13101
▁in cl	-13102
▁ens uring	-13103
▁real m	-13104
yn c	-13105
▁Ind ependent	-13106
r ained	-13107
▁J en	-13108
▁Fl ight	-13109
▁at he	-13110
▁spec ulation	-13111
▁T E	-13112
oc ate	-13113
t ic	-13114
▁pl aint	-13115
her ry	-13116
▁to y	-13117
▁1 11	-13118
▁pl ates	-13119
st atus	-13120
▁Is a	-13121
▁dev oted	-13122
C op	-13123
▁E S	-13124
25 5	-13125
ur rency	-13126
M ain	-13127
▁sl aves	-13128
▁pe pper	-13129
▁qu otes	-13130
▁ce iling	-13131
▁F ish	-13132
▁trans formation	-13133
▁fra ction	-13134
▁advant ages	-13135
▁to ile	-13136
▁stun ning	-13137
▁mo ist	-13138
bre aking	-13139
s i	-13140
▁L ocation	-13141
▁Med ium	-13142
▁text s	-13143
▁u gly	-13144
▁b io	-13145
. âĢĶ	-13146
▁B ased	-13147
▁tr ains	-13148
▁W ing	-13149
▁An cient	-13150
▁Rec ords	-13151
▁H ope	-13152
Spe cial	-13153
ades h	-13154
ob i	-13155
[ /	-13156
▁tempor arily	-13157
V er	-13158
h u	-13159
os er	-13160
▁over night	-13161
▁m amm	-13162
▁Tre asury	-13163
▁V enezuel	-13164
▁Meg a	-13165
▁t ar	-13166
▁expect s	-13167
bl ack	-13168
or ph	-13169
\\ \\	-13170
▁accept ance	-13171
▁rad ar	-13172
s is	-13173
▁jun ior	-13174
▁fram es	-13175
▁observ ation	-13176
ac ies	-13177
P ower	-13178
▁Adv anced	-13179
M ag	-13180
olog ically	-13181
▁Me chan	-13182
▁sent ences	-13183
▁analy sts	-13184
augh ters	-13185
force ment	-13186
▁v ague	-13187
▁cl ause	-13188
▁direct ors	-13189
▁eval uate	-13190
▁cabin et	-13191
M att	-13192
▁Class ic	-13193
A ng	-13194
▁cl er	-13195
▁B uck	-13196
▁resear cher	-13197
▁16 0	-13198
▁poor ly	-13199
▁experien cing	-13200
▁P ed	-13201
▁Man hattan	-13202
▁fre ed	-13203
▁them es	-13204
ad vant	-13205
▁n in	-13206
▁pra ise	-13207
10 4	-13208
▁Lib ya	-13209
b est	-13210
▁trust ed	-13211
▁ce ase	-13212
▁d ign	-13213
D irect	-13214
▁bomb ing	-13215
▁m igration	-13216
▁Sci ences	-13217
▁municip al	-13218
▁A verage	-13219
▁gl ory	-13220
▁reve aling	-13221
▁are na	-13222
▁uncertain ty	-13223
▁battle field	-13224
ia o	-13225
G od	-13226
▁c inem	-13227
ra pe	-13228
el le	-13229
ap ons	-13230
▁list ing	-13231
▁wa ited	-13232
▁sp otted	-13233
ke ley	-13234
▁Aud io	-13235
e or	-13236
ard ing	-13237
idd ing	-13238
ig ma	-13239
▁N eg	-13240
▁l one	-13241
▁ ----	-13242
ex e	-13243
d eg	-13244
▁trans f	-13245
▁was h	-13246
▁sl avery	-13247
▁expl oring	-13248
▁W W	-13249
ats on	-13250
▁en cl	-13251
l ies	-13252
▁C reek	-13253
▁wood en	-13254
Man ager	-13255
▁Br and	-13256
um my	-13257
▁Ar thur	-13258
▁bureau cr	-13259
▁bl end	-13260
ar ians	-13261
F urther	-13262
▁supposed ly	-13263
▁wind s	-13264
▁19 79	-13265
▁grav ity	-13266
▁analys es	-13267
▁Tra vel	-13268
▁V eter	-13269
▁d umb	-13270
▁altern ate	-13271
g al	-13272
▁consum ed	-13273
▁effect iveness	-13274
.' '	-13275
▁path s	-13276
ond a	-13277
L A	-13278
▁Str ong	-13279
▁en ables	-13280
▁esc aped	-13281
▁" "	-13282
▁1 12	-13283
▁198 3	-13284
▁sm iled	-13285
▁tend ency	-13286
F ire	-13287
▁p ars	-13288
▁R oc	-13289
▁l ake	-13290
▁f itness	-13291
▁A th	-13292
▁H orn	-13293
▁h ier	-13294
▁imp ose	-13295
m other	-13296
▁p ension	-13297
ic ut	-13298
bor ne	-13299
ic iary	-13300
. _	-13301
▁S U	-13302
▁pol ar	-13303
is y	-13304
eng u	-13305
itial ized	-13306
AT A	-13307
w rite	-13308
▁exerc ises	-13309
▁D iamond	-13310
ot ypes	-13311
▁harm ful	-13312
on z	-13313
▁print ing	-13314
st ory	-13315
▁expert ise	-13316
▁G er	-13317
▁traged y	-13318
▁F ly	-13319
▁d ivid	-13320
amp ire	-13321
st ock	-13322
M em	-13323
▁re ign	-13324
▁un ve	-13325
▁am end	-13326
▁Prop het	-13327
▁mut ual	-13328
▁F ac	-13329
▁repl acing	-13330
H ar	-13331
▁Circ uit	-13332
▁thro at	-13333
▁Sh ot	-13334
▁batter ies	-13335
▁to ll	-13336
▁address ing	-13337
▁Medic aid	-13338
▁p upp	-13339
▁N ar	-13340
ol k	-13341
▁equ ity	-13342
M R	-13343
▁His pan	-13344
▁L arge	-13345
m id	-13346
D ev	-13347
▁exp ed	-13348
▁dem o	-13349
▁Marsh all	-13350
erg us	-13351
▁f iber	-13352
▁div orce	-13353
▁Cre ate	-13354
▁sl ower	-13355
▁Park er	-13356
▁Stud ent	-13357
▁Tr aining	-13358
Ret urn	-13359
▁T ru	-13360
▁c ub	-13361
▁Re ached	-13362
▁pan ic	-13363
▁qu arters	-13364
▁re ct	-13365
▁treat ing	-13366
▁r ats	-13367
▁Christian ity	-13368
ol er	-13369
▁sac red	-13370
▁decl are	-13371
ul ative	-13372
et ing	-13373
▁deliver ing	-13374
est one	-13375
▁t el	-13376
▁L arry	-13377
▁met a	-13378
ac cept	-13379
art z	-13380
▁Rog er	-13381
hand ed	-13382
▁head er	-13383
▁tra pped	-13384
▁Cent ury	-13385
▁kn ocked	-13386
▁Ox ford	-13387
▁surviv ors	-13388
b ot	-13389
▁demon stration	-13390
▁d irt	-13391
▁ass ists	-13392
OM E	-13393
▁D raft	-13394
ortun ate	-13395
fol io	-13396
pe red	-13397
ust ers	-13398
g t	-13399
▁L ock	-13400
▁jud icial	-13401
ver ted	-13402
▁sec ured	-13403
out ing	-13404
▁Book s	-13405
▁host ing	-13406
▁lif ted	-13407
l ength	-13408
▁j er	-13409
▁whe els	-13410
▁R ange	-13411
umbn ails	-13412
▁diagn osis	-13413
te ch	-13414
▁Stew art	-13415
▁P ract	-13416
▁nation wide	-13417
▁de ar	-13418
▁oblig ations	-13419
▁grow s	-13420
▁mand atory	-13421
▁susp icious	-13422
! '	-13423
A pr	-13424
G reat	-13425
▁mort gage	-13426
▁prosecut or	-13427
▁editor ial	-13428
▁K r	-13429
▁process ed	-13430
ung le	-13431
▁flex ibility	-13432
Ear lier	-13433
▁C art	-13434
▁S ug	-13435
▁foc uses	-13436
▁start up	-13437
▁bre ach	-13438
▁T ob	-13439
cy cle	-13440
ãĢ Į	-13441
ro se	-13442
▁b izarre	-13443
ãĢ į	-13444
▁veget ables	-13445
$ $	-13446
▁ret reat	-13447
osh i	-13448
▁Sh op	-13449
▁G round	-13450
▁St op	-13451
▁Hawai i	-13452
▁A y	-13453
Per haps	-13454
▁Be aut	-13455
uff er	-13456
enn a	-13457
▁product ivity	-13458
F ixed	-13459
cont rol	-13460
▁abs ent	-13461
▁Camp aign	-13462
G reen	-13463
▁ident ifying	-13464
▁reg ret	-13465
▁promot ed	-13466
▁Se ven	-13467
▁er u	-13468
ne ath	-13469
aug hed	-13470
▁P in	-13471
▁L iving	-13472
C ost	-13473
om atic	-13474
me ga	-13475
▁N ig	-13476
oc y	-13477
▁in box	-13478
▁em pire	-13479
▁hor izont	-13480
▁br anches	-13481
▁met aph	-13482
Act ive	-13483
ed i	-13484
▁Fil m	-13485
▁S omething	-13486
▁mod s	-13487
inc ial	-13488
▁Orig inal	-13489
G en	-13490
▁spir its	-13491
▁ear ning	-13492
H ist	-13493
▁r iders	-13494
▁sacr ific	-13495
M T	-13496
▁V A	-13497
▁S alt	-13498
▁occup ation	-13499
▁M i	-13500
▁dis g	-13501
lic t	-13502
▁n it	-13503
▁n odes	-13504
e em	-13505
▁P ier	-13506
▁hat red	-13507
ps y	-13508
ãĥ ī	-13509
▁the ater	-13510
▁sophistic ated	-13511
▁def ended	-13512
▁bes ides	-13513
▁thorough ly	-13514
▁Medic are	-13515
▁bl amed	-13516
arent ly	-13517
▁cry ing	-13518
F OR	-13519
pri v	-13520
▁sing ing	-13521
▁I l	-13522
▁c ute	-13523
o ided	-13524
olit ical	-13525
▁Ne uro	-13526
å ¤	-13527
▁don ation	-13528
▁Eag les	-13529
▁G ive	-13530
T om	-13531
▁substant ially	-13532
▁Lic ense	-13533
▁J a	-13534
▁g rey	-13535
▁An imal	-13536
▁E R	-13537
▁U nd	-13538
▁ke en	-13539
▁conclud e	-13540
▁Mississ ippi	-13541
Eng ine	-13542
▁Stud ios	-13543
P ress	-13544
o vers	-13545
ll ers	-13546
▁3 50	-13547
▁R angers	-13548
▁r ou	-13549
ert o	-13550
E p	-13551
iss a	-13552
iv an	-13553
▁se al	-13554
▁Reg ist	-13555
dis play	-13556
▁we aken	-13557
u um	-13558
▁Comm ons	-13559
▁S ay	-13560
▁cult ures	-13561
▁l aughed	-13562
▁sl ip	-13563
▁treat ments	-13564
iz able	-13565
m art	-13566
▁R ice	-13567
▁be ast	-13568
▁ob esity	-13569
▁La ure	-13570
ig a	-13571
Wh ich	-13572
hold er	-13573
▁elder ly	-13574
▁p ays	-13575
▁compl ained	-13576
▁c rop	-13577
▁pro c	-13578
▁explos ive	-13579
▁F an	-13580
▁Ar senal	-13581
A uthor	-13582
ef ul	-13583
▁me als	-13584
▁( -	-13585
id ays	-13586
▁imag ination	-13587
▁ann ually	-13588
▁m s	-13589
as ures	-13590
H ead	-13591
ik h	-13592
m atic	-13593
▁boy friend	-13594
▁Com puter	-13595
▁b ump	-13596
▁sur ge	-13597
▁Cra ig	-13598
▁Kir k	-13599
D el	-13600
medi ate	-13601
▁scen arios	-13602
▁M ut	-13603
▁St ream	-13604
▁compet itors	-13605
Ù Ħ	-13606
▁Stan ford	-13607
▁Res ources	-13608
az ed	-13609
b age	-13610
▁organ is	-13611
▁Re lease	-13612
▁separ ately	-13613
▁ha bits	-13614
▁measure ments	-13615
▁Cl ose	-13616
▁accomp any	-13617
▁g ly	-13618
▁t ang	-13619
▁R ou	-13620
▁plug in	-13621
▁con vey	-13622
▁Chall enge	-13623
oot s	-13624
j an	-13625
▁cur s	-13626
▁Rel ations	-13627
ke eper	-13628
▁approach ing	-13629
p ing	-13630
Spe aking	-13631
▁arrang ement	-13632
▁V I	-13633
are ttes	-13634
▁affect ing	-13635
▁perm its	-13636
b ecause	-13637
▁u seless	-13638
▁H us	-13639
!! !!	-13640
▁destro ying	-13641
Un fortunately	-13642
▁fasc inating	-13643
S em	-13644
▁elect oral	-13645
▁trans parency	-13646
▁Ch aos	-13647
▁volunte er	-13648
▁statist ical	-13649
▁activ ated	-13650
ro x	-13651
We b	-13652
H E	-13653
▁Hamp shire	-13654
is ive	-13655
M ap	-13656
▁tr ash	-13657
▁Law rence	-13658
st ick	-13659
C r	-13660
▁r ings	-13661
EX T	-13662
▁oper ational	-13663
op es	-13664
D oes	-13665
▁Ev ans	-13666
▁witness ed	-13667
P ort	-13668
▁launch ing	-13669
ec onom	-13670
w ear	-13671
▁Part icip	-13672
um m	-13673
cul es	-13674
▁R AM	-13675
▁T un	-13676
▁ass ured	-13677
▁b inary	-13678
▁bet ray	-13679
▁expl oration	-13680
▁F el	-13681
▁ad mission	-13682
it ated	-13683
S y	-13684
▁av oided	-13685
▁Sim ulator	-13686
▁celebr ated	-13687
▁Elect ric	-13688
¥ ŀ	-13689
▁cl uster	-13690
itzer land	-13691
he alth	-13692
L ine	-13693
▁N ash	-13694
at on	-13695
▁sp are	-13696
▁enter prise	-13697
▁D IS	-13698
clud es	-13699
▁fl ights	-13700
▁reg ards	-13701
▁Ã Ĺ	-13702
h alf	-13703
▁tr ucks	-13704
▁contact s	-13705
▁unc ons	-13706
▁Cl imate	-13707
▁imm ense	-13708
N EW	-13709
oc c	-13710
ect ive	-13711
▁emb od	-13712
▁pat rol	-13713
▁bes ide	-13714
▁v iable	-13715
▁cre ep	-13716
▁trig gered	-13717
ver ning	-13718
▁compar able	-13719
q l	-13720
▁g aining	-13721
ass es	-13722
▁( );	-13723
▁G rey	-13724
▁M LS	-13725
s ized	-13726
▁pros per	-13727
" ?	-13728
▁poll ing	-13729
▁sh ar	-13730
▁R C	-13731
▁fire arm	-13732
or ient	-13733
▁f ence	-13734
▁vari ations	-13735
g iving	-13736
▁P i	-13737
osp el	-13738
▁pled ge	-13739
▁c ure	-13740
▁sp y	-13741
▁viol ated	-13742
▁r ushed	-13743
▁stro ke	-13744
▁Bl og	-13745
sel s	-13746
▁E c	-13747
,' '	-13748
▁p ale	-13749
▁Coll ins	-13750
ter ror	-13751
▁Canad ians	-13752
▁t une	-13753
▁labor atory	-13754
▁n ons	-13755
t arian	-13756
▁dis ability	-13757
▁G am	-13758
▁sing er	-13759
al g	-13760
▁Sen ior	-13761
▁trad ed	-13762
▁War rior	-13763
▁inf ring	-13764
▁Frank lin	-13765
▁str ain	-13766
▁Swed ish	-13767
▁sevent h	-13768
▁B enn	-13769
▁T ell	-13770
▁synd rome	-13771
▁wond ered	-13772
id en	-13773
++ ++	-13774
ig o	-13775
▁pur ple	-13776
▁journal ism	-13777
▁reb el	-13778
▁f u	-13779
bl og	-13780
▁inv ite	-13781
ren cies	-13782
▁Cont act	-13783
Is rael	-13784
▁Cont ent	-13785
▁che er	-13786
▁bed room	-13787
▁Engine ering	-13788
▁Que ens	-13789
▁d well	-13790
▁Play Station	-13791
▁D im	-13792
▁Col on	-13793
l r	-13794
▁oper ates	-13795
▁motiv ation	-13796
US A	-13797
ast ered	-13798
C ore	-13799
▁Tr uth	-13800
ol o	-13801
OS E	-13802
▁Mem ory	-13803
▁pred ec	-13804
▁an arch	-13805
▁19 20	-13806
▁Y am	-13807
Ã ¨	-13808
b id	-13809
▁gr ateful	-13810
▁exc itement	-13811
▁tre asure	-13812
▁long est	-13813
ct ive	-13814
▁des erves	-13815
▁reserv es	-13816
▁cop s	-13817
▁Ott awa	-13818
▁Egypt ian	-13819
ank ed	-13820
▁art if	-13821
▁hypot hesis	-13822
: /	-13823
▁purch asing	-13824
▁love ly	-13825
H P	-13826
▁div ide	-13827
▁strict ly	-13828
▁question ing	-13829
▁taxp ayers	-13830
▁J oy	-13831
▁roll s	-13832
▁He avy	-13833
▁p orts	-13834
▁mag netic	-13835
▁inf lamm	-13836
▁br ush	-13837
t ics	-13838
â ĪĴ	-13839
▁bott les	-13840
pp y	-13841
▁p add	-13842
ãĤ ¯	-13843
m illion	-13844
▁devast ating	-13845
▁comp iled	-13846
▁med ication	-13847
▁tw elve	-13848
▁Per ry	-13849
Sp ace	-13850
im b	-13851
y our	-13852
▁le aked	-13853
▁T ar	-13854
▁un ity	-13855
▁infect ed	-13856
▁travel ed	-13857
ID E	-13858
▁Mc Donald	-13859
t xt	-13860
▁Pr inc	-13861
▁inter ven	-13862
▁Tai wan	-13863
▁P ow	-13864
▁be aring	-13865
▁Th read	-13866
▁z ones	-13867
iz ards	-13868
un ks	-13869
Ch apter	-13870
ll or	-13871
▁Â ·	-13872
▁w ounds	-13873
▁disc retion	-13874
▁succeed ed	-13875
ik ing	-13876
▁icon ic	-13877
C all	-13878
▁screen ing	-13879
▁M is	-13880
ict s	-13881
▁min isters	-13882
▁separ ation	-13883
Pl ayer	-13884
▁b ip	-13885
▁bel oved	-13886
▁count ing	-13887
▁E ye	-13888
ar ound	-13889
ing ing	-13890
▁table t	-13891
▁off ence	-13892
in ance	-13893
h ave	-13894
▁Inf o	-13895
▁Nin ja	-13896
▁protect ive	-13897
▁C ass	-13898
M ac	-13899
▁Qual ity	-13900
N orth	-13901
▁ ic	-13902
▁Cub a	-13903
▁Chron icle	-13904
▁Pro perty	-13905
▁fast est	-13906
ot os	-13907
▁G erm	-13908
OW N	-13909
▁bo om	-13910
▁Stan ley	-13911
ergus on	-13912
▁cle ver	-13913
▁ent ers	-13914
m ode	-13915
ter ior	-13916
▁S ens	-13917
▁lin ear	-13918
AR K	-13919
▁comp aring	-13920
▁pure ly	-13921
▁saf er	-13922
▁Pot ter	-13923
▁c ups	-13924
R T	-13925
▁gl uc	-13926
▁att ributed	-13927
▁du pl	-13928
▁P ap	-13929
▁prec ious	-13930
▁p a	-13931
iction ary	-13932
▁T ig	-13933
▁To o	-13934
ol utions	-13935
st an	-13936
▁rob ots	-13937
▁lob b	-13938
▁stat ute	-13939
▁prevent ion	-13940
w estern	-13941
16 0	-13942
▁Act ive	-13943
▁Mar ia	-13944
h al	-13945
N one	-13946
ell ar	-13947
▁K B	-13948
▁Part ners	-13949
▁Sing le	-13950
▁Follow ing	-13951
ang o	-13952
ac ious	-13953
▁th ou	-13954
▁k g	-13955
▁influ ential	-13956
▁Friend s	-13957
S ur	-13958
ain ted	-13959
▁for ums	-13960
▁st arter	-13961
▁citizens hip	-13962
▁E lection	-13963
on ge	-13964
ot ation	-13965
os ph	-13966
;; ;;	-13967
ut ical	-13968
p ur	-13969
ere n	-13970
▁accus ations	-13971
bit ious	-13972
ab bit	-13973
▁Or d	-13974
Post ed	-13975
ir k	-13976
▁sens itivity	-13977
ic he	-13978
▁Am y	-13979
▁F ab	-13980
▁sum mit	-13981
▁ped est	-13982
▁rub ber	-13983
▁agric ultural	-13984
▁can cel	-13985
A E	-13986
▁in aug	-13987
▁cont am	-13988
▁firm ly	-13989
i w	-13990
st age	-13991
▁K an	-13992
▁t ier	-13993
▁inv ention	-13994
▁transl ated	-13995
▁R ules	-13996
B ox	-13997
Tw itter	-13998
ID S	-13999
▁p izza	-14000
▁deb ug	-14001
▁D rop	-14002
v s	-14003
▁h orses	-14004
b ig	-14005
▁b oring	-14006
▁h ood	-14007
▁McC ain	-14008
at ched	-14009
▁Bro s	-14010
▁sk ip	-14011
▁ess ay	-14012
st at	-14013
▁Leg ends	-14014
▁am munition	-14015
au c	-14016
▁shoot er	-14017
▁un h	-14018
▁suppl ied	-14019
▁gener ic	-14020
▁S K	-14021
ib an	-14022
yr ics	-14023
▁25 5	-14024
▁clim bing	-14025
Form er	-14026
▁fl ip	-14027
▁jump ing	-14028
▁frust ration	-14029
▁Ter ry	-14030
▁neighborhood s	-14031
▁med ian	-14032
be an	-14033
▁br ains	-14034
Follow ing	-14035
▁sh aped	-14036
▁draw s	-14037
▁al tered	-14038
J ack	-14039
▁recip es	-14040
▁sk illed	-14041
we alth	-14042
ach i	-14043
e lection	-14044
▁behavi ors	-14045
de als	-14046
▁U ntil	-14047
F e	-14048
▁decl aration	-14049
mar ks	-14050
▁Bet ween	-14051
cel ona	-14052
▁res on	-14053
▁bub ble	-14054
Am ong	-14055
▁im perial	-14056
G S	-14057
▁femin ist	-14058
200 5	-14059
▁K yle	-14060
▁account ing	-14061
▁Te le	-14062
▁T yr	-14063
▁connect ing	-14064
▁re hab	-14065
▁P red	-14066
s im	-14067
▁meant ime	-14068
▁phys ician	-14069
M W	-14070
▁Camp bell	-14071
▁Br andon	-14072
▁contribut ing	-14073
▁R ule	-14074
▁We ight	-14075
▁N ap	-14076
▁inter active	-14077
▁v ag	-14078
▁hel met	-14079
▁Com b	-14080
f our	-14081
▁sh ipped	-14082
▁comple ting	-14083
▁P D	-14084
PD ATE	-14085
▁spread ing	-14086
▁sc ary	-14087
erv ing	-14088
▁G as	-14089
▁fr ank	-14090
s chool	-14091
▁rom antic	-14092
▁stab il	-14093
R ob	-14094
▁accur ately	-14095
▁ac ute	-14096
▁H ann	-14097
▁symbol s	-14098
▁civil ization	-14099
▁A W	-14100
▁light ning	-14101
▁cons iders	-14102
▁ven ue	-14103
▁ ×	-14104
▁o ven	-14105
▁S F	-14106
h is	-14107
▁n u	-14108
▁Lear n	-14109
▁pe oples	-14110
▁st d	-14111
▁sle e	-14112
▁s lic	-14113
▁Stat istics	-14114
▁cor ners	-14115
▁B aker	-14116
▁: )	-14117
ment ation	-14118
ol ver	-14119
▁laugh ing	-14120
▁T odd	-14121
ond e	-14122
▁H ills	-14123
▁n uts	-14124
▁W oman	-14125
pl ane	-14126
▁l iver	-14127
▁In side	-14128
S orry	-14129
▁agre es	-14130
▁fund ament	-14131
▁F isher	-14132
▁a uction	-14133
▁thread s	-14134
gl as	-14135
▁Bas ic	-14136
▁N at	-14137
▁lack ing	-14138
▁celeb ration	-14139
j u	-14140
▁s illy	-14141
E uro	-14142
▁t att	-14143
ight y	-14144
cont rolled	-14145
T est	-14146
▁Sing h	-14147
▁r age	-14148
▁rh yth	-14149
o ffic	-14150
▁Ph antom	-14151
▁head lines	-14152
▁respond ing	-14153
▁Mor ning	-14154
▁vit amin	-14155
▁boot s	-14156
▁S ite	-14157
al in	-14158
p i	-14159
▁vir al	-14160
▁U C	-14161
D ER	-14162
▁Se x	-14163
▁st ocks	-14164
c urrent	-14165
▁ch urches	-14166
▁R are	-14167
▁Mur phy	-14168
▁den ial	-14169
▁G aming	-14170
▁tou g	-14171
▁n ick	-14172
▁m akers	-14173
▁Ron ald	-14174
▁gener ous	-14175
▁D oc	-14176
▁Mor ris	-14177
▁transform ed	-14178
▁N ormal	-14179
▁10 4	-14180
▁Kick starter	-14181
▁Up on	-14182
On line	-14183
▁I RS	-14184
▁w rap	-14185
▁l oving	-14186
▁arri ves	-14187
▁D ue	-14188
▁he ter	-14189
▁M ade	-14190
▁rent al	-14191
▁belong s	-14192
▁att orneys	-14193
▁cro ps	-14194
▁mat ched	-14195
ul um	-14196
ol ine	-14197
10 9	-14198
▁dis par	-14199
▁buy ers	-14200
▁Cam bridge	-14201
▁eth ics	-14202
rou ps	-14203
▁just ified	-14204
▁marg inal	-14205
▁respect ed	-14206
win ning	-14207
▁nodd ed	-14208
▁Ser ge	-14209
▁Form er	-14210
C raft	-14211
######## ########	-14212
▁War ner	-14213
▁d ash	-14214
et e	-14215
▁ent ert	-14216
▁E scape	-14217
out heast	-14218
▁kn ees	-14219
▁B omb	-14220
▁r ug	-14221
P ass	-14222
▁att itudes	-14223
go vernment	-14224
▁Pri or	-14225
▁qual ities	-14226
▁not ification	-14227
▁Ph one	-14228
l ie	-14229
▁anticip ated	-14230
▁Com bat	-14231
▁Bar ry	-14232
▁198 2	-14233
Us ers	-14234
on er	-14235
▁comput ing	-14236
▁Connect icut	-14237
▁less er	-14238
▁pe ers	-14239
▁C u	-14240
▁techn ically	-14241
▁sub mission	-14242
▁Un iversal	-14243
▁man ually	-14244
our ge	-14245
▁respond ents	-14246
▁B TC	-14247
▁H ost	-14248
▁f are	-14249
▁B ird	-14250
▁rece ipt	-14251
al so	-14252
▁j ack	-14253
▁agric ulture	-14254
▁sk ull	-14255
▁! =	-14256
▁pass ive	-14257
▁C I	-14258
▁soc ieties	-14259
▁remind ed	-14260
▁inter ference	-14261
B uy	-14262
▁â ľ	-14263
g on	-14264
▁scrut iny	-14265
▁W itch	-14266
▁conduct ing	-14267
▁ ãĥ	-14268
▁exch anges	-14269
▁Mit chell	-14270
▁inhab it	-14271
▁tw ist	-14272
B D	-14273
▁where ver	-14274
group on	-14275
▁j okes	-14276
▁Ben jamin	-14277
▁R andom	-14278
fr ame	-14279
▁L ions	-14280
▁highlight ed	-14281
▁Ark ansas	-14282
E nt	-14283
▁p ile	-14284
[...]
