<pad>	0
<s>	0
</s>	0
<unk>	0
<sep>	0
!	-0
"	-1
#	-2
$	-3
%	-4
&	-5
'	-6
(	-7
)	-8
*	-9
+	-10
,	-11
-	-12
.	-13
/	-14
0	-15
1	-16
2	-17
3	-18
4	-19
5	-20
6	-21
7	-22
8	-23
9	-24
:	-25
;	-26
<	-27
=	-28
>	-29
?	-30
@	-31
A	-32
B	-33
C	-34
D	-35
E	-36
F	-37
G	-38
H	-39
I	-40
J	-41
K	-42
L	-43
M	-44
N	-45
O	-46
P	-47
Q	-48
R	-49
S	-50
T	-51
U	-52
V	-53
W	-54
X	-55
Y	-56
Z	-57
[	-58
\	-59
]	-60
^	-61
_	-62
`	-63
a	-64
b	-65
c	-66
d	-67
e	-68
f	-69
g	-70
h	-71
i	-72
j	-73
k	-74
l	-75
m	-76
n	-77
o	-78
p	-79
q	-80
r	-81
s	-82
t	-83
u	-84
v	-85
w	-86
x	-87
y	-88
z	-89
{	-90
|	-91
}	-92
~	-93
¡	-94
¢	-95
£	-96
¤	-97
¥	-98
¦	-99
§	-100
¨	-101
©	-102
ª	-103
«	-104
¬	-105
®	-106
¯	-107
°	-108
±	-109
²	-110
³	-111
´	-112
µ	-113
¶	-114
·	-115
¸	-116
¹	-117
º	-118
»	-119
¼	-120
½	-121
¾	-122
¿	-123
À	-124
Á	-125
Â	-126
Ã	-127
Ä	-128
Å	-129
Æ	-130
Ç	-131
È	-132
É	-133
Ê	-134
Ë	-135
Ì	-136
Í	-137
Î	-138
Ï	-139
Ð	-140
Ñ	-141
Ò	-142
Ó	-143
Ô	-144
Õ	-145
Ö	-146
×	-147
Ø	-148
Ù	-149
Ú	-150
Û	-151
Ü	-152
Ý	-153
Þ	-154
ß	-155
à	-156
á	-157
â	-158
ã	-159
ä	-160
å	-161
æ	-162
ç	-163
è	-164
é	-165
ê	-166
ë	-167
ì	-168
í	-169
î	-170
ï	-171
ð	-172
ñ	-173
ò	-174
ó	-175
ô	-176
õ	-177
ö	-178
÷	-179
ø	-180
ù	-181
ú	-182
û	-183
ü	-184
ý	-185
þ	-186
ÿ	-187
Ā	-188
ā	-189
Ă	-190
ă	-191
Ą	-192
ą	-193
Ć	-194
ć	-195
Ĉ	-196
ĉ	-197
Ċ	-198
ċ	-199
Č	-200
č	-201
Ď	-202
ď	-203
Đ	-204
đ	-205
Ē	-206
ē	-207
Ĕ	-208
ĕ	-209
Ė	-210
ė	-211
Ę	-212
ę	-213
Ě	-214
ě	-215
Ĝ	-216
ĝ	-217
Ğ	-218
ğ	-219
▁	-220
ġ	-221
Ģ	-222
ģ	-223
Ĥ	-224
ĥ	-225
Ħ	-226
ħ	-227
Ĩ	-228
ĩ	-229
Ī	-230
ī	-231
Ĭ	-232
ĭ	-233
Į	-234
į	-235
İ	-236
ı	-237
Ĳ	-238
ĳ	-239
Ĵ	-240
ĵ	-241
Ķ	-242
ķ	-243
ĸ	-244
Ĺ	-245
ĺ	-246
Ļ	-247
ļ	-248
Ľ	-249
ľ	-250
Ŀ	-251
ŀ	-252
Ł	-253
ł	-254
Ń	-255
▁t	-256
▁a	-257
he	-258
in	-259
re	-260
on	-261
▁the	-262
er	-263
▁s	-264
at	-265
▁w	-266
▁o	-267
en	-268
▁c	-269
it	-270
is	-271
an	-272
or	-273
es	-274
▁b	-275
ed	-276
▁f	-277
ing	-278
▁p	-279
ou	-280
▁an	-281
al	-282
ar	-283
▁to	-284
▁m	-285
▁of	-286
▁in	-287
▁d	-288
▁h	-289
▁and	-290
ic	-291
as	-292
le	-293
▁th	-294
ion	-295
om	-296
ll	-297
ent	-298
▁n	-299
▁l	-300
st	-301
▁re	-302
ve	-303
▁e	-304
ro	-305
ly	-306
▁be	-307
▁g	-308
▁T	-309
ct	-310
▁S	-311
id	-312
ot	-313
▁I	-314
ut	-315
et	-316
▁A	-317
▁is	-318
▁on	-319
im	-320
am	-321
ow	-322
ay	-323
ad	-324
se	-325
▁that	-326
▁C	-327
ig	-328
▁for	-329
ac	-330
▁y	-331
ver	-332
ur	-333
▁u	-334
ld	-335
▁st	-336
▁M	-337
's	-338
▁he	-339
▁it	-340
ation	-341
ith	-342
ir	-343
ce	-344
▁you	-345
il	-346
▁B	-347
▁wh	-348
ol	-349
▁P	-350
▁with	-351
▁1	-352
ter	-353
ch	-354
▁as	-355
▁we	-356
▁(	-357
nd	-358
ill	-359
▁D	-360
if	-361
▁2	-362
ag	-363
ers	-364
ke	-365
▁"	-366
▁H	-367
em	-368
▁con	-369
▁W	-370
▁R	-371
her	-372
▁was	-373
▁r	-374
od	-375
▁F	-376
ul	-377
ate	-378
▁at	-379
ri	-380
pp	-381
ore	-382
▁The	-383
▁se	-384
us	-385
▁pro	-386
▁ha	-387
um	-388
▁are	-389
▁de	-390
ain	-391
and	-392
▁or	-393
igh	-394
est	-395
ist	-396
ab	-397
rom	-398
▁N	-399
th	-400
▁com	-401
▁G	-402
un	-403
op	-404
00	-405
▁L	-406
▁not	-407
ess	-408
▁ex	-409
▁v	-410
res	-411
▁E	-412
ew	-413
ity	-414
ant	-415
▁by	-416
el	-417
os	-418
ort	-419
oc	-420
qu	-421
▁from	-422
▁have	-423
▁su	-424
ive	-425
ould	-426
▁sh	-427
▁this	-428
nt	-429
ra	-430
pe	-431
ight	-432
art	-433
ment	-434
▁al	-435
ust	-436
end	-437
--	-438
all	-439
▁O	-440
ack	-441
▁ch	-442
▁le	-443
ies	-444
red	-445
ard	-446
âĢ	-447
out	-448
▁J	-449
▁ab	-450
ear	-451
iv	-452
ally	-453
our	-454
ost	-455
gh	-456
pt	-457
▁pl	-458
ast	-459
▁can	-460
ak	-461
ome	-462
ud	-463
The	-464
▁his	-465
▁do	-466
▁go	-467
▁has	-468
ge	-469
't	-470
▁U	-471
rou	-472
▁sa	-473
▁j	-474
▁but	-475
▁wor	-476
▁all	-477
ect	-478
▁k	-479
ame	-480
▁will	-481
ok	-482
▁whe	-483
▁they	-484
ide	-485
01	-486
ff	-487
ich	-488
pl	-489
ther	-490
▁tr	-491
..	-492
▁int	-493
ie	-494
ure	-495
age	-496
▁ne	-497
ial	-498
ap	-499
ine	-500
ice	-501
▁me	-502
▁out	-503
ans	-504
one	-505
ong	-506
ions	-507
▁who	-508
▁K	-509
▁up	-510
▁their	-511
▁ad	-512
▁3	-513
▁us	-514
ated	-515
ous	-516
▁more	-517
ue	-518
og	-519
▁St	-520
ind	-521
ike	-522
▁so	-523
ime	-524
per	-525
."	-526
ber	-527
iz	-528
act	-529
▁one	-530
▁said	-531
▁-	-532
are	-533
▁your	-534
cc	-535
▁Th	-536
▁cl	-537
ep	-538
ake	-539
able	-540
ip	-541
▁cont	-542
▁which	-543
ia	-544
▁im	-545
▁about	-546
▁were	-547
very	-548
ub	-549
▁had	-550
▁en	-551
▁comp	-552
,"	-553
▁In	-554
▁un	-555
▁ag	-556
ire	-557
ace	-558
au	-559
ary	-560
▁would	-561
ass	-562
ry	-563
▁âĢ	-564
cl	-565
ook	-566
ere	-567
so	-568
▁V	-569
ign	-570
ib	-571
▁off	-572
▁te	-573
ven	-574
▁Y	-575
ile	-576
ose	-577
ite	-578
orm	-579
▁201	-580
▁res	-581
▁man	-582
▁per	-583
▁other	-584
ord	-585
ult	-586
▁been	-587
▁like	-588
ase	-589
ance	-590
ks	-591
ays	-592
own	-593
ence	-594
▁dis	-595
ction	-596
▁any	-597
▁app	-598
▁sp	-599
int	-600
ress	-601
ations	-602
ail	-603
▁4	-604
ical	-605
▁them	-606
▁her	-607
ount	-608
▁Ch	-609
▁ar	-610
▁if	-611
▁there	-612
▁pe	-613
▁year	-614
av	-615
▁my	-616
▁some	-617
▁when	-618
ough	-619
ach	-620
▁than	-621
ru	-622
ond	-623
ick	-624
▁over	-625
vel	-626
▁qu	-627
ĊĊ	-628
▁sc	-629
reat	-630
ree	-631
▁It	-632
ound	-633
port	-634
▁also	-635
▁part	-636
fter	-637
▁kn	-638
▁bec	-639
▁time	-640
ens	-641
▁5	-642
ople	-643
▁what	-644
▁no	-645
du	-646
mer	-647
ang	-648
▁new	-649
----	-650
▁get	-651
ory	-652
ition	-653
ings	-654
▁just	-655
▁into	-656
▁0	-657
ents	-658
ove	-659
te	-660
▁people	-661
▁pre	-662
▁its	-663
▁rec	-664
▁tw	-665
ian	-666
irst	-667
ark	-668
ors	-669
▁work	-670
ade	-671
ob	-672
▁she	-673
▁our	-674
wn	-675
ink	-676
lic	-677
▁19	-678
▁He	-679
ish	-680
nder	-681
ause	-682
▁him	-683
ons	-684
▁[	-685
▁ro	-686
form	-687
ild	-688
ates	-689
vers	-690
▁only	-691
oll	-692
▁spe	-693
ck	-694
ell	-695
amp	-696
▁acc	-697
▁bl	-698
ious	-699
urn	-700
ft	-701
ood	-702
▁how	-703
hed	-704
▁'	-705
▁after	-706
aw	-707
▁att	-708
ov	-709
ne	-710
▁play	-711
erv	-712
ict	-713
▁could	-714
itt	-715
▁am	-716
▁first	-717
▁6	-718
▁act	-719
▁$	-720
ec	-721
hing	-722
ual	-723
ull	-724
▁comm	-725
oy	-726
old	-727
ces	-728
ater	-729
▁fe	-730
▁bet	-731
we	-732
iff	-733
▁two	-734
ock	-735
▁back	-736
).	-737
ident	-738
▁under	-739
rough	-740
sel	-741
xt	-742
▁may	-743
round	-744
▁po	-745
ph	-746
iss	-747
▁des	-748
▁most	-749
▁did	-750
▁add	-751
ject	-752
▁inc	-753
fore	-754
▁pol	-755
ont	-756
▁again	-757
clud	-758
tern	-759
▁know	-760
▁need	-761
▁cons	-762
▁co	-763
▁.	-764
▁want	-765
▁see	-766
▁7	-767
ning	-768
iew	-769
▁This	-770
ced	-771
▁even	-772
▁ind	-773
ty	-774
▁We	-775
ath	-776
▁these	-777
▁pr	-778
▁use	-779
▁because	-780
▁fl	-781
ng	-782
▁now	-783
▁âĢĵ	-784
com	-785
ise	-786
▁make	-787
▁then	-788
ower	-789
▁every	-790
▁Un	-791
▁sec	-792
oss	-793
uch	-794
▁em	-795
▁=	-796
▁Re	-797
ied	-798
rit	-799
▁inv	-800
lect	-801
▁supp	-802
ating	-803
▁look	-804
man	-805
pect	-806
▁8	-807
row	-808
▁bu	-809
▁where	-810
ific	-811
▁years	-812
ily	-813
▁diff	-814
▁should	-815
▁rem	-816
Th	-817
In	-818
▁ev	-819
day	-820
're	-821
rib	-822
▁rel	-823
ss	-824
▁def	-825
▁right	-826
▁sy	-827
),	-828
les	-829
000	-830
hen	-831
▁through	-832
▁Tr	-833
__	-834
▁way	-835
▁don	-836
▁,	-837
▁10	-838
ased	-839
▁ass	-840
ublic	-841
▁reg	-842
▁And	-843
ix	-844
▁very	-845
▁includ	-846
other	-847
▁imp	-848
oth	-849
▁sub	-850
▁âĢĶ	-851
▁being	-852
arg	-853
▁Wh	-854
==	-855
ible	-856
▁does	-857
ange	-858
ram	-859
▁9	-860
ert	-861
ps	-862
ited	-863
ational	-864
▁br	-865
▁down	-866
▁many	-867
aking	-868
▁call	-869
uring	-870
ities	-871
▁ph	-872
ics	-873
als	-874
▁dec	-875
ative	-876
ener	-877
▁before	-878
ility	-879
▁well	-880
▁much	-881
erson	-882
▁those	-883
▁such	-884
▁ke	-885
▁end	-886
▁But	-887
ason	-888
ting	-889
▁long	-890
ef	-891
▁think	-892
ys	-893
▁bel	-894
▁sm	-895
its	-896
ax	-897
▁own	-898
▁prov	-899
▁set	-900
ife	-901
ments	-902
ble	-903
ward	-904
▁show	-905
▁pres	-906
ms	-907
omet	-908
▁ob	-909
▁say	-910
▁Sh	-911
ts	-912
ful	-913
▁eff	-914
▁gu	-915
▁inst	-916
und	-917
ren	-918
cess	-919
▁ent	-920
▁You	-921
▁good	-922
▁start	-923
ince	-924
▁made	-925
tt	-926
stem	-927
olog	-928
up	-929
▁|	-930
ump	-931
▁hel	-932
vern	-933
ular	-934
ually	-935
▁ac	-936
▁mon	-937
▁last	-938
▁200	-939
10	-940
▁stud	-941
ures	-942
▁Ar	-943
self	-944
ars	-945
meric	-946
ues	-947
cy	-948
▁min	-949
ollow	-950
▁col	-951
io	-952
▁mod	-953
▁count	-954
▁Com	-955
hes	-956
▁fin	-957
air	-958
ier	-959
âĢĶ	-960
read	-961
ank	-962
atch	-963
ever	-964
▁str	-965
▁point	-966
ork	-967
▁New	-968
▁sur	-969
ool	-970
alk	-971
ement	-972
▁used	-973
ract	-974
ween	-975
▁same	-976
oun	-977
▁Al	-978
ci	-979
▁differe	-980
▁while	-981
--------	-982
▁game	-983
cept	-984
▁sim	-985
...	-986
▁inter	-987
ek	-988
▁report	-989
▁produ	-990
▁still	-991
led	-992
ah	-993
▁here	-994
▁world	-995
▁though	-996
▁num	-997
arch	-998
imes	-999
ale	-1000
▁Se	-1001
▁If	-1002
//	-1003
▁Le	-1004
▁ret	-1005
▁ref	-1006
▁trans	-1007
ner	-1008
ution	-1009
ters	-1010
▁take	-1011
▁Cl	-1012
▁conf	-1013
way	-1014
ave	-1015
▁going	-1016
▁sl	-1017
ug	-1018
▁Americ	-1019
▁spec	-1020
▁hand	-1021
▁between	-1022
ists	-1023
▁De	-1024
oot	-1025
It	-1026
▁ear	-1027
▁against	-1028
▁high	-1029
gan	-1030
az	-1031
ather	-1032
▁exp	-1033
▁op	-1034
▁ins	-1035
▁gr	-1036
▁help	-1037
▁requ	-1038
ets	-1039
ins	-1040
▁Pro	-1041
ism	-1042
▁found	-1043
land	-1044
ata	-1045
uss	-1046
ames	-1047
▁person	-1048
▁great	-1049
pr	-1050
▁sign	-1051
▁An	-1052
've	-1053
▁somet	-1054
▁ser	-1055
hip	-1056
▁run	-1057
▁:	-1058
▁ter	-1059
irect	-1060
▁follow	-1061
▁det	-1062
ices	-1063
▁find	-1064
12	-1065
▁mem	-1066
▁cr	-1067
ered	-1068
ex	-1069
▁ext	-1070
uth	-1071
ense	-1072
co	-1073
▁team	-1074
ving	-1075
ouse	-1076
ash	-1077
att	-1078
ved	-1079
▁system	-1080
▁As	-1081
der	-1082
ives	-1083
min	-1084
▁lead	-1085
▁Bl	-1086
cent	-1087
▁around	-1088
▁govern	-1089
▁cur	-1090
velop	-1091
any	-1092
▁cour	-1093
alth	-1094
ages	-1095
ize	-1096
▁car	-1097
ode	-1098
▁law	-1099
▁read	-1100
'm	-1101
con	-1102
▁real	-1103
▁support	-1104
▁12	-1105
....	-1106
▁really	-1107
ness	-1108
▁fact	-1109
▁day	-1110
▁both	-1111
ying	-1112
▁serv	-1113
▁For	-1114
▁three	-1115
▁wom	-1116
▁med	-1117
ody	-1118
▁They	-1119
50	-1120
▁exper	-1121
ton	-1122
▁each	-1123
akes	-1124
▁che	-1125
▁cre	-1126
ines	-1127
▁rep	-1128
19	-1129
gg	-1130
illion	-1131
▁grou	-1132
ute	-1133
ik	-1134
We	-1135
get	-1136
ER	-1137
▁met	-1138
▁says	-1139
ox	-1140
▁during	-1141
ern	-1142
ized	-1143
ared	-1144
▁fam	-1145
ically	-1146
▁happ	-1147
▁Is	-1148
▁char	-1149
med	-1150
vent	-1151
▁gener	-1152
ient	-1153
ple	-1154
iet	-1155
rent	-1156
11	-1157
ves	-1158
ption	-1159
▁20	-1160
formation	-1161
▁cor	-1162
▁offic	-1163
ield	-1164
▁too	-1165
ision	-1166
▁inf	-1167
▁Z	-1168
the	-1169
oad	-1170
▁public	-1171
▁prog	-1172
ric	-1173
**	-1174
▁war	-1175
▁power	-1176
view	-1177
▁few	-1178
▁loc	-1179
▁different	-1180
▁state	-1181
▁head	-1182
'll	-1183
▁poss	-1184
▁stat	-1185
ret	-1186
ants	-1187
▁val	-1188
▁iss	-1189
▁cle	-1190
ivers	-1191
anc	-1192
▁expl	-1193
▁another	-1194
▁Q	-1195
▁av	-1196
thing	-1197
nce	-1198
Wh	-1199
▁child	-1200
▁since	-1201
ired	-1202
less	-1203
▁life	-1204
▁develop	-1205
ittle	-1206
▁dep	-1207
▁pass	-1208
ãĥ	-1209
▁turn	-1210
orn	-1211
This	-1212
bers	-1213
ross	-1214
▁Ad	-1215
▁fr	-1216
▁resp	-1217
▁second	-1218
oh	-1219
▁/	-1220
▁disc	-1221
▁&	-1222
▁something	-1223
▁comple	-1224
▁ed	-1225
▁fil	-1226
▁month	-1227
aj	-1228
uc	-1229
▁government	-1230
▁without	-1231
▁leg	-1232
▁dist	-1233
▁put	-1234
▁quest	-1235
ann	-1236
▁prot	-1237
20	-1238
▁never	-1239
ience	-1240
▁level	-1241
▁art	-1242
▁things	-1243
▁might	-1244
▁effect	-1245
▁contro	-1246
▁cent	-1247
▁18	-1248
▁allow	-1249
▁belie	-1250
chool	-1251
ott	-1252
▁incre	-1253
▁feel	-1254
▁result	-1255
▁lot	-1256
▁fun	-1257
ote	-1258
▁ty	-1259
erest	-1260
▁contin	-1261
▁using	-1262
▁big	-1263
201	-1264
▁ask	-1265
▁best	-1266
▁)	-1267
IN	-1268
▁opp	-1269
30	-1270
▁number	-1271
iness	-1272
St	-1273
lease	-1274
▁ca	-1275
▁must	-1276
▁direct	-1277
▁gl	-1278
▁<	-1279
▁open	-1280
▁post	-1281
▁come	-1282
▁seem	-1283
ording	-1284
▁week	-1285
ately	-1286
ital	-1287
▁el	-1288
riend	-1289
▁far	-1290
▁tra	-1291
inal	-1292
▁pri	-1293
▁US	-1294
▁place	-1295
▁form	-1296
▁told	-1297
":	-1298
ains	-1299
ature	-1300
▁Trump	-1301
▁stand	-1302
▁#	-1303
ider	-1304
▁Fr	-1305
▁next	-1306
▁soc	-1307
▁pur	-1308
▁let	-1309
▁little	-1310
▁hum	-1311
▁i	-1312
ron	-1313
15	-1314
▁15	-1315
▁commun	-1316
▁mark	-1317
▁There	-1318
▁wr	-1319
▁That	-1320
▁information	-1321
ways	-1322
▁bus	-1323
app	-1324
▁invest	-1325
me	-1326
▁hard	-1327
ained	-1328
ead	-1329
▁import	-1330
▁appro	-1331
▁test	-1332
▁tri	-1333
▁rest	-1334
osed	-1335
▁full	-1336
▁care	-1337
▁Sp	-1338
▁case	-1339
ON	-1340
▁sk	-1341
▁less	-1342
▁+	-1343
▁partic	-1344
▁Pl	-1345
ably	-1346
uck	-1347
ished	-1348
chn	-1349
be	-1350
▁list	-1351
ator	-1352
▁top	-1353
▁adv	-1354
▁Be	-1355
ruct	-1356
▁dem	-1357
ration	-1358
ling	-1359
gy	-1360
reen	-1361
ger	-1362
▁home	-1363
▁left	-1364
▁better	-1365
▁data	-1366
▁11	-1367
▁attack	-1368
▁proble	-1369
line	-1370
ards	-1371
▁beh	-1372
ral	-1373
▁How	-1374
▁She	-1375
arge	-1376
▁--	-1377
://	-1378
▁bro	-1379
▁Ph	-1380
ats	-1381
▁build	-1382
ww	-1383
ided	-1384
aim	-1385
ases	-1386
ency	-1387
▁main	-1388
ined	-1389
▁including	-1390
▁{	-1391
▁got	-1392
▁interest	-1393
▁keep	-1394
▁X	-1395
▁eas	-1396
aining	-1397
▁class	-1398
âĢ¦	-1399
▁No	-1400
▁var	-1401
▁small	-1402
ample	-1403
AT	-1404
▁ide	-1405
▁So	-1406
▁rece	-1407
▁polit	-1408
▁mov	-1409
▁plan	-1410
▁percent	-1411
iving	-1412
▁camp	-1413
▁pay	-1414
14	-1415
sc	-1416
ised	-1417
▁unt	-1418
oney	-1419
ploy	-1420
====	-1421
▁didn	-1422
▁Ind	-1423
els	-1424
ertain	-1425
▁pos	-1426
____	-1427
iver	-1428
▁process	-1429
▁program	-1430
ified	-1431
▁Rep	-1432
16	-1433
uro	-1434
ology	-1435
atter	-1436
ina	-1437
▁name	-1438
▁All	-1439
▁four	-1440
▁return	-1441
vious	-1442
bs	-1443
▁called	-1444
▁move	-1445
▁Sc	-1446
ird	-1447
▁group	-1448
▁bre	-1449
▁men	-1450
▁cap	-1451
ten	-1452
ee	-1453
▁dri	-1454
leg	-1455
here	-1456
uthor	-1457
▁pat	-1458
▁current	-1459
ides	-1460
▁pop	-1461
to	-1462
ention	-1463
▁always	-1464
▁mil	-1465
▁women	-1466
▁16	-1467
▁old	-1468
iven	-1469
raph	-1470
▁Or	-1471
ror	-1472
ently	-1473
▁near	-1474
▁Ex	-1475
ream	-1476
sh	-1477
▁14	-1478
▁free	-1479
ission	-1480
stand	-1481
▁Con	-1482
ality	-1483
used	-1484
13	-1485
▁design	-1486
▁change	-1487
▁chang	-1488
▁bo	-1489
▁vis	-1490
ember	-1491
▁book	-1492
ready	-1493
▁kill	-1494
25	-1495
pped	-1496
▁away	-1497
▁able	-1498
▁country	-1499
▁const	-1500
arn	-1501
▁order	-1502
AR	-1503
ior	-1504
ium	-1505
orth	-1506
18	-1507
ailable	-1508
▁sw	-1509
▁million	-1510
▁13	-1511
atic	-1512
ted	-1513
▁Go	-1514
▁oper	-1515
eng	-1516
▁thing	-1517
ajor	-1518
conom	-1519
▁Comm	-1520
▁why	-1521
ured	-1522
ural	-1523
▁school	-1524
by	-1525
▁Mar	-1526
▁aff	-1527
▁days	-1528
▁ann	-1529
ush	-1530
ane	-1531
If	-1532
eg	-1533
▁prof	-1534
▁health	-1535
outh	-1536
But	-1537
ional	-1538
.,	-1539
▁sol	-1540
▁already	-1541
▁30	-1542
▁charact	-1543
He	-1544
▁friend	-1545
ES	-1546
ians	-1547
icle	-1548
'd	-1549
▁On	-1550
▁least	-1551
▁prom	-1552
▁dr	-1553
▁hist	-1554
ither	-1555
▁est	-1556
iqu	-1557
17	-1558
son	-1559
▁tell	-1560
▁talk	-1561
ohn	-1562
oint	-1563
lection	-1564
AN	-1565
▁until	-1566
augh	-1567
▁later	-1568
▁ve	-1569
▁view	-1570
ending	-1571
ived	-1572
▁word	-1573
ware	-1574
▁cost	-1575
▁enough	-1576
▁give	-1577
▁United	-1578
▁techn	-1579
arent	-1580
OR	-1581
▁par	-1582
▁Dr	-1583
▁2016	-1584
rist	-1585
ering	-1586
▁Â	-1587
▁large	-1588
side	-1589
acy	-1590
ccess	-1591
▁win	-1592
▁important	-1593
▁199	-1594
▁doesn	-1595
▁17	-1596
▁business	-1597
▁clear	-1598
▁rese	-1599
",	-1600
ury	-1601
▁equ	-1602
aster	-1603
alf	-1604
▁American	-1605
nect	-1606
▁expect	-1607
iversity	-1608
▁occ	-1609
▁Fl	-1610
▁kind	-1611
▁mean	-1612
▁past	-1613
▁dev	-1614
▁bas	-1615
let	-1616
raft	-1617
▁organ	-1618
▁del	-1619
▁perform	-1620
▁story	-1621
▁season	-1622
▁Col	-1623
▁claim	-1624
▁came	-1625
▁within	-1626
▁line	-1627
▁project	-1628
▁At	-1629
▁control	-1630
ended	-1631
▁Sy	-1632
▁air	-1633
ization	-1634
▁*	-1635
ley	-1636
▁money	-1637
idd	-1638
You	-1639
for	-1640
▁family	-1641
▁making	-1642
▁bit	-1643
▁police	-1644
▁happen	-1645
▁vers	-1646
ony	-1647
uff	-1648
▁When	-1649
▁sit	-1650
ideo	-1651
lf	-1652
ison	-1653
▁sure	-1654
gin	-1655
▁appear	-1656
▁light	-1657
▁es	-1658
of	-1659
▁water	-1660
▁times	-1661
not	-1662
▁grow	-1663
▁company	-1664
▁Te	-1665
ows	-1666
▁mar	-1667
ource	-1668
iol	-1669
arm	-1670
br	-1671
▁example	-1672
▁conc	-1673
▁fore	-1674
▁To	-1675
pro	-1676
EN	-1677
ries	-1678
▁25	-1679
▁Can	-1680
ney	-1681
▁actually	-1682
▁ever	-1683
urity	-1684
aken	-1685
aps	-1686
▁tax	-1687
▁major	-1688
ama	-1689
▁often	-1690
eral	-1691
▁human	-1692
▁job	-1693
ister	-1694
▁available	-1695
ocr	-1696
enn	-1697
aid	-1698
ivid	-1699
▁record	-1700
?"	-1701
▁sing	-1702
▁Am	-1703
idence	-1704
▁news	-1705
ster	-1706
▁econom	-1707
▁following	-1708
▁Br	-1709
ising	-1710
▁hour	-1711
most	-1712
ument	-1713
▁sex	-1714
▁desc	-1715
▁become	-1716
▁Ed	-1717
▁took	-1718
▁having	-1719
▁product	-1720
ault	-1721
As	-1722
aring	-1723
▁means	-1724
▁hop	-1725
une	-1726
▁cho	-1727
▁certain	-1728
▁non	-1729
▁deal	-1730
24	-1731
lement	-1732
oci	-1733
ene	-1734
▁side	-1735
▁Pr	-1736
▁May	-1737
▁reason	-1738
ued	-1739
ched	-1740
ulation	-1741
▁elect	-1742
▁official	-1743
▁possible	-1744
▁hold	-1745
ands	-1746
ots	-1747
▁city	-1748
ories	-1749
▁sever	-1750
▁children	-1751
▁once	-1752
▁activ	-1753
ler	-1754
▁night	-1755
itions	-1756
▁John	-1757
ape	-1758
play	-1759
▁done	-1760
▁lim	-1761
▁working	-1762
▁Pres	-1763
orld	-1764
eb	-1765
▁Co	-1766
▁body	-1767
ails	-1768
utes	-1769
▁Mr	-1770
▁whether	-1771
▁author	-1772
rop	-1773
▁proper	-1774
▁seen	-1775
);	-1776
▁fac	-1777
▁Su	-1778
▁cond	-1779
iting	-1780
▁course	-1781
▁}	-1782
----------------	-1783
aign	-1784
▁event	-1785
▁eng	-1786
▁pot	-1787
▁intern	-1788
iam	-1789
▁short	-1790
empt	-1791
ãĤ	-1792
▁God	-1793
ilar	-1794
80	-1795
▁orig	-1796
IS	-1797
ourn	-1798
ability	-1799
itive	-1800
▁dam	-1801
▁100	-1802
▁press	-1803
▁doing	-1804
▁protect	-1805
ring	-1806
▁thought	-1807
▁question	-1808
rew	-1809
▁War	-1810
▁several	-1811
▁State	-1812
▁given	-1813
▁fund	-1814
▁Tw	-1815
▁went	-1816
ances	-1817
work	-1818
por	-1819
my	-1820
40	-1821
▁arg	-1822
artment	-1823
ustom	-1824
▁polic	-1825
▁meet	-1826
▁creat	-1827
22	-1828
▁States	-1829
▁games	-1830
raw	-1831
uture	-1832
▁understand	-1833
urs	-1834
▁Ob	-1835
lish	-1836
sy	-1837
▁makes	-1838
▁won	-1839
agon	-1840
▁htt	-1841
▁love	-1842
ential	-1843
▁complete	-1844
par	-1845
▁Im	-1846
AL	-1847
▁account	-1848
Âł	-1849
ored	-1850
vert	-1851
▁ident	-1852
▁2015	-1853
▁others	-1854
▁Min	-1855
iber	-1856
verage	-1857
There	-1858
itional	-1859
dd	-1860
▁prob	-1861
▁young	-1862
▁along	-1863
▁according	-1864
▁yet	-1865
▁members	-1866
▁What	-1867
oid	-1868
▁Man	-1869
And	-1870
▁among	-1871
ai	-1872
▁employ	-1873
▁Res	-1874
▁>	-1875
▁invol	-1876
▁low	-1877
af	-1878
▁Car	-1879
▁hig	-1880
▁One	-1881
▁Sec	-1882
ination	-1883
▁likely	-1884
▁ant	-1885
aged	-1886
▁Russ	-1887
▁ben	-1888
▁rele	-1889
For	-1890
back	-1891
▁Not	-1892
▁president	-1893
ball	-1894
▁access	-1895
ividual	-1896
▁Dem	-1897
▁Euro	-1898
60	-1899
▁known	-1900
irl	-1901
▁Gr	-1902
▁early	-1903
use	-1904
iety	-1905
âĢĵ	-1906
▁fight	-1907
▁sent	-1908
▁today	-1909
▁market	-1910
".	-1911
▁based	-1912
▁strong	-1913
urther	-1914
▁deb	-1915
mber	-1916
▁problem	-1917
▁death	-1918
▁social	-1919
imate	-1920
AS	-1921
ortun	-1922
▁campaign	-1923
ery	-1924
Ch	-1925
▁ey	-1926
ially	-1927
▁mus	-1928
wh	-1929
pos	-1930
▁er	-1931
▁saf	-1932
▁months	-1933
iron	-1934
▁viol	-1935
▁five	-1936
▁stre	-1937
▁players	-1938
inc	-1939
ald	-1940
year	-1941
aun	-1942
▁success	-1943
▁present	-1944
erence	-1945
▁2014	-1946
▁sugg	-1947
▁particular	-1948
▁try	-1949
▁suggest	-1950
▁Christ	-1951
ones	-1952
▁priv	-1953
23	-1954
▁crit	-1955
▁land	-1956
▁local	-1957
ify	-1958
29	-1959
▁aut	-1960
ED	-1961
▁Gu	-1962
▁mult	-1963
▁political	-1964
▁asked	-1965
▁former	-1966
itter	-1967
ript	-1968
▁close	-1969
▁pract	-1970
▁York	-1971
▁getting	-1972
▁across	-1973
▁comb	-1974
▁believe	-1975
▁z	-1976
▁toget	-1977
▁together	-1978
▁Cent	-1979
irc	-1980
▁individual	-1981
▁Mc	-1982
27	-1983
isk	-1984
▁Eng	-1985
▁face	-1986
▁24	-1987
▁value	-1988
▁area	-1989
ev	-1990
▁writ	-1991
▁President	-1992
▁vot	-1993
▁key	-1994
▁mom	-1995
put	-1996
▁anything	-1997
▁experience	-1998
attle	-1999
▁mind	-2000
aff	-2001
omm	-2002
▁future	-2003
ged	-2004
▁cut	-2005
▁tot	-2006
itch	-2007
▁video	-2008
▁investig	-2009
▁net	-2010
▁My	-2011
rict	-2012
ien	-2013
.)	-2014
▁impro	-2015
though	-2016
wards	-2017
▁connect	-2018
▁Med	-2019
selves	-2020
ensive	-2021
mb	-2022
ober	-2023
ators	-2024
An	-2025
▁50	-2026
▁redu	-2027
resent	-2028
▁above	-2029
▁fre	-2030
▁Europe	-2031
sw	-2032
▁amount	-2033
▁App	-2034
▁either	-2035
▁milit	-2036
▁anal	-2037
▁fail	-2038
▁En	-2039
ales	-2040
▁special	-2041
▁black	-2042
IT	-2043
cher	-2044
▁looking	-2045
▁fire	-2046
yn	-2047
▁almost	-2048
oon	-2049
▁study	-2050
▁miss	-2051
ches	-2052
rown	-2053
▁tre	-2054
▁community	-2055
▁media	-2056
▁food	-2057
▁comes	-2058
▁University	-2059
▁single	-2060
What	-2061
uly	-2062
▁half	-2063
ague	-2064
hod	-2065
▁Republic	-2066
▁started	-2067
▁quick	-2068
oto	-2069
book	-2070
▁issue	-2071
itor	-2072
▁else	-2073
▁consider	-2074
26	-2075
rodu	-2076
▁taken	-2077
28	-2078
99	-2079
▁With	-2080
▁true	-2081
▁wa	-2082
▁trad	-2083
▁ago	-2084
▁mess	-2085
ief	-2086
▁added	-2087
oke	-2088
▁bad	-2089
▁fav	-2090
33	-2091
▁similar	-2092
ask	-2093
▁Don	-2094
▁character	-2095
orts	-2096
▁House	-2097
▁reported	-2098
▁type	-2099
val	-2100
iod	-2101
▁However	-2102
▁targ	-2103
▁entire	-2104
pping	-2105
▁history	-2106
▁live	-2107
ffic	-2108
........	-2109
ederal	-2110
▁trying	-2111
▁discuss	-2112
▁Har	-2113
aces	-2114
lished	-2115
▁self	-2116
osp	-2117
rest	-2118
▁room	-2119
elt	-2120
▁fall	-2121
olution	-2122
▁et	-2123
▁x	-2124
▁isn	-2125
▁idea	-2126
bo	-2127
▁sound	-2128
▁Dep	-2129
▁someone	-2130
cially	-2131
ully	-2132
▁foc	-2133
▁object	-2134
ift	-2135
aper	-2136
▁player	-2137
▁rather	-2138
▁service	-2139
ashing	-2140
▁Do	-2141
▁Part	-2142
rug	-2143
mon	-2144
ply	-2145
▁mor	-2146
▁nothing	-2147
▁provide	-2148
IC	-2149
ung	-2150
▁party	-2151
▁exist	-2152
▁mag	-2153
70	-2154
▁rul	-2155
▁house	-2156
▁behind	-2157
▁however	-2158
▁World	-2159
▁sum	-2160
▁applic	-2161
▁;	-2162
▁function	-2163
gr	-2164
▁Pol	-2165
▁front	-2166
200	-2167
▁series	-2168
▁tem	-2169
▁typ	-2170
ills	-2171
▁opt	-2172
▁points	-2173
▁below	-2174
itted	-2175
▁specific	-2176
▁2017	-2177
umb	-2178
▁ra	-2179
▁previous	-2180
▁pret	-2181
reme	-2182
▁custom	-2183
▁court	-2184
▁Me	-2185
▁repl	-2186
▁whole	-2187
go	-2188
cer	-2189
▁treat	-2190
▁Act	-2191
▁probably	-2192
▁learn	-2193
ender	-2194
▁Ass	-2195
▁version	-2196
now	-2197
▁check	-2198
▁Cal	-2199
RE	-2200
minist	-2201
On	-2202
ources	-2203
▁benef	-2204
▁doc	-2205
▁deter	-2206
▁enc	-2207
▁super	-2208
▁address	-2209
▁vict	-2210
▁2013	-2211
▁meas	-2212
tr	-2213
▁field	-2214
When	-2215
▁signific	-2216
uge	-2217
▁feat	-2218
▁common	-2219
load	-2220
▁begin	-2221
▁bring	-2222
▁action	-2223
erman	-2224
▁describ	-2225
▁indust	-2226
▁wanted	-2227
ried	-2228
ming	-2229
▁attempt	-2230
45	-2231
fer	-2232
▁due	-2233
ression	-2234
##	-2235
▁shall	-2236
▁six	-2237
oo	-2238
▁step	-2239
▁pub	-2240
▁himself	-2241
▁23	-2242
▁cop	-2243
▁dest	-2244
▁stop	-2245
AC	-2246
ibility	-2247
▁lab	-2248
icult	-2249
▁hours	-2250
▁create	-2251
▁further	-2252
▁America	-2253
▁City	-2254
▁dou	-2255
head	-2256
ST	-2257
▁North	-2258
cing	-2259
▁national	-2260
ule	-2261
▁Inst	-2262
▁taking	-2263
▁Qu	-2264
irt	-2265
▁red	-2266
▁research	-2267
viron	-2268
▁Ge	-2269
▁break	-2270
ana	-2271
▁space	-2272
aterial	-2273
▁recent	-2274
▁Ab	-2275
▁general	-2276
▁hit	-2277
▁period	-2278
▁everything	-2279
ively	-2280
▁phys	-2281
▁saying	-2282
anks	-2283
▁cou	-2284
▁cult	-2285
aced	-2286
eal	-2287
uation	-2288
▁coun	-2289
lu	-2290
▁include	-2291
▁position	-2292
▁After	-2293
▁Canad	-2294
▁Em	-2295
▁imm	-2296
▁Red	-2297
▁pick	-2298
▁compl	-2299
▁matter	-2300
reg	-2301
ext	-2302
angu	-2303
isc	-2304
ole	-2305
aut	-2306
▁compet	-2307
eed	-2308
fect	-2309
▁21	-2310
▁Sen	-2311
▁These	-2312
asing	-2313
▁cannot	-2314
▁init	-2315
▁relations	-2316
ached	-2317
▁bar	-2318
▁40	-2319
▁TH	-2320
▁2012	-2321
▁vol	-2322
▁ground	-2323
▁security	-2324
▁upd	-2325
ilt	-2326
35	-2327
▁concern	-2328
▁Just	-2329
▁white	-2330
▁seems	-2331
▁Her	-2332
pecially	-2333
ients	-2334
▁announ	-2335
▁fig	-2336
ights	-2337
▁stri	-2338
like	-2339
ids	-2340
▁sus	-2341
▁watch	-2342
▁â	-2343
▁wind	-2344
▁Cont	-2345
▁itself	-2346
▁mass	-2347
Al	-2348
yle	-2349
ique	-2350
▁National	-2351
▁abs	-2352
▁pack	-2353
▁outside	-2354
▁anim	-2355
▁pain	-2356
eter	-2357
▁manag	-2358
duct	-2359
ogn	-2360
▁]	-2361
▁Sept	-2362
sec	-2363
off	-2364
▁Jan	-2365
▁foot	-2366
ades	-2367
▁third	-2368
▁mot	-2369
▁evidence	-2370
inton	-2371
▁threat	-2372
apt	-2373
ples	-2374
cle	-2375
▁lo	-2376
▁decl	-2377
▁item	-2378
medi	-2379
▁represent	-2380
omb	-2381
amer	-2382
▁significant	-2383
ograph	-2384
su	-2385
▁cal	-2386
ires	-2387
0000	-2388
ID	-2389
AM	-2390
▁simply	-2391
▁longer	-2392
▁file	-2393
OT	-2394
che	-2395
So	-2396
ateg	-2397
org	-2398
▁His	-2399
▁ener	-2400
▁dom	-2401
▁upon	-2402
ili	-2403
":"	-2404
▁themselves	-2405
▁coming	-2406
▁quite	-2407
▁difficult	-2408
▁Bar	-2409
ilities	-2410
rel	-2411
ends	-2412
cial	-2413
64	-2414
▁woman	-2415
rap	-2416
yr	-2417
▁necess	-2418
ips	-2419
▁text	-2420
▁require	-2421
▁military	-2422
▁review	-2423
▁respons	-2424
75	-2425
▁subject	-2426
▁instead	-2427
▁issues	-2428
▁gen	-2429
","	-2430
▁minutes	-2431
▁weap	-2432
ray	-2433
amed	-2434
time	-2435
bl	-2436
How	-2437
▁code	-2438
▁Sm	-2439
▁higher	-2440
▁Ste	-2441
ris	-2442
▁page	-2443
▁students	-2444
▁Intern	-2445
▁method	-2446
▁Aug	-2447
▁Per	-2448
▁Ag	-2449
▁policy	-2450
▁Sw	-2451
▁exec	-2452
▁accept	-2453
ume	-2454
ribut	-2455
▁words	-2456
▁final	-2457
▁changes	-2458
▁Democr	-2459
▁friends	-2460
▁respect	-2461
▁ep	-2462
▁compan	-2463
ivil	-2464
▁damage	-2465
****	-2466
ogle	-2467
vironment	-2468
▁neg	-2469
ental	-2470
▁ap	-2471
▁total	-2472
ival	-2473
!"	-2474
lim	-2475
▁needs	-2476
▁agre	-2477
▁development	-2478
▁age	-2479
iple	-2480
21	-2481
▁results	-2482
▁Af	-2483
Sh	-2484
▁gun	-2485
▁Obama	-2486
roll	-2487
▁@	-2488
▁rights	-2489
▁Brit	-2490
▁running	-2491
▁wasn	-2492
▁port	-2493
▁rate	-2494
▁pretty	-2495
▁target	-2496
▁saw	-2497
▁circ	-2498
▁works	-2499
icro	-2500
alt	-2501
over	-2502
www	-2503
That	-2504
lier	-2505
▁everyone	-2506
ude	-2507
▁pie	-2508
iddle	-2509
rael	-2510
▁rad	-2511
▁block	-2512
▁walk	-2513
To	-2514
ãģ	-2515
nes	-2516
▁Aust	-2517
aul	-2518
rote	-2519
▁South	-2520
ession	-2521
oph	-2522
▁shows	-2523
▁site	-2524
▁jo	-2525
▁risk	-2526
clus	-2527
lt	-2528
▁inj	-2529
iding	-2530
▁Spe	-2531
▁chall	-2532
irm	-2533
▁22	-2534
itting	-2535
str	-2536
▁hy	-2537
LE	-2538
key	-2539
▁began	-2540
atur	-2541
ashington	-2542
lam	-2543
▁Dav	-2544
bit	-2545
▁size	-2546
▁Par	-2547
38	-2548
ournal	-2549
face	-2550
▁decision	-2551
▁larg	-2552
▁jud	-2553
rect	-2554
▁continue	-2555
▁Oct	-2556
overed	-2557
▁Int	-2558
========	-2559
▁parent	-2560
▁Will	-2561
▁easy	-2562
▁drug	-2563
anger	-2564
▁sense	-2565
▁di	-2566
iday	-2567
▁energy	-2568
istic	-2569
▁associ	-2570
arter	-2571
obal	-2572
eks	-2573
▁El	-2574
urch	-2575
▁girl	-2576
oe	-2577
itle	-2578
▁28	-2579
▁Che	-2580
▁request	-2581
▁soon	-2582
▁host	-2583
ky	-2584
▁states	-2585
omes	-2586
▁material	-2587
lex	-2588
▁moment	-2589
▁answ	-2590
onse	-2591
▁especially	-2592
▁norm	-2593
▁services	-2594
pite	-2595
ran	-2596
▁role	-2597
44	-2598
):	-2599
▁cred	-2600
Cl	-2601
________	-2602
▁mat	-2603
▁log	-2604
▁Clinton	-2605
OU	-2606
▁office	-2607
▁26	-2608
▁charg	-2609
▁track	-2610
ma	-2611
▁heart	-2612
▁ball	-2613
▁personal	-2614
▁building	-2615
na	-2616
set	-2617
body	-2618
▁Black	-2619
▁increase	-2620
itten	-2621
▁needed	-2622
36	-2623
32	-2624
="	-2625
▁lost	-2626
▁became	-2627
▁groups	-2628
▁Mus	-2629
▁wrote	-2630
▁Pe	-2631
▁prop	-2632
joy	-2633
Ã©	-2634
▁White	-2635
▁dead	-2636
.'	-2637
▁http	-2638
▁webs	-2639
OS	-2640
▁inside	-2641
▁wrong	-2642
▁statement	-2643
▁...	-2644
yl	-2645
▁film	-2646
▁music	-2647
▁share	-2648
ification	-2649
▁release	-2650
▁forward	-2651
▁stay	-2652
▁comput	-2653
itte	-2654
ser	-2655
▁original	-2656
▁card	-2657
▁cand	-2658
▁div	-2659
atural	-2660
▁favor	-2661
OM	-2662
▁cases	-2663
uses	-2664
▁section	-2665
▁leave	-2666
ging	-2667
oved	-2668
▁Washington	-2669
39	-2670
▁Gl	-2671
▁required	-2672
action	-2673
apan	-2674
oor	-2675
iter	-2676
▁King	-2677
▁countries	-2678
▁German	-2679
lling	-2680
▁27	-2681
34	-2682
▁questions	-2683
▁prim	-2684
▁cell	-2685
▁shoot	-2686
▁anyone	-2687
▁West	-2688
▁affect	-2689
epend	-2690
▁online	-2691
▁Israel	-2692
▁September	-2693
▁ability	-2694
▁content	-2695
ises	-2696
▁reve	-2697
▁laun	-2698
▁indic	-2699
▁force	-2700
cast	-2701
▁sold	-2702
aving	-2703
fl	-2704
▁soft	-2705
▁companies	-2706
ceed	-2707
▁article	-2708
▁aud	-2709
▁rev	-2710
▁educ	-2711
▁playing	-2712
05	-2713
▁held	-2714
ctor	-2715
▁released	-2716
▁federal	-2717
37	-2718
▁administ	-2719
▁interview	-2720
▁install	-2721
▁received	-2722
▁source	-2723
uk	-2724
Ph	-2725
▁serious	-2726
▁created	-2727
▁cause	-2728
▁immedi	-2729
▁defin	-2730
uel	-2731
▁Department	-2732
ctions	-2733
▁Cour	-2734
▁Now	-2735
ze	-2736
ites	-2737
itution	-2738
▁late	-2739
▁speak	-2740
ners	-2741
▁legal	-2742
ari	-2743
▁Cor	-2744
▁weeks	-2745
▁model	-2746
▁pred	-2747
▁exact	-2748
BC	-2749
▁By	-2750
ING	-2751
osing	-2752
▁takes	-2753
▁regard	-2754
▁opportun	-2755
▁price	-2756
▁198	-2757
▁Apr	-2758
fully	-2759
▁ord	-2760
▁problems	-2761
ruction	-2762
ham	-2763
▁Count	-2764
lege	-2765
▁leaders	-2766
ET	-2767
lev	-2768
▁deep	-2769
ological	-2770
ese	-2771
haps	-2772
▁Some	-2773
▁pers	-2774
▁contract	-2775
▁relationship	-2776
sp	-2777
oud	-2778
▁base	-2779
48	-2780
mit	-2781
Ad	-2782
ancial	-2783
▁consum	-2784
▁potential	-2785
▁langu	-2786
rem	-2787
eth	-2788
▁relig	-2789
ressed	-2790
66	-2791
▁link	-2792
▁lower	-2793
ayer	-2794
▁June	-2795
▁fem	-2796
unt	-2797
erc	-2798
urd	-2799
▁contact	-2800
▁ill	-2801
▁mother	-2802
▁estab	-2803
htt	-2804
▁March	-2805
▁Bro	-2806
▁China	-2807
▁29	-2808
▁squ	-2809
▁provided	-2810
▁average	-2811
asons	-2812
▁2011	-2813
▁exam	-2814
lin	-2815
55	-2816
ned	-2817
▁perfect	-2818
▁tou	-2819
alse	-2820
ux	-2821
▁buy	-2822
▁shot	-2823
▁collect	-2824
▁phot	-2825
▁played	-2826
▁surpr	-2827
▁officials	-2828
▁simple	-2829
avy	-2830
▁industry	-2831
▁hands	-2832
ground	-2833
▁pull	-2834
▁round	-2835
▁user	-2836
▁range	-2837
uary	-2838
▁private	-2839
ops	-2840
ees	-2841
▁ways	-2842
▁Mich	-2843
▁veh	-2844
▁except	-2845
▁terms	-2846
imum	-2847
pper	-2848
ION	-2849
ores	-2850
▁Dragon	-2851
oul	-2852
▁den	-2853
▁performance	-2854
▁bill	-2855
cil	-2856
47	-2857
▁environment	-2858
▁exc	-2859
add	-2860
▁worth	-2861
▁pict	-2862
▁chance	-2863
▁2018	-2864
bor	-2865
▁speed	-2866
iction	-2867
▁alleg	-2868
▁Japan	-2869
atory	-2870
reet	-2871
▁match	-2872
▁II	-2873
▁stru	-2874
order	-2875
▁ste	-2876
▁living	-2877
▁struct	-2878
ino	-2879
▁separ	-2880
hern	-2881
▁response	-2882
▁enjoy	-2883
▁via	-2884
AD	-2885
uments	-2886
acebook	-2887
▁member	-2888
ibr	-2889
izing	-2890
▁tool	-2891
▁Mon	-2892
▁While	-2893
hood	-2894
▁Ang	-2895
▁Def	-2896
▁offer	-2897
Tr	-2898
aur	-2899
▁turned	-2900
▁July	-2901
down	-2902
anced	-2903
▁recently	-2904
▁Ear	-2905
▁ce	-2906
▁Star	-2907
▁Cong	-2908
rought	-2909
▁blood	-2910
▁hope	-2911
▁comment	-2912
aint	-2913
▁arri	-2914
iles	-2915
▁particip	-2916
ought	-2917
ription	-2918
08	-2919
49	-2920
▁gave	-2921
▁select	-2922
▁killed	-2923
sych	-2924
▁goes	-2925
ij	-2926
▁coll	-2927
▁impact	-2928
atives	-2929
▁Ser	-2930
09	-2931
▁August	-2932
▁boy	-2933
de	-2934
▁Des	-2935
▁felt	-2936
US	-2937
▁expected	-2938
▁image	-2939
▁Mark	-2940
ccording	-2941
oice	-2942
EC	-2943
▁Mag	-2944
ened	-2945
hold	-2946
▁Post	-2947
▁prevent	-2948
No	-2949
▁involved	-2950
▁eyes	-2951
▁quickly	-2952
At	-2953
unk	-2954
▁behav	-2955
▁ur	-2956
▁led	-2957
come	-2958
ey	-2959
▁candid	-2960
▁earlier	-2961
▁focus	-2962
ety	-2963
Pro	-2964
ledge	-2965
ixed	-2966
illed	-2967
▁popular	-2968
AP	-2969
▁sett	-2970
light	-2971
▁various	-2972
inks	-2973
▁levels	-2974
▁road	-2975
ellig	-2976
ables	-2977
hel	-2978
ittee	-2979
▁Gener	-2980
ype	-2981
▁heard	-2982
icles	-2983
▁mis	-2984
▁users	-2985
▁San	-2986
▁improve	-2987
▁father	-2988
▁search	-2989
They	-2990
vil	-2991
▁profess	-2992
▁knew	-2993
▁loss	-2994
▁events	-2995
65	-2996
▁billion	-2997
07	-2998
02	-2999
▁News	-3000
▁AM	-3001
▁cover	-3002
where	-3003
ension	-3004
▁bott	-3005
▁areas	-3006
ences	-3007
ope	-3008
▁Twitter	-3009
ael	-3010
▁gets	-3011
▁Google	-3012
▁sn	-3013
iant	-3014
▁vote	-3015
▁nearly	-3016
▁included	-3017
▁recogn	-3018
zz	-3019
mm	-3020
aled	-3021
▁happened	-3022
04	-3023
▁hot	-3024
▁whose	-3025
▁civil	-3026
▁suff	-3027
oes	-3028
itiz	-3029
▁Syri	-3030
▁respond	-3031
▁hon	-3032
▁features	-3033
▁economic	-3034
▁April	-3035
rim	-3036
▁technology	-3037
▁option	-3038
aging	-3039
▁purch	-3040
Re	-3041
▁lat	-3042
chie	-3043
isl	-3044
▁recomm	-3045
uf	-3046
▁training	-3047
▁effects	-3048
▁fast	-3049
▁2010	-3050
▁occur	-3051
▁website	-3052
▁email	-3053
▁sens	-3054
ech	-3055
▁oil	-3056
▁influ	-3057
▁currently	-3058
▁Sch	-3059
▁Add	-3060
▁goal	-3061
▁scient	-3062
▁conv	-3063
100	-3064
emy	-3065
▁decided	-3066
▁travel	-3067
▁mention	-3068
LL	-3069
03	-3070
▁election	-3071
▁phone	-3072
▁looks	-3073
▁situation	-3074
▁cy	-3075
▁hor	-3076
bed	-3077
▁Court	-3078
aily	-3079
aves	-3080
▁quality	-3081
▁Comp	-3082
wise	-3083
▁table	-3084
▁staff	-3085
▁Wind	-3086
ett	-3087
▁tried	-3088
idered	-3089
▁addition	-3090
▁box	-3091
▁lack	-3092
arily	-3093
▁wide	-3094
▁mid	-3095
▁board	-3096
ysis	-3097
▁anti	-3098
ha	-3099
▁dig	-3100
ening	-3101
▁dro	-3102
Con	-3103
68	-3104
▁slow	-3105
based	-3106
sequ	-3107
▁path	-3108
Ex	-3109
aker	-3110
▁worked	-3111
▁pen	-3112
▁engine	-3113
▁looked	-3114
▁Super	-3115
▁Serv	-3116
▁victim	-3117
Un	-3118
▁property	-3119
▁introdu	-3120
▁execut	-3121
▁PM	-3122
Le	-3123
▁color	-3124
▁More	-3125
▁60	-3126
▁network	-3127
▁date	-3128
cul	-3129
idge	-3130
▁extra	-3131
31	-3132
▁sle	-3133
67	-3134
▁wond	-3135
▁reports	-3136
just	-3137
▁Austral	-3138
▁capital	-3139
▁ens	-3140
▁command	-3141
▁allowed	-3142
▁prep	-3143
▁capt	-3144
hib	-3145
▁numbers	-3146
chan	-3147
▁fair	-3148
mp	-3149
oms	-3150
▁reach	-3151
With	-3152
tain	-3153
▁broad	-3154
▁couple	-3155
ecause	-3156
lying	-3157
▁Feb	-3158
▁screen	-3159
▁lives	-3160
▁prior	-3161
▁Congress	-3162
Ar	-3163
▁approach	-3164
▁emer	-3165
aries	-3166
▁Dis	-3167
serv	-3168
▁Ne	-3169
▁built	-3170
cies	-3171
▁repe	-3172
▁rules	-3173
force	-3174
▁Pal	-3175
▁financial	-3176
▁considered	-3177
▁Char	-3178
nces	-3179
▁IS	-3180
▁brought	-3181
▁bi	-3182
iers	-3183
▁Sim	-3184
OP	-3185
▁products	-3186
▁visit	-3187
▁document	-3188
▁conduct	-3189
▁completely	-3190
ining	-3191
▁Calif	-3192
ibly	-3193
▁written	-3194
▁TV	-3195
ements	-3196
▁draw	-3197
One	-3198
▁published	-3199
▁secret	-3200
rain	-3201
het	-3202
▁Facebook	-3203
onday	-3204
▁Up	-3205
▁sexual	-3206
▁thous	-3207
▁Pat	-3208
▁ess	-3209
▁standard	-3210
▁arm	-3211
ges	-3212
ection	-3213
▁fell	-3214
▁foreign	-3215
ani	-3216
▁Friday	-3217
▁regular	-3218
inary	-3219
▁increased	-3220
▁usually	-3221
▁demon	-3222
▁dark	-3223
▁additional	-3224
rol	-3225
▁Of	-3226
▁production	-3227
!!	-3228
undred	-3229
▁international	-3230
idents	-3231
▁Free	-3232
roup	-3233
▁race	-3234
▁mach	-3235
▁huge	-3236
All	-3237
lear	-3238
ovember	-3239
▁town	-3240
▁attention	-3241
▁Off	-3242
yond	-3243
▁Then	-3244
field	-3245
▁terror	-3246
raz	-3247
▁Bo	-3248
▁meeting	-3249
▁Park	-3250
▁arrest	-3251
▁fear	-3252
▁aw	-3253
▁Val	-3254
oring	-3255
',	-3256
▁extreme	-3257
arr	-3258
▁workers	-3259
After	-3260
▁31	-3261
net	-3262
ament	-3263
▁directly	-3264
▁population	-3265
ube	-3266
▁October	-3267
▁IN	-3268
▁January	-3269
59	-3270
▁David	-3271
▁cross	-3272
cember	-3273
▁First	-3274
▁message	-3275
irit	-3276
▁nation	-3277
▁poll	-3278
isions	-3279
▁answer	-3280
ny	-3281
isode	-3282
▁carry	-3283
▁Russia	-3284
▁hear	-3285
ength	-3286
roy	-3287
▁natural	-3288
inally	-3289
▁dog	-3290
mitted	-3291
▁trade	-3292
▁subst	-3293
▁multiple	-3294
▁Afric	-3295
▁fans	-3296
▁sort	-3297
▁global	-3298
ication	-3299
▁Wed	-3300
ara	-3301
▁achie	-3302
▁language	-3303
vey	-3304
▁tal	-3305
▁necessary	-3306
▁details	-3307
▁sen	-3308
▁Sund	-3309
▁Reg	-3310
▁Rec	-3311
06	-3312
▁sil	-3313
ressive	-3314
▁medical	-3315
unch	-3316
ornia	-3317
▁und	-3318
fort	-3319
ocks	-3320
▁Monday	-3321
uesday	-3322
craft	-3323
77	-3324
urt	-3325
▁ver	-3326
▁Hill	-3327
▁receive	-3328
▁morning	-3329
estern	-3330
▁bank	-3331
▁sat	-3332
irth	-3333
▁High	-3334
▁device	-3335
▁THE	-3336
▁Center	-3337
▁safe	-3338
▁ple	-3339
▁Canada	-3340
▁systems	-3341
▁assist	-3342
▁surv	-3343
▁battle	-3344
▁Soc	-3345
vertis	-3346
She	-3347
▁paper	-3348
▁growth	-3349
▁cast	-3350
Sc	-3351
▁plans	-3352
lled	-3353
▁parts	-3354
▁wall	-3355
▁movement	-3356
▁practice	-3357
imately	-3358
▁display	-3359
▁sometimes	-3360
omp	-3361
▁Paul	-3362
▁Yes	-3363
king	-3364
58	-3365
oly	-3366
▁son	-3367
▁avoid	-3368
okes	-3369
▁Jew	-3370
▁towards	-3371
asc	-3372
▁//	-3373
▁Kore	-3374
▁talking	-3375
▁correct	-3376
▁spent	-3377
icks	-3378
iable	-3379
eared	-3380
▁term	-3381
▁wants	-3382
oming	-3383
▁ut	-3384
▁doub	-3385
▁forces	-3386
▁please	-3387
69	-3388
▁November	-3389
atform	-3390
ondon	-3391
▁ones	-3392
▁immediately	-3393
▁Russian	-3394
▁Met	-3395
▁deg	-3396
▁parents	-3397
CH	-3398
▁Americans	-3399
aly	-3400
▁Mod	-3401
▁shown	-3402
▁conditions	-3403
▁stuff	-3404
▁reb	-3405
▁Your	-3406
▁includes	-3407
nown	-3408
▁Sam	-3409
▁experien	-3410
mission	-3411
▁Even	-3412
aught	-3413
▁announced	-3414
▁Republican	-3415
▁determin	-3416
▁described	-3417
▁County	-3418
()	-3419
▁door	-3420
▁changed	-3421
▁neigh	-3422
▁Here	-3423
▁clean	-3424
▁pan	-3425
▁December	-3426
▁European	-3427
iring	-3428
apter	-3429
▁club	-3430
▁Tuesday	-3431
▁paid	-3432
▁Net	-3433
▁attacks	-3434
▁characters	-3435
▁alone	-3436
▁director	-3437
dom	-3438
▁35	-3439
▁load	-3440
▁rout	-3441
▁California	-3442
▁finally	-3443
▁rac	-3444
▁contr	-3445
▁exactly	-3446
resh	-3447
pri	-3448
▁Islam	-3449
▁nature	-3450
▁career	-3451
▁latest	-3452
▁convers	-3453
▁Sl	-3454
pose	-3455
cient	-3456
▁Inc	-3457
ivity	-3458
88	-3459
▁Att	-3460
▁Mor	-3461
nesday	-3462
▁weight	-3463
ken	-3464
▁note	-3465
▁teams	-3466
▁\	-3467
airs	-3468
▁Green	-3469
▁hundred	-3470
onent	-3471
▁streng	-3472
▁consist	-3473
icated	-3474
▁regul	-3475
▁lic	-3476
astic	-3477
▁ten	-3478
ursday	-3479
elligence	-3480
ously	-3481
▁UK	-3482
BI	-3483
▁costs	-3484
▁independ	-3485
▁AP	-3486
▁normal	-3487
▁hom	-3488
▁obvious	-3489
▁swe	-3490
▁star	-3491
▁ready	-3492
acher	-3493
▁implement	-3494
gest	-3495
▁song	-3496
▁Get	-3497
▁Lab	-3498
▁interesting	-3499
using	-3500
▁giving	-3501
▁Sunday	-3502
▁etc	-3503
▁middle	-3504
▁remember	-3505
right	-3506
osition	-3507
utions	-3508
▁max	-3509
46	-3510
▁yourself	-3511
▁demand	-3512
▁treatment	-3513
▁danger	-3514
▁Cons	-3515
▁guy	-3516
▁British	-3517
▁physical	-3518
▁related	-3519
▁remain	-3520
▁couldn	-3521
▁refer	-3522
▁citiz	-3523
box	-3524
ENT	-3525
board	-3526
▁inn	-3527
IG	-3528
ero	-3529
▁Street	-3530
ospital	-3531
rench	-3532
chers	-3533
▁stra	-3534
OL	-3535
ager	-3536
▁AN	-3537
▁easily	-3538
IA	-3539
enge	-3540
iny	-3541
▁clos	-3542
ocked	-3543
▁uses	-3544
▁Coun	-3545
Im	-3546
uild	-3547
??	-3548
more	-3549
▁ang	-3550
▁write	-3551
olute	-3552
57	-3553
▁leader	-3554
▁reading	-3555
</	-3556
▁autom	-3557
ests	-3558
43	-3559
▁legisl	-3560
▁Gold	-3561
▁designed	-3562
▁ST	-3563
▁Leg	-3564
ares	-3565
▁beaut	-3566
▁Tex	-3567
▁appears	-3568
▁strugg	-3569
▁Rom	-3570
▁00	-3571
▁choice	-3572
▁particularly	-3573
▁From	-3574
oper	-3575
▁London	-3576
anned	-3577
▁allows	-3578
obile	-3579
▁difference	-3580
âĢ¢	-3581
▁View	-3582
▁Wednesday	-3583
▁although	-3584
▁relative	-3585
▁application	-3586
atever	-3587
▁aren	-3588
▁myself	-3589
▁imag	-3590
▁dise	-3591
▁society	-3592
▁frequ	-3593
▁English	-3594
▁poor	-3595
▁Day	-3596
▁writing	-3597
▁seven	-3598
▁starting	-3599
▁bud	-3600
▁print	-3601
▁Trans	-3602
ufact	-3603
▁Stud	-3604
new	-3605
▁crim	-3606
▁gives	-3607
▁cool	-3608
ae	-3609
iance	-3610
▁General	-3611
▁thinking	-3612
▁save	-3613
▁limited	-3614
▁Party	-3615
▁meaning	-3616
pen	-3617
owers	-3618
▁Jack	-3619
EM	-3620
▁nice	-3621
rupt	-3622
▁gas	-3623
▁eight	-3624
▁feet	-3625
▁effort	-3626
▁ign	-3627
icit	-3628
Bl	-3629
coin	-3630
▁opin	-3631
▁brain	-3632
While	-3633
hest	-3634
▁Thursday	-3635
▁wouldn	-3636
aughter	-3637
▁touch	-3638
lements	-3639
▁studies	-3640
▁center	-3641
cont	-3642
orge	-3643
▁computer	-3644
▁investigation	-3645
Pl	-3646
orks	-3647
▁2008	-3648
▁increasing	-3649
▁store	-3650
▁comments	-3651
▁bal	-3652
men	-3653
▁doll	-3654
▁liber	-3655
▁wife	-3656
▁laws	-3657
aturday	-3658
itness	-3659
▁modern	-3660
▁Sk	-3661
▁administration	-3662
▁opportunity	-3663
▁sal	-3664
▁powerful	-3665
My	-3666
▁claims	-3667
▁Earth	-3668
ords	-3669
▁title	-3670
▁esc	-3671
name	-3672
Not	-3673
omen	-3674
▁beyond	-3675
▁camer	-3676
▁sell	-3677
itute	-3678
earch	-3679
▁appl	-3680
iment	-3681
42	-3682
▁Art	-3683
▁unf	-3684
▁violence	-3685
urg	-3686
▁East	-3687
▁compared	-3688
▁options	-3689
▁throughout	-3690
▁vs	-3691
igr	-3692
.[	-3693
aches	-3694
78	-3695
▁files	-3696
FL	-3697
EL	-3698
arian	-3699
▁James	-3700
▁Air	-3701
anch	-3702
▁detail	-3703
▁piece	-3704
PS	-3705
▁named	-3706
▁education	-3707
▁drive	-3708
▁items	-3709
▁student	-3710
iced	-3711
::	-3712
ico	-3713
▁throw	-3714
▁scene	-3715
▁complex	-3716
▁2009	-3717
▁prec	-3718
▁Bre	-3719
79	-3720
▁concept	-3721
▁status	-3722
aming	-3723
▁died	-3724
▁knowledge	-3725
▁beginning	-3726
OD	-3727
ruary	-3728
▁certainly	-3729
▁guys	-3730
▁slight	-3731
inn	-3732
ounds	-3733
▁fine	-3734
▁fat	-3735
ications	-3736
▁perhaps	-3737
▁Ant	-3738
▁income	-3739
▁https	-3740
▁majority	-3741
ports	-3742
ston	-3743
▁greater	-3744
▁feed	-3745
entially	-3746
▁safety	-3747
▁unique	-3748
andom	-3749
▁gone	-3750
▁showed	-3751
▁histor	-3752
▁counter	-3753
ius	-3754
ida	-3755
▁leading	-3756
ipe	-3757
▁send	-3758
▁Donald	-3759
erve	-3760
▁defense	-3761
inese	-3762
▁yes	-3763
▁Fire	-3764
▁Muslim	-3765
raq	-3766
▁continued	-3767
osh	-3768
▁provides	-3769
▁prison	-3770
▁Pre	-3771
▁happy	-3772
▁economy	-3773
▁trust	-3774
ags	-3775
▁Game	-3776
▁weapons	-3777
uman	-3778
▁Cle	-3779
itation	-3780
▁analysis	-3781
▁Times	-3782
▁science	-3783
->	-3784
▁figure	-3785
▁disapp	-3786
enty	-3787
▁software	-3788
▁ult	-3789
▁officers	-3790
New	-3791
Is	-3792
▁remains	-3793
▁India	-3794
▁psych	-3795
rief	-3796
▁cat	-3797
esc	-3798
▁observ	-3799
▁stage	-3800
▁Dark	-3801
▁enter	-3802
change	-3803
▁passed	-3804
▁despite	-3805
▁Out	-3806
▁movie	-3807
rs	-3808
▁voice	-3809
mine	-3810
▁Play	-3811
▁toward	-3812
▁Ter	-3813
▁region	-3814
▁values	-3815
orters	-3816
▁mount	-3817
▁officer	-3818
▁Other	-3819
ban	-3820
▁hous	-3821
wood	-3822
room	-3823
IV	-3824
▁Sun	-3825
see	-3826
▁Over	-3827
rog	-3828
90	-3829
▁lay	-3830
▁Tur	-3831
awn	-3832
▁pressure	-3833
▁Sub	-3834
▁books	-3835
edom	-3836
▁Sand	-3837
AA	-3838
ago	-3839
▁reasons	-3840
ford	-3841
▁activity	-3842
UT	-3843
Now	-3844
▁Senate	-3845
cell	-3846
night	-3847
▁calls	-3848
inter	-3849
▁letter	-3850
▁Rob	-3851
▁Je	-3852
▁choose	-3853
▁Law	-3854
Get	-3855
Be	-3856
▁rob	-3857
▁types	-3858
▁platform	-3859
▁quarter	-3860
RA	-3861
▁Time	-3862
▁maybe	-3863
▁Cr	-3864
95	-3865
pre	-3866
▁moving	-3867
▁lif	-3868
▁gold	-3869
▁som	-3870
▁patients	-3871
▁truth	-3872
▁Ke	-3873
urance	-3874
antly	-3875
mar	-3876
▁charge	-3877
▁Great	-3878
▁cele	-3879
--------------------------------	-3880
▁rock	-3881
roid	-3882
ancy	-3883
▁credit	-3884
aud	-3885
By	-3886
▁Every	-3887
▁moved	-3888
inger	-3889
ribution	-3890
▁names	-3891
▁straight	-3892
▁Health	-3893
▁Well	-3894
▁feature	-3895
▁rule	-3896
▁sche	-3897
inated	-3898
▁Michael	-3899
berg	-3900
41	-3901
iled	-3902
band	-3903
▁click	-3904
▁Angel	-3905
onents	-3906
ÂŃ	-3907
▁Iraq	-3908
▁Saturday	-3909
▁aware	-3910
part	-3911
▁pattern	-3912
OW	-3913
▁Let	-3914
▁grad	-3915
igned	-3916
▁associated	-3917
▁style	-3918
no	-3919
iation	-3920
aith	-3921
ilies	-3922
▁stories	-3923
uration	-3924
▁individuals	-3925
▁âĢ¦	-3926
miss	-3927
▁Associ	-3928
ishing	-3929
aby	-3930
▁summer	-3931
▁Ben	-3932
▁32	-3933
▁arch	-3934
uty	-3935
▁Texas	-3936
hol	-3937
▁fully	-3938
▁mill	-3939
▁followed	-3940
▁Bill	-3941
▁Indian	-3942
▁Secret	-3943
▁Bel	-3944
▁February	-3945
▁jobs	-3946
▁seemed	-3947
▁Govern	-3948
ipped	-3949
▁reality	-3950
▁lines	-3951
▁park	-3952
▁measure	-3953
▁Our	-3954
IM	-3955
▁brother	-3956
▁growing	-3957
▁ban	-3958
▁estim	-3959
▁cry	-3960
▁School	-3961
▁mechan	-3962
▁OF	-3963
▁Windows	-3964
▁rates	-3965
▁Oh	-3966
▁positive	-3967
▁culture	-3968
istics	-3969
ica	-3970
▁har	-3971
ya	-3972
itely	-3973
ipp	-3974
▁map	-3975
encies	-3976
▁William	-3977
II	-3978
akers	-3979
56	-3980
▁Mart	-3981
▁Rem	-3982
▁altern	-3983
itude	-3984
▁coach	-3985
rowd	-3986
Don	-3987
▁kids	-3988
▁journal	-3989
▁corpor	-3990
▁false	-3991
▁web	-3992
▁sleep	-3993
▁contain	-3994
▁sto	-3995
▁bed	-3996
iverse	-3997
▁Rich	-3998
▁Chinese	-3999
▁pun	-4000
▁meant	-4001
known	-4002
▁notice	-4003
▁favorite	-4004
aven	-4005
▁condition	-4006
▁purpose	-4007
))	-4008
▁organization	-4009
▁challeng	-4010
▁manufact	-4011
▁susp	-4012
▁Ac	-4013
▁critic	-4014
unes	-4015
uclear	-4016
▁mer	-4017
vention	-4018
▁80	-4019
▁mist	-4020
▁Us	-4021
▁Tor	-4022
http	-4023
olf	-4024
▁larger	-4025
▁advant	-4026
▁resear	-4027
▁actions	-4028
ml	-4029
▁kept	-4030
▁aim	-4031
,'	-4032
col	-4033
▁benefits	-4034
ifying	-4035
▁actual	-4036
▁International	-4037
▁vehicle	-4038
▁chief	-4039
▁efforts	-4040
▁League	-4041
▁Most	-4042
▁wait	-4043
▁adult	-4044
▁overall	-4045
▁speech	-4046
▁highly	-4047
▁female	-4048
▁error	-4049
▁effective	-4050
54	-4051
▁encour	-4052
well	-4053
▁failed	-4054
▁conserv	-4055
▁programs	-4056
▁trou	-4057
▁ahead	-4058
500	-4059
vertisement	-4060
IP	-4061
▁Found	-4062
pir	-4063
▁%	-4064
▁crime	-4065
ander	-4066
▁location	-4067
▁Iran	-4068
▁behavior	-4069
azing	-4070
▁rare	-4071
▁emb	-4072
▁caused	-4073
▁ship	-4074
▁active	-4075
▁contribut	-4076
▁green	-4077
▁acqu	-4078
▁reflect	-4079
venue	-4080
▁firm	-4081
▁birth	-4082
].	-4083
▁clearly	-4084
▁emot	-4085
▁agency	-4086
riage	-4087
▁memory	-4088
98	-4089
SA	-4090
▁See	-4091
acing	-4092
CC	-4093
▁biggest	-4094
▁rap	-4095
▁basic	-4096
▁band	-4097
eat	-4098
▁suspect	-4099
▁Mac	-4100
▁90	-4101
mark	-4102
istan	-4103
▁spread	-4104
ams	-4105
ki	-4106
asy	-4107
rav	-4108
▁Rober	-4109
▁demonstr	-4110
rated	-4111
▁absolute	-4112
▁places	-4113
▁impl	-4114
ibrary	-4115
▁cards	-4116
▁destroy	-4117
▁virt	-4118
vere	-4119
▁appeared	-4120
yan	-4121
point	-4122
▁beg	-4123
▁temper	-4124
spe	-4125
anted	-4126
ears	-4127
▁Direct	-4128
▁length	-4129
▁blog	-4130
amb	-4131
▁integ	-4132
▁resources	-4133
acc	-4134
iful	-4135
▁spot	-4136
▁forced	-4137
▁thousands	-4138
▁Minister	-4139
▁qual	-4140
▁French	-4141
atically	-4142
▁generally	-4143
▁drink	-4144
▁thus	-4145
IL	-4146
odes	-4147
▁appropri	-4148
▁Read	-4149
▁whom	-4150
▁eye	-4151
▁college	-4152
▁45	-4153
irection	-4154
▁ensure	-4155
▁apparent	-4156
iders	-4157
▁religious	-4158
▁minor	-4159
olic	-4160
▁tro	-4161
▁Why	-4162
ribute	-4163
met	-4164
▁primary	-4165
▁developed	-4166
▁peace	-4167
▁skin	-4168
ste	-4169
ava	-4170
▁blue	-4171
▁families	-4172
▁ir	-4173
▁apply	-4174
▁inform	-4175
▁Smith	-4176
CT	-4177
ii	-4178
▁limit	-4179
▁resist	-4180
................	-4181
umn	-4182
▁conflic	-4183
▁twe	-4184
udd	-4185
▁Tom	-4186
▁liter	-4187
que	-4188
bon	-4189
▁hair	-4190
▁eventually	-4191
▁pus	-4192
▁helped	-4193
▁agg	-4194
orney	-4195
▁Apple	-4196
▁fit	-4197
▁Sur	-4198
▁prem	-4199
▁sales	-4200
▁seconds	-4201
▁strength	-4202
▁feeling	-4203
¿½	-4204
▁tour	-4205
▁knows	-4206
oom	-4207
▁exerc	-4208
▁somew	-4209
ï¿½	-4210
>>	-4211
▁spokes	-4212
▁ideas	-4213
▁regist	-4214
soft	-4215
▁Del	-4216
▁PC	-4217
▁propos	-4218
▁launch	-4219
▁bottom	-4220
TH	-4221
▁Please	-4222
vest	-4223
itz	-4224
▁Inter	-4225
▁script	-4226
▁rat	-4227
arning	-4228
▁il	-4229
▁Jer	-4230
▁Are	-4231
▁whatever	-4232
oken	-4233
cience	-4234
▁mode	-4235
▁agree	-4236
▁sources	-4237
▁initial	-4238
▁restrict	-4239
▁wonder	-4240
usion	-4241
####	-4242
▁Sil	-4243
ville	-4244
▁burn	-4245
tw	-4246
asion	-4247
▁Â£	-4248
▁nor	-4249
uing	-4250
▁reached	-4251
▁sun	-4252
▁categ	-4253
igration	-4254
▁cook	-4255
▁promot	-4256
▁male	-4257
▁climate	-4258
▁fix	-4259
▁alleged	-4260
UR	-4261
alled	-4262
▁images	-4263
Cont	-4264
ota	-4265
▁schools	-4266
ios	-4267
▁drop	-4268
▁stream	-4269
▁Mo	-4270
▁previously	-4271
aling	-4272
▁pet	-4273
▁double	-4274
▁(@	-4275
annel	-4276
▁default	-4277
ties	-4278
▁rank	-4279
▁Dec	-4280
▁Council	-4281
▁weapon	-4282
▁stock	-4283
▁analy	-4284
▁Str	-4285
▁picture	-4286
▁Police	-4287
ference	-4288
▁century	-4289
▁citizens	-4290
▁onto	-4291
▁expand	-4292
▁hero	-4293
▁Sol	-4294
▁wild	-4295
▁update	-4296
▁customers	-4297
ront	-4298
def	-4299
▁lik	-4300
▁criminal	-4301
▁Christian	-4302
SP	-4303
76	-4304
▁leaving	-4305
▁otherwise	-4306
▁Dist	-4307
▁basis	-4308
52	-4309
53	-4310
icip	-4311
▁Ber	-4312
▁recommend	-4313
▁floor	-4314
▁crowd	-4315
oles	-4316
▁70	-4317
▁central	-4318
▁Ev	-4319
▁dream	-4320
▁download	-4321
▁confir	-4322
▁Thom	-4323
▁window	-4324
▁happens	-4325
▁unit	-4326
▁tend	-4327
▁spl	-4328
▁becomes	-4329
▁fighting	-4330
▁predict	-4331
▁Press	-4332
▁Power	-4333
▁heavy	-4334
aked	-4335
▁fan	-4336
orter	-4337
ategy	-4338
BA	-4339
izes	-4340
▁spend	-4341
Here	-4342
▁2007	-4343
▁adop	-4344
▁Ham	-4345
▁football	-4346
▁Port	-4347
oday	-4348
51	-4349
ampions	-4350
▁transfer	-4351
ht	-4352
▁38	-4353
term	-4354
acity	-4355
▁bur	-4356
],	-4357
ternal	-4358
rig	-4359
but	-4360
▁therefore	-4361
▁Because	-4362
resp	-4363
rey	-4364
▁mission	-4365
Some	-4366
▁noted	-4367
▁assum	-4368
▁disease	-4369
▁edit	-4370
▁progress	-4371
rd	-4372
▁Brown	-4373
ocal	-4374
▁adding	-4375
▁raised	-4376
▁Any	-4377
▁tick	-4378
▁seeing	-4379
▁People	-4380
▁agreement	-4381
▁server	-4382
▁wat	-4383
▁debate	-4384
▁supposed	-4385
iling	-4386
▁largest	-4387
▁successful	-4388
▁Pri	-4389
▁Democratic	-4390
▁jump	-4391
▁Syria	-4392
▁owners	-4393
▁offers	-4394
▁shooting	-4395
▁effic	-4396
sey	-4397
▁haven	-4398
verse	-4399
tered	-4400
▁Light	-4401
imal	-4402
▁Big	-4403
▁defend	-4404
▁beat	-4405
▁records	-4406
%)	-4407
▁scen	-4408
▁employees	-4409
▁devices	-4410
hem	-4411
▁commer	-4412
▁Mex	-4413
▁benefit	-4414
▁Prof	-4415
▁illeg	-4416
▁surface	-4417
▁Also	-4418
▁harm	-4419
ingly	-4420
wide	-4421
▁Alex	-4422
▁shut	-4423
▁Cur	-4424
▁lose	-4425
pm	-4426
▁challenge	-4427
semb	-4428
▁station	-4429
▁intelligence	-4430
▁accur	-4431
▁Flor	-4432
▁requires	-4433
▁Mal	-4434
bum	-4435
▁hospital	-4436
▁spirit	-4437
▁offered	-4438
▁produce	-4439
▁Commun	-4440
▁creating	-4441
▁cris	-4442
spect	-4443
▁ended	-4444
▁daily	-4445
▁voters	-4446
lands	-4447
ias	-4448
ih	-4449
ona	-4450
▁smart	-4451
▁Office	-4452
▁Lord	-4453
rial	-4454
▁Internet	-4455
▁circum	-4456
▁extremely	-4457
'.	-4458
▁opinion	-4459
▁Mil	-4460
▁gain	-4461
BS	-4462
▁Fin	-4463
yp	-4464
▁useful	-4465
▁budget	-4466
▁comfort	-4467
isf	-4468
▁background	-4469
eline	-4470
▁episode	-4471
▁enemy	-4472
▁trial	-4473
▁establish	-4474
date	-4475
▁Cap	-4476
▁continues	-4477
▁showing	-4478
▁Union	-4479
with	-4480
▁posted	-4481
▁System	-4482
▁eat	-4483
rian	-4484
▁rise	-4485
▁Germany	-4486
ils	-4487
▁signed	-4488
▁vill	-4489
▁grand	-4490
mor	-4491
▁England	-4492
▁projects	-4493
umber	-4494
▁conference	-4495
za	-4496
▁responsible	-4497
▁Arab	-4498
▁learned	-4499
âĢĶâĢĶ	-4500
ipping	-4501
▁George	-4502
OC	-4503
▁returned	-4504
▁Australia	-4505
▁brief	-4506
Qu	-4507
▁brand	-4508
illing	-4509
abled	-4510
▁highest	-4511
▁train	-4512
▁Commission	-4513
while	-4514
▁nom	-4515
ception	-4516
▁mut	-4517
▁Blue	-4518
▁incident	-4519
vant	-4520
86	-4521
▁ID	-4522
▁nuclear	-4523
74	-4524
▁Like	-4525
▁RE	-4526
▁Micro	-4527
li	-4528
mail	-4529
▁charges	-4530
89	-4531
▁adjust	-4532
ado	-4533
▁earth	-4534
NA	-4535
▁prices	-4536
PA	-4537
▁draft	-4538
▁runs	-4539
▁candidate	-4540
enses	-4541
▁management	-4542
▁Phil	-4543
▁Miss	-4544
▁teach	-4545
gram	-4546
▁understanding	-4547
ait	-4548
icago	-4549
Add	-4550
▁Ep	-4551
secut	-4552
▁separate	-4553
▁instance	-4554
▁eth	-4555
▁unless	-4556
********	-4557
▁Fore	-4558
inate	-4559
▁operations	-4560
Sp	-4561
▁faith	-4562
gar	-4563
▁Church	-4564
ronic	-4565
▁config	-4566
osure	-4567
▁activities	-4568
▁traditional	-4569
▁36	-4570
▁direction	-4571
▁machine	-4572
▁surround	-4573
▁push	-4574
unction	-4575
▁EU	-4576
▁easier	-4577
▁argument	-4578
GB	-4579
▁micro	-4580
▁spending	-4581
izations	-4582
▁theory	-4583
adow	-4584
▁calling	-4585
▁Last	-4586
▁der	-4587
▁influence	-4588
▁commit	-4589
▁photo	-4590
▁unc	-4591
istry	-4592
gn	-4593
aste	-4594
acks	-4595
▁disp	-4596
ady	-4597
do	-4598
▁Good	-4599
▁`	-4600
▁wish	-4601
▁revealed	-4602
ÂłÂł	-4603
lig	-4604
▁enforce	-4605
▁Committee	-4606
▁chem	-4607
▁miles	-4608
▁interested	-4609
▁solution	-4610
icy	-4611
inct	-4612
▁->	-4613
▁Det	-4614
▁removed	-4615
▁compar	-4616
eah	-4617
▁plant	-4618
▁Since	-4619
▁achieve	-4620
▁advantage	-4621
▁slightly	-4622
bing	-4623
▁placed	-4624
under	-4625
2015	-4626
▁Mad	-4627
▁tim	-4628
oses	-4629
▁cru	-4630
▁Rock	-4631
▁mostly	-4632
▁negative	-4633
▁setting	-4634
▁produced	-4635
▁mur	-4636
▁connection	-4637
▁Mer	-4638
▁driver	-4639
▁executive	-4640
▁assault	-4641
▁born	-4642
▁Ver	-4643
tained	-4644
▁structure	-4645
▁reduce	-4646
▁decades	-4647
▁ded	-4648
uke	-4649
▁Many	-4650
idden	-4651
▁league	-4652
Se	-4653
▁join	-4654
▁disco	-4655
▁die	-4656
cks	-4657
actions	-4658
▁assess	-4659
agn	-4660
▁goals	-4661
ours	-4662
IR	-4663
▁senior	-4664
iller	-4665
mod	-4666
ipment	-4667
ocol	-4668
uy	-4669
▁Que	-4670
▁parties	-4671
irgin	-4672
▁learning	-4673
itable	-4674
▁street	-4675
▁camera	-4676
App	-4677
▁skills	-4678
bre	-4679
cious	-4680
▁celebr	-4681
▁Franc	-4682
▁existing	-4683
▁willing	-4684
lor	-4685
▁id	-4686
▁Space	-4687
▁critical	-4688
▁La	-4689
ortunately	-4690
▁serve	-4691
▁cold	-4692
▁species	-4693
TS	-4694
▁animals	-4695
▁Bay	-4696
▁older	-4697
▁Under	-4698
estic	-4699
▁Tre	-4700
▁teacher	-4701
▁prefer	-4702
vis	-4703
▁thread	-4704
▁Matt	-4705
▁manager	-4706
ãĥ»	-4707
▁professional	-4708
▁Vol	-4709
▁notes	-4710
These	-4711
ula	-4712
▁fresh	-4713
ented	-4714
uzz	-4715
edy	-4716
clusion	-4717
▁Rel	-4718
▁doubt	-4719
EO	-4720
▁opened	-4721
▁Bit	-4722
Advertisement	-4723
▁guess	-4724
▁UN	-4725
▁sequ	-4726
▁explain	-4727
otten	-4728
▁attract	-4729
aks	-4730
▁string	-4731
▁context	-4732
ossible	-4733
▁Republicans	-4734
▁solid	-4735
▁cities	-4736
▁asking	-4737
▁random	-4738
ups	-4739
uries	-4740
arant	-4741
dden	-4742
gl	-4743
▁Florida	-4744
▁depend	-4745
▁Scott	-4746
▁33	-4747
▁iT	-4748
icon	-4749
▁mentioned	-4750
▁2000	-4751
▁claimed	-4752
▁definitely	-4753
ulf	-4754
▁core	-4755
▁opening	-4756
▁Const	-4757
which	-4758
▁Tra	-4759
AG	-4760
72	-4761
▁believed	-4762
ada	-4763
▁48	-4764
▁Security	-4765
yright	-4766
▁Pet	-4767
▁Lou	-4768
▁holding	-4769
================	-4770
▁ice	-4771
▁brow	-4772
▁authorities	-4773
host	-4774
word	-4775
▁score	-4776
▁Div	-4777
▁cells	-4778
▁transl	-4779
▁neighbor	-4780
▁remove	-4781
uct	-4782
▁district	-4783
▁According	-4784
▁worse	-4785
▁concerns	-4786
▁presidential	-4787
▁policies	-4788
▁Hall	-4789
73	-4790
▁hus	-4791
AY	-4792
▁2006	-4793
▁Jud	-4794
▁independent	-4795
▁Justice	-4796
iliar	-4797
print	-4798
ighter	-4799
▁protection	-4800
zen	-4801
▁sudden	-4802
house	-4803
▁Jes	-4804
PR	-4805
▁Inf	-4806
▁bul	-4807
▁_	-4808
▁Service	-4809
▁PR	-4810
▁strategy	-4811
ffect	-4812
▁girls	-4813
▁missing	-4814
oyal	-4815
▁Team	-4816
ulated	-4817
▁dat	-4818
▁politics	-4819
abor	-4820
According	-4821
▁spell	-4822
▁graph	-4823
orthern	-4824
TC	-4825
Ab	-4826
▁labor	-4827
isher	-4828
▁kick	-4829
▁iTunes	-4830
▁steps	-4831
poses	-4832
▁smaller	-4833
En	-4834
bert	-4835
▁roll	-4836
▁researchers	-4837
▁closed	-4838
▁transport	-4839
▁lawy	-4840
________________	-4841
▁Chicago	-4842
▁aspect	-4843
▁none	-4844
▁marriage	-4845
96	-4846
▁elements	-4847
▁Fre	-4848
▁Sal	-4849
▁dram	-4850
FC	-4851
top	-4852
equ	-4853
▁hearing	-4854
▁supported	-4855
▁testing	-4856
cohol	-4857
▁massive	-4858
▁stick	-4859
▁guard	-4860
isco	-4861
phone	-4862
From	-4863
However	-4864
▁border	-4865
▁copy	-4866
ography	-4867
list	-4868
71	-4869
▁owner	-4870
class	-4871
ruit	-4872
rate	-4873
▁Once	-4874
▁digital	-4875
▁task	-4876
ERS	-4877
▁incred	-4878
tes	-4879
++	-4880
▁France	-4881
▁breat	-4882
owl	-4883
▁issued	-4884
▁Western	-4885
▁detect	-4886
▁partners	-4887
▁shared	-4888
▁Call	-4889
▁cancer	-4890
ache	-4891
ribe	-4892
▁explained	-4893
▁heat	-4894
{"	-4895
▁investment	-4896
▁Book	-4897
▁wood	-4898
▁tools	-4899
▁Although	-4900
▁belief	-4901
▁crisis	-4902
▁ge	-4903
▁MP	-4904
▁operation	-4905
type	-4906
~~	-4907
ga	-4908
▁contains	-4909
anta	-4910
▁express	-4911
▁Group	-4912
▁Journal	-4913
ka	-4914
▁amb	-4915
▁USA	-4916
▁finding	-4917
▁funding	-4918
how	-4919
▁established	-4920
ideos	-4921
▁degree	-4922
▁dangerous	-4923
anging	-4924
▁freedom	-4925
pport	-4926
outhern	-4927
▁church	-4928
▁catch	-4929
▁Two	-4930
▁presence	-4931
▁Guard	-4932
Up	-4933
▁authority	-4934
▁Project	-4935
▁button	-4936
▁consequ	-4937
▁valid	-4938
▁weak	-4939
▁starts	-4940
▁reference	-4941
▁Mem	-4942
")	-4943
UN	-4944
orage	-4945
▁Open	-4946
▁collection	-4947
ym	-4948
gency	-4949
▁beautiful	-4950
ros	-4951
▁tells	-4952
▁waiting	-4953
nel	-4954
▁providing	-4955
▁Democrats	-4956
▁daughter	-4957
▁master	-4958
▁purposes	-4959
▁Japanese	-4960
▁equal	-4961
▁turns	-4962
▁documents	-4963
▁watching	-4964
Res	-4965
▁ran	-4966
2014	-4967
▁reject	-4968
▁Korea	-4969
▁victims	-4970
Level	-4971
erences	-4972
▁witness	-4973
▁34	-4974
▁reform	-4975
coming	-4976
▁occup	-4977
▁caught	-4978
▁traffic	-4979
ading	-4980
▁models	-4981
ario	-4982
▁served	-4983
▁batter	-4984
uate	-4985
▁Secretary	-4986
▁agreed	-4987
▁truly	-4988
ynam	-4989
▁Ret	-4990
▁units	-4991
▁Research	-4992
hand	-4993
azine	-4994
▁Mike	-4995
▁variety	-4996
otal	-4997
▁amazing	-4998
▁confirmed	-4999
▁entirely	-5000
▁purchase	-5001
▁element	-5002
▁cash	-5003
▁determine	-5004
De	-5005
▁cars	-5006
▁Wall	-5007
âĸ	-5008
▁views	-5009
▁drugs	-5010
▁department	-5011
▁Step	-5012
uit	-5013
▁39	-5014
asure	-5015
▁Class	-5016
▁covered	-5017
▁Bank	-5018
▁mere	-5019
uana	-5020
▁multi	-5021
▁mix	-5022
▁unlike	-5023
levision	-5024
▁stopped	-5025
▁sem	-5026
▁Gal	-5027
ules	-5028
▁wel	-5029
▁Johnson	-5030
la	-5031
▁skill	-5032
▁becoming	-5033
rie	-5034
▁appropriate	-5035
fe	-5036
ellow	-5037
▁Prot	-5038
ulate	-5039
ocation	-5040
▁weekend	-5041
odies	-5042
▁sites	-5043
▁animal	-5044
▁Tim	-5045
▁scale	-5046
▁charged	-5047
▁instruct	-5048
illa	-5049
▁methods	-5050
▁cert	-5051
▁judge	-5052
▁Hel	-5053
▁dollars	-5054
▁standing	-5055
▁Squ	-5056
▁debt	-5057
liam	-5058
▁driving	-5059
▁Sum	-5060
▁Edition	-5061
▁album	-5062
andon	-5063
IF	-5064
▁Uk	-5065
63	-5066
ader	-5067
▁commercial	-5068
esh	-5069
▁Government	-5070
▁discovered	-5071
▁output	-5072
▁Hillary	-5073
▁Carol	-5074
▁2005	-5075
▁abuse	-5076
ancing	-5077
▁switch	-5078
▁annual	-5079
Tw	-5080
▁stated	-5081
agement	-5082
inner	-5083
▁democr	-5084
▁residents	-5085
▁allowing	-5086
▁factors	-5087
odd	-5088
▁fuck	-5089
emies	-5090
▁occurred	-5091
oti	-5092
▁north	-5093
▁Public	-5094
▁injury	-5095
▁insurance	-5096
CL	-5097
olly	-5098
ãĢ	-5099
▁repeated	-5100
▁arms	-5101
anged	-5102
▁construction	-5103
▁fle	-5104
PU	-5105
icians	-5106
▁forms	-5107
▁McC	-5108
antic	-5109
▁mental	-5110
pire	-5111
▁equipment	-5112
▁fant	-5113
▁discussion	-5114
▁regarding	-5115
kin	-5116
arp	-5117
▁chair	-5118
ogue	-5119
▁proceed	-5120
▁Id	-5121
Our	-5122
▁murder	-5123
Man	-5124
▁49	-5125
asp	-5126
▁supply	-5127
▁input	-5128
▁wealth	-5129
liament	-5130
▁proced	-5131
orial	-5132
▁Stat	-5133
▁NFL	-5134
hens	-5135
▁Institute	-5136
▁putting	-5137
ournament	-5138
etic	-5139
▁located	-5140
▁kid	-5141
eria	-5142
run	-5143
▁princ	-5144
▁!	-5145
going	-5146
▁Bet	-5147
▁clot	-5148
▁telling	-5149
▁proposed	-5150
iot	-5151
orry	-5152
▁funds	-5153
gment	-5154
▁Life	-5155
▁baby	-5156
▁Back	-5157
▁spoke	-5158
Image	-5159
▁earn	-5160
▁AT	-5161
gu	-5162
▁exchange	-5163
▁Lin	-5164
oving	-5165
▁pair	-5166
More	-5167
azon	-5168
▁arrested	-5169
▁killing	-5170
can	-5171
▁Card	-5172
yd	-5173
▁identified	-5174
▁mobile	-5175
▁thanks	-5176
onym	-5177
▁Form	-5178
▁hundreds	-5179
▁Chris	-5180
▁Cat	-5181
▁trend	-5182
hat	-5183
▁Av	-5184
oman	-5185
▁electric	-5186
▁Wil	-5187
SE	-5188
Of	-5189
▁restaur	-5190
oted	-5191
▁trig	-5192
▁nine	-5193
▁bomb	-5194
Why	-5195
Â¯	-5196
▁coverage	-5197
▁appeal	-5198
▁Robert	-5199
▁Sup	-5200
▁finished	-5201
▁flow	-5202
▁deliver	-5203
▁calcul	-5204
▁photos	-5205
▁phil	-5206
▁pieces	-5207
▁appre	-5208
kes	-5209
▁rough	-5210
Do	-5211
▁partner	-5212
▁concerned	-5213
▁37	-5214
▁Gen	-5215
Col	-5216
ctors	-5217
▁=>	-5218
state	-5219
▁suggested	-5220
▁Force	-5221
CE	-5222
▁herself	-5223
▁Plan	-5224
works	-5225
ooth	-5226
rency	-5227
▁corner	-5228
▁husband	-5229
▁internet	-5230
▁Aut	-5231
ems	-5232
osen	-5233
▁Atl	-5234
gen	-5235
▁balance	-5236
62	-5237
▁sounds	-5238
text	-5239
▁arr	-5240
oves	-5241
▁millions	-5242
▁radio	-5243
▁satisf	-5244
▁Dam	-5245
Mr	-5246
Go	-5247
Spe	-5248
▁combat	-5249
rant	-5250
▁Gree	-5251
▁fuel	-5252
▁distance	-5253
▁tests	-5254
▁decre	-5255
▁Er	-5256
▁managed	-5257
DS	-5258
▁tit	-5259
▁measures	-5260
▁Liber	-5261
▁attend	-5262
ashed	-5263
▁Jose	-5264
▁Night	-5265
dit	-5266
▁Nov	-5267
▁End	-5268
outs	-5269
▁generation	-5270
▁advoc	-5271
yth	-5272
▁conversation	-5273
▁Sky	-5274
active	-5275
cel	-5276
rier	-5277
▁Frank	-5278
▁gender	-5279
▁concent	-5280
▁carried	-5281
anda	-5282
▁Virgin	-5283
▁arrived	-5284
icide	-5285
aded	-5286
▁failure	-5287
▁minimum	-5288
lets	-5289
▁worst	-5290
▁keeping	-5291
▁intended	-5292
▁illegal	-5293
▁subsc	-5294
▁determined	-5295
▁trip	-5296
Yes	-5297
▁raise	-5298
▁~	-5299
▁feels	-5300
▁package	-5301
▁Jo	-5302
hi	-5303
2016	-5304
real	-5305
▁fra	-5306
▁symb	-5307
Me	-5308
ucky	-5309
pret	-5310
▁Kh	-5311
▁Edit	-5312
▁Web	-5313
emic	-5314
▁Color	-5315
▁justice	-5316
Int	-5317
▁farm	-5318
cknow	-5319
">	-5320
eless	-5321
▁reduced	-5322
▁500	-5323
xx	-5324
▁Rad	-5325
▁Wood	-5326
▁clin	-5327
▁hyp	-5328
iler	-5329
ura	-5330
kins	-5331
85	-5332
61	-5333
▁Their	-5334
▁Mary	-5335
▁san	-5336
▁novel	-5337
▁Who	-5338
▁capacity	-5339
▁impossible	-5340
▁plays	-5341
▁minister	-5342
ijuana	-5343
icate	-5344
▁Set	-5345
▁fram	-5346
▁ing	-5347
▁communities	-5348
▁FBI	-5349
ita	-5350
▁bon	-5351
▁strateg	-5352
▁interests	-5353
lock	-5354
gers	-5355
mas	-5356
▁AND	-5357
▁conflict	-5358
▁requirements	-5359
▁sac	-5360
▁operating	-5361
ini	-5362
related	-5363
▁committed	-5364
▁relatively	-5365
▁south	-5366
Â¯Â¯	-5367
▁afford	-5368
▁identity	-5369
▁decisions	-5370
▁accused	-5371
place	-5372
▁victory	-5373
och	-5374
iat	-5375
Name	-5376
Com	-5377
tion	-5378
eds	-5379
▁seek	-5380
▁tight	-5381
▁Images	-5382
▁initi	-5383
▁humans	-5384
▁familiar	-5385
▁audience	-5386
▁internal	-5387
venture	-5388
▁sides	-5389
▁TO	-5390
▁dim	-5391
▁conclud	-5392
▁appoint	-5393
▁enforcement	-5394
▁Jim	-5395
▁Association	-5396
▁circumst	-5397
▁Canadian	-5398
▁joined	-5399
▁differences	-5400
▁Los	-5401
▁protest	-5402
▁twice	-5403
win	-5404
▁glass	-5405
arsh	-5406
▁Army	-5407
▁expression	-5408
▁decide	-5409
▁planning	-5410
ania	-5411
▁handle	-5412
▁Microsoft	-5413
▁Nor	-5414
▁maximum	-5415
▁Rev	-5416
▁sea	-5417
▁eval	-5418
▁helps	-5419
ref	-5420
▁bound	-5421
▁mouth	-5422
▁standards	-5423
▁clim	-5424
▁Camp	-5425
▁Fox	-5426
cles	-5427
▁army	-5428
▁Techn	-5429
acking	-5430
xy	-5431
SS	-5432
▁42	-5433
▁bug	-5434
▁Ukrain	-5435
▁Max	-5436
▁Jones	-5437
▁Show	-5438
lo	-5439
▁planet	-5440
▁75	-5441
▁winning	-5442
▁faster	-5443
▁spect	-5444
▁broken	-5445
TR	-5446
▁defined	-5447
▁healthy	-5448
▁competition	-5449
https	-5450
▁Island	-5451
▁Fe	-5452
▁announce	-5453
▁Cup	-5454
▁Instead	-5455
▁client	-5456
▁possibly	-5457
section	-5458
ocket	-5459
look	-5460
▁finish	-5461
▁crew	-5462
▁reserv	-5463
▁editor	-5464
▁hate	-5465
▁sale	-5466
▁controvers	-5467
▁pages	-5468
wing	-5469
▁numer	-5470
▁opposition	-5471
▁2004	-5472
▁refuge	-5473
▁flight	-5474
▁apart	-5475
▁Lat	-5476
Americ	-5477
▁Africa	-5478
▁applications	-5479
▁Palest	-5480
▁Bur	-5481
▁gar	-5482
▁Social	-5483
▁upgr	-5484
▁shape	-5485
▁speaking	-5486
ansion	-5487
ao	-5488
▁Sn	-5489
▁worry	-5490
▁Britain	-5491
Please	-5492
roud	-5493
▁hun	-5494
▁introduced	-5495
▁diet	-5496
Ind	-5497
▁Second	-5498
▁functions	-5499
uts	-5500
▁Each	-5501
▁Jeff	-5502
▁stress	-5503
▁accounts	-5504
▁guarant	-5505
▁Ann	-5506
edia	-5507
▁honest	-5508
▁tree	-5509
▁African	-5510
▁Bush	-5511
},	-5512
▁sch	-5513
▁Only	-5514
▁fif	-5515
igan	-5516
▁exercise	-5517
▁Exp	-5518
▁scientists	-5519
▁legislation	-5520
▁Work	-5521
▁Spr	-5522
ÃĤ	-5523
▁Human	-5524
▁è	-5525
▁survey	-5526
▁rich	-5527
rip	-5528
▁maintain	-5529
▁flo	-5530
▁leadership	-5531
stream	-5532
▁Islamic	-5533
▁01	-5534
▁College	-5535
▁magic	-5536
▁Prime	-5537
▁figures	-5538
2017	-5539
inder	-5540
xual	-5541
▁Dead	-5542
▁absolutely	-5543
▁fourth	-5544
▁presented	-5545
respond	-5546
rible	-5547
▁alcohol	-5548
ato	-5549
▁DE	-5550
porary	-5551
▁grab	-5552
▁vari	-5553
▁quant	-5554
▁Photo	-5555
▁plus	-5556
rick	-5557
arks	-5558
▁alternative	-5559
▁pil	-5560
▁approx	-5561
that	-5562
▁objects	-5563
▁Ro	-5564
▁Android	-5565
▁significantly	-5566
▁Road	-5567
kay	-5568
Read	-5569
avor	-5570
▁acknow	-5571
▁HD	-5572
▁Sing	-5573
Or	-5574
▁Mont	-5575
▁uns	-5576
prof	-5577
▁negoti	-5578
▁Arch	-5579
iki	-5580
▁television	-5581
▁Jewish	-5582
▁committee	-5583
▁motor	-5584
▁appearance	-5585
▁sitting	-5586
▁strike	-5587
▁Down	-5588
comp	-5589
▁Hist	-5590
▁fold	-5591
acement	-5592
▁Louis	-5593
▁belong	-5594
▁âĢ¢	-5595
▁mort	-5596
▁prepared	-5597
▁64	-5598
▁Master	-5599
▁indeed	-5600
▁Den	-5601
▁rent	-5602
TA	-5603
ourney	-5604
arc	-5605
Su	-5606
97	-5607
▁advice	-5608
▁changing	-5609
▁listed	-5610
▁launched	-5611
isation	-5612
▁Peter	-5613
ishes	-5614
▁lived	-5615
▁Mel	-5616
▁Supreme	-5617
▁Federal	-5618
▁);	-5619
ructure	-5620
▁sets	-5621
▁philos	-5622
uous	-5623
▁Âł	-5624
▁applied	-5625
▁NOT	-5626
▁housing	-5627
▁Mount	-5628
▁odd	-5629
▁sust	-5630
DA	-5631
fficient	-5632
▁?	-5633
olved	-5634
▁powers	-5635
▁thr	-5636
▁remaining	-5637
▁Water	-5638
LC	-5639
▁causes	-5640
ãģ®	-5641
▁manner	-5642
ads	-5643
▁suggests	-5644
▁ends	-5645
standing	-5646
fig	-5647
▁Dun	-5648
idth	-5649
▁gay	-5650
▁termin	-5651
▁Angeles	-5652
MS	-5653
▁scientific	-5654
▁coal	-5655
apers	-5656
bar	-5657
▁Thomas	-5658
▁sym	-5659
▁Run	-5660
this	-5661
PC	-5662
igrants	-5663
▁minute	-5664
▁District	-5665
cellent	-5666
▁leaves	-5667
▁completed	-5668
amin	-5669
▁focused	-5670
▁monitor	-5671
▁vehicles	-5672
MA	-5673
▁Mass	-5674
▁Grand	-5675
▁affected	-5676
itutional	-5677
▁construct	-5678
▁follows	-5679
▁ton	-5680
reens	-5681
▁homes	-5682
▁Ext	-5683
▁Level	-5684
rast	-5685
▁Ir	-5686
▁elim	-5687
▁largely	-5688
▁Joe	-5689
▁votes	-5690
alls	-5691
▁businesses	-5692
▁Foundation	-5693
▁Central	-5694
▁yards	-5695
▁materials	-5696
ulner	-5697
▁guide	-5698
▁closer	-5699
ums	-5700
▁sports	-5701
eder	-5702
Just	-5703
▁taxes	-5704
84	-5705
▁Old	-5706
▁decade	-5707
ola	-5708
▁vir	-5709
▁dropped	-5710
▁delay	-5711
itect	-5712
▁secure	-5713
stein	-5714
level	-5715
▁treated	-5716
▁filed	-5717
aine	-5718
▁van	-5719
▁mir	-5720
▁column	-5721
icted	-5722
eper	-5723
▁rot	-5724
▁consult	-5725
▁entry	-5726
▁marijuana	-5727
▁Dou	-5728
▁apparently	-5729
oking	-5730
clusive	-5731
▁increases	-5732
ano	-5733
▁specifically	-5734
▁tele	-5735
ensions	-5736
▁religion	-5737
abilities	-5738
▁frame	-5739
▁Note	-5740
▁Lee	-5741
▁helping	-5742
▁edge	-5743
oston	-5744
▁organizations	-5745
Ãĥ	-5746
▁Both	-5747
hips	-5748
▁bigger	-5749
▁boost	-5750
▁Stand	-5751
▁row	-5752
uls	-5753
abase	-5754
▁rid	-5755
Let	-5756
aren	-5757
rave	-5758
▁stret	-5759
PD	-5760
▁vision	-5761
▁wearing	-5762
▁appreci	-5763
▁award	-5764
▁Use	-5765
▁factor	-5766
war	-5767
ulations	-5768
)(	-5769
▁god	-5770
▁territ	-5771
▁param	-5772
asts	-5773
87	-5774
▁enemies	-5775
▁Games	-5776
FF	-5777
▁accident	-5778
Well	-5779
▁Martin	-5780
TER	-5781
▁ath	-5782
▁Hell	-5783
▁forg	-5784
▁veter	-5785
▁Medic	-5786
free	-5787
▁stars	-5788
▁expensive	-5789
▁acad	-5790
rawn	-5791
▁Whe	-5792
▁lock	-5793
▁format	-5794
▁soldiers	-5795
sm	-5796
▁agent	-5797
▁responsibility	-5798
ora	-5799
▁Science	-5800
▁rapid	-5801
▁tough	-5802
▁Jesus	-5803
▁believes	-5804
ML	-5805
▁wear	-5806
lete	-5807
ÃĥÃĤ	-5808
▁Dri	-5809
▁commission	-5810
▁Bob	-5811
Oh	-5812
aped	-5813
▁warm	-5814
ÃĥÃĤÃĥÃĤ	-5815
▁2003	-5816
ortion	-5817
▁hasn	-5818
uster	-5819
▁univers	-5820
▁Ill	-5821
▁king	-5822
ologies	-5823
94	-5824
▁Tem	-5825
▁Mos	-5826
▁patient	-5827
▁Mexico	-5828
cean	-5829
▁Death	-5830
▁Sanders	-5831
you	-5832
▁Cast	-5833
▁Company	-5834
pty	-5835
▁happening	-5836
FP	-5837
▁Battle	-5838
▁bought	-5839
Am	-5840
Mod	-5841
Us	-5842
uters	-5843
▁Cre	-5844
▁Those	-5845
▁44	-5846
iser	-5847
▁soul	-5848
▁Top	-5849
▁Harry	-5850
▁Aw	-5851
▁seat	-5852
ffee	-5853
▁revolution	-5854
▁("	-5855
▁During	-5856
ette	-5857
▁ring	-5858
▁offensive	-5859
▁returns	-5860
▁videos	-5861
▁discl	-5862
▁famous	-5863
enced	-5864
▁Sign	-5865
▁River	-5866
▁300	-5867
PM	-5868
▁Bus	-5869
▁CH	-5870
▁candidates	-5871
arden	-5872
▁percentage	-5873
▁visual	-5874
▁thank	-5875
▁trouble	-5876
nergy	-5877
▁2001	-5878
▁prove	-5879
ashion	-5880
▁enh	-5881
▁Long	-5882
UM	-5883
▁connected	-5884
▁possibility	-5885
Over	-5886
▁expert	-5887
▁library	-5888
arts	-5889
▁Director	-5890
▁fellow	-5891
92	-5892
irty	-5893
▁dry	-5894
▁signs	-5895
▁Love	-5896
▁quiet	-5897
foot	-5898
▁pure	-5899
▁Hun	-5900
▁filled	-5901
phas	-5902
▁Elect	-5903
endment	-5904
▁Expl	-5905
▁unable	-5906
ns	-5907
mo	-5908
▁vast	-5909
obe	-5910
▁identify	-5911
apping	-5912
▁Carolina	-5913
gress	-5914
▁prote	-5915
▁fish	-5916
▁circumstances	-5917
razy	-5918
▁Phot	-5919
▁bodies	-5920
▁Mur	-5921
▁developing	-5922
▁AR	-5923
▁experienced	-5924
▁substant	-5925
▁Board	-5926
esome	-5927
▁domestic	-5928
▁combined	-5929
▁Put	-5930
▁chemical	-5931
▁Child	-5932
▁pool	-5933
▁Cy	-5934
▁egg	-5935
cons	-5936
sters	-5937
▁hurt	-5938
▁markets	-5939
▁conservative	-5940
▁supporters	-5941
▁agencies	-5942
idel	-5943
Ob	-5944
urb	-5945
▁43	-5946
▁Defense	-5947
ye	-5948
▁Ap	-5949
dule	-5950
▁temperature	-5951
▁conducted	-5952
▁Chief	-5953
▁pulled	-5954
▁fol	-5955
Last	-5956
onto	-5957
osis	-5958
VER	-5959
Des	-5960
▁Pan	-5961
First	-5962
▁advance	-5963
▁license	-5964
rors	-5965
▁Jon	-5966
▁imagine	-5967
▁hell	-5968
▁fixed	-5969
▁incor	-5970
osite	-5971
▁Log	-5972
icken	-5973
]:	-5974
▁surprise	-5975
hab	-5976
▁craft	-5977
olt	-5978
▁Jul	-5979
▁dial	-5980
▁relevant	-5981
▁entered	-5982
▁leads	-5983
▁AD	-5984
▁Clean	-5985
▁pictures	-5986
essor	-5987
▁alt	-5988
▁paying	-5989
Per	-5990
▁Market	-5991
▁updates	-5992
amily	-5993
▁Type	-5994
▁Home	-5995
▁55	-5996
sembly	-5997
rome	-5998
83	-5999
▁greatest	-6000
▁height	-6001
▁heav	-6002
aints	-6003
▁listen	-6004
aser	-6005
▁SH	-6006
▁capable	-6007
acle	-6008
▁perspect	-6009
inating	-6010
▁offering	-6011
rypt	-6012
▁Develop	-6013
abin	-6014
rc	-6015
▁bright	-6016
alty	-6017
arrow	-6018
▁suppl	-6019
inding	-6020
acked	-6021
gypt	-6022
▁Another	-6023
pg	-6024
▁Virginia	-6025
▁Lu	-6026
▁planned	-6027
▁pit	-6028
▁sweet	-6029
Type	-6030
▁Di	-6031
▁typically	-6032
▁Francisco	-6033
▁prospect	-6034
▁Dan	-6035
▁teen	-6036
rees	-6037
▁sched	-6038
▁hol	-6039
▁scr	-6040
▁lots	-6041
life	-6042
▁newsp	-6043
▁forget	-6044
▁None	-6045
▁Middle	-6046
▁Ryan	-6047
edd	-6048
▁severe	-6049
▁suit	-6050
ller	-6051
93	-6052
▁correspond	-6053
▁explos	-6054
uations	-6055
▁flag	-6056
game	-6057
rid	-6058
▁prin	-6059
▁Data	-6060
▁deploy	-6061
▁Enter	-6062
suit	-6063
ghan	-6064
▁Men	-6065
▁thoughts	-6066
▁matters	-6067
▁adapt	-6068
▁Ari	-6069
▁fill	-6070
▁forth	-6071
▁sam	-6072
▁41	-6073
▁payment	-6074
▁Hor	-6075
▁spring	-6076
duc	-6077
▁losing	-6078
▁bringing	-6079
FO	-6080
ala	-6081
▁distribution	-6082
hered	-6083
bour	-6084
▁Israeli	-6085
oma	-6086
▁combination	-6087
▁plenty	-6088
VE	-6089
Can	-6090
▁Haw	-6091
▁perman	-6092
▁Special	-6093
▁tow	-6094
▁seeking	-6095
▁examples	-6096
▁classes	-6097
cr	-6098
▁beer	-6099
▁moves	-6100
▁IP	-6101
▁Kn	-6102
▁panel	-6103
Even	-6104
▁properly	-6105
▁ris	-6106
▁plug	-6107
▁estimated	-6108
Every	-6109
▁defensive	-6110
agraph	-6111
▁pregn	-6112
▁instit	-6113
▁Vict	-6114
▁volume	-6115
▁positions	-6116
▁links	-6117
▁Program	-6118
▁Week	-6119
agues	-6120
▁transform	-6121
ker	-6122
▁CEO	-6123
▁cas	-6124
▁opponent	-6125
▁tweet	-6126
▁Code	-6127
▁shop	-6128
▁fly	-6129
▁talks	-6130
▁bag	-6131
Phone	-6132
▁aid	-6133
▁plants	-6134
▁65	-6135
▁attorney	-6136
arters	-6137
quest	-6138
▁Magic	-6139
▁begins	-6140
▁myster	-6141
▁environmental	-6142
▁storage	-6143
NN	-6144
▁marg	-6145
▁ske	-6146
▁metal	-6147
elly	-6148
▁ordered	-6149
▁remained	-6150
▁loved	-6151
▁prompt	-6152
▁updated	-6153
▁experts	-6154
▁walking	-6155
▁ancient	-6156
▁performed	-6157
ATE	-6158
▁neither	-6159
iency	-6160
▁manufacture	-6161
▁Pak	-6162
▁selected	-6163
▁mine	-6164
▁ultimately	-6165
▁explan	-6166
▁label	-6167
▁Services	-6168
ributed	-6169
Trump	-6170
▁syn	-6171
▁Ult	-6172
SC	-6173
▁meat	-6174
▁giant	-6175
▁Wars	-6176
▁ON	-6177
▁adm	-6178
▁interpret	-6179
▁evening	-6180
▁evil	-6181
▁Boston	-6182
▁Wild	-6183
▁Ã	-6184
▁Bitcoin	-6185
▁Amazon	-6186
Dr	-6187
▁Information	-6188
▁obviously	-6189
▁advanced	-6190
Photo	-6191
olar	-6192
▁weather	-6193
▁symbol	-6194
▁sole	-6195
▁potentially	-6196
oster	-6197
▁originally	-6198
mun	-6199
300	-6200
aze	-6201
essions	-6202
▁deck	-6203
▁stood	-6204
▁youth	-6205
▁Bern	-6206
Rep	-6207
▁Test	-6208
▁basically	-6209
otic	-6210
▁involve	-6211
olit	-6212
lyn	-6213
See	-6214
▁aircraft	-6215
▁confirm	-6216
EW	-6217
▁messages	-6218
▁Richard	-6219
▁kit	-6220
▁prohib	-6221
▁vulner	-6222
isters	-6223
▁existence	-6224
▁turning	-6225
▁SP	-6226
▁desire	-6227
▁flat	-6228
▁ment	-6229
season	-6230
anges	-6231
▁neighborhood	-6232
▁Lake	-6233
ATION	-6234
▁pointed	-6235
bur	-6236
▁innov	-6237
ucks	-6238
UL	-6239
▁professor	-6240
▁expressed	-6241
AB	-6242
icious	-6243
▁2002	-6244
▁Dev	-6245
▁session	-6246
▁bare	-6247
sen	-6248
▁diss	-6249
▁Cath	-6250
▁Pass	-6251
▁Point	-6252
▁doctor	-6253
orrow	-6254
ailed	-6255
▁Rub	-6256
▁DC	-6257
▁Charl	-6258
person	-6259
▁writer	-6260
ighters	-6261
ureau	-6262
▁oblig	-6263
▁recorded	-6264
▁broke	-6265
▁orders	-6266
ilty	-6267
▁motion	-6268
inity	-6269
law	-6270
adium	-6271
▁immigration	-6272
▁contrast	-6273
▁batt	-6274
▁excellent	-6275
▁technical	-6276
ami	-6277
▁tun	-6278
▁cloud	-6279
▁Year	-6280
geon	-6281
▁creation	-6282
▁strange	-6283
▁auth	-6284
▁fort	-6285
born	-6286
▁extent	-6287
▁Today	-6288
▁Club	-6289
▁rain	-6290
▁sample	-6291
▁accepted	-6292
▁tact	-6293
▁fired	-6294
▁Son	-6295
▁stands	-6296
▁boot	-6297
▁47	-6298
▁statements	-6299
▁versions	-6300
▁selling	-6301
ounded	-6302
▁1990	-6303
▁weren	-6304
▁Watch	-6305
▁experiment	-6306
Post	-6307
▁retail	-6308
uled	-6309
Inst	-6310
unte	-6311
ãĥ¼	-6312
▁depart	-6313
▁bond	-6314
ivery	-6315
ompl	-6316
▁reaction	-6317
▁Syrian	-6318
▁Pac	-6319
apped	-6320
aniel	-6321
DP	-6322
▁resolution	-6323
▁react	-6324
▁approved	-6325
onom	-6326
mond	-6327
▁Offic	-6328
---	-6329
▁replace	-6330
▁tack	-6331
▁sport	-6332
▁chain	-6333
▁emergency	-6334
rad	-6335
▁Palestin	-6336
▁46	-6337
▁automatically	-6338
▁route	-6339
▁pal	-6340
▁banks	-6341
▁Paris	-6342
▁Media	-6343
road	-6344
icing	-6345
ixt	-6346
isted	-6347
▁grew	-6348
▁coord	-6349
▁Where	-6350
omin	-6351
▁subs	-6352
ï¿½ï¿½	-6353
▁Â±	-6354
▁corporate	-6355
▁selection	-6356
noon	-6357
▁Report	-6358
cs	-6359
cluding	-6360
orders	-6361
anche	-6362
▁Its	-6363
▁slowly	-6364
▁Egypt	-6365
▁Acc	-6366
▁colle	-6367
iques	-6368
EX	-6369
▁attempts	-6370
url	-6371
▁Cross	-6372
▁findings	-6373
▁SC	-6374
▁OR	-6375
▁index	-6376
ensity	-6377
▁Way	-6378
▁Land	-6379
▁shock	-6380
dis	-6381
▁dynam	-6382
▁cart	-6383
mosp	-6384
Since	-6385
iest	-6386
▁Boy	-6387
▁storm	-6388
▁Contin	-6389
2013	-6390
hew	-6391
ilit	-6392
▁essential	-6393
iquid	-6394
Other	-6395
ivered	-6396
▁reasonable	-6397
Act	-6398
▁subsequ	-6399
▁Pack	-6400
▁Fort	-6401
▁considering	-6402
▁university	-6403
log	-6404
▁married	-6405
▁illust	-6406
▁True	-6407
£ı	-6408
▁numerous	-6409
rastructure	-6410
▁seriously	-6411
▁referred	-6412
ua	-6413
▁consistent	-6414
onna	-6415
▁Real	-6416
ruption	-6417
ciples	-6418
▁facts	-6419
91	-6420
otes	-6421
erg	-6422
Then	-6423
▁accompl	-6424
Note	-6425
▁revenue	-6426
▁passing	-6427
▁mal	-6428
een	-6429
▁Yet	-6430
▁gather	-6431
terday	-6432
ework	-6433
▁Author	-6434
Pe	-6435
▁optim	-6436
▁rub	-6437
▁è£ı	-6438
▁unknown	-6439
stone	-6440
▁union	-6441
olve	-6442
▁opportunities	-6443
▁browser	-6444
▁Wal	-6445
▁Cost	-6446
▁reporting	-6447
sts	-6448
pet	-6449
▁sand	-6450
▁suddenly	-6451
▁surprising	-6452
▁VR	-6453
▁somewhat	-6454
▁Bas	-6455
ulture	-6456
izz	-6457
▁CD	-6458
▁challenges	-6459
▁settings	-6460
▁experiences	-6461
▁Full	-6462
▁cann	-6463
▁receiving	-6464
EST	-6465
▁joint	-6466
▁cultural	-6467
▁ast	-6468
82	-6469
astern	-6470
ceived	-6471
▁Cru	-6472
▁bull	-6473
pired	-6474
amm	-6475
▁facing	-6476
power	-6477
▁boss	-6478
▁Hol	-6479
▁instr	-6480
▁increasingly	-6481
▁shift	-6482
▁streets	-6483
▁Williams	-6484
abb	-6485
▁lie	-6486
▁laugh	-6487
▁Ca	-6488
PL	-6489
▁adults	-6490
▁customer	-6491
▁obtained	-6492
▁supporting	-6493
html	-6494
fire	-6495
▁detailed	-6496
▁picked	-6497
▁Right	-6498
lder	-6499
EE	-6500
stood	-6501
▁Kim	-6502
▁wire	-6503
▁sight	-6504
▁developers	-6505
▁persons	-6506
▁sad	-6507
▁cup	-6508
▁warning	-6509
▁boys	-6510
long	-6511
▁bird	-6512
fo	-6513
▁wal	-6514
▁observed	-6515
▁zone	-6516
iveness	-6517
▁channel	-6518
cript	-6519
▁refused	-6520
▁Again	-6521
▁suc	-6522
▁spokesman	-6523
▁Ref	-6524
rite	-6525
ouston	-6526
ãĥ³	-6527
▁Sher	-6528
▁acts	-6529
▁Name	-6530
▁struggle	-6531
arry	-6532
ometimes	-6533
▁discrim	-6534
HT	-6535
▁category	-6536
▁realize	-6537
▁employee	-6538
▁Afghan	-6539
enger	-6540
▁guns	-6541
▁Steve	-6542
▁Mot	-6543
▁Ol	-6544
oked	-6545
▁thick	-6546
▁fairly	-6547
illy	-6548
▁surve	-6549
▁Mat	-6550
weight	-6551
âĶ	-6552
▁troops	-6553
▁agents	-6554
▁battery	-6555
▁motiv	-6556
Ã¡	-6557
Sec	-6558
den	-6559
overy	-6560
LS	-6561
▁flu	-6562
▁confident	-6563
▁Oper	-6564
▁empty	-6565
▁phen	-6566
▁sector	-6567
▁excited	-6568
▁remote	-6569
aph	-6570
oen	-6571
▁destroyed	-6572
▁moral	-6573
▁HP	-6574
▁Ron	-6575
▁dress	-6576
▁Bat	-6577
▁lit	-6578
▁MS	-6579
▁af	-6580
HL	-6581
rum	-6582
isms	-6583
▁shouldn	-6584
▁sympt	-6585
▁Toronto	-6586
hetic	-6587
▁carbon	-6588
▁installed	-6589
▁violent	-6590
▁solar	-6591
ja	-6592
▁practices	-6593
▁ride	-6594
▁Penn	-6595
▁improved	-6596
▁audio	-6597
▁behavi	-6598
▁PS	-6599
▁eating	-6600
Data	-6601
▁Review	-6602
pass	-6603
claim	-6604
uated	-6605
angers	-6606
chen	-6607
▁properties	-6608
▁anywhere	-6609
Another	-6610
▁blow	-6611
▁Jackson	-6612
▁proud	-6613
▁plane	-6614
lines	-6615
▁square	-6616
▁proof	-6617
ansas	-6618
▁talked	-6619
makers	-6620
▁sister	-6621
▁holds	-6622
▁resident	-6623
▁==	-6624
▁resistance	-6625
▁split	-6626
▁prosecut	-6627
▁confidence	-6628
resents	-6629
▁cuts	-6630
▁exception	-6631
▁zero	-6632
Getty	-6633
▁copyright	-6634
▁totally	-6635
ormal	-6636
ifications	-6637
▁Australian	-6638
▁sick	-6639
▁150	-6640
▁household	-6641
▁fees	-6642
▁drivers	-6643
ogen	-6644
▁NY	-6645
▁necessarily	-6646
▁regulations	-6647
earing	-6648
sl	-6649
▁perspective	-6650
care	-6651
icial	-6652
His	-6653
▁escape	-6654
▁surprised	-6655
▁Van	-6656
urrent	-6657
▁vac	-6658
81	-6659
▁Thus	-6660
▁emphas	-6661
▁Champions	-6662
▁Ice	-6663
▁narr	-6664
▁heads	-6665
▁causing	-6666
bel	-6667
fortunately	-6668
▁Ma	-6669
▁targets	-6670
cipl	-6671
▁afternoon	-6672
▁adds	-6673
▁Maybe	-6674
▁Four	-6675
essed	-6676
plete	-6677
▁usual	-6678
cho	-6679
ingu	-6680
▁withd	-6681
▁Energy	-6682
▁Econom	-6683
OO	-6684
▁articles	-6685
▁injured	-6686
▁manage	-6687
▁explains	-6688
▁diagn	-6689
Rec	-6690
atures	-6691
▁linked	-6692
▁discussed	-6693
▁explo	-6694
▁occasion	-6695
athan	-6696
▁opposite	-6697
▁faces	-6698
▁denied	-6699
▁Knight	-6700
▁nut	-6701
▁approximately	-6702
▁disappoint	-6703
onymous	-6704
▁Best	-6705
▁Lo	-6706
▁Hy	-6707
▁Aff	-6708
▁voting	-6709
anwhile	-6710
▁III	-6711
▁institutions	-6712
agram	-6713
▁Daily	-6714
▁drag	-6715
▁nearby	-6716
▁guilty	-6717
▁conver	-6718
Pre	-6719
ship	-6720
▁reward	-6721
▁philosoph	-6722
▁SS	-6723
ugh	-6724
▁apps	-6725
friend	-6726
▁upper	-6727
▁advert	-6728
▁snow	-6729
▁frust	-6730
▁ourselves	-6731
Fr	-6732
▁Die	-6733
ampion	-6734
▁dismiss	-6735
▁cere	-6736
▁signal	-6737
from	-6738
▁).	-6739
▁52	-6740
▁crimes	-6741
itors	-6742
estival	-6743
useum	-6744
▁council	-6745
▁Saud	-6746
May	-6747
▁Gun	-6748
ician	-6749
ether	-6750
▁sufficient	-6751
▁Hen	-6752
sole	-6753
▁historical	-6754
▁Far	-6755
▁Turn	-6756
▁pin	-6757
▁succeed	-6758
mat	-6759
lymp	-6760
▁tradition	-6761
▁Ok	-6762
▁cro	-6763
▁description	-6764
alle	-6765
▁sky	-6766
Te	-6767
▁widely	-6768
▁wave	-6769
▁definition	-6770
▁Jews	-6771
▁cycle	-6772
▁refere	-6773
▁brings	-6774
usal	-6775
▁alive	-6776
▁frequently	-6777
▁intention	-6778
▁Control	-6779
lv	-6780
ystem	-6781
▁privacy	-6782
gent	-6783
rence	-6784
▁Quest	-6785
▁Christmas	-6786
▁rail	-6787
▁cooper	-6788
▁tested	-6789
▁Capt	-6790
asks	-6791
▁comfortable	-6792
▁delivered	-6793
scape	-6794
▁depth	-6795
▁GOP	-6796
▁writes	-6797
▁assets	-6798
▁sav	-6799
iments	-6800
▁transition	-6801
▁artist	-6802
▁Look	-6803
▁lob	-6804
▁components	-6805
arity	-6806
▁walked	-6807
▁root	-6808
▁participants	-6809
▁noticed	-6810
▁resc	-6811
▁nav	-6812
▁Administ	-6813
da	-6814
utral	-6815
plate	-6816
▁importance	-6817
▁assert	-6818
iously	-6819
cription	-6820
▁injuries	-6821
▁Check	-6822
▁registered	-6823
▁intent	-6824
▁missed	-6825
ographic	-6826
▁sentence	-6827
ounter	-6828
▁assistance	-6829
evin	-6830
▁database	-6831
▁buildings	-6832
▁classic	-6833
▁thinks	-6834
▁Ohio	-6835
Pr	-6836
ugg	-6837
▁fee	-6838
pan	-6839
▁effectively	-6840
▁facility	-6841
▁bear	-6842
▁chapter	-6843
▁dogs	-6844
▁Columb	-6845
▁latter	-6846
itial	-6847
▁admitted	-6848
TV	-6849
▁Georg	-6850
▁posts	-6851
\\	-6852
▁lawyer	-6853
▁equival	-6854
▁mand	-6855
▁controlled	-6856
▁Walk	-6857
▁Andrew	-6858
▁menu	-6859
amental	-6860
▁protected	-6861
va	-6862
▁administr	-6863
oral	-6864
▁rein	-6865
▁Sar	-6866
▁amounts	-6867
▁native	-6868
▁Moon	-6869
▁represents	-6870
▁abandon	-6871
▁carrying	-6872
▁tank	-6873
mary	-6874
▁declared	-6875
Tube	-6876
▁hat	-6877
▁punish	-6878
ellect	-6879
mes	-6880
▁universe	-6881
▁Rod	-6882
phy	-6883
▁infrastructure	-6884
▁51	-6885
▁opposed	-6886
ownt	-6887
ca	-6888
▁Make	-6889
▁hardware	-6890
▁coffee	-6891
Rel	-6892
bal	-6893
world	-6894
▁Saf	-6895
▁Sea	-6896
inals	-6897
▁owned	-6898
▁hall	-6899
ersion	-6900
▁describe	-6901
▁Pot	-6902
▁portion	-6903
▁atmosp	-6904
▁governments	-6905
▁depending	-6906
▁offense	-6907
▁trick	-6908
awa	-6909
▁Line	-6910
▁Vis	-6911
▁Hard	-6912
▁Orig	-6913
▁Click	-6914
▁desk	-6915
▁Valley	-6916
▁Sov	-6917
▁movies	-6918
▁remark	-6919
▁mail	-6920
▁conscious	-6921
▁ruling	-6922
▁Rights	-6923
▁medic	-6924
hent	-6925
▁Women	-6926
><	-6927
▁replaced	-6928
▁Prem	-6929
▁Thanks	-6930
▁renew	-6931
▁Ball	-6932
iform	-6933
▁shots	-6934
Comm	-6935
▁armed	-6936
▁constant	-6937
▁taste	-6938
▁realized	-6939
▁buff	-6940
▁mo	-6941
▁efficient	-6942
Most	-6943
oration	-6944
ifies	-6945
▁communication	-6946
▁flood	-6947
▁consequences	-6948
▁anyway	-6949
igg	-6950
▁GM	-6951
▁Thank	-6952
▁iron	-6953
▁evolution	-6954
▁Cop	-6955
twitter	-6956
▁95	-6957
▁relationships	-6958
adel	-6959
▁Young	-6960
▁proposal	-6961
ayers	-6962
uilding	-6963
▁Hot	-6964
ORE	-6965
cos	-6966
▁collabor	-6967
PG	-6968
axy	-6969
▁knowing	-6970
▁supports	-6971
owed	-6972
▁controls	-6973
▁merely	-6974
umer	-6975
▁athlet	-6976
▁fashion	-6977
path	-6978
▁gift	-6979
▁era	-6980
AND	-6981
▁kinds	-6982
▁Korean	-6983
▁legit	-6984
ulous	-6985
▁essentially	-6986
▁therap	-6987
nic	-6988
▁suffered	-6989
▁hur	-6990
▁promise	-6991
▁excess	-6992
▁overw	-6993
▁prime	-6994
▁Houston	-6995
erry	-6996
▁Ms	-6997
RS	-6998
2012	-6999
▁stores	-7000
▁Olymp	-7001
▁journey	-7002
Although	-7003
Sub	-7004
▁Educ	-7005
▁Chapter	-7006
▁requests	-7007
▁consumers	-7008
▁tiny	-7009
▁isol	-7010
▁Fair	-7011
ba	-7012
▁YOU	-7013
▁crash	-7014
celer	-7015
▁emotional	-7016
▁goods	-7017
▁elected	-7018
▁moder	-7019
▁Linux	-7020
▁blocks	-7021
▁island	-7022
▁Society	-7023
▁elections	-7024
▁broadcast	-7025
▁cheap	-7026
▁nations	-7027
▁seasons	-7028
400	-7029
▁waste	-7030
▁Sat	-7031
▁fields	-7032
employ	-7033
▁profile	-7034
▁authors	-7035
ALL	-7036
▁Gra	-7037
west	-7038
▁Ty	-7039
▁deaths	-7040
▁vacc	-7041
▁formed	-7042
▁du	-7043
▁ongoing	-7044
▁Muslims	-7045
elf	-7046
igure	-7047
▁assume	-7048
▁Ukraine	-7049
water	-7050
▁coast	-7051
▁voted	-7052
gor	-7053
▁AS	-7054
▁Michigan	-7055
aza	-7056
▁Arm	-7057
iro	-7058
▁flex	-7059
asters	-7060
''	-7061
▁welcome	-7062
arl	-7063
▁locations	-7064
igation	-7065
▁Fil	-7066
▁buying	-7067
▁architect	-7068
▁harder	-7069
▁Cub	-7070
▁interface	-7071
▁restaurant	-7072
▁discover	-7073
▁exceed	-7074
▁favour	-7075
gery	-7076
▁duty	-7077
▁pitch	-7078
ador	-7079
▁Mach	-7080
boy	-7081
▁responded	-7082
▁extended	-7083
hers	-7084
Many	-7085
raid	-7086
ifer	-7087
▁Ins	-7088
Ser	-7089
▁medium	-7090
she	-7091
▁Sports	-7092
▁magazine	-7093
utation	-7094
▁limits	-7095
▁Gall	-7096
▁external	-7097
razil	-7098
▁younger	-7099
tle	-7100
▁remind	-7101
▁CON	-7102
▁immediate	-7103
▁hidden	-7104
▁volunte	-7105
▁simpl	-7106
odcast	-7107
▁phase	-7108
dr	-7109
▁plot	-7110
▁exposure	-7111
RI	-7112
ograp	-7113
vin	-7114
anish	-7115
▁Acad	-7116
▁Engine	-7117
▁expansion	-7118
▁Pay	-7119
Your	-7120
▁pushed	-7121
▁Ell	-7122
▁Head	-7123
▁marketing	-7124
▁AC	-7125
ket	-7126
▁hits	-7127
▁gro	-7128
▁Age	-7129
▁Scot	-7130
][	-7131
▁stim	-7132
▁iPhone	-7133
ĪĴ	-7134
▁narrow	-7135
▁Getty	-7136
▁Turkey	-7137
▁perfectly	-7138
▁enable	-7139
utch	-7140
▁precise	-7141
▁regime	-7142
▁shif	-7143
▁compens	-7144
gun	-7145
div	-7146
▁chosen	-7147
▁Ken	-7148
Any	-7149
▁trees	-7150
▁recommended	-7151
▁Ren	-7152
uable	-7153
▁HT	-7154
Follow	-7155
EG	-7156
▁Hand	-7157
▁Kenn	-7158
▁arguments	-7159
▁exists	-7160
▁bike	-7161
▁Conserv	-7162
▁breaking	-7163
▁Gar	-7164
▁crazy	-7165
▁virtual	-7166
aylor	-7167
ixel	-7168
▁1980	-7169
▁permission	-7170
▁Series	-7171
▁consumer	-7172
▁closely	-7173
called	-7174
▁54	-7175
▁hopes	-7176
▁array	-7177
▁Win	-7178
▁Labour	-7179
▁spons	-7180
▁Ire	-7181
▁pow	-7182
▁readers	-7183
▁employment	-7184
▁creature	-7185
▁resulting	-7186
▁accurate	-7187
▁moments	-7188
▁argued	-7189
▁ped	-7190
During	-7191
▁53	-7192
▁Tal	-7193
▁sought	-7194
▁suffering	-7195
▁icon	-7196
lee	-7197
▁($	-7198
alian	-7199
Â°	-7200
▁pra	-7201
▁bonus	-7202
("	-7203
ko	-7204
▁acting	-7205
DE	-7206
fall	-7207
▁comparison	-7208
▁smooth	-7209
▁NAS	-7210
upp	-7211
▁Joseph	-7212
eping	-7213
▁Take	-7214
▁Mid	-7215
▁sending	-7216
fast	-7217
▁Fall	-7218
▁dealing	-7219
user	-7220
▁Organ	-7221
Co	-7222
▁attached	-7223
▁sees	-7224
%.	-7225
▁typical	-7226
ART	-7227
▁finds	-7228
▁Asia	-7229
umin	-7230
▁Core	-7231
▁Ent	-7232
inent	-7233
uce	-7234
▁Blood	-7235
▁Never	-7236
▁emails	-7237
▁highlight	-7238
▁confront	-7239
atus	-7240
uted	-7241
▁unus	-7242
▁topic	-7243
▁Adam	-7244
▁ble	-7245
ati	-7246
▁understood	-7247
Set	-7248
struct	-7249
TP	-7250
▁mob	-7251
aa	-7252
▁Start	-7253
pected	-7254
sell	-7255
▁dedicated	-7256
▁CA	-7257
uan	-7258
▁songs	-7259
escription	-7260
▁tech	-7261
▁rape	-7262
▁aside	-7263
▁grant	-7264
▁56	-7265
sub	-7266
▁argue	-7267
▁containing	-7268
▁schedule	-7269
▁liberal	-7270
▁publicly	-7271
▁heavily	-7272
▁Ut	-7273
iner	-7274
▁Section	-7275
▁Care	-7276
weet	-7277
ls	-7278
Dis	-7279
âĶĢ	-7280
▁Follow	-7281
Back	-7282
▁IT	-7283
▁bes	-7284
ji	-7285
▁Hit	-7286
ested	-7287
▁everybody	-7288
▁Swed	-7289
▁femin	-7290
▁facilities	-7291
▁conven	-7292
Comp	-7293
▁OS	-7294
core	-7295
▁anx	-7296
▁division	-7297
▁Cam	-7298
▁Stan	-7299
mates	-7300
▁explore	-7301
plom	-7302
▁shares	-7303
pload	-7304
anes	-7305
▁ideal	-7306
eters	-7307
▁Base	-7308
▁plastic	-7309
▁distinct	-7310
▁Network	-7311
▁Seattle	-7312
▁trading	-7313
ensus	-7314
intend	-7315
▁exhib	-7316
▁initially	-7317
▁Food	-7318
▁thousand	-7319
▁Business	-7320
acter	-7321
▁paragraph	-7322
▁roughly	-7323
▁www	-7324
▁creative	-7325
▁Conf	-7326
▁consumption	-7327
▁films	-7328
agan	-7329
▁obtain	-7330
▁tall	-7331
▁tor	-7332
▁acknowled	-7333
▁grown	-7334
alo	-7335
KE	-7336
▁400	-7337
enders	-7338
taining	-7339
UG	-7340
▁suicide	-7341
▁watched	-7342
▁List	-7343
ali	-7344
rehens	-7345
▁surrounding	-7346
▁pip	-7347
▁flying	-7348
▁Java	-7349
ordan	-7350
▁serving	-7351
inations	-7352
post	-7353
▁sho	-7354
Av	-7355
▁jail	-7356
zy	-7357
▁1999	-7358
▁</	-7359
▁literally	-7360
▁Sir	-7361
▁exposed	-7362
▁lies	-7363
star	-7364
▁bat	-7365
▁earned	-7366
▁Dig	-7367
▁specified	-7368
▁Season	-7369
▁degrees	-7370
Donald	-7371
▁centre	-7372
▁sharing	-7373
▁winter	-7374
▁CO	-7375
Che	-7376
▁Î	-7377
MP	-7378
▁unw	-7379
▁fewer	-7380
▁Mir	-7381
▁somewhere	-7382
▁Key	-7383
▁attacked	-7384
▁Kir	-7385
▁domain	-7386
▁stronger	-7387
▁99	-7388
▁penalty	-7389
Id	-7390
Script	-7391
▁declined	-7392
▁neck	-7393
▁fraud	-7394
▁currency	-7395
▁rising	-7396
RC	-7397
âĢ¦âĢ¦	-7398
Hz	-7399
▁tab	-7400
▁talent	-7401
nam	-7402
▁NBA	-7403
▁village	-7404
▁legs	-7405
▁Next	-7406
Ed	-7407
▁acid	-7408
▁hyd	-7409
800	-7410
▁involving	-7411
▁Image	-7412
▁Before	-7413
Fl	-7414
▁yesterday	-7415
Source	-7416
▁terrorist	-7417
▁sup	-7418
▁synt	-7419
▁Saudi	-7420
▁west	-7421
▁ru	-7422
burg	-7423
▁visible	-7424
▁struck	-7425
rison	-7426
▁awesome	-7427
▁drawn	-7428
▁answers	-7429
▁Girl	-7430
▁Ram	-7431
▁threats	-7432
▁defeat	-7433
osit	-7434
▁vent	-7435
aturally	-7436
American	-7437
enda	-7438
▁Holy	-7439
▁rum	-7440
%,	-7441
case	-7442
▁History	-7443
▁YouTube	-7444
▁situations	-7445
▁DNA	-7446
Ste	-7447
▁saved	-7448
Item	-7449
▁recip	-7450
ologist	-7451
▁faced	-7452
▁elig	-7453
Once	-7454
▁Li	-7455
uh	-7456
▁mistake	-7457
▁Division	-7458
▁Bell	-7459
▁symptoms	-7460
Â®	-7461
▁domin	-7462
▁falling	-7463
▁ending	-7464
ashes	-7465
▁matches	-7466
▁Online	-7467
▁explanation	-7468
Def	-7469
redit	-7470
▁anymore	-7471
▁Total	-7472
▁FOR	-7473
ushed	-7474
▁letters	-7475
▁risks	-7476
▁OK	-7477
▁reportedly	-7478
:\	-7479
▁plate	-7480
▁subjects	-7481
▁attempted	-7482
ifier	-7483
iana	-7484
▁unlikely	-7485
▁Though	-7486
uma	-7487
▁Invest	-7488
▁Prin	-7489
ican	-7490
▁Dar	-7491
▁Colorado	-7492
aug	-7493
▁veget	-7494
aos	-7495
ria	-7496
▁shel	-7497
▁marked	-7498
▁()	-7499
▁spr	-7500
po	-7501
▁Link	-7502
▁defe	-7503
▁Jr	-7504
▁theme	-7505
▁passion	-7506
▁Pen	-7507
▁info	-7508
izer	-7509
▁shit	-7510
▁Civil	-7511
apse	-7512
cre	-7513
▁poly	-7514
▁component	-7515
▁Charles	-7516
▁Ireland	-7517
▁Prov	-7518
▁doctors	-7519
▁granted	-7520
▁paint	-7521
▁honor	-7522
▁smoke	-7523
▁payments	-7524
▁primarily	-7525
▁Kingdom	-7526
rich	-7527
atell	-7528
▁deals	-7529
▁scheduled	-7530
▁fundamental	-7531
▁protein	-7532
▁newspaper	-7533
▁clients	-7534
ython	-7535
▁Date	-7536
hus	-7537
▁feedback	-7538
▁stretch	-7539
▁cock	-7540
▁hotel	-7541
▁Queen	-7542
▁sugar	-7543
▁ju	-7544
▁milk	-7545
▁approval	-7546
▁Live	-7547
▁equivalent	-7548
efully	-7549
▁insert	-7550
zona	-7551
▁extension	-7552
dri	-7553
John	-7554
▁accomp	-7555
Sm	-7556
▁Fund	-7557
▁constantly	-7558
▁``	-7559
▁generated	-7560
▁Action	-7561
▁Psych	-7562
▁Tri	-7563
▁recognize	-7564
▁vary	-7565
pha	-7566
▁Ra	-7567
df	-7568
etch	-7569
▁Soviet	-7570
Two	-7571
▁patterns	-7572
▁profession	-7573
aning	-7574
Time	-7575
▁Lim	-7576
▁colors	-7577
▁Az	-7578
▁TR	-7579
▁infect	-7580
▁phenomen	-7581
▁shell	-7582
Also	-7583
▁puts	-7584
▁delivery	-7585
▁brown	-7586
▁processing	-7587
▁lights	-7588
essage	-7589
▁Brook	-7590
▁Aud	-7591
lation	-7592
▁industrial	-7593
Like	-7594
▁Brazil	-7595
rous	-7596
ESS	-7597
▁Luc	-7598
▁somehow	-7599
▁85	-7600
▁proport	-7601
▁politicians	-7602
▁indicate	-7603
▁hole	-7604
▁techniques	-7605
▁competitive	-7606
▁phr	-7607
▁vo	-7608
istent	-7609
▁Dream	-7610
▁campus	-7611
▁aspects	-7612
▁helpful	-7613
▁shield	-7614
orse	-7615
▁trigger	-7616
mal	-7617
▁58	-7618
▁tort	-7619
▁personally	-7620
▁tag	-7621
▁keeps	-7622
▁Video	-7623
▁bench	-7624
▁gap	-7625
aire	-7626
▁east	-7627
▁recovery	-7628
perial	-7629
▁profit	-7630
▁Mic	-7631
▁57	-7632
▁colon	-7633
▁strongly	-7634
style	-7635
▁allegations	-7636
han	-7637
▁reporters	-7638
jo	-7639
rine	-7640
arget	-7641
andal	-7642
▁03	-7643
▁flash	-7644
trans	-7645
▁strict	-7646
▁parking	-7647
▁Pakistan	-7648
▁li	-7649
▁weird	-7650
▁Eric	-7651
▁regions	-7652
▁Jun	-7653
▁intellect	-7654
▁WH	-7655
oding	-7656
ributes	-7657
upid	-7658
▁Tit	-7659
▁finger	-7660
oria	-7661
▁elev	-7662
▁Field	-7663
▁conclusion	-7664
;;	-7665
▁feelings	-7666
▁extensive	-7667
▁mixed	-7668
▁neuro	-7669
vy	-7670
▁harass	-7671
▁Circ	-7672
ouch	-7673
▁territory	-7674
▁successfully	-7675
Mar	-7676
▁ingred	-7677
▁overwhel	-7678
▁layer	-7679
View	-7680
▁allies	-7681
illance	-7682
▁Three	-7683
▁bunch	-7684
▁normally	-7685
▁networks	-7686
▁sacr	-7687
▁CIA	-7688
bles	-7689
▁chose	-7690
▁opponents	-7691
▁regardless	-7692
▁franch	-7693
▁pref	-7694
▁Po	-7695
▁bridge	-7696
anna	-7697
▁Silver	-7698
▁wage	-7699
page	-7700
rior	-7701
▁radical	-7702
▁Little	-7703
▁manip	-7704
▁secretary	-7705
▁gang	-7706
DR	-7707
FA	-7708
▁decent	-7709
▁Spirit	-7710
▁uncle	-7711
▁Development	-7712
▁investors	-7713
▁walls	-7714
▁publish	-7715
▁generate	-7716
issions	-7717
car	-7718
▁promote	-7719
▁cutting	-7720
▁chest	-7721
▁drinking	-7722
▁collected	-7723
▁72	-7724
▁hoping	-7725
▁embr	-7726
gorith	-7727
▁warned	-7728
▁instructions	-7729
OG	-7730
▁Did	-7731
▁Agency	-7732
▁gear	-7733
▁criticism	-7734
▁Further	-7735
▁util	-7736
anny	-7737
Red	-7738
▁counsel	-7739
▁Asian	-7740
▁reduction	-7741
pool	-7742
▁teaching	-7743
▁deeply	-7744
iy	-7745
▁estimates	-7746
▁choices	-7747
▁permanent	-7748
inem	-7749
kel	-7750
▁fasc	-7751
pse	-7752
file	-7753
▁Low	-7754
▁Person	-7755
▁tournament	-7756
stal	-7757
▁mel	-7758
UST	-7759
▁Ray	-7760
azi	-7761
Val	-7762
▁contained	-7763
▁Holly	-7764
▁wake	-7765
▁reveal	-7766
▁processes	-7767
▁ISIS	-7768
▁09	-7769
▁blind	-7770
▁steel	-7771
▁Bad	-7772
▁carefully	-7773
appy	-7774
roit	-7775
▁gaming	-7776
▁houses	-7777
▁Coll	-7778
▁truck	-7779
erm	-7780
▁scored	-7781
▁occas	-7782
return	-7783
bound	-7784
var	-7785
▁sharp	-7786
▁afraid	-7787
▁EX	-7788
amber	-7789
cific	-7790
▁scheme	-7791
NC	-7792
▁Polit	-7793
▁decline	-7794
▁1998	-7795
▁pushing	-7796
▁possession	-7797
▁privile	-7798
▁teachers	-7799
▁yield	-7800
HA	-7801
▁Davis	-7802
itled	-7803
########	-7804
▁rig	-7805
▁Daniel	-7806
acon	-7807
▁hide	-7808
uten	-7809
▁colleagues	-7810
▁principles	-7811
▁loud	-7812
▁sin	-7813
▁Demon	-7814
▁stone	-7815
▁02	-7816
▁taught	-7817
▁terrible	-7818
▁stuck	-7819
▁Policy	-7820
teen	-7821
▁implementation	-7822
▁BBC	-7823
▁API	-7824
▁wheel	-7825
allas	-7826
▁champions	-7827
olars	-7828
player	-7829
▁repeatedly	-7830
▁Still	-7831
▁likes	-7832
asty	-7833
ester	-7834
▁Catholic	-7835
RL	-7836
▁bath	-7837
▁noise	-7838
title	-7839
▁northern	-7840
Part	-7841
▁magn	-7842
▁fab	-7843
▁Ash	-7844
▁displ	-7845
▁ticket	-7846
▁murd	-7847
▁alongside	-7848
▁Music	-7849
▁river	-7850
▁Steel	-7851
▁CL	-7852
▁Player	-7853
▁Mult	-7854
owing	-7855
rep	-7856
size	-7857
▁tur	-7858
▁Georgia	-7859
iscal	-7860
raction	-7861
▁cable	-7862
▁59	-7863
▁wins	-7864
▁upcoming	-7865
▁survive	-7866
▁inspired	-7867
▁Education	-7868
▁statistics	-7869
▁Foot	-7870
iami	-7871
▁yellow	-7872
▁Page	-7873
.-	-7874
▁Has	-7875
▁urban	-7876
▁ax	-7877
essel	-7878
\"	-7879
▁quarterback	-7880
▁register	-7881
▁Labor	-7882
▁abilities	-7883
▁Family	-7884
▁variable	-7885
▁Price	-7886
▁contem	-7887
▁thin	-7888
▁Equ	-7889
data	-7890
▁gotten	-7891
▁constit	-7892
▁asks	-7893
▁tail	-7894
▁exciting	-7895
▁Effect	-7896
▁Spanish	-7897
▁encourage	-7898
inson	-7899
▁Ah	-7900
▁commitment	-7901
CS	-7902
▁rally	-7903
▁::	-7904
▁subsid	-7905
▁spin	-7906
▁captured	-7907
2018	-7908
▁innoc	-7909
▁allegedly	-7910
▁Come	-7911
▁artists	-7912
▁Number	-7913
▁electronic	-7914
▁regional	-7915
apes	-7916
▁wra	-7917
▁myth	-7918
prise	-7919
▁Miller	-7920
▁Creat	-7921
▁Episode	-7922
bell	-7923
▁directed	-7924
▁extract	-7925
▁sorry	-7926
▁vice	-7927
agger	-7928
▁Support	-7929
▁66	-7930
▁Iron	-7931
▁wonderful	-7932
▁gra	-7933
Net	-7934
ione	-7935
Eng	-7936
▁ships	-7937
ikes	-7938
▁Kevin	-7939
itar	-7940
▁activists	-7941
true	-7942
▁Arizona	-7943
enth	-7944
▁Despite	-7945
▁SE	-7946
▁habit	-7947
ernel	-7948
▁inqu	-7949
▁abortion	-7950
▁void	-7951
▁explicit	-7952
▁engaged	-7953
▁angry	-7954
▁rating	-7955
▁frag	-7956
bro	-7957
icking	-7958
dev	-7959
▁worried	-7960
▁obser	-7961
▁apartment	-7962
▁GT	-7963
▁estate	-7964
▁Constitution	-7965
emon	-7966
▁Snow	-7967
▁county	-7968
▁disag	-7969
▁Stephen	-7970
▁immigrants	-7971
wind	-7972
▁Nations	-7973
▁folks	-7974
Out	-7975
▁gall	-7976
▁targeted	-7977
▁stead	-7978
▁Bon	-7979
▁Lib	-7980
▁informed	-7981
▁120	-7982
chain	-7983
idelines	-7984
orough	-7985
▁driven	-7986
▁regularly	-7987
▁basket	-7988
▁principle	-7989
ocument	-7990
▁stun	-7991
ibilities	-7992
▁Roman	-7993
▁About	-7994
▁alert	-7995
▁democracy	-7996
▁represented	-7997
HS	-7998
cers	-7999
parent	-8000
Art	-8001
pack	-8002
▁diplom	-8003
rets	-8004
▁NO	-8005
▁capture	-8006
▁Adv	-8007
Ħ¢	-8008
▁announcement	-8009
▁Lear	-8010
▁hook	-8011
▁purs	-8012
▁Such	-8013
▁Camer	-8014
▁refugees	-8015
▁Ve	-8016
Pol	-8017
▁recognized	-8018
lib	-8019
▁hadn	-8020
Ass	-8021
▁pilot	-8022
ushing	-8023
▁returning	-8024
▁trail	-8025
▁Stone	-8026
▁routine	-8027
▁courts	-8028
▁desper	-8029
▁friendly	-8030
▁Italy	-8031
▁pled	-8032
▁breath	-8033
▁studio	-8034
NS	-8035
▁impressive	-8036
▁Afghanistan	-8037
▁fing	-8038
▁downt	-8039
inking	-8040
▁Rog	-8041
iary	-8042
color	-8043
sex	-8044
aron	-8045
▁fault	-8046
▁Nick	-8047
Down	-8048
▁Rose	-8049
▁Southern	-8050
XX	-8051
isodes	-8052
List	-8053
600	-8054
▁outcome	-8055
err	-8056
▁elsewhere	-8057
▁retire	-8058
▁pounds	-8059
▁Global	-8060
People	-8061
▁communications	-8062
▁loan	-8063
▁ratio	-8064
▁Empire	-8065
▁gonna	-8066
▁invent	-8067
DF	-8068
▁1970	-8069
▁Common	-8070
pat	-8071
▁promised	-8072
▁dinner	-8073
▁Hom	-8074
▁creates	-8075
▁operate	-8076
verty	-8077
▁Jordan	-8078
etime	-8079
▁sustain	-8080
Reg	-8081
▁incredible	-8082
ima	-8083
▁warrant	-8084
▁mm	-8085
Att	-8086
▁lawsuit	-8087
▁reviews	-8088
iture	-8089
▁Source	-8090
lights	-8091
▁Ford	-8092
▁63	-8093
group	-8094
store	-8095
▁featured	-8096
▁forever	-8097
▁poverty	-8098
▁Pop	-8099
▁CNN	-8100
azz	-8101
abis	-8102
aching	-8103
▁laid	-8104
▁Supp	-8105
▁filter	-8106
ena	-8107
▁Community	-8108
▁creatures	-8109
uction	-8110
▁Royal	-8111
▁association	-8112
▁Connect	-8113
▁Brad	-8114
âĸĪ	-8115
lers	-8116
there	-8117
▁Gi	-8118
▁valuable	-8119
ACK	-8120
▁Taylor	-8121
▁liquid	-8122
▁Attorney	-8123
▁Carl	-8124
▁Final	-8125
aga	-8126
▁Wilson	-8127
Because	-8128
▁Professor	-8129
aka	-8130
▁incredibly	-8131
rance	-8132
!)	-8133
Ref	-8134
sk	-8135
▁solutions	-8136
▁atmosphere	-8137
▁blame	-8138
umes	-8139
▁Nob	-8140
CA	-8141
umps	-8142
rical	-8143
▁Putin	-8144
▁Dest	-8145
oric	-8146
▁PA	-8147
▁respectively	-8148
wan	-8149
▁fifth	-8150
âĦ¢	-8151
▁Cry	-8152
▁governor	-8153
resident	-8154
▁purchased	-8155
▁hack	-8156
▁intense	-8157
obs	-8158
▁origin	-8159
▁define	-8160
▁careful	-8161
***	-8162
▁shoulder	-8163
Click	-8164
▁tied	-8165
▁destruction	-8166
oured	-8167
▁nobody	-8168
▁ho	-8169
▁Exper	-8170
▁tip	-8171
";	-8172
▁technique	-8173
▁jur	-8174
▁Pok	-8175
bow	-8176
▁legend	-8177
▁accord	-8178
▁busy	-8179
▁Intel	-8180
▁hang	-8181
aki	-8182
.]	-8183
âĢĶâĢĶâĢĶâĢĶ	-8184
▁surgery	-8185
▁reprodu	-8186
▁uniform	-8187
▁scenes	-8188
code	-8189
▁62	-8190
lisher	-8191
▁Have	-8192
phia	-8193
▁crypt	-8194
▁recon	-8195
▁scream	-8196
▁adopted	-8197
▁scores	-8198
Ne	-8199
▁Italian	-8200
including	-8201
BO	-8202
▁indicated	-8203
▁entertain	-8204
Gu	-8205
Text	-8206
iel	-8207
▁twenty	-8208
▁engage	-8209
offs	-8210
▁Pacific	-8211
▁smile	-8212
▁personnel	-8213
▁toler	-8214
▁doors	-8215
▁tone	-8216
▁machines	-8217
▁entering	-8218
tenance	-8219
CO	-8220
▁Jersey	-8221
▁forest	-8222
▁horse	-8223
▁complaint	-8224
▁Spring	-8225
yo	-8226
▁Plus	-8227
eding	-8228
▁Return	-8229
quarters	-8230
ials	-8231
cow	-8232
▁academic	-8233
▁fruit	-8234
▁1996	-8235
ogether	-8236
▁wine	-8237
▁pursu	-8238
▁Steven	-8239
▁licens	-8240
Who	-8241
▁clothes	-8242
rection	-8243
▁squad	-8244
▁stable	-8245
▁raw	-8246
zens	-8247
Star	-8248
uties	-8249
ancer	-8250
▁keys	-8251
▁Mu	-8252
▁complicated	-8253
iger	-8254
▁Text	-8255
▁absor	-8256
▁68	-8257
▁funny	-8258
▁relief	-8259
▁Lew	-8260
▁Cook	-8261
▁chart	-8262
▁drawing	-8263
GE	-8264
▁module	-8265
▁Bull	-8266
ILL	-8267
▁salt	-8268
00000000	-8269
ille	-8270
▁resource	-8271
away	-8272
adelphia	-8273
▁Bru	-8274
▁67	-8275
▁somebody	-8276
▁participate	-8277
▁rose	-8278
wered	-8279
▁muscle	-8280
▁consent	-8281
▁continuing	-8282
▁Guardian	-8283
▁Order	-8284
regon	-8285
▁rear	-8286
▁provision	-8287
▁liked	-8288
rient	-8289
▁bra	-8290
Trans	-8291
▁meetings	-8292
▁tox	-8293
▁convent	-8294
▁auto	-8295
▁recording	-8296
▁Soft	-8297
001	-8298
▁Roll	-8299
▁programming	-8300
▁pic	-8301
▁proved	-8302
▁stab	-8303
▁Ast	-8304
▁caption	-8305
ulating	-8306
▁Attack	-8307
▁newly	-8308
▁1997	-8309
fr	-8310
▁discipl	-8311
▁Greek	-8312
▁edition	-8313
▁Does	-8314
▁Box	-8315
ifle	-8316
acket	-8317
▁passes	-8318
▁guest	-8319
▁acceler	-8320
itals	-8321
UD	-8322
▁authent	-8323
▁Rest	-8324
oval	-8325
ta	-8326
uine	-8327
▁armor	-8328
▁Town	-8329
▁compat	-8330
▁inches	-8331
Despite	-8332
▁assign	-8333
herent	-8334
▁prepare	-8335
▁Meg	-8336
ockey	-8337
▁depends	-8338
▁tracks	-8339
watch	-8340
▁lists	-8341
▁Northern	-8342
▁alter	-8343
rec	-8344
▁Eastern	-8345
▁condem	-8346
▁everywhere	-8347
?'	-8348
▁affili	-8349
▁fought	-8350
":{"	-8351
▁mac	-8352
itarian	-8353
▁scope	-8354
▁AL	-8355
aws	-8356
arms	-8357
▁que	-8358
▁enjoyed	-8359
nesota	-8360
▁aggressive	-8361
▁Story	-8362
▁IV	-8363
▁recipe	-8364
▁rarely	-8365
▁Medical	-8366
value	-8367
angel	-8368
aying	-8369
omething	-8370
▁subsection	-8371
▁southern	-8372
▁frequency	-8373
rete	-8374
rolled	-8375
ults	-8376
▁Nic	-8377
▁behalf	-8378
▁sequence	-8379
abet	-8380
▁controversial	-8381
▁comprom	-8382
▁worker	-8383
▁mainly	-8384
▁algorith	-8385
▁Major	-8386
orce	-8387
gender	-8388
▁organized	-8389
▁fake	-8390
▁concluded	-8391
▁ED	-8392
▁Exec	-8393
rage	-8394
▁chances	-8395
berry	-8396
▁Trad	-8397
▁configuration	-8398
▁withdraw	-8399
▁fro	-8400
udes	-8401
▁Brother	-8402
▁Brian	-8403
▁tries	-8404
▁samples	-8405
▁bid	-8406
▁Golden	-8407
▁photograph	-8408
ifest	-8409
▁DO	-8410
▁Parliament	-8411
****************	-8412
Rem	-8413
▁contest	-8414
▁signing	-8415
px	-8416
▁Zeal	-8417
âĶĢâĶĢ	-8418
Ear	-8419
▁exit	-8420
Before	-8421
▁Corpor	-8422
null	-8423
month	-8424
▁racial	-8425
otted	-8426
▁Veg	-8427
▁Reuters	-8428
▁sword	-8429
pson	-8430
▁Romney	-8431
aed	-8432
▁trib	-8433
▁inner	-8434
▁protocol	-8435
▁Bi	-8436
▁Miami	-8437
everal	-8438
press	-8439
▁shipping	-8440
▁Amendment	-8441
▁Howard	-8442
connect	-8443
▁Disc	-8444
▁Jac	-8445
iamond	-8446
▁Therefore	-8447
ses	-8448
▁Princess	-8449
▁USB	-8450
▁Anth	-8451
▁surveillance	-8452
▁apolog	-8453
▁61	-8454
owa	-8455
▁fulf	-8456
js	-8457
▁luck	-8458
usted	-8459
▁Â§	-8460
ni	-8461
▁anticip	-8462
eman	-8463
▁winner	-8464
▁silver	-8465
lla	-8466
icity	-8467
▁unusual	-8468
▁crack	-8469
▁ties	-8470
ez	-8471
▁practical	-8472
▁province	-8473
▁Place	-8474
▁priority	-8475
ICE	-8476
▁describes	-8477
▁branch	-8478
Form	-8479
aska	-8480
missions	-8481
bi	-8482
▁porn	-8483
▁Turk	-8484
▁enthus	-8485
▁fighters	-8486
▁08	-8487
▁Detroit	-8488
▁foundation	-8489
avid	-8490
Are	-8491
▁judgment	-8492
cling	-8493
▁solve	-8494
▁Design	-8495
Where	-8496
hesis	-8497
▁Tro	-8498
after	-8499
▁neutral	-8500
▁Palestinian	-8501
▁Hollywood	-8502
▁advis	-8503
▁Non	-8504
yes	-8505
olis	-8506
▁reputation	-8507
▁smell	-8508
▁bread	-8509
▁Bul	-8510
▁Beach	-8511
▁claiming	-8512
▁genetic	-8513
▁technologies	-8514
▁upgrade	-8515
rows	-8516
▁developer	-8517
▁Josh	-8518
▁Disney	-8519
erved	-8520
ipal	-8521
▁unex	-8522
▁barely	-8523
then	-8524
▁Pub	-8525
▁illness	-8526
etary	-8527
▁Bal	-8528
▁patch	-8529
▁butt	-8530
▁stupid	-8531
▁Dog	-8532
▁Dallas	-8533
front	-8534
iece	-8535
▁protests	-8536
▁chat	-8537
oenix	-8538
▁wing	-8539
▁parliament	-8540
▁77	-8541
osexual	-8542
▁render	-8543
ptions	-8544
▁Coast	-8545
osa	-8546
▁Greg	-8547
hop	-8548
▁Management	-8549
▁bitcoin	-8550
▁recover	-8551
▁incorpor	-8552
orne	-8553
▁Using	-8554
▁preced	-8555
▁threatened	-8556
▁spiritual	-8557
▁Event	-8558
▁Fred	-8559
▁advertising	-8560
▁improvements	-8561
▁Custom	-8562
▁errors	-8563
▁sensitive	-8564
▁Navy	-8565
▁cream	-8566
Look	-8567
▁exclusive	-8568
▁comprehens	-8569
▁deleg	-8570
▁conce	-8571
▁remem	-8572
▁structures	-8573
▁stored	-8574
ND	-8575
▁1000	-8576
UP	-8577
▁Budd	-8578
AF	-8579
woman	-8580
▁Academy	-8581
ðŁ	-8582
sea	-8583
▁temporary	-8584
About	-8585
esters	-8586
▁tickets	-8587
▁possess	-8588
inch	-8589
oz	-8590
▁la	-8591
▁contracts	-8592
▁unp	-8593
▁cig	-8594
▁Kat	-8595
ultural	-8596
asm	-8597
▁mountain	-8598
▁Captain	-8599
Step	-8600
making	-8601
▁Spain	-8602
▁equally	-8603
▁lands	-8604
aters	-8605
▁rejected	-8606
era	-8607
imm	-8608
rix	-8609
CD	-8610
▁transaction	-8611
gener	-8612
lessly	-8613
▁||	-8614
▁cos	-8615
▁Henry	-8616
▁provisions	-8617
▁gained	-8618
▁directory	-8619
▁raising	-8620
▁Sep	-8621
olen	-8622
onder	-8623
▁console	-8624
inst	-8625
▁bom	-8626
▁uncertain	-8627
150	-8628
ocking	-8629
▁measured	-8630
▁plain	-8631
▁seats	-8632
▁dict	-8633
SL	-8634
afe	-8635
▁estimate	-8636
izon	-8637
athered	-8638
▁contributed	-8639
▁episodes	-8640
ommod	-8641
Gr	-8642
ANT	-8643
▁69	-8644
Gener	-8645
▁250	-8646
viously	-8647
rogen	-8648
▁terrorism	-8649
▁movements	-8650
entle	-8651
ounce	-8652
▁Soul	-8653
▁prev	-8654
▁Table	-8655
acts	-8656
riors	-8657
tab	-8658
▁suffer	-8659
▁nerv	-8660
▁mainstream	-8661
▁Wolf	-8662
▁franchise	-8663
bat	-8664
▁demands	-8665
▁agenda	-8666
▁dozen	-8667
▁clinical	-8668
izard	-8669
▁Op	-8670
td	-8671
▁visited	-8672
▁Perhaps	-8673
▁actor	-8674
▁delic	-8675
▁contribute	-8676
▁inject	-8677
▁Es	-8678
acco	-8679
▁listening	-8680
▁congress	-8681
ependent	-8682
▁premium	-8683
▁76	-8684
▁Irish	-8685
▁assigned	-8686
▁Phys	-8687
▁worldwide	-8688
▁narrative	-8689
otype	-8690
mont	-8691
base	-8692
▁Bowl	-8693
▁Administration	-8694
▁relation	-8695
▁EV	-8696
CP	-8697
▁covers	-8698
▁78	-8699
▁certific	-8700
▁grass	-8701
▁04	-8702
piracy	-8703
ira	-8704
▁engineering	-8705
▁Mars	-8706
▁unemploy	-8707
▁Foreign	-8708
stract	-8709
▁ven	-8710
▁steal	-8711
▁replied	-8712
▁ultimate	-8713
▁titles	-8714
dated	-8715
▁joy	-8716
aus	-8717
▁hyper	-8718
aku	-8719
▁officially	-8720
▁Product	-8721
▁difficulty	-8722
peror	-8723
▁resulted	-8724
ribed	-8725
link	-8726
who	-8727
~~~~	-8728
▁Speed	-8729
▁Viet	-8730
Wind	-8731
▁Barack	-8732
▁restrictions	-8733
▁Share	-8734
▁1995	-8735
itionally	-8736
▁beauty	-8737
opt	-8738
▁maps	-8739
▁CR	-8740
▁Nation	-8741
▁Cruz	-8742
Will	-8743
▁electricity	-8744
▁org	-8745
▁burd	-8746
▁violation	-8747
▁usage	-8748
▁permit	-8749
▁Chron	-8750
▁Fant	-8751
▁naturally	-8752
▁07	-8753
▁thrown	-8754
▁Awoken	-8755
▁alien	-8756
▁Hero	-8757
▁Kent	-8758
▁Rick	-8759
rike	-8760
▁pace	-8761
},{"	-8762
GL	-8763
▁poison	-8764
▁Tower	-8765
▁formal	-8766
alysis	-8767
▁genuine	-8768
▁kil	-8769
aver	-8770
▁procedure	-8771
▁Prop	-8772
intendo	-8773
▁Main	-8774
asant	-8775
▁trained	-8776
Game	-8777
▁Load	-8778
▁MA	-8779
▁crucial	-8780
▁lets	-8781
▁FR	-8782
▁champion	-8783
101	-8784
▁Conference	-8785
▁writers	-8786
▁connections	-8787
▁okay	-8788
irms	-8789
▁Rand	-8790
▁encounter	-8791
▁Buff	-8792
▁achieved	-8793
▁checks	-8794
iscons	-8795
▁assistant	-8796
▁whenever	-8797
▁Access	-8798
▁Ur	-8799
bin	-8800
▁clock	-8801
isp	-8802
opher	-8803
▁borrow	-8804
▁mad	-8805
▁personality	-8806
only	-8807
IST	-8808
abama	-8809
▁gains	-8810
▁commonly	-8811
▁terr	-8812
▁hypot	-8813
▁rely	-8814
▁tiss	-8815
isconsin	-8816
▁ridic	-8817
function	-8818
▁Oregon	-8819
▁uncom	-8820
rating	-8821
eland	-8822
▁NC	-8823
▁moon	-8824
annon	-8825
▁vulnerable	-8826
utive	-8827
ÂłÂłÂłÂł	-8828
▁Radio	-8829
▁western	-8830
sect	-8831
▁Tony	-8832
▁occurs	-8833
▁Os	-8834
▁Hon	-8835
ÃŃ	-8836
▁vessel	-8837
▁Scotland	-8838
▁discrimination	-8839
▁subsequent	-8840
string	-8841
▁fantasy	-8842
▁Shadow	-8843
▁testim	-8844
WE	-8845
iti	-8846
ras	-8847
▁boat	-8848
▁marks	-8849
▁ordinary	-8850
▁ren	-8851
▁representative	-8852
▁petition	-8853
▁73	-8854
▁adventure	-8855
▁ignore	-8856
▁Philadelphia	-8857
▁Sav	-8858
VP	-8859
▁factory	-8860
▁tasks	-8861
▁depression	-8862
zed	-8863
................................	-8864
▁Storm	-8865
▁cogn	-8866
▁eligible	-8867
▁reducing	-8868
via	-8869
▁05	-8870
▁striking	-8871
▁dollar	-8872
ho	-8873
OV	-8874
▁instrument	-8875
▁philosophy	-8876
▁Moore	-8877
▁Avenue	-8878
▁ruled	-8879
▁Front	-8880
INE	-8881
▁Mah	-8882
▁scenario	-8883
▁NASA	-8884
▁enorm	-8885
▁debut	-8886
▁tea	-8887
Today	-8888
▁absence	-8889
Sim	-8890
▁ham	-8891
leep	-8892
▁tables	-8893
▁Heart	-8894
MI	-8895
Ke	-8896
requ	-8897
VD	-8898
map	-8899
▁chairman	-8900
▁pump	-8901
▁rapidly	-8902
vi	-8903
▁substantial	-8904
EP	-8905
des	-8906
chant	-8907
ilipp	-8908
▁Santa	-8909
riers	-8910
anchester	-8911
Load	-8912
▁Case	-8913
▁saving	-8914
▁74	-8915
▁AFP	-8916
erning	-8917
ounced	-8918
▁Minnesota	-8919
▁Was	-8920
▁recru	-8921
▁assessment	-8922
▁Bron	-8923
UE	-8924
▁dynamic	-8925
▁furn	-8926
ulator	-8927
▁propag	-8928
high	-8929
▁accommod	-8930
▁stack	-8931
▁Sus	-8932
writ	-8933
▁reven	-8934
▁Godd	-8935
▁Zealand	-8936
abs	-8937
▁brut	-8938
▁perpet	-8939
hot	-8940
▁hardly	-8941
▁Burn	-8942
ãĤ¹	-8943
▁sty	-8944
▁transactions	-8945
▁gate	-8946
▁screens	-8947
▁submitted	-8948
▁101	-8949
▁languages	-8950
ught	-8951
emen	-8952
▁falls	-8953
▁coc	-8954
Ĥ¬	-8955
▁strikes	-8956
pa	-8957
▁deliber	-8958
▁IM	-8959
▁relax	-8960
annels	-8961
▁Senator	-8962
▁extrem	-8963
▁},	-8964
▁Deb	-8965
▁bell	-8966
▁disorder	-8967
cut	-8968
▁iOS	-8969
▁locked	-8970
▁emissions	-8971
▁shortly	-8972
"]	-8973
▁Judge	-8974
▁Sometimes	-8975
▁rival	-8976
▁dust	-8977
▁reaching	-8978
File	-8979
Â¯Â¯Â¯Â¯	-8980
inois	-8981
▁Jason	-8982
▁satell	-8983
aret	-8984
▁stations	-8985
▁agric	-8986
▁Technology	-8987
comes	-8988
▁Unfortunately	-8989
▁Children	-8990
▁applies	-8991
asted	-8992
▁anger	-8993
ailability	-8994
▁Damage	-8995
▁compare	-8996
▁Standard	-8997
▁aimed	-8998
▁Ba	-8999
anguage	-9000
▁regulation	-9001
▁jury	-9002
▁airport	-9003
▁sections	-9004
▁Prince	-9005
emed	-9006
▁medicine	-9007
▁hitting	-9008
▁spark	-9009
olves	-9010
▁ads	-9011
State	-9012
▁foods	-9013
▁replacement	-9014
▁chicken	-9015
▁lowest	-9016
▁minds	-9017
▁involves	-9018
ui	-9019
▁arrang	-9020
▁procedures	-9021
▁Which	-9022
iversary	-9023
▁bills	-9024
▁improvement	-9025
▁inev	-9026
▁expectations	-9027
▁intellectual	-9028
▁spaces	-9029
▁mechanism	-9030
250	-9031
break	-9032
▁Ze	-9033
▁Tenn	-9034
▁Balt	-9035
▁barrel	-9036
▁static	-9037
mann	-9038
Police	-9039
▁tips	-9040
▁handling	-9041
cus	-9042
oded	-9043
ilton	-9044
iry	-9045
▁journalists	-9046
ourse	-9047
▁comic	-9048
▁nomine	-9049
ITY	-9050
▁versus	-9051
▁loop	-9052
▁surf	-9053
▁Indust	-9054
▁Hunter	-9055
▁beliefs	-9056
isan	-9057
▁setup	-9058
▁brew	-9059
image	-9060
▁computers	-9061
fol	-9062
},"	-9063
▁Medal	-9064
▁taxp	-9065
▁displayed	-9066
▁grav	-9067
▁fiscal	-9068
Mon	-9069
▁Moscow	-9070
▁Kong	-9071
▁Centre	-9072
▁cameras	-9073
▁Mrs	-9074
▁Hay	-9075
▁aver	-9076
▁Kelly	-9077
py	-9078
▁requirement	-9079
▁entitled	-9080
ombie	-9081
▁shadow	-9082
agic	-9083
▁Ak	-9084
▁elite	-9085
▁divided	-9086
▁heading	-9087
▁copies	-9088
▁losses	-9089
▁vit	-9090
ked	-9091
▁Bry	-9092
▁ans	-9093
▁Steam	-9094
▁reporter	-9095
heim	-9096
▁Item	-9097
▁superior	-9098
don	-9099
erent	-9100
Ã¶	-9101
▁therapy	-9102
▁peak	-9103
▁Model	-9104
▁lying	-9105
▁gam	-9106
zer	-9107
ritten	-9108
▁responses	-9109
▁consideration	-9110
▁Bible	-9111
▁loyal	-9112
▁instant	-9113
▁pm	-9114
▁Forest	-9115
Ã¼	-9116
▁extend	-9117
▁convicted	-9118
▁founder	-9119
▁convin	-9120
▁Oak	-9121
check	-9122
▁scholars	-9123
ped	-9124
▁overse	-9125
Top	-9126
count	-9127
▁Ark	-9128
Â·	-9129
▁06	-9130
▁LA	-9131
md	-9132
▁Latin	-9133
imental	-9134
▁CPU	-9135
▁substance	-9136
▁minority	-9137
▁manufacturing	-9138
Er	-9139
ocolate	-9140
▁attended	-9141
▁Manager	-9142
rations	-9143
▁appreciate	-9144
omy	-9145
GBT	-9146
idency	-9147
BL	-9148
▁guarantee	-9149
position	-9150
▁ocean	-9151
clude	-9152
▁headed	-9153
▁tape	-9154
▁loose	-9155
▁logic	-9156
▁proven	-9157
▁spir	-9158
▁admit	-9159
isa	-9160
▁investigate	-9161
▁1994	-9162
sylv	-9163
▁Lost	-9164
cest	-9165
▁71	-9166
▁requested	-9167
▁windows	-9168
▁PokÃ©	-9169
▁Without	-9170
Met	-9171
▁behaviour	-9172
▁reader	-9173
▁hung	-9174
▁Keep	-9175
▁roles	-9176
▁implemented	-9177
▁blank	-9178
▁serves	-9179
▁Jay	-9180
▁cited	-9181
▁Friend	-9182
profit	-9183
apon	-9184
▁repair	-9185
item	-9186
arrass	-9187
▁critics	-9188
adi	-9189
▁Father	-9190
▁shout	-9191
▁fool	-9192
▁88	-9193
▁producing	-9194
▁lib	-9195
▁rounds	-9196
▁circle	-9197
▁prepar	-9198
▁submit	-9199
▁nic	-9200
morrow	-9201
ãĥ«	-9202
Under	-9203
▁vital	-9204
atern	-9205
▁password	-9206
▁publication	-9207
▁prominent	-9208
▁speaks	-9209
▁bars	-9210
▁deeper	-9211
▁Mill	-9212
ported	-9213
▁wid	-9214
▁butter	-9215
▁smoking	-9216
▁indicates	-9217
Key	-9218
ropri	-9219
▁File	-9220
alling	-9221
asting	-9222
▁Rus	-9223
▁adj	-9224
▁79	-9225
aval	-9226
▁presum	-9227
burgh	-9228
onic	-9229
▁fur	-9230
▁polls	-9231
ika	-9232
▁secondary	-9233
▁monster	-9234
igs	-9235
▁Current	-9236
Event	-9237
▁ownership	-9238
endar	-9239
▁arrive	-9240
▁Tax	-9241
▁null	-9242
▁Priv	-9243
▁thro	-9244
▁kiss	-9245
cat	-9246
▁upset	-9247
angle	-9248
itches	-9249
ector	-9250
ologists	-9251
▁Galaxy	-9252
▁corruption	-9253
▁hint	-9254
enter	-9255
▁Hospital	-9256
▁greatly	-9257
▁begun	-9258
esy	-9259
▁soil	-9260
▁Anton	-9261
▁maintenance	-9262
ãĥ©	-9263
▁dozens	-9264
▁humanity	-9265
▁Alabama	-9266
▁rom	-9267
worth	-9268
aping	-9269
sylvania	-9270
lah	-9271
▁gathered	-9272
GA	-9273
▁attacking	-9274
found	-9275
▁Square	-9276
▁arbit	-9277
ictions	-9278
▁Wisconsin	-9279
▁dance	-9280
▁Saint	-9281
archy	-9282
▁baseball	-9283
▁contributions	-9284
▁literature	-9285
▁exha	-9286
perty	-9287
test	-9288
▁bab	-9289
▁container	-9290
letter	-9291
▁fallen	-9292
▁websites	-9293
▁bottle	-9294
▁Sac	-9295
▁breast	-9296
▁PL	-9297
▁veteran	-9298
▁interviews	-9299
▁Ale	-9300
▁banned	-9301
engers	-9302
▁Revolution	-9303
inth	-9304
▁concerning	-9305
IVE	-9306
▁expenses	-9307
▁Matthew	-9308
▁Columbia	-9309
ds	-9310
istance	-9311
▁entity	-9312
..."	-9313
▁reliable	-9314
▁paralle	-9315
▁Christians	-9316
▁opinions	-9317
▁indu	-9318
low	-9319
▁compete	-9320
▁thorough	-9321
▁employed	-9322
▁establishment	-9323
igen	-9324
▁Cro	-9325
▁lawyers	-9326
▁Station	-9327
TE	-9328
▁Lind	-9329
▁Pur	-9330
itary	-9331
▁efficiency	-9332
âĢĲ	-9333
▁Ly	-9334
▁mask	-9335
▁disaster	-9336
▁ages	-9337
ERE	-9338
esis	-9339
▁Hold	-9340
▁casual	-9341
bled	-9342
▁enabled	-9343
▁Environment	-9344
▁Intelligence	-9345
iper	-9346
▁Map	-9347
▁BE	-9348
▁emerged	-9349
isdom	-9350
▁cabin	-9351
▁registration	-9352
▁fingers	-9353
▁roster	-9354
▁framework	-9355
▁Doctor	-9356
etts	-9357
▁transportation	-9358
▁awareness	-9359
Her	-9360
▁attempting	-9361
Off	-9362
▁Store	-9363
ÃĥÃĤÃĥÃĤÃĥÃĤÃĥÃĤ	-9364
▁Know	-9365
▁defence	-9366
▁scan	-9367
▁Ten	-9368
▁Chair	-9369
▁PH	-9370
▁Atlanta	-9371
▁fucking	-9372
▁answered	-9373
bn	-9374
▁Kar	-9375
▁categories	-9376
▁rational	-9377
▁cust	-9378
▁robot	-9379
▁correctly	-9380
▁gif	-9381
▁graphics	-9382
mic	-9383
▁grounds	-9384
▁Opp	-9385
iate	-9386
▁distributed	-9387
▁sanctions	-9388
▁challenging	-9389
uto	-9390
▁ingredients	-9391
▁invited	-9392
▁founded	-9393
▁Requ	-9394
ded	-9395
▁bowl	-9396
▁brothers	-9397
▁Ha	-9398
IO	-9399
▁wages	-9400
imore	-9401
ocial	-9402
▁seed	-9403
atively	-9404
▁addresses	-9405
▁Iowa	-9406
abeth	-9407
▁attitude	-9408
isd	-9409
child	-9410
▁mole	-9411
▁discovery	-9412
yard	-9413
Br	-9414
▁82	-9415
▁supplies	-9416
elling	-9417
▁distingu	-9418
CR	-9419
▁recept	-9420
▁vert	-9421
▁swim	-9422
bec	-9423
door	-9424
▁Yeah	-9425
▁gal	-9426
▁interact	-9427
▁ESP	-9428
▁CS	-9429
amps	-9430
▁convinced	-9431
▁objective	-9432
▁dish	-9433
▁Photos	-9434
lad	-9435
▁downtown	-9436
oil	-9437
inction	-9438
▁tomorrow	-9439
▁COM	-9440
▁survival	-9441
shot	-9442
▁settlement	-9443
Cons	-9444
▁Xbox	-9445
interest	-9446
▁SM	-9447
argo	-9448
eness	-9449
▁ethnic	-9450
bered	-9451
Min	-9452
▁Tok	-9453
▁incent	-9454
▁Command	-9455
▁maintained	-9456
▁breaks	-9457
bridge	-9458
atar	-9459
agg	-9460
▁Finally	-9461
unicip	-9462
▁Ont	-9463
left	-9464
▁recognition	-9465
▁*/	-9466
▁Pers	-9467
▁welf	-9468
▁addressed	-9469
▁Kansas	-9470
▁virus	-9471
▁whereas	-9472
▁papers	-9473
rams	-9474
▁Ministry	-9475
▁pleasure	-9476
▁acquired	-9477
▁duration	-9478
jpg	-9479
▁calm	-9480
▁NHL	-9481
▁burning	-9482
▁folder	-9483
icked	-9484
▁Py	-9485
▁Illinois	-9486
Class	-9487
▁Goddess	-9488
▁performing	-9489
▁welfare	-9490
jar	-9491
Inter	-9492
▁lin	-9493
▁enhance	-9494
▁notion	-9495
fare	-9496
ypes	-9497
▁Area	-9498
▁cannabis	-9499
▁Diego	-9500
fs	-9501
▁Manchester	-9502
comm	-9503
inite	-9504
▁covering	-9505
▁Sound	-9506
▁1960	-9507
▁84	-9508
elect	-9509
zing	-9510
▁citizen	-9511
▁phones	-9512
▁raid	-9513
▁ignored	-9514
▁Object	-9515
▁upload	-9516
card	-9517
▁modified	-9518
▁rooms	-9519
iah	-9520
range	-9521
heast	-9522
achus	-9523
▁suggesting	-9524
âĢĭ	-9525
grade	-9526
El	-9527
▁clothing	-9528
▁rh	-9529
▁Han	-9530
unity	-9531
encing	-9532
▁Austin	-9533
secution	-9534
tra	-9535
dem	-9536
▁Qual	-9537
▁heaven	-9538
▁stages	-9539
▁wedd	-9540
plus	-9541
ificial	-9542
▁Imm	-9543
▁Ho	-9544
ieties	-9545
▁phrase	-9546
▁brill	-9547
actory	-9548
▁providers	-9549
▁silence	-9550
▁aer	-9551
▁AI	-9552
▁Adventure	-9553
▁platforms	-9554
▁demonstrated	-9555
▁interf	-9556
ington	-9557
▁races	-9558
▁grade	-9559
ultane	-9560
▁Through	-9561
false	-9562
▁bow	-9563
▁AB	-9564
▁flavor	-9565
▁historic	-9566
gov	-9567
▁colour	-9568
▁viewed	-9569
▁Email	-9570
elcome	-9571
▁intervention	-9572
▁diversity	-9573
▁periods	-9574
▁reverse	-9575
▁Very	-9576
▁quote	-9577
▁Left	-9578
through	-9579
▁screw	-9580
▁landing	-9581
▁pill	-9582
▁wet	-9583
▁protesters	-9584
▁repeat	-9585
aved	-9586
erk	-9587
▁salary	-9588
▁Pennsylvania	-9589
Still	-9590
▁mayor	-9591
▁kitchen	-9592
▁featuring	-9593
▁Museum	-9594
▁Tournament	-9595
▁Fal	-9596
▁servers	-9597
UC	-9598
▁anybody	-9599
img	-9600
▁Trade	-9601
ixture	-9602
theless	-9603
▁finance	-9604
▁closing	-9605
▁Patri	-9606
iac	-9607
abel	-9608
▁>>	-9609
orous	-9610
▁firms	-9611
screen	-9612
una	-9613
▁embarrass	-9614
ulse	-9615
▁letting	-9616
▁threw	-9617
iley	-9618
▁channels	-9619
lan	-9620
▁Vegas	-9621
▁sear	-9622
▁fantastic	-9623
arre	-9624
uzzle	-9625
▁Der	-9626
Those	-9627
▁swing	-9628
▁sheet	-9629
index	-9630
cover	-9631
ogan	-9632
▁variables	-9633
▁Tech	-9634
▁spoken	-9635
achel	-9636
▁Da	-9637
▁Mountain	-9638
▁loaded	-9639
▁footage	-9640
version	-9641
▁unl	-9642
▁Phoenix	-9643
▁throwing	-9644
▁firing	-9645
▁tracking	-9646
▁width	-9647
▁struggling	-9648
rooms	-9649
otion	-9650
▁monthly	-9651
▁Server	-9652
▁eggs	-9653
open	-9654
MC	-9655
▁1993	-9656
▁hired	-9657
▁stayed	-9658
▁Allen	-9659
▁stro	-9660
▁98	-9661
step	-9662
▁Turkish	-9663
▁fabric	-9664
isting	-9665
▁Dom	-9666
▁dates	-9667
▁pron	-9668
▁basketball	-9669
▁lucky	-9670
▁Arabia	-9671
▁assumed	-9672
esty	-9673
▁affairs	-9674
▁glad	-9675
▁Indeed	-9676
▁FA	-9677
▁Word	-9678
▁joining	-9679
ifice	-9680
pread	-9681
irts	-9682
▁Select	-9683
▁populations	-9684
aware	-9685
▁nose	-9686
▁complaints	-9687
start	-9688
▁scoring	-9689
Thanks	-9690
▁mining	-9691
▁visitors	-9692
SH	-9693
▁damaged	-9694
▁characteristics	-9695
▁Pent	-9696
DC	-9697
▁83	-9698
▁Six	-9699
rates	-9700
▁flags	-9701
▁Brew	-9702
dog	-9703
Mark	-9704
////	-9705
▁execution	-9706
▁joke	-9707
phones	-9708
▁testimony	-9709
▁obst	-9710
QL	-9711
▁Cut	-9712
▁studied	-9713
▁Nintendo	-9714
icket	-9715
▁NBC	-9716
▁lad	-9717
▁Bra	-9718
▁Moh	-9719
▁kernel	-9720
▁overwhelming	-9721
▁aged	-9722
▁applicable	-9723
▁Cond	-9724
▁roads	-9725
▁Block	-9726
made	-9727
odge	-9728
▁commands	-9729
▁offices	-9730
veland	-9731
▁tut	-9732
▁receiver	-9733
▁Fro	-9734
▁shopping	-9735
▁iP	-9736
▁Stre	-9737
▁ABC	-9738
▁entertainment	-9739
▁Bow	-9740
orted	-9741
Mc	-9742
▁reads	-9743
grad	-9744
▁Collect	-9745
▁âĪĴ	-9746
▁Capital	-9747
ederation	-9748
▁employer	-9749
▁involvement	-9750
▁anxiety	-9751
alia	-9752
▁roof	-9753
▁Among	-9754
▁Democrat	-9755
▁stats	-9756
▁Vill	-9757
▁constitutional	-9758
▁referring	-9759
itty	-9760
▁tackle	-9761
outube	-9762
▁backed	-9763
▁Hong	-9764
▁Broad	-9765
▁ele	-9766
▁Ott	-9767
▁1992	-9768
hour	-9769
achusetts	-9770
Cal	-9771
▁defeated	-9772
▁81	-9773
esp	-9774
▁seemingly	-9775
was	-9776
▁Jenn	-9777
▁Kurd	-9778
▁gene	-9779
▁discount	-9780
Ret	-9781
ECT	-9782
();	-9783
▁clubs	-9784
▁sid	-9785
▁Marsh	-9786
Check	-9787
▁pp	-9788
▁Eag	-9789
idespread	-9790
▁beings	-9791
FT	-9792
▁introduction	-9793
▁Change	-9794
ARD	-9795
▁110	-9796
adows	-9797
ierce	-9798
▁meal	-9799
author	-9800
▁Bang	-9801
lahoma	-9802
▁ranks	-9803
2011	-9804
????	-9805
max	-9806
▁collapse	-9807
▁opens	-9808
▁echo	-9809
▁soph	-9810
▁racist	-9811
▁enormous	-9812
▁waves	-9813
▁tap	-9814
▁comprehensive	-9815
.--	-9816
▁Roy	-9817
▁farmers	-9818
Related	-9819
aired	-9820
rones	-9821
▁Crim	-9822
▁proportion	-9823
▁designs	-9824
▁negotiations	-9825
▁virtually	-9826
▁Batman	-9827
▁warn	-9828
▁legitimate	-9829
mate	-9830
▁convention	-9831
,,	-9832
netic	-9833
▁SD	-9834
▁consistently	-9835
▁compensation	-9836
▁punishment	-9837
▁ye	-9838
▁tie	-9839
▁Bureau	-9840
irlf	-9841
▁Bu	-9842
▁Aren	-9843
▁Philipp	-9844
▁knife	-9845
▁memories	-9846
▁Ross	-9847
▁angle	-9848
▁86	-9849
▁Thunder	-9850
▁rend	-9851
▁Tour	-9852
▁counts	-9853
sung	-9854
▁Imp	-9855
▁educational	-9856
▁accessible	-9857
COM	-9858
▁drew	-9859
yer	-9860
Gl	-9861
amine	-9862
ORT	-9863
OB	-9864
IB	-9865
master	-9866
▁trials	-9867
ogy	-9868
har	-9869
▁Trust	-9870
▁preferred	-9871
irlfriend	-9872
▁Nev	-9873
▁bin	-9874
▁cow	-9875
Page	-9876
▁signature	-9877
▁BL	-9878
700	-9879
▁retired	-9880
▁bytes	-9881
▁neighb	-9882
▁Legend	-9883
▁devast	-9884
▁suspected	-9885
isons	-9886
▁PokÃ©mon	-9887
scale	-9888
▁capabilities	-9889
▁revel	-9890
▁cheese	-9891
dy	-9892
igrant	-9893
▁failing	-9894
bits	-9895
▁Heroes	-9896
▁Ghost	-9897
▁Scient	-9898
▁appointed	-9899
uri	-9900
▁institution	-9901
▁expanded	-9902
greg	-9903
▁monitoring	-9904
▁podcast	-9905
▁coalition	-9906
▁96	-9907
Jo	-9908
▁stolen	-9909
▁Sab	-9910
▁stops	-9911
▁holiday	-9912
▁intr	-9913
Car	-9914
Black	-9915
▁LGBT	-9916
▁warming	-9917
▁Anderson	-9918
▁89	-9919
▁producer	-9920
Med	-9921
▁accuracy	-9922
▁Marvel	-9923
izabeth	-9924
▁Patrick	-9925
mony	-9926
▁mini	-9927
acles	-9928
▁overt	-9929
they	-9930
▁membership	-9931
▁Ven	-9932
▁exch	-9933
▁removal	-9934
▁Dave	-9935
TY	-9936
mad	-9937
▁Find	-9938
▁adequ	-9939
▁ec	-9940
▁teeth	-9941
▁emotion	-9942
▁perm	-9943
▁solely	-9944
db	-9945
▁extraord	-9946
IGHT	-9947
cal	-9948
▁guidelines	-9949
▁dying	-9950
▁suspended	-9951
▁Premier	-9952
▁Anthony	-9953
elve	-9954
▁dad	-9955
▁Eth	-9956
▁Football	-9957
▁abandoned	-9958
▁<<	-9959
▁march	-9960
▁horror	-9961
âĢ¦"	-9962
▁childhood	-9963
▁campaigns	-9964
▁lunch	-9965
▁Albert	-9966
block	-9967
âĸĪâĸĪ	-9968
ounding	-9969
▁bone	-9970
organ	-9971
aders	-9972
▁Flash	-9973
▁Drive	-9974
▁tonight	-9975
▁wars	-9976
▁FL	-9977
▁formation	-9978
const	-9979
News	-9980
▁compe	-9981
orious	-9982
▁Staff	-9983
▁discussions	-9984
▁Protection	-9985
▁Jam	-9986
▁criteria	-9987
▁installation	-9988
▁accomplish	-9989
izza	-9990
▁publisher	-9991
▁rescue	-9992
▁Try	-9993
ULL	-9994
▁Som	-9995
▁Hop	-9996
oret	-9997
ths	-9998
ordon	-9999
▁pocket	-10000
▁Inv	-10001
Download	-10002
▁Crime	-10003
▁bene	-10004
▁Guide	-10005
▁Assembly	-10006
▁parameters	-10007
IE	-10008
▁Alexander	-10009
▁concert	-10010
▁Sche	-10011
▁shoes	-10012
▁visiting	-10013
▁recall	-10014
▁bub	-10015
▁rural	-10016
▁concrete	-10017
▁Ros	-10018
Next	-10019
Russ	-10020
▁loans	-10021
▁Shield	-10022
▁trem	-10023
hemat	-10024
kg	-10025
▁Harris	-10026
isition	-10027
▁Move	-10028
▁FC	-10029
▁fate	-10030
▁Cho	-10031
▁tired	-10032
▁principal	-10033
hist	-10034
iences	-10035
athy	-10036
▁sevent	-10037
▁mood	-10038
▁strategic	-10039
▁diseases	-10040
▁forum	-10041
▁tempor	-10042
▁headquarters	-10043
Par	-10044
ige	-10045
flix	-10046
▁guitar	-10047
▁94	-10048
Only	-10049
▁releases	-10050
roph	-10051
================================	-10052
▁600	-10053
▁Continue	-10054
igate	-10055
▁Crit	-10056
system	-10057
▁disabled	-10058
▁unexpected	-10059
ithub	-10060
▁unclear	-10061
▁Est	-10062
▁contrad	-10063
▁strategies	-10064
ventures	-10065
▁passage	-10066
AME	-10067
▁improving	-10068
▁reveals	-10069
▁decrease	-10070
ova	-10071
▁annoy	-10072
▁Short	-10073
▁Library	-10074
▁cyber	-10075
nell	-10076
▁Hur	-10077
▁CB	-10078
▁photograp	-10079
UI	-10080
▁sed	-10081
Ge	-10082
▁87	-10083
▁diverse	-10084
▁encouraged	-10085
▁conspiracy	-10086
▁birds	-10087
▁operator	-10088
▁handful	-10089
▁classified	-10090
?)	-10091
▁dramatic	-10092
▁investigators	-10093
ito	-10094
▁widespread	-10095
▁Room	-10096
----------------------------------------------------------------	-10097
▁collective	-10098
▁journalist	-10099
String	-10100
▁temperatures	-10101
ila	-10102
▁guid	-10103
▁inspect	-10104
▁missile	-10105
▁Mayor	-10106
▁manual	-10107
▁simultane	-10108
▁ratings	-10109
▁suck	-10110
▁97	-10111
▁universal	-10112
▁pharm	-10113
▁disrupt	-10114
iano	-10115
AV	-10116
▁ft	-10117
▁statist	-10118
olds	-10119
▁Walker	-10120
php	-10121
▁undert	-10122
▁Las	-10123
ishop	-10124
ntil	-10125
reshold	-10126
▁Whether	-10127
Ms	-10128
▁deny	-10129
▁Cloud	-10130
▁provider	-10131
▁surviv	-10132
▁Update	-10133
has	-10134
▁mistakes	-10135
charge	-10136
pled	-10137
rity	-10138
▁node	-10139
▁Massachusetts	-10140
ools	-10141
lication	-10142
▁fails	-10143
emale	-10144
ori	-10145
backs	-10146
▁shirt	-10147
▁''	-10148
▁NAT	-10149
▁waters	-10150
elson	-10151
▁ease	-10152
▁scar	-10153
▁contents	-10154
mind	-10155
▁contribution	-10156
▁shr	-10157
▁handed	-10158
▁stability	-10159
▁trave	-10160
Em	-10161
▁mirror	-10162
123	-10163
▁weigh	-10164
▁fiction	-10165
ouver	-10166
istant	-10167
rition	-10168
▁Fed	-10169
▁physically	-10170
▁stake	-10171
▁Article	-10172
▁Arc	-10173
▁Lewis	-10174
▁Mind	-10175
▁demonstrate	-10176
▁profits	-10177
vision	-10178
omic	-10179
olid	-10180
▁battles	-10181
▁drives	-10182
▁eastern	-10183
▁Sony	-10184
!!!	-10185
aration	-10186
vard	-10187
▁GL	-10188
portation	-10189
▁92	-10190
▁lawmakers	-10191
▁protecting	-10192
▁EPA	-10193
▁yeah	-10194
▁shame	-10195
olph	-10196
even	-10197
xit	-10198
▁attach	-10199
▁representing	-10200
▁obs	-10201
▁Utah	-10202
iffs	-10203
▁Freedom	-10204
Ã³	-10205
AK	-10206
▁incidents	-10207
itage	-10208
▁viewers	-10209
cd	-10210
▁mouse	-10211
▁clar	-10212
▁accordance	-10213
▁bot	-10214
cor	-10215
▁Summer	-10216
held	-10217
▁innocent	-10218
▁initiative	-10219
ols	-10220
________________________________	-10221
▁spots	-10222
pace	-10223
▁conventional	-10224
▁corporations	-10225
▁blocked	-10226
HD	-10227
attered	-10228
▁refers	-10229
▁buck	-10230
▁Digital	-10231
120	-10232
▁topics	-10233
TF	-10234
Äģ	-10235
brid	-10236
reement	-10237
▁underlying	-10238
▁Member	-10239
▁investigating	-10240
▁pregnancy	-10241
▁touchdown	-10242
▁Band	-10243
▁Caller	-10244
▁instances	-10245
PP	-10246
wa	-10247
Good	-10248
▁1991	-10249
▁Cold	-10250
▁fears	-10251
▁remarks	-10252
ĨĴ	-10253
atal	-10254
▁mit	-10255
▁experiments	-10256
ipt	-10257
Color	-10258
indu	-10259
Update	-10260
▁93	-10261
Ag	-10262
▁å	-10263
ancouver	-10264
Both	-10265
▁judges	-10266
Object	-10267
▁stere	-10268
umbn	-10269
▁participation	-10270
▁Stars	-10271
▁Jere	-10272
▁weekly	-10273
▁Ban	-10274
▁conversations	-10275
▁Pitt	-10276
uz	-10277
▁Indiana	-10278
▁Kick	-10279
▁infection	-10280
▁heroes	-10281
▁settled	-10282
▁strip	-10283
▁hal	-10284
▁dump	-10285
▁Sci	-10286
▁les	-10287
▁references	-10288
▁URL	-10289
▁Bridge	-10290
▁wanting	-10291
Force	-10292
▁exclus	-10293
Meanwhile	-10294
mn	-10295
▁gentle	-10296
maker	-10297
senal	-10298
▁Gro	-10299
ouri	-10300
▁Rain	-10301
▁Alliance	-10302
▁lift	-10303
ela	-10304
SD	-10305
▁Cleveland	-10306
▁ranked	-10307
▁stadium	-10308
▁deadly	-10309
ä¸	-10310
▁riding	-10311
aria	-10312
▁Armor	-10313
▁documentation	-10314
▁Greece	-10315
reek	-10316
▁lens	-10317
▁Sa	-10318
▁gross	-10319
▁Emer	-10320
agers	-10321
▁Dub	-10322
▁Rh	-10323
▁AMD	-10324
▁arrival	-10325
▁desert	-10326
▁supplement	-10327
▁Resp	-10328
▁knee	-10329
▁margin	-10330
font	-10331
ogg	-10332
2010	-10333
▁Pir	-10334
▁Prom	-10335
ivals	-10336
▁intake	-10337
▁differently	-10338
ugs	-10339
▁bits	-10340
cluded	-10341
▁searching	-10342
▁Du	-10343
umble	-10344
▁functional	-10345
▁Baltimore	-10346
▁Could	-10347
▁desired	-10348
▁circuit	-10349
▁Lyn	-10350
▁GO	-10351
▁False	-10352
repre	-10353
':	-10354
alties	-10355
▁minim	-10356
▁drove	-10357
▁Should	-10358
▁hip	-10359
▁pros	-10360
▁utility	-10361
▁Nature	-10362
▁Mode	-10363
President	-10364
opp	-10365
rat	-10366
formance	-10367
▁concentration	-10368
▁font	-10369
▁Bud	-10370
▁amid	-10371
▁revers	-10372
▁ML	-10373
Bar	-10374
▁interaction	-10375
▁jurisd	-10376
▁spells	-10377
dep	-10378
fil	-10379
▁civilians	-10380
utter	-10381
▁Cooper	-10382
▁Below	-10383
▁entrance	-10384
▁convert	-10385
▁controversy	-10386
owered	-10387
▁contrary	-10388
▁arc	-10389
▁Executive	-10390
▁Officer	-10391
▁packages	-10392
▁progressive	-10393
width	-10394
▁reserved	-10395
vol	-10396
▁Samsung	-10397
▁printed	-10398
▁centers	-10399
▁introduce	-10400
▁Kennedy	-10401
▁odds	-10402
▁surely	-10403
▁independence	-10404
▁passengers	-10405
reprene	-10406
▁Beh	-10407
▁loves	-10408
▁ESPN	-10409
▁facilit	-10410
▁identical	-10411
▁doct	-10412
▁partnership	-10413
conf	-10414
▁Hide	-10415
▁confused	-10416
▁Cow	-10417
Men	-10418
▁wrest	-10419
▁Iraqi	-10420
▁holes	-10421
▁Studies	-10422
▁pregnant	-10423
hard	-10424
▁signals	-10425
IX	-10426
▁pulling	-10427
▁graduate	-10428
▁nominee	-10429
Date	-10430
▁permitted	-10431
▁âĤ¬	-10432
▁Oklahoma	-10433
Start	-10434
▁authorized	-10435
▁alarm	-10436
▁Cos	-10437
van	-10438
▁generations	-10439
cular	-10440
▁dragon	-10441
▁Software	-10442
▁Edward	-10443
▁controller	-10444
Sen	-10445
gered	-10446
▁Vik	-10447
▁approached	-10448
Thank	-10449
▁cance	-10450
▁formula	-10451
▁Small	-10452
▁weakness	-10453
▁ramp	-10454
itudes	-10455
jud	-10456
▁brilliant	-10457
▁accus	-10458
source	-10459
▁800	-10460
▁Evil	-10461
Sw	-10462
▁homeless	-10463
week	-10464
iens	-10465
rics	-10466
▁Third	-10467
TO	-10468
▁organic	-10469
▁presentation	-10470
agh	-10471
▁Download	-10472
vation	-10473
▁assembly	-10474
orable	-10475
holders	-10476
▁Bernie	-10477
▁Help	-10478
▁tong	-10479
▁Fight	-10480
▁beach	-10481
Book	-10482
▁Lic	-10483
▁rush	-10484
▁Round	-10485
oup	-10486
▁Marx	-10487
▁calculated	-10488
▁Devil	-10489
▁Sarah	-10490
▁occasionally	-10491
▁bullet	-10492
Available	-10493
gate	-10494
▁91	-10495
▁hosp	-10496
▁promises	-10497
▁HIV	-10498
▁Stadium	-10499
▁Stock	-10500
▁Corporation	-10501
gage	-10502
NG	-10503
▁Credit	-10504
▁sne	-10505
ibl	-10506
▁accum	-10507
such	-10508
▁terrorists	-10509
▁consciousness	-10510
▁Zh	-10511
▁drama	-10512
oola	-10513
piration	-10514
▁labour	-10515
▁Nin	-10516
▁utter	-10517
▁democratic	-10518
▁assass	-10519
ilation	-10520
▁gest	-10521
▁abroad	-10522
▁metab	-10523
▁sorts	-10524
▁flav	-10525
UB	-10526
▁mg	-10527
▁Nothing	-10528
▁Od	-10529
▁musical	-10530
2009	-10531
▁drops	-10532
ocated	-10533
ateral	-10534
000000	-10535
▁gre	-10536
▁equality	-10537
▁burden	-10538
▁vig	-10539
▁Leader	-10540
------------	-10541
▁ceremony	-10542
▁fighter	-10543
▁actors	-10544
▁æ	-10545
aman	-10546
Fi	-10547
▁align	-10548
puter	-10549
▁elder	-10550
▁NSA	-10551
▁representation	-10552
▁Ontario	-10553
ITH	-10554
usalem	-10555
▁harassment	-10556
itzer	-10557
▁symp	-10558
▁boxes	-10559
▁DR	-10560
▁manifest	-10561
atre	-10562
▁^	-10563
▁dies	-10564
leton	-10565
▁missions	-10566
ethe	-10567
▁resolve	-10568
▁followers	-10569
▁asc	-10570
▁km	-10571
lord	-10572
ammed	-10573
▁silent	-10574
▁Associated	-10575
▁timing	-10576
▁prisoners	-10577
▁Kings	-10578
▁Five	-10579
▁tower	-10580
▁approaches	-10581
▁precisely	-10582
▁bureau	-10583
▁Mother	-10584
▁Iss	-10585
▁keyboard	-10586
itual	-10587
▁funded	-10588
▁staying	-10589
▁psychological	-10590
▁mile	-10591
▁Leon	-10592
▁Barb	-10593
will	-10594
▁wider	-10595
▁Atlantic	-10596
▁till	-10597
▁Rome	-10598
rot	-10599
▁accompan	-10600
▁flour	-10601
aco	-10602
World	-10603
▁Express	-10604
▁Yu	-10605
Cor	-10606
▁pleased	-10607
party	-10608
▁pointing	-10609
▁inflation	-10610
▁roy	-10611
▁),	-10612
ainer	-10613
▁wedding	-10614
ormon	-10615
▁requiring	-10616
▁qualified	-10617
▁segment	-10618
END	-10619
▁sizes	-10620
eals	-10621
▁corrupt	-10622
assador	-10623
▁celeb	-10624
▁dreams	-10625
▁Mess	-10626
▁checking	-10627
▁Version	-10628
▁preparing	-10629
▁actively	-10630
▁Diff	-10631
▁lux	-10632
▁Winter	-10633
acteria	-10634
▁NE	-10635
▁deputy	-10636
▁transgender	-10637
▁summary	-10638
▁inher	-10639
eries	-10640
char	-10641
▁Yan	-10642
▁knock	-10643
▁Path	-10644
▁lip	-10645
roller	-10646
▁impression	-10647
▁celebrate	-10648
▁slide	-10649
▁guests	-10650
▁clip	-10651
FS	-10652
▁savings	-10653
▁captain	-10654
▁legacy	-10655
▁Denver	-10656
▁wounded	-10657
taboola	-10658
ACT	-10659
▁pursue	-10660
▁oxy	-10661
▁q	-10662
▁semi	-10663
▁Need	-10664
▁Affairs	-10665
▁obsc	-10666
▁checked	-10667
▁dual	-10668
Code	-10669
▁MD	-10670
lem	-10671
ulty	-10672
▁Â©	-10673
▁Elizabeth	-10674
▁centuries	-10675
arded	-10676
src	-10677
▁evident	-10678
ennis	-10679
atin	-10680
▁unemployment	-10681
▁Mario	-10682
▁intim	-10683
Christ	-10684
▁biological	-10685
▁soldier	-10686
▁Added	-10687
▁math	-10688
▁Gil	-10689
▁bias	-10690
▁dating	-10691
▁Ocean	-10692
▁mice	-10693
Mus	-10694
hire	-10695
▁Tes	-10696
Server	-10697
limited	-10698
Size	-10699
▁meters	-10700
▁rocket	-10701
essee	-10702
▁certificate	-10703
▁Iranian	-10704
ASS	-10705
▁grid	-10706
Dec	-10707
▁rolling	-10708
commun	-10709
▁Sweden	-10710
bury	-10711
▁tissue	-10712
▁racism	-10713
▁Local	-10714
▁mystery	-10715
▁examine	-10716
▁stem	-10717
▁sits	-10718
▁hoped	-10719
oting	-10720
▁dialogue	-10721
▁persu	-10722
Watch	-10723
lay	-10724
MAN	-10725
▁chronic	-10726
▁Portland	-10727
market	-10728
▁SEC	-10729
▁parallel	-10730
▁scandal	-10731
▁carries	-10732
▁phenomenon	-10733
human	-10734
acker	-10735
▁Ox	-10736
▁retirement	-10737
tainment	-10738
ovie	-10739
▁Gear	-10740
▁duties	-10741
▁dose	-10742
▁scroll	-10743
MB	-10744
inf	-10745
▁sauce	-10746
▁landscape	-10747
reddit	-10748
▁Championship	-10749
▁Reddit	-10750
alid	-10751
▁coin	-10752
▁overs	-10753
▁posting	-10754
about	-10755
▁fel	-10756
andy	-10757
▁bold	-10758
▁focusing	-10759
effect	-10760
GR	-10761
▁deemed	-10762
▁recommendations	-10763
▁stepped	-10764
▁voter	-10765
▁Deep	-10766
▁Instagram	-10767
▁moderate	-10768
▁Maryland	-10769
▁restricted	-10770
▁MB	-10771
▁Chall	-10772
▁tob	-10773
▁cir	-10774
▁Occ	-10775
▁Ever	-10776
▁collaps	-10777
INFO	-10778
=-	-10779
▁Pict	-10780
▁Account	-10781
nc	-10782
▁ought	-10783
▁export	-10784
▁drunk	-10785
('	-10786
▁wise	-10787
▁Mort	-10788
necess	-10789
▁ancest	-10790
▁Incre	-10791
▁frequent	-10792
mir	-10793
▁interpretation	-10794
▁dependent	-10795
▁coins	-10796
▁Bol	-10797
Video	-10798
▁Justin	-10799
▁fatal	-10800
▁cooking	-10801
▁confusion	-10802
ipher	-10803
▁custody	-10804
▁Morgan	-10805
omach	-10806
▁Governor	-10807
▁restaurants	-10808
eling	-10809
▁acknowledged	-10810
▁ther	-10811
▁genes	-10812
ching	-10813
Hey	-10814
▁tactics	-10815
▁Mexican	-10816
▁vend	-10817
▁hes	-10818
quer	-10819
▁noting	-10820
▁Cameron	-10821
▁targeting	-10822
rock	-10823
▁credits	-10824
▁emotions	-10825
▁representatives	-10826
news	-10827
▁legislative	-10828
▁removing	-10829
▁tweeted	-10830
▁Carter	-10831
▁Fixed	-10832
▁forcing	-10833
▁speaker	-10834
▁males	-10835
▁Vietnam	-10836
lined	-10837
▁concepts	-10838
▁voices	-10839
oir	-10840
▁Trib	-10841
Whe	-10842
▁Jerusalem	-10843
▁Sant	-10844
▁cul	-10845
▁lady	-10846
▁Hawai	-10847
▁arts	-10848
▁Inn	-10849
▁Machine	-10850
▁Emperor	-10851
▁slot	-10852
gly	-10853
▁Process	-10854
III	-10855
▁athletes	-10856
▁Temple	-10857
▁Represent	-10858
▁presc	-10859
▁tons	-10860
▁golden	-10861
▁punch	-10862
▁GR	-10863
iverpool	-10864
▁enact	-10865
▁lobby	-10866
▁mos	-10867
▁picking	-10868
▁lifetime	-10869
▁cognitive	-10870
Each	-10871
zo	-10872
▁dub	-10873
▁consists	-10874
oln	-10875
▁festival	-10876
amous	-10877
▁intellig	-10878
words	-10879
▁Smart	-10880
▁dele	-10881
▁lapt	-10882
▁magical	-10883
▁Sin	-10884
bus	-10885
urities	-10886
ighth	-10887
▁Ruby	-10888
▁Sure	-10889
olving	-10890
▁jun	-10891
OST	-10892
▁imposed	-10893
▁astron	-10894
▁correl	-10895
▁NS	-10896
▁Kit	-10897
▁Future	-10898
burn	-10899
▁immune	-10900
ocus	-10901
▁courses	-10902
▁String	-10903
▁lean	-10904
▁ghost	-10905
▁outcomes	-10906
▁expense	-10907
▁everyday	-10908
▁acceptable	-10909
Ah	-10910
▁equipped	-10911
▁orange	-10912
FR	-10913
▁Dutch	-10914
Though	-10915
▁Rank	-10916
QU	-10917
▁Roberts	-10918
what	-10919
rend	-10920
▁disappear	-10921
▁spawn	-10922
▁Lam	-10923
ois	-10924
▁deserve	-10925
▁minimal	-10926
▁nervous	-10927
▁Would	-10928
▁rook	-10929
▁Vancouver	-10930
▁resign	-10931
shire	-10932
▁Works	-10933
▁Build	-10934
▁affordable	-10935
▁Gary	-10936
▁Arena	-10937
▁hanging	-10938
▁implications	-10939
▁Song	-10940
▁maintaining	-10941
▁guards	-10942
CON	-10943
▁derived	-10944
▁executed	-10945
▁theories	-10946
▁quoted	-10947
▁Andre	-10948
oga	-10949
seless	-10950
info	-10951
▁Belg	-10952
▁tears	-10953
▁Surv	-10954
▁birthday	-10955
igious	-10956
immer	-10957
▁spectrum	-10958
▁architecture	-10959
▁recruit	-10960
arma	-10961
Table	-10962
▁monsters	-10963
▁Gov	-10964
▁destination	-10965
▁attractive	-10966
▁foss	-10967
▁Moreover	-10968
▁presents	-10969
THE	-10970
▁reply	-10971
pton	-10972
▁cum	-10973
▁delight	-10974
▁affects	-10975
▁donations	-10976
▁Toy	-10977
▁Him	-10978
MENT	-10979
▁overcome	-10980
itched	-10981
▁Fantasy	-10982
▁Hat	-10983
▁Beast	-10984
bott	-10985
▁investigations	-10986
Run	-10987
▁hunting	-10988
di	-10989
fund	-10990
▁sessions	-10991
estyle	-10992
▁portray	-10993
oids	-10994
Yeah	-10995
▁communicate	-10996
▁comedy	-10997
▁Yang	-10998
▁belt	-10999
▁Marine	-11000
▁predicted	-11001
Play	-11002
▁importantly	-11003
▁remarkable	-11004
▁eliminate	-11005
David	-11006
▁bind	-11007
VID	-11008
▁advocates	-11009
▁Gaza	-11010
imp	-11011
DB	-11012
▁Na	-11013
▁Similar	-11014
IES	-11015
▁charity	-11016
vas	-11017
math	-11018
▁âĸ	-11019
oker	-11020
ndum	-11021
▁caps	-11022
▁Hal	-11023
2000	-11024
ean	-11025
▁fleet	-11026
▁recre	-11027
Right	-11028
▁sleeping	-11029
ijing	-11030
kind	-11031
▁designated	-11032
Ã¤	-11033
▁animation	-11034
kee	-11035
▁Introdu	-11036
▁/>	-11037
▁delayed	-11038
▁tremend	-11039
▁curious	-11040
Use	-11041
▁lect	-11042
dam	-11043
▁innovation	-11044
▁Points	-11045
▁loading	-11046
▁dispute	-11047
ctic	-11048
irds	-11049
▁BY	-11050
▁nurs	-11051
▁Value	-11052
IONS	-11053
▁Hum	-11054
▁template	-11055
mers	-11056
▁appearances	-11057
▁Entertainment	-11058
▁translation	-11059
▁sake	-11060
▁beneath	-11061
▁inhib	-11062
▁euro	-11063
abetes	-11064
▁studying	-11065
▁Mas	-11066
▁perceived	-11067
▁examined	-11068
▁eager	-11069
▁coaches	-11070
▁imper	-11071
chi	-11072
▁produces	-11073
").	-11074
▁Everyone	-11075
▁municip	-11076
▁girlfriend	-11077
▁hire	-11078
▁Vice	-11079
▁suitable	-11080
opy	-11081
▁inequ	-11082
▁Duke	-11083
fish	-11084
first	-11085
▁Obs	-11086
▁interior	-11087
▁Bruce	-11088
▁Ry	-11089
▁analys	-11090
▁considerable	-11091
▁forecast	-11092
▁fert	-11093
orship	-11094
▁Drug	-11095
▁ALL	-11096
:"	-11097
thur	-11098
▁Mail	-11099
▁ballot	-11100
▁instantly	-11101
▁Channel	-11102
▁picks	-11103
▁1989	-11104
▁tent	-11105
oli	-11106
▁civilian	-11107
bling	-11108
ello	-11109
bu	-11110
▁inch	-11111
▁logo	-11112
▁cooperation	-11113
▁walks	-11114
▁investments	-11115
▁imprison	-11116
▁Festival	-11117
▁Ky	-11118
▁legally	-11119
▁gri	-11120
charg	-11121
Sl	-11122
▁threatening	-11123
duction	-11124
flow	-11125
▁dismissed	-11126
ibraries	-11127
cap	-11128
ele	-11129
▁McG	-11130
▁Harvard	-11131
▁Conservative	-11132
▁CBS	-11133
png	-11134
▁roots	-11135
▁Having	-11136
umbled	-11137
▁Fun	-11138
\/	-11139
▁Search	-11140
plex	-11141
▁discussing	-11142
▁continu	-11143
▁Tai	-11144
▁Wik	-11145
Free	-11146
fit	-11147
▁refuse	-11148
▁managing	-11149
▁synd	-11150
ipedia	-11151
walk	-11152
▁professionals	-11153
▁guidance	-11154
▁universities	-11155
▁assemb	-11156
untu	-11157
Finally	-11158
ASE	-11159
▁Auto	-11160
▁Had	-11161
▁anniversary	-11162
LD	-11163
▁Dur	-11164
▁Ultimate	-11165
ihad	-11166
product	-11167
▁transit	-11168
▁restore	-11169
▁explaining	-11170
▁asset	-11171
▁transferred	-11172
▁burst	-11173
apolis	-11174
▁Magazine	-11175
▁Cra	-11176
▁BR	-11177
gged	-11178
▁HE	-11179
Mich	-11180
bet	-11181
▁Lady	-11182
ylum	-11183
erves	-11184
▁meets	-11185
white	-11186
Log	-11187
▁corresponding	-11188
▁insisted	-11189
GG	-11190
▁surrounded	-11191
▁tens	-11192
▁lane	-11193
▁coinc	-11194
home	-11195
▁existed	-11196
ected	-11197
▁Double	-11198
lamm	-11199
▁skept	-11200
exp	-11201
▁perception	-11202
iev	-11203
▁Being	-11204
oft	-11205
▁adopt	-11206
.:	-11207
];	-11208
Windows	-11209
▁satellite	-11210
ASH	-11211
▁infant	-11212
description	-11213
▁Meanwhile	-11214
cm	-11215
oca	-11216
▁Treat	-11217
actor	-11218
▁tobacco	-11219
▁Norm	-11220
emption	-11221
▁flesh	-11222
▁je	-11223
oop	-11224
▁Heaven	-11225
▁beating	-11226
anim	-11227
▁gathering	-11228
▁cultiv	-11229
GO	-11230
abe	-11231
▁Jonathan	-11232
▁Safety	-11233
▁badly	-11234
prot	-11235
▁choosing	-11236
▁contacted	-11237
▁quit	-11238
▁distur	-11239
▁stir	-11240
▁token	-11241
Det	-11242
▁Pa	-11243
▁functionality	-11244
003	-11245
some	-11246
▁limitations	-11247
▁meth	-11248
build	-11249
config	-11250
NT	-11251
rell	-11252
blem	-11253
▁Mom	-11254
▁veterans	-11255
▁Hu	-11256
▁trends	-11257
arer	-11258
▁Given	-11259
▁Caption	-11260
may	-11261
AST	-11262
▁wondering	-11263
▁Clark	-11264
normal	-11265
▁separated	-11266
▁desp	-11267
stic	-11268
brew	-11269
▁relating	-11270
▁Nik	-11271
▁Farm	-11272
▁enthusi	-11273
good	-11274
deb	-11275
▁activist	-11276
▁mart	-11277
▁explosion	-11278
▁Economic	-11279
Link	-11280
▁insight	-11281
▁convenient	-11282
▁counterpart	-11283
support	-11284
▁Virt	-11285
agen	-11286
▁Tennessee	-11287
▁Simon	-11288
▁Award	-11289
OCK	-11290
▁Figure	-11291
▁overseas	-11292
▁pride	-11293
▁Cas	-11294
note	-11295
mg	-11296
Current	-11297
▁displays	-11298
content	-11299
▁traveling	-11300
▁hospitals	-11301
▁Financial	-11302
▁Past	-11303
▁defendant	-11304
▁streaming	-11305
mble	-11306
▁Berlin	-11307
uki	-11308
▁distribut	-11309
▁antib	-11310
▁chocolate	-11311
▁Castle	-11312
▁interrupt	-11313
▁Row	-11314
▁conversion	-11315
▁bugs	-11316
▁Rather	-11317
liest	-11318
LY	-11319
▁Jean	-11320
common	-11321
akh	-11322
▁130	-11323
otton	-11324
▁Dean	-11325
▁amendment	-11326
▁gameplay	-11327
▁Warren	-11328
oda	-11329
▁highlights	-11330
▁irre	-11331
▁NATO	-11332
▁balls	-11333
▁demanding	-11334
URE	-11335
▁Luke	-11336
Figure	-11337
stop	-11338
onia	-11339
zone	-11340
izers	-11341
▁WR	-11342
▁awarded	-11343
▁regulatory	-11344
▁Hart	-11345
▁SN	-11346
pling	-11347
▁sour	-11348
▁Pixel	-11349
usive	-11350
▁fet	-11351
▁Sent	-11352
▁automatic	-11353
▁fer	-11354
vernment	-11355
▁Khan	-11356
TON	-11357
father	-11358
▁extraordinary	-11359
throp	-11360
▁Python	-11361
▁GPU	-11362
▁sexually	-11363
▁desktop	-11364
itivity	-11365
▁Antonio	-11366
▁orient	-11367
▁ears	-11368
obby	-11369
ouses	-11370
vertisements	-11371
▁manufacturers	-11372
icient	-11373
minute	-11374
▁conviction	-11375
▁garden	-11376
public	-11377
▁satisfied	-11378
fold	-11379
OK	-11380
▁inhab	-11381
▁Think	-11382
▁programme	-11383
▁stomach	-11384
▁coordin	-11385
▁holy	-11386
▁threshold	-11387
▁rhet	-11388
▁serial	-11389
▁employers	-11390
▁Everything	-11391
rah	-11392
▁bother	-11393
▁brands	-11394
Value	-11395
▁Ted	-11396
▁Planet	-11397
▁pink	-11398
▁Furthermore	-11399
sa	-11400
PE	-11401
reck	-11402
▁USD	-11403
otte	-11404
▁&&	-11405
▁landed	-11406
gets	-11407
▁producers	-11408
▁healthcare	-11409
▁dominant	-11410
▁destro	-11411
▁amended	-11412
chron	-11413
▁fits	-11414
▁Syd	-11415
▁Authority	-11416
ATCH	-11417
▁fights	-11418
▁LLC	-11419
▁---	-11420
▁Corp	-11421
▁toxic	-11422
specific	-11423
▁Corn	-11424
▁Chel	-11425
▁telephone	-11426
▁Pant	-11427
▁mysterious	-11428
aunch	-11429
odox	-11430
media	-11431
▁witnesses	-11432
agu	-11433
▁questioned	-11434
▁Brexit	-11435
▁Remember	-11436
enez	-11437
▁endorse	-11438
iatric	-11439
▁Ident	-11440
▁ridiculous	-11441
110	-11442
▁prayer	-11443
▁scientist	-11444
▁1950	-11445
▁Aqu	-11446
▁underground	-11447
▁UFC	-11448
mare	-11449
▁Later	-11450
wich	-11451
▁subscrib	-11452
▁hosts	-11453
▁err	-11454
▁grants	-11455
antom	-11456
▁summon	-11457
early	-11458
▁Clear	-11459
▁Prim	-11460
▁suspension	-11461
▁guaranteed	-11462
apper	-11463
▁rice	-11464
▁Sean	-11465
▁Shin	-11466
▁referendum	-11467
▁fled	-11468
rust	-11469
▁360	-11470
tery	-11471
▁shocked	-11472
BR	-11473
▁Oil	-11474
▁Allah	-11475
▁partly	-11476
▁ignor	-11477
▁transmission	-11478
▁homosexual	-11479
iversal	-11480
▁hopefully	-11481
ãĤ¤	-11482
▁lesson	-11483
Leg	-11484
▁..	-11485
Yet	-11486
table	-11487
appropri	-11488
rett	-11489
▁boards	-11490
▁incorrect	-11491
▁bacteria	-11492
aru	-11493
amac	-11494
▁snap	-11495
.'"	-11496
▁parad	-11497
tem	-11498
heart	-11499
▁availability	-11500
▁wisdom	-11501
▁(+	-11502
▁priest	-11503
▁ÂłĠÂł	-11504
Open	-11505
▁span	-11506
▁parameter	-11507
▁convince	-11508
▁(%)	-11509
rac	-11510
▁fo	-11511
▁safely	-11512
▁converted	-11513
▁Olympic	-11514
▁reserve	-11515
▁healing	-11516
▁Mine	-11517
Max	-11518
▁inherent	-11519
▁Graham	-11520
▁integrated	-11521
Dem	-11522
▁pipeline	-11523
▁applying	-11524
▁embed	-11525
▁Charlie	-11526
▁cave	-11527
2008	-11528
▁consensus	-11529
▁rewards	-11530
Pal	-11531
▁HTML	-11532
▁popularity	-11533
looking	-11534
▁Sword	-11535
▁Arts	-11536
')	-11537
▁electron	-11538
clusions	-11539
▁integrity	-11540
▁exclusively	-11541
▁grace	-11542
▁torture	-11543
▁burned	-11544
two	-11545
▁180	-11546
Produ	-11547
▁entreprene	-11548
raphics	-11549
▁gym	-11550
ricane	-11551
▁Tam	-11552
▁administrative	-11553
▁manufacturer	-11554
▁vel	-11555
▁Ni	-11556
▁isolated	-11557
▁Medicine	-11558
▁backup	-11559
▁promoting	-11560
▁commander	-11561
▁flee	-11562
▁Russell	-11563
▁forgotten	-11564
▁Missouri	-11565
▁residence	-11566
mons	-11567
▁resemb	-11568
▁wand	-11569
▁meaningful	-11570
PT	-11571
▁bol	-11572
▁helic	-11573
▁wealthy	-11574
▁rifle	-11575
strong	-11576
rowing	-11577
plan	-11578
asury	-11579
âĢ¦.	-11580
▁expanding	-11581
▁Hamilton	-11582
▁receives	-11583
SI	-11584
eatures	-11585
▁Anim	-11586
REE	-11587
Put	-11588
▁briefly	-11589
rive	-11590
▁stimul	-11591
▁``(	-11592
▁__	-11593
▁chip	-11594
▁haz	-11595
▁prize	-11596
▁Things	-11597
ACE	-11598
ulin	-11599
dict	-11600
oku	-11601
▁associate	-11602
ockets	-11603
youtube	-11604
Story	-11605
ategory	-11606
▁mild	-11607
ailing	-11608
▁Ye	-11609
Orig	-11610
▁Ka	-11611
orig	-11612
▁propaganda	-11613
▁anonymous	-11614
▁struggled	-11615
▁outrage	-11616
ATED	-11617
▁Beijing	-11618
rary	-11619
▁leather	-11620
▁worlds	-11621
▁broader	-11622
125	-11623
idal	-11624
▁Better	-11625
▁tear	-11626
Ext	-11627
▁proposals	-11628
▁iter	-11629
▁Squad	-11630
▁volunt	-11631
mi	-11632
Did	-11633
▁Pu	-11634
pin	-11635
▁speakers	-11636
▁borders	-11637
▁figured	-11638
='	-11639
▁simultaneously	-11640
aeda	-11641
▁charging	-11642
▁urged	-11643
▁conj	-11644
256	-11645
▁Gordon	-11646
merce	-11647
▁documentary	-11648
Share	-11649
itol	-11650
ONE	-11651
▁Garden	-11652
hatt	-11653
▁Thompson	-11654
aneous	-11655
apore	-11656
▁tanks	-11657
▁lessons	-11658
track	-11659
▁outstanding	-11660
▁volunteers	-11661
▁spray	-11662
▁managers	-11663
large	-11664
▁camps	-11665
▁artificial	-11666
▁Ru	-11667
▁bags	-11668
thal	-11669
▁compatible	-11670
▁Blade	-11671
▁fed	-11672
▁argues	-11673
FI	-11674
▁unfair	-11675
▁corn	-11676
▁offset	-11677
▁directions	-11678
▁disappointed	-11679
▁Convention	-11680
▁viewing	-11681
ME	-11682
ocity	-11683
▁towns	-11684
▁layers	-11685
▁rolled	-11686
▁jumped	-11687
▁attribute	-11688
▁unnecess	-11689
incoln	-11690
▁suppose	-11691
▁Nether	-11692
cha	-11693
▁buried	-11694
▁sixth	-11695
Ben	-11696
ressing	-11697
OUR	-11698
▁wound	-11699
▁cycl	-11700
▁mechanisms	-11701
▁congressional	-11702
▁Element	-11703
▁agreements	-11704
▁decor	-11705
▁closest	-11706
▁Mit	-11707
Google	-11708
}}	-11709
▁mixture	-11710
▁fluid	-11711
Sign	-11712
▁Scholar	-11713
▁pist	-11714
asket	-11715
abling	-11716
▁racing	-11717
hero	-11718
riel	-11719
assy	-11720
▁cheaper	-11721
ben	-11722
▁vertical	-11723
amacare	-11724
▁Reading	-11725
gments	-11726
▁helicop	-11727
▁sacrifice	-11728
aya	-11729
paren	-11730
VA	-11731
▁Les	-11732
▁Studio	-11733
▁violations	-11734
▁Anna	-11735
acer	-11736
é¾	-11737
▁Rat	-11738
▁Beck	-11739
▁Dick	-11740
▁ACT	-11741
▁composition	-11742
▁texture	-11743
▁Own	-11744
▁smartphone	-11745
▁NA	-11746
▁forb	-11747
import	-11748
▁defending	-11749
ilst	-11750
rer	-11751
▁oh	-11752
▁Jeremy	-11753
▁banking	-11754
ceptions	-11755
▁respective	-11756
/.	-11757
▁drinks	-11758
▁Wi	-11759
▁bands	-11760
▁Liverpool	-11761
▁grip	-11762
▁Buy	-11763
▁openly	-11764
▁reviewed	-11765
pert	-11766
▁verify	-11767
▁Cole	-11768
▁Wales	-11769
MO	-11770
▁unpre	-11771
▁shelter	-11772
▁Imperial	-11773
▁gui	-11774
▁Dak	-11775
▁suggestions	-11776
▁explicitly	-11777
▁slave	-11778
▁blockchain	-11779
▁competing	-11780
▁promising	-11781
SON	-11782
▁soccer	-11783
▁constitution	-11784
429	-11785
▁distract	-11786
▁User	-11787
esides	-11788
▁Method	-11789
▁Tokyo	-11790
▁accompanied	-11791
Client	-11792
sur	-11793
alog	-11794
▁identification	-11795
▁invasion	-11796
asma	-11797
▁industries	-11798
ppers	-11799
▁subtle	-11800
▁Unit	-11801
natural	-11802
▁survived	-11803
▁flaw	-11804
ĺħ	-11805
▁Holl	-11806
▁deficit	-11807
▁tutorial	-11808
▁Chance	-11809
▁arguing	-11810
▁contemporary	-11811
▁integration	-11812
forward	-11813
▁tum	-11814
itis	-11815
▁hiding	-11816
▁Domin	-11817
▁Tan	-11818
▁Building	-11819
▁Vin	-11820
▁spokesperson	-11821
▁Notes	-11822
▁emerging	-11823
▁preparation	-11824
▁prost	-11825
▁suspects	-11826
▁autonom	-11827
Description	-11828
▁dealt	-11829
▁Pear	-11830
▁steady	-11831
▁decreased	-11832
▁sovere	-11833
▁Clin	-11834
▁gradually	-11835
orses	-11836
▁WAR	-11837
Serv	-11838
ãĤ¢	-11839
hr	-11840
▁dirty	-11841
▁Barn	-11842
▁BC	-11843
▁dil	-11844
▁calendar	-11845
▁compliance	-11846
▁chamber	-11847
bb	-11848
▁passenger	-11849
ateful	-11850
▁Title	-11851
▁Sydney	-11852
▁Got	-11853
▁darkness	-11854
▁defect	-11855
▁packed	-11856
assion	-11857
▁gods	-11858
▁harsh	-11859
ICK	-11860
leans	-11861
▁algorithm	-11862
▁oxygen	-11863
▁visits	-11864
▁blade	-11865
▁kilomet	-11866
▁Kentucky	-11867
▁killer	-11868
Pack	-11869
enny	-11870
▁divine	-11871
▁nomination	-11872
being	-11873
▁engines	-11874
▁cats	-11875
▁buffer	-11876
▁Phill	-11877
▁traff	-11878
AGE	-11879
▁tongue	-11880
▁radiation	-11881
erer	-11882
mem	-11883
▁Explicit	-11884
é¾į	-11885
▁couples	-11886
▁physics	-11887
▁McK	-11888
▁politically	-11889
awks	-11890
▁Bloom	-11891
▁worship	-11892
eger	-11893
uter	-11894
▁FO	-11895
▁mathemat	-11896
▁sentenced	-11897
▁disk	-11898
▁Marg	-11899
▁/*	-11900
PI	-11901
▁optional	-11902
▁babies	-11903
▁seeds	-11904
▁Scottish	-11905
▁thy	-11906
]]	-11907
▁Hitler	-11908
PH	-11909
ngth	-11910
▁recovered	-11911
inge	-11912
▁powder	-11913
▁lips	-11914
▁designer	-11915
▁disorders	-11916
▁courage	-11917
▁chaos	-11918
"},{"	-11919
▁carrier	-11920
bably	-11921
High	-11922
▁RT	-11923
esity	-11924
len	-11925
▁routes	-11926
uating	-11927
Fil	-11928
NOT	-11929
wall	-11930
sburgh	-11931
▁engaging	-11932
▁JavaScript	-11933
orer	-11934
lihood	-11935
▁unions	-11936
▁Federation	-11937
▁Tesla	-11938
▁completion	-11939
▁Ta	-11940
▁privilege	-11941
▁Orange	-11942
▁neur	-11943
parency	-11944
▁bones	-11945
▁titled	-11946
▁prosecutors	-11947
▁ME	-11948
▁engineer	-11949
▁Universe	-11950
▁Hig	-11951
nie	-11952
oard	-11953
▁hearts	-11954
▁Gre	-11955
ussion	-11956
▁ministry	-11957
▁penet	-11958
▁Nut	-11959
▁Ow	-11960
▁XP	-11961
instein	-11962
▁bulk	-11963
System	-11964
icism	-11965
▁Marketable	-11966
▁preval	-11967
▁poster	-11968
▁attending	-11969
urable	-11970
▁licensed	-11971
▁Gh	-11972
etry	-11973
▁Tradable	-11974
▁blast	-11975
à¤	-11976
▁Titan	-11977
elled	-11978
die	-11979
Have	-11980
▁Flame	-11981
▁profound	-11982
▁participating	-11983
▁anime	-11984
▁Ess	-11985
▁specify	-11986
▁regarded	-11987
▁Spell	-11988
▁sons	-11989
owned	-11990
▁merc	-11991
▁experimental	-11992
lando	-11993
hs	-11994
▁Dungeon	-11995
inos	-11996
▁comply	-11997
▁Systems	-11998
arth	-11999
▁seized	-12000
local	-12001
▁Girls	-12002
udo	-12003
oned	-12004
▁Fle	-12005
▁constructed	-12006
▁hosted	-12007
▁scared	-12008
actic	-12009
▁Islands	-12010
▁MORE	-12011
▁bless	-12012
▁blocking	-12013
▁chips	-12014
▁evac	-12015
Ps	-12016
▁corporation	-12017
▁ox	-12018
▁lighting	-12019
▁neighbors	-12020
▁Ub	-12021
aro	-12022
▁beef	-12023
▁Uber	-12024
Facebook	-12025
armed	-12026
itate	-12027
▁Rating	-12028
▁Quick	-12029
▁occupied	-12030
▁aims	-12031
▁Additionally	-12032
▁Interest	-12033
▁dramatically	-12034
▁heal	-12035
▁painting	-12036
▁engineers	-12037
MM	-12038
▁Must	-12039
▁quantity	-12040
Paul	-12041
▁earnings	-12042
▁Posts	-12043
stra	-12044
ãĥ¼ãĥ	-12045
▁stance	-12046
▁dropping	-12047
script	-12048
▁dressed	-12049
Make	-12050
▁justify	-12051
▁Ltd	-12052
▁prompted	-12053
▁scrut	-12054
▁speeds	-12055
▁Giants	-12056
omer	-12057
▁Editor	-12058
▁describing	-12059
▁Lie	-12060
mented	-12061
▁nowhere	-12062
ocaly	-12063
▁instruction	-12064
fortable	-12065
▁entities	-12066
▁cm	-12067
▁Natural	-12068
▁inquiry	-12069
▁pressed	-12070
izont	-12071
forced	-12072
▁raises	-12073
▁Netflix	-12074
▁Side	-12075
▁outer	-12076
▁amongst	-12077
ims	-12078
owski	-12079
▁climb	-12080
never	-12081
▁combine	-12082
ding	-12083
▁compr	-12084
▁significance	-12085
▁remembered	-12086
▁Nevada	-12087
▁Tel	-12088
▁Scar	-12089
▁Warriors	-12090
▁Jane	-12091
▁coup	-12092
bas	-12093
▁terminal	-12094
,-	-12095
OH	-12096
▁tension	-12097
▁wings	-12098
▁Myster	-12099
ï¿½ï¿½ï¿½ï¿½	-12100
▁Unlike	-12101
valid	-12102
vironments	-12103
▁Ali	-12104
▁naked	-12105
books	-12106
▁Mun	-12107
▁Gulf	-12108
▁density	-12109
▁dimin	-12110
▁desperate	-12111
▁presidency	-12112
▁1986	-12113
hy	-12114
IND	-12115
▁unlock	-12116
imens	-12117
▁handled	-12118
▁Eb	-12119
▁disappeared	-12120
▁genre	-12121
▁1988	-12122
▁determination	-12123
Stream	-12124
iko	-12125
apters	-12126
▁acknowledge	-12127
Jan	-12128
▁capitalism	-12129
Pat	-12130
▁2020	-12131
▁painful	-12132
▁curve	-12133
▁bombs	-12134
storm	-12135
▁Metal	-12136
encer	-12137
▁Fig	-12138
▁Aaron	-12139
anches	-12140
▁inspiration	-12141
▁exhaust	-12142
tains	-12143
ashi	-12144
▁descript	-12145
▁ritual	-12146
▁Chelsea	-12147
▁promotion	-12148
▁Hung	-12149
▁Ward	-12150
iva	-12151
▁ET	-12152
▁toss	-12153
allow	-12154
▁Francis	-12155
Dep	-12156
▁happiness	-12157
▁Glass	-12158
▁beta	-12159
▁strengthen	-12160
NE	-12161
oa	-12162
▁buttons	-12163
▁Murray	-12164
▁kicked	-12165
Quest	-12166
▁Talk	-12167
▁Several	-12168
▁Zero	-12169
▁drone	-12170
ulk	-12171
▁cam	-12172
▁Mobile	-12173
▁preventing	-12174
▁retro	-12175
▁Ax	-12176
▁cruel	-12177
▁float	-12178
.),	-12179
▁filing	-12180
▁Grant	-12181
▁Bor	-12182
▁rib	-12183
▁championship	-12184
▁Merc	-12185
▁styles	-12186
▁cake	-12187
▁builds	-12188
▁Self	-12189
iox	-12190
▁epic	-12191
oyd	-12192
Bel	-12193
▁Stew	-12194
.(	-12195
ahu	-12196
▁Beyond	-12197
▁outs	-12198
▁solo	-12199
▁Tree	-12200
▁preserve	-12201
▁tub	-12202
ARE	-12203
roc	-12204
▁Impro	-12205
▁Wright	-12206
▁bund	-12207
▁traged	-12208
▁occasional	-12209
bian	-12210
Second	-12211
rons	-12212
▁interactions	-12213
formed	-12214
sing	-12215
▁owns	-12216
▁hockey	-12217
General	-12218
▁logical	-12219
▁expend	-12220
▁escal	-12221
▁Griff	-12222
▁Crown	-12223
▁Reserve	-12224
▁stopping	-12225
▁excuse	-12226
second	-12227
▁operated	-12228
▁reaches	-12229
▁Malays	-12230
▁pollution	-12231
▁Brooklyn	-12232
▁delete	-12233
▁hash	-12234
Block	-12235
aha	-12236
âĢ³	-12237
▁shorter	-12238
piece	-12239
></	-12240
▁horm	-12241
▁Wat	-12242
▁Break	-12243
▁prohibited	-12244
▁intensity	-12245
▁Alan	-12246
▁liability	-12247
?!	-12248
anded	-12249
▁neighbour	-12250
▁Collection	-12251
▁fires	-12252
▁revolutionary	-12253
fly	-12254
▁Orleans	-12255
White	-12256
▁Writ	-12257
▁Dawn	-12258
▁settle	-12259
▁execute	-12260
BM	-12261
▁spokeswoman	-12262
▁lifestyle	-12263
▁clicking	-12264
▁Kill	-12265
▁Liberal	-12266
▁Nazi	-12267
▁trailer	-12268
▁mountains	-12269
▁damn	-12270
zes	-12271
pes	-12272
▁pressing	-12273
▁bail	-12274
▁Organization	-12275
▁pir	-12276
▁thirty	-12277
▁electrical	-12278
▁115	-12279
▁Poly	-12280
▁Rap	-12281
▁Strike	-12282
▁Cann	-12283
▁demanded	-12284
▁backing	-12285
default	-12286
speed	-12287
▁Legisl	-12288
▁mothers	-12289
▁Body	-12290
▁variation	-12291
cedented	-12292
powered	-12293
leading	-12294
Never	-12295
▁grave	-12296
▁Anti	-12297
AW	-12298
▁interviewed	-12299
▁Gab	-12300
▁Fat	-12301
▁rookie	-12302
uu	-12303
▁depos	-12304
ixon	-12305
▁ampl	-12306
retion	-12307
▁Heat	-12308
▁peaceful	-12309
SM	-12310
ieve	-12311
▁diver	-12312
▁Victoria	-12313
▁mic	-12314
pdf	-12315
▁stating	-12316
▁lung	-12317
▁criticized	-12318
▁vaccine	-12319
▁Loading	-12320
urse	-12321
Take	-12322
▁Fran	-12323
▁Sold	-12324
▁Robin	-12325
▁detected	-12326
▁Script	-12327
▁adjusted	-12328
▁senator	-12329
▁opposing	-12330
Error	-12331
Count	-12332
▁conflicts	-12333
▁ow	-12334
▁Argent	-12335
▁matching	-12336
hh	-12337
▁Trek	-12338
starter	-12339
"),	-12340
▁AF	-12341
oder	-12342
xxxx	-12343
▁Alt	-12344
acre	-12345
▁Pick	-12346
▁Solar	-12347
▁Dal	-12348
Oct	-12349
▁Batt	-12350
▁src	-12351
▁engagement	-12352
▁executives	-12353
▁liberty	-12354
java	-12355
▁talented	-12356
igenous	-12357
▁consecut	-12358
.....	-12359
Info	-12360
▁horrible	-12361
▁surprisingly	-12362
feed	-12363
icating	-12364
▁LED	-12365
▁females	-12366
Station	-12367
eller	-12368
▁Oakland	-12369
▁mechanical	-12370
iology	-12371
▁Var	-12372
▁robust	-12373
ettings	-12374
otta	-12375
▁theoret	-12376
▁retain	-12377
kward	-12378
▁da	-12379
▁deployed	-12380
del	-12381
▁Andy	-12382
▁subscribe	-12383
web	-12384
▁na	-12385
▁Michel	-12386
▁partially	-12387
▁Comey	-12388
▁crown	-12389
▁Maj	-12390
▁Blu	-12391
rator	-12392
Day	-12393
INT	-12394
▁documented	-12395
▁GDP	-12396
gi	-12397
chell	-12398
▁brutal	-12399
▁Bab	-12400
stration	-12401
▁theft	-12402
▁tube	-12403
@@	-12404
▁query	-12405
▁Lincoln	-12406
▁publishing	-12407
▁wore	-12408
orical	-12409
▁ric	-12410
▁notable	-12411
▁subsequently	-12412
nex	-12413
▁observe	-12414
▁Boe	-12415
▁codes	-12416
main	-12417
WH	-12418
▁SL	-12419
▁residential	-12420
avan	-12421
▁mas	-12422
arest	-12423
adeon	-12424
OUT	-12425
▁sophistic	-12426
ante	-12427
▁cens	-12428
▁**	-12429
▁mortality	-12430
▁yours	-12431
▁occasions	-12432
▁recalled	-12433
▁Driver	-12434
▁vocal	-12435
▁bathroom	-12436
▁shops	-12437
▁collaboration	-12438
▁Obamacare	-12439
▁Cell	-12440
Char	-12441
Super	-12442
Cre	-12443
▁tends	-12444
▁torn	-12445
▁economics	-12446
avery	-12447
▁Raid	-12448
▁Sem	-12449
▁shoulders	-12450
▁expecting	-12451
▁examination	-12452
ename	-12453
▁UI	-12454
iability	-12455
olas	-12456
▁Amb	-12457
▁Dra	-12458
▁midfield	-12459
▁IC	-12460
▁layout	-12461
▁floating	-12462
fi	-12463
itative	-12464
▁tremendous	-12465
▁Ð	-12466
▁abund	-12467
Work	-12468
▁Lightning	-12469
▁similarly	-12470
▁conservatives	-12471
▁pray	-12472
BE	-12473
izarre	-12474
▁tempt	-12475
▁emphasis	-12476
▁Metro	-12477
▁fishing	-12478
▁marry	-12479
neg	-12480
▁Study	-12481
▁reck	-12482
▁dispos	-12483
oning	-12484
bsite	-12485
▁suspic	-12486
▁merch	-12487
▁Gib	-12488
▁Description	-12489
▁DVD	-12490
whe	-12491
▁Yemen	-12492
▁environments	-12493
ooting	-12494
▁Modern	-12495
eu	-12496
▁reflects	-12497
▁honey	-12498
▁analyst	-12499
▁gut	-12500
dec	-12501
Action	-12502
▁households	-12503
▁ster	-12504
▁temple	-12505
▁reforms	-12506
▁favourite	-12507
▁deadline	-12508
▁LE	-12509
Three	-12510
▁Within	-12511
Aug	-12512
▁nights	-12513
elta	-12514
▁invalid	-12515
▁Exchange	-12516
▁Delhi	-12517
when	-12518
income	-12519
▁ðŁ	-12520
▁wireless	-12521
scribe	-12522
ista	-12523
▁hostile	-12524
▁ally	-12525
▁gig	-12526
▁outlets	-12527
▁Dor	-12528
EMENT	-12529
▁ash	-12530
▁abstract	-12531
ORD	-12532
▁Motor	-12533
▁adviser	-12534
istle	-12535
▁bases	-12536
▁courtesy	-12537
▁crossing	-12538
▁cleared	-12539
▁refugee	-12540
cosystem	-12541
▁throws	-12542
fun	-12543
bourne	-12544
days	-12545
▁disagree	-12546
▁Native	-12547
▁reflected	-12548
▁Fast	-12549
▁Yellow	-12550
▁Singapore	-12551
▁Raven	-12552
▁embrace	-12553
▁Ku	-12554
▁Chen	-12555
▁Early	-12556
▁appointment	-12557
▁Mini	-12558
itement	-12559
▁placing	-12560
▁bicy	-12561
SR	-12562
▁whis	-12563
SU	-12564
▁investigated	-12565
▁photographs	-12566
github	-12567
▁Beat	-12568
▁Ring	-12569
ighed	-12570
iar	-12571
▁evolved	-12572
erald	-12573
▁dun	-12574
▁hub	-12575
IAL	-12576
▁encouraging	-12577
▁Print	-12578
▁Days	-12579
▁prosecution	-12580
▁pants	-12581
azy	-12582
live	-12583
▁fossil	-12584
▁Ju	-12585
▁rocks	-12586
udge	-12587
▁Race	-12588
▁greet	-12589
bie	-12590
▁filling	-12591
▁Len	-12592
▁diabetes	-12593
▁firearms	-12594
uming	-12595
enezuel	-12596
▁BB	-12597
▁accepting	-12598
ATH	-12599
▁resort	-12600
▁hunt	-12601
rik	-12602
ucker	-12603
aments	-12604
▁sustained	-12605
▁crossed	-12606
▁breakfast	-12607
▁attributes	-12608
lected	-12609
atile	-12610
▁vibr	-12611
▁Kal	-12612
arson	-12613
oples	-12614
▁touched	-12615
▁damages	-12616
▁impressed	-12617
rup	-12618
▁anch	-12619
▁Adams	-12620
Hel	-12621
▁Victor	-12622
▁mounted	-12623
▁CC	-12624
▁delicious	-12625
span	-12626
ella	-12627
▁elabor	-12628
amples	-12629
▁defic	-12630
▁constitu	-12631
uates	-12632
▁Mission	-12633
▁Ther	-12634
▁Monster	-12635
bes	-12636
Reuters	-12637
▁Indones	-12638
hill	-12639
munition	-12640
▁confirmation	-12641
▁Consider	-12642
acent	-12643
▁jet	-12644
▁Employ	-12645
▁GTX	-12646
nan	-12647
▁Spider	-12648
▁processor	-12649
▁patri	-12650
▁Pentagon	-12651
▁Robinson	-12652
▁realistic	-12653
Ã±	-12654
▁appearing	-12655
▁pipe	-12656
omed	-12657
▁fru	-12658
▁awful	-12659
▁evaluation	-12660
▁intelligent	-12661
▁Citiz	-12662
▁fundra	-12663
odium	-12664
▁tweets	-12665
▁worn	-12666
pring	-12667
▁kidn	-12668
▁rebels	-12669
▁Kam	-12670
▁Netherlands	-12671
▁SW	-12672
▁acquisition	-12673
▁Male	-12674
ãĥª	-12675
ombies	-12676
▁tradem	-12677
▁Status	-12678
Bre	-12679
▁THIS	-12680
▁adverse	-12681
▁NEW	-12682
sign	-12683
▁organisation	-12684
enc	-12685
▁Harper	-12686
apor	-12687
▁Members	-12688
▁Peace	-12689
▁Airport	-12690
▁Others	-12691
▁scratch	-12692
▁Pil	-12693
▁sensor	-12694
▁adoption	-12695
▁Hotel	-12696
▁Drag	-12697
▁honestly	-12698
▁yard	-12699
▁Forces	-12700
▁patent	-12701
▁bass	-12702
▁quietly	-12703
▁breathing	-12704
▁pose	-12705
iors	-12706
▁Jess	-12707
static	-12708
ITE	-12709
Offic	-12710
▁jew	-12711
wcs	-12712
▁140	-12713
▁preview	-12714
ippi	-12715
▁unfortunately	-12716
okemon	-12717
▁horn	-12718
▁reass	-12719
▁peer	-12720
ocker	-12721
▁unto	-12722
▁Gray	-12723
▁cleaning	-12724
▁attracted	-12725
2007	-12726
Point	-12727
kill	-12728
▁Agreement	-12729
urches	-12730
▁horr	-12731
▁Mississ	-12732
▁worthy	-12733
▁flowers	-12734
town	-12735
dll	-12736
▁reactions	-12737
▁dece	-12738
▁indicating	-12739
MD	-12740
▁preference	-12741
▁MVP	-12742
essional	-12743
▁Target	-12744
gence	-12745
▁Indians	-12746
▁misc	-12747
▁freely	-12748
▁muscles	-12749
▁lineup	-12750
▁impacts	-12751
ousing	-12752
omi	-12753
acular	-12754
▁controlling	-12755
agine	-12756
cery	-12757
hell	-12758
▁ranking	-12759
▁Nich	-12760
▁Ave	-12761
128	-12762
▁highway	-12763
▁incons	-12764
▁binding	-12765
▁struggles	-12766
▁Pittsburgh	-12767
▁gray	-12768
rin	-12769
▁comics	-12770
▁Sport	-12771
▁relatives	-12772
▁fright	-12773
▁probe	-12774
▁Portug	-12775
▁voc	-12776
▁tu	-12777
▁Corps	-12778
▁possibilities	-12779
▁qualify	-12780
wcsstore	-12781
▁libraries	-12782
▁migrants	-12783
▁entries	-12784
▁consecutive	-12785
vals	-12786
▁Chairman	-12787
▁hill	-12788
IME	-12789
▁Gard	-12790
▁inequality	-12791
fox	-12792
▁Save	-12793
▁cort	-12794
claimed	-12795
▁traits	-12796
▁pour	-12797
▁missiles	-12798
▁essence	-12799
▁sends	-12800
▁alliance	-12801
▁wishes	-12802
▁Christopher	-12803
Big	-12804
NY	-12805
▁Jacob	-12806
san	-12807
urred	-12808
▁SO	-12809
lly	-12810
▁advocate	-12811
▁Bond	-12812
▁"/	-12813
Using	-12814
▁districts	-12815
▁Gate	-12816
▁Bir	-12817
ridge	-12818
▁Naz	-12819
▁Rs	-12820
boards	-12821
▁Ga	-12822
▁Reagan	-12823
▁influenced	-12824
1000	-12825
apy	-12826
▁challenged	-12827
▁barg	-12828
▁faculty	-12829
▁Fif	-12830
▁acquire	-12831
Ac	-12832
▁insect	-12833
▁instruments	-12834
▁leaf	-12835
thodox	-12836
Message	-12837
▁tale	-12838
▁thereby	-12839
▁trap	-12840
▁strongest	-12841
▁Military	-12842
isible	-12843
▁1984	-12844
etheless	-12845
▁flexible	-12846
▁kills	-12847
▁finishing	-12848
▁Size	-12849
▁reduces	-12850
▁epid	-12851
▁orientation	-12852
full	-12853
▁trace	-12854
▁laser	-12855
▁oppose	-12856
▁editing	-12857
▁momentum	-12858
äº	-12859
show	-12860
VI	-12861
▁Lad	-12862
▁1985	-12863
▁murdered	-12864
900	-12865
uther	-12866
▁probability	-12867
▁Poll	-12868
▁reluct	-12869
▁Chem	-12870
▁Montreal	-12871
▁adequate	-12872
▁Poland	-12873
▁Sheriff	-12874
umph	-12875
▁ok	-12876
▁000	-12877
▁"[	-12878
▁operators	-12879
▁Fer	-12880
▁modes	-12881
▁Eve	-12882
▁discipline	-12883
NET	-12884
Hand	-12885
▁oral	-12886
▁WE	-12887
email	-12888
JP	-12889
▁Palestinians	-12890
▁hence	-12891
▁Less	-12892
▁overl	-12893
dig	-12894
▁intimid	-12895
▁Coal	-12896
▁ranging	-12897
tha	-12898
▁distant	-12899
▁fib	-12900
▁Index	-12901
▁Wonder	-12902
▁Pel	-12903
hattan	-12904
▁Hug	-12905
ÃĹ	-12906
rait	-12907
▁wrapped	-12908
▁RPG	-12909
▁chemicals	-12910
▁Money	-12911
▁frozen	-12912
▁indirect	-12913
▁Against	-12914
End	-12915
▁uncomfortable	-12916
▁Gallery	-12917
▁Posted	-12918
Ø§	-12919
onduct	-12920
▁consequence	-12921
▁bitter	-12922
▁1987	-12923
pop	-12924
▁countless	-12925
▁Alaska	-12926
ffff	-12927
▁departure	-12928
▁refund	-12929
▁Ian	-12930
iated	-12931
▁seeks	-12932
▁mechanics	-12933
▁jurisdiction	-12934
lynn	-12935
▁alike	-12936
▁Hunt	-12937
athon	-12938
▁resolved	-12939
▁cache	-12940
▁distinction	-12941
direct	-12942
▁encount	-12943
oub	-12944
beat	-12945
▁Country	-12946
search	-12947
▁continuous	-12948
▁modest	-12949
▁Rail	-12950
thood	-12951
130	-12952
BUG	-12953
▁criminals	-12954
▁indication	-12955
▁encountered	-12956
last	-12957
▁Wy	-12958
▁ideology	-12959
▁PDF	-12960
security	-12961
])	-12962
▁Jimmy	-12963
▁EN	-12964
▁hiring	-12965
Tem	-12966
▁pig	-12967
aunt	-12968
▁Crystal	-12969
▁penalties	-12970
▁capability	-12971
▁py	-12972
▁productive	-12973
▁balanced	-12974
▁GeForce	-12975
click	-12976
olitan	-12977
ods	-12978
▁afterwards	-12979
▁playoffs	-12980
▁Gill	-12981
User	-12982
▁backs	-12983
pub	-12984
tag	-12985
▁absurd	-12986
piring	-12987
▁citing	-12988
▁trillion	-12989
▁obligation	-12990
▁maxim	-12991
ahoo	-12992
cf	-12993
umi	-12994
▁Alpha	-12995
▁Nelson	-12996
▁pursuant	-12997
initely	-12998
▁fract	-12999
entry	-13000
bery	-13001
▁Thor	-13002
Added	-13003
▁DJ	-13004
▁Gene	-13005
▁awkward	-13006
Stud	-13007
▁wallet	-13008
▁Divine	-13009
arios	-13010
▁releasing	-13011
▁edited	-13012
▁accomplished	-13013
Best	-13014
▁edges	-13015
▁planes	-13016
▁feeding	-13017
"},"	-13018
▁disclosure	-13019
▁grain	-13020
airy	-13021
oons	-13022
ernand	-13023
VR	-13024
▁reasonably	-13025
▁drum	-13026
▁partial	-13027
▁graphic	-13028
▁unprecedented	-13029
▁advised	-13030
Micro	-13031
▁Assad	-13032
points	-13033
scar	-13034
▁Zone	-13035
ttes	-13036
▁700	-13037
vo	-13038
▁Hamp	-13039
▁fixes	-13040
▁caution	-13041
▁strings	-13042
▁panels	-13043
▁leak	-13044
▁pricing	-13045
rowth	-13046
▁Error	-13047
▁Saints	-13048
fix	-13049
▁observations	-13050
▁Abs	-13051
▁suggestion	-13052
▁Ukrainian	-13053
▁barrier	-13054
▁painted	-13055
Bet	-13056
imir	-13057
▁Spect	-13058
pot	-13059
orneys	-13060
▁compound	-13061
▁bears	-13062
▁Rush	-13063
▁luxury	-13064
Sum	-13065
▁orbit	-13066
▁Marc	-13067
▁exempt	-13068
▁Trail	-13069
▁MO	-13070
▁Hans	-13071
▁Weapon	-13072
ocused	-13073
uminum	-13074
▁Jerry	-13075
▁bust	-13076
▁AG	-13077
▁Wiki	-13078
▁endless	-13079
▁Vlad	-13080
▁Bah	-13081
▁Radeon	-13082
keys	-13083
▁Survey	-13084
▁Viol	-13085
define	-13086
lean	-13087
▁commod	-13088
▁revenues	-13089
Åį	-13090
▁furniture	-13091
▁casting	-13092
▁diplomatic	-13093
▁Players	-13094
▁Killed	-13095
▁modify	-13096
▁innovative	-13097
▁Abu	-13098
nor	-13099
▁bonds	-13100
▁coaching	-13101
Mer	-13102
▁modules	-13103
▁Patriots	-13104
▁enhanced	-13105
▁proceedings	-13106
▁teammates	-13107
▁128	-13108
ardo	-13109
▁compromise	-13110
▁Much	-13111
▁flew	-13112
▁Edge	-13113
▁unnecessary	-13114
▁doctrine	-13115
report	-13116
▁Orlando	-13117
▁Profile	-13118
▁playoff	-13119
friendly	-13120
▁complain	-13121
▁MC	-13122
▁Opt	-13123
▁GB	-13124
▁beaten	-13125
▁golf	-13126
▁placement	-13127
Bit	-13128
▁newsletter	-13129
▁2019	-13130
visor	-13131
rawl	-13132
▁iPad	-13133
▁acted	-13134
▁juice	-13135
▁decks	-13136
PN	-13137
success	-13138
▁Half	-13139
▁deleted	-13140
▁secrets	-13141
▁asylum	-13142
Mart	-13143
▁Activ	-13144
▁Guy	-13145
▁Ts	-13146
▁dys	-13147
▁assuming	-13148
▁mana	-13149
▁subur	-13150
▁125	-13151
Media	-13152
ARY	-13153
ride	-13154
cp	-13155
▁difficulties	-13156
▁collecting	-13157
▁bankrupt	-13158
non	-13159
▁composed	-13160
▁volt	-13161
▁militants	-13162
▁>>>	-13163
▁Mormon	-13164
tor	-13165
▁particles	-13166
▁Bart	-13167
ryption	-13168
▁admin	-13169
▁squee	-13170
VIDIA	-13171
▁creator	-13172
iameter	-13173
icular	-13174
NBC	-13175
▁grabbed	-13176
▁nodd	-13177
▁rated	-13178
▁rotation	-13179
▁grasp	-13180
▁excessive	-13181
▁EC	-13182
▁Whit	-13183
▁inventory	-13184
aults	-13185
▁FB	-13186
▁ecosystem	-13187
▁billions	-13188
▁venture	-13189
named	-13190
▁defender	-13191
oute	-13192
Instead	-13193
irable	-13194
War	-13195
▁assumption	-13196
▁bite	-13197
▁earthqu	-13198
tail	-13199
space	-13200
▁gifts	-13201
boys	-13202
▁inevitable	-13203
▁structural	-13204
▁beneficial	-13205
▁compelling	-13206
hole	-13207
ervation	-13208
▁coat	-13209
oj	-13210
incarn	-13211
▁Years	-13212
▁determining	-13213
▁rhetoric	-13214
▁boundaries	-13215
▁whites	-13216
Ant	-13217
addy	-13218
)-	-13219
raham	-13220
etermin	-13221
▁harvest	-13222
▁Conc	-13223
▁laptop	-13224
▁Match	-13225
▁enjoying	-13226
cca	-13227
ollar	-13228
▁trips	-13229
▁addiction	-13230
▁Sak	-13231
▁powered	-13232
▁cous	-13233
▁Russians	-13234
iere	-13235
▁retrie	-13236
quality	-13237
▁differ	-13238
▁kingdom	-13239
▁Laur	-13240
▁Capitol	-13241
▁conclusions	-13242
▁Altern	-13243
▁Nav	-13244
▁transparent	-13245
BER	-13246
Group	-13247
▁Complete	-13248
▁infer	-13249
▁intrig	-13250
▁insane	-13251
RO	-13252
ophob	-13253
isen	-13254
qual	-13255
Michael	-13256
▁museum	-13257
▁Pope	-13258
▁reset	-13259
rative	-13260
five	-13261
▁aggreg	-13262
ittees	-13263
ository	-13264
▁carb	-13265
▁Record	-13266
▁decides	-13267
▁Fix	-13268
▁exceptions	-13269
▁Commissioner	-13270
uns	-13271
▁Environmental	-13272
▁legendary	-13273
istence	-13274
▁tunnel	-13275
km	-13276
▁insult	-13277
▁troll	-13278
▁shake	-13279
▁detention	-13280
ques	-13281
▁Chrome	-13282
▁Files	-13283
▁subt	-13284
▁prospects	-13285
▁prol	-13286
render	-13287
proof	-13288
▁performances	-13289
Str	-13290
▁href	-13291
ername	-13292
▁achievement	-13293
▁fut	-13294
Full	-13295
▁Leban	-13296
google	-13297
ãĥĪ	-13298
ampa	-13299
Maybe	-13300
▁projected	-13301
▁Emb	-13302
▁colleg	-13303
▁awards	-13304
▁âĶ	-13305
Gold	-13306
▁Blake	-13307
▁Raj	-13308
ifting	-13309
▁pending	-13310
▁instinct	-13311
▁developments	-13312
Connect	-13313
▁Mand	-13314
▁WITH	-13315
▁Philippines	-13316
profile	-13317
▁altogether	-13318
▁Bund	-13319
▁TD	-13320
oooo	-13321
amped	-13322
iph	-13323
▁steam	-13324
▁oldest	-13325
▁detection	-13326
ulpt	-13327
▁ç	-13328
▁Wayne	-13329
2006	-13330
fa	-13331
▁circles	-13332
▁Fu	-13333
▁donors	-13334
appropriate	-13335
▁Dakota	-13336
jamin	-13337
▁motivated	-13338
▁purchases	-13339
▁Louisiana	-13340
▁Spl	-13341
▁globe	-13342
▁105	-13343
zip	-13344
call	-13345
▁departments	-13346
▁sustainable	-13347
105	-13348
▁OP	-13349
ifiers	-13350
▁prevented	-13351
▁incomp	-13352
▁Commander	-13353
▁dominated	-13354
▁Â»	-13355
▁invested	-13356
▁complexity	-13357
▁incl	-13358
▁ensuring	-13359
▁realm	-13360
ync	-13361
▁Independent	-13362
rained	-13363
▁Jen	-13364
▁Flight	-13365
▁athe	-13366
▁speculation	-13367
▁TE	-13368
ocate	-13369
tic	-13370
▁plaint	-13371
herry	-13372
▁toy	-13373
▁111	-13374
▁plates	-13375
status	-13376
▁Isa	-13377
▁devoted	-13378
Cop	-13379
▁ES	-13380
255	-13381
urrency	-13382
Main	-13383
▁slaves	-13384
▁pepper	-13385
▁quotes	-13386
▁ceiling	-13387
▁Fish	-13388
▁transformation	-13389
▁fraction	-13390
▁advantages	-13391
▁toile	-13392
▁stunning	-13393
▁moist	-13394
breaking	-13395
si	-13396
▁Location	-13397
▁Medium	-13398
▁texts	-13399
▁ugly	-13400
▁bio	-13401
.âĢĶ	-13402
▁Based	-13403
▁trains	-13404
▁Wing	-13405
▁Ancient	-13406
▁Records	-13407
▁Hope	-13408
Special	-13409
adesh	-13410
obi	-13411
[/	-13412
▁temporarily	-13413
Ver	-13414
hu	-13415
oser	-13416
▁overnight	-13417
▁mamm	-13418
▁Treasury	-13419
▁Venezuel	-13420
▁Mega	-13421
▁tar	-13422
▁expects	-13423
black	-13424
orph	-13425
\\\\	-13426
▁acceptance	-13427
▁radar	-13428
sis	-13429
▁junior	-13430
▁frames	-13431
▁observation	-13432
acies	-13433
Power	-13434
▁Advanced	-13435
Mag	-13436
ologically	-13437
▁Mechan	-13438
▁sentences	-13439
▁analysts	-13440
aughters	-13441
forcement	-13442
▁vague	-13443
▁clause	-13444
▁directors	-13445
▁evaluate	-13446
▁cabinet	-13447
Matt	-13448
▁Classic	-13449
Ang	-13450
▁cler	-13451
▁Buck	-13452
▁researcher	-13453
▁160	-13454
▁poorly	-13455
▁experiencing	-13456
▁Ped	-13457
▁Manhattan	-13458
▁freed	-13459
▁themes	-13460
advant	-13461
▁nin	-13462
▁praise	-13463
104	-13464
▁Libya	-13465
best	-13466
▁trusted	-13467
▁cease	-13468
▁dign	-13469
Direct	-13470
▁bombing	-13471
▁migration	-13472
▁Sciences	-13473
▁municipal	-13474
▁Average	-13475
▁glory	-13476
▁revealing	-13477
▁arena	-13478
▁uncertainty	-13479
▁battlefield	-13480
iao	-13481
God	-13482
▁cinem	-13483
rape	-13484
elle	-13485
apons	-13486
▁listing	-13487
▁waited	-13488
▁spotted	-13489
keley	-13490
▁Audio	-13491
eor	-13492
arding	-13493
idding	-13494
igma	-13495
▁Neg	-13496
▁lone	-13497
▁----	-13498
exe	-13499
deg	-13500
▁transf	-13501
▁wash	-13502
▁slavery	-13503
▁exploring	-13504
▁WW	-13505
atson	-13506
▁encl	-13507
lies	-13508
▁Creek	-13509
▁wooden	-13510
Manager	-13511
▁Brand	-13512
ummy	-13513
▁Arthur	-13514
▁bureaucr	-13515
▁blend	-13516
arians	-13517
Further	-13518
▁supposedly	-13519
▁winds	-13520
▁1979	-13521
▁gravity	-13522
▁analyses	-13523
▁Travel	-13524
▁Veter	-13525
▁dumb	-13526
▁alternate	-13527
gal	-13528
▁consumed	-13529
▁effectiveness	-13530
.''	-13531
▁paths	-13532
onda	-13533
LA	-13534
▁Strong	-13535
▁enables	-13536
▁escaped	-13537
▁""	-13538
▁112	-13539
▁1983	-13540
▁smiled	-13541
▁tendency	-13542
Fire	-13543
▁pars	-13544
▁Roc	-13545
▁lake	-13546
▁fitness	-13547
▁Ath	-13548
▁Horn	-13549
▁hier	-13550
▁impose	-13551
mother	-13552
▁pension	-13553
icut	-13554
borne	-13555
iciary	-13556
._	-13557
▁SU	-13558
▁polar	-13559
isy	-13560
engu	-13561
itialized	-13562
ATA	-13563
write	-13564
▁exercises	-13565
▁Diamond	-13566
otypes	-13567
▁harmful	-13568
onz	-13569
▁printing	-13570
story	-13571
▁expertise	-13572
▁Ger	-13573
▁tragedy	-13574
▁Fly	-13575
▁divid	-13576
ampire	-13577
stock	-13578
Mem	-13579
▁reign	-13580
▁unve	-13581
▁amend	-13582
▁Prophet	-13583
▁mutual	-13584
▁Fac	-13585
▁replacing	-13586
Har	-13587
▁Circuit	-13588
▁throat	-13589
▁Shot	-13590
▁batteries	-13591
▁toll	-13592
▁addressing	-13593
▁Medicaid	-13594
▁pupp	-13595
▁Nar	-13596
olk	-13597
▁equity	-13598
MR	-13599
▁Hispan	-13600
▁Large	-13601
mid	-13602
Dev	-13603
▁exped	-13604
▁demo	-13605
▁Marshall	-13606
ergus	-13607
▁fiber	-13608
▁divorce	-13609
▁Create	-13610
▁slower	-13611
▁Parker	-13612
▁Student	-13613
▁Training	-13614
Return	-13615
▁Tru	-13616
▁cub	-13617
▁Reached	-13618
▁panic	-13619
▁quarters	-13620
▁rect	-13621
▁treating	-13622
▁rats	-13623
▁Christianity	-13624
oler	-13625
▁sacred	-13626
▁declare	-13627
ulative	-13628
eting	-13629
▁delivering	-13630
estone	-13631
▁tel	-13632
▁Larry	-13633
▁meta	-13634
accept	-13635
artz	-13636
▁Roger	-13637
handed	-13638
▁header	-13639
▁trapped	-13640
▁Century	-13641
▁knocked	-13642
▁Oxford	-13643
▁survivors	-13644
bot	-13645
▁demonstration	-13646
▁dirt	-13647
▁assists	-13648
OME	-13649
▁Draft	-13650
ortunate	-13651
folio	-13652
pered	-13653
usters	-13654
gt	-13655
▁Lock	-13656
▁judicial	-13657
verted	-13658
▁secured	-13659
outing	-13660
▁Books	-13661
▁hosting	-13662
▁lifted	-13663
length	-13664
▁jer	-13665
▁wheels	-13666
▁Range	-13667
umbnails	-13668
▁diagnosis	-13669
tech	-13670
▁Stewart	-13671
▁Pract	-13672
▁nationwide	-13673
▁dear	-13674
▁obligations	-13675
▁grows	-13676
▁mandatory	-13677
▁suspicious	-13678
!'	-13679
Apr	-13680
Great	-13681
▁mortgage	-13682
▁prosecutor	-13683
▁editorial	-13684
▁Kr	-13685
▁processed	-13686
ungle	-13687
▁flexibility	-13688
Earlier	-13689
▁Cart	-13690
▁Sug	-13691
▁focuses	-13692
▁startup	-13693
▁breach	-13694
▁Tob	-13695
cycle	-13696
ãĢĮ	-13697
rose	-13698
▁bizarre	-13699
ãĢį	-13700
▁vegetables	-13701
$$	-13702
▁retreat	-13703
oshi	-13704
▁Shop	-13705
▁Ground	-13706
▁Stop	-13707
▁Hawaii	-13708
▁Ay	-13709
Perhaps	-13710
▁Beaut	-13711
uffer	-13712
enna	-13713
▁productivity	-13714
Fixed	-13715
control	-13716
▁absent	-13717
▁Campaign	-13718
Green	-13719
▁identifying	-13720
▁regret	-13721
▁promoted	-13722
▁Seven	-13723
▁eru	-13724
neath	-13725
aughed	-13726
▁Pin	-13727
▁Living	-13728
Cost	-13729
omatic	-13730
mega	-13731
▁Nig	-13732
ocy	-13733
▁inbox	-13734
▁empire	-13735
▁horizont	-13736
▁branches	-13737
▁metaph	-13738
Active	-13739
edi	-13740
▁Film	-13741
▁Something	-13742
▁mods	-13743
incial	-13744
▁Original	-13745
Gen	-13746
▁spirits	-13747
▁earning	-13748
Hist	-13749
▁riders	-13750
▁sacrific	-13751
MT	-13752
▁VA	-13753
▁Salt	-13754
▁occupation	-13755
▁Mi	-13756
▁disg	-13757
lict	-13758
▁nit	-13759
▁nodes	-13760
eem	-13761
▁Pier	-13762
▁hatred	-13763
psy	-13764
ãĥī	-13765
▁theater	-13766
▁sophisticated	-13767
▁defended	-13768
▁besides	-13769
▁thoroughly	-13770
▁Medicare	-13771
▁blamed	-13772
arently	-13773
▁crying	-13774
FOR	-13775
priv	-13776
▁singing	-13777
▁Il	-13778
▁cute	-13779
oided	-13780
olitical	-13781
▁Neuro	-13782
å¤	-13783
▁donation	-13784
▁Eagles	-13785
▁Give	-13786
Tom	-13787
▁substantially	-13788
▁License	-13789
▁Ja	-13790
▁grey	-13791
▁Animal	-13792
▁ER	-13793
▁Und	-13794
▁keen	-13795
▁conclude	-13796
▁Mississippi	-13797
Engine	-13798
▁Studios	-13799
Press	-13800
overs	-13801
llers	-13802
▁350	-13803
▁Rangers	-13804
▁rou	-13805
erto	-13806
Ep	-13807
issa	-13808
ivan	-13809
▁seal	-13810
▁Regist	-13811
display	-13812
▁weaken	-13813
uum	-13814
▁Commons	-13815
▁Say	-13816
▁cultures	-13817
▁laughed	-13818
▁slip	-13819
▁treatments	-13820
izable	-13821
mart	-13822
▁Rice	-13823
▁beast	-13824
▁obesity	-13825
▁Laure	-13826
iga	-13827
Which	-13828
holder	-13829
▁elderly	-13830
▁pays	-13831
▁complained	-13832
▁crop	-13833
▁proc	-13834
▁explosive	-13835
▁Fan	-13836
▁Arsenal	-13837
Author	-13838
eful	-13839
▁meals	-13840
▁(-	-13841
idays	-13842
▁imagination	-13843
▁annually	-13844
▁ms	-13845
asures	-13846
Head	-13847
ikh	-13848
matic	-13849
▁boyfriend	-13850
▁Computer	-13851
▁bump	-13852
▁surge	-13853
▁Craig	-13854
▁Kirk	-13855
Del	-13856
mediate	-13857
▁scenarios	-13858
▁Mut	-13859
▁Stream	-13860
▁competitors	-13861
ÙĦ	-13862
▁Stanford	-13863
▁Resources	-13864
azed	-13865
bage	-13866
▁organis	-13867
▁Release	-13868
▁separately	-13869
▁habits	-13870
▁measurements	-13871
▁Close	-13872
▁accompany	-13873
▁gly	-13874
▁tang	-13875
▁Rou	-13876
▁plugin	-13877
▁convey	-13878
▁Challenge	-13879
oots	-13880
jan	-13881
▁curs	-13882
▁Relations	-13883
keeper	-13884
▁approaching	-13885
ping	-13886
Speaking	-13887
▁arrangement	-13888
▁VI	-13889
arettes	-13890
▁affecting	-13891
▁permits	-13892
because	-13893
▁useless	-13894
▁Hus	-13895
!!!!	-13896
▁destroying	-13897
Unfortunately	-13898
▁fascinating	-13899
Sem	-13900
▁electoral	-13901
▁transparency	-13902
▁Chaos	-13903
▁volunteer	-13904
▁statistical	-13905
▁activated	-13906
rox	-13907
Web	-13908
HE	-13909
▁Hampshire	-13910
isive	-13911
Map	-13912
▁trash	-13913
▁Lawrence	-13914
stick	-13915
Cr	-13916
▁rings	-13917
EXT	-13918
▁operational	-13919
opes	-13920
Does	-13921
▁Evans	-13922
▁witnessed	-13923
Port	-13924
▁launching	-13925
econom	-13926
wear	-13927
▁Particip	-13928
umm	-13929
cules	-13930
▁RAM	-13931
▁Tun	-13932
▁assured	-13933
▁binary	-13934
▁betray	-13935
▁exploration	-13936
▁Fel	-13937
▁admission	-13938
itated	-13939
Sy	-13940
▁avoided	-13941
▁Simulator	-13942
▁celebrated	-13943
▁Electric	-13944
¥ŀ	-13945
▁cluster	-13946
itzerland	-13947
health	-13948
Line	-13949
▁Nash	-13950
aton	-13951
▁spare	-13952
▁enterprise	-13953
▁DIS	-13954
cludes	-13955
▁flights	-13956
▁regards	-13957
▁ÃĹ	-13958
half	-13959
▁trucks	-13960
▁contacts	-13961
▁uncons	-13962
▁Climate	-13963
▁immense	-13964
NEW	-13965
occ	-13966
ective	-13967
▁embod	-13968
▁patrol	-13969
▁beside	-13970
▁viable	-13971
▁creep	-13972
▁triggered	-13973
verning	-13974
▁comparable	-13975
ql	-13976
▁gaining	-13977
asses	-13978
▁();	-13979
▁Grey	-13980
▁MLS	-13981
sized	-13982
▁prosper	-13983
"?	-13984
▁polling	-13985
▁shar	-13986
▁RC	-13987
▁firearm	-13988
orient	-13989
▁fence	-13990
▁variations	-13991
giving	-13992
▁Pi	-13993
ospel	-13994
▁pledge	-13995
▁cure	-13996
▁spy	-13997
▁violated	-13998
▁rushed	-13999
▁stroke	-14000
▁Blog	-14001
sels	-14002
▁Ec	-14003
,''	-14004
▁pale	-14005
▁Collins	-14006
terror	-14007
▁Canadians	-14008
▁tune	-14009
▁laboratory	-14010
▁nons	-14011
tarian	-14012
▁disability	-14013
▁Gam	-14014
▁singer	-14015
alg	-14016
▁Senior	-14017
▁traded	-14018
▁Warrior	-14019
▁infring	-14020
▁Franklin	-14021
▁strain	-14022
▁Swedish	-14023
▁seventh	-14024
▁Benn	-14025
▁Tell	-14026
▁syndrome	-14027
▁wondered	-14028
iden	-14029
++++	-14030
igo	-14031
▁purple	-14032
▁journalism	-14033
▁rebel	-14034
▁fu	-14035
blog	-14036
▁invite	-14037
rencies	-14038
▁Contact	-14039
Israel	-14040
▁Content	-14041
▁cheer	-14042
▁bedroom	-14043
▁Engineering	-14044
▁Queens	-14045
▁dwell	-14046
▁PlayStation	-14047
▁Dim	-14048
▁Colon	-14049
lr	-14050
▁operates	-14051
▁motivation	-14052
USA	-14053
astered	-14054
Core	-14055
▁Truth	-14056
olo	-14057
OSE	-14058
▁Memory	-14059
▁predec	-14060
▁anarch	-14061
▁1920	-14062
▁Yam	-14063
Ã¨	-14064
bid	-14065
▁grateful	-14066
▁excitement	-14067
▁treasure	-14068
▁longest	-14069
ctive	-14070
▁deserves	-14071
▁reserves	-14072
▁cops	-14073
▁Ottawa	-14074
▁Egyptian	-14075
anked	-14076
▁artif	-14077
▁hypothesis	-14078
:/	-14079
▁purchasing	-14080
▁lovely	-14081
HP	-14082
▁divide	-14083
▁strictly	-14084
▁questioning	-14085
▁taxpayers	-14086
▁Joy	-14087
▁rolls	-14088
▁Heavy	-14089
▁ports	-14090
▁magnetic	-14091
▁inflamm	-14092
▁brush	-14093
tics	-14094
âĪĴ	-14095
▁bottles	-14096
ppy	-14097
▁padd	-14098
ãĤ¯	-14099
million	-14100
▁devastating	-14101
▁compiled	-14102
▁medication	-14103
▁twelve	-14104
▁Perry	-14105
Space	-14106
imb	-14107
your	-14108
▁leaked	-14109
▁Tar	-14110
▁unity	-14111
▁infected	-14112
▁traveled	-14113
IDE	-14114
▁McDonald	-14115
txt	-14116
▁Princ	-14117
▁interven	-14118
▁Taiwan	-14119
▁Pow	-14120
▁bearing	-14121
▁Thread	-14122
▁zones	-14123
izards	-14124
unks	-14125
Chapter	-14126
llor	-14127
▁Â·	-14128
▁wounds	-14129
▁discretion	-14130
▁succeeded	-14131
iking	-14132
▁iconic	-14133
Call	-14134
▁screening	-14135
▁Mis	-14136
icts	-14137
▁ministers	-14138
▁separation	-14139
Player	-14140
▁bip	-14141
▁beloved	-14142
▁counting	-14143
▁Eye	-14144
around	-14145
inging	-14146
▁tablet	-14147
▁offence	-14148
inance	-14149
have	-14150
▁Info	-14151
▁Ninja	-14152
▁protective	-14153
▁Cass	-14154
Mac	-14155
▁Quality	-14156
North	-14157
▁ic	-14158
▁Cuba	-14159
▁Chronicle	-14160
▁Property	-14161
▁fastest	-14162
otos	-14163
▁Germ	-14164
OWN	-14165
▁boom	-14166
▁Stanley	-14167
erguson	-14168
▁clever	-14169
▁enters	-14170
mode	-14171
terior	-14172
▁Sens	-14173
▁linear	-14174
ARK	-14175
▁comparing	-14176
▁purely	-14177
▁safer	-14178
▁Potter	-14179
▁cups	-14180
RT	-14181
▁gluc	-14182
▁attributed	-14183
▁dupl	-14184
▁Pap	-14185
▁precious	-14186
▁pa	-14187
ictionary	-14188
▁Tig	-14189
▁Too	-14190
olutions	-14191
stan	-14192
▁robots	-14193
▁lobb	-14194
▁statute	-14195
▁prevention	-14196
western	-14197
160	-14198
▁Active	-14199
▁Maria	-14200
hal	-14201
None	-14202
ellar	-14203
▁KB	-14204
▁Partners	-14205
▁Single	-14206
▁Following	-14207
ango	-14208
acious	-14209
▁thou	-14210
▁kg	-14211
▁influential	-14212
▁Friends	-14213
Sur	-14214
ainted	-14215
▁forums	-14216
▁starter	-14217
▁citizenship	-14218
▁Election	-14219
onge	-14220
otation	-14221
osph	-14222
;;;;	-14223
utical	-14224
pur	-14225
eren	-14226
▁accusations	-14227
bitious	-14228
abbit	-14229
▁Ord	-14230
Posted	-14231
irk	-14232
▁sensitivity	-14233
iche	-14234
▁Amy	-14235
▁Fab	-14236
▁summit	-14237
▁pedest	-14238
▁rubber	-14239
▁agricultural	-14240
▁cancel	-14241
AE	-14242
▁inaug	-14243
▁contam	-14244
▁firmly	-14245
iw	-14246
stage	-14247
▁Kan	-14248
▁tier	-14249
▁invention	-14250
▁translated	-14251
▁Rules	-14252
Box	-14253
Twitter	-14254
IDS	-14255
▁pizza	-14256
▁debug	-14257
▁Drop	-14258
vs	-14259
▁horses	-14260
big	-14261
▁boring	-14262
▁hood	-14263
▁McCain	-14264
atched	-14265
▁Bros	-14266
▁skip	-14267
▁essay	-14268
stat	-14269
▁Legends	-14270
▁ammunition	-14271
auc	-14272
▁shooter	-14273
▁unh	-14274
▁supplied	-14275
▁generic	-14276
▁SK	-14277
iban	-14278
yrics	-14279
▁255	-14280
▁climbing	-14281
Former	-14282
▁flip	-14283
▁jumping	-14284
▁frustration	-14285
▁Terry	-14286
▁neighborhoods	-14287
▁median	-14288
bean	-14289
▁brains	-14290
Following	-14291
▁shaped	-14292
▁draws	-14293
▁altered	-14294
Jack	-14295
▁recipes	-14296
▁skilled	-14297
wealth	-14298
achi	-14299
election	-14300
▁behaviors	-14301
deals	-14302
▁Until	-14303
Fe	-14304
▁declaration	-14305
marks	-14306
▁Between	-14307
celona	-14308
▁reson	-14309
▁bubble	-14310
Among	-14311
▁imperial	-14312
GS	-14313
▁feminist	-14314
2005	-14315
▁Kyle	-14316
▁accounting	-14317
▁Tele	-14318
▁Tyr	-14319
▁connecting	-14320
▁rehab	-14321
▁Pred	-14322
sim	-14323
▁meantime	-14324
▁physician	-14325
MW	-14326
▁Campbell	-14327
▁Brandon	-14328
▁contributing	-14329
▁Rule	-14330
▁Weight	-14331
▁Nap	-14332
▁interactive	-14333
▁vag	-14334
▁helmet	-14335
▁Comb	-14336
four	-14337
▁shipped	-14338
▁completing	-14339
▁PD	-14340
PDATE	-14341
▁spreading	-14342
▁scary	-14343
erving	-14344
▁Gas	-14345
▁frank	-14346
school	-14347
▁romantic	-14348
▁stabil	-14349
Rob	-14350
▁accurately	-14351
▁acute	-14352
▁Hann	-14353
▁symbols	-14354
▁civilization	-14355
▁AW	-14356
▁lightning	-14357
▁considers	-14358
▁venue	-14359
▁×	-14360
▁oven	-14361
▁SF	-14362
his	-14363
▁nu	-14364
▁Learn	-14365
▁peoples	-14366
▁std	-14367
▁slee	-14368
▁slic	-14369
▁Statistics	-14370
▁corners	-14371
▁Baker	-14372
▁:)	-14373
mentation	-14374
olver	-14375
▁laughing	-14376
▁Todd	-14377
onde	-14378
▁Hills	-14379
▁nuts	-14380
▁Woman	-14381
plane	-14382
▁liver	-14383
▁Inside	-14384
Sorry	-14385
▁agrees	-14386
▁fundament	-14387
▁Fisher	-14388
▁auction	-14389
▁threads	-14390
glas	-14391
▁Basic	-14392
▁Nat	-14393
▁lacking	-14394
▁celebration	-14395
ju	-14396
▁silly	-14397
Euro	-14398
▁tatt	-14399
ighty	-14400
controlled	-14401
Test	-14402
▁Singh	-14403
▁rage	-14404
▁rhyth	-14405
offic	-14406
▁Phantom	-14407
▁headlines	-14408
▁responding	-14409
▁Morning	-14410
▁vitamin	-14411
▁boots	-14412
▁Site	-14413
alin	-14414
pi	-14415
▁viral	-14416
▁UC	-14417
DER	-14418
▁Sex	-14419
▁stocks	-14420
current	-14421
▁churches	-14422
▁Rare	-14423
▁Murphy	-14424
▁denial	-14425
▁Gaming	-14426
▁toug	-14427
▁nick	-14428
▁makers	-14429
▁Ronald	-14430
▁generous	-14431
▁Doc	-14432
▁Morris	-14433
▁transformed	-14434
▁Normal	-14435
▁104	-14436
▁Kickstarter	-14437
▁Upon	-14438
Online	-14439
▁IRS	-14440
▁wrap	-14441
▁loving	-14442
▁arrives	-14443
▁Due	-14444
▁heter	-14445
▁Made	-14446
▁rental	-14447
▁belongs	-14448
▁attorneys	-14449
▁crops	-14450
▁matched	-14451
ulum	-14452
oline	-14453
109	-14454
▁dispar	-14455
▁buyers	-14456
▁Cambridge	-14457
▁ethics	-14458
roups	-14459
▁justified	-14460
▁marginal	-14461
▁respected	-14462
winning	-14463
▁nodded	-14464
▁Serge	-14465
▁Former	-14466
Craft	-14467
################	-14468
▁Warner	-14469
▁dash	-14470
ete	-14471
▁entert	-14472
▁Escape	-14473
outheast	-14474
▁knees	-14475
▁Bomb	-14476
▁rug	-14477
Pass	-14478
▁attitudes	-14479
government	-14480
▁Prior	-14481
▁qualities	-14482
▁notification	-14483
▁Phone	-14484
lie	-14485
▁anticipated	-14486
▁Combat	-14487
▁Barry	-14488
▁1982	-14489
Users	-14490
oner	-14491
▁computing	-14492
▁Connecticut	-14493
▁lesser	-14494
▁peers	-14495
▁Cu	-14496
▁technically	-14497
▁submission	-14498
▁Universal	-14499
▁manually	-14500
ourge	-14501
▁respondents	-14502
▁BTC	-14503
▁Host	-14504
▁fare	-14505
▁Bird	-14506
▁receipt	-14507
also	-14508
▁jack	-14509
▁agriculture	-14510
▁skull	-14511
▁!=	-14512
▁passive	-14513
▁CI	-14514
▁societies	-14515
▁reminded	-14516
▁interference	-14517
Buy	-14518
▁âľ	-14519
gon	-14520
▁scrutiny	-14521
▁Witch	-14522
▁conducting	-14523
▁ãĥ	-14524
▁exchanges	-14525
▁Mitchell	-14526
▁inhabit	-14527
▁twist	-14528
BD	-14529
▁wherever	-14530
groupon	-14531
▁jokes	-14532
▁Benjamin	-14533
▁Random	-14534
frame	-14535
▁Lions	-14536
▁highlighted	-14537
▁Arkansas	-14538
Ent	-14539
▁pile	-14540
▁prelim	-14541
gs	-14542
minded	-14543
▁felony	-14544
▁GA	-14545
▁Luck	-14546
▁practically	-14547
▁Bos	-14548
▁actress	-14549
Dam	-14550
▁Bou	-14551
▁visa	-14552
▁embedded	-14553
▁hybrid	-14554
▁earliest	-14555
▁sooner	-14556
social	-14557
▁HA	-14558
▁steep	-14559
▁disadvant	-14560
▁exploit	-14561
▁Egg	-14562
▁Ultra	-14563
▁necessity	-14564
Local	-14565
iege	-14566
▁dated	-14567
▁masses	-14568
▁subscription	-14569
pless	-14570
▁anonym	-14571
▁presumably	-14572
Blue	-14573
Their	-14574
asketball	-14575
▁Philip	-14576
▁comed	-14577
loaded	-14578
rane	-14579
▁reflection	-14580
China	-14581
▁extends	-14582
▁forming	-14583
▁unders	-14584
2001	-14585
▁grat	-14586
▁concentrations	-14587
▁insulin	-14588
▁secular	-14589
▁whilst	-14590
▁winners	-14591
Advertisements	-14592
▁deliberately	-14593
▁Working	-14594
▁sink	-14595
etics	-14596
dale	-14597
▁mandate	-14598
▁gram	-14599
▁vacation	-14600
▁warnings	-14601
ripp	-14602
▁THAT	-14603
▁commentary	-14604
▁intu	-14605
▁aest	-14606
▁reasoning	-14607
▁breakdown	-14608
▁Zombie	-14609
▁-->	-14610
▁Political	-14611
cott	-14612
▁thrust	-14613
▁technological	-14614
▁deciding	-14615
▁trafficking	-14616
Long	-14617
Welcome	-14618
prising	-14619
▁Communications	-14620
▁endors	-14621
▁swift	-14622
▁metabol	-14623
coins	-14624
resa	-14625
▁HTTP	-14626
▁enroll	-14627
▁Happy	-14628
usr	-14629
intage	-14630
▁["	-14631
uably	-14632
▁Material	-14633
▁repeal	-14634
Sept	-14635
kh	-14636
▁Modi	-14637
▁underneath	-14638
▁IL	-14639
shore	-14640
▁diagnosed	-14641
aceutical	-14642
▁shower	-14643
aux	-14644
▁Switch	-14645
▁Strength	-14646
▁jihad	-14647
national	-14648
▁trauma	-14649
ussy	-14650
oni	-14651
▁consolid	-14652
▁calories	-14653
▁Flynn	-14654
agged	-14655
168	-14656
▁Pink	-14657
▁fulfill	-14658
▁chains	-14659
▁notably	-14660
▁AV	-14661
Life	-14662
▁Chuck	-14663
mus	-14664
▁Urban	-14665
▁Hend	-14666
▁deposit	-14667
▁Sad	-14668
▁affair	-14669
ORK	-14670
ieval	-14671
▁FDA	-14672
▁trop	-14673
▁Overall	-14674
▁virtue	-14675
▁satisfaction	-14676
aund	-14677
▁lun	-14678
▁Switzerland	-14679
▁Operation	-14680
process	-14681
▁shook	-14682
▁counties	-14683
leased	-14684
▁Charlotte	-14685
112	-14686
▁transcript	-14687
▁redd	-14688
push	-14689
▁Hey	-14690
▁Analysis	-14691
["	-14692
▁alternatives	-14693
ardless	-14694
▁eleph	-14695
▁prejud	-14696
▁Leaf	-14697
Having	-14698
▁Hub	-14699
▁expressions	-14700
▁Volume	-14701
▁shocking	-14702
▁Reds	-14703
▁readily	-14704
▁planets	-14705
adata	-14706
▁collapsed	-14707
▁Madrid	-14708
▁irrit	-14709
ipper	-14710
▁Enc	-14711
▁Wire	-14712
▁buzz	-14713
▁GP	-14714
asha	-14715
▁accidentally	-14716
uru	-14717
▁frustrated	-14718
▁SA	-14719
▁hungry	-14720
▁Huff	-14721
▁labels	-14722
anto	-14723
▁EP	-14724
▁barriers	-14725
)|	-14726
▁Berkeley	-14727
▁Jets	-14728
▁pairs	-14729
▁Lan	-14730
James	-14731
▁Bear	-14732
▁humor	-14733
▁Liberty	-14734
▁magnitude	-14735
▁aging	-14736
▁Mason	-14737
▁friendship	-14738
umbling	-14739
▁emerge	-14740
▁newspapers	-14741
▁ambitious	-14742
▁Richards	-14743
aternal	-14744
▁1981	-14745
▁cookies	-14746
▁sculpt	-14747
▁pursuit	-14748
Location	-14749
▁scripts	-14750
pc	-14751
▁arrangements	-14752
▁diameter	-14753
▁loses	-14754
amation	-14755
▁liqu	-14756
▁Jake	-14757
arette	-14758
▁understands	-14759
▁Zen	-14760
vm	-14761
▁approve	-14762
▁wip	-14763
▁ultra	-14764
▁intend	-14765
▁DI	-14766
ascular	-14767
▁stays	-14768
▁Kor	-14769
▁Kl	-14770
▁investing	-14771
La	-14772
▁believing	-14773
bad	-14774
mouth	-14775
▁taxpayer	-14776
ãĥĥ	-14777
▁Quebec	-14778
▁lap	-14779
▁Swiss	-14780
drop	-14781
▁drain	-14782
iri	-14783
etc	-14784
ften	-14785
▁Nex	-14786
▁straw	-14787
▁screaming	-14788
▁counted	-14789
▁damaging	-14790
▁ambassador	-14791
century	-14792
▁prox	-14793
▁arrests	-14794
uv	-14795
ilateral	-14796
▁Charg	-14797
▁prescribed	-14798
▁independently	-14799
▁fierce	-14800
▁Baby	-14801
▁brave	-14802
▁suits	-14803
=>	-14804
▁baseline	-14805
▁Rate	-14806
▁islands	-14807
▁((	-14808
green	-14809
ixels	-14810
▁namely	-14811
▁Village	-14812
than	-14813
amy	-14814
Version	-14815
gmail	-14816
entials	-14817
▁Sud	-14818
▁Melbourne	-14819
▁arriving	-14820
▁quantum	-14821
eff	-14822
ropolitan	-14823
Tri	-14824
▁funeral	-14825
▁IR	-14826
ÃĥÃĤÃĥÃĤÃĥÃĤÃĥÃĤÃĥÃĤÃĥÃĤÃĥÃĤÃĥÃĤ	-14827
▁Cob	-14828
itably	-14829
▁turb	-14830
▁combo	-14831
Review	-14832
▁deployment	-14833
uity	-14834
▁Bott	-14835
▁invisible	-14836
▁rendering	-14837
▁unlocked	-14838
▁aqu	-14839
▁Vladimir	-14840
▁pad	-14841
▁Brain	-14842
▁Legacy	-14843
dragon	-14844
▁Kurdish	-14845
▁sounded	-14846
▁detained	-14847
▁DM	-14848
gary	-14849
▁daughters	-14850
▁disturbing	-14851
uka	-14852
▁Parad	-14853
▁tast	-14854
▁unfortunate	-14855
▁ul	-14856
emin	-14857
▁attendance	-14858
trl	-14859
▁parks	-14860
▁Memorial	-14861
▁Alice	-14862
othy	-14863
guard	-14864
▁Dise	-14865
▁Shan	-14866
▁Forum	-14867
Rich	-14868
▁shifted	-14869
uez	-14870
▁lighter	-14871
▁Magn	-14872
▁cod	-14873
Sch	-14874
hammad	-14875
Pub	-14876
350	-14877
▁Pokemon	-14878
▁prototype	-14879
▁unre	-14880
Base	-14881
▁Students	-14882
▁Reply	-14883
▁Communist	-14884
▁gau	-14885
▁Tyler	-14886
IZ	-14887
▁participated	-14888
▁suprem	-14889
▁Details	-14890
▁vessels	-14891
rod	-14892
▁tribe	-14893
keep	-14894
▁assumptions	-14895
▁pound	-14896
▁crude	-14897
▁Available	-14898
▁swimming	-14899
▁inclusion	-14900
▁advances	-14901
culation	-14902
▁conservation	-14903
▁overd	-14904
▁Buffalo	-14905
Article	-14906
edge	-14907
▁awa	-14908
▁Madison	-14909
▁sidew	-14910
▁catast	-14911
▁Krist	-14912
ucle	-14913
▁Highway	-14914
▁Terror	-14915
▁activation	-14916
▁unconscious	-14917
▁Satan	-14918
▁Susan	-14919
illery	-14920
▁arranged	-14921
iop	-14922
▁rumors	-14923
urring	-14924
think	-14925
▁Keith	-14926
▁Kind	-14927
▁avoiding	-14928
byn	-14929
nut	-14930
▁Speaker	-14931
rus	-14932
names	-14933
▁guilt	-14934
▁Olympics	-14935
▁sail	-14936
▁Mes	-14937
levant	-14938
▁Columbus	-14939
aft	-14940
City	-14941
South	-14942
▁Harvey	-14943
▁Pun	-14944
Several	-14945
▁mentally	-14946
▁impress	-14947
mount	-14948
▁Ubuntu	-14949
âĢĶâĢĶâĢĶâĢĶâĢĶâĢĶâĢĶâĢĶ	-14950
▁Superman	-14951
▁MPs	-14952
▁intentions	-14953
▁Racing	-14954
▁likelihood	-14955
▁240	-14956
Total	-14957
▁toys	-14958
▁Watson	-14959
▁urge	-14960
Lear	-14961
▁Paper	-14962
▁occurring	-14963
▁Beng	-14964
▁Cert	-14965
▁stones	-14966
Tim	-14967
▁Twin	-14968
zb	-14969
▁Dynam	-14970
▁politician	-14971
kens	-14972
▁Enterprise	-14973
UTERS	-14974
▁abol	-14975
▁refresh	-14976
▁arbitrary	-14977
pection	-14978
▁troubles	-14979
▁});	-14980
tv	-14981
▁pilots	-14982
▁distribute	-14983
▁audit	-14984
▁pause	-14985
original	-14986
▁rivals	-14987
Â£	-14988
Fig	-14989
TL	-14990
abil	-14991
rying	-14992
Lin	-14993
ioned	-14994
lon	-14995
▁fancy	-14996
▁crashed	-14997
▁tract	-14998
▁shed	-14999
▁consume	-15000
Based	-15001
download	-15002
init	-15003
▁voltage	-15004
Introdu	-15005
▁condemned	-15006
▁Finance	-15007
respect	-15008
▁excluded	-15009
▁establishing	-15010
heric	-15011
▁heritage	-15012
▁spectacular	-15013
▁unst	-15014
▁Snowden	-15015
▁Lane	-15016
San	-15017
▁protections	-15018
struction	-15019
incinn	-15020
▁macro	-15021
Custom	-15022
iosity	-15023
▁esp	-15024
▁functioning	-15025
▁mush	-15026
▁puzzle	-15027
▁ethical	-15028
Mal	-15029
▁governing	-15030
▁Ferguson	-15031
▁restored	-15032
▁stressed	-15033
▁Counter	-15034
▁Kas	-15035
clip	-15036
ANS	-15037
▁seiz	-15038
UK	-15039
byss	-15040
oldown	-15041
api	-15042
▁permanently	-15043
ounters	-15044
West	-15045
Through	-15046
Light	-15047
atoes	-15048
▁neat	-15049
▁cord	-15050
urer	-15051
▁severely	-15052
▁Aven	-15053
▁interrog	-15054
▁triple	-15055
Given	-15056
Number	-15057
▁arise	-15058
▁sher	-15059
plant	-15060
▁flower	-15061
▁Cou	-15062
▁ate	-15063
▁newer	-15064
bul	-15065
▁meanwhile	-15066
▁Lair	-15067
▁adjustment	-15068
▁Copyright	-15069
▁divers	-15070
iological	-15071
▁gamers	-15072
oat	-15073
▁historically	-15074
▁analog	-15075
▁longtime	-15076
▁prescription	-15077
▁Mist	-15078
▁Hyper	-15079
▁Maine	-15080
▁Deity	-15081
▁multipl	-15082
▁Reincarn	-15083
▁Hyd	-15084
▁Pic	-15085
Sil	-15086
rants	-15087
▁Cris	-15088
.;	-15089
({	-15090
ependence	-15091
▁recy	-15092
ateur	-15093
▁quad	-15094
▁glob	-15095
▁conced	-15096
team	-15097
▁capitalist	-15098
▁Lot	-15099
▁royal	-15100
▁Cyber	-15101
▁blacks	-15102
metic	-15103
riv	-15104
▁Danny	-15105
▁spo	-15106
▁RO	-15107
▁animated	-15108
rypted	-15109
▁Deputy	-15110
▁rendered	-15111
FE	-15112
▁streak	-15113
▁clouds	-15114
▁Doug	-15115
~~~~~~~~	-15116
▁discour	-15117
▁Veh	-15118
▁psychology	-15119
▁Journey	-15120
▁crystal	-15121
▁Frost	-15122
▁suspicion	-15123
▁relate	-15124
orus	-15125
▁Crypt	-15126
▁NVIDIA	-15127
comed	-15128
uting	-15129
incinnati	-15130
▁vulnerability	-15131
ostic	-15132
▁isolation	-15133
▁cooling	-15134
▁Coalition	-15135
▁119	-15136
Four	-15137
▁Deal	-15138
▁âī	-15139
semble	-15140
rament	-15141
▁Barcelona	-15142
▁102	-15143
▁cocaine	-15144
ocalypse	-15145
Feb	-15146
ogenic	-15147
▁mutation	-15148
▁cryptoc	-15149
▁Kel	-15150
▁Git	-15151
ais	-15152
▁sisters	-15153
ANK	-15154
▁activate	-15155
Ter	-15156
▁dread	-15157
ylon	-15158
▁propri	-15159
Aust	-15160
▁Default	-15161
▁outdoor	-15162
▁sheer	-15163
ceive	-15164
▁gently	-15165
Ð¾	-15166
Program	-15167
▁âĨĴ	-15168
▁vegan	-15169
▁Crus	-15170
▁responsibilities	-15171
▁HR	-15172
OLD	-15173
▁prevents	-15174
▁stiff	-15175
▁Were	-15176
▁athletic	-15177
▁Score	-15178
▁):	-15179
▁columns	-15180
▁Loc	-15181
available	-15182
▁Fram	-15183
▁Sessions	-15184
▁companion	-15185
▁packs	-15186
140	-15187
▁Knights	-15188
▁fart	-15189
▁streams	-15190
▁shore	-15191
▁appeals	-15192
▁Performance	-15193
haul	-15194
▁Stra	-15195
▁Nag	-15196
103	-15197
▁Transportation	-15198
BB	-15199
Ev	-15200
zan	-15201
Public	-15202
▁twin	-15203
ulsion	-15204
Mult	-15205
▁electro	-15206
▁statue	-15207
ationally	-15208
▁Nort	-15209
▁inspection	-15210
/*	-15211
igue	-15212
▁compassion	-15213
▁Tales	-15214
▁Stein	-15215
▁Screen	-15216
▁Bug	-15217
▁Lion	-15218
girl	-15219
▁withdrawal	-15220
▁objectives	-15221
▁bloody	-15222
▁preliminary	-15223
▁jacket	-15224
▁dimensions	-15225
▁Cool	-15226
▁Occup	-15227
▁wreck	-15228
▁doubled	-15229
anking	-15230
▁1975	-15231
▁glasses	-15232
▁Wang	-15233
prov	-15234
Path	-15235
connected	-15236
▁Multi	-15237
▁Norway	-15238
agonist	-15239
▁feared	-15240
▁touching	-15241
▁arguably	-15242
Â¯Â¯Â¯Â¯Â¯Â¯Â¯Â¯	-15243
▁NCAA	-15244
chem	-15245
▁spat	-15246
▁WWE	-15247
▁Cel	-15248
igger	-15249
▁attacker	-15250
▁Join	-15251
object	-15252
etta	-15253
▁eliminated	-15254
det	-15255
▁destruct	-15256
▁Lucas	-15257
ctuary	-15258
180	-15259
▁Brady	-15260
▁Blues	-15261
Bay	-15262
aukee	-15263
▁timeline	-15264
▁delegates	-15265
written	-15266
ufficient	-15267
▁shapes	-15268
Copyright	-15269
ouble	-15270
service	-15271
▁pione	-15272
▁colleges	-15273
▁rows	-15274
▁spite	-15275
▁assessed	-15276
360	-15277
▁lease	-15278
▁confidential	-15279
cker	-15280
▁Manning	-15281
▁Voice	-15282
▁sealed	-15283
▁calculate	-15284
NO	-15285
▁Assistant	-15286
▁teenager	-15287
ulent	-15288
atherine	-15289
▁mock	-15290
▁diamond	-15291
▁fest	-15292
▁switched	-15293
▁resume	-15294
▁Puerto	-15295
▁lanes	-15296
iration	-15297
▁Similarly	-15298
▁rod	-15299
▁Sel	-15300
▁Palace	-15301
▁Limited	-15302
eous	-15303
▁variant	-15304
▁ward	-15305
▁))	-15306
Show	-15307
OOK	-15308
Alex	-15309
▁Nep	-15310
bris	-15311
▁Wikipedia	-15312
▁exceptional	-15313
▁manages	-15314
▁Draw	-15315
Again	-15316
▁copper	-15317
utt	-15318
▁exports	-15319
▁portfolio	-15320
▁elevated	-15321
Rated	-15322
▁Otherwise	-15323
▁Tact	-15324
▁Shel	-15325
▁TX	-15326
"âĢĶ	-15327
▁resur	-15328
▁Wa	-15329
venant	-15330
▁monetary	-15331
people	-15332
Email	-15333
▁fifty	-15334
▁Sweet	-15335
▁Malaysia	-15336
▁confusing	-15337
▁Rio	-15338
uda	-15339
utenant	-15340
");	-15341
▁praised	-15342
▁volumes	-15343
turn	-15344
▁mature	-15345
▁nonprofit	-15346
▁passionate	-15347
▁Private	-15348
▁103	-15349
▁descend	-15350
ç¥ŀ	-15351
uffy	-15352
headed	-15353
Whether	-15354
rien	-15355
zech	-15356
beit	-15357
▁chrom	-15358
▁McM	-15359
▁dancing	-15360
▁eleg	-15361
▁Noticed	-15362
115	-15363
▁advocacy	-15364
ENTS	-15365
ambling	-15366
[...]
