<unk>	0
<s>	0
</s>	0
.	-2.42639
/	-2.54345
-	-2.60263
s	-3.1622
▁http	-3.33136
://	-3.33366
com	-3.82268
www	-4.12989
_	-4.22375
e	-4.25332
a	-4.50208
d	-4.60303
=	-4.61903
b	-4.62116
c	-4.75738
?	-5.10627
f	-5.15076
html	-5.15622
1	-5.19437
2	-5.20091
3	-5.28782
&	-5.31043
5	-5.31137
4	-5.39289
0	-5.41427
%	-5.4574
9	-5.54164
6	-5.56372
8	-5.57718
7	-5.61793
+	-5.66085
p	-5.70556
de	-5.80995
i	-5.91365
t	-5.93276
m	-5.93755
co	-6.05575
r	-6.08506
pdf	-6.09692
n	-6.15674
g	-6.1982
v	-6.23922
in	-6.27156
l	-6.27597
php	-6.27712
id	-6.28677
x	-6.32412
net	-6.38449
k	-6.40399
%2	-6.43931
o	-6.47929
,	-6.48762
%20	-6.50086
q	-6.50949
org	-6.52806
y	-6.53815
ru	-6.61807
/?	-6.6277
h	-6.63204
jp	-6.65692
w	-6.66558
u	-6.67287
facebook	-6.68974
z	-6.69025
en	-6.69467
0%	-6.74351
it	-6.80189
search	-6.83333
the	-6.83359
fr	-6.87151
pinterest	-6.88168
uk	-6.88869
ca	-6.90154
pin	-6.91592
j	-6.92577
by	-6.95867
to	-7.01458
index	-7.01473
8%	-7.02363
and	-7.04681
cn	-7.06223
amazon	-7.07581
page	-7.0861
br	-7.09458
%3	-7.18159
la	-7.18794
of	-7.21476
au	-7.23528
be	-7.24183
3%	-7.28355
%5	-7.28621
product	-7.28629
pl	-7.29648
do	-7.29742
us	-7.34123
htm	-7.39393
nl	-7.39518
for	-7.40422
info	-7.41997
5%	-7.48785
shop	-7.4887
ba	-7.49048
ac	-7.49239
ar	-7.51979
item	-7.55093
bc	-7.55883
dp	-7.56584
doc	-7.58785
forum	-7.59478
=1	-7.60077
ch	-7.60104
no	-7.61364
author	-7.64827
me	-7.65659
on	-7.66853
:	-7.69025
photos	-7.69147
gr	-7.71017
tyjrepair	-7.72302
07	-7.72461
ad	-7.72675
3%83%	-7.73236
ec	-7.75101
pt	-7.75236
le	-7.75453
post	-7.75562
4%	-7.75784
manual	-7.75898
3%82%	-7.78319
7%	-7.7915
tag	-7.79507
my	-7.79958
11	-7.80673
news	-7.81033
ebay	-7.81859
type	-7.82759
cz	-7.84155
10	-7.84183
video	-7.87134
ce	-7.87749
new	-7.89698
00	-7.90119
01	-7.90378
da	-7.90524
view	-7.90654
home	-7.90839
aspx	-7.90877
at	-7.90945
za	-7.91038
ed	-7.91117
bb	-7.91851
af	-7.92955
tv	-7.93175
ab	-7.95343
blog	-7.95752
book	-7.95914
aa	-7.9592
20	-7.96576
list	-7.96869
er	-7.97678
bd	-7.97944
online	-8.00134
24	-8.00371
pro	-8.01247
ro	-8.0207
or	-8.03122
detail	-8.043
th	-8.05057
mx	-8.05126
18	-8.0549
%238%	-8.07333
%7	-8.07836
public	-8.08319
cc	-8.0836
=1&	-8.08406
go	-8.10005
12	-8.1049
make	-8.10707
ne	-8.10814
29	-8.10963
bf	-8.11578
9%	-8.12029
action	-8.13121
ja	-8.13645
edu	-8.1447
watch	-8.14962
kr	-8.14996
all	-8.16076
al	-8.16356
ko	-8.16834
reviews	-8.18153
16	-8.18751
fi	-8.18753
6%	-8.19432
13	-8.19684
un	-8.19735
et	-8.2057
21	-8.20745
site	-8.20826
ly	-8.21086
jobs	-8.21161
19	-8.21613
25	-8.22612
name	-8.22612
an	-8.23397
app	-8.23597
30	-8.2373
user	-8.23892
=&	-8.24041
14	-8.24275
category	-8.24427
ip	-8.24807
phone	-8.2481
tr	-8.25279
service	-8.25443
15	-8.25577
na	-8.25878
%8	-8.26371
add	-8.26383
50	-8.27901
with	-8.28262
gov	-8.29136
youtube	-8.29184
17	-8.29354
nz	-8.29473
brand	-8.30133
ae	-8.30279
rtf	-8.31095
22	-8.32076
store	-8.33128
55	-8.33217
tw	-8.33438
re	-8.34129
sort	-8.34968
el	-8.35011
23	-8.36596
auto	-8.37161
40	-8.37322
pa	-8.37622
eb	-8.38201
28	-8.39682
free	-8.39748
ff	-8.40262
1%	-8.40402
hu	-8.40697
~	-8.41254
cf	-8.41409
set	-8.41593
cat	-8.41698
sk	-8.41709
dk	-8.41783
itm	-8.42017
97	-8.42035
26	-8.42129
products	-8.42671
posts	-8.42795
ma	-8.42816
27	-8.43426
top	-8.43543
catalog	-8.43606
filter	-8.44211
profile	-8.44303
fa	-8.45493
read	-8.45605
web	-8.4581
man	-8.45954
tg	-8.46594
02	-8.46783
04	-8.46853
ph	-8.46861
ua	-8.46878
hot	-8.47402
von	-8.47459
diagram	-8.47634
aliexpress	-8.47708
52	-8.47887
photo	-8.47994
cd	-8.48143
32	-8.48162
06	-8.48696
city	-8.48858
ie	-8.48869
90	-8.48985
download	-8.49055
35	-8.49568
hi	-8.5027
is	-8.50296
sale	-8.50661
03	-8.50929
zh	-8.51101
up	-8.5122
tripadvisor	-8.51226
il	-8.51325
eu	-8.51538
2%	-8.51761
hack	-8.51848
st	-8.51857
33	-8.51888
80	-8.52027
60	-8.52512
show	-8.53223
31	-8.53317
ob	-8.53597
93	-8.53703
db	-8.53733
09	-8.53764
books	-8.5411
36	-8.54647
du	-8.54679
ka	-8.54894
pg	-8.54921
fc	-8.55193
true	-8.55238
34	-8.55308
45	-8.55419
di	-8.56577
ir	-8.56811
44	-8.56824
cp	-8.57491
05	-8.57558
200	-8.57634
51	-8.58009
gp	-8.58435
rh	-8.5877
37	-8.58891
42	-8.59056
cl	-8.59784
38	-8.59795
48	-8.59822
bi	-8.60139
from	-8.61107
99	-8.61386
70	-8.61675
wood	-8.6176
39	-8.63204
56	-8.63223
49	-8.63706
08	-8.63955
key	-8.64052
46	-8.64063
group	-8.64166
41	-8.64663
guide	-8.65824
64	-8.65957
47	-8.66059
test	-8.66287
88	-8.66706
75	-8.66941
ipshu	-8.6731
biz	-8.67491
vi	-8.67526
43	-8.67602
92	-8.678
number	-8.67801
report	-8.67862
art	-8.67892
54	-8.68079
%9	-8.68097
89	-8.68238
price	-8.68262
77	-8.68266
58	-8.6905
article	-8.6918
66	-8.69759
people	-8.6978
mm	-8.70052
85	-8.70396
car	-8.70432
ef	-8.70539
69	-8.70856
mi	-8.70897
alibaba	-8.71364
87	-8.71425
model	-8.7146
53	-8.71837
ref	-8.72201
diy	-8.72321
ing	-8.72454
cm	-8.72649
94	-8.72808
yahoo	-8.73142
65	-8.733
84	-8.73405
forums	-8.73516
57	-8.73567
91	-8.73925
98	-8.74089
96	-8.7444
black	-8.74453
63	-8.74697
95	-8.74859
59	-8.7519
mod	-8.75555
mp	-8.75633
ta	-8.75679
86	-8.75776
79	-8.75788
74	-8.75991
ps	-8.76168
=2	-8.76259
geschrieben	-8.76475
review	-8.77077
78	-8.77146
bo	-8.77333
83	-8.77894
gb	-8.78555
82	-8.78634
xn	-8.78663
62	-8.7881
61	-8.78916
81	-8.78966
68	-8.7925
73	-8.79362
67	-8.79794
debest	-8.80265
76	-8.80523
fe	-8.80543
parts	-8.80617
topic	-8.80765
72	-8.813
best	-8.816
cgi	-8.81703
login	-8.81881
hotel	-8.82085
=%	-8.8223
71	-8.83033
wp	-8.83203
;	-8.83414
location	-8.83626
size	-8.84096
asp	-8.84128
edition	-8.84363
ny	-8.84863
yw	-8.85042
club	-8.86021
job	-8.8615
world	-8.86452
pid	-8.8652
domain	-8.86616
ga	-8.87459
house	-8.87739
blogspot	-8.88068
les	-8.88293
lang	-8.88352
vn	-8.88783
por	-8.89201
rt	-8.89295
vigorprecision	-8.8937
repair	-8.89751
0%5	-8.89761
im	-8.89811
po	-8.90133
dr	-8.90333
mylife	-8.91423
cb	-8.91814
mo	-8.92048
red	-8.9258
board	-8.9261
dc	-8.92631
tid	-8.92747
te	-8.92769
wiring	-8.92788
school	-8.93007
fb	-8.93021
hz	-8.93052
24.	-8.93084
company	-8.93203
music	-8.93499
ok	-8.94099
pc	-8.94456
image	-8.94751
hd	-8.94867
si	-8.95104
asin	-8.95207
color	-8.95386
form	-8.95505
code	-8.96075
bar	-8.96167
-1-	-8.96196
order	-8.9677
table	-8.96904
ya	-8.9692
-2-	-8.97153
io	-8.97177
url	-8.97353
porn	-8.9748
map	-8.98072
ki	-8.98386
box	-8.98769
design	-8.98865
li	-8.98965
psahz	-8.98981
one	-8.99251
linkedin	-8.99271
sex	-8.99631
find	-8.99673
title	-9.00524
you	-9.00649
np	-9.00668
=%2	-9.00893
hr	-9.01362
fd	-9.01421
movie	-9.01728
content	-9.01802
=0&	-9.01844
rakuten	-9.01909
listing	-9.02173
df	-9.02174
media	-9.02276
data	-9.02642
100	-9.02681
sch	-9.03022
ni	-9.03128
bbs	-9.03145
ci	-9.0356
ve	-9.03722
kl	-9.03795
iu	-9.04115
bg	-9.04427
nc	-9.0446
tx	-9.05171
init	-9.05207
link	-9.05445
videos	-9.05476
mall	-9.05485
written	-9.05543
am	-9.05803
ic	-9.05807
twitter	-9.05911
mercadolibre	-9.0592
play	-9.06223
tech	-9.07309
life	-9.07408
epid	-9.0891
pubview	-9.09311
how	-9.09324
business	-9.105
comment	-9.10607
results	-9.10955
day	-9.11027
fl	-9.11103
ii	-9.11186
az	-9.1119
ri	-9.11653
so	-9.11973
cart	-9.1216
ge	-9.12206
ng	-9.12439
=2&	-9.12442
star	-9.12821
=3	-9.13046
date	-9.13219
op	-9.13501
indeed	-9.13839
share	-9.13954
bl	-9.13965
5%8	-9.14564
wiki	-9.14773
=0	-9.1506
ipv	-9.15226
pagesection	-9.15383
comments	-9.15522
ask	-9.1562
he	-9.15991
google	-9.16106
men	-9.1619
lt	-9.16366
und	-9.16649
ke	-9.16955
question	-9.17006
hk	-9.17089
hp	-9.17575
sales	-9.17694
pr	-9.17781
sport	-9.18504
time	-9.1859
con	-9.18813
ai	-9.18887
wt	-9.19102
china	-9.19498
bgc	-9.19683
wa	-9.20103
rd	-9.20142
tu	-9.2031
baidu	-9.20569
va	-9.20912
ti	-9.21311
cid	-9.21316
1%8	-9.21704
full	-9.22151
plus	-9.22229
white	-9.22733
ha	-9.22782
lx	-9.2291
live	-9.23354
tt	-9.2345
love	-9.23533
kw	-9.24142
6%9	-9.24384
area	-9.24386
plans	-9.24398
air	-9.24434
ho	-9.24549
big	-9.249
1&	-9.25006
ford	-9.25765
questions	-9.25853
ml	-9.25918
english	-9.25951
max	-9.25962
md	-9.2611
stock	-9.26684
8&	-9.27089
land	-9.27387
printable	-9.27403
property	-9.27584
mobile	-9.27795
archive	-9.27993
women	-9.28704
blue	-9.28809
lu	-9.28914
tk	-9.29136
san	-9.29517
ct	-9.29595
der	-9.29737
studio	-9.30246
mc	-9.30355
pe	-9.30371
node	-9.30373
em	-9.30661
game	-9.30787
buy	-9.31028
usa	-9.31167
per	-9.31216
gallery	-9.31599
newreply	-9.31706
mode	-9.31776
furniture	-9.31786
get	-9.31945
contact	-9.31972
your	-9.32328
light	-9.32334
=6	-9.32627
del	-9.32652
-2020.	-9.32819
print	-9.33096
answers	-9.3378
out	-9.33994
version	-9.34338
year	-9.34576
ator	-9.34913
gm	-9.34998
escrito	-9.35068
ku	-9.35115
pn	-9.35437
para	-9.35741
special	-9.35827
john	-9.35946
lh	-9.3607
ra	-9.36224
power	-9.36259
default	-9.36473
style	-9.36638
community	-9.36653
tel	-9.36756
thread	-9.37208
section	-9.37261
qid	-9.37341
country	-9.3747
kz	-9.38104
jd	-9.38105
%252	-9.38291
directory	-9.38389
redirect	-9.38778
toys	-9.3882
categories	-9.39081
mail	-9.39733
um	-9.40204
space	-9.4049
status	-9.40608
file	-9.40673
ty	-9.41101
xl	-9.41116
van	-9.41315
ky	-9.42116
xx	-9.42142
yes	-9.42203
ia	-9.42353
park	-9.42617
room	-9.42819
-3-	-9.43038
state	-9.43294
main	-9.43297
hm	-9.43477
episode	-9.43556
lo	-9.44037
yo	-9.44069
reddit	-9.44165
line	-9.44394
jb	-9.44459
/1/	-9.44778
oz	-9.44888
services	-9.44925
source	-9.44995
travel	-9.45255
sports	-9.45334
vote	-9.4534
digital	-9.45383
lv	-9.45418
=4	-9.45661
start	-9.45763
series	-9.45911
000	-9.46224
ww	-9.46281
center	-9.46476
super	-9.46746
3%81%	-9.46774
tl	-9.47074
market	-9.47107
pm	-9.47431
vk	-9.4753
ccl	-9.47613
case	-9.47789
wall	-9.48274
tumblr	-9.48345
tags	-9.48456
story	-9.48488
cloudfront	-9.48501
green	-9.4864
=(	-9.48681
details	-9.48869
age	-9.49227
threads	-9.49303
photodirectlink	-9.49414
entry	-9.49508
nj	-9.49716
value	-9.49751
items	-9.49809
inc	-9.50338
edit	-9.50447
work	-9.50503
332	-9.50509
member	-9.50666
648	-9.50671
ou	-9.50682
desc	-9.50735
amp	-9.50819
her	-9.50869
ak	-9.5097
fm	-9.50982
dtrzv	-9.51023
open	-9.51047
ck	-9.51333
ot	-9.51548
mt	-9.51559
collection	-9.5178
hl	-9.51788
server	-9.52227
ex	-9.52249
we	-9.52388
xxx	-9.52499
if	-9.52704
oh	-9.52864
7%9	-9.52974
health	-9.53078
nu	-9.53478
goo	-9.53525
pk	-9.53597
pi	-9.54034
high	-9.54584
om	-9.54619
cam	-9.54675
part	-9.54954
sub	-9.54998
address	-9.55223
mr	-9.55258
baby	-9.55436
care	-9.56004
field	-9.56058
jo	-9.56434
pp	-9.56521
season	-9.56538
instagram	-9.56562
target	-9.56564
ahr	-9.5685
kg	-9.56876
gl	-9.56912
recepty	-9.57179
mu	-9.575
about	-9.57547
vo	-9.5762
film	-9.57668
=5	-9.57921
living	-9.5809
message	-9.58116
zu	-9.58293
nkw	-9.58315
pic	-9.58324
ht	-9.58393
bor	-9.58766
pw	-9.58769
abuse	-9.58942
%26	-9.5905
5%9	-9.59052
food	-9.59279
qu	-9.59409
qa	-9.59425
mini	-9.59722
tube	-9.59733
yu	-9.59734
cy	-9.59777
kids	-9.59894
mk	-9.59941
ft	-9.60121
real	-9.60214
david	-9.60311
hy	-9.60462
lg	-9.60563
wi	-9.60612
can	-9.60769
long	-9.6083
browse	-9.60855
je	-9.61039
kd	-9.61535
yelp	-9.61661
ur	-9.61929
jsp	-9.62135
cars	-9.62139
die	-9.62149
over	-9.62568
showthread	-9.62881
fashion	-9.63328
vw	-9.63585
aw	-9.63814
document	-9.64253
py	-9.64289
word	-9.64637
mn	-9.64929
001	-9.64939
blogid	-9.64941
piece	-9.65032
lookup	-9.65047
postid	-9.65127
ry	-9.65301
reply	-9.65369
zw	-9.65476
events	-9.65526
pre	-9.65613
mckesson	-9.65803
gu	-9.65972
bed	-9.66211
restaurant	-9.66217
gt	-9.66238
blogger	-9.66322
back	-9.666
used	-9.67032
render	-9.67086
ov	-9.67135
gold	-9.67257
what	-9.67358
channel	-9.67385
xml	-9.67563
wikipedia	-9.68112
audio	-9.68144
good	-9.68213
movies	-9.68283
region	-9.68431
qq	-9.68434
su	-9.68487
law	-9.68968
pinili	-9.69063
wordpress	-9.69159
shoes	-9.69192
mms	-9.69219
rj	-9.6926
west	-9.69297
ver	-9.69525
aid	-9.69768
ld	-9.69817
michael	-9.69867
thebest	-9.69936
ebook	-9.69957
ectionalsleather	-9.70029
event	-9.70095
tn	-9.70182
wr	-9.70244
exam	-9.7078
mg	-9.71025
1%80%	-9.71097
keyword	-9.71193
chi	-9.71529
girl	-9.71602
bn	-9.71625
mit	-9.71664
lp	-9.71766
dog	-9.71966
history	-9.72034
reclinings	-9.72146
auction	-9.72345
tp	-9.72439
=3&	-9.73032
gi	-9.73122
lz	-9.73211
files	-9.73259
local	-9.73279
tm	-9.73538
entityid	-9.73552
kitchen	-9.73604
ag	-9.73812
dir	-9.73875
imgr	-9.73877
outdoor	-9.73914
kuek	-9.74025
old	-9.74079
csrft	-9.74114
xpcx	-9.74145
nd	-9.74218
way	-9.74278
led	-9.74498
query	-9.74581
team	-9.74601
bin	-9.74611
wishlist	-9.74809
rc	-9.74832
(	-9.74925
support	-9.75139
ju	-9.75229
goods	-9.75292
element	-9.75294
cu	-9.75375
av	-9.75428
album	-9.75606
dining	-9.75718
que	-9.75723
mid	-9.75797
direct	-9.76043
water	-9.76088
pu	-9.76165
who	-9.76263
now	-9.76287
+%	-9.7637
language	-9.76598
tz	-9.76786
hub	-9.76845
cr	-9.76919
nr	-9.77061
utf	-9.77069
showuserreviews	-9.77106
card	-9.77258
token	-9.77431
able	-9.77466
min	-9.77623
pcb	-9.77796
weather	-9.77882
pad	-9.77901
nm	-9.77923
ll	-9.78601
games	-9.78761
more	-9.78848
bj	-9.79033
north	-9.7926
pb	-9.79456
%2520	-9.79682
son	-9.79751
spankbang	-9.79912
mastermind	-9.80039
portal	-9.80084
family	-9.8015
kit	-9.80169
jt	-9.8045
gg	-9.80704
chm	-9.80759
ville	-9.80792
wine	-9.80845
num	-9.8089
like	-9.81026
pub	-9.81202
mark	-9.81311
radio	-9.8133
uy	-9.81441
1%82%	-9.81442
shirt	-9.81445
help	-9.81578
1/8%5	-9.81612
porno	-9.81734
other	-9.8187
global	-9.81938
dev	-9.82153
press	-9.82174
south	-9.82204
vin	-9.82222
nav	-9.8224
fun	-9.82242
dy	-9.82343
gen	-9.82755
tieba	-9.82791
master	-9.8286
km	-9.82862
bk	-9.82961
king	-9.82975
-4-	-9.82984
accessories	-9.83057
ln	-9.83273
ji	-9.83344
offer	-9.83349
kh	-9.83412
currency	-9.83478
jm	-9.83502
pet	-9.83537
fq	-9.83683
calculadora	-9.83816
nt	-9.84062
mar	-9.84157
core	-9.84276
allegro	-9.84436
etsy	-9.84759
1%5	-9.85016
poc	-9.85151
ah	-9.85272
pornhub	-9.8535
ut	-9.85529
141	-9.85569
yellowpages	-9.85808
system	-9.85921
2020.	-9.86205
motor	-9.86259
og	-9.86394
=10	-9.86438
gob	-9.86463
ul	-9.86598
ligou	-9.86729
ol	-9.86765
ton	-9.86777
shopping	-9.8722
anti	-9.87253
*	-9.8758
mercadolivre	-9.87773
yi	-9.87818
homes	-9.87999
office	-9.88108
jean	-9.88258
cover	-9.88384
street	-9.88441
mb	-9.88455
permalink	-9.88601
leather	-9.8866
bio	-9.88745
honda	-9.88837
format	-9.88865
hq	-9.88976
1000	-9.89066
person	-9.89143
gq	-9.89146
garden	-9.89424
mf	-9.89644
vb	-9.8969
fu	-9.89857
international	-9.89962
place	-9.90048
jpg	-9.90062
los	-9.90074
hash	-9.90136
auctions	-9.90305
wo	-9.90337
next	-9.90365
india	-9.9047
daily	-9.90604
paper	-9.90604
iz	-9.90629
sign	-9.90658
diabetes	-9.90664
xyz	-9.90677
zz	-9.90956
gw	-9.90967
whois	-9.91052
collections	-9.91074
chair	-9.91192
first	-9.91235
----------------	-9.91391
tab	-9.9141
icu	-9.91508
vintage	-9.91724
american	-9.91795
1%81%	-9.91956
single	-9.92135
cafe	-9.92167
ik	-9.92274
town	-9.9235
rn	-9.92464
gh	-9.92492
res	-9.92588
sur	-9.92731
qc	-9.92736
nf	-9.92772
compare	-9.92847
mat	-9.92977
bathroom	-9.93257
iv	-9.93405
ao	-9.93419
computer	-9.93871
jr	-9.93882
%253	-9.9401
par	-9.9407
engine	-9.94118
ist	-9.94268
paul	-9.94378
img	-9.94385
torrent	-9.94435
coffee	-9.9444
hh	-9.94494
front	-9.94601
8%8	-9.94876
result	-9.94958
uid	-9.95116
9%84%	-9.95123
gay	-9.95194
ze	-9.9533
mon	-9.9542
rv	-9.95426
friendlyta	-9.95466
brother	-9.95472
fo	-9.95509
uz	-9.95593
end	-9.95594
calendar	-9.95728
france	-9.95728
grand	-9.95792
tools	-9.95852
win	-9.95861
-10-	-9.95934
pan	-9.96051
che	-9.9618
non	-9.96278
plan	-9.96283
500	-9.96438
toyota	-9.96465
ter	-9.96489
journal	-9.96603
med	-9.96675
asc	-9.96679
extra	-9.97183
multi	-9.97277
dj	-9.97314
dan	-9.97589
girls	-9.97601
3%83%83%	-9.97767
solutions	-9.9796
3%83%9	-9.98076
body	-9.98144
stop	-9.98162
soft	-9.98173
images	-9.98312
olx	-9.98495
zl	-9.98516
bag	-9.98702
peter	-9.98977
wap	-9.99102
samsung	-9.99135
smart	-9.99195
zi	-9.9943
hotels	-9.99467
social	-9.99581
beach	-9.99699
lk	-9.99834
yy	-9.99882
%27	-9.99887
down	-10.0001
hill	-10.0017
pos	-10.0029
not	-10.0031
run	-10.0037
track	-10.0046
specs	-10.005
robert	-10.0056
timedtext	-10.0078
-5-	-10.0089
bay	-10.0095
beauty	-10.0098
talk	-10.0105
buyma	-10.0109
/20	-10.0111
9%8	-10.0111
head	-10.0119
county	-10.0125
war	-10.0128
player	-10.0148
are	-10.0154
sky	-10.0169
%0	-10.0169
ler	-10.0172
letaky	-10.0183
suncityxm	-10.0192
sofa	-10.0197
project	-10.0201
misc	-10.0203
text	-10.0204
james	-10.0205
hand	-10.0212
teen	-10.0216
2%5	-10.0219
fanwen	-10.0243
womens	-10.0249
panel	-10.0255
bu	-10.0257
rock	-10.0269
check	-10.0272
zo	-10.0283
bath	-10.0288
9%9	-10.0289
rose	-10.0295
silver	-10.0307
cv	-10.031
glass	-10.0313
science	-10.0315
fn	-10.0318
pcexpress	-10.0318
song	-10.0319
moto	-10.032
bmw	-10.032
wx	-10.0331
ram	-10.0343
chapter	-10.0355
uni	-10.0362
foto	-10.0381
dm	-10.0382
update	-10.0401
zx	-10.0417
infor	-10.0437
-10	-10.044
wh	-10.046
log	-10.0469
zy	-10.0471
goto	-10.0473
base	-10.0479
road	-10.0484
xhamster	-10.0489
cur	-10.0501
.)	-10.0505
nmbr	-10.0513
rail	-10.0517
pour	-10.0521
trade	-10.0527
vy	-10.0546
360	-10.0581
party	-10.0592
act	-10.0599
classic	-10.06
120	-10.0604
wang	-10.0614
click	-10.0618
numero	-10.0627
ring	-10.0653
taobao	-10.0665
purchase	-10.0677
cloud	-10.0685
popular	-10.0691
dvd	-10.0691
txt	-10.0711
made	-10.0718
last	-10.073
two	-10.0737
martin	-10.0744
casa	-10.0744
tj	-10.0745
bid	-10.076
apple	-10.0763
listado	-10.0769
uu	-10.0781
wu	-10.0783
promotion	-10.0797
mz	-10.08
golf	-10.0808
off	-10.0831
cheap	-10.0843
wy	-10.0875
metal	-10.0882
select	-10.0882
aquaty	-10.0883
/6-	-10.0892
jianlimoban	-10.0894
uc	-10.0896
software	-10.094
chat	-10.095
lot	-10.0952
vol	-10.0952
pf	-10.0956
ui	-10.0968
class	-10.0973
rent	-10.098
medical	-10.0986
tri	-10.0988
mw	-10.0996
iphone	-10.0999
tasks	-10.1007
hn	-10.101
nike	-10.1017
rb	-10.1021
easy	-10.1021
)	-10.1022
email	-10.1022
nh	-10.1037
lc	-10.1042
ten	-10.1053
ana	-10.1066
nw	-10.1072
mens	-10.1092
yc	-10.1096
dress	-10.1097
vip	-10.1117
archiwum	-10.1118
tabelog	-10.1121
french	-10.1127
mh	-10.1143
customer	-10.1156
gz	-10.1167
nb	-10.1181
yt	-10.1184
brown	-10.1185
hair	-10.1186
=7	-10.1187
3%83%8	-10.1206
rio	-10.1206
rx	-10.1215
ug	-10.1229
doctor	-10.1234
dmusic	-10.1243
fj	-10.1247
9%88%	-10.1262
module	-10.1263
vt	-10.127
,+	-10.1273
see	-10.1276
cfm	-10.1278
modern	-10.1301
management	-10.1304
fan	-10.1308
bank	-10.131
college	-10.1325
pages	-10.1345
users	-10.1347
hc	-10.1359
002	-10.1373
condition	-10.1401
east	-10.1404
oil	-10.1458
gems	-10.1474
=4&	-10.1475
inter	-10.1497
fox	-10.1517
-12-	-10.1519
dl	-10.1525
side	-10.1526
ray	-10.1527
request	-10.1547
lm	-10.1558
fuse	-10.1558
250	-10.1577
2&	-10.1578
thomas	-10.1578
ek	-10.1587
boy	-10.1592
ix	-10.1609
xxw	-10.1641
ap	-10.165
tokyo	-10.1656
vanity	-10.1661
host	-10.1662
library	-10.1675
noindex	-10.1678
bus	-10.168
training	-10.1683
inkjet	-10.1699
yulk	-10.1713
small	-10.1717
jk	-10.1739
sun	-10.1748
val	-10.1749
fh	-10.1773
retail	-10.1773
congress	-10.1778
iq	-10.1783
low	-10.1801
display	-10.1801
vod	-10.1814
gift	-10.1822
9%85%	-10.1825
vz	-10.1825
asermat	-10.183
account	-10.1835
pdfdir	-10.1838
ez	-10.1839
oo	-10.1848
this	-10.1852
may	-10.1853
eur	-10.1863
fid	-10.1873
ow	-10.1875
nn	-10.1899
right	-10.19
alpha	-10.1926
also	-10.1927
custom	-10.1938
tree	-10.1941
construction	-10.1961
tome	-10.1971
bike	-10.1984
gy	-10.1997
zm	-10.2001
yn	-10.2008
bw	-10.2009
drive	-10.2012
door	-10.2015
steel	-10.2027
bfe	-10.2049
maria	-10.2051
control	-10.2063
viewtopic	-10.2067
ley	-10.2067
little	-10.2082
mv	-10.2084
ye	-10.2084
saint	-10.2092
fy	-10.2107
lee	-10.2111
.)_.	-10.2116
kan	-10.2116
3499	-10.2117
month	-10.2121
rr	-10.2131
kk	-10.2134
rk	-10.2151
tradicni	-10.2152
tour	-10.2164
bel	-10.2165
original	-10.2172
storage	-10.2174
zone	-10.2183
fire	-10.2187
label	-10.2189
suche	-10.2198
101	-10.2213
premium	-10.2217
hj	-10.2225
ltd	-10.2234
hikkoshi	-10.2242
york	-10.2245
300	-10.2245
workshop	-10.2249
our	-10.2252
point	-10.2253
website	-10.2257
viewed	-10.2273
teachers	-10.229
anshinn	-10.229
genre	-10.2291
ali	-10.2301
rm	-10.2303
vu	-10.2308
lin	-10.2315
fx	-10.2317
natural	-10.2317
reg	-10.2327
kn	-10.2335
=5&	-10.2356
bt	-10.2382
groups	-10.2387
mynavi	-10.2411
dlya	-10.2412
cg	-10.2414
clothing	-10.2435
soa	-10.2444
limit	-10.2446
application	-10.2457
lab	-10.2458
equipment	-10.2481
port	-10.2487
stone	-10.249
mal	-10.2493
vp	-10.2493
maps	-10.2501
asia	-10.2512
iy	-10.2513
.(	-10.2528
geo	-10.253
owners	-10.2536
baito	-10.2537
pop	-10.2559
lw	-10.2563
nv	-10.2568
mam	-10.2568
some	-10.257
kj	-10.2574
material	-10.2583
double	-10.2585
money	-10.2588
that	-10.2595
ner	-10.2605
ice	-10.262
xz	-10.2624
__2	-10.2625
freeddns	-10.2635
expert	-10.2676
vr	-10.2676
change	-10.2676
zg	-10.2679
produto	-10.2684
ux	-10.2691
national	-10.2699
create	-10.2719
brandos	-10.2723
pack	-10.2727
pink	-10.2737
den	-10.2739
rw	-10.275
xi	-10.2764
ling	-10.2783
grade	-10.2791
od	-10.2797
ken	-10.28
ada	-10.2811
wm	-10.2813
hard	-10.2816
gas	-10.2825
dh	-10.2848
under	-10.2853
short	-10.2858
cx	-10.2858
smith	-10.2865
=15	-10.2872
united	-10.2874
electronics	-10.2886
electric	-10.2888
young	-10.2893
today	-10.29
path	-10.2902
london	-10.2911
league	-10.2912
lake	-10.292
machine	-10.2934
oferta	-10.2938
ban	-10.2945
ism	-10.2958
rating	-10.2975
picclick	-10.2976
github	-10.298
europe	-10.2982
quote	-10.2985
nub	-10.2986
tan	-10.3025
upload	-10.3028
wear	-10.3041
sea	-10.3054
central	-10.3069
addfilter	-10.3077
str	-10.309
hw	-10.3101
study	-10.3101
education	-10.3109
gn	-10.3126
ping	-10.3135
term	-10.3145
fast	-10.3149
daniel	-10.3156
pogoda	-10.3165
estate	-10.3171
customers	-10.3171
sexy	-10.3175
network	-10.3181
ig	-10.3183
archives	-10.3185
realestate	-10.3187
wd	-10.3188
oc	-10.319
gumtree	-10.32
amateur	-10.321
003	-10.3211
fabricante	-10.3212
jj	-10.3213
ian	-10.3216
galaxy	-10.3221
zdv	-10.3228
-6-	-10.3234
just	-10.3237
province	-10.3254
factory	-10.3266
rope	-10.3278
asian	-10.3286
tom	-10.329
complete	-10.3292
123	-10.3294
whocalled	-10.3296
menu	-10.3299
berg	-10.3314
tb	-10.3316
150	-10.3332
src	-10.3333
qi	-10.3347
anna	-10.3354
tc	-10.3372
research	-10.339
band	-10.3393
itemid	-10.3399
bee	-10.3402
aj	-10.3406
tool	-10.3413
gun	-10.342
canada	-10.3468
general	-10.3469
only	-10.3475
marketing	-10.3481
hiphop	-10.3486
dz	-10.3486
xc	-10.3491
ameblo	-10.3499
jan	-10.35
han	-10.3509
pot	-10.3511
110	-10.3514
mercedes	-10.3519
japan	-10.352
face	-10.3542
6%8	-10.3544
ski	-10.3555
truck	-10.3561
redtube	-10.3567
don	-10.3568
mom	-10.3575
spanish	-10.3576
artist	-10.3583
mary	-10.3585
objid	-10.3588
signup	-10.3588
categoria	-10.3592
audi	-10.3596
step	-10.3605
rl	-10.3608
wv	-10.3614
cap	-10.3622
oy	-10.3622
whitepages	-10.3633
america	-10.3633
800	-10.3649
pattern	-10.3657
rz	-10.3657
express	-10.366
xy	-10.3663
yh	-10.367
discussion	-10.3683
vg	-10.3684
unixtimestamp	-10.3689
xq	-10.3694
caili	-10.3711
booking	-10.3711
wg	-10.3713
mann	-10.372
ianyancha	-10.3732
german	-10.3732
position	-10.3732
nk	-10.3739
rebonline	-10.3748
shu	-10.3749
yr	-10.3751
footway	-10.3751
encoding	-10.3754
qt	-10.3771
cartreview	-10.3772
anal	-10.3774
dom	-10.3796
mac	-10.3799
videolar	-10.3807
jw	-10.3807
internet	-10.3811
japanese	-10.3814
gk	-10.3814
myaym	-10.3816
large	-10.3817
avakfi	-10.3817
hasanho	-10.3818
wholesale	-10.3827
123.	-10.383
brands	-10.3833
flow	-10.3836
._.(	-10.3844
idx	-10.3849
gd	-10.3852
jn	-10.3855
ave	-10.3863
yz	-10.3871
building	-10.3881
well	-10.3883
great	-10.3893
api	-10.3896
christmas	-10.3898
fuer	-10.3898
course	-10.391
wikileaks	-10.3922
nissan	-10.3935
zt	-10.3946
ev	-10.3955
dasins	-10.3955
ih	-10.3967
wedding	-10.3971
riandmi	-10.3973
church	-10.3977
mer	-10.398
xo	-10.3981
afriedman	-10.3994
csrftoken	-10.3996
spec	-10.3998
zip	-10.3998
manualdir	-10.4008
jack	-10.402
7%94%	-10.402
weight	-10.4022
xw	-10.4024
switch	-10.4041
lightinthebox	-10.4051
recept	-10.4058
fitness	-10.4061
sectional	-10.4067
marie	-10.4071
save	-10.4074
mq	-10.4088
syh	-10.4088
skin	-10.4089
handle	-10.4092
fk	-10.4107
met	-10.4108
manager	-10.4115
station	-10.4116
anne	-10.4119
ball	-10.4135
ideas	-10.4148
rf	-10.4149
%22	-10.4149
365	-10.4153
systems	-10.4156
rg	-10.4157
pod	-10.4174
dg	-10.4182
abis	-10.4195
richard	-10.4199
pv	-10.4213
fg	-10.4219
return	-10.4224
resource	-10.4237
39660	-10.424
shi	-10.4246
tek	-10.4247
herokuapp	-10.4255
une	-10.4259
37812	-10.426
adidas	-10.4267
35398	-10.4268
sell	-10.4273
imdb	-10.4277
9%86%	-10.4278
zq	-10.4279
pogody	-10.4281
searchweb	-10.4288
=20	-10.429
volume	-10.4296
cfec	-10.4297
prod	-10.4298
island	-10.4311
ox	-10.4314
ker	-10.4325
magic	-10.4336
!	-10.4342
hat	-10.4342
tvolink	-10.4343
700	-10.4343
cha	-10.4354
%90%	-10.4361
ym	-10.4392
140	-10.4394
eng	-10.4395
information	-10.4401
fur	-10.4403
pz	-10.4405
xm	-10.4407
ron	-10.4426
register	-10.4428
windows	-10.443
photography	-10.444
fit	-10.4443
ham	-10.4445
works	-10.4447
zp	-10.4453
xnxx	-10.4458
cross	-10.4465
novel	-10.4467
euro	-10.4467
patio	-10.4475
level	-10.4477
yamaha	-10.4478
jc	-10.4479
paris	-10.4479
ness	-10.4481
bad	-10.4491
hg	-10.45
lib	-10.4503
student	-10.4513
dingwei	-10.4516
colid	-10.4517
micro	-10.4518
mag	-10.452
_12	-10.4523
8723754	-10.4525
summer	-10.4528
reclining	-10.453
records	-10.4538
fish	-10.4541
maker	-10.4545
xp	-10.4546
zb	-10.4547
coliid	-10.4553
jl	-10.4564
issuu	-10.4567
gc	-10.4569
displaycondition	-10.4573
amzdp	-10.4574
guides	-10.4576
-100-	-10.4578
mix	-10.4586
stand	-10.4588
cond	-10.4589
cal	-10.4594
container	-10.4595
112	-10.4597
mega	-10.4601
ey	-10.4609
dating	-10.4614
var	-10.4622
christian	-10.463
most	-10.4632
/2019	-10.465
wl	-10.466
adult	-10.4667
designs	-10.4667
dia	-10.4669
exp	-10.4688
est	-10.4711
kijiji	-10.4712
kt	-10.4724
_13	-10.4724
msg	-10.4724
feed	-10.4726
rp	-10.4734
route	-10.4737
spring	-10.4741
loveseat	-10.4751
tim	-10.476
airbnb	-10.4771
reseau	-10.4773
3%83%88%	-10.478
answer	-10.479
california	-10.4796
cast	-10.4799
controller	-10.4803
loc	-10.4813
standard	-10.4825
-12	-10.4829
yx	-10.4832
400	-10.4832
350	-10.4833
redirecturl	-10.484
uri	-10.4841
discount	-10.4845
ant	-10.4846
texas	-10.4853
frame	-10.486
vid	-10.4867
lista	-10.488
mtu	-10.488
oa	-10.4881
iid	-10.4887
-20-	-10.4906
oem	-10.4911
gx	-10.4913
cool	-10.4913
fw	-10.4921
lf	-10.4922
010	-10.4922
holiday	-10.4924
angel	-10.4927
bh	-10.4932
microsoft	-10.4933
yl	-10.4933
avy	-10.4938
%80%	-10.494
night	-10.4949
dark	-10.495
chevrolet	-10.4956
fang	-10.4959
santa	-10.4967
gj	-10.498
ann	-10.4993
hx	-10.4997
tax	-10.5007
004	-10.5011
douban	-10.5013
xt	-10.5015
kp	-10.5036
/12	-10.5043
hv	-10.5048
sko	-10.5051
125	-10.5058
lr	-10.5064
px	-10.5079
database	-10.5079
=10001	-10.5087
mj	-10.5089
220	-10.5095
=12	-10.5114
projects	-10.5124
note	-10.5126
let	-10.5143
rss	-10.5148
interia	-10.515
planet	-10.5161
decor	-10.5166
sol	-10.5176
vm	-10.5179
telefon	-10.5184
lat	-10.5185
human	-10.5197
gel	-10.5203
court	-10.5215
lighting	-10.5224
fuck	-10.5225
lon	-10.5254
plastic	-10.5257
2017.	-10.5261
tips	-10.5262
heart	-10.5266
gid	-10.5284
members	-10.529
lan	-10.5292
zj	-10.5299
false	-10.5319
week	-10.532
simple	-10.5326
ion	-10.5328
william	-10.5337
lou	-10.534
magazine	-10.5343
mirror	-10.5343
articles	-10.5345
program	-10.5347
echo	-10.5347
force	-10.5348
fz	-10.5349
block	-10.5353
gnavi	-10.5354
tiodiningoutdoor	-10.5356
manufacturer	-10.5357
stats	-10.536
0%9	-10.5363
kods	-10.5365
hf	-10.5368
hb	-10.5373
technology	-10.5375
3%81%8	-10.5377
qui	-10.5378
caf	-10.5385
craft	-10.5397
uv	-10.5401
hof	-10.5406
xvideos	-10.5407
pen	-10.5411
lady	-10.5414
properties	-10.5416
citizen	-10.5421
advanced	-10.5423
userid	-10.5427
toggle	-10.5432
xr	-10.5435
supply	-10.5456
royal	-10.5462
sam	-10.5464
uw	-10.5465
less	-10.5465
hall	-10.5468
cj	-10.5471
count	-10.5471
wq	-10.5506
dis	-10.5513
1%83%	-10.5513
delete	-10.5513
shopee	-10.552
jz	-10.5521
kim	-10.5522
doi	-10.5534
sina	-10.5548
rate	-10.5551
android	-10.5554
vx	-10.5561
600	-10.5563
mlb	-10.5567
%89%	-10.5567
apk	-10.5573
llc	-10.5579
indian	-10.5579
happy	-10.5581
listings	-10.5585
inch	-10.559
wk	-10.5604
winter	-10.5606
_14	-10.5625
ren	-10.563
orange	-10.5631
hans	-10.5638
chuanlongmotor	-10.5641
180	-10.5642
grey	-10.5645
call	-10.5647
%25	-10.5648
scott	-10.5654
football	-10.5659
bestseller	-10.567
after	-10.5686
xiaoshuo	-10.5689
range	-10.5709
kv	-10.5714
%84%	-10.5721
mobi	-10.5727
george	-10.5742
ber	-10.5756
vv	-10.5761
jh	-10.5764
jg	-10.5765
wn	-10.5773
gv	-10.5778
6%96%	-10.5779
promo	-10.5791
total	-10.5793
olink	-10.5794
qr	-10.5801
wz	-10.5802
delta	-10.5804
qp	-10.5806
wc	-10.5809
xu	-10.5813
0,	-10.5814
will	-10.5819
florida	-10.5823
%97%	-10.5831
121	-10.5836
zen	-10.586
match	-10.5866
quality	-10.5889
tai	-10.5893
ij	-10.5895
desk	-10.5904
bv	-10.5907
rooms	-10.5913
stream	-10.5919
=6&	-10.592
round	-10.5924
xj	-10.594
river	-10.5942
kat	-10.5944
gear	-10.5944
gf	-10.5946
logsoku	-10.5946
jy	-10.5949
ay	-10.5953
yq	-10.5953
inn	-10.5956
creator	-10.5956
companies	-10.596
returnto	-10.5961
yk	-10.5966
unit	-10.597
-11-	-10.597
dw	-10.5977
woman	-10.5987
creative	-10.5988
polo	-10.6018
yj	-10.6019
rstlst	-10.6023
engineering	-10.6024
symptoms	-10.6029
105	-10.6039
picture	-10.6042
oi	-10.6044
89%3	-10.6058
pandora	-10.6059
wire	-10.6061
trans	-10.6066
5%85%	-10.6068
storeid	-10.6069
0&	-10.6078
zr	-10.6086
keywords	-10.6091
villa	-10.6092
registration	-10.6094
ize	-10.6097
bol	-10.6105
qz	-10.6107
practice	-10.6109
yp	-10.6118
srt	-10.6129
flower	-10.6137
cw	-10.6141
114	-10.6155
playlist	-10.6156
speed	-10.6157
worksheet	-10.6158
farmmachinery	-10.6159
jx	-10.6162
ben	-10.6166
har	-10.6167
240	-10.6172
need	-10.6183
camera	-10.6184
nabytek	-10.6186
nx	-10.6193
yg	-10.6193
gundem	-10.6195
tele	-10.6202
security	-10.6205
uh	-10.6213
=10&	-10.6213
loja	-10.6217
trip	-10.6224
eq	-10.6226
jv	-10.6227
jewelry	-10.6238
mrl	-10.6243
zn	-10.6243
diamond	-10.625
depositphotos	-10.6256
tor	-10.6267
farm	-10.6269
solid	-10.627
charles	-10.6271
quick	-10.628
fp	-10.6288
una	-10.629
private	-10.6295
ultra	-10.6301
nice	-10.6302
stories	-10.6303
heureka	-10.6309
.1688.	-10.631
iko	-10.6311
vl	-10.6313
102	-10.6319
feature	-10.634
buch	-10.634
personal	-10.6342
gal	-10.6344
pol	-10.6348
has	-10.6352
urban	-10.6358
mexico	-10.6358
square	-10.6362
-33	-10.6369
-7-	-10.637
oj	-10.6373
160	-10.6381
ger	-10.6382
cq	-10.6387
rezepte	-10.6389
algebra	-10.6397
busca	-10.6398
autos	-10.64
lj	-10.6401
centre	-10.6404
flat	-10.6414
tableware	-10.6416
finance	-10.6417
/14	-10.643
string	-10.6437
faq	-10.6443
loss	-10.6445
nova	-10.6454
cut	-10.646
facet	-10.6463
520	-10.6466
spokeo	-10.6467
qy	-10.6475
nik	-10.6477
xv	-10.6479
kai	-10.648
ment	-10.6488
marca	-10.6494
wf	-10.6496
jet	-10.6499
gate	-10.6507
attachment	-10.6508
manga	-10.6512
sites	-10.6519
174	-10.6528
write	-10.6532
pagina	-10.6533
007	-10.6534
toy	-10.6534
008	-10.6535
lite	-10.6539
wenku	-10.6543
deal	-10.6552
bedroom	-10.656
3%82%8	-10.6563
any	-10.6564
cum	-10.6566
0000	-10.6569
009	-10.6575
zzhengle	-10.6576
eye	-10.6602
subject	-10.6607
pageid	-10.6626
pj	-10.6628
yellow	-10.6631
echris	-10.6633
jose	-10.6635
albums	-10.6636
138	-10.6641
components	-10.6642
flag	-10.6643
join	-10.6645
nie	-10.6653
abc	-10.6658
tie	-10.6668
xh	-10.667
performance	-10.6671
115	-10.6685
treatment	-10.6685
vh	-10.6686
diesel	-10.6687
kancelarsky	-10.6718
lacey	-10.6721
pool	-10.673
tea	-10.6738
professional	-10.6741
component	-10.6741
ation	-10.6756
uenc	-10.6759
pay	-10.6764
srl	-10.6768
wooden	-10.6776
dance	-10.6781
look	-10.6781
demo	-10.6789
sleeve	-10.6791
iw	-10.6794
district	-10.6799
option	-10.6801
floor	-10.6807
104	-10.6815
108	-10.6816
ship	-10.6817
loveseatsofabed	-10.6818
tvstandsleather	-10.6819
sleeperottoman	-10.682
cotton	-10.6824
valley	-10.6829
uo	-10.683
005	-10.6832
uj	-10.6838
128	-10.6839
aq	-10.6844
fly	-10.6845
mount	-10.6848
201	-10.6857
bill	-10.6871
shape	-10.6873
benz	-10.6877
=30	-10.6879
duckdns	-10.6883
trucksales	-10.6893
outlet	-10.6896
fbid	-10.6899
sony	-10.6901
screen	-10.6911
div	-10.6912
=11	-10.6915
where	-10.6917
col	-10.6919
450	-10.6928
foursquare	-10.6936
recipes	-10.6946
barrel	-10.6947
130	-10.6957
vf	-10.696
oq	-10.6961
720	-10.6964
serie	-10.6965
jq	-10.6968
2019	-10.6972
pq	-10.6985
distance	-10.6988
hai	-10.6994
seo	-10.6994
desktop	-10.6995
750	-10.6996
=16	-10.7001
repartie	-10.7001
kar	-10.7005
kov	-10.7005
via	-10.7007
dam	-10.7012
dream	-10.7016
algo	-10.7022
wj	-10.7023
rq	-10.7023
oubangbeier	-10.7023
kx	-10.7026
2017	-10.7026
livre	-10.7029
;2020/	-10.704
247	-10.7042
_19	-10.7042
publication	-10.706
finder	-10.7063
chris	-10.7068
england	-10.7075
peoplefinders	-10.7088
gta	-10.7091
stainfantil	-10.7094
build	-10.7094
use	-10.7103
/100	-10.7107
wfd	-10.7107
barbarana	-10.7109
fabric	-10.7115
iii	-10.712
prefn	-10.7121
prefv	-10.7128
schem	-10.713
nq	-10.7134
sportwerk	-10.7138
auroraf	-10.7146
lar	-10.7146
yandex	-10.7162
pierre	-10.717
230	-10.7176
clip	-10.7176
111	-10.7181
103	-10.7184
guy	-10.7187
italian	-10.7193
ustiplast	-10.7195
qk	-10.7195
africa	-10.7207
horse	-10.7208
activity	-10.723
pri	-10.7239
tra	-10.7241
lit	-10.7246
qw	-10.7249
thr	-10.7255
admin	-10.7255
casual	-10.7258
=7&	-10.728
child	-10.7282
das	-10.7284
huaqiang	-10.7291
postreview	-10.7297
166	-10.7301
bazar	-10.7305
pydskm	-10.731
friends	-10.7311
vehicle	-10.7316
dodge	-10.7327
=14	-10.7347
tf	-10.7354
have	-10.7358
embed	-10.7358
082	-10.7368
lahorees	-10.7369
energy	-10.7371
aux	-10.7378
partner	-10.7379
solution	-10.7381
116	-10.7392
similar	-10.7399
zk	-10.7402
cabinet	-10.7403
fv	-10.7406
wheel	-10.7413
cho	-10.7416
unlimited	-10.7429
sel	-10.7433
identifier	-10.7434
dot	-10.7438
ero	-10.7443
resources	-10.7449
anime	-10.745
205	-10.7451
zillow	-10.7457
lock	-10.7462
yoga	-10.7469
ity	-10.747
sets	-10.7474
culture	-10.7476
168	-10.7481
bell	-10.7484
139	-10.7489
jegs	-10.7508
=13	-10.7518
focus	-10.752
origin	-10.7523
-15-	-10.7528
/16	-10.753
suzuki	-10.7533
medium	-10.7535
113	-10.7536
alex	-10.7539
170	-10.754
barcelona	-10.7546
deals	-10.7547
109	-10.7553
eva	-10.7554
083	-10.7561
006	-10.7565
realtor	-10.757
industrial	-10.7576
frank	-10.7577
battery	-10.7579
biquge	-10.7587
rad	-10.7592
sierra	-10.7596
related	-10.7605
vj	-10.7611
122	-10.7616
tur	-10.762
active	-10.7626
tec	-10.7643
corp	-10.7649
_15	-10.7651
wowon	-10.7656
lisa	-10.7658
650	-10.7661
gray	-10.7661
clusters	-10.7663
camp	-10.7665
235	-10.7667
iso	-10.7677
children	-10.7679
attr	-10.7681
255	-10.7689
academy	-10.769
secret	-10.7693
vc	-10.7705
-30-	-10.7707
gettyimages	-10.7707
ria	-10.7709
seat	-10.7713
self	-10.7723
2020	-10.7727
joy	-10.7733
far	-10.7736
animal	-10.7742
900	-10.7759
neu	-10.7763
zf	-10.7764
7%8	-10.7768
rec	-10.7784
three	-10.7785
172	-10.7789
escort	-10.7791
ql	-10.7791
999	-10.7797
referring	-10.7798
dale	-10.78
whoislookup	-10.7808
shipping	-10.7812
-50-	-10.7812
gratis	-10.7821
bz	-10.7821
basic	-10.7827
milf	-10.7827
147	-10.783
furnit	-10.7833
088	-10.7835
sessid	-10.7838
boat	-10.784
fuel	-10.7842
vie	-10.7844
249	-10.7849
reader	-10.785
129	-10.7854
template	-10.7857
wild	-10.7862
moon	-10.7866
chiebukuro	-10.7867
record	-10.787
jf	-10.7871
denounce	-10.7883
sop	-10.789
official	-10.789
era	-10.7896
417	-10.7896
ehealthme	-10.7897
latest	-10.79
letter	-10.7901
produkt	-10.7906
limited	-10.7921
choice	-10.7925
guru	-10.7928
race	-10.7933
sweet	-10.7944
rack	-10.7945
xk	-10.7951
kia	-10.7954
wb	-10.7956
volvo	-10.7961
-2019-	-10.7971
lyrics	-10.7973
diet	-10.7975
foundation	-10.7979
showmsg	-10.798
-24-	-10.7985
favorite	-10.7993
126	-10.7998
sao	-10.7999
theme	-10.8013
boats	-10.8025
mas	-10.8029
entretiens	-10.8029
times	-10.803
iron	-10.803
203	-10.8032
tank	-10.8038
drawer	-10.8039
chairs	-10.8039
servlet	-10.804
210	-10.804
chan	-10.8042
haus	-10.8044
_1_	-10.8047
feeds	-10.805
tq	-10.8054
australia	-10.8056
-2018-	-10.8058
thai	-10.8059
cock	-10.8059
190	-10.8063
kin	-10.8071
teacher	-10.8074
442	-10.8076
awnlyn	-10.8079
shopmarsh	-10.8079
connect	-10.8081
plate	-10.8087
istockphoto	-10.8088
6%97%	-10.8089
huantong	-10.8092
cable	-10.8092
chjersey	-10.8094
selected	-10.8104
ej	-10.8126
198	-10.8128
epub	-10.813
086	-10.8138
xf	-10.814
106	-10.814
rid	-10.8143
foot	-10.8145
near	-10.8146
was	-10.8147
wei	-10.8148
ung	-10.8151
deutsch	-10.8156
uvled	-10.8171
lane	-10.8173
agent	-10.8175
pussy	-10.8179
tile	-10.8184
arla	-10.8184
racing	-10.8184
scholar	-10.8186
math	-10.8195
logo	-10.8206
pictures	-10.821
simon	-10.8215
tee	-10.8216
501	-10.8224
nye	-10.8226
zhidao	-10.8242
detoulouse	-10.8244
233	-10.8249
mart	-10.8258
parallel	-10.8261
marine	-10.8273
pedia	-10.8283
pas	-10.8289
jeep	-10.8293
university	-10.8293
mike	-10.8296
coupon	-10.8305
thecarp	-10.8308
zc	-10.8313
eh	-10.8313
cup	-10.8313
wheels	-10.832
149	-10.8323
sound	-10.8332
ingwebsites	-10.8334
mono	-10.8335
garage	-10.8337
tire	-10.8338
ash	-10.8345
225	-10.8355
rosa	-10.8364
flash	-10.8364
xg	-10.8366
hyundai	-10.8372
qo	-10.8384
golden	-10.8391
salary	-10.8393
175	-10.8394
jim	-10.8394
chefkoch	-10.8403
skor	-10.841
/328	-10.8411
interior	-10.8413
god	-10.8415
cards	-10.8418
venta	-10.8419
245	-10.8419
shutterstock	-10.8419
lq	-10.842
tables	-10.842
dell	-10.8422
rwl	-10.8423
edge	-10.8426
development	-10.8435
train	-10.8437
female	-10.8438
colorstoneworks	-10.8439
=8&	-10.8439
peoplesearch	-10.8439
union	-10.8441
185	-10.8445
shower	-10.8445
jay	-10.8449
pur	-10.8451
earth	-10.8452
grid	-10.8455
176	-10.8458
woodworking	-10.8463
vision	-10.8466
fall	-10.8478
artikel	-10.8482
rover	-10.8483
publicrecords	-10.8483
tbl	-10.8491
casino	-10.8498
ate	-10.8499
118	-10.8502
223	-10.8502
mountain	-10.8503
delivery	-10.8504
%95%	-10.8504
rbc	-10.8507
salon	-10.8508
secure	-10.851
tours	-10.8511
vq	-10.8514
supplies	-10.8515
ful	-10.8521
showroom	-10.8522
=50	-10.8527
financial	-10.853
kq	-10.8535
162	-10.8537
_10	-10.8537
blood	-10.8544
learning	-10.8557
chevy	-10.8568
191	-10.8576
vic	-10.8576
/329	-10.8576
prime	-10.8577
017	-10.8584
leg	-10.8588
/(	-10.8595
fcategories	-10.8597
151	-10.8598
cate	-10.86
credit	-10.8605
qm	-10.8605
joseph	-10.8624
127	-10.8629
137	-10.8631
ent	-10.8631
236	-10.8651
pain	-10.8653
theblack	-10.8655
216	-10.8655
yan	-10.8657
badoo	-10.8658
155	-10.8659
imap	-10.8666
rbl	-10.8675
alp	-10.8676
eric	-10.8676
sitemap	-10.8684
bird	-10.8686
platform	-10.869
solar	-10.8692
195	-10.8695
goodreads	-10.8697
context	-10.8702
tar	-10.8704
chinese	-10.8706
zv	-10.8709
mature	-10.871
=25	-10.8711
012	-10.8715
qj	-10.8718
253	-10.8718
444	-10.8719
mont	-10.8722
clear	-10.8726
documents	-10.8727
joe	-10.8732
pass	-10.8738
+%26+	-10.8739
jump	-10.8741
ara	-10.8746
boss	-10.8747
lamp	-10.8749
touch	-10.8753
johnson	-10.8762
ud	-10.8769
144	-10.8772
why	-10.8778
jersey	-10.878
nature	-10.879
mizunoshop	-10.8797
signin	-10.8809
72%3	-10.8812
mai	-10.8813
access	-10.8814
driver	-10.8815
ink	-10.8818
nleytools	-10.882
320	-10.882
251	-10.8826
miss	-10.8827
418	-10.883
campus	-10.883
cafepress	-10.8833
145	-10.8843
142	-10.8849
dict	-10.8853
jordan	-10.8854
ovh	-10.8856
013	-10.8867
146	-10.887
085	-10.8871
reference	-10.8872
eeile	-10.8873
bet	-10.8882
192	-10.8882
organic	-10.8895
237	-10.8895
she	-10.8911
254	-10.8913
msgsend	-10.8914
kc	-10.8915
fverde	-10.8919
153	-10.8922
158	-10.8922
kategoria	-10.8924
cell	-10.8932
fresh	-10.8933
four	-10.8933
360.	-10.8933
qg	-10.8936
420	-10.8939
trailer	-10.8944
ellis	-10.8946
222	-10.8949
stan	-10.895
snow	-10.8953
131	-10.8955
'	-10.896
-16-	-10.8961
vector	-10.8961
bulb	-10.897
hashtag	-10.8974
179	-10.8978
height	-10.898
ajax	-10.8996
171	-10.8998
mazda	-10.9
boys	-10.9001
caller	-10.9006
massage	-10.9006
qn	-10.901
mil	-10.9011
safety	-10.9014
mir	-10.9023
legal	-10.9024
244	-10.9036
182	-10.9042
seriya	-10.9043
252	-10.9046
hbfdjxc	-10.9047
boutique	-10.9049
aya	-10.9049
8-%	-10.9053
capital	-10.9055
marc	-10.9059
sleep	-10.906
flowers	-10.9068
218	-10.9068
169	-10.9071
mumuji	-10.9073
fix	-10.9074
133	-10.9078
wind	-10.9086
186	-10.9088
081	-10.9092
spot	-10.9094
0-%	-10.9095
restaurants	-10.9101
ever	-10.9104
crystal	-10.911
770	-10.9113
wan	-10.9113
189	-10.9115
uq	-10.9119
cache	-10.9119
adam	-10.9122
$	-10.9122
jcid	-10.9123
jin	-10.9125
011	-10.9127
zzfydjc	-10.9128
ropa	-10.913
vor	-10.9132
164	-10.9148
3%83%95%	-10.9149
015	-10.915
empresa	-10.9157
arm	-10.916
spa	-10.9161
poly	-10.9167
volkswagen	-10.917
western	-10.9176
homedepot	-10.9176
=40	-10.9177
jones	-10.9189
karstadtsports	-10.919
bq	-10.9195
louis	-10.9195
prev	-10.9197
%83%	-10.9203
korean	-10.9204
streaming	-10.9206
apps	-10.9206
metro	-10.922
friend	-10.9222
231	-10.9224
fine	-10.9226
bob	-10.9234
777	-10.9235
124	-10.9248
12103_	-10.925
087	-10.9256
630	-10.9258
159	-10.926
qx	-10.9261
queen	-10.9265
raw	-10.9273
blu	-10.928
))/	-10.9284
183	-10.9298
239	-10.9299
consulting	-10.93
256	-10.931
ikyu	-10.9317
noticias	-10.9317
second	-10.9325
-2017-	-10.9326
meins	-10.9327
zhijia	-10.9343
232	-10.9345
117	-10.9349
078	-10.9354
maison	-10.936
dojo	-10.9367
solo	-10.9369
219	-10.9371
ano	-10.9374
sakura	-10.9381
skyrock	-10.9383
dental	-10.9395
fullscreen	-10.9396
hao	-10.9396
=9&	-10.9398
156	-10.9405
330	-10.9412
stephen	-10.9413
181	-10.9417
states	-10.9419
kor	-10.942
502	-10.942
monster	-10.9425
elite	-10.9428
eki	-10.9429
landmark	-10.9439
counter	-10.944
242	-10.944
sha	-10.9442
257	-10.9444
male	-10.9451
deviantart	-10.9453
ish	-10.9453
neo	-10.9457
290	-10.946
repquote	-10.9462
000000	-10.9466
cmd	-10.9468
tin	-10.9472
226	-10.9474
243	-10.9475
realty	-10.9476
215	-10.948
197	-10.9492
rug	-10.9501
know	-10.9501
184	-10.9509
loan	-10.9512
commercial	-10.9513
productid	-10.9515
888	-10.9526
167	-10.9528
119	-10.9534
electrical	-10.9535
qh	-10.9538
173	-10.9542
177	-10.9547
move	-10.955
arena	-10.9554
mobil	-10.9554
diary	-10.9555
semi	-10.9555
sta	-10.956
mitsubishi	-10.9561
stainless	-10.9563
2_2_	-10.9566
chicago	-10.9567
498	-10.9567
awhang	-10.957
returnurl	-10.9571
boots	-10.9571
designer	-10.9572
static	-10.9573
odezhda	-10.9586
italia	-10.959
deep	-10.9595
.51	-10.9595
pick	-10.96
%81%	-10.9608
kb	-10.9608
village	-10.9612
career	-10.9613
165	-10.9614
208	-10.9616
mor	-10.9617
agenda	-10.962
bang	-10.9621
neck	-10.9621
beautiful	-10.9623
%98%	-10.9624
antonio	-10.9629
row	-10.9634
202	-10.9635
cia	-10.9636
lunch	-10.9639
fat	-10.9643
andre	-10.9644
ster	-10.9648
lollipop	-10.9648
int	-10.9655
got	-10.9659
bible	-10.9666
expand	-10.9671
206	-10.9673
3%83%90%	-10.9681
238	-10.9688
280	-10.9688
291	-10.9689
roman	-10.9691
take	-10.9691
dictionary	-10.9694
trend	-10.9695
laptop	-10.9695
270	-10.9696
yv	-10.9696
safe	-10.9697
134	-10.9697
museum	-10.9701
gar	-10.9703
229	-10.9704
193	-10.9705
550	-10.9709
178	-10.9712
228	-10.972
157	-10.9721
trading	-10.9724
196	-10.9724
leon	-10.973
025	-10.9733
moda	-10.9734
kon	-10.9738
dry	-10.9745
aqua	-10.9747
1001	-10.9748
chu	-10.9751
246	-10.9754
gitlab	-10.976
learn	-10.9761
adc	-10.9761
227	-10.9762
075	-10.9763
154	-10.9764
187	-10.9764
pcs	-10.9767
publishing	-10.9769
chen	-10.9769
plant	-10.9777
vet	-10.9778
224	-10.9783
days	-10.9785
jam	-10.9785
-18-	-10.9787
rank	-10.9796
2016	-10.9806
bridge	-10.9807
zd	-10.9807
bon	-10.981
qf	-10.9811
uf	-10.9811
213	-10.9812
135	-10.9818
pure	-10.9819
xinchang	-10.9834
stool	-10.9839
=24	-10.9846
258	-10.9848
ting	-10.9849
gifts	-10.985
fort	-10.9851
dhgate	-10.9852
cor	-10.9852
radius	-10.9854
9%81%	-10.986
310	-10.9864
9-%	-10.9865
orderby	-10.9869
avto	-10.987
making	-10.9871
259	-10.9871
onsale	-10.9872
194	-10.9874
follow	-10.9875
fer	-10.9877
-14-	-10.9881
here	-10.9888
rich	-10.9892
=100&	-10.9893
qv	-10.9899
084	-10.9902
214	-10.9906
hit	-10.9912
agency	-10.9915
scheels	-10.9921
universal	-10.9921
cash	-10.9922
iframe	-10.9927
hay	-10.9929
seller	-10.993
014	-10.9936
drug	-10.9948
steve	-10.9958
pump	-10.9959
241	-10.9967
government	-10.9969
gia	-10.997
icon	-10.997
188	-10.9984
fil	-10.9984
cushions	-10.9985
purple	-10.9988
senior	-10.9993
try	-11.0001
chicken	-11.0009
but	-11.001
dick	-11.0013
204	-11.0013
=12&	-11.0018
136	-11.002
hospital	-11.002
colombia	-11.0028
ocean	-11.0028
-25-	-11.003
roy	-11.0031
berlin	-11.0032
415	-11.004
7%99%	-11.0053
disney	-11.0054
lux	-11.0058
jlid	-11.0065
265	-11.0065
sirka	-11.0066
%92%	-11.0068
destination	-11.0078
221	-11.0084
132	-11.0086
washington	-11.0091
212	-11.0096
sim	-11.0105
107	-11.0107
victoria	-11.0107
motorcycle	-11.0107
456	-11.0108
roll	-11.0109
medicine	-11.011
aaaabaaaaaf	-11.0115
electronic	-11.012
gem	-11.0127
152	-11.0128
ace	-11.013
248	-11.0132
cute	-11.0133
words	-11.0137
window	-11.0141
nov	-11.0158
aff	-11.0166
.123	-11.0175
insurance	-11.0181
xin	-11.0181
88.	-11.0186
century	-11.0194
colegio	-11.0196
beer	-11.0199
inventory	-11.0199
writing	-11.0202
nsw	-11.0203
234	-11.0204
=20&	-11.0205
=100	-11.0205
nude	-11.0206
society	-11.0214
industry	-11.0216
current	-11.023
colour	-11.0234
topsales	-11.0239
allen	-11.0251
#!	-11.0263
https	-11.0268
analysis	-11.0272
911	-11.0275
%91%	-11.0282
bench	-11.0287
notes	-11.0299
ottoman	-11.0304
flex	-11.0313
-2015-	-11.032
=18	-11.0321
ami	-11.0325
264	-11.0336
=17	-11.0338
-2016-	-11.034
hardware	-11.035
juan	-11.035
renault	-11.0354
143	-11.0363
370	-11.0373
retro	-11.0373
chart	-11.0379
header	-11.038
mis	-11.0388
avito	-11.0391
alan	-11.0392
oak	-11.0393
2018	-11.0401
taylor	-11.0403
kf	-11.0407
automotive	-11.0407
freedom	-11.041
024	-11.0417
=19	-11.0424
nick	-11.0425
accent	-11.0426
handbook	-11.043
315	-11.0432
avec	-11.0438
andreas	-11.0454
against	-11.0467
oid	-11.0468
katalog	-11.0469
pocket	-11.047
shirts	-11.0472
adapter	-11.0473
five	-11.0476
3%9	-11.0479
480	-11.0483
acr	-11.0488
dns	-11.049
schuhe	-11.049
cher	-11.0492
telius	-11.0505
watchlist	-11.0506
wie	-11.0507
zoom	-11.0509
dragon	-11.0511
linda	-11.0517
lagu	-11.0522
1168	-11.0522
zhuti	-11.0523
yf	-11.0527
brian	-11.0534
jon	-11.0547
carro	-11.0549
instant	-11.055
199	-11.0554
wallpaper	-11.0558
stein	-11.0561
074	-11.0567
wife	-11.0572
russian	-11.0576
osaka	-11.0584
death	-11.0586
themike	-11.0587
bags	-11.0589
petit	-11.0589
rod	-11.059
079	-11.0597
161	-11.0602
blonde	-11.0608
fishing	-11.0609
ans	-11.061
rsmith	-11.0611
expedia	-11.0611
padding	-11.0612
glassdoor	-11.0617
harness	-11.0619
sugar	-11.0625
holder	-11.0626
release	-11.0628
stage	-11.0646
corner	-11.0656
dresses	-11.0658
jacket	-11.0663
419	-11.067
andrew	-11.0675
mind	-11.0676
quotes	-11.0676
411	-11.0678
rom	-11.068
locale	-11.0686
chip	-11.0688
showpost	-11.0706
luxury	-11.0707
850	-11.071
button	-11.0711
bach	-11.0712
jun	-11.0725
gan	-11.0731
navi	-11.0734
jeans	-11.0739
nam	-11.0747
lead	-11.075
portable	-11.0757
lastname	-11.0759
pizza	-11.0759
transport	-11.076
666	-11.0772
reading	-11.0787
bit	-11.0788
148	-11.0789
209	-11.0791
kudos	-11.0793
running	-11.0793
final	-11.0795
idealista	-11.0796
cdn	-11.0798
555	-11.08
wilson	-11.0802
.))	-11.0803
hunter	-11.0805
poi	-11.081
560	-11.081
own	-11.0811
-2014-	-11.0815
ive	-11.0815
cost	-11.0818
michel	-11.0825
ftent	-11.0828
gui	-11.083
scene	-11.0831
character	-11.0831
,%20	-11.0835
fantasy	-11.0838
/123	-11.0841
resort	-11.0841
pics	-11.0845
211	-11.0845
catalogue	-11.0846
fiat	-11.0854
ola	-11.0854
adde	-11.0855
guitar	-11.0857
clinic	-11.086
plaza	-11.0866
ran	-11.0868
bot	-11.0874
pal	-11.0877
paint	-11.0879
cinema	-11.0881
217	-11.0883
nuvas	-11.0885
tip	-11.0885
cream	-11.0889
burg	-11.0895
/330	-11.0899
hosting	-11.0902
beta	-11.0915
damen	-11.0918
department	-11.0918
coast	-11.0925
__5	-11.0925
things	-11.0942
monotaro	-11.0947
sarah	-11.0949
zoo	-11.0951
163	-11.0951
016	-11.0964
legacy	-11.0985
likes	-11.0985
recruit	-11.0989
load	-11.099
ucfan	-11.0997
ticket	-11.0998
380	-11.1
turbo	-11.1
-60-	-11.1006
-2020-	-11.1006
cook	-11.1007
410	-11.1014
common	-11.1014
disneytu	-11.1016
076	-11.1021
nation	-11.1023
mel	-11.1025
auf	-11.103
mry	-11.1033
entertainment	-11.1037
forest	-11.1038
egg	-11.1038
walmart	-11.104
parfum	-11.1047
patrick	-11.1054
430	-11.1055
deutschland	-11.106
rev	-11.1061
kinder	-11.1063
when	-11.1067
viewthread	-11.107
templates	-11.1074
pixnet	-11.1078
439	-11.108
luis	-11.1081
-100	-11.1083
hentai	-11.1091
960	-11.1096
zhi	-11.1102
tits	-11.1108
virtual	-11.1113
crew	-11.1118
myfish	-11.1124
sap	-11.1127
lol	-11.1132
-13-	-11.1132
/133	-11.1133
meta	-11.1147
belt	-11.115
=4340	-11.1151
tre	-11.1156
ted	-11.1161
usb	-11.1174
grande	-11.1178
pat	-11.1182
police	-11.1183
jex	-11.1184
activities	-11.1189
addtolist	-11.1189
baseball	-11.1197
mei	-11.1205
mining	-11.1207
yyxcaaaaa	-11.1213
hero	-11.1217
686	-11.1219
hsn	-11.1224
kou	-11.1232
ani	-11.1232
bear	-11.1238
jav	-11.1252
chem	-11.1254
038	-11.1255
submitaction	-11.1257
yic	-11.126
bur	-11.1272
018	-11.1272
marka	-11.1273
sourcepage	-11.1278
hal	-11.1283
badges	-11.1289
8%80%83%	-11.1291
findcomment	-11.1296
mloca	-11.1297
italy	-11.1298
3%83%87%	-11.1298
exchange	-11.1299
coach	-11.1301
blogarchive	-11.1303
mill	-11.1307
novelupdates	-11.1308
tal	-11.1308
263	-11.131
dans	-11.131
painting	-11.1314
ella	-11.1317
(1)	-11.1318
places	-11.1332
msn	-11.1333
carolina	-11.1336
wen	-11.1338
avenue	-11.134
9%83%	-11.1342
ultimate	-11.1344
notebook	-11.1344
straight	-11.1345
laura	-11.1345
mia	-11.1346
260	-11.1347
tablet	-11.1349
340	-11.1356
brasil	-11.1356
dong	-11.1361
fee	-11.1365
sou	-11.1381
dem	-11.1381
specials	-11.1383
mama	-11.1383
clean	-11.1385
deck	-11.1389
java	-11.139
429	-11.1392
score	-11.1396
325	-11.1396
elizabeth	-11.1399
stuff	-11.1399
tricky	-11.141
rental	-11.141
-17-	-11.1412
device	-11.1418
worth	-11.1419
tex	-11.1421
333	-11.1421
3%83%86%	-11.1423
brake	-11.1423
357	-11.1427
brain	-11.1429
286	-11.143
302	-11.1432
312	-11.1432
apartments	-11.1434
memorial	-11.1436
protection	-11.1437
207	-11.1439
jar	-11.1449
null	-11.145
barn	-11.1451
lina	-11.1451
=50&	-11.1454
williams	-11.1459
201603_0	-11.1461
201602_	-11.1471
peugeot	-11.1473
soccer	-11.1475
tao	-11.1475
027	-11.1476
kal	-11.1481
ub	-11.1482
facilities	-11.1494
bing	-11.1495
transmission	-11.15
att	-11.1505
275	-11.1508
introduction	-11.1509
naya	-11.1512
perfect	-11.1513
lace	-11.1516
session	-11.1524
spacecp	-11.1527
kudoentity	-11.153
sensor	-11.1536
369	-11.1544
huawei	-11.1544
piano	-11.1548
019	-11.1555
orren	-11.1557
261	-11.1558
prefecture	-11.1559
gourmet	-11.1562
replacement	-11.1565
288	-11.1566
matt	-11.1566
bal	-11.1567
theater	-11.1568
620	-11.157
twin	-11.1572
abstract	-11.1575
262	-11.1579
2015	-11.1583
460	-11.1584
sara	-11.1586
bookmark	-11.1587
nan	-11.159
416	-11.1593
chintai	-11.1596
dor	-11.1597
webcam	-11.1599
lift	-11.161
roz	-11.1612
sheet	-11.1613
/115	-11.1613
canvas	-11.1614
512	-11.1616
haber	-11.162
267	-11.1622
donna	-11.1624
877	-11.1626
spirit	-11.1631
walk	-11.1638
=23	-11.1648
089	-11.1649
zer	-11.1649
alexander	-11.1651
inches	-11.1652
roblox	-11.1662
ddd	-11.1664
gang	-11.1666
rain	-11.1668
ques	-11.1671
2011	-11.1674
films	-11.1675
chain	-11.1678
bow	-11.1679
acc	-11.169
livingroom	-11.1692
hon	-11.1693
605	-11.1693
atharol	-11.1696
dsbeachclub	-11.1696
babe	-11.1698
wolf	-11.1698
580	-11.1707
321	-11.1707
808	-11.1722
996	-11.1726
276	-11.1738
send	-11.1744
poli	-11.1744
440	-11.1744
hom	-11.1745
myb	-11.1748
too	-11.1749
%86%	-11.175
jane	-11.1755
sem	-11.1757
468	-11.1757
boards	-11.1759
antique	-11.1762
kid	-11.1762
metric	-11.1765
768	-11.1766
540	-11.1768
sonic	-11.1782
typ	-11.1783
=28	-11.1784
palm	-11.1787
catid	-11.1789
tractor	-11.1792
tennis	-11.1792
8%82%	-11.1795
543	-11.1796
technologies	-11.1798
bez	-11.1799
miller	-11.1802
tweet	-11.1807
625	-11.1809
405	-11.181
recherche	-11.1811
floral	-11.1818
kindle	-11.1818
028	-11.182
healthcare	-11.1822
------------	-11.1829
608	-11.1833
vpn	-11.1833
ology	-11.1833
-19-	-11.1846
upholstered	-11.1847
fair	-11.1853
530	-11.1853
486	-11.1861
cleaning	-11.1861
tokopedia	-11.1862
029	-11.1863
reverse	-11.187
fab	-11.1872
077	-11.1873
390	-11.1874
lid	-11.189
adventure	-11.1892
rat	-11.1892
flight	-11.1894
schwarz	-11.1895
recipe	-11.1895
ier	-11.1896
annuaire	-11.1897
pipe	-11.1901
sample	-11.1902
9%87%	-11.1912
pra	-11.1917
trendytre	-11.1922
coop	-11.1925
wow	-11.1926
tam	-11.1927
404	-11.1935
zpid	-11.1936
036	-11.1943
_0&	-11.1946
lipo	-11.1946
gym	-11.1948
carbon	-11.1954
jasmin	-11.1956
occasion	-11.196
=21	-11.196
length	-11.1962
essay	-11.1965
femme	-11.1967
atlas	-11.1968
ribbon	-11.197
researchgate	-11.1972
=22	-11.1977
402	-11.1979
federal	-11.1979
-40-	-11.1982
arts	-11.1986
nach	-11.1994
289	-11.1996
285	-11.2001
295	-11.2002
hip	-11.2005
virginia	-11.2006
268	-11.2009
%94%84%	-11.2015
laser	-11.2019
bao	-11.2019
yang	-11.202
trk	-11.2029
lesbian	-11.2033
lifestyle	-11.2034
blade	-11.2039
grove	-11.204
staff	-11.204
kom	-11.2049
loworigin	-11.2052
emplois	-11.2069
creek	-11.2072
604	-11.2075
illustration	-11.2083
mari	-11.2085
soul	-11.2085
ridge	-11.2088
latitude	-11.2092
954	-11.2094
vista	-11.2095
305	-11.2103
:%22	-11.2105
470	-11.2126
psychologytoday	-11.2128
319	-11.2133
020	-11.2133
steamcommunity	-11.2139
than	-11.2147
hong	-11.2155
forex	-11.2158
kol	-11.2161
motors	-11.2163
980	-11.2165
168.	-11.2166
680	-11.2167
centro	-11.2168
490	-11.217
modell	-11.2171
arte	-11.2172
holland	-11.2174
472	-11.2176
rest	-11.2179
316	-11.218
naver	-11.218
survey	-11.2183
gil	-11.2185
338	-11.219
292	-11.2193
tic	-11.2196
363	-11.2201
bug	-11.2205
excel	-11.2206
future	-11.221
gaming	-11.221
graphic	-11.2222
=11&	-11.2222
studios	-11.2222
francais	-11.2223
paulo	-11.2224
451	-11.2224
458	-11.223
378	-11.2231
rfq	-11.2233
henry	-11.2237
fans	-11.2237
poster	-11.224
cpath	-11.2241
bookmaker	-11.2242
barbara	-11.2242
mur	-11.2243
bigr	-11.2243
alfa	-11.2244
073	-11.2245
christopher	-11.2248
electro	-11.2248
svf	-11.2249
pagesize	-11.2251
dao	-11.2258
997	-11.2269
slide	-11.227
%96%	-11.2274
790	-11.2274
basket	-11.2283
fol	-11.2286
hope	-11.2288
489	-11.2293
cleaner	-11.2298
740	-11.2298
shelf	-11.2299
kelly	-11.2299
rick	-11.2304
071	-11.2306
background	-11.2308
039	-11.2308
457	-11.231
ext	-11.2311
296	-11.2312
airport	-11.2312
bbc	-11.2318
monitor	-11.2323
503	-11.2324
fund	-11.2325
688	-11.2336
328	-11.2342
=36	-11.2343
mult	-11.2347
3%8	-11.2349
525	-11.2353
452	-11.2353
does	-11.2358
334	-11.2359
mah	-11.2359
json	-11.2362
gforce	-11.2364
kate	-11.2364
403	-11.2368
hen	-11.2371
sofas	-11.2372
272	-11.2376
849	-11.2377
vel	-11.238
kind	-11.239
evo	-11.24
/159	-11.2403
bei	-11.2404
jia	-11.2408
manufacturers	-11.2409
het	-11.241
317	-11.2411
zero	-11.2413
505	-11.2419
dealer	-11.2422
referer	-11.2426
novo	-11.2428
588	-11.243
random	-11.2431
-2013-	-11.2433
xiazai	-11.2433
696	-11.2435
birthday	-11.2437
festival	-11.2437
068	-11.2446
translation	-11.2448
hzsmyc	-11.2453
dai	-11.2454
drop	-11.2461
task	-11.2461
shoe	-11.2466
vita	-11.2467
makeup	-11.2468
acid	-11.2469
porter	-11.2469
266	-11.2471
ich	-11.2474
277	-11.2478
+-+	-11.2479
craigslist	-11.2479
bottle	-11.2483
nih	-11.2484
nor	-11.2484
shin	-11.2487
profil	-11.2487
475	-11.2489
zum	-11.2489
279	-11.2496
281	-11.2497
4%8	-11.2498
tabilist	-11.2501
%82%	-11.2502
gmc	-11.2503
leaf	-11.2506
dic	-11.2507
273	-11.2509
method	-11.251
760	-11.2512
pie	-11.2512
terra	-11.2512
nicovideo	-11.2513
contributions	-11.2515
kay	-11.2517
garcia	-11.2519
saw	-11.252
visit	-11.2523
import	-11.2525
308	-11.2526
extattr	-11.2526
902	-11.2528
mad	-11.2528
ally	-11.2529
690	-11.2533
obuv	-11.2535
375	-11.254
process	-11.2541
950	-11.2547
grill	-11.2548
820	-11.2551
ladies	-11.2552
883	-11.2554
width	-11.2558
say	-11.2561
%97%98%	-11.2561
528	-11.2561
peru	-11.2565
269	-11.2573
dubai	-11.2579
cybo	-11.2581
libro	-11.2585
colorado	-11.2588
699	-11.2589
810	-11.2592
635	-11.2593
odg	-11.2593
denavigation	-11.2594
costa	-11.2596
368	-11.2601
susan	-11.2604
isbn	-11.2609
660	-11.2609
653	-11.2609
376	-11.2614
xiao	-11.2614
278	-11.2616
/110	-11.2617
funny	-11.2621
leo	-11.2622
cities	-11.2628
dad	-11.2629
electedex	-11.2629
attrset	-11.263
owner	-11.2634
wave	-11.2637
maintenance	-11.2638
manuel	-11.2645
pvid	-11.2647
root	-11.2652
454	-11.2653
568	-11.2655
840	-11.2655
399	-11.2656
675	-11.2657
271	-11.2658
408	-11.266
nom	-11.266
nbclsz	-11.266
hart	-11.2661
russia	-11.2662
trim	-11.2663
lounge	-11.2664
tony	-11.2664
into	-11.2665
rey	-11.267
opel	-11.2671
flickr	-11.2679
667	-11.2689
wireless	-11.269
304	-11.2691
policy	-11.2691
alt	-11.2694
597	-11.27
til	-11.2703
438	-11.2712
rear	-11.2719
___	-11.2719
flights	-11.2721
485	-11.2726
ette	-11.2726
markt	-11.2727
065	-11.2729
around	-11.2731
lights	-11.2732
443	-11.2735
3%83%89%	-11.2738
comic	-11.2741
mania	-11.2744
tickets	-11.2747
mujer	-11.275
kara	-11.2751
1%26	-11.2753
tier	-11.2753
cape	-11.2756
usados	-11.2756
mate	-11.2757
canon	-11.2758
relevance	-11.2759
nord	-11.2767
366	-11.2769
=32	-11.277
prep	-11.277
060	-11.2772
studies	-11.2774
tap	-11.2782
2013	-11.2785
616	-11.279
2000	-11.2793
normal	-11.2799
023	-11.28
transfer	-11.2808
better	-11.2819
pricerange	-11.2822
=27	-11.2822
395	-11.2825
=15&	-11.2832
796	-11.2832
magazin	-11.2834
_2_	-11.2836
301	-11.2841
834	-11.2846
gram	-11.2849
wise	-11.2851
045	-11.2853
wol	-11.2854
336	-11.2856
654	-11.2857
dutch	-11.2861
integro	-11.2863
hua	-11.2865
searcher	-11.2865
589	-11.2866
651	-11.287
offset	-11.2871
782	-11.2872
441	-11.2872
heavy	-11.2873
497	-11.2875
510	-11.2878
horn	-11.288
644	-11.2884
pants	-11.2884
287	-11.2887
hang	-11.2889
756	-11.2893
3%83%91%	-11.2896
eagle	-11.2897
pencil	-11.2898
ware	-11.2898
587	-11.2898
camping	-11.29
lei	-11.2901
andy	-11.2902
models	-11.2902
431	-11.2906
june	-11.2909
sortby	-11.2909
645	-11.2914
kevin	-11.2916
327	-11.2917
pearl	-11.2919
401	-11.292
2014	-11.2923
modules	-11.2928
cmp	-11.2928
seek	-11.2932
turn	-11.2933
middle	-11.2938
cswitch	-11.2939
880	-11.2941
lik	-11.2946
oliver	-11.2946
kawasaki	-11.2948
758	-11.2953
572	-11.2953
ross	-11.2955
386	-11.2957
925	-11.2958
previous	-11.2958
347	-11.2959
283	-11.2966
auth	-11.2966
=16&	-11.297
3%83%97%	-11.2971
bosch	-11.2974
chang	-11.2976
harley	-11.2979
hop	-11.2981
carros	-11.2981
hey	-11.2982
rci	-11.2985
284	-11.2987
lenovo	-11.2991
753	-11.2991
cake	-11.2992
462	-11.2992
445	-11.2993
435	-11.2995
708	-11.2995
361	-11.2997
930	-11.2999
355	-11.3001
navy	-11.3001
duo	-11.3002
%93%	-11.3006
318	-11.3006
754	-11.3009
linux	-11.3013
left	-11.3016
048	-11.3016
europa	-11.3017
nia	-11.3019
rot	-11.3021
786	-11.3021
878	-11.3025
640	-11.3027
684	-11.3028
british	-11.3029
submit	-11.3029
940	-11.3036
hem	-11.3037
299	-11.304
1080	-11.3042
kel	-11.3045
hobby	-11.3048
hidden	-11.3052
montreal	-11.3052
313	-11.3055
cao	-11.3055
rel	-11.3059
2012	-11.3059
730	-11.3063
miami	-11.3064
wide	-11.3066
features	-11.3068
067	-11.3068
274	-11.307
/116	-11.307
432	-11.3074
grace	-11.3074
621	-11.3075
baitong	-11.3075
sek	-11.3076
monthly	-11.3076
august	-11.3076
9%82%	-11.3077
ncid	-11.3078
balance	-11.3079
karl	-11.3081
espanol	-11.3083
apartment	-11.3096
345	-11.3097
clips	-11.3097
speedwaymotors	-11.3101
monte	-11.3102
joven	-11.3103
widgettype	-11.3103
tracking	-11.3104
/120	-11.3104
trail	-11.3105
379	-11.3105
636	-11.3105
689	-11.3107
bella	-11.3109
feb	-11.311
798	-11.3111
483	-11.3113
476	-11.3114
8%9	-11.3117
993	-11.3122
570	-11.3124
lyn	-11.3126
780	-11.3127
657	-11.313
shared	-11.3131
ryan	-11.3139
coloring	-11.314
cylex	-11.3141
/130	-11.3147
591	-11.3152
448	-11.3155
424	-11.3156
487	-11.3158
%94%	-11.3158
482	-11.3159
/150	-11.3165
resume	-11.3166
710	-11.3172
499	-11.3176
verde	-11.3176
songs	-11.3182
564	-11.3183
lis	-11.3183
stat	-11.3184
concept	-11.3185
roger	-11.319
ming	-11.319
642	-11.3192
471	-11.3202
beijing	-11.3203
genealogy	-11.3205
890	-11.3206
7%95%	-11.3206
3%87%	-11.3208
hui	-11.3209
vinyl	-11.321
ning	-11.3212
606	-11.3213
=60	-11.3214
forecast	-11.3218
745	-11.3219
988	-11.322
969	-11.3221
freelancer	-11.3222
hose	-11.3222
=35	-11.3222
voice	-11.3225
385	-11.3226
phd	-11.323
990	-11.3232
pole	-11.3235
drama	-11.3235
306	-11.3238
735	-11.3242
698	-11.3243
779	-11.3245
453	-11.3251
elle	-11.3252
353	-11.3252
sul	-11.3256
298	-11.326
970	-11.3263
634	-11.3264
920	-11.3268
lix	-11.327
958	-11.3276
491	-11.3277
026	-11.3278
klein	-11.328
fwrd	-11.3282
phoenix	-11.3285
gender	-11.3287
dmovie	-11.3289
uploads	-11.3293
qty	-11.3294
vida	-11.3294
hant	-11.3294
392	-11.3297
466	-11.3297
had	-11.3298
649	-11.3304
guia	-11.3305
biodiversity	-11.3307
corporation	-11.3308
607	-11.3309
035	-11.3313
870	-11.3317
toronto	-11.3318
dogs	-11.3319
scale	-11.332
walker	-11.332
firstname	-11.3321
668	-11.3323
830	-11.3323
steven	-11.3323
austin	-11.3324
hello	-11.3324
ward	-11.3325
=01000500000050	-11.3326
luz	-11.3333
tum	-11.3334
788	-11.3336
rep	-11.3336
733	-11.3337
852	-11.3339
:1	-11.334
tmall	-11.334
nii	-11.3341
464	-11.3344
/153	-11.3344
628	-11.3344
kingdom	-11.3345
articulo	-11.3346
986	-11.335
amzn	-11.335
391	-11.3351
histoire	-11.3351
=30&	-11.3353
854	-11.3359
672	-11.3363
656	-11.3364
stars	-11.3364
recommendation	-11.3364
072	-11.3365
meteo	-11.3368
pieces	-11.3369
1-%	-11.337
335	-11.3372
cushion	-11.3376
343	-11.3376
737	-11.3379
982	-11.3379
germany	-11.3379
racer	-11.3381
expressrailtruth	-11.3381
cycle	-11.3383
unique	-11.3386
_(	-11.3388
gran	-11.3389
348	-11.3392
799	-11.3392
311	-11.3393
676	-11.3396
496	-11.34
514	-11.3402
964	-11.3402
noir	-11.341
healthy	-11.3412
853	-11.3414
ying	-11.3415
461	-11.3419
590	-11.3421
arch	-11.3422
374	-11.3423
906	-11.3425
352	-11.3429
featured	-11.343
293	-11.343
carlos	-11.3432
guest	-11.3434
752	-11.3436
conaval	-11.3439
908	-11.3439
army	-11.344
vertical	-11.344
726	-11.3448
chef	-11.345
dar	-11.345
aero	-11.3451
729	-11.3453
years	-11.3456
034	-11.3459
054	-11.3461
544	-11.3462
481	-11.3464
381	-11.3465
455	-11.3467
imoveis	-11.3468
jooble	-11.3474
battle	-11.3479
beyond	-11.3479
oro	-11.3479
294	-11.3481
hyper	-11.3481
701	-11.3481
engineer	-11.3482
sys	-11.3483
lost	-11.3484
born	-11.3484
ante	-11.3486
835	-11.349
359	-11.3493
428	-11.3493
809	-11.3494
665	-11.3495
ney	-11.3496
youth	-11.3497
tiso	-11.3499
492	-11.35
362	-11.3501
moi	-11.3502
harbour	-11.3503
559	-11.3505
901	-11.3506
581	-11.3508
465	-11.3508
feedback	-11.3509
nail	-11.3517
srchtxt	-11.3517
963	-11.3519
offers	-11.352
automatic	-11.3526
641	-11.3527
=26	-11.3529
searchsubmit	-11.353
948	-11.3531
070	-11.3532
282	-11.3539
622	-11.3541
421	-11.3542
arthritis	-11.3542
494	-11.3543
jesus	-11.3546
ceramic	-11.3548
elektro	-11.3553
char	-11.3553
478	-11.3557
531	-11.3557
389	-11.3558
670	-11.3561
tovar	-11.3563
567	-11.3564
amber	-11.3568
ride	-11.3568
hou	-11.3569
323	-11.3571
566	-11.3574
692	-11.3575
898	-11.3578
rise	-11.3579
409	-11.358
ura	-11.358
554	-11.3582
=1000	-11.3585
jackson	-11.3586
484	-11.3586
tem	-11.3586
/158	-11.359
emma	-11.3592
722	-11.3593
655	-11.3594
motion	-11.3595
very	-11.3596
welt	-11.3598
998	-11.3601
751	-11.3603
339	-11.3606
372	-11.3607
728	-11.3609
473	-11.361
504	-11.3614
tak	-11.362
827	-11.362
geni	-11.3621
681	-11.3621
344	-11.3622
fdb	-11.3624
trust	-11.3625
silk	-11.3626
+%28	-11.3627
346	-11.3628
odamay	-11.3632
551	-11.3635
firm	-11.3639
ooo	-11.3641
zalando	-11.3644
671	-11.3647
izap	-11.3649
322	-11.3649
buzz	-11.3653
tiger	-11.3658
wing	-11.3664
emp	-11.3668
303	-11.3669
373	-11.367
767	-11.3672
050	-11.3675
dayton	-11.3676
297	-11.3676
categoryid	-11.3677
hermanov	-11.3678
549	-11.368
447	-11.3682
638	-11.3683
calculator	-11.3684
383	-11.3686
therapy	-11.3689
slim	-11.3692
794	-11.3694
berry	-11.3695
put	-11.3696
offsite	-11.3696
3%81%9	-11.3697
lcd	-11.3698
empire	-11.37
725	-11.37
337	-11.3701
789	-11.3701
nsn	-11.3702
/10/	-11.3703
accesorios	-11.3706
064	-11.3707
southern	-11.3707
ika	-11.3708
trademe	-11.3708
tub	-11.3708
364	-11.371
797	-11.3713
349	-11.3715
sai	-11.3718
792	-11.372
427	-11.3722
foro	-11.3723
opuebla	-11.3725
links	-11.3726
navitime	-11.3727
775	-11.3728
circle	-11.373
cartoon	-11.3739
685	-11.3743
563	-11.3744
731	-11.3746
/151	-11.3749
627	-11.3754
chest	-11.3754
/152	-11.3754
bou	-11.3755
explorer	-11.3756
gene	-11.3756
rem	-11.376
schedule	-11.3762
910	-11.3763
2005	-11.3764
ranking	-11.3772
issue	-11.3772
365.	-11.3776
535	-11.3776
875	-11.3777
382	-11.3777
953	-11.3779
%88%	-11.3784
assistant	-11.3785
xing	-11.3786
819	-11.3787
explore	-11.3787
therapists	-11.3788
mint	-11.379
ari	-11.379
702	-11.3792
_6%3	-11.3794
965	-11.3794
karen	-11.3794
lay	-11.3796
467	-11.3796
%20-%20	-11.3798
422	-11.3806
/124	-11.3807
ohio	-11.3812
academic	-11.3813
basketball	-11.3815
inside	-11.3818
406	-11.3818
384	-11.3819
serial	-11.382
francisco	-11.3823
gor	-11.3823
politics	-11.3826
773	-11.3827
994	-11.383
705	-11.3831
508	-11.3834
livejasmin	-11.3846
cms	-11.3846
kino	-11.3847
tail	-11.385
889	-11.385
585	-11.3854
carl	-11.3857
765	-11.3858
prof	-11.3858
687	-11.3859
=25&	-11.3863
zol	-11.3864
georgia	-11.3865
939	-11.3867
desde	-11.3873
fed	-11.3874
heat	-11.3876
period	-11.3876
axn	-11.3881
477	-11.3882
643	-11.3882
oodle	-11.3882
488	-11.3882
3%5	-11.3884
659	-11.3885
610	-11.3886
floryday	-11.3887
522	-11.3888
479	-11.3888
dual	-11.3889
his	-11.3894
721	-11.3896
367	-11.3897
vyrobce	-11.3898
351	-11.3898
436	-11.3898
disc	-11.3899
331	-11.3899
521	-11.3901
371	-11.3903
592	-11.3903
712	-11.3905
615	-11.3906
532	-11.3907
507	-11.3912
652	-11.3914
norte	-11.3915
=29	-11.3915
owe	-11.392
309	-11.3921
conference	-11.3923
326	-11.3924
tipo	-11.3925
yun	-11.3926
398	-11.3928
lauren	-11.3928
623	-11.3929
sdjieshui	-11.393
661	-11.3931
414	-11.3932
popup	-11.3933
647	-11.3936
strong	-11.3937
495	-11.3938
762	-11.3942
gmbh	-11.3945
moore	-11.3945
eve	-11.3947
hotsearch	-11.3947
966	-11.3948
795	-11.3949
citroen	-11.3951
jennifer	-11.3951
/140	-11.3951
342	-11.3955
through	-11.3956
886	-11.396
hood	-11.3961
bestprice	-11.3961
413	-11.3963
377	-11.3968
operations	-11.3969
payments	-11.3976
linguee	-11.3977
947	-11.398
526	-11.3981
aaa	-11.3982
sears	-11.3982
545	-11.3983
314	-11.3983
744	-11.3984
tienda	-11.3987
generator	-11.3989
957	-11.3992
509	-11.3992
962	-11.3994
sterling	-11.3999
/126	-11.3999
658	-11.3999
sink	-11.4
pgn	-11.4005
clothes	-11.4009
showtopic	-11.4009
995	-11.4012
ald	-11.4013
institute	-11.4014
kengat	-11.4014
junior	-11.4014
housing	-11.4016
mot	-11.4017
doll	-11.4017
938	-11.4018
632	-11.4018
673	-11.4021
977	-11.4022
069	-11.4023
cine	-11.4025
412	-11.403
nursing	-11.403
oxford	-11.4033
tlw	-11.4033
stay	-11.4033
coin	-11.4034
wer	-11.4035
463	-11.4037
956	-11.4039
cuisine	-11.4043
tori	-11.4044
hire	-11.4044
mission	-11.4048
601	-11.4049
alias	-11.4051
674	-11.4051
pressure	-11.4051
phonechecker	-11.4052
mercury	-11.4055
vegas	-11.4055
558	-11.4055
using	-11.4057
358	-11.406
dcat	-11.4064
683	-11.4068
776	-11.4069
571	-11.4069
437	-11.407
855	-11.407
zozo	-11.4071
860	-11.4071
lion	-11.4075
734	-11.4077
boot	-11.4082
407	-11.4083
929	-11.4083
away	-11.4083
anderson	-11.4086
624	-11.4087
9%80%	-11.4092
618	-11.4094
robesonian	-11.4094
771	-11.4101
983	-11.4102
roma	-11.4102
516	-11.4103
ancestry	-11.4105
885	-11.4106
xls	-11.4108
sku	-11.4109
732	-11.4112
987	-11.4113
739	-11.4115
867	-11.4116
uma	-11.4121
912	-11.4122
fuji	-11.4122
wines	-11.4123
553	-11.4125
446	-11.4126
davis	-11.4127
562	-11.4127
parent	-11.4128
/122	-11.413
736	-11.4132
candy	-11.4132
rome	-11.4133
793	-11.4133
746	-11.4136
769	-11.4143
papers	-11.4143
2010	-11.4146
cooking	-11.4146
redlink	-11.4148
peak	-11.4151
098	-11.4152
506	-11.4153
887	-11.4154
cad	-11.4156
ras	-11.4156
ret	-11.4162
firma	-11.4163
bebe	-11.4167
575	-11.4168
1200	-11.417
972	-11.4172
951	-11.4177
dailymotion	-11.4179
dead	-11.4182
trucks	-11.4184
766	-11.4185
426	-11.4185
826	-11.4185
cherry	-11.4188
037	-11.4188
casad	-11.4188
enwam	-11.4189
dal	-11.4189
565	-11.419
boston	-11.419
356	-11.4191
863	-11.4193
556	-11.4194
354	-11.4194
corporate	-11.4195
checkprice	-11.4195
idea	-11.4195
wattpad	-11.4196
945	-11.4197
pharma	-11.4198
biscuit	-11.4198
tracker	-11.4204
vehiculos	-11.4204
ary	-11.4204
fkj	-11.4205
557	-11.4206
aire	-11.4206
julia	-11.4209
ios	-11.421
/111	-11.4216
7266.	-11.4216
836	-11.4216
aria	-11.4217
huaban	-11.4225
experience	-11.4228
772	-11.4231
working	-11.4232
869	-11.4233
741	-11.4234
monde	-11.4239
759	-11.4241
716	-11.4242
think	-11.4243
zoopla	-11.4244
meter	-11.4245
3%83%96%	-11.4246
/106	-11.4247
511	-11.4248
anthony	-11.4249
817	-11.425
/132	-11.425
ceneo	-11.4252
baike	-11.4262
houston	-11.4264
/107	-11.4264
theatre	-11.4267
stick	-11.4272
zxj	-11.4275
sud	-11.4276
944	-11.4278
wendang	-11.4278
449	-11.4278
546	-11.4278
541	-11.4279
118.	-11.428
lam	-11.428
bull	-11.4281
daterange	-11.4283
ugg	-11.4285
paperback	-11.4285
984	-11.4287
056	-11.4289
524	-11.4289
diego	-11.4292
394	-11.4293
ori	-11.4297
external	-11.43
946	-11.4305
andrea	-11.4306
superstan	-11.4306
903	-11.4307
5000	-11.4307
rim	-11.4307
_0_	-11.431
budget	-11.4312
alle	-11.4314
lincoln	-11.4314
mlm	-11.4314
664	-11.4317
063	-11.4324
923	-11.4324
och	-11.4324
detektywi	-11.4325
646	-11.4328
784	-11.4332
703	-11.4337
digi	-11.4337
862	-11.4338
madrid	-11.4341
mercari	-11.4341
781	-11.4342
341	-11.4344
nfl	-11.4345
sei	-11.4347
albert	-11.4351
watches	-11.4354
706	-11.4355
png	-11.4358
pets	-11.4359
533	-11.436
zur	-11.436
arizona	-11.4362
955	-11.4362
temp	-11.4363
967	-11.4364
hydro	-11.4364
425	-11.4364
lim	-11.4365
wet	-11.4367
epi	-11.437
831	-11.4375
quest	-11.4376
586	-11.4376
033	-11.4378
client	-11.438
838	-11.4384
884	-11.4385
lawyer	-11.4386
868	-11.4386
-(	-11.4389
mother	-11.4391
beau	-11.4392
802	-11.4395
alma	-11.4396
547	-11.4396
968	-11.44
accuweather	-11.4401
confundido	-11.4402
hole	-11.4405
voor	-11.4406
biblio	-11.4409
936	-11.441
639	-11.4411
168/	-11.4412
pagenum	-11.4414
pig	-11.4415
telephone	-11.4418
storm	-11.4418
080	-11.442
warehouse	-11.4421
761	-11.4422
747	-11.4427
894	-11.4428
medina	-11.4432
913	-11.4432
537	-11.4433
secrets	-11.4434
709	-11.4435
469	-11.4435
edward	-11.4437
intel	-11.4438
topics	-11.4439
preview	-11.4439
815	-11.4439
542	-11.4439
518	-11.444
825	-11.4442
791	-11.4445
sig	-11.4447
1%87%	-11.4448
396	-11.4449
602	-11.4449
rie	-11.445
801	-11.4451
stadt	-11.4452
checkout	-11.4454
6%80%	-11.4454
umeval	-11.4457
beck	-11.4461
zar	-11.4463
alta	-11.4463
tian	-11.4464
1997	-11.4464
679	-11.4465
ppt	-11.4465
mak	-11.4467
787	-11.4468
bakusai	-11.447
%85%	-11.4473
gpi	-11.4474
517	-11.4478
804	-11.4482
oblast	-11.4482
030	-11.4485
ard	-11.4485
xxl	-11.4487
diagnosis	-11.449
846	-11.4491
hardcore	-11.4494
rikunabi	-11.4496
sticker	-11.4496
806	-11.4498
704	-11.4505
director	-11.451
decoration	-11.4511
697	-11.4513
631	-11.4514
904	-11.4514
021	-11.4515
essential	-11.4516
arabic	-11.4518
693	-11.4519
mov	-11.4519
090	-11.4519
memory	-11.4521
579	-11.4522
raj	-11.4523
423	-11.4526
tong	-11.4538
434	-11.4538
agro	-11.4539
tagged	-11.4539
040	-11.4541
866	-11.4542
mla	-11.4543
rap	-11.4543
fucked	-11.4544
srp	-11.4546
wal	-11.4548
574	-11.4551
805	-11.4551
718	-11.4554
pagesjaunes	-11.4557
ruten	-11.4557
5%82	-11.456
764	-11.4562
057	-11.4563
bat	-11.4564
baker	-11.4568
console	-11.4568
-22-	-11.4569
szamok	-11.4571
433	-11.4571
cer	-11.4571
603	-11.4572
pafoundation	-11.4572
brook	-11.4574
459	-11.4575
rai	-11.4577
problem	-11.4578
kleinanzeigen	-11.4581
plug	-11.4581
617	-11.4582
896	-11.4588
mine	-11.4589
hide	-11.459
022	-11.4591
past	-11.4592
ireland	-11.4592
899	-11.4594
ivy	-11.4595
ding	-11.4597
952	-11.4598
/135	-11.4598
blowjob	-11.4598
561	-11.4609
crime	-11.461
postcount	-11.4612
515	-11.4615
577	-11.4616
asus	-11.4616
beds	-11.4623
637	-11.4624
534	-11.4626
ark	-11.4627
=33	-11.4627
gut	-11.4632
lewis	-11.4633
044	-11.4633
jptel	-11.4635
filterbysta	-11.4635
glosbe	-11.4637
cole	-11.464
pacific	-11.464
shell	-11.464
573	-11.464
weg	-11.4641
crm	-11.4641
gracecommunity	-11.4642
576	-11.4642
hunt	-11.4643
investment	-11.4644
593	-11.4644
523	-11.4646
783	-11.4647
677	-11.4649
wordunscrambler	-11.4653
633	-11.4654
merdb	-11.4655
595	-11.4657
329	-11.4658
842	-11.466
-21-	-11.4661
/128	-11.4662
942	-11.4664
blanc	-11.4665
saudiarabia	-11.4665
academia	-11.4666
kent	-11.4669
angeles	-11.467
803	-11.4671
42949	-11.4674
876	-11.4677
778	-11.4677
veoh	-11.4678
guard	-11.4681
821	-11.4681
927	-11.4682
pull	-11.4684
pmid	-11.4685
mehr	-11.4686
-2012-	-11.4686
march	-11.4687
tires	-11.4687
861	-11.4692
2006	-11.4693
schools	-11.4693
865	-11.4699
871	-11.4701
slip	-11.4705
%99%	-11.4713
387	-11.4714
lai	-11.4715
614	-11.4715
662	-11.4715
avi	-11.4717
bil	-11.4717
players	-11.4725
dish	-11.4728
dynamo	-11.4729
alice	-11.4729
hombre	-11.4733
324	-11.4733
393	-11.4734
714	-11.4735
611	-11.4739
/156	-11.4741
519	-11.4745
757	-11.4745
738	-11.4746
xingkong	-11.4746
816	-11.4748
388	-11.475
474	-11.4752
eee	-11.4753
portfolio	-11.4756
nic	-11.4757
717	-11.4759
742	-11.476
rou	-11.476
/113	-11.4761
941	-11.4764
bright	-11.4764
pendant	-11.4766
066	-11.4767
755	-11.4767
fdc	-11.477
nightstand	-11.477
844	-11.4774
theory	-11.4775
711	-11.4775
619	-11.4775
pov	-11.4777
pillow	-11.4779
873	-11.4779
werk	-11.4782
609	-11.4782
397	-11.4783
marco	-11.4784
marina	-11.4784
989	-11.4786
success	-11.4787
recliner	-11.4788
sharp	-11.4789
izhufu	-11.479
ctgid	-11.4791
915	-11.4796
047	-11.4797
1100	-11.4799
=34	-11.4801
596	-11.4801
1999	-11.4803
nina	-11.4804
893	-11.4808
695	-11.481
874	-11.4815
818	-11.4816
len	-11.4816
548	-11.4822
rip	-11.4824
pharmacy	-11.4825
jen	-11.4825
933	-11.4826
webmd	-11.4827
599	-11.4827
chemistry	-11.4828
ici	-11.483
fahrrad	-11.4835
industries	-11.4836
della	-11.484
582	-11.4844
583	-11.4845
748	-11.4852
493	-11.4853
928	-11.4855
columbia	-11.4856
fea	-11.4857
rustic	-11.4858
fucking	-11.4861
thi	-11.4863
cdburner	-11.4864
close	-11.4865
tron	-11.487
premier	-11.4871
307	-11.4872
touid	-11.4876
etforpet	-11.4882
myrxv	-11.4883
harry	-11.4884
552	-11.4885
5%88%	-11.4888
lst	-11.4888
539	-11.4892
bayern	-11.4892
%255	-11.4894
wmv	-11.4895
arc	-11.4895
678	-11.4898
charlotte	-11.4898
prince	-11.49
heritage	-11.49
sakerhet	-11.4907
613	-11.491
tis	-11.4915
mug	-11.4915
974	-11.4917
hor	-11.4917
production	-11.4919
gul	-11.4919
527	-11.492
dest	-11.492
ization	-11.4921
ische	-11.4929
yard	-11.4933
cion	-11.4935
visual	-11.4935
algerie	-11.4936
841	-11.4938
921	-11.4938
845	-11.4939
davidson	-11.4943
mol	-11.495
626	-11.495
743	-11.4951
mao	-11.4951
crazy	-11.4954
882	-11.4954
nutrition	-11.4959
823	-11.4959
763	-11.496
/134	-11.4963
philip	-11.4966
978	-11.4968
granada	-11.497
1500	-11.4971
upper	-11.4972
prom	-11.4974
839	-11.4975
otto	-11.4975
lattice	-11.4976
jonathan	-11.4978
communities	-11.4979
publications	-11.4982
584	-11.4983
/160	-11.4984
fac	-11.4986
723	-11.4988
/2018-	-11.4988
rei	-11.4993
springs	-11.4995
associates	-11.4999
cube	-11.5
=13&	-11.5001
edm	-11.5003
663	-11.5004
gif	-11.5004
comfort	-11.5005
rpc	-11.5005
991	-11.5007
rugs	-11.501
ium	-11.5012
emploi	-11.5017
usacanada	-11.5018
/102	-11.5022
/114	-11.5023
nurse	-11.5024
931	-11.5027
http	-11.5029
961	-11.503
669	-11.5032
ability	-11.5033
seattle	-11.5034
pak	-11.5034
couponcodes	-11.5037
058	-11.5037
rubber	-11.5038
runner	-11.504
svvko	-11.5045
926	-11.5051
notizie	-11.5054
printer	-11.5056
864	-11.5059
jeff	-11.5061
cote	-11.5061
715	-11.5062
829	-11.5064
gary	-11.507
iki	-11.5073
gro	-11.5078
lawn	-11.508
military	-11.5081
wil	-11.5084
subaru	-11.5085
redbubble	-11.5085
export	-11.5086
societe	-11.5088
half	-11.5091
docx	-11.5092
telefono	-11.5093
jason	-11.5093
layout	-11.5097
tang	-11.5104
fest	-11.5105
waterproof	-11.5106
cancer	-11.5115
tes	-11.5118
2007	-11.5121
822	-11.5123
meska	-11.5124
accessoires	-11.5128
visa	-11.513
749	-11.5133
amy	-11.5134
.163.	-11.5135
campaign	-11.5141
charger	-11.5142
811	-11.5146
oenvivo	-11.5147
3000	-11.5148
578	-11.5148
chrysler	-11.5149
tasti	-11.515
lopez	-11.5151
8%93%	-11.5152
785	-11.5153
tape	-11.5164
eat	-11.5164
scope	-11.5166
contract	-11.5166
1024	-11.5166
summoner	-11.5169
691	-11.517
jacques	-11.517
morgan	-11.5171
2004	-11.5172
hybrid	-11.5172
tiny	-11.5173
nat	-11.5174
837	-11.5176
belle	-11.5178
meyer	-11.5183
swiss	-11.5189
682	-11.5189
/105	-11.5191
981	-11.5194
catherine	-11.5194
gum	-11.5198
905	-11.52
robin	-11.5202
rnd	-11.5202
greek	-11.5205
973	-11.5205
northern	-11.5206
cooper	-11.5208
workout	-11.5209
inner	-11.521
landscape	-11.5214
legend	-11.5216
turkish	-11.5216
959	-11.5217
beige	-11.5218
lutheran	-11.5222
%83	-11.5223
/103	-11.5223
astro	-11.5224
bailvmeat	-11.5232
/119	-11.5232
hacker	-11.5235
/147	-11.5236
ucs	-11.5236
jie	-11.5237
724	-11.5244
bernard	-11.5256
caravancamping	-11.5256
filtro	-11.5258
yue	-11.5262
package	-11.5262
916	-11.5265
loverio	-11.5266
411.	-11.5268
loveseats	-11.5269
adressei	-11.5269
727	-11.5269
/155	-11.5272
couple	-11.5275
00&	-11.528
assets	-11.5281
tina	-11.5282
six	-11.5283
miinto	-11.5291
telefonu	-11.5295
536	-11.5297
beat	-11.5299
055	-11.53
peace	-11.5303
594	-11.5306
relevant	-11.5306
dra	-11.5307
wool	-11.532
ous	-11.5322
geneanet	-11.5323
agri	-11.5326
858	-11.5327
943	-11.5328
tray	-11.5331
/117	-11.5331
technical	-11.5333
569	-11.5333
students	-11.5334
)-	-11.5341
poker	-11.5344
jpnumber	-11.5344
pom	-11.5344
mundo	-11.5347
598	-11.5349
917	-11.5355
acode	-11.5358
stereo	-11.5362
iran	-11.5363
remote	-11.5364
liga	-11.5364
loop	-11.5364
shen	-11.5364
chtoza	-11.5364
bali	-11.5365
francois	-11.5366
talent	-11.537
tas	-11.5372
illinois	-11.5373
2009	-11.5375
teepublic	-11.5375
april	-11.5376
1688.	-11.538
/2017	-11.538
guns	-11.5382
/137	-11.5385
osa	-11.5385
adv	-11.5387
egypt	-11.5389
kong	-11.5394
ador	-11.5395
856	-11.5397
/112	-11.5398
fusion	-11.5399
895	-11.54
cbd	-11.5406
rendering	-11.5407
architecture	-11.5407
nad	-11.5407
coat	-11.5411
992	-11.5411
pornstar	-11.5411
/142	-11.5411
numbers	-11.5411
apo	-11.5413
cio	-11.5414
046	-11.5414
ati	-11.5415
nel	-11.5415
want	-11.5415
892	-11.542
qld	-11.5423
719	-11.5424
mob	-11.5424
salt	-11.5425
879	-11.5428
909	-11.543
ven	-11.5431
versus	-11.5439
kanagawa	-11.544
canadian	-11.5441
/118	-11.5441
practical	-11.5443
-150	-11.5446
=31	-11.545
529	-11.545
quiz	-11.5453
847	-11.5454
fpage	-11.5455
found	-11.5456
872	-11.5458
2013.	-11.5459
099	-11.546
bone	-11.5461
857	-11.5462
eea	-11.5464
answ	-11.5465
bcfre	-11.5467
848	-11.5469
814	-11.5475
tagid	-11.5475
fiona	-11.5475
without	-11.5477
vino	-11.5478
052	-11.5482
tro	-11.5484
organization	-11.5484
513	-11.5485
weekly	-11.5485
bab	-11.5488
insta	-11.5489
095	-11.5492
quien	-11.5495
nline	-11.5496
alamy	-11.5498
828	-11.5498
ava	-11.5499
puzzle	-11.5499
043	-11.5499
widgeti	-11.5501
trulia	-11.5501
indoor	-11.5503
707	-11.5504
heim	-11.5506
fruit	-11.5508
korea	-11.5508
dallas	-11.551
vangsaigon	-11.5511
tone	-11.5515
endo	-11.5517
prix	-11.5518
shed	-11.552
nur	-11.5527
lip	-11.5527
985	-11.553
851	-11.5531
bac	-11.5531
summary	-11.5532
yuan	-11.5532
2003	-11.5532
mzg	-11.5532
bib	-11.5533
843	-11.5533
lnk	-11.5534
venda	-11.5536
darby	-11.5536
classes	-11.5537
accounting	-11.5538
apparel	-11.5543
autopec	-11.5546
civil	-11.5547
philippe	-11.5547
oven	-11.5548
keep	-11.5548
tion	-11.5549
chrome	-11.5551
wiley	-11.5552
694	-11.5553
princess	-11.5555
nut	-11.5567
979	-11.557
regional	-11.557
pair	-11.5574
dave	-11.5579
fei	-11.558
pag	-11.5581
numberinfo	-11.5582
halloween	-11.5587
vyska	-11.5587
herren	-11.5589
atlanta	-11.5592
username	-11.5592
regular	-11.5592
cyclocross	-11.5596
cul	-11.5598
scribd	-11.5598
/149	-11.5605
976	-11.5608
deere	-11.5611
/145	-11.5613
pvc	-11.5613
ralph	-11.5618
kam	-11.5622
luna	-11.5622
bonus	-11.5624
cta	-11.5626
/136	-11.5629
elitec	-11.5631
telemovel	-11.5632
fmovies	-11.5633
tower	-11.5638
ang	-11.5643
techniques	-11.5644
materials	-11.5645
mul	-11.5646
alu	-11.565
hills	-11.565
774	-11.5651
arthur	-11.5651
infection	-11.5652
noi	-11.5652
914	-11.5653
independent	-11.5659
font	-11.5665
612	-11.5665
gurbet	-11.5666
jardin	-11.5669
975	-11.5669
ready	-11.567
949	-11.567
dian	-11.5672
nyc	-11.5673
pel	-11.5674
897	-11.5674
lxjh	-11.5676
3%80%80%	-11.5676
tiva	-11.5679
tops	-11.5681
toro	-11.5685
homme	-11.5686
032	-11.5686
grupo	-11.5687
8%89%	-11.5688
mustang	-11.5689
881	-11.5689
000000000	-11.569
careers	-11.5693
932	-11.5697
remove	-11.5697
833	-11.5698
silva	-11.5704
doors	-11.5708
walter	-11.571
971	-11.571
-500-	-11.5712
indonesia	-11.5713
polaris	-11.5715
bluetooth	-11.5715
kruibeke	-11.5718
salaries	-11.5721
abebooks	-11.5722
kur	-11.5725
musik	-11.5727
dun	-11.5727
053	-11.573
urun	-11.5731
=45	-11.5732
/184	-11.5732
liu	-11.5733
recent	-11.5733
identity	-11.5734
favorites	-11.5736
michigan	-11.5736
096	-11.5738
rvh	-11.5747
aluminum	-11.5748
bild	-11.575
hbwf	-11.5751
bir	-11.5753
934	-11.5757
mic	-11.5757
iask	-11.5762
object	-11.5767
association	-11.5769
comics	-11.5773
bolt	-11.5774
bien	-11.5777
crown	-11.5779
actor	-11.578
mass	-11.578
nine	-11.5782
629	-11.5782
hell	-11.5785
ino	-11.5786
reverso	-11.5788
bruce	-11.5788
courses	-11.5794
/143	-11.5798
familymediation	-11.58
ontario	-11.58
2008	-11.5801
859	-11.5803
drivers	-11.5804
viviana	-11.5805
castle	-11.5807
findagrave	-11.5808
europeanforum	-11.5813
832	-11.5817
vova	-11.5817
lynn	-11.5818
adjustable	-11.5819
engineers	-11.5821
param	-11.5827
=48	-11.583
jez	-11.583
cargo	-11.5832
hour	-11.5833
kiss	-11.5835
918	-11.5837
arab	-11.5837
713	-11.5838
journals	-11.5842
cold	-11.5844
hockey	-11.5846
seven	-11.5849
installation	-11.585
937	-11.5853
935	-11.5856
minecraft	-11.5857
812	-11.586
chaussures	-11.5861
banner	-11.5862
push	-11.5863
000&	-11.5864
/121	-11.5865
publisher	-11.5866
nancy	-11.5868
1_2	-11.5869
everything	-11.5869
panasonic	-11.5871
viet	-11.5872
searchresults	-11.5873
commons	-11.5874
ile	-11.5875
097	-11.5878
puma	-11.5883
civic	-11.5883
boo	-11.5884
parking	-11.5885
cea	-11.5887
portuguese	-11.5887
lego	-11.5891
nlm	-11.5894
taiwan	-11.5896
european	-11.5897
9+%	-11.5904
latin	-11.5904
seating	-11.5904
smugmug	-11.5905
posting	-11.5908
kyoto	-11.5909
fdd	-11.5912
uhy	-11.5914
matthew	-11.592
entre	-11.592
lima	-11.5926
input	-11.5927
showuser	-11.5927
1998	-11.5934
538	-11.5934
taxi	-11.5939
907	-11.594
expo	-11.594
813	-11.594
nya	-11.5943
mos	-11.5943
pref	-11.5944
ddc	-11.5948
ris	-11.5949
huo	-11.595
1002	-11.5951
perry	-11.5954
lejx	-11.5955
3%83%81%	-11.5955
ranger	-11.5957
ipad	-11.5958
douglas	-11.5967
christine	-11.5967
lejh	-11.5971
burn	-11.5975
924	-11.5976
5-%	-11.5979
quebec	-11.5983
lxjx	-11.5985
scr	-11.5987
rare	-11.599
edion	-11.5991
cyber	-11.5992
digikey	-11.5993
matheusc	-11.5994
forumdisplay	-11.5996
alldatasheet	-11.5999
bert	-11.6003
mti	-11.6004
maxi	-11.6004
mara	-11.6007
printing	-11.6008
preferredloca	-11.6009
early	-11.6009
apply	-11.6012
refer	-11.6012
=159	-11.6016
ariat	-11.6017
glo	-11.6019
891	-11.6019
technik	-11.602
ost	-11.6021
brass	-11.6022
artists	-11.6024
zel	-11.6029
galerie	-11.603
rite	-11.603
oli	-11.6031
telnumber	-11.6031
draw	-11.6032
there	-11.6032
suit	-11.6036
spider	-11.6045
lie	-11.6046
lex	-11.6047
tout	-11.6048
gio	-11.605
1300	-11.6051
terry	-11.6053
buty	-11.6055
medi	-11.6057
051	-11.6058
connection	-11.6058
acer	-11.6059
aba	-11.606
jsadr	-11.6062
/2014	-11.6063
physics	-11.6065
travesti	-11.6072
apollo	-11.6076
spray	-11.6077
quot	-11.6082
carol	-11.6082
swivel	-11.6086
meet	-11.609
printed	-11.609
numer	-11.6104
919	-11.611
saison	-11.6112
ell	-11.6112
carpet	-11.6118
mala	-11.6118
improvement	-11.6119
=17&	-11.6124
%20%	-11.6126
nicole	-11.6128
=60&	-11.613
patent	-11.6133
=38	-11.6133
testing	-11.6133
1800	-11.6134
empresas	-11.6135
transit	-11.6141
drink	-11.6141
gol	-11.6144
tingchina	-11.6146
7%89%	-11.6149
journey	-11.615
supplier	-11.6154
patents	-11.6155
jst	-11.6156
aviation	-11.6157
wars	-11.6161
rrid	-11.6164
807	-11.6166
wash	-11.6168
liquid	-11.6168
%22%20	-11.6168
bul	-11.6168
papa	-11.617
mano	-11.617
honey	-11.6172
specialist	-11.6174
pax	-11.6177
exblog	-11.6177
cdc	-11.6178
=47	-11.618
necklace	-11.6181
tay	-11.6182
vendita	-11.6182
doo	-11.6183
cases	-11.6183
qua	-11.6185
clark	-11.6188
buyee	-11.619
tsukumo	-11.6195
rice	-11.6195
eff	-11.6195
kak	-11.6196
howard	-11.6196
classifieds	-11.6196
faucet	-11.6197
ober	-11.6197
chemical	-11.6198
marque	-11.62
covers	-11.6201
feng	-11.6206
still	-11.6207
khan	-11.621
applications	-11.6211
victor	-11.6211
dames	-11.6218
isi	-11.6218
kul	-11.6219
/109	-11.6219
break	-11.622
following	-11.6222
/101	-11.6223
transfermarkt	-11.6224
wick	-11.6225
owy	-11.6229
=24&	-11.6229
ict	-11.6234
atc	-11.6236
followers	-11.6237
avant	-11.6241
vans	-11.6241
coaching	-11.6242
forward	-11.6244
warm	-11.6248
9%87%8	-11.6255
decorative	-11.6255
fdf	-11.6255
flip	-11.626
llamo	-11.6261
ground	-11.6261
actionnetwork	-11.6261
ajr	-11.6261
patricia	-11.6262
chic	-11.6266
mario	-11.6267
dynamic	-11.6272
4%9	-11.6273
hooksand	-11.6275
dmm	-11.6276
sole	-11.6279
wbb	-11.6284
tattoo	-11.6289
xxxl	-11.6299
updated	-11.6301
oda	-11.6301
/125	-11.6308
/174	-11.6309
ota	-11.6311
hgzzj	-11.6312
hol	-11.6312
/2015	-11.6313
lding	-11.6318
contemporary	-11.632
/157	-11.632
vzc	-11.632
ddf	-11.6324
kun	-11.6325
oka	-11.6326
croata	-11.6329
israel	-11.6329
spain	-11.6331
/188	-11.6332
available	-11.6335
dig	-11.6342
finduser	-11.6343
classics	-11.6343
/178	-11.6344
hatena	-11.6345
wiktionary	-11.6345
bass	-11.6348
oto	-11.635
amazing	-11.6351
bond	-11.6352
922	-11.6353
vancouver	-11.6354
quan	-11.6354
vera	-11.6355
jsm	-11.6358
)&	-11.6359
bud	-11.6363
szukaj	-11.6365
uno	-11.6367
lov	-11.6371
etn	-11.6373
iya	-11.6373
)/	-11.6378
cdf	-11.638
mip	-11.6381
tou	-11.6383
shemale	-11.6384
classmates	-11.6384
coupe	-11.639
dur	-11.639
him	-11.639
businessle	-11.6391
boatsales	-11.6391
sey	-11.6391
brayden	-11.6395
mut	-11.6396
annunci	-11.6396
opensubtitles	-11.6399
every	-11.64
eden	-11.6405
rachel	-11.6408
nij	-11.6408
tiu	-11.6412
wald	-11.6415
harris	-11.6417
devicetype	-11.642
=37	-11.6421
islands	-11.6429
youporn	-11.643
outboard	-11.6431
mask	-11.6434
insomnia	-11.6435
sue	-11.6436
824	-11.6436
cub	-11.6438
vat	-11.6439
milk	-11.644
shopby	-11.644
mira	-11.644
fotos	-11.6441
figure	-11.6442
extras	-11.6447
viewkey	-11.6451
gost	-11.6452
rentals	-11.6457
futbol	-11.6458
ora	-11.6459
escorts	-11.6462
salesvolume	-11.6463
liste	-11.6464
valve	-11.6464
winston	-11.6465
african	-11.6467
atv	-11.6468
developer	-11.647
062	-11.647
srch	-11.6472
sci	-11.6473
pilot	-11.6475
foods	-11.6479
passion	-11.6479
2019-	-11.648
vimeo	-11.6487
049	-11.6488
fef	-11.6488
/171	-11.6489
%87%	-11.6489
wallet	-11.6493
059	-11.6496
graph	-11.6498
2048	-11.65
copper	-11.6501
weiss	-11.6502
hei	-11.6505
=49	-11.6505
notice	-11.6506
042	-11.6511
biology	-11.6511
031	-11.6513
shanghai	-11.6513
philips	-11.6513
rex	-11.6518
sophie	-11.6519
eyj	-11.6519
=14&	-11.6521
mus	-11.6522
/180	-11.6525
ama	-11.6525
xry	-11.6526
donald	-11.6529
extreme	-11.653
nar	-11.6531
3%83%80%	-11.6533
bedding	-11.6535
tdxnpyy	-11.6537
chocolate	-11.6539
/138	-11.654
logic	-11.6542
lari	-11.6542
oral	-11.6543
raz	-11.6544
ktm	-11.6545
elo	-11.6547
-2010-	-11.6547
casas	-11.6559
opera	-11.656
commerce	-11.6564
=120	-11.6564
ingxiang	-11.6565
kageadqw	-11.6567
hindi	-11.6569
faith	-11.657
cnbeta	-11.6574
cdd	-11.6576
workbook	-11.6579
amor	-11.6579
wendy	-11.6579
hut	-11.658
phil	-11.658
1011	-11.6582
late	-11.6584
genuine	-11.6584
garten	-11.6585
houzz	-11.6586
4000	-11.659
deviceid	-11.6591
worthpoint	-11.6595
bush	-11.6597
worthopedia	-11.6598
notnow	-11.6599
giash	-11.6599
owa	-11.6599
nica	-11.6605
pit	-11.6607
garofoli	-11.6609
vendor	-11.6612
fcc	-11.6614
petite	-11.6616
1_1	-11.662
dianping	-11.6621
-300-	-11.6622
historia	-11.6625
__=	-11.6625
mesh	-11.6626
ultime	-11.6628
bikes	-11.6629
fandom	-11.6631
sneakers	-11.6631
moo	-11.6636
tara	-11.6638
highlight	-11.6641
fred	-11.6642
telnavi	-11.6643
aki	-11.6643
kill	-11.6645
ord	-11.6653
imp	-11.6654
ellen	-11.6662
revolution	-11.6663
gets	-11.6665
copy	-11.6666
immobilier	-11.6668
/2018/	-11.6669
-2008-	-11.6672
oso	-11.6677
agua	-11.6684
summit	-11.6685
polyester	-11.669
glen	-11.6691
berger	-11.6691
crafts	-11.6691
homemade	-11.6692
between	-11.6699
patch	-11.6702
ova	-11.6708
planning	-11.671
ata	-11.671
holidays	-11.6711
-200-	-11.6713
/2017/	-11.6713
ute	-11.6714
ole	-11.6714
luc	-11.6715
facts	-11.6715
clipid	-11.6715
vert	-11.6717
hel	-11.6718
nyy	-11.6718
fff	-11.6718
tall	-11.6722
=41	-11.6723
enterprise	-11.6724
republic	-11.6726
/2020/	-11.673
slovenian	-11.6731
doctors	-11.6732
sold	-11.6734
amo	-11.6735
invest	-11.6735
religion	-11.6738
ale	-11.6739
emag	-11.674
layer	-11.6741
/146	-11.6742
ini	-11.6742
lens	-11.6743
claude	-11.6743
duty	-11.6743
dresser	-11.6745
silicone	-11.6746
beaut	-11.6747
cdovl	-11.675
afghanistan	-11.6756
1985.	-11.6757
porto	-11.6758
auc	-11.6764
jazz	-11.6764
discussions	-11.6766
bbw	-11.6766
redfin	-11.6767
based	-11.6769
owl	-11.6773
tema	-11.6775
vent	-11.6777
/162	-11.6779
sense	-11.678
grad	-11.6783
starter	-11.6784
risk	-11.6784
lucky	-11.6788
kunst	-11.679
ique	-11.6791
dont	-11.6792
newfound	-11.68
snap	-11.68
szeds	-11.68
loft	-11.6801
naked	-11.6802
parker	-11.6809
boom	-11.681
impact	-11.6813
gstatic	-11.6813
shadow	-11.682
before	-11.6822
3%25	-11.6822
obituaries	-11.683
bdf	-11.6831
heights	-11.6833
direction	-11.6835
-2018	-11.6837
bww	-11.6839
hexagon	-11.684
lia	-11.684
translate	-11.6842
=2?	-11.6847
iwn	-11.6848
caroline	-11.6849
2%80%9	-11.685
%22%3	-11.6852
hokkaido	-11.6852
newspapers	-11.6853
findpost	-11.6854
bowl	-11.6855
proximity	-11.6864
velo	-11.6867
cheng	-11.687
grant	-11.687
-01-	-11.6876
buck	-11.6876
eine	-11.6876
blank	-11.6877
spare	-11.6878
10&	-11.6879
ige	-11.688
trends	-11.688
kabel	-11.6881
arms	-11.6883
fpa	-11.6884
greg	-11.6885
auvergne	-11.6889
vente	-11.689
-2011-	-11.6896
9%84-%	-11.6898
shopdetail	-11.6898
martinez	-11.6903
bracelet	-11.6907
8%87%	-11.6908
094	-11.6909
issues	-11.6909
mie	-11.6909
oregon	-11.6909
jessica	-11.6911
cruz	-11.6912
trainer	-11.6913
confidential	-11.6916
jinrin	-11.6916
graham	-11.6917
pennsylvania	-11.6918
finish	-11.692
rush	-11.6921
/108	-11.6922
homedetails	-11.6925
3500	-11.6925
dennis	-11.6927
1995	-11.693
datasheet	-11.6932
feet	-11.6932
kdnet	-11.6935
=75	-11.6943
opt	-11.6944
vila	-11.6945
generation	-11.6948
selection	-11.6951
bai	-11.6952
oval	-11.6955
prf	-11.6955
prop	-11.6957
signaler	-11.6958
lor	-11.6959
mba	-11.696
vacuum	-11.6961
unitedkingdom	-11.6966
brunette	-11.6967
wifi	-11.6967
executive	-11.6971
assistir	-11.6972
-150-	-11.6975
rac	-11.6978
duck	-11.698
dff	-11.6982
/2018	-11.6986
joint	-11.6987
chanelbags	-11.6987
kap	-11.6987
earrings	-11.6991
/------------	-11.6991
immo	-11.6991
hoa	-11.6998
2002	-11.6998
aichi	-11.6999
mons	-11.6999
6000	-11.7
porsche	-11.7
veiculos	-11.7001
/129	-11.7008
flipkart	-11.7014
wat	-11.7016
_3_	-11.7019
=187&	-11.7019
/170	-11.7019
attractions	-11.702
2021	-11.7021
/131	-11.7021
/215	-11.7025
dean	-11.7031
/214	-11.7033
/240	-11.7035
wallpapers	-11.7039
description	-11.7047
vil	-11.7047
anjuke	-11.7053
%20(	-11.7055
elli	-11.7055
shorts	-11.7057
permanent	-11.7057
dnhys	-11.7062
hamilton	-11.7063
ahn	-11.707
-2007-	-11.7072
folding	-11.7074
their	-11.7075
function	-11.7075
dentist	-11.7076
azul	-11.7079
vest	-11.7081
anita	-11.7082
pai	-11.7087
wales	-11.7093
suning	-11.7093
orig	-11.7093
sydney	-11.7096
xue	-11.71
miguel	-11.7101
zona	-11.7101
cnpj	-11.7102
adf	-11.7102
jul	-11.7105
2500	-11.7105
livedoor	-11.7106
fiche	-11.7107
phase	-11.7108
infinity	-11.7109
247.	-11.712
/212	-11.7121
ista	-11.7121
getting	-11.7124
alter	-11.7125
mein	-11.7126
trackas	-11.7127
kobo	-11.7129
oaks	-11.7129
major	-11.7131
stra	-11.7131
finetuned	-11.7132
00000	-11.7135
acessorios	-11.7135
compatible	-11.7135
internal	-11.7136
plat	-11.7138
finger	-11.7139
collectif	-11.7141
viva	-11.7143
vietnam	-11.7148
oni	-11.7149
editor	-11.7149
comprar	-11.7152
xsw	-11.7153
dochkisinochki	-11.7155
instrument	-11.7157
peri	-11.7158
nano	-11.7159
contextual	-11.7162
congres	-11.7162
panda	-11.7163
fcb	-11.7165
interaction	-11.7165
=22&	-11.7166
ninja	-11.7166
liv	-11.7167
zon	-11.7167
kei	-11.7189
refid	-11.7192
iji	-11.7194
hara	-11.7195
drozhi	-11.7197
btc	-11.72
oki	-11.7201
fcf	-11.7202
depot	-11.7209
rouge	-11.7209
nutcase	-11.721
::	-11.7216
forumtopicpage	-11.7217
9%98%	-11.7218
-36-	-11.722
0001	-11.7225
sobre	-11.7229
configurable	-11.7234
dfb	-11.7234
inquiry	-11.7236
rag	-11.7237
rapid	-11.7238
ical	-11.7241
tupian	-11.7241
bruno	-11.7242
coup	-11.7244
clinical	-11.7249
dou	-11.7254
ira	-11.7256
sspagename	-11.7257
reflux	-11.7259
vagas	-11.7259
caso	-11.726
powder	-11.7265
/2016	-11.7266
kot	-11.7267
pere	-11.7274
hana	-11.7274
tender	-11.7274
trek	-11.7275
socks	-11.7276
assembly	-11.7276
volt	-11.7278
helen	-11.7282
arrest	-11.7283
hugo	-11.7284
rejstrik	-11.7287
lily	-11.7288
chin	-11.7289
pickup	-11.7292
flooring	-11.7294
skills	-11.7296
thanks	-11.7296
daum	-11.7297
lets	-11.7299
colors	-11.7303
/179	-11.7304
helpyou	-11.7308
proof	-11.7309
branch	-11.731
huge	-11.7318
uber	-11.7322
rav	-11.7324
hex	-11.7329
muscle	-11.7331
1989	-11.7332
shoulder	-11.7332
protector	-11.7334
/254	-11.7336
ort	-11.7336
-23-	-11.734
lng	-11.7341
portugal	-11.7341
password	-11.7342
principal	-11.7345
santos	-11.735
agencia	-11.7352
anglais	-11.7363
sogou	-11.7365
pace	-11.7365
cambridge	-11.7365
artikelart	-11.7374
=39	-11.7378
moving	-11.7379
smile	-11.738
tine	-11.7381
disk	-11.7383
brainly	-11.7384
roller	-11.7388
wish	-11.7389
claim	-11.7391
/172	-11.7391
exterior	-11.7392
nyj	-11.7392
tran	-11.7393
1700	-11.7396
justice	-11.7399
=56	-11.7402
plain	-11.7407
bazatelefono	-11.7407
1968	-11.741
claire	-11.7413
indo	-11.7417
aed	-11.7419
thailand	-11.7419
katzen	-11.742
provider	-11.7422
marketplace	-11.7423
intent	-11.743
pointof	-11.7433
bok	-11.7435
/2019/	-11.7436
fragment	-11.7438
091	-11.744
5%95%8	-11.744
gsm	-11.7442
tommy	-11.7444
cure	-11.7444
mun	-11.7444
mais	-11.7444
pia	-11.7445
logue	-11.7445
merk	-11.7445
ncbi	-11.7447
column	-11.7448
mathematics	-11.7454
reserve	-11.7454
liz	-11.7462
aliette	-11.7463
libre	-11.7464
mou	-11.7466
citation	-11.7468
rene	-11.7469
deluxe	-11.747
nao	-11.747
example	-11.7473
ranch	-11.7475
julie	-11.7477
russell	-11.7479
ghost	-11.7479
never	-11.748
celebrity	-11.7484
collages	-11.7488
rozmiar	-11.7491
-2009-	-11.7492
slideshare	-11.7493
1967	-11.7493
viewer	-11.7496
4%5	-11.7501
dame	-11.7501
/182	-11.7503
sunglasses	-11.7503
-90-	-11.7505
1003	-11.751
hasher	-11.7518
mouth	-11.7522
fir	-11.7525
boost	-11.7527
gou	-11.7532
ados	-11.7538
akci	-11.754
animals	-11.754
1993	-11.7541
pedro	-11.7545
hur	-11.7546
rob	-11.7548
vag	-11.7549
shan	-11.755
sandra	-11.755
signal	-11.7553
role	-11.7557
alto	-11.7558
avis	-11.7558
summitracing	-11.7559
nverified	-11.7562
tell	-11.7568
041	-11.7571
hoodie	-11.7571
:%	-11.7573
economics	-11.7574
vir	-11.7576
mason	-11.7576
iam	-11.7579
narrow	-11.758
denver	-11.7584
sang	-11.7589
hist	-11.7592
okcaller	-11.7593
icefilms	-11.7595
gukiqf	-11.7598
unisex	-11.7599
registry	-11.76
pir	-11.7606
jer	-11.7608
-250-	-11.7609
0%25	-11.7614
nico	-11.7615
urk	-11.7616
nums	-11.7616
xian	-11.7616
emily	-11.7617
bottom	-11.7618
-2005-	-11.7619
mouse	-11.762
restoration	-11.7628
taqueria	-11.7628
=44	-11.763
francis	-11.7631
glas	-11.7632
/2020	-11.7635
kart	-11.7637
/148	-11.7639
disease	-11.764
lexus	-11.7643
michelle	-11.7652
hogar	-11.7654
3%81%84%	-11.7657
codes	-11.766
physical	-11.7661
ove	-11.7663
noticia	-11.7671
cre	-11.7671
gue	-11.7674
jak	-11.7677
chkproductids	-11.7679
haven	-11.7681
reed	-11.7682
-2000-	-11.7683
problems	-11.7687
sleeper	-11.7687
pier	-11.7687
oogleusercontent	-11.7691
=23&	-11.7692
hypet	-11.7692
saga	-11.7696
swing	-11.7697
fbf	-11.7697
cfc	-11.7697
primary	-11.7699
mesa	-11.7699
dfd	-11.7702
seal	-11.7703
trump	-11.7704
taille	-11.7705
hampton	-11.7706
rand	-11.7709
noumero	-11.771
rita	-11.7713
dol	-11.7713
fight	-11.7713
noy	-11.7714
spb	-11.7715
reality	-11.7718
singapore	-11.7719
drum	-11.772
nte	-11.7722
hook	-11.7724
curtain	-11.7728
eef	-11.7728
bro	-11.7732
acion	-11.7732
heaven	-11.7732
knee	-11.7732
=42	-11.7733
myheritage	-11.7734
093	-11.7736
suites	-11.7736
ddb	-11.7737
cont	-11.7738
/213	-11.774
092	-11.7741
schematic	-11.7741
fiber	-11.7742
calls	-11.7743
adventures	-11.7744
pon	-11.7749
plumbing	-11.775
/2017-	-11.7751
tdi	-11.7755
myspace	-11.7756
grow	-11.7756
lich	-11.7758
lian	-11.7759
pil	-11.7761
ando	-11.7761
1%88%	-11.7761
pretty	-11.7766
contenttype	-11.7768
/10000	-11.7769
monkey	-11.7774
cent	-11.7779
folk	-11.7781
tia	-11.7781
farukel	-11.7783
feld	-11.7786
abu	-11.7786
wit	-11.7786
cookbook	-11.7787
-500	-11.7787
gli	-11.7787
friseurmobil	-11.7788
ceiling	-11.779
knowledge	-11.7791
dispatch	-11.7793
061	-11.7796
thompson	-11.7796
wellness	-11.7798
ashley	-11.7799
concrete	-11.78
vehicles	-11.7801
bois	-11.7808
sum	-11.781
omni	-11.7813
ejo	-11.7813
possible	-11.7815
eevanity	-11.7816
margaret	-11.7817
omsurvey	-11.7823
worldwide	-11.7827
fcd	-11.7828
nelson	-11.7831
tous	-11.7831
robot	-11.7832
catalogsearch	-11.7833
ure	-11.7835
license	-11.7836
2019.	-11.7841
brush	-11.7841
stackoverflow	-11.7841
mio	-11.7842
1988	-11.7842
orderid	-11.7845
remont	-11.7845
wein	-11.7848
lord	-11.7848
bubble	-11.785
reise	-11.7851
9%86-%	-11.7856
communication	-11.7856
techno	-11.7858
-75-	-11.7859
sure	-11.7859
adams	-11.7859
carter	-11.7861
vincent	-11.7862
unknown	-11.7862
porta	-11.7862
ideal	-11.7873
surf	-11.7876
/2015-	-11.7879
aeb	-11.7881
kir	-11.7882
10000	-11.7884
-32-	-11.7889
cfb	-11.789
vegan	-11.7891
many	-11.7893
prd	-11.7894
cir	-11.7895
1%9	-11.7897
rodriguez	-11.7898
appartement	-11.7899
wolfgang	-11.7899
rig	-11.7899
icatalog	-11.79
/164	-11.7903
hun	-11.7905
vacancy	-11.7907
split	-11.7909
tut	-11.7911
1400	-11.7911
graphics	-11.7912
/177	-11.7912
=-99&	-11.7919
/127	-11.7922
aea	-11.7924
kits	-11.7926
watching	-11.7927
meat	-11.7928
hollywood	-11.7928
heather	-11.7928
tei	-11.7931
ivan	-11.7931
rez	-11.7932
profi	-11.7933
champion	-11.7933
lower	-11.7934
variant	-11.7934
fshowuserreviews	-11.7935
november	-11.7936
should	-11.7936
skaya	-11.7937
heroes	-11.7937
gur	-11.7938
/181	-11.7938
aksessuary	-11.794
seq	-11.7943
lesson	-11.7945
pix	-11.7947
morris	-11.795
tenis	-11.7952
1005	-11.7952
stamp	-11.7954
transactionid	-11.7955
kaufen	-11.7956
yama	-11.7958
-26-	-11.7964
cutting	-11.7965
ufc	-11.7965
seam	-11.7965
zhu	-11.7972
2020&	-11.7974
cdb	-11.7974
raven	-11.7979
mora	-11.798
armchair	-11.7981
asi	-11.7982
dag	-11.7983
ify	-11.7984
roupas	-11.7994
brick	-11.7995
compact	-11.7995
9000	-11.7996
opinion	-11.7998
trove	-11.7999
vale	-11.8
hari	-11.8
todo	-11.8
nome	-11.8001
shark	-11.8002
-2019	-11.8003
prima	-11.801
retirement	-11.8012
neon	-11.8012
ffe	-11.8014
olamarket	-11.8014
orientacion	-11.8017
intl	-11.8019
sante	-11.8023
milano	-11.8024
putlocker	-11.8024
flagman	-11.8028
fae	-11.8029
wig	-11.8031
options	-11.8032
lmnvbs	-11.8033
tent	-11.8039
-250	-11.8039
clock	-11.8041
cgxheq	-11.8041
ffa	-11.8042
-35-	-11.8042
/10-	-11.8043
division	-11.8049
sectionals	-11.8051
reebok	-11.8052
penguin	-11.8053
/216	-11.8053
shift	-11.8054
sushi	-11.8055
ffc	-11.8055
107.	-11.8057
sanchez	-11.8059
carsales	-11.8068
bilder	-11.8068
.58.	-11.8068
interview	-11.8072
stud	-11.8075
rainbow	-11.8076
sheng	-11.808
computers	-11.8082
xbox	-11.8082
8%81%	-11.8082
nap	-11.8083
ibm	-11.8083
noel	-11.8084
trabajo	-11.8086
=80	-11.8088
epic	-11.8089
zhen	-11.8089
mebel	-11.8091
teens	-11.8094
810.	-11.8099
nero	-11.81
swim	-11.8104
zhavqja	-11.8104
traditional	-11.8105
metrology	-11.8106
rak	-11.8108
iro	-11.8109
rgn	-11.811
kalender	-11.8111
productions	-11.8112
lavoro	-11.8112
pkt	-11.8116
tristatewe	-11.8116
serv	-11.8116
subscription	-11.8118
-28-	-11.8118
psychology	-11.8119
mars	-11.8119
jaw	-11.8127
madison	-11.8128
forever	-11.8129
etta	-11.8129
01&	-11.8131
exo	-11.8131
alert	-11.8132
dcb	-11.8137
eli	-11.8137
inverse	-11.8139
welcome	-11.8141
zhenskaya	-11.8141
=46	-11.8141
shock	-11.8142
suv	-11.8144
cronix	-11.8145
alarm	-11.8151
chile	-11.8153
dfc	-11.8157
justin	-11.8157
being	-11.8159
8000	-11.8167
creation	-11.8167
honor	-11.8168
-2006-	-11.8168
hold	-11.8169
gamer	-11.8172
ribalka	-11.8177
mystery	-11.8177
ise	-11.8178
archiv	-11.8182
chateau	-11.8182
holz	-11.8182
salehin	-11.8183
roof	-11.8185
turkey	-11.8188
taplet	-11.8193
cep	-11.8194
strap	-11.8196
liberty	-11.8199
lingerie	-11.8205
brooklyn	-11.8209
immobilien	-11.821
ebony	-11.8213
lak	-11.8214
paradise	-11.8216
exit	-11.8217
mills	-11.822
cams	-11.8222
/176	-11.8223
lap	-11.8227
swimming	-11.8227
tales	-11.8228
jobtype	-11.823
yellowbook	-11.8233
este	-11.8236
marvel	-11.8236
italiano	-11.8237
lok	-11.8238
faa	-11.8239
operation	-11.824
-120	-11.8242
bbq	-11.8243
gon	-11.8243
fda	-11.8246
deli	-11.8248
producer	-11.8252
=10000	-11.8253
kontakt	-11.8257
dash	-11.8258
zapatos	-11.8258
merchant	-11.8262
poetry	-11.8263
xiaomi	-11.8268
recommend	-11.8271
cena	-11.8274
foam	-11.8279
produit	-11.8283
7-%	-11.8284
beginners	-11.8284
cookie	-11.8286
benjamin	-11.8287
hongdian	-11.8287
subtitles	-11.8288
1031	-11.8288
negro	-11.8293
mental	-11.8294
mls	-11.8297
fig	-11.83
verein	-11.8301
/225	-11.8306
traffic	-11.8309
dcf	-11.8312
stephanie	-11.8312
kil	-11.8315
collins	-11.8315
residential	-11.8316
globe	-11.8317
neil	-11.8318
developers	-11.832
lum	-11.832
1%86%	-11.8321
ili	-11.8323
shaw	-11.8324
gao	-11.8325
blend	-11.8328
romance	-11.8328
electronica	-11.8328
amsterdam	-11.8328
guki	-11.8329
aef	-11.8333
carmen	-11.8335
nai	-11.834
communications	-11.8341
thebookr	-11.8343
fiction	-11.8345
bleu	-11.8346
nokia	-11.8348
fetish	-11.835
orlando	-11.8352
=21&	-11.8352
forge	-11.8352
challenge	-11.8354
australian	-11.8354
plants	-11.8356
1981	-11.8357
oldid	-11.8358
circuit	-11.8358
lodge	-11.8359
dub	-11.8361
musica	-11.8363
ance	-11.8364
leri	-11.8366
pianzi	-11.8368
3+%	-11.8369
bom	-11.8372
6%88%	-11.8373
xia	-11.8374
soap	-11.8375
1004	-11.8376
weblio	-11.8377
wel	-11.8381
clearance	-11.8382
hitta	-11.8385
suite	-11.839
published	-11.8391
,,/	-11.8397
feel	-11.84
autoparts	-11.8401
nha	-11.8401
strip	-11.8407
latina	-11.8411
desi	-11.8411
script	-11.8412
categorie	-11.8412
labs	-11.8415
braun	-11.8415
rings	-11.8416
vivo	-11.8419
/166	-11.8422
greater	-11.8422
dawn	-11.8422
leer	-11.8425
-70-	-11.8426
/223	-11.8428
6%89%8	-11.843
=19&	-11.8433
logan	-11.8434
wayne	-11.8435
maya	-11.8439
htc	-11.8442
podcast	-11.8443
henan	-11.8444
/186	-11.8444
skinny	-11.8444
popcorntime	-11.8445
1971	-11.8445
clk	-11.8446
5%87%	-11.8447
ameba	-11.8449
1994	-11.8449
/185	-11.845
wir	-11.8451
tistory	-11.8453
cabinets	-11.8456
luxe	-11.8458
tat	-11.846
joan	-11.8462
/2016/	-11.8464
diabetic	-11.8465
tropical	-11.8466
nhn	-11.8467
isuzu	-11.8469
srtt	-11.8469
fold	-11.847
dio	-11.8473
cfd	-11.8476
jxz	-11.8479
fleur	-11.8479
blau	-11.8482
som	-11.8483
uli	-11.8483
kudosbuttonv	-11.8484
jxq	-11.8485
1986	-11.8485
thermo	-11.8489
third	-11.849
perez	-11.8493
covid	-11.8494
0805	-11.8495
ffb	-11.8497
+(	-11.8497
mack	-11.8498
forsale	-11.8501
shield	-11.8503
csrf	-11.8504
titan	-11.8504
gaz	-11.8505
turk	-11.8505
friday	-11.8513
gap	-11.8517
kami	-11.8518
expid	-11.8518
chk	-11.8518
/235	-11.8519
futurama	-11.8519
viewfull	-11.8521
yon	-11.8523
levi	-11.8523
encycolor	-11.8528
masters	-11.8528
chiba	-11.8531
scitech	-11.8532
syn	-11.8533
ery	-11.8533
protective	-11.8538
keiba	-11.8542
qdjinshangbra	-11.8544
niki	-11.8546
.222.	-11.8554
jobsearch	-11.8556
cff	-11.8556
rum	-11.8557
/187	-11.8557
trader	-11.8557
present	-11.8559
tik	-11.8561
fever	-11.8562
sho	-11.8566
translated	-11.8569
giant	-11.8569
zoominfo	-11.8573
july	-11.8575
champions	-11.8577
/191	-11.8579
bahss	-11.8581
9999	-11.8586
sala	-11.8592
=1000&	-11.8593
rah	-11.8596
morning	-11.86
newsplus	-11.8602
fel	-11.8603
itis	-11.8603
potter	-11.8605
ruth	-11.861
otvet	-11.861
tourism	-11.861
carpe	-11.8611
voyage	-11.8612
008.	-11.8618
cant	-11.8619
mani	-11.8619
esf	-11.8621
xuebao	-11.8625
walking	-11.8626
mansion	-11.8627
dirty	-11.8627
hayabusa	-11.8632
flo	-11.8633
phonelookup	-11.8636
annonce	-11.8637
vietnamese	-11.8637
joshua	-11.8638
sneaker	-11.8641
voz	-11.8642
libros	-11.8642
fec	-11.8646
afe	-11.8646
icefilm	-11.8651
=40&	-11.8651
overview	-11.8654
7%94%9	-11.866
/165	-11.866
knight	-11.8661
mata	-11.8661
gris	-11.8661
droit	-11.8662
sohu	-11.8664
entreprise	-11.8665
odziez	-11.8667
7000	-11.867
-1,	-11.867
=99&	-11.8672
manchester	-11.8678
518.	-11.868
hyogo	-11.8682
202.	-11.8682
spark	-11.8682
uta	-11.8685
=43	-11.8688
hoy	-11.8691
alestateandhomes	-11.8691
/221	-11.8692
gam	-11.8693
rdono	-11.8693
transparent	-11.8694
algatec	-11.8696
purchaseorders	-11.8696
guo	-11.8697
thing	-11.8699
haoxiao	-11.87
1600	-11.8702
cinco	-11.8702
granny	-11.8704
much	-11.8708
exact	-11.8709
ckey	-11.8709
/2019-	-11.8714
mori	-11.8714
horny	-11.8716
rol	-11.8717
dana	-11.8718
cda	-11.8719
noquote	-11.8719
=75&	-11.872
vacation	-11.8722
stefan	-11.8724
candle	-11.873
converter	-11.8731
-80-	-11.8732
7%91%	-11.8732
/173	-11.8737
organizer	-11.874
bearing	-11.8742
sche	-11.8745
rider	-11.8747
youku	-11.8747
wii	-11.8749
gonzalez	-11.875
falls	-11.8753
clap	-11.8754
hiro	-11.8755
nuevo	-11.8757
zak	-11.8757
caterpillar	-11.876
prezzo	-11.8765
privacy	-11.8767
teile	-11.877
connector	-11.8772
-125	-11.8774
disp	-11.8775
ndx	-11.8778
butterbur	-11.878
council	-11.878
timeline	-11.8782
pho	-11.8786
alain	-11.8787
=2020	-11.879
musical	-11.8793
bun	-11.8794
=-1&	-11.8795
enter	-11.8796
oscar	-11.8796
cri	-11.8801
gala	-11.8802
tbc	-11.8803
ovo	-11.8805
ative	-11.8805
psycho	-11.8806
slot	-11.8806
political	-11.8809
essentials	-11.8811
zan	-11.8815
astra	-11.8815
1987	-11.8817
melbourne	-11.8819
soup	-11.8819
kha	-11.8824
natur	-11.8825
trace	-11.8826
/563	-11.8827
ong	-11.8827
teaching	-11.8829
xlsx	-11.8829
jglobal	-11.8831
decantalo	-11.8832
bikini	-11.8833
argentina	-11.8834
chase	-11.8837
rpm	-11.8838
1964	-11.8838
trash	-11.8844
faf	-11.8849
zhenshchinam	-11.885
trailers	-11.8851
wright	-11.8852
celulares	-11.8856
ingles	-11.8857
bscr	-11.8857
ula	-11.8859
bridging	-11.8861
ote	-11.8862
guys	-11.8862
=58	-11.8863
browser	-11.8863
fiesta	-11.8866
tres	-11.8867
5015	-11.8868
fad	-11.8872
dfa	-11.8872
esta	-11.8872
onlinelibrary	-11.8872
-110	-11.8875
1945	-11.8875
taw	-11.8876
/220	-11.8876
cef	-11.8877
----------	-11.8878
chess	-11.8881
00000&	-11.8884
efe	-11.8885
handmade	-11.8887
ccc	-11.8888
vit	-11.889
scooter	-11.889
laurent	-11.8891
escape	-11.8891
environmental	-11.8892
hammer	-11.8897
rea	-11.8897
/183	-11.89
gabriel	-11.8902
9%87-%	-11.8903
tory	-11.8905
://111-	-11.8906
looking	-11.8909
nta	-11.891
utazas	-11.891
statistics	-11.891
growth	-11.8911
indonesian	-11.8913
8%80%	-11.8913
marche	-11.8914
loans	-11.8916
appliances	-11.8917
obage	-11.8918
cbf	-11.8919
crop	-11.892
must	-11.8921
amanda	-11.8922
dchild	-11.8922
dba	-11.8924
lmh	-11.8925
gai	-11.8926
1010	-11.8928
npi	-11.8928
lawrence	-11.8929
coral	-11.8939
examples	-11.894
enterprises	-11.894
backpack	-11.8941
yer	-11.8941
oder	-11.8941
strom	-11.8943
quinn	-11.8945
_5_	-11.8947
strategy	-11.895
=98	-11.895
idtype	-11.8955
butt	-11.8956
infobel	-11.8957
zapchasti	-11.8957
mud	-11.8957
meeting	-11.8959
arctic	-11.896
pallet	-11.8963
popcornfl	-11.8967
nifty	-11.8977
cheaperthandirt	-11.8979
searching	-11.8982
campbell	-11.8983
elegant	-11.8984
ody	-11.8985
funda	-11.8985
hits	-11.8985
corn	-11.8985
ghz	-11.8985
caravan	-11.8985
wax	-11.8986
birth	-11.8988
seed	-11.899
ped	-11.899
texte	-11.8993
oct	-11.8996
/167	-11.8996
cie	-11.8997
tels	-11.8997
wed	-11.8999
-2017	-11.8999
obzip	-11.9
presse	-11.9004
voi	-11.9004
grp	-11.9005
refine	-11.9007
leben	-11.9011
bistro	-11.9012
hoe	-11.9013
bff	-11.9014
residence	-11.9016
bdd	-11.9018
tun	-11.9018
/2005-	-11.9018
ereuropa	-11.9019
donesp	-11.902
=000	-11.9022
toilet	-11.9022
draft	-11.9022
miles	-11.9023
hours	-11.9024
cultural	-11.9024
/104	-11.9024
coursehero	-11.9025
reactions	-11.9027
neuro	-11.9027
cara	-11.9028
diana	-11.9029
/2016-	-11.9033
/190	-11.9033
detroit	-11.9036
alba	-11.9039
tmpl	-11.904
deportes	-11.9041
pecas	-11.9041
thu	-11.9043
vebin	-11.9044
wee	-11.9044
fog	-11.9046
=48&	-11.9046
advisor	-11.9047
/154	-11.905
15_	-11.9052
cnki	-11.9054
-31-	-11.9061
voy	-11.9062
lonely	-11.9063
1602	-11.9066
drawing	-11.9067
fbb	-11.9067
gordon	-11.9072
mare	-11.9073
advice	-11.9073
klaus	-11.9074
meg	-11.9074
unter	-11.9075
truth	-11.9075
galeria	-11.9076
teacherspa	-11.9076
consult	-11.9077
drill	-11.9079
dhjhy	-11.9082
istanbul	-11.9083
surface	-11.9084
sean	-11.9085
costume	-11.9088
koi	-11.9089
suppliers	-11.909
yteachers	-11.9092
fisher	-11.9094
_4_	-11.9095
federated	-11.9096
vai	-11.9098
tireshop	-11.9098
xiang	-11.9099
weed	-11.9099
creampie	-11.91
lava	-11.9101
dha	-11.9101
polar	-11.9102
yao	-11.9103
mtg	-11.9107
certified	-11.9107
vishay	-11.9108
porte	-11.911
facial	-11.9111
/323	-11.9112
/210	-11.9112
=59	-11.9113
/217	-11.9113
dfw	-11.9113
pap	-11.9117
gir	-11.9123
whatsapp	-11.9127
pumps	-11.9131
cord	-11.9132
=99	-11.9137
1206	-11.9137
cricket	-11.9139
/2006-	-11.9139
portrait	-11.9143
anni	-11.9144
suspension	-11.9147
aan	-11.9148
evans	-11.9149
chiama	-11.9149
rab	-11.915
7%84%	-11.9151
livingsets	-11.9151
/139	-11.9152
jeq	-11.9157
spiel	-11.9158
bohdali	-11.9164
dela	-11.9169
kaeltetechnik	-11.917
femmes	-11.917
contra	-11.9171
stella	-11.9172
dollar	-11.9174
craig	-11.9175
cherokee	-11.9178
ima	-11.918
midi	-11.918
fake	-11.9182
mina	-11.9182
/208	-11.9185
/226	-11.9185
lic	-11.919
weibo	-11.9196
pulse	-11.9197
/222	-11.9197
integrated	-11.9198
-2004-	-11.9199
voiture	-11.9209
discovery	-11.9211
audible	-11.9215
lte	-11.9215
sector	-11.9217
bfd	-11.9217
dajar	-11.9219
jos	-11.922
filme	-11.9221
formula	-11.9222
odi	-11.9222
discover	-11.9226
blanco	-11.9226
grip	-11.9226
accessory	-11.923
sville	-11.9231
relb	-11.9233
1969	-11.9236
vse	-11.9236
funeral	-11.9237
wai	-11.9237
sexguide	-11.924
csp	-11.9242
consultants	-11.9243
jaguar	-11.9246
sight	-11.925
give	-11.9253
tuning	-11.9254
exhaust	-11.9256
mymemory	-11.9259
adults	-11.9261
hog	-11.9263
/193	-11.9265
fourwalls	-11.9268
imperial	-11.9268
motos	-11.9269
stripe	-11.927
philippines	-11.9271
cheapv	-11.9272
denim	-11.9272
=53	-11.9273
error	-11.9274
jing	-11.9276
evolution	-11.9276
lime	-11.9276
jung	-11.9278
maico	-11.9278
rule	-11.9282
stewart	-11.9282
1337	-11.9283
fischer	-11.9283
ivo	-11.9284
knit	-11.9285
bnm	-11.9286
ingly	-11.9287
tovary	-11.9288
standing	-11.9288
athletic	-11.9288
partners	-11.9291
bryan	-11.9295
jou	-11.9296
produkte	-11.9297
ill	-11.9298
oku	-11.9299
nest	-11.9304
telecharger	-11.9305
1020	-11.9305
kansas	-11.9305
licht	-11.9306
cave	-11.9306
precio	-11.9308
dent	-11.9308
creahi	-11.9309
tmm	-11.931
2022	-11.9313
tandem	-11.9313
productdetail	-11.9314
11&	-11.9314
loco	-11.9315
ventilatoren	-11.9315
dda	-11.9316
widget	-11.9319
weekend	-11.9321
/144	-11.9321
rico	-11.9322
lianjia	-11.9324
/175	-11.9324
healing	-11.9324
xtyxy	-11.9325
brazil	-11.9326
ric	-11.9328
numerology	-11.9328
glasses	-11.9329
lemon	-11.9329
terre	-11.933
ufa	-11.933
surgery	-11.9332
producto	-11.9332
viz	-11.9333
nba	-11.9336
spieler	-11.9337
ntu	-11.9338
economy	-11.934
essen	-11.9342
kings	-11.9345
steering	-11.9346
3%81%97%	-11.9346
=90	-11.9347
prek	-11.9347
universe	-11.9348
hyouban	-11.9349
=57	-11.935
eda	-11.935
ccf	-11.935
1966	-11.9351
schneider	-11.9352
scientific	-11.9354
bucket	-11.9354
angle	-11.9354
scan	-11.9356
ancai	-11.9357
hbm	-11.9359
geek	-11.9361
literature	-11.9361
fran	-11.9362
oti	-11.9366
during	-11.9367
brad	-11.937
damska	-11.9372
pagenumber	-11.9373
/2004-	-11.9373
chap	-11.9375
consumer	-11.9377
malaysia	-11.9377
fence	-11.9377
toshiba	-11.9379
diario	-11.9379
huis	-11.9385
acao	-11.9386
vue	-11.9387
vaneo	-11.9388
1130	-11.9389
olivier	-11.9393
daughter	-11.9394
=18&	-11.9399
/163	-11.9399
brief	-11.9399
/253	-11.9402
livejupiter	-11.9404
serve	-11.9406
athena	-11.9409
utility	-11.941
winestyle	-11.9411
ueber	-11.9414
minute	-11.9414
adi	-11.9415
elisa	-11.9416
recovery	-11.9416
behindthero	-11.9418
-300	-11.9421
galleries	-11.9423
elckey	-11.9424
warren	-11.9424
crypto	-11.9424
taketoki	-11.9427
afc	-11.9428
hil	-11.943
cel	-11.943
jzb	-11.9432
1996	-11.9438
+3+	-11.9442
lori	-11.9446
aires	-11.9447
ramblingroo	-11.9448
stad	-11.9449
agentg	-11.9452
routes	-11.9453
wert	-11.9453
protein	-11.9457
planner	-11.9458
pokemon	-11.9458
busty	-11.9458
leader	-11.946
=52	-11.9462
cykel	-11.9463
=2020&	-11.9466
luo	-11.9466
epa	-11.9468
signature	-11.9471
pou	-11.9473
1980	-11.9475
individual	-11.9477
delhi	-11.9478
superpages	-11.948
awards	-11.948
ersatzteile	-11.9482
singer	-11.9483
acura	-11.9483
stanley	-11.9484
sweatshirt	-11.9484
ello	-11.9484
coupons	-11.9486
iness	-11.9486
skoda	-11.9486
/218	-11.9487
jian	-11.9489
1234	-11.9493
writer	-11.9493
isa	-11.9493
asset	-11.9494
-45-	-11.9495
/2007-	-11.9496
kho	-11.9496
vitamin	-11.9497
estado	-11.9497
/169	-11.95
cali	-11.95
closet	-11.9504
-27-	-11.9506
hbzoi	-11.9506
desert	-11.9509
zam	-11.9509
lyon	-11.9515
santo	-11.9515
holly	-11.9516
slug	-11.9517
ceo	-11.9525
brelb	-11.9526
ego	-11.9527
sedan	-11.9528
effect	-11.9528
salud	-11.9531
leisure	-11.9532
dictionnaire	-11.9536
ahg	-11.9537
1919	-11.9542
msi	-11.9544
rfc	-11.9544
smartphone	-11.9552
=70	-11.9553
marble	-11.9554
tshirt	-11.9554
landing	-11.9556
1954	-11.9556
canal	-11.9557
isle	-11.9559
zeit	-11.9559
hunting	-11.9559
rebecca	-11.956
1991	-11.956
/2013	-11.956
norman	-11.9561
sanjinxm	-11.9564
utm	-11.9564
1983	-11.9569
1990	-11.9571
werner	-11.9572
mtm	-11.9574
rxg	-11.9575
ndl	-11.9575
mtc	-11.9576
pioneer	-11.9578
tera	-11.958
seite	-11.958
anton	-11.9582
6%92%	-11.9582
extension	-11.9583
alliance	-11.9584
accord	-11.9589
juice	-11.9591
richmond	-11.9592
columbus	-11.9592
cement	-11.9592
velvet	-11.9592
wagon	-11.9595
kawa	-11.9596
mitfle	-11.9596
bodega	-11.9597
steam	-11.9598
cause	-11.9601
nid	-11.9602
00001	-11.9602
maat	-11.9603
lust	-11.9605
dersconference	-11.9606
complex	-11.9608
/168	-11.961
/229	-11.9614
florist	-11.9614
sia	-11.9614
asap	-11.9615
fbc	-11.9617
machinery	-11.9618
bqg	-11.962
chamado	-11.9624
1-4	-11.9624
hora	-11.9625
targeturl	-11.9626
conversation	-11.9628
otc	-11.9632
plast	-11.9633
baba	-11.9634
regionid	-11.9636
buyersguide	-11.9636
alquiler	-11.9636
skirt	-11.9637
indiana	-11.964
instruments	-11.9641
selling	-11.9644
pagetype	-11.9645
cruise	-11.9646
aaron	-11.9647
mte	-11.9647
keith	-11.9648
irish	-11.9649
zhong	-11.965
1985	-11.965
=158	-11.9652
/161	-11.9652
principles	-11.9653
mainproduct	-11.9657
rhg	-11.9657
magnet	-11.9659
anh	-11.9661
=64	-11.9661
skie	-11.9662
ershoufang	-11.9664
glami	-11.9666
vom	-11.9671
1905	-11.9672
autumn	-11.9676
volike	-11.9681
gong	-11.9685
_100	-11.9688
4-%	-11.9689
edd	-11.969
birds	-11.969
friendly	-11.9694
even	-11.9697
1117	-11.9697
ket	-11.9698
bak	-11.9698
vanities	-11.97
sister	-11.9701
instituto	-11.9703
tyres	-11.9705
melissa	-11.9706
nji	-11.9709
gutschein	-11.971
ovy	-11.971
matrix	-11.9712
won	-11.9713
annu	-11.9714
1973	-11.9714
swift	-11.9716
nara	-11.9719
escaped	-11.972
perfume	-11.9723
banking	-11.9725
loo	-11.9726
ffd	-11.9734
0+%	-11.9735
/2003-	-11.9737
cocid	-11.9739
%22&	-11.974
/2015/	-11.9741
/219	-11.9742
butler	-11.9743
structure	-11.9744
cro	-11.9744
1965	-11.9744
moskva	-11.9745
stress	-11.975
iris	-11.975
knife	-11.975
annie	-11.9751
angela	-11.9754
adobe	-11.9754
-2003-	-11.9755
sunny	-11.9756
collectibles	-11.9756
obituary	-11.9757
toddler	-11.9757
/256	-11.9758
lawyers	-11.9758
-39-	-11.9759
1%85%	-11.9764
anzeige	-11.9765
36%3	-11.9766
quad	-11.9767
speaker	-11.9771
/231	-11.9771
teach	-11.9771
/205	-11.9775
macro	-11.9776
collar	-11.978
elena	-11.9782
allo	-11.9783
76%3	-11.9784
erotic	-11.9785
cfa	-11.9786
wav	-11.9791
hostel	-11.9791
1982	-11.9793
cadillac	-11.9793
bbb	-11.9795
myhome	-11.9796
christ	-11.9797
fluid	-11.98
:1&	-11.9804
franklin	-11.9809
afa	-11.9809
axg	-11.981
-02-	-11.9811
warrior	-11.9813
analytics	-11.9814
schoenen	-11.9815
drag	-11.9816
cong	-11.9816
tote	-11.9816
verlag	-11.9818
=51	-11.9821
mkid	-11.9823
operator	-11.9824
bronze	-11.9825
seasonal	-11.9828
pride	-11.9833
basis	-11.9833
faux	-11.9836
metallic	-11.9836
approach	-11.9838
leigh	-11.9845
spreadshirt	-11.9847
qing	-11.9849
chy	-11.9849
webhost	-11.9849
flyer	-11.9851
produits	-11.9852
frauen	-11.9854
esp	-11.9855
rough	-11.9856
optic	-11.9858
=54	-11.9859
uomo	-11.9863
sommer	-11.9864
choose	-11.9866
iowa	-11.9868
zou	-11.9873
efa	-11.9873
moe	-11.9874
breakfast	-11.9876
kana	-11.9876
toner	-11.9878
cert	-11.9878
rhn	-11.9879
1218	-11.9882
shou	-11.9883
mechanical	-11.9883
smoke	-11.9883
samuel	-11.9883
hydraulic	-11.9886
dip	-11.9888
rules	-11.9891
cloth	-11.9895
ganji	-11.9896
yell	-11.9897
tama	-11.9897
stickers	-11.9898
tempo	-11.9902
rica	-11.9903
dreams	-11.9905
gard	-11.9909
namem	-11.991
pixel	-11.9912
keto	-11.9912
brooks	-11.9913
guan	-11.9913
cylinder	-11.9914
shah	-11.9915
pul	-11.9916
1975	-11.9917
gracie	-11.9919
nsner	-11.9919
yam	-11.9924
startdate	-11.9925
suffix	-11.9931
2600	-11.9931
stretch	-11.9932
editorial	-11.9933
preisvergleich	-11.9935
channels	-11.9939
adrian	-11.994
zbozi	-11.9943
-1-2-	-11.9949
slut	-11.9952
ccb	-11.9958
gratuit	-11.9961
instruction	-11.9961
temple	-11.9961
heater	-11.9961
://123	-11.9963
viagra	-11.9963
juventudea	-11.9965
employment	-11.9968
scoop	-11.9968
olive	-11.9972
thumb	-11.9973
tokenid	-11.9976
filterlist	-11.9977
zap	-11.9978
metabo	-11.998
chaturbate	-11.998
hawk	-11.9981
meme	-11.9981
cfml	-11.9981
1111	-11.9982
nti	-11.9982
motorola	-11.9986
ancient	-11.9989
5%90%8	-11.9989
roth	-11.999
soundcloud	-11.9992
contractors	-11.9993
cci	-11.9994
bronx	-12.0001
redir	-12.0001
kata	-12.0002
1936	-12.0002
linkout	-12.0007
reversible	-12.0009
dfe	-12.0009
marke	-12.0015
:0,	-12.0017
multiple	-12.0018
stern	-12.002
-2002-	-12.0021
fril	-12.0023
historical	-12.0024
ore	-12.0025
towel	-12.0025
svg	-12.0026
ndi	-12.0026
rxn	-12.0028
naj	-12.0028
newspage	-12.003
arrow	-12.0031
heating	-12.0033
gua	-12.0036
1212	-12.0039
directions	-12.004
tha	-12.0044
specialty	-12.0045
nylon	-12.0046
hairy	-12.0051
uti	-12.0051
jacob	-12.0052
carview	-12.0053
bury	-12.0055
florence	-12.0057
/248	-12.0059
bedrooms	-12.006
boxes	-12.0061
kyo	-12.0061
sciences	-12.0065
consultant	-12.0068
quarter	-12.0072
nansai	-12.0074
bitcoin	-12.0074
decisions	-12.0077
plot	-12.0078
bern	-12.008
astoria	-12.008
muz	-12.0083
remax	-12.0085
kraft	-12.0087
1440	-12.0093
grain	-12.0093
programme	-12.0093
ries	-12.0094
snippet	-12.0095
scarpe	-12.0095
nay	-12.0095
3104	-12.0096
actress	-12.0097
lien	-12.0097
chinaref	-12.0098
yong	-12.01
_11/	-12.01
webshop	-12.0102
jiaoyu	-12.0103
dimmi	-12.0106
kultur	-12.0107
/2002-	-12.0107
3100	-12.0109
advertising	-12.011
apedia	-12.0118
dasenlin	-12.012
praxis	-12.0123
marshall	-12.0124
ica	-12.0125
signs	-12.0125
rok	-12.0127
economic	-12.0128
heel	-12.0133
tvonline	-12.0133
xtcsid	-12.0137
guid	-12.0138
myyp	-12.0139
eyny	-12.014
gerd	-12.0148
same	-12.015
palace	-12.0152
crossword	-12.0152
habbo	-12.0152
purpose	-12.0153
uso	-12.0155
nicolas	-12.0156
transportation	-12.0157
ignition	-12.0159
charlton	-12.0163
genius	-12.0163
graphs	-12.0163
isch	-12.0168
nanyang	-12.0169
watt	-12.017
/2008	-12.0171
stroke	-12.0172
lek	-12.0173
wcm	-12.0173
stil	-12.0173
logistics	-12.0176
lester	-12.0176
eating	-12.0178
1030	-12.0179
lung	-12.0179
dreamstime	-12.0182
imo	-12.0183
grass	-12.0184
recht	-12.0185
ebern	-12.0186
illa	-12.0187
folder	-12.0189
childrens	-12.0194
metall	-12.0195
rehab	-12.0196
marktplaats	-12.0196
1976	-12.0199
exclusive	-12.0201
1916	-12.0201
dial	-12.0203
thick	-12.0209
1984	-12.0214
mounted	-12.0215
1978	-12.0216
shade	-12.0216
zia	-12.0217
rebel	-12.0218
allan	-12.0219
=4294936603+4294	-12.0221
informatica	-12.0222
farmhouse	-12.0223
aura	-12.0225
wonder	-12.0227
dora	-12.0227
cedar	-12.0228
vyy	-12.023
funimation	-12.023
tennessee	-12.0232
cbc	-12.0234
insider	-12.0239
vce	-12.024
wrap	-12.0249
300-	-12.0249
lara	-12.0249
presentation	-12.025
loader	-12.0252
/189	-12.0252
robe	-12.0253
dept	-12.0253
matic	-12.0254
dcd	-12.0254
2300	-12.0256
memo	-12.0256
chemeng	-12.0259
nebular	-12.0261
magnetic	-12.0263
osi	-12.0269
bcr	-12.0273
murray	-12.0274
fwd	-12.0274
kum	-12.0276
myaccount	-12.0277
builders	-12.0277
jpn	-12.0278
barry	-12.028
hdtxg	-12.0286
=58&	-12.0289
rocket	-12.0291
0002	-12.0295
kupit	-12.03
teak	-12.0302
eritel	-12.0303
jpy	-12.0304
bhg	-12.0305
holm	-12.0307
/2008-	-12.0307
4-4	-12.0309
scotland	-12.0309
terms	-12.031
mum	-12.0311
masa	-12.0313
howto	-12.0314
islam	-12.0314
=78	-12.0315
royalty	-12.0317
1958	-12.0317
ichi	-12.0318
spy	-12.0319
lean	-12.0321
lil	-12.0322
lose	-12.0323
deutsche	-12.0324
bij	-12.0325
0603	-12.0326
aga	-12.0327
cooler	-12.0329
bkcco	-12.0329
levels	-12.033
charge	-12.0332
oty	-12.0334
programming	-12.0335
jana	-12.0338
1918	-12.0339
mort	-12.0344
ible	-12.0346
tthepost	-12.0348
motorcycles	-12.0348
firstpas	-12.035
ident	-12.0356
coronavirus	-12.0356
lucy	-12.0357
clay	-12.0358
1963	-12.0359
anchor	-12.0362
gauge	-12.0362
sweater	-12.0364
nsc	-12.0366
3%83%93%	-12.0369
illustrated	-12.0369
2400	-12.0369
luck	-12.0369
9004	-12.037
dcc	-12.037
critical	-12.037
bicycle	-12.0371
111.	-12.0372
oma	-12.0381
router	-12.0381
popcorn	-12.0386
vik	-12.039
wand	-12.039
adicao	-12.0391
carrier	-12.0392
dajie	-12.0393
/2001-	-12.0394
6080	-12.0396
hawaii	-12.0396
1015	-12.0398
dildo	-12.0399
multimedia	-12.0401
intelligence	-12.0406
builder	-12.0406
trio	-12.0414
ffind	-12.0414
marriage	-12.0415
strategies	-12.0415
roo	-12.0416
beiye	-12.0418
bauer	-12.042
kala	-12.0421
elevation	-12.0421
rectangular	-12.0425
nomegrup	-12.0428
atelier	-12.043
jeffrey	-12.043
ontributionspage	-12.0432
dump	-12.0432
cumshot	-12.0433
grau	-12.0433
1214	-12.0433
nou	-12.0436
chance	-12.0436
ono	-12.0439
mfg	-12.0446
romeo	-12.0446
2700	-12.0448
charm	-12.0451
haz	-12.0452
lucas	-12.0452
yak	-12.0456
pasta	-12.0457
monica	-12.0458
uol	-12.0458
shore	-12.0461
enddate	-12.0463
cycling	-12.0464
handel	-12.0465
zione	-12.0466
sten	-12.0466
fal	-12.0469
mistore	-12.0471
radar	-12.0473
dumps	-12.0474
alabama	-12.0474
ismo	-12.0474
jig	-12.0476
olp	-12.0478
zazzle	-12.0482
gill	-12.0482
kenneth	-12.0486
/2000-	-12.049
1959	-12.0491
satin	-12.0493
warranty	-12.0497
eeb	-12.0498
stuart	-12.0499
genesis	-12.0501
survival	-12.0503
lessons	-12.0503
zig	-12.0503
froush	-12.0504
thin	-12.0506
6%99%	-12.0506
positive	-12.0506
jiu	-12.0508
september	-12.0508
valle	-12.0508
1951	-12.051
printthread	-12.051
buffalo	-12.0515
ywxidw	-12.0515
/11/	-12.0517
throw	-12.052
stove	-12.052
dealers	-12.0523
headboard	-12.0524
herald	-12.0524
jew	-12.0525
func	-12.0525
oscaguas	-12.0526
1979	-12.0526
linen	-12.0527
taka	-12.0527
asambleade	-12.0529
mta	-12.0532
axe	-12.0533
enbanc	-12.0533
cua	-12.0534
shir	-12.0535
vbl	-12.0536
comparison	-12.0537
vul	-12.0539
buynow	-12.054
eastern	-12.054
refinement	-12.0541
tsu	-12.0541
crane	-12.0541
2026	-12.0542
janet	-12.0542
fernandez	-12.0543
sklep	-12.0545
maz	-12.0546
hoi	-12.0546
bfc	-12.0547
=36&	-12.0549
siemens	-12.0553
bras	-12.0558
tig	-12.0563
yeast	-12.0563
debut	-12.0564
overstock	-12.0564
1006	-12.0565
catalogo	-12.0565
lom	-12.0566
kitty	-12.0566
byredo	-12.0566
wiz	-12.0567
zara	-12.0573
manu	-12.0575
westminster	-12.0576
fantastic	-12.0577
hoo	-12.058
attachments	-12.0581
phy	-12.0581
vcard	-12.0581
1974	-12.0582
3031	-12.0583
mex	-12.0585
psy	-12.0586
butterfly	-12.0587
1898	-12.0588
kova	-12.0593
frei	-12.0594
+2+	-12.0595
-1000-	-12.0596
puerto	-12.0598
otu	-12.0599
valid	-12.06
fap	-12.0601
milan	-12.0604
garmin	-12.0605
roi	-12.0605
anos	-12.0606
crack	-12.0607
mysnu	-12.0609
cosmetic	-12.0612
tul	-12.0613
-2020	-12.0615
isabel	-12.0617
1910	-12.0618
kali	-12.0622
driving	-12.0623
ifeng	-12.0623
noble	-12.0624
1955	-12.0625
tsi	-12.0627
abb	-12.0631
baum	-12.0632
safari	-12.0635
satellite	-12.0636
tyler	-12.064
zhan	-12.064
mitula	-12.064
cabin	-12.0641
outdoors	-12.0642
homework	-12.0644
ftp	-12.0647
dina	-12.0647
meds	-12.0648
paw	-12.0654
setlang	-12.0659
tot	-12.066
profit	-12.0662
ccd	-12.0663
dae	-12.0665
2567	-12.0665
1911	-12.0665
response	-12.0666
1977	-12.0666
luggage	-12.0667
3%83%88	-12.0668
/211	-12.0673
3%80%8	-12.0675
/237	-12.0677
tamil	-12.0677
lloyd	-12.0678
maple	-12.0678
cluster	-12.0681
generic	-12.0681
ricular	-12.0681
sburg	-12.0686
2-%	-12.0687
annual	-12.0687
diane	-12.0688
selllikeitem	-12.0689
haw	-12.069
holt	-12.0691
machines	-12.0691
dakota	-12.0691
pok	-12.0692
/2009	-12.0693
/207	-12.0695
nak	-12.0698
sous	-12.0699
nyi	-12.0699
kanto	-12.0701
dani	-12.0703
srv	-12.0703
meaning	-12.0703
1314	-12.0708
steamboat	-12.0709
rabbit	-12.0713
opac	-12.0714
1914	-12.0715
ory	-12.0718
kita	-12.0722
troy	-12.0722
cookpad	-12.0722
sandals	-12.0727
nite	-12.0727
msk	-12.0728
avantgardeni	-12.0728
lovely	-12.073
casting	-12.073
alcott	-12.0733
eed	-12.0733
hotpepper	-12.0733
3-4	-12.0735
/281	-12.0735
zed	-12.0735
mzm	-12.0736
jour	-12.0736
edf	-12.0739
mortgage	-12.0739
usr	-12.0741
tore	-12.0742
recruitment	-12.0743
zag	-12.0746
ricerca	-12.0747
/206	-12.0749
apartamento	-12.075
screenshots	-12.075
interactive	-12.075
/267	-12.0751
cry	-12.0753
crest	-12.0753
insight	-12.0754
beth	-12.0755
discuss	-12.0758
modular	-12.0758
jusbrasil	-12.0758
defense	-12.076
hudson	-12.0767
=96	-12.0767
trees	-12.0767
ntk	-12.077
chamber	-12.0771
wetter	-12.0773
leonard	-12.0777
yxj	-12.0778
couture	-12.0778
nal	-12.0778
roberto	-12.0778
hak	-12.078
pontiac	-12.078
sectionid	-12.078
beli	-12.078
please	-12.0782
lore	-12.0783
grab	-12.0785
/250	-12.0786
meal	-12.0787
virgin	-12.079
reel	-12.079
dino	-12.0791
rightmove	-12.0791
nieznany	-12.0792
quartz	-12.0794
robinson	-12.0796
8%83%	-12.0796
aee	-12.0796
newest	-12.0796
tale	-12.0798
cosplay	-12.0801
888.	-12.0802
camper	-12.0803
pepper	-12.0803
cbb	-12.0805
mueller	-12.0806
fbd	-12.0807
utah	-12.081
mjy	-12.081
porntags	-12.0812
estimate	-12.0814
1102	-12.0817
charlie	-12.0817
bean	-12.0817
nicholas	-12.0817
built	-12.0818
-2016	-12.082
xda	-12.0821
tte	-12.0825
avia	-12.0825
-2-0-	-12.0829
crusher	-12.083
alberto	-12.0832
gestion	-12.0833
=80&	-12.0834
daf	-12.0834
ngo	-12.0842
holy	-12.0843
jem	-12.0844
scuola	-12.0844
kaw	-12.0848
engagement	-12.0848
1819	-12.0849
stem	-12.085
rov	-12.085
1202	-12.0851
1901	-12.0851
astmoney	-12.0853
grave	-12.0854
=32&	-12.0855
manta	-12.0856
vers	-12.0856
=26&	-12.0856
sewing	-12.0858
ziprecruiter	-12.086
kari	-12.086
produkty	-12.0861
/282	-12.0862
cpu	-12.0863
=92	-12.0869
aluminium	-12.0869
/209	-12.087
harvard	-12.0871
fprovince	-12.0873
cruiser	-12.0874
minutes	-12.0875
modal	-12.0878
:1,	-12.0879
gall	-12.0879
alo	-12.0879
=89	-12.088
maths	-12.0881
iva	-12.0882
trap	-12.0883
nana	-12.0884
101.	-12.0886
mere	-12.0887
ferrari	-12.0887
triumph	-12.089
mosaic	-12.089
3%83%99%	-12.089
-38-	-12.0891
till	-12.0891
javier	-12.0895
=300	-12.0895
missouri	-12.0896
juegos	-12.0899
colorful	-12.0899
sexual	-12.0899
-48-	-12.09
8%99%	-12.0902
filing	-12.0904
1012	-12.0906
discogs	-12.091
biritiba	-12.0912
patterns	-12.0912
dust	-12.0913
provincia	-12.0914
chelsea	-12.0914
anniversary	-12.0914
chennai	-12.0915
2105	-12.0915
schutz	-12.0917
itemlist	-12.0917
imi	-12.0918
loupan	-12.0918
8253	-12.092
mzy	-12.0922
=2018	-12.0922
kurs	-12.0925
awesome	-12.0926
twist	-12.0927
fotografie	-12.0929
fav	-12.0932
ily	-12.0936
mtk	-12.0936
tac	-12.0937
exercise	-12.0938
professor	-12.0939
leagueof	-12.0942
keyboard	-12.0942
highland	-12.0943
7395	-12.0943
/2014-	-12.0946
cfe	-12.0947
mura	-12.0948
beads	-12.0948
quer	-12.095
emergency	-12.0951
1860	-12.0951
mkt	-12.0952
annonces	-12.0957
rubrikk	-12.0959
1210	-12.096
rated	-12.0961
supreme	-12.0962
nsf	-12.0962
joel	-12.0962
scout	-12.0963
weber	-12.0963
bulbs	-12.0966
bcf	-12.0966
triple	-12.0967
flora	-12.0969
inspection	-12.0969
splar	-12.097
diff	-12.0971
connections	-12.0972
erie	-12.0972
concert	-12.0974
banana	-12.0978
gateway	-12.0981
pony	-12.0983
varime	-12.0986
bokafl	-12.0988
lana	-12.0989
marion	-12.0989
kumar	-12.099
kurt	-12.0995
progress	-12.0996
aurora	-12.0998
hannah	-12.0999
zipcode	-12.1
leadership	-12.1003
jes	-12.1005
150-	-12.1007
2800	-12.1009
grabcad	-12.101
8%25	-12.1014
akunder	-12.1015
relation	-12.1015
hir	-12.1016
czech	-12.1017
themovie	-12.1021
muy	-12.1022
nio	-12.1022
behind	-12.1024
nikon	-12.1025
fernando	-12.1025
maj	-12.1027
corporations	-12.1033
jerry	-12.1033
2%84%	-12.1036
erik	-12.1036
tow	-12.1038
1%84%	-12.1039
00002	-12.1039
sant	-12.1041
hod	-12.1042
enfants	-12.1045
pei	-12.1049
reis	-12.1049
poll	-12.1051
qfang	-12.1051
lorintean	-12.1052
fishbox	-12.1054
/192	-12.1055
catering	-12.1056
dadqw	-12.1057
missyu	-12.1057
iste	-12.1058
jorge	-12.1059
transplante	-12.1059
aircraft	-12.106
=84	-12.1062
2106	-12.1064
gomez	-12.1068
/234	-12.1071
shine	-12.1074
continue	-12.1075
pinnedhotel	-12.1075
fukuoka	-12.1075
pixta	-12.1077
gesetze	-12.1079
bekleidung	-12.1081
ija	-12.1082
/230	-12.1083
minnesota	-12.1084
president	-12.1084
cosmetics	-12.1084
sunday	-12.1086
bakery	-12.1086
/228	-12.1086
9%95%	-12.1087
9%99%	-12.1088
eureka	-12.1088
nty	-12.1091
2103	-12.1092
damskie	-12.1093
pays	-12.1093
alternative	-12.1095
vous	-12.1095
=150	-12.1098
axis	-12.11
wenda	-12.1103
1915	-12.1104
1113	-12.1105
ntm	-12.1107
cours	-12.1107
vestidos	-12.1109
ciudad	-12.1109
venue	-12.111
install	-12.1111
assessment	-12.1112
hebrew	-12.1112
2023	-12.1116
benefits	-12.1121
philosophy	-12.1121
passe	-12.1121
1000.	-12.1121
campo	-12.1123
/270	-12.1123
zebra	-12.1124
efc	-12.1129
hanging	-12.1129
и	-12.1132
initial	-12.1134
hum	-12.1139
cooling	-12.1141
zhou	-12.1142
redhead	-12.1142
frost	-12.1145
philadelphia	-12.1147
productos	-12.1147
tamanho	-12.1147
superior	-12.1148
woo	-12.1149
drom	-12.115
essays	-12.1151
valencia	-12.1152
wrought	-12.1152
tingsa	-12.1152
=149	-12.1153
whirlpool	-12.1154
atlantic	-12.1154
mile	-12.1156
mjq	-12.1156
tfe	-12.1156
/2006	-12.1158
nearby	-12.1161
associate	-12.1162
1946	-12.1162
srule	-12.1165
buscar	-12.1165
fon	-12.1168
tutorial	-12.117
dim	-12.1171
descargar	-12.1171
decal	-12.1172
nah	-12.1173
psu	-12.1173
symbol	-12.1174
dyn	-12.1174
postcode	-12.1175
nuwber	-12.1175
hamburg	-12.1175
nouvelle	-12.1177
regiao	-12.1179
whole	-12.1179
million	-12.1181
/202	-12.1186
command	-12.1188
preis	-12.1189
rutor	-12.119
sebastian	-12.119
12&	-12.1194
rifle	-12.1194
begin	-12.1195
flying	-12.1195
1953	-12.1196
tiere	-12.1197
flame	-12.1197
lml	-12.1197
-1080	-12.1197
claudia	-12.1197
washer	-12.1198
investing	-12.1198
athome	-12.12
staging	-12.1201
listtag	-12.1205
constru	-12.1205
haynes	-12.1205
denis	-12.1206
wrangler	-12.1206
ral	-12.1208
1956	-12.1209
mtb	-12.121
ipaddress	-12.1211
fairy	-12.1211
criminal	-12.1213
cottage	-12.1214
jimmy	-12.1214
poke	-12.1214
acp	-12.1216
nen	-12.1218
fba	-12.122
pons	-12.122
cdl	-12.1221
banks	-12.1223
henri	-12.1224
recettes	-12.1227
kakaku	-12.1228
1217	-12.1228
/263	-12.1229
1016	-12.1234
going	-12.1235
2204	-12.1236
bdc	-12.1236
values	-12.1242
=101&	-12.1243
0100	-12.1243
montana	-12.1244
ign	-12.1244
skip	-12.1245
riding	-12.1245
marin	-12.1245
frac	-12.1246
enjoy	-12.1247
chief	-12.1248
buick	-12.1248
fce	-12.1248
zoeken	-12.1249
agu	-12.1249
sep	-12.1249
mek	-12.1252
frederic	-12.1253
pakistan	-12.1256
usces	-12.1256
aeg	-12.1258
soy	-12.1258
caps	-12.1259
efd	-12.126
6%94%	-12.126
mold	-12.126
contest	-12.1261
salarytype	-12.1261
certification	-12.1264
tui	-12.1265
100000	-12.1266
precision	-12.1267
christina	-12.1267
yourself	-12.1268
degree	-12.127
1105	-12.127
pam	-12.1271
1923	-12.1272
anum	-12.1274
hino	-12.1274
advance	-12.1279
catholic	-12.1281
hse	-12.1281
traduction	-12.1281
steps	-12.1281
ddr	-12.1282
/203	-12.1286
pian	-12.1288
sym	-12.1289
eventi	-12.129
calgary	-12.1291
mkk	-12.1291
winkel	-12.1295
bound	-12.1296
jeux	-12.1296
frontier	-12.1297
loon	-12.1298
gig	-12.1299
fou	-12.13
taste	-12.1301
yoo	-12.1301
lev	-12.1302
lover	-12.1302
worker	-12.1304
/252	-12.1307
polish	-12.1308
ruby	-12.1308
katu	-12.1308
virgilio	-12.1309
volzhanka	-12.1311
1122	-12.1312
murphy	-12.1319
wasser	-12.1321
olo	-12.1321
hasta	-12.1322
complet	-12.1322
sharon	-12.1322
manufacturing	-12.1323
ean	-12.1327
1301	-12.1328
7_2	-12.133
jade	-12.133
saitama	-12.1333
nek	-12.1337
autor	-12.1341
jackets	-12.1344
koop	-12.1344
lem	-12.1345
interiors	-12.1346
carlo	-12.1348
2205	-12.1351
2202	-12.1352
1013	-12.1356
wisconsin	-12.1356
quizlet	-12.1357
:2	-12.1357
maru	-12.1359
maryland	-12.136
suomi	-12.1361
competition	-12.1362
1250	-12.1362
cuc	-12.1362
jiage	-12.1362
diva	-12.1365
kow	-12.1365
raymond	-12.1366
1972	-12.1368
reno	-12.137
hoc	-12.1371
branduid	-12.1373
=72	-12.1374
formation	-12.1374
hin	-12.1377
efb	-12.1382
rage	-12.1382
hoch	-12.1382
jenny	-12.1384
1215	-12.1384
mister	-12.1386
/262	-12.1387
1992	-12.1392
pullover	-12.1393
dak	-12.1395
vac	-12.1398
%20%26%20	-12.14
nordic	-12.1401
nex	-12.1403
gle	-12.1404
=4000	-12.1407
lease	-12.1409
1104	-12.141
odu	-12.1412
regal	-12.1414
wealth	-12.1416
pao	-12.1418
rprs	-12.1418
cuba	-12.1418
vital	-12.1424
springer	-12.1425
biguz	-12.1425
gmt	-12.1426
-03-	-12.1431
louise	-12.1436
itunes	-12.1437
savage	-12.1437
mrc	-12.1439
various	-12.1439
cleveland	-12.144
removal	-12.1441
1810	-12.1441
sync	-12.1443
=65	-12.1444
-29-	-12.1444
santiago	-12.1448
navigation	-12.145
2305	-12.145
xperia	-12.1451
gulf	-12.1451
rar	-12.1452
mty	-12.1453
fifa	-12.1455
distribution	-12.1455
lines	-12.1457
sql	-12.1463
=28&	-12.1463
sail	-12.1463
patient	-12.1466
yar	-12.1466
dars	-12.1468
skiy	-12.1471
koy	-12.1473
cite	-12.1474
rek	-12.1475
-125-	-12.1478
1023	-12.1479
2306	-12.148
1920	-12.148
mango	-12.1481
rayon	-12.1482
lantern	-12.1482
ways	-12.1484
clustr	-12.1486
=72&	-12.1487
manage	-12.1488
matte	-12.1488
tight	-12.1489
dbid	-12.1491
kolor	-12.1493
etti	-12.1493
analyse	-12.1498
desire	-12.1501
ubbthreads	-12.1501
tampa	-12.1501
gregory	-12.1504
/2012-	-12.1504
mog	-12.1504
duvet	-12.1505
ebcoo	-12.1508
acrylic	-12.1508
replay	-12.1508
eokaz	-12.1508
=126	-12.1508
mzq	-12.1509
dominique	-12.1513
businesses	-12.1514
sti	-12.1516
petrol	-12.1517
curtains	-12.152
kem	-12.152
accommodation	-12.1522
bloom	-12.1523
=2019	-12.1524
edc	-12.1524
/260	-12.1524
kut	-12.1525
penn	-12.1527
vapor	-12.1527
uhlai	-12.1528
quy	-12.1531
-2001-	-12.1533
ized	-12.1533
shang	-12.1533
ratings	-12.1535
silverado	-12.1537
250-	-12.1538
themen	-12.1539
zyjgp	-12.154
bare	-12.154
afd	-12.1541
xie	-12.1542
bala	-12.1544
meeco	-12.1546
=81&	-12.1548
1947	-12.1549
samtec	-12.1549
simpson	-12.1551
jewellery	-12.1553
/239	-12.1556
/194	-12.1557
boobs	-12.1558
umi	-12.1558
bros	-12.1559
bdsm	-12.1563
ably	-12.1565
0011	-12.1565
breeder	-12.1567
zio	-12.157
lut	-12.157
authentic	-12.1571
flu	-12.1572
disco	-12.1572
niu	-12.1573
1937	-12.1573
quantity	-12.1573
volunteering	-12.1574
investor	-12.1574
leder	-12.1574
=61	-12.1575
mitchell	-12.1577
radiator	-12.1577
zso	-12.1577
television	-12.1578
2018.	-12.1582
/204	-12.1585
cambio	-12.1587
erin	-12.1588
/251	-12.1589
offerup	-12.1589
alfred	-12.1591
thor	-12.1592
burning	-12.1594
fern	-12.1594
ilove	-12.1595
newspaperarchive	-12.1595
hap	-12.1598
geschichte	-12.1598
autotrader	-12.1598
elixir	-12.16
3300	-12.16
loose	-12.1602
michelin	-12.1602
dang	-12.1604
flor	-12.1607
calvin	-12.1607
luatgiaothong	-12.1607
chick	-12.1609
divine	-12.1609
hpe	-12.1611
14&	-12.1611
mafengwo	-12.1612
kris	-12.1613
labor	-12.1614
pornstars	-12.1616
cromosoma	-12.1617
ruliweb	-12.1617
1609	-12.1617
lig	-12.162
atom	-12.1622
/2012	-12.1622
/195	-12.1622
newsletter	-12.1623
judy	-12.1623
finn	-12.1624
barra	-12.1625
vier	-12.1626
ppo	-12.1626
tok	-12.1628
platinum	-12.1629
gleez	-12.1629
letters	-12.1631
zna	-12.1631
ntq	-12.1632
together	-12.1632
searchword	-12.1634
eyes	-12.1634
pik	-12.1635
moovit	-12.1637
listen	-12.1641
=27&	-12.1642
automation	-12.1643
bureau	-12.1643
programs	-12.1644
itemcondition	-12.1649
1922	-12.1652
lama	-12.1653
owns	-12.1654
convertible	-12.1658
bangladesh	-12.1661
0006	-12.1662
potential	-12.1663
mji	-12.1666
revision	-12.1667
daddy	-12.1668
2080	-12.1668
/224	-12.1668
mtq	-12.1669
=87	-12.1669
jeremy	-12.1671
jal	-12.1671
20&	-12.1672
edgar	-12.1672
tti	-12.1675
114.	-12.1678
orbis	-12.168
dil	-12.168
rbt	-12.1682
buddy	-12.1683
officer	-12.1685
portland	-12.1685
jvc	-12.1685
/277	-12.1686
6%96%99	-12.1688
qry	-12.1689
iku	-12.1689
schmidt	-12.1695
2102	-12.1698
vez	-12.1698
paz	-12.1698
3001	-12.1698
contentid	-12.1701
3%83%94%	-12.1703
uongbo	-12.1703
vox	-12.1706
familia	-12.1708
tyw	-12.171
=95	-12.171
fungal	-12.1711
rik	-12.1711
1204	-12.1713
lund	-12.1713
herr	-12.1713
zim	-12.1713
rally	-12.1715
bristol	-12.1715
perm	-12.1716
czesci	-12.1719
izle	-12.1721
personalized	-12.1722
singh	-12.1723
bfb	-12.1724
matches	-12.1724
riz	-12.1729
viral	-12.1731
1917	-12.1734
cny	-12.1735
fila	-12.1736
appform	-12.1737
professionals	-12.1738
=62	-12.1738
4500	-12.1739
zarafa	-12.1739
/2013-	-12.1739
rosen	-12.174
aab	-12.1742
bride	-12.1742
ifg	-12.1744
bookcase	-12.1746
surprise	-12.1748
everyday	-12.1749
roland	-12.1753
stack	-12.1754
payment	-12.1755
oko	-12.1755
selfridges	-12.1757
pdt	-12.176
programm	-12.1762
strand	-12.1763
bridal	-12.1764
clo	-12.1766
1949	-12.1766
nju	-12.1766
inmuebles	-12.1768
-2018/	-12.1768
=70&	-12.1769
skill	-12.1772
attraction	-12.1773
lotto	-12.1774
osagecounty	-12.1777
artworld	-12.178
alla	-12.178
polska	-12.178
%95%9	-12.178
engel	-12.1783
wade	-12.1783
cultura	-12.1785
ington	-12.1785
nem	-12.1786
2210	-12.179
evening	-12.1792
2104	-12.1793
ovi	-12.1793
katie	-12.1794
2108	-12.1795
0101	-12.1796
yumpu	-12.18
minh	-12.18
lick	-12.1801
bfirstname	-12.1804
oracle	-12.1806
evil	-12.1807
poshmark	-12.1807
sidebar	-12.1808
fach	-12.1809
bola	-12.1809
magatzem	-12.1809
nepal	-12.1809
minkara	-12.1811
anruf	-12.1812
scratch	-12.1814
poland	-12.1817
2150	-12.182
waste	-12.1821
mjk	-12.1821
encyclopedia	-12.1822
1205	-12.1823
2316	-12.1824
2304	-12.1824
subscribe	-12.1825
vaz	-12.1825
-101-	-12.1828
nickel	-12.1829
elektronika	-12.1829
agents	-12.1831
beam	-12.1831
votre	-12.1831
interracial	-12.1832
2050	-12.1833
rugby	-12.1834
humor	-12.1834
viviendas	-12.1837
%22%2	-12.1839
gina	-12.1839
anatomy	-12.1843
trial	-12.1844
halo	-12.1844
0%94%	-12.1848
1909	-12.1848
yat	-12.1849
different	-12.1853
req	-12.1854
include	-12.1855
parents	-12.1859
uwe	-12.186
jeu	-12.1861
,,	-12.1868
ixirc	-12.1869
dnb	-12.1869
&__	-12.187
0800	-12.1876
2525	-12.1876
pun	-12.1877
franz	-12.1879
alexandra	-12.1879
1709	-12.1879
libri	-12.188
turner	-12.1881
maysville	-12.1882
sunset	-12.1883
mila	-12.1883
geometric	-12.1886
bunk	-12.1887
1907	-12.189
mjc	-12.1894
mattress	-12.1894
lack	-12.1895
etter	-12.1896
=55	-12.1897
_10/	-12.1898
nicht	-12.1899
1942	-12.1899
/2011-	-12.1899
simply	-12.1901
wfhejinguan	-12.1902
quin	-12.1902
rama	-12.1902
kleding	-12.1907
guideinfo	-12.1908
hands	-12.1909
bikesale	-12.191
0019	-12.191
listebook	-12.1911
clutch	-12.1911
intra	-12.1917
baixing	-12.1918
alien	-12.1919
gazette	-12.192
fireplace	-12.192
cheese	-12.192
slice	-12.192
epson	-12.1921
condo	-12.1922
collect	-12.1923
1900	-12.1923
liner	-12.1923
drugs	-12.1925
1140	-12.1928
eos	-12.1928
babes	-12.193
lamb	-12.193
nim	-12.1931
omega	-12.1933
skull	-12.1934
guba	-12.1936
ramon	-12.1937
cht	-12.1937
fam	-12.1938
neighbors	-12.1939
hag	-12.194
arnold	-12.194
yves	-12.1941
2208	-12.1943
filtre	-12.1943
clan	-12.1943
=139	-12.1945
subcategory	-12.1949
=82&	-12.195
atm	-12.195
father	-12.1952
mineral	-12.1952
gloves	-12.1952
done	-12.1955
elk	-12.1957
ologie	-12.1958
/272	-12.1959
hotelsnear	-12.1961
tterytradingpost	-12.1962
%89	-12.1962
servis	-12.1965
mona	-12.1966
cflt	-12.1967
pac	-12.1969
1-_-	-12.1971
nogo	-12.1972
eira	-12.1972
dome	-12.1973
once	-12.1977
kenkenn	-12.1977
another	-12.1978
1970	-12.1978
rural	-12.1979
lier	-12.1983
solder	-12.1983
frog	-12.1983
communityguide	-12.1984
burger	-12.1986
0003	-12.1988
1952	-12.199
0020	-12.1991
csdn	-12.1992
eyjvcmrlc	-12.1992
kubota	-12.1993
dock	-12.1993
musique	-12.1994
mey	-12.1996
4096	-12.1997
-120-	-12.1997
larry	-12.1998
viking	-12.2
starofservice	-12.2001
semanticscholar	-12.2005
famous	-12.2007
kok	-12.2007
older	-12.2007
jyw	-12.2007
bulletin	-12.2008
thenew	-12.2009
enberg	-12.2012
alloy	-12.2013
ial	-12.2014
billing	-12.2017
nieuws	-12.2017
they	-12.2017
hloubka	-12.2018
2010.	-12.2019
emmaj	-12.2021
eria	-12.2023
vina	-12.2023
1805	-12.203
lez	-12.2031
kategorie	-12.2032
award	-12.2034
vig	-12.2039
ose	-12.204
wot	-12.2042
nathan	-12.2045
ilan	-12.2048
1850	-12.2048
due	-12.2048
bfa	-12.205
=29&	-12.205
pio	-12.2051
1815	-12.2051
rib	-12.2051
marcus	-12.2052
eck	-12.2053
lew	-12.2053
3-%	-12.2057
ester	-12.2058
dung	-12.2063
-2000	-12.2064
tica	-12.2067
zubehoer	-12.2069
footwear	-12.207
vari	-12.2073
marker	-12.2075
0402	-12.2075
=51&	-12.2078
homepage	-12.2082
1216	-12.2082
flg	-12.2084
patiodining	-12.2085
shimano	-12.2086
wtf	-12.2086
peg	-12.2086
bog	-12.2089
devil	-12.209
8228	-12.2093
abi	-12.2093
2025	-12.2095
ostreview	-12.2095
ario	-12.2099
bum	-12.21
xcode	-12.21
2160	-12.2101
crochet	-12.2105
zaak	-12.2105
wag	-12.2109
compressor	-12.2111
papier	-12.2111
ronald	-12.2113
offerte	-12.2115
2209	-12.2116
haute	-12.2117
xzy	-12.2118
nda	-12.2118
agoda	-12.2119
farbe	-12.2119
tho	-12.2119
2203	-12.212
adapt	-12.2121
newyork	-12.2121
dune	-12.2121
environment	-12.2121
kang	-12.2121
aka	-12.2122
userreview	-12.2126
boro	-12.2126
ubalt	-12.2131
hyperion	-12.2133
sahibinden	-12.2135
/289	-12.2136
attorney	-12.2139
bumper	-12.2141
/232	-12.2141
themes	-12.2142
/317	-12.2146
pzd	-12.2146
clipart	-12.2146
2027	-12.2147
blok	-12.2148
yumep	-12.2149
breast	-12.215
concepts	-12.2152
uci	-12.2156
elephant	-12.216
flats	-12.216
gros	-12.2162
1931	-12.2162
huoche	-12.2164
artificial	-12.2166
amphenol	-12.2167
istic	-12.2168
007.	-12.2171
/236	-12.2172
fgk	-12.2177
gross	-12.2178
dine	-12.2179
akt	-12.2179
1000000	-12.218
ecf	-12.2181
methods	-12.2181
0%91%	-12.2182
egy	-12.2183
panama	-12.2183
glow	-12.2185
lastpost	-12.2185
mik	-12.2185
kirk	-12.2188
izer	-12.2188
2214	-12.2188
2603	-12.2189
/233	-12.2189
dorothy	-12.219
1938	-12.219
clara	-12.219
gtx	-12.2191
264-	-12.2192
zek	-12.2193
pond	-12.2198
lies	-12.2201
reset	-12.2202
jai	-12.2202
=73&	-12.2204
violet	-12.2209
15697-1	-12.2211
pestcontrol	-12.2211
nig	-12.2213
nous	-12.2215
elementary	-12.2217
luv	-12.2218
1957	-12.2218
0-4	-12.2219
pedal	-12.222
deer	-12.2221
1903	-12.2223
matome	-12.2228
julian	-12.2229
=77&	-12.223
crunchba	-12.223
asics	-12.2231
mercer	-12.2232
penny	-12.2233
1688	-12.2235
catawiki	-12.2237
virus	-12.2237
lipcoin	-12.2238
/2014/	-12.224
15&	-12.2242
travaux	-12.2242
neue	-12.2242
xome	-12.2243
kentucky	-12.2244
goal	-12.2246
mjg	-12.2247
1230	-12.2247
1112	-12.2248
quora	-12.225
temporary	-12.2251
messages	-12.2253
rescue	-12.2254
1405	-12.2255
gfdt	-12.2257
kick	-12.2258
phillips	-12.2258
hanoi	-12.2259
lecture	-12.2259
sty	-12.226
innovation	-12.2261
1608	-12.2261
recording	-12.2261
slow	-12.2262
katy	-12.2263
weebly	-12.2265
killer	-12.2269
2040	-12.227
onderdelen	-12.227
1280	-12.2271
1943	-12.2272
-400-	-12.2275
embroidery	-12.2277
socket	-12.2277
funk	-12.2278
2109	-12.2279
continental	-12.2279
oklahoma	-12.2281
ties	-12.2281
wjh	-12.2282
#!/	-12.2284
blind	-12.2286
aishudi	-12.2288
acf	-12.2288
teresa	-12.229
nails	-12.2291
qiu	-12.2291
memories	-12.2292
vej	-12.2292
1406	-12.2293
hcm	-12.2293
tir	-12.2294
kry	-12.2296
reef	-12.2299
2_3	-12.23
native	-12.23
latino	-12.2302
bong	-12.2303
iwa	-12.2303
nje	-12.2304
2560	-12.2306
referral	-12.2307
johnny	-12.2309
unicorn	-12.2312
impression	-12.2313
mju	-12.2314
linear	-12.2316
=55&	-12.2318
jur	-12.2318
chapman	-12.2319
taro	-12.2321
hale	-12.2322
2100	-12.2322
klub	-12.2323
3237	-12.2325
obi	-12.2325
%97	-12.2327
january	-12.2327
nagar	-12.2328
nescafe	-12.2329
feat	-12.233
credenciales	-12.233
1145	-12.2331
harvey	-12.2333
zoe	-12.2333
1150	-12.2334
bari	-12.2334
jetta	-12.2335
analyst	-12.2335
2%9	-12.2335
2001	-12.2336
distancia	-12.2338
hud	-12.2339
conversion	-12.2341
mau	-12.2342
graf	-12.2343
/244	-12.2343
6-4	-12.2347
bauboard	-12.2348
outouj	-12.2349
1009	-12.235
silotype	-12.235
9781	-12.2351
glitter	-12.2351
nej	-12.2353
while	-12.2354
rafael	-12.2355
igo	-12.2356
/259	-12.2356
lokre	-12.2357
1302	-12.2357
punk	-12.2358
rash	-12.2359
1021	-12.2359
bouw	-12.236
angebote	-12.2362
1948	-12.2364
mez	-12.2366
romantic	-12.2367
animation	-12.2368
spice	-12.2369
whats	-12.237
barber	-12.2371
ndg	-12.2373
peel	-12.2373
subcat	-12.2373
ndy	-12.2374
gbp	-12.2375
ikea	-12.2378
attack	-12.2378
becker	-12.2378
elisabeth	-12.238
casio	-12.2382
nhl	-12.2383
analog	-12.2383
vacatures	-12.2386
highlife	-12.2387
=31&	-12.2389
gangbang	-12.239
/313	-12.239
phim	-12.2391
lao	-12.2393
burton	-12.2393
cue	-12.2395
sistema	-12.2396
1060	-12.2397
wort	-12.2397
october	-12.2399
gsn	-12.2402
/13/	-12.2402
bia	-12.2403
investors	-12.2403
threesome	-12.2406
gain	-12.2406
converse	-12.2408
gri	-12.2409
aerospace	-12.2411
oaqeadqw	-12.2412
noj	-12.2415
convert	-12.2416
tura	-12.2417
zem	-12.2418
hifi	-12.2419
haar	-12.2419
lyst	-12.2421
vega	-12.2422
waist	-12.2424
moviecinema	-12.2424
bomb	-12.2424
8231	-12.2425
/401	-12.2427
releases	-12.243
13&	-12.243
/292	-12.2431
2101	-12.2433
cjb	-12.2434
machi	-12.2435
afb	-12.2436
hjcz	-12.2438
voj	-12.2438
chez	-12.2441
kobe	-12.2441
1101	-12.2444
penis	-12.2445
.192.	-12.2445
orgasm	-12.2446
corolla	-12.2447
livejournal	-12.2448
9%85-%	-12.2449
bailey	-12.245
ghi	-12.2451
chaise	-12.2453
qian	-12.2454
mcolombia	-12.2455
hung	-12.2457
1025	-12.2458
mali	-12.2463
dressers	-12.2465
=78&	-12.2465
izi	-12.2467
heb	-12.2467
roofing	-12.2467
climate	-12.2467
/245	-12.2468
marken	-12.2472
1604	-12.2472
oriental	-12.2473
ecco	-12.2474
4400	-12.2475
cntry	-12.2475
fate	-12.2479
aut	-12.2483
aim	-12.2483
mcode	-12.2485
nate	-12.2487
cisco	-12.2488
mzk	-12.2488
contribute	-12.249
lcy	-12.2491
psi	-12.2491
1203	-12.2492
punto	-12.2493
luke	-12.2494
1870	-12.2495
jetpix	-12.2495
2-4	-12.2495
kreis	-12.2496
azione	-12.2496
ahmed	-12.2497
devices	-12.2498
1880	-12.2503
ubb	-12.2504
laundry	-12.2505
7%90%	-12.2506
pixiv	-12.2507
paula	-12.2509
again	-12.2509
alpes	-12.251
/255	-12.2512
josh	-12.2515
monroe	-12.2516
remix	-12.2517
gerard	-12.252
nja	-12.252
dbf	-12.2521
xxxtube	-12.2522
lena	-12.2524
float	-12.2527
2605	-12.2527
parka	-12.2528
1912	-12.2528
cheep	-12.2531
=53&	-12.2532
agi	-12.2533
oficial	-12.2534
harrison	-12.2535
2215	-12.2536
effects	-12.2536
lui	-12.2536
umc	-12.2539
anuncios	-12.2539
challege	-12.254
aji	-12.2541
komatsu	-12.2541
bundle	-12.2541
mist	-12.2544
rtl	-12.2544
nzi	-12.2547
xoo	-12.2547
dessert	-12.2551
2804	-12.2552
pablo	-12.2553
slave	-12.2555
merken	-12.2556
ducati	-12.2557
owski	-12.2558
suggest	-12.256
badge	-12.2562
2075	-12.2563
nip	-12.2563
vase	-12.2563
vuz	-12.2564
quiaappel	-12.2565
mdf	-12.2565
tiffany	-12.2565
=83	-12.2567
fill	-12.2571
esh	-12.2572
colin	-12.2573
/2009-	-12.2573
lice	-12.2574
tah	-12.2575
which	-12.2575
mig	-12.2576
mente	-12.2576
2201	-12.2579
jidiao	-12.2579
/2020-	-12.2579
gis	-12.2579
rocker	-12.2581
achat	-12.2581
maine	-12.2581
lau	-12.2581
1240	-12.2581
screw	-12.2582
1718	-12.2582
goes	-12.2585
lookfor	-12.2585
temps	-12.2585
nika	-12.2586
?___	-12.2586
oke	-12.2587
%83%8	-12.2587
mockup	-12.2587
amg	-12.2588
uit	-12.2588
blockspam	-12.2588
1143	-12.2588
shina	-12.2593
3830	-12.2594
archi	-12.2594
9%81%8	-12.2594
kyu	-12.2594
kaskus	-12.2594
qaak	-12.2596
2030	-12.2599
1008	-12.2599
foster	-12.26
lovers	-12.26
pana	-12.26
champ	-12.26
jsa	-12.2602
pret	-12.2602
umbrella	-12.2603
availability	-12.2603
odhrwczovl	-12.2606
1402	-12.2607
-2014.	-12.2608
/243	-12.2609
servicio	-12.261
attach	-12.261
armani	-12.2611
pmc	-12.2612
bungalow	-12.2612
loi	-12.2615
2222	-12.2615
lightbox	-12.2618
huang	-12.2619
arrival	-12.2619
polymer	-12.2621
zet	-12.2624
mrs	-12.2624
/325	-12.2625
yuki	-12.2625
nintendo	-12.2626
%25252	-12.2628
fanfiction	-12.2629
duration	-12.2631
-2019/	-12.2632
ije	-12.2632
oxy	-12.2633
factor	-12.2635
trainers	-12.2635
qaaz	-12.2638
heels	-12.2638
cem	-12.2638
blob	-12.2639
diaz	-12.264
connectivity	-12.264
truyen	-12.264
/2012/	-12.2641
zhang	-12.2641
lotus	-12.2641
jiao	-12.2641
zhihu	-12.2642
nevada	-12.2646
extended	-12.2649
handy	-12.265
1902	-12.2652
chuwe	-12.2652
8191	-12.2653
2345	-12.2653
bshouban	-12.2653
zyw	-12.2654
swinfs	-12.2657
1530	-12.2657
1961	-12.2658
niy	-12.2664
collective	-12.2664
arian	-12.2665
vehicleid	-12.2667
expsc	-12.2667
2216	-12.2668
ike	-12.2669
fussball	-12.2669
-2011	-12.267
drew	-12.2671
1650	-12.2672
-400	-12.2674
ivory	-12.2675
boattrader	-12.2678
plum	-12.2679
-42-	-12.2683
=45&	-12.2688
moscow	-12.2689
а	-12.269
thermal	-12.2691
2219	-12.2691
hypo	-12.2692
bett	-12.2692
1812	-12.2692
/249	-12.2693
moss	-12.2694
1536	-12.2694
dien	-12.2695
tumbex	-12.2696
pest	-12.2697
pension	-12.2698
/318	-12.2698
1605	-12.2699
zhao	-12.2699
inspiration	-12.27
diving	-12.27
personnel	-12.2701
ntt	-12.2701
1019	-12.2702
858-	-12.2705
sendmessage	-12.2705
loy	-12.2707
salad	-12.2707
3600	-12.2708
alphabet	-12.2708
laguna	-12.2709
called	-12.2709
plane	-12.271
mana	-12.271
=136	-12.2711
nordt	-12.2711
/288	-12.2712
compilation	-12.2713
consultancy	-12.2713
ieren	-12.2714
lotrisone	-12.2715
_10_	-12.2716
reblog	-12.2718
mumbai	-12.2718
wyn	-12.2722
wikimedia	-12.2723
tianya	-12.2723
infant	-12.2723
sheets	-12.2723
eventos	-12.2725
=2017	-12.2727
understanding	-12.2727
rant	-12.2729
taking	-12.2729
attribute	-12.2734
5%99%	-12.2735
empleo	-12.2735
xuan	-12.2735
2900	-12.2737
1336	-12.2739
1209	-12.2739
1926	-12.2743
splash	-12.2745
captain	-12.2746
peng	-12.2746
buyer	-12.2749
henderson	-12.275
2314	-12.2753
grosse	-12.2753
2601	-12.2755
1950	-12.2757
kingston	-12.2758
chel	-12.276
intro	-12.2762
nora	-12.2763
blazer	-12.2766
atta	-12.2767
3167	-12.2768
jill	-12.2769
yarn	-12.2771
falcon	-12.2771
ering	-12.2771
alaska	-12.2771
bdb	-12.2772
lje	-12.2773
aktiv	-12.2773
bairro	-12.2773
inst	-12.2774
vice	-12.2778
elastic	-12.2779
grocery	-12.278
3786	-12.278
playing	-12.2782
1830	-12.2785
joblisting	-12.2786
1329	-12.2787
recommended	-12.2787
naka	-12.2788
1128	-12.2789
earn	-12.2793
2540	-12.2794
proxy	-12.2796
pornmd	-12.2798
/274	-12.2798
tive	-12.2799
uro	-12.28
1925	-12.2802
administration	-12.2803
scroll	-12.2804
1906	-12.2805
automobile	-12.2806
technician	-12.2808
excavator	-12.2808
forklift	-12.2809
creations	-12.2809
pala	-12.2809
momab	-12.2809
butter	-12.281
1868	-12.281
graduate	-12.2812
00005	-12.2814
apks	-12.2816
zdg	-12.2816
meer	-12.2817
=88	-12.2818
tren	-12.2819
dat	-12.2822
dinner	-12.2822
dna	-12.2822
2506	-12.2822
16&	-12.2824
-350-	-12.2824
xem	-12.2824
tune	-12.2829
meri	-12.283
franco	-12.283
bord	-12.2833
taj	-12.2834
flores	-12.2835
nell	-12.2835
=79&	-12.2835
actu	-12.2836
1818	-12.2836
daisy	-12.2836
/276	-12.2839
/246	-12.2841
odd	-12.2842
2402	-12.2843
ohne	-12.2846
abf	-12.2847
pete	-12.2848
phi	-12.2848
nox	-12.2849
outline	-12.2849
reach	-12.2851
izo	-12.2851
2509	-12.2851
canyon	-12.2853
checkmate	-12.2854
jum	-12.2854
9%96%	-12.2855
-720	-12.2856
deborah	-12.2856
aaf	-12.2856
1429	-12.2857
jamie	-12.2857
massachusetts	-12.2858
fleet	-12.2858
kiev	-12.2859
species	-12.2861
2110	-12.2863
2805	-12.2865
yoshi	-12.2868
arkansas	-12.2869
2046	-12.287
1317	-12.287
ence	-12.287
1305	-12.2871
=63&	-12.2872
janeiro	-12.2873
1408	-12.2875
njy	-12.2875
kane	-12.288
relax	-12.2881
legs	-12.2881
wizard	-12.2883
acres	-12.2883
%2526	-12.2884
cookieid	-12.2885
=90&	-12.2885
trovaprezzi	-12.2886
sconosciuto	-12.2886
vdinfo	-12.2887
tol	-12.2887
conf	-12.2889
kennedy	-12.2892
-2015	-12.2892
=112	-12.2894
mixed	-12.2895
mjm	-12.2896
bruegelmann	-12.2897
mdq	-12.2899
baltimore	-12.2903
fyi	-12.2904
-2012	-12.2905
opf	-12.2905
kamp	-12.2906
instance	-12.2907
muc	-12.2907
ston	-12.2908
sweden	-12.2908
nier	-12.291
apr	-12.291
zee	-12.291
lever	-12.291
aoxiangzdh	-12.2911
1941	-12.2912
countdown	-12.2913
ruiz	-12.2914
pill	-12.2914
9077	-12.2915
jag	-12.2916
coding	-12.2916
cgsjx	-12.292
aso	-12.292
python	-12.2922
cinematographie	-12.2922
-05-	-12.2922
1660	-12.2922
kinpan	-12.2924
2307	-12.2926
poradna	-12.2927
laboratory	-12.2928
2602	-12.293
=~	-12.293
gilbert	-12.2933
cocktail	-12.2934
4806	-12.2935
/293	-12.2937
karin	-12.2937
mouser	-12.2939
/238	-12.2939
ement	-12.2939
atoz	-12.294
michele	-12.2941
maurice	-12.2941
champagne	-12.2941
ibu	-12.2942
mdm	-12.2943
hernandez	-12.2944
2315	-12.2945
odds	-12.2947
calories	-12.2949
fully	-12.2949
writers	-12.295
thy	-12.2953
1960	-12.2954
1881	-12.2954
marta	-12.2955
/301	-12.2956
telecom	-12.2957
2803	-12.2957
aib	-12.2957
sage	-12.2957
1929	-12.2957
ungen	-12.2959
dorf	-12.296
schule	-12.2961
+5+	-12.2962
ankle	-12.2963
=34&	-12.2965
these	-12.2966
felix	-12.2967
keen	-12.2967
3020	-12.2968
rattan	-12.2969
pregnancy	-12.2969
meng	-12.297
.444.	-12.2971
2115	-12.2972
martha	-12.2973
holding	-12.2973
gat	-12.2973
mdg	-12.2974
silo	-12.2975
btn	-12.2976
mean	-12.2976
1896	-12.2979
upgrade	-12.298
gant	-12.298
3535	-12.2983
1184	-12.2983
2310	-12.2984
crash	-12.2985
1308	-12.2985
karte	-12.2986
uhr	-12.2988
3030	-12.2989
banoo	-12.2989
odq	-12.2989
pascal	-12.299
/314	-12.2992
bracket	-12.2992
=38&	-12.2993
sigma	-12.2996
aci	-12.2997
bamboo	-12.2997
voter	-12.2997
relations	-12.2998
swan	-12.2999
amazonaws	-12.2999
1306	-12.3002
herbert	-12.3003
carte	-12.3004
hali	-12.3005
dahl	-12.3007
veneto	-12.3007
zug	-12.3007
zil	-12.3007
buffet	-12.301
kenya	-12.3012
ashx	-12.3013
socialsecurity	-12.3017
1904	-12.302
tutors	-12.3021
/2000	-12.3024
prefectures	-12.3025
threadid	-12.3025
rabota	-12.3026
/302	-12.3026
iqiyi	-12.3026
200000	-12.3027
kao	-12.3028
1877	-12.3029
logi	-12.3029
tix	-12.3033
emilia	-12.3033
zaaz	-12.3034
fond	-12.3034
2%82%	-12.3035
iga	-12.3036
packaging	-12.3037
2504	-12.3039
0102	-12.304
1127	-12.304
klo	-12.3041
passat	-12.3043
1050	-12.3045
=49&	-12.3045
plugin	-12.3046
karten	-12.3046
mond	-12.3047
juergen	-12.3048
1614	-12.305
pow	-12.3054
_1000	-12.3056
sketch	-12.3056
darty	-12.3057
hisense	-12.3058
couch	-12.3059
/306	-12.306
otk	-12.3062
liter	-12.3062
1333	-12.3064
insert	-12.3064
wix	-12.3065
bey	-12.3065
timetable	-12.3068
1944	-12.3071
aku	-12.3073
nsk	-12.3074
mem	-12.3075
nonce	-12.3076
-72-	-12.3076
each	-12.3077
cookies	-12.3077
filmes	-12.3078
1307	-12.3079
repuestos	-12.308
alte	-12.3084
shooting	-12.3085
watson	-12.3086
/2007	-12.3087
1138	-12.3089
ceb	-12.3089
-34-	-12.3089
riviera	-12.3092
/1999-	-12.3093
2218	-12.3093
modelo	-12.3093
corona	-12.3093
1026	-12.3093
2416	-12.3094
7777	-12.3094
8171	-12.3098
lop	-12.3099
2299	-12.31
yaku	-12.3102
/303	-12.3102
distrito	-12.3103
argent	-12.3104
-2017/	-12.3104
rao	-12.3105
arbeit	-12.3106
=35&	-12.3107
bchbdyagdadayfy	-12.3109
reportcomment	-12.311
pratique	-12.311
lager	-12.3111
/15/	-12.3111
riverside	-12.3111
/327	-12.3115
nose	-12.3116
2610	-12.3116
2840	-12.3117
glu	-12.3119
1962	-12.312
mzc	-12.3121
allison	-12.3121
quilt	-12.3122
capacity	-12.3123
inski	-12.3126
1618	-12.3127
therapie	-12.3128
todd	-12.3128
rearrange	-12.3129
demi	-12.3131
1366	-12.3133
berner	-12.3134
murder	-12.3135
getlastpost	-12.3137
owo	-12.3137
ihr	-12.3138
=61&	-12.3138
1935	-12.3139
empre	-12.3139
anger	-12.3139
ales	-12.3139
2406	-12.314
senmall	-12.3141
cui	-12.3141
lazada	-12.3142
relief	-12.3143
bml	-12.3145
1717	-12.3149
8%88%	-12.315
others	-12.3152
zie	-12.3153
abd	-12.3154
/269	-12.3155
-06-	-12.3156
primo	-12.3156
webike	-12.3158
wah	-12.316
cari	-12.3164
bookfinder	-12.3167
tinklepad	-12.3167
toolid	-12.3168
opencorporat	-12.3169
dastelefonbuch	-12.317
yorkshire	-12.317
lbr	-12.3171
=135	-12.3171
ating	-12.3173
-10000	-12.3175
christophe	-12.3176
yamareco	-12.3179
8-4	-12.3179
absolute	-12.3179
njq	-12.3181
duke	-12.3182
tutor	-12.3183
kota	-12.3183
msu	-12.3184
1106	-12.3185
haut	-12.3186
5%91%	-12.3189
movement	-12.319
doma	-12.3192
castro	-12.3195
jnm	-12.3196
resin	-12.3197
cage	-12.3198
2060	-12.3199
1022	-12.32
chino	-12.32
apunter	-12.32
porch	-12.3201
timesleader	-12.3202
camo	-12.3206
cerca	-12.3206
ktozvoni	-12.3207
mdy	-12.3208
8104	-12.321
kazan	-12.3211
seafood	-12.3211
-04-	-12.3212
eller	-12.3214
fixed	-12.3214
fonds	-12.3215
yzw	-12.3217
cham	-12.3217
jasap	-12.322
=42&	-12.3221
1_3	-12.3222
1617	-12.3225
е	-12.3225
campid	-12.3228
1220	-12.3231
aldo	-12.3231
ndm	-12.3231
1109	-12.3232
treat	-12.3233
coordinate	-12.3234
mzi	-12.3234
uyu	-12.3234
guess	-12.3235
agen	-12.3235
artisan	-12.3236
protect	-12.3237
/315	-12.3238
sexoffender	-12.3239
marcel	-12.3239
wamba	-12.324
vestido	-12.3242
--------------	-12.3242
nei	-12.3243
1932	-12.3244
projekt	-12.3246
thepeople	-12.3246
income	-12.3248
4569	-12.3249
klas	-12.3251
-1-4-	-12.3252
definition	-12.3253
rang	-12.3253
capri	-12.3254
editwidget	-12.3257
premiere	-12.3257
gloss	-12.3259
-55-	-12.326
fax	-12.326
nouveau	-12.3261
welding	-12.3262
2607	-12.3263
renovation	-12.3265
gcw	-12.3268
ulm	-12.3268
few	-12.3268
displaytype	-12.327
tique	-12.327
letras	-12.327
cvip	-12.3271
rencontre	-12.3271
agnes	-12.3272
ozeex	-12.3273
vids	-12.3274
curtis	-12.3275
brett	-12.3276
tate	-12.3276
aug	-12.3278
fcomment	-12.3279
fermart	-12.3281
rainmeter	-12.3282
wanted	-12.3284
3103	-12.3284
fay	-12.3284
sectionalset	-12.3285
bradley	-12.3286
outside	-12.3286
reaction	-12.3286
cocina	-12.3288
spoon	-12.3288
/283	-12.3289
3800	-12.3289
silber	-12.3289
=500	-12.3289
loire	-12.3291
fucks	-12.3292
eight	-12.3292
alexa	-12.3293
ated	-12.3294
kop	-12.3294
jinchut	-12.3296
chutovky	-12.3297
gifs	-12.33
moz	-12.33
1033	-12.3301
00003	-12.3301
uva	-12.3301
miz	-12.3303
exc	-12.3304
2404	-12.3304
scenery	-12.3307
1888	-12.3307
worldway	-12.3308
2640	-12.3308
6%95%	-12.331
bqf	-12.3311
propertyid	-12.3314
1436	-12.3319
arama	-12.3319
rij	-12.3319
phonenumber	-12.332
ilcj	-12.332
4399	-12.3321
suumo	-12.3322
maha	-12.3323
nudevista	-12.3324
bier	-12.3328
lug	-12.3329
2303	-12.3331
2107	-12.3332
czvv	-12.3333
4422	-12.3335
iot	-12.3337
1522	-12.3337
fried	-12.3337
zheng	-12.3338
lag	-12.3338
hotelflight	-12.3339
cutestat	-12.334
mzu	-12.3341
=122	-12.3342
harbor	-12.3342
kwdlst	-12.3343
2237	-12.3343
sally	-12.3343
1340	-12.3345
rae	-12.3346
chuck	-12.3346
ishi	-12.3347
1927	-12.3348
1750	-12.3348
1601	-12.3348
inha	-12.335
subid	-12.3351
iapms	-12.3351
asso	-12.3353
charts	-12.3354
ndu	-12.3354
ett	-12.3356
1460	-12.3356
blouse	-12.3357
zuo	-12.3359
dublin	-12.3359
1886	-12.336
lexi	-12.336
6030	-12.336
veg	-12.336
%29/	-12.3361
1334	-12.3363
december	-12.3363
=140	-12.3363
batman	-12.3364
urs	-12.3365
sphere	-12.3366
vey	-12.3367
gorod	-12.3367
lur	-12.3368
3567	-12.3368
1219	-12.337
=68	-12.3371
ijo	-12.3379
shouji	-12.3381
alternatives	-12.3381
3065	-12.3381
9299	-12.3385
nummer	-12.3387
wings	-12.3387
highlights	-12.3387
anya	-12.3388
bullet	-12.3388
momo	-12.3389
englisch	-12.339
debate	-12.339
highway	-12.3391
xinwang	-12.3394
chomikuj	-12.3395
3_1	-12.3395
exe	-12.3396
8+%	-12.3396
kanshu	-12.3396
3789	-12.3398
packages	-12.34
bts	-12.3402
teeth	-12.3402
ture	-12.3403
saturn	-12.3403
5500	-12.3403
dafiti	-12.3404
4064	-12.3405
/265	-12.3405
00004	-12.3406
1309	-12.3408
myfitnesspal	-12.3409
5%86%85%	-12.341
2609	-12.341
rocks	-12.341
/2010	-12.3411
ved	-12.3412
nutri	-12.3413
entity	-12.3415
umerosdetelefono	-12.3415
kie	-12.3416
ddns	-12.3417
tracy	-12.3417
/242	-12.3417
/2010-	-12.3417
minor	-12.342
gtm	-12.3422
-2014	-12.3423
sellable	-12.3423
5%90%88%	-12.3424
pcode	-12.3425
4%99	-12.3426
stal	-12.3429
7-4	-12.3429
modales	-12.3429
zka	-12.3429
harper	-12.343
wisdom	-12.3431
brun	-12.3431
ots	-12.3432
3011	-12.3433
girlfriend	-12.3434
ender	-12.3435
ywx	-12.3435
iceberg	-12.3436
ladder	-12.3436
assist	-12.3437
infantil	-12.344
3400	-12.344
=67&	-12.3441
nguyen	-12.3442
gyo	-12.3445
nacional	-12.3445
wzfzl	-12.3445
hitachi	-12.3445
opp	-12.3445
alexis	-12.3446
dow	-12.3447
dach	-12.3448
bunny	-12.345
blz	-12.3453
relay	-12.3456
2547	-12.3456
frell	-12.3456
artwizz	-12.3457
provence	-12.3457
appel	-12.3458
/227	-12.3459
voir	-12.3461
chloe	-12.3462
crimsonli	-12.3462
=125	-12.3463
silicon	-12.3464
woodbrass	-12.3466
ntc	-12.3467
------	-12.3468
hnjy	-12.3469
sharing	-12.3469
livres	-12.347
fragen	-12.3471
reid	-12.3473
ynn	-12.3474
awrlby	-12.3475
1198	-12.3478
2213	-12.3479
obj	-12.348
/978	-12.3481
meetup	-12.3481
yah	-12.3482
masturbation	-12.3483
europepmc	-12.3483
ines	-12.3484
underwear	-12.3485
dynamics	-12.3486
bora	-12.3486
hurt	-12.3486
4018	-12.3486
venezuela	-12.3486
=128	-12.3487
nstockphoto	-12.3489
2206	-12.3489
1313	-12.3489
_1__	-12.3491
framed	-12.3491
phrase	-12.3492
nanocable	-12.3492
ibi	-12.3493
gry	-12.3493
2545	-12.3494
lance	-12.3494
cameron	-12.3496
0026	-12.3497
thinking	-12.3499
couleur	-12.35
josef	-12.35
dummies	-12.3501
fundamentals	-12.3503
spur	-12.3505
joyce	-12.3505
scheme	-12.3506
/2011	-12.3506
timothy	-12.3506
iuid	-12.3507
ferguson	-12.3508
3025	-12.3508
gamespot	-12.3509
articleid	-12.351
2508	-12.351
ural	-12.3512
apex	-12.3515
gloria	-12.3518
/404	-12.3519
rpg	-12.352
wake	-12.3522
lamps	-12.3524
thanh	-12.3524
/268	-12.3527
horror	-12.3527
accounts	-12.353
1221	-12.353
=67	-12.3532
1861	-12.3532
1115	-12.3535
vara	-12.3536
=69&	-12.3537
glory	-12.3537
1137	-12.3537
spam	-12.3538
centrum	-12.3538
vio	-12.3538
=93	-12.3538
corsa	-12.3539
would	-12.3539
wells	-12.3539
9001	-12.3541
2503	-12.3542
triangle	-12.3543
paomo	-12.3544
1116	-12.3544
strike	-12.3544
vectorid	-12.3546
pari	-12.3548
kuai	-12.3548
2783	-12.355
thunder	-12.355
amz	-12.3551
pham	-12.3553
autres	-12.3555
sick	-12.3556
mhz	-12.3557
1312	-12.3559
1007	-12.3559
=68&	-12.356
3933	-12.356
univer	-12.356
%80-%	-12.3561
amento	-12.3562
lun	-12.3563
ndq	-12.3564
2706	-12.3565
1447	-12.3565
sofia	-12.3566
nueva	-12.3566
worldwayelec	-12.3567
-1500-	-12.3567
=2016	-12.3568
rates	-12.3569
mechanics	-12.3569
furniturestore	-12.3571
1928	-12.3571
pant	-12.3572
xcar	-12.3572
chord	-12.3573
classroom	-12.3575
00011	-12.3576
illon	-12.3576
naughty	-12.3576
segunda	-12.3577
1114	-12.3579
101/	-12.358
beddrawerdresser	-12.3581
=2019&	-12.3582
finding	-12.3582
/275	-12.3582
boe	-12.3583
2839	-12.3586
napa	-12.3586
2298	-12.3589
=62&	-12.3589
judith	-12.3591
2313	-12.3592
armour	-12.3592
2479	-12.3593
plo	-12.3595
underground	-12.3598
brothers	-12.3598
interface	-12.3599
erotik	-12.3601
herramientas	-12.3601
appliance	-12.3601
/316	-12.3603
1324	-12.3604
hoff	-12.3605
bek	-12.3606
_6_	-12.3606
9%80%9	-12.3607
8058	-12.3607
plymouth	-12.3607
guerre	-12.3607
/2013/	-12.3609
camaro	-12.3614
profileid	-12.3614
boxer	-12.3615
melanie	-12.3618
raja	-12.3621
indi	-12.3622
1270	-12.3624
harmony	-12.3625
gep	-12.3626
4800	-12.3626
cohen	-12.3626
stor	-12.3627
accessori	-12.363
lots	-12.363
household	-12.363
launch	-12.3632
moj	-12.3632
debt	-12.3633
roberts	-12.3634
3785	-12.3637
bbf	-12.3643
nachrichten	-12.3644
1899	-12.3644
prodotti	-12.3644
stol	-12.3645
3527	-12.3645
isabelle	-12.3646
lawsuits	-12.3646
bah	-12.3652
citta	-12.3653
eaton	-12.3654
2280	-12.3655
shaft	-12.3655
1924	-12.3659
vinbet	-12.3659
1232	-12.3659
etc	-12.366
7%85%	-12.3664
verse	-12.3665
1156	-12.3665
pflege	-12.3666
4917	-12.3666
1131	-12.3666
elan	-12.3666
become	-12.3667
kah	-12.3667
18&	-12.3669
venture	-12.3669
ast	-12.367
3398	-12.367
scamadviser	-12.367
1098	-12.3671
pearson	-12.3671
moebel	-12.3671
ucci	-12.3673
bend	-12.3673
czy	-12.3675
000001	-12.3675
tactical	-12.3676
mexican	-12.3677
1119	-12.3677
betty	-12.3678
peifer	-12.368
2338	-12.368
reich	-12.3681
tien	-12.3682
1152	-12.3683
hayes	-12.3683
nove	-12.3683
2762	-12.3684
gamefaqs	-12.3685
1195	-12.3686
ongfz	-12.3686
1151	-12.3688
4860	-12.3689
interest	-12.369
=94	-12.3691
liebe	-12.3692
3008	-12.3692
cuy	-12.3693
1716	-12.3694
elmkylmkz	-12.3694
3784	-12.3694
searchtext	-12.3696
2063	-12.37
1612	-12.3703
ogo	-12.3703
newton	-12.3704
ttpp	-12.3705
broken	-12.3705
_2230581	-12.3706
368.	-12.3707
barbie	-12.3707
0803	-12.3708
painted	-12.3708
moc	-12.3708
muslim	-12.3709
infra	-12.3711
guild	-12.3711
koch	-12.3712
odk	-12.3715
2405	-12.3717
rst	-12.3718
2717	-12.3719
2408	-12.3719
0005	-12.3721
favor	-12.3721
2456	-12.3721
-3-4-	-12.3722
diameter	-12.3722
eiro	-12.3722
curr	-12.3724
ltda	-12.3725
sham	-12.3727
2113	-12.3728
-2013	-12.3728
professionnel	-12.3729
spares	-12.373
pee	-12.373
frankfurt	-12.373
sendtofriend	-12.373
blanket	-12.3731
0070	-12.3731
vou	-12.3733
gsx	-12.3733
output	-12.3734
pek	-12.3735
2032	-12.3735
--80	-12.3738
bead	-12.3738
ander	-12.374
filt	-12.3741
tlz	-12.3742
odm	-12.3744
/304	-12.3744
estates	-12.3745
0016	-12.3746
punch	-12.3748
1_4	-12.3748
herman	-12.3749
kamera	-12.375
mcms	-12.375
headlight	-12.375
feather	-12.3751
%90	-12.3753
acenim	-12.3754
2%80%	-12.3757
2707	-12.3759
=563	-12.3759
gives	-12.376
213.	-12.376
pdx	-12.3762
porcelain	-12.3763
barstools	-12.3764
oster	-12.3766
cai	-12.3767
ilo	-12.3768
alcohol	-12.377
gie	-12.3771
employer	-12.3771
blake	-12.3771
nez	-12.3772
1806	-12.3772
2285	-12.3773
sexo	-12.3773
campz	-12.3773
mimi	-12.3773
johannes	-12.3774
2308	-12.3774
kathleen	-12.3775
touring	-12.3776
alm	-12.3776
hed	-12.3778
samurai	-12.3778
meister	-12.3779
trang	-12.378
coll	-12.3783
horizon	-12.3783
fleece	-12.3785
1934	-12.3788
vito	-12.3789
6500	-12.3789
aaaa	-12.379
rost	-12.379
hov	-12.379
pups	-12.3791
illust	-12.3791
%29&	-12.3792
2606	-12.3793
2302	-12.3793
krasnodar	-12.3794
rno	-12.3795
pdp	-12.3798
cra	-12.3799
satofull	-12.38
zxr	-12.3801
springfield	-12.3801
3040	-12.3802
chmlm	-12.3803
5925024	-12.3803
orel	-12.3805
=46&	-12.3806
ortho	-12.3806
alone	-12.3808
geographic	-12.3809
gouv	-12.3812
agriculture	-12.3813
biqu	-12.3814
ille	-12.3814
ometer	-12.3814
historic	-12.3815
nok	-12.3815
reliable	-12.3815
waw	-12.3817
2614	-12.3817
moor	-12.3818
3018	-12.382
1706	-12.3821
gag	-12.3822
fulltime	-12.3823
1865	-12.3823
digit	-12.3823
-600-	-12.3825
multicolor	-12.3825
3409	-12.3827
-2007	-12.3828
damske	-12.3831
brandon	-12.3832
2708	-12.3833
dab	-12.3833
/266	-12.3834
statement	-12.3835
1403	-12.3838
blo	-12.3839
1134	-12.384
tucson	-12.3841
1701	-12.3843
playfull	-12.3844
wagen	-12.3846
=180	-12.3846
jue	-12.3849
2638	-12.3852
coeur	-12.3853
witch	-12.3853
heli	-12.3855
tyl	-12.3857
criteria	-12.3858
eemigrant	-12.3858
idol	-12.3858
encore	-12.3858
wagner	-12.3859
1062	-12.3861
mapa	-12.3861
2608	-12.3861
advantage	-12.3862
3406	-12.3862
turismo	-12.3863
arbor	-12.3865
tau	-12.3868
miracle	-12.3869
wissen	-12.3869
opening	-12.387
baja	-12.3871
chrono	-12.3871
2184	-12.3871
1801	-12.3874
7%81%	-12.3875
2116	-12.3876
2117	-12.3877
loch	-12.3877
gadget	-12.3877
cuz	-12.388
coastal	-12.3881
2114	-12.3881
vodplay	-12.3882
irene	-12.3883
customid	-12.3883
hardcover	-12.3883
6%98%	-12.3884
2834	-12.3884
moy	-12.3887
ault	-12.3888
ludwig	-12.3888
omi	-12.3888
2217	-12.3891
urw	-12.3892
angelo	-12.3893
billy	-12.3894
/326	-12.3894
reform	-12.3894
bangkok	-12.3895
liche	-12.3895
really	-12.3898
locator	-12.39
kompass	-12.39
2278	-12.3901
thumbnail	-12.3901
blow	-12.3901
markus	-12.3901
=63	-12.3902
1727	-12.3902
1228	-12.3904
companion	-12.3904
huaquan	-12.3906
/352	-12.391
2727	-12.3913
1939	-12.3914
nyh	-12.3915
thoughts	-12.3918
chou	-12.3918
domestic	-12.3919
dtfuzbr	-12.3919
gnx	-12.392
fear	-12.392
=39&	-12.3925
4300	-12.3927
3_4	-12.3927
mow	-12.3928
ecrqg	-12.3929
ignore	-12.3929
servi	-12.3929
viewall	-12.393
2238	-12.3931
vga	-12.3931
mytrees	-12.3932
1304	-12.3934
lavender	-12.3934
crow	-12.3935
1619	-12.3935
1213	-12.3935
marymount	-12.3936
hau	-12.394
/324	-12.394
eep	-12.3942
kazino	-12.3942
2977	-12.3942
searchtype	-12.3942
3296	-12.3944
3002	-12.3945
nursery	-12.3945
dura	-12.3945
2789	-12.3946
matter	-12.3947
5050	-12.3948
2090	-12.3948
3405	-12.3949
8268	-12.3949
2234	-12.395
sabra	-12.3951
cial	-12.3951
chia	-12.3951
baron	-12.3953
6031	-12.3953
nun	-12.3953
2734	-12.3959
1032	-12.3959
birch	-12.3959
coil	-12.396
8888	-12.396
ovice	-12.396
/305	-12.3961
1885	-12.3961
hdmi	-12.3964
1921	-12.3964
hansen	-12.3964
hotfrog	-12.3965
aoerge	-12.3966
jug	-12.3966
1710	-12.3967
dist	-12.3968
dove	-12.3968
1225	-12.3969
prze	-12.397
adultwebmaster	-12.3971
4427	-12.3973
cdiscount	-12.3973
vinted	-12.3974
/273	-12.3974
2112	-12.3974
tourist	-12.3976
niz	-12.3976
batteries	-12.3976
ulrich	-12.3976
teri	-12.3976
dokument	-12.3976
chp	-12.3976
xiu	-12.3977
2578	-12.3977
350-	-12.3977
perth	-12.3978
0027	-12.3978
legends	-12.3979
2020-05	-12.3979
owen	-12.398
xiachufang	-12.3981
1231	-12.3982
bcfrcoag	-12.3983
cellar	-12.3983
setup	-12.3983
dasoertliche	-12.3984
gates	-12.3984
didier	-12.3984
horst	-12.3985
porntube	-12.3985
dover	-12.3985
naz	-12.3987
points	-12.3988
emerald	-12.3988
mje	-12.3989
3783	-12.3989
rolling	-12.399
fender	-12.3992
1492	-12.3993
druck	-12.3994
otti	-12.3999
awv	-12.4
rca	-12.4004
randy	-12.4004
rog	-12.4005
kathy	-12.4005
nicola	-12.4006
worldcat	-12.4006
1180	-12.4006
bootlin	-12.4008
sapo	-12.4008
1064	-12.4008
-1000	-12.401
2792	-12.4011
feeder	-12.4011
1503	-12.4012
arlo	-12.4013
0030	-12.4014
equi	-12.4014
=137	-12.4014
einfach	-12.4016
1223	-12.402
willow	-12.4022
funeralhome	-12.4023
torres	-12.4023
catch	-12.4024
hama	-12.4024
hoteles	-12.4026
flot	-12.4026
2917	-12.4026
1884	-12.4026
lindsay	-12.4027
classical	-12.4029
usu	-12.4029
pry	-12.403
aquarium	-12.403
=41&	-12.4032
1610	-12.4032
3333	-12.4032
3063	-12.4033
1933	-12.4033
teh	-12.4034
.-2207520000../2	-12.4036
3096	-12.4037
1714	-12.4037
lub	-12.4038
frances	-12.4039
trx	-12.404
/300	-12.4041
frederick	-12.4042
jual	-12.4044
pamela	-12.4045
placement	-12.4045
gale	-12.4046
helene	-12.4048
tzw	-12.4049
antoine	-12.4049
bowling	-12.405
fait	-12.405
cccc	-12.4051
prm	-12.4051
frozen	-12.4052
facility	-12.4052
tet	-12.4052
chrom	-12.4053
2634	-12.4054
=107	-12.4056
1845	-12.4059
jel	-12.406
southside	-12.4061
rein	-12.4062
=118	-12.4062
1804	-12.4063
bathtub	-12.4065
kenworth	-12.4065
politik	-12.4066
easter	-12.4068
retweet	-12.4069
1505	-12.4069
kaz	-12.4069
iyu	-12.407
1816	-12.4071
fact	-12.4071
22&	-12.4073
sunshine	-12.4078
uga	-12.4078
zwart	-12.4079
2510	-12.4081
danny	-12.4081
energie	-12.4083
2880	-12.4085
dieu	-12.4087
serge	-12.4087
rykzn	-12.4087
1103	-12.4089
201908	-12.4091
zine	-12.4092
1027	-12.4094
freight	-12.4098
xlt	-12.4098
skyscraper	-12.4099
fruugo	-12.4099
krem	-12.41
dama	-12.41
famille	-12.41
5-4	-12.4101
trac	-12.4101
ott	-12.4103
config	-12.4103
reversecanada	-12.4103
lifetime	-12.4104
pep	-12.4108
sauce	-12.4108
ending	-12.411
scher	-12.4111
natura	-12.4112
=33&	-12.4113
ottawa	-12.4113
ppc	-12.4114
muse	-12.4114
strength	-12.4114
/285	-12.4115
/284	-12.4116
videodetails	-12.4117
ostravice	-12.4118
prayer	-12.4119
2590	-12.4119
hanna	-12.4119
9003	-12.4121
preto	-12.4123
temperature	-12.4123
turtle	-12.4124
megan	-12.4125
ady	-12.4127
booth	-12.4128
giize	-12.4128
=148	-12.4128
acute	-12.4128
lucia	-12.4129
=123	-12.413
cina	-12.413
rebound	-12.4131
restaurante	-12.4132
boi	-12.4132
=102	-12.4133
petra	-12.4134
njg	-12.4135
1426	-12.4135
3566	-12.4135
molly	-12.4136
sut	-12.4137
alberta	-12.4137
dji	-12.414
affecting	-12.4141
penta	-12.4143
uzi	-12.4143
alia	-12.4144
canton	-12.4147
autodesk	-12.4148
1703	-12.4148
dym	-12.4148
offre	-12.4149
1415	-12.4149
zenlib	-12.415
25%26	-12.4151
ography	-12.4152
curry	-12.4152
1034	-12.4153
suzanne	-12.4153
tani	-12.4153
stks	-12.4155
osu	-12.4157
3538	-12.4157
2309	-12.4158
2527	-12.4159
pdv	-12.4161
jewel	-12.4162
detalle	-12.4162
2612	-12.4164
heng	-12.4165
3060	-12.4165
speakers	-12.4165
3727	-12.4167
=69	-12.4168
2140	-12.417
1303	-12.4171
cristina	-12.4171
comedy	-12.4173
kura	-12.4174
6849	-12.4175
0400	-12.4175
katherine	-12.4175
roku	-12.4177
tula	-12.4177
luca	-12.4177
yur	-12.418
strategic	-12.4181
getonline	-12.4181
seminar	-12.4182
1841	-12.4183
mich	-12.4183
bauhaus	-12.4185
bclle	-12.4185
inho	-12.4185
0004	-12.4186
ufo	-12.4187
dily	-12.4188
relationship	-12.4189
louisiana	-12.419
sunbrella	-12.419
zhangjie	-12.419
hobbies	-12.4193
pena	-12.4195
1401	-12.4195
3266	-12.4196
psbooks	-12.4196
igi	-12.4197
9008	-12.4197
servicios	-12.4198
mood	-12.4199
2860	-12.42
windsor	-12.42
laptops	-12.4201
etiketten	-12.4202
zomato	-12.4203
doing	-12.4205
3304	-12.4206
primer	-12.4206
vessel	-12.4206
nuret	-12.4209
texture	-12.421
snake	-12.4211
urn	-12.4212
2340	-12.4212
juga	-12.4214
2829	-12.4214
fail	-12.4216
zmz	-12.4216
grille	-12.4217
dewittrealestate	-12.4219
spiritual	-12.4219
2462	-12.4221
alles	-12.4221
mash	-12.4221
/308	-12.4222
-2005	-12.4222
2794	-12.4222
jbbs	-12.4227
1515	-12.4227
ucu	-12.4228
homo	-12.4228
aztlan	-12.4228
2505	-12.4228
rhone	-12.4229
4905	-12.423
charter	-12.4231
=43&	-12.4232
3700	-12.4232
wor	-12.4233
riley	-12.4233
rogers	-12.4234
oscsid	-12.4235
pisos	-12.4237
/18-	-12.424
directorio	-12.4245
odlsl	-12.4246
2626	-12.4246
osh	-12.4246
llo	-12.4247
hilfe	-12.4248
sunrise	-12.4249
broker	-12.4249
spm	-12.425
seks	-12.4253
jokes	-12.4253
austria	-12.4253
cahier	-12.4254
2704	-12.4254
johann	-12.4254
shdlk	-12.4254
3893	-12.4255
4480	-12.4255
radi	-12.4255
3019	-12.4256
flexible	-12.4256
tiktok	-12.4257
3497	-12.4258
2176	-12.426
=104	-12.426
=131	-12.4262
1208	-12.4262
1391	-12.4263
0007	-12.4265
staples	-12.4265
laurel	-12.4266
/258	-12.4267
jlz	-12.4267
rtysc	-12.4267
peach	-12.4268
fuq	-12.4268
mesto	-12.4268
yeti	-12.4268
gogo	-12.4268
shelves	-12.4269
2401	-12.4272
pavilion	-12.4272
mercado	-12.4273
buff	-12.4274
2728	-12.4276
duc	-12.4278
physio	-12.4281
jcb	-12.4283
notre	-12.4285
9005	-12.4285
opti	-12.4285
savings	-12.4286
0010	-12.4287
alpine	-12.4287
jakarta	-12.4287
/261	-12.4287
4048	-12.4287
clinica	-12.4288
1715	-12.4288
navigator	-12.4289
glenn	-12.4289
hurst	-12.429
none	-12.4292
/76561198	-12.4292
1037	-12.4294
kleider	-12.4294
jeanne	-12.4294
cliff	-12.4295
survivor	-12.4295
durch	-12.4295
nzy	-12.4296
lio	-12.4296
toni	-12.4296
seg	-12.4297
nzu	-12.4298
1517	-12.4299
antiques	-12.4299
inda	-12.43
huateng	-12.4301
=82	-12.4302
otq	-12.4302
3806	-12.4304
always	-12.4304
2512	-12.4306
azi	-12.4308
jungle	-12.4308
belleza	-12.4309
tyr	-12.431
1075	-12.4313
3303	-12.4314
mower	-12.4314
causes	-12.4315
lob	-12.4315
circular	-12.4316
alumni	-12.4317
jacqueline	-12.4317
charity	-12.4318
tana	-12.4319
4608	-12.4319
rossi	-12.4321
2354	-12.4321
iser	-12.4323
foundry	-12.4325
tug	-12.4326
iye	-12.4326
polis	-12.4327
2617	-12.4328
lili	-12.4328
1191	-12.4329
3295	-12.4329
dyna	-12.4329
=130	-12.433
2735	-12.433
bodies	-12.4331
2448	-12.4332
playa	-12.4333
hate	-12.4335
-2?	-12.4336
semiconductor	-12.4337
eniawa	-12.4338
2336	-12.434
4029	-12.434
foreign	-12.434
1428	-12.4341
-1999-	-12.4342
olivia	-12.4342
gee	-12.4343
vladimir	-12.4343
spotify	-12.4343
trop	-12.4344
valerie	-12.4344
2212	-12.4345
3836	-12.4345
curl	-12.4349
conversor	-12.4349
shannon	-12.435
1108	-12.4352
jyxrlz	-12.4352
closedsearch	-12.4353
0022	-12.4353
1776	-12.4354
00000000	-12.4355
actual	-12.4355
lawsuit	-12.4355
2312	-12.4356
ogi	-12.4356
1848	-12.4358
4426	-12.4359
karaoke	-12.4359
classified	-12.4359
candida	-12.4359
samara	-12.436
2236	-12.4362
3302	-12.4364
3%83%88+%	-12.4365
pills	-12.4365
mommy	-12.4366
=119	-12.4367
2420	-12.4367
1511	-12.4369
%94%84	-12.437
repo	-12.4371
1066	-12.4372
hav	-12.4374
kab	-12.4376
vanessa	-12.4377
2319	-12.4379
2031	-12.4379
lada	-12.4381
zzz	-12.4381
bulk	-12.4382
karta	-12.4383
2650	-12.4383
3680	-12.4384
/30-	-12.4386
2051	-12.4386
alerts	-12.4386
kep	-12.4387
1833	-12.4389
inger	-12.4389
something	-12.4389
halter	-12.4389
chalet	-12.439
1513	-12.4392
23&	-12.4392
whotwi	-12.4392
2118	-12.4392
2628	-12.4394
1808	-12.4395
zhaopin	-12.4397
ccionesyreformas	-12.4397
uji	-12.4398
bianco	-12.4398
2195	-12.4399
3505	-12.4399
spelling	-12.4399
kola	-12.4399
1190	-12.44
2786	-12.4401
1930	-12.4402
faire	-12.4402
amd	-12.4402
njc	-12.4403
masapi	-12.4405
3062	-12.4405
2130	-12.4405
joanna	-12.4406
nachrichtenfoto	-12.4408
ngtree	-12.4408
/196	-12.4408
newproducts	-12.4409
3236	-12.4409
spiegel	-12.4411
suck	-12.4412
2460	-12.4412
=7?	-12.4412
svet	-12.4415
5055	-12.4416
1330	-12.4416
pey	-12.4416
beast	-12.4417
tiles	-12.4417
3439	-12.4417
1028	-12.442
informacion	-12.4421
2024	-12.4423
casasbahia	-12.4423
1642	-12.4424
sari	-12.4425
1241	-12.4425
elements	-12.4427
drain	-12.4428
serra	-12.4429
1056	-12.4429
/320	-12.443
daewoo	-12.443
2344	-12.4431
rust	-12.4432
3390	-12.4433
filtr	-12.4435
pcauto	-12.4436
nashville	-12.4437
inyeast	-12.4438
1070	-12.4438
2647	-12.4438
fkeywords	-12.4438
otm	-12.444
_13/	-12.4442
spell	-12.4442
esy	-12.4442
ubi	-12.4443
mop	-12.4443
strasse	-12.4443
poe	-12.4446
kee	-12.4447
1328	-12.4448
says	-12.4448
firearms	-12.4449
praca	-12.445
0801	-12.445
accountant	-12.445
enne	-12.4451
yum	-12.4452
liverpool	-12.4453
rectangle	-12.4453
euw	-12.4453
galiza	-12.4455
athlete	-12.4455
cola	-12.4455
dsc	-12.4456
1261	-12.4456
infinite	-12.4456
2440	-12.4458
kama	-12.4459
0202	-12.446
ito	-12.4461
2268	-12.4462
2556	-12.4463
1785	-12.4463
norton	-12.4464
tyre	-12.4464
2761	-12.4468
baden	-12.4468
02&	-12.4469
sans	-12.4469
2832	-12.4469
circuits	-12.447
zfp	-12.447
1404	-12.447
infiniti	-12.4474
jog	-12.4475
teil	-12.4475
6%81%	-12.4475
isme	-12.4478
5556	-12.4478
3840	-12.4479
abo	-12.4479
compound	-12.448
antenna	-12.448
kadin	-12.448
mobileaction	-12.448
technique	-12.448
downhot	-12.4481
seesaa	-12.4481
resistant	-12.4482
sew	-12.4482
/312	-12.4482
snack	-12.4483
piu	-12.4485
conditioner	-12.4486
prestige	-12.4486
quo	-12.4486
=71	-12.4487
1465	-12.4488
2999	-12.4489
1813	-12.4489
meli	-12.4491
-600	-12.4491
ryu	-12.4494
mittel	-12.4496
1199	-12.4497
1194	-12.4498
0927	-12.4498
seldon	-12.4502
kli	-12.4502
0000000	-12.4503
bookdetails	-12.4503
uncle	-12.4503
%86	-12.4503
-08-	-12.4505
kzw	-12.4505
2415	-12.4506
jbl	-12.4506
1192	-12.4506
2288	-12.4507
fragrance	-12.4507
2386	-12.4508
friedrich	-12.4508
uda	-12.4508
nuit	-12.4508
lola	-12.4508
jamaica	-12.451
1802	-12.4512
3216	-12.4512
physician	-12.4512
2226	-12.4512
2148	-12.4514
,16	-12.4514
1224	-12.4514
hvac	-12.4516
5728	-12.4516
maroc	-12.4517
bordeaux	-12.4518
-2015.	-12.4518
4038	-12.4519
1207	-12.4519
georges	-12.452
1820	-12.4521
cult	-12.4522
2599	-12.4523
filmy	-12.4523
ibo	-12.4524
nowe	-12.4524
/280	-12.4524
lois	-12.4525
amour	-12.4526
colt	-12.4527
2379	-12.4528
gcc	-12.4529
jake	-12.4529
1092	-12.453
1090	-12.4532
1139	-12.4532
yaw	-12.4534
2716	-12.4535
hull	-12.4535
afy	-12.4535
2520	-12.4536
1539	-12.4538
2029	-12.4538
chien	-12.4539
cityof	-12.4539
rolf	-12.454
2311	-12.454
2414	-12.4541
kwd	-12.4542
tio	-12.4543
-800-	-12.4544
makers	-12.4544
2257	-12.4545
average	-12.4545
2296	-12.4546
chong	-12.4546
adores	-12.4546
1325	-12.4548
1869	-12.4549
ndash	-12.455
cummins	-12.455
2632	-12.4551
mariefleur	-12.4551
beton	-12.4552
0_%	-12.4552
lino	-12.4552
/279	-12.4552
else	-12.4553
shenzhen	-12.4554
leopard	-12.4555
created	-12.4555
poverty	-12.4557
4195	-12.4557
2177	-12.4558
torre	-12.4558
1017	-12.4558
1222	-12.4558
kraj	-12.456
3080	-12.4562
plt	-12.4562
granite	-12.4562
villas	-12.4563
hibbett	-12.4563
wid	-12.4564
2819	-12.4565
2458	-12.4566
subproduct	-12.4566
enu	-12.4567
statuses	-12.4569
pris	-12.457
dialog	-12.4572
3435	-12.4573
breed	-12.4575
5%81%	-12.4575
shanghaiguanggao	-12.4577
5096	-12.4577
uniform	-12.4577
4004	-12.4578
zte	-12.4578
2618	-12.4579
stitch	-12.4579
icep	-12.458
cuidado	-12.4583
emi	-12.4584
4989	-12.4584
3372	-12.4585
axel	-12.4586
1347	-12.4586
cougar	-12.4587
solr	-12.4588
3105	-12.4589
githi	-12.459
flare	-12.4593
industrie	-12.4593
protagonist	-12.4593
romania	-12.4595
robo	-12.4596
1072	-12.4597
=2000	-12.4597
atti	-12.4598
1265	-12.46
tribute	-12.4601
hilton	-12.4602
jor	-12.4603
2615	-12.4603
reisen	-12.4603
compass	-12.4605
oclc	-12.4606
doyle	-12.4607
1526	-12.4607
processing	-12.4608
passage	-12.4609
2732	-12.4609
3050	-12.461
sui	-12.4611
bda	-12.4611
yskin	-12.4611
ugi	-12.4611
likaris	-12.4611
2301	-12.4612
dieter	-12.4612
5070	-12.4613
1_%	-12.4613
1388	-12.4613
educational	-12.4615
gastro	-12.4615
1342	-12.4615
2736	-12.4615
mok	-12.4618
curso	-12.4619
2266	-12.462
dum	-12.4621
2633	-12.4621
condos	-12.4621
ification	-12.4623
plush	-12.4623
=37&	-12.4626
zew	-12.4628
instructions	-12.4629
wod	-12.4631
2138	-12.4633
5635	-12.4633
bour	-12.4634
collector	-12.4634
thong	-12.4635
gyn	-12.4636
2196	-12.4637
0809	-12.4637
subway	-12.4637
1504	-12.4637
/382	-12.4638
opal	-12.4639
3139	-12.4639
sion	-12.464
expedition	-12.464
kyle	-12.4641
greatest	-12.4642
%25255	-12.4642
fits	-12.4642
crossing	-12.4643
debbie	-12.4644
arcade	-12.4645
sleeping	-12.4645
joachim	-12.4646
8181	-12.4647
autoteile	-12.4647
rehold	-12.4647
ballet	-12.4648
25&	-12.4648
farmacia	-12.4648
shitaraba	-12.4649
elm	-12.4649
coats	-12.4649
3233	-12.4653
uel	-12.4653
1378	-12.4655
lcj	-12.4655
2857	-12.4657
2284	-12.466
naszemiasto	-12.4662
addictionrehab	-12.4662
thought	-12.4662
countries	-12.4663
qvc	-12.4663
seeds	-12.4663
yeni	-12.4664
hippo	-12.4664
2272	-12.4665
ysk	-12.4665
4600	-12.4666
danielle	-12.4666
vine	-12.4667
2580	-12.4667
1621	-12.4668
edmonton	-12.4669
lewen	-12.4669
-47-	-12.4669
7500	-12.4669
,18	-12.467
/295	-12.4671
welfare	-12.4672
2376	-12.4672
fdocs	-12.4673
1603	-12.4674
tisch	-12.4674
1502	-12.4675
/322	-12.4678
/310	-12.4678
ricardo	-12.4678
-115	-12.4679
luce	-12.4679
isation	-12.468
sorting	-12.468
flush	-12.468
02_	-12.468
3242	-12.468
17&	-12.4681
mdc	-12.4681
1350	-12.4683
dix	-12.4683
=59&	-12.4683
1327	-12.4684
3228	-12.4684
awrlb	-12.4686
2347	-12.4686
-54-	-12.4686
henk	-12.4687
filepdf	-12.4687
1407	-12.4687
2028	-12.4688
medio	-12.4688
5031	-12.4689
lmkz	-12.469
9006	-12.469
3509	-12.469
2816	-12.4691
picnic	-12.4691
feminino	-12.4693
4023	-12.4694
1616	-12.4695
aroma	-12.4695
uncategorized	-12.4696
rosie	-12.4696
divers	-12.4696
clair	-12.4697
2802	-12.4698
2827	-12.47
2275	-12.47
1121	-12.47
trunk	-12.4701
zor	-12.4703
uck	-12.4703
/337	-12.4704
3023	-12.4704
2835	-12.4704
bcfte	-12.4705
3726	-12.4705
2192	-12.4705
chiamando	-12.4706
1853	-12.4706
surgical	-12.4707
hee	-12.4708
mze	-12.471
3234	-12.471
2370	-12.4711
2687	-12.4713
cobra	-12.4713
aipiao	-12.4714
2322	-12.4716
onlinestore	-12.4716
1029	-12.4718
1125	-12.4719
nau	-12.4719
oji	-12.4719
3537	-12.4719
demon	-12.472
2493	-12.472
sofaliving	-12.4721
=74	-12.4721
hipaa	-12.4723
aaab	-12.4724
1887	-12.4724
2933	-12.4724
yuu	-12.4724
computacion	-12.4725
hunde	-12.4728
1606	-12.4729
variation	-12.4729
faro	-12.4731
tribe	-12.4732
2741	-12.4733
4536	-12.4733
2507	-12.4733
inox	-12.4735
firmy	-12.4735
mural	-12.4736
1040	-12.4736
qidian	-12.4736
2320	-12.4738
1299	-12.4739
zui	-12.4739
1889	-12.4739
isla	-12.474
stark	-12.4741
2233	-12.4743
durham	-12.4743
lazio	-12.4743
2220	-12.4744
cris	-12.4744
spread	-12.4747
adn	-12.4747
ventures	-12.4748
1908	-12.4748
4017	-12.4749
ukraine	-12.475
anie	-12.4751
zlw	-12.4752
1188	-12.4754
1866	-12.4755
lett	-12.4755
2670	-12.4756
nuo	-12.4756
sauna	-12.4757
sabine	-12.4758
curve	-12.4759
5026	-12.476
2858	-12.476
arti	-12.476
univ	-12.4761
mdl	-12.4761
=66	-12.4763
cutter	-12.4763
3602	-12.4764
=555	-12.4765
moment	-12.4767
napoli	-12.4768
valentine	-12.4768
grund	-12.4769
/296	-12.4773
mena	-12.4774
klasse	-12.4775
=47&	-12.4776
stamps	-12.4776
sino	-12.4777
3299	-12.4778
vbforum	-12.4778
4046	-12.4778
playstation	-12.4779
informa	-12.4779
4190	-12.478
quantum	-12.4783
dmv	-12.4783
2660	-12.4784
dst	-12.4785
-2010	-12.4785
lage	-12.4787
bling	-12.4787
rix	-12.4788
generazione	-12.4789
kev	-12.4789
1076	-12.4791
xact	-12.4791
1611	-12.4791
startup	-12.4792
6036	-12.4792
2528	-12.4795
3377	-12.4795
2542	-12.4796
aqui	-12.4796
1814	-12.4797
phan	-12.4797
clerk	-12.4798
frames	-12.4799
shepherd	-12.4801
sexe	-12.4802
1226	-12.4803
hmo	-12.4803
lange	-12.4804
ont	-12.4805
birmingham	-12.4806
meditation	-12.4806
skate	-12.4807
bread	-12.4807
stadium	-12.4807
knob	-12.4808
2260	-12.4808
gauteng	-12.4809
3067	-12.4809
fountain	-12.4812
2750	-12.4812
chanpin	-12.4813
=117	-12.4813
clare	-12.4813
puppy	-12.4813
bitch	-12.4814
4040	-12.4816
0025	-12.4818
5022	-12.4818
0105	-12.4818
marathon	-12.4819
spartoo	-12.482
roots	-12.482
2780	-12.4821
powerball	-12.4823
3808	-12.4824
3169	-12.4824
2228	-12.4826
ymj	-12.4826
3470	-12.4826
2680	-12.4827
slots	-12.4827
1532	-12.4828
encia	-12.4829
/299	-12.4829
8%96%	-12.4829
schul	-12.4829
gerald	-12.483
simo	-12.4832
8241	-12.4834
25705	-12.4834
shiny	-12.4835
vzl	-12.4836
lhsxl	-12.4837
emu	-12.4839
alternator	-12.484
changing	-12.484
3728	-12.4841
utu	-12.4842
2625	-12.4842
undefined	-12.4842
geometry	-12.4843
hyo	-12.4844
4428	-12.4844
paso	-12.4844
improve	-12.4845
natal	-12.4845
pirate	-12.4847
nojs	-12.4848
4045	-12.4849
iju	-12.485
2843	-12.485
dmd	-12.485
3172	-12.4851
emo	-12.4851
carry	-12.4852
3702	-12.4853
vak	-12.4853
3402	-12.4853
leggings	-12.4856
reporter	-12.4856
talle	-12.4856
2925	-12.4857
01:	-12.4857
bite	-12.4858
cursos	-12.4858
3645	-12.4858
categorii	-12.486
belly	-12.4861
nigeria	-12.4861
=77	-12.4861
2960	-12.4863
2178	-12.4863
2273	-12.4864
scrap	-12.4864
sity	-12.4867
vogel	-12.4867
2480	-12.4868
zest	-12.487
personaldetail	-12.4872
qilcj	-12.4873
1809	-12.4873
1895	-12.4873
tasche	-12.4874
2702	-12.4876
hlw	-12.4877
arquivo	-12.4877
3560	-12.4878
cesar	-12.4879
zjx	-12.4879
hausen	-12.4879
nederland	-12.4882
2495	-12.4882
uslugi	-12.4883
boa	-12.4884
bennett	-12.4887
swimwear	-12.4887
buecher	-12.4887
1775	-12.4888
0203	-12.4889
arlington	-12.4889
3678	-12.489
2846	-12.489
4906	-12.4891
3584	-12.4891
digest	-12.4892
hep	-12.4892
-44-	-12.4893
qanda	-12.4893
moviesfilms	-12.4893
reason	-12.4894
bravo	-12.4895
3373	-12.4896
2317	-12.4897
lebanon	-12.4898
4448	-12.4898
takes	-12.4898
5027	-12.4898
1124	-12.4899
=545	-12.49
gim	-12.4901
iri	-12.4901
1840	-12.4903
puppies	-12.4904
=328	-12.4904
2357	-12.4905
numara	-12.4905
gren	-12.4905
1875	-12.4905
3070	-12.4908
brazilian	-12.4908
corvette	-12.4908
bgv	-12.4909
2932	-12.4909
2170	-12.4909
sleeveless	-12.491
1489	-12.491
clement	-12.4911
3701	-12.4911
petro	-12.4913
2705	-12.4913
2121	-12.4914
fresno	-12.4915
mutual	-12.4916
2656	-12.4918
hiv	-12.4918
ornament	-12.4919
zep	-12.4919
calm	-12.492
otg	-12.492
viper	-12.492
cosme	-12.4921
boiler	-12.4922
2342	-12.4922
0704	-12.4922
feebee	-12.4923
3401	-12.4924
kaiser	-12.4924
777.	-12.4924
1450	-12.4925
utmi	-12.4925
4080	-12.4925
aws	-12.4926
2287	-12.4926
1523	-12.4927
6666	-12.4928
basics	-12.4928
poo	-12.4929
onlogin	-12.4929
2913	-12.4929
2128	-12.4929
innen	-12.4931
3664	-12.4931
2248	-12.4931
thomson	-12.4931
3051	-12.4932
2709	-12.4933
3404	-12.4934
shakespeare	-12.4934
2895	-12.4935
2199	-12.4935
bold	-12.4935
1183	-12.4936
tuin	-12.4936
1272	-12.4937
melo	-12.4938
2744	-12.4938
1292	-12.4938
joi	-12.4938
3576	-12.4939
ecole	-12.494
nzq	-12.4941
signed	-12.4941
1331	-12.4942
bart	-12.4942
=85	-12.4943
anja	-12.4943
=144	-12.4943
harvest	-12.4945
alexandre	-12.4946
5566	-12.4948
3=2&	-12.4948
tey	-12.4949
baza	-12.4949
-09-	-12.495
-2016/	-12.495
fut	-12.4951
nikki	-12.4951
/309	-12.4953
threaded	-12.4953
heinz	-12.4954
5555	-12.4954
1470	-12.4955
rino	-12.4955
exercises	-12.4956
/1998-	-12.4956
homefacts	-12.4956
2619	-12.4959
cili	-12.4959
?__	-12.496
2413	-12.496
fancy	-12.4961
crawford	-12.4961
0012	-12.4964
3478	-12.4965
о	-12.4965
teo	-12.4966
tiempo	-12.4966
zai	-12.4967
stephan	-12.4968
gic	-12.4969
2012.	-12.4969
prodotto	-12.4969
pndt	-12.4969
2466	-12.497
dll	-12.497
0802	-12.4973
jewish	-12.4973
monta	-12.4973
3102	-12.4974
3416	-12.4975
okinawa	-12.4975
2848	-12.4976
2699	-12.4976
1107	-12.4976
1126	-12.4976
gent	-12.4976
holdings	-12.4976
2575	-12.4976
includes	-12.4977
myth	-12.4977
2711	-12.4978
holo	-12.4978
2950	-12.4978
3839	-12.4979
2434	-12.4979
xyyxcaaaaa	-12.498
jsj	-12.4982
needs	-12.4983
2945	-12.4983
pyr	-12.4985
1335	-12.4986
1273	-12.4986
0040	-12.4987
%20%28	-12.4988
5%90%	-12.4988
medication	-12.4988
2769	-12.4988
2812	-12.4989
exams	-12.4989
greece	-12.499
2639	-12.499
acu	-12.499
naples	-12.499
1481	-12.4991
swallow	-12.4992
3668	-12.4992
19&	-12.4993
tucarro	-12.4993
lips	-12.4993
2297	-12.4994
3407	-12.4994
bonne	-12.4994
3214	-12.4994
drone	-12.4996
neufi	-12.4998
2412	-12.4998
1293	-12.4998
3940	-12.4999
dlja	-12.4999
2784	-12.4999
stands	-12.5
commission	-12.5003
3106	-12.5003
websites	-12.5004
tuo	-12.5005
1685	-12.5007
3547	-12.5009
gerhard	-12.501
2576	-12.501
1431	-12.5011
/271	-12.5011
2450	-12.5012
4196	-12.5013
2246	-12.5014
nhat	-12.5014
2197	-12.5014
vuy	-12.5015
1177	-12.5016
guazi	-12.5018
2478	-12.5018
rumah	-12.5019
2984	-12.5019
/287	-12.502
3403	-12.502
dinh	-12.5021
iptv	-12.5021
rotary	-12.5021
nerd	-12.5023
rgb	-12.5026
eugene	-12.5026
toledo	-12.5028
creme	-12.5029
1734	-12.5029
amt	-12.5029
were	-12.5029
1535	-12.5029
0104	-12.5029
2654	-12.503
jasmine	-12.503
1310	-12.503
=114&	-12.503
anak	-12.5034
1159	-12.5034
2534	-12.5035
palmer	-12.5036
1607	-12.5036
=329	-12.5036
4949	-12.5037
sik	-12.5038
manhattan	-12.5038
lastposter	-12.504
stools	-12.504
znj	-12.504
-122	-12.5041
8%97%	-12.5042
pug	-12.5042
2468	-12.5043
2139	-12.5043
188.	-12.5043
1052	-12.5043
yol	-12.5044
tung	-12.5044
outlook	-12.5044
1890	-12.5046
2469	-12.5048
victory	-12.5048
benches	-12.505
aunt	-12.5051
ulu	-12.5053
runners	-12.5053
1110	-12.5053
salomon	-12.5054
ilgasco	-12.5055
puebla	-12.5056
decorations	-12.5058
2430	-12.5059
tit	-12.5059
1615	-12.506
ofourown	-12.5061
-240	-12.5061
1728	-12.5062
1227	-12.5062
1876	-12.5062
3259	-12.5063
2713	-12.5064
jani	-12.5064
3760	-12.5065
1712	-12.5066
4700	-12.5067
2380	-12.5068
hytrin	-12.5068
tranny	-12.5069
tomas	-12.5069
kost	-12.507
thribe	-12.507
isaac	-12.507
kgx	-12.507
carre	-12.5071
hospitals	-12.5071
britain	-12.5072
koz	-12.5072
armor	-12.5073
6678	-12.5073
camel	-12.5073
linea	-12.5074
mepo	-12.5074
=81	-12.5074
hoz	-12.5074
1633	-12.5074
zik	-12.5075
2879	-12.5076
meets	-12.5078
1422	-12.5078
assignment	-12.5078
2470	-12.5078
udn	-12.5079
1248	-12.5079
2756	-12.508
3465	-12.5081
giu	-12.5082
.)))	-12.5083
2876	-12.5084
europages	-12.5084
1316	-12.5085
philipp	-12.5085
kindergarten	-12.5085
3046	-12.5086
3425	-12.5086
checker	-12.5088
glocal	-12.509
bukken	-12.509
1471	-12.5091
opi	-12.5091
rudolph	-12.5093
3922	-12.5093
2399	-12.5094
njk	-12.5096
combat	-12.5096
forvo	-12.5097
7266_	-12.5099
ttt	-12.5099
=156	-12.5099
1872	-12.5099
3345	-12.51
salvador	-12.51
idae	-12.51
nitro	-12.51
0023	-12.5101
3725	-12.5102
2611	-12.5104
2498	-12.5105
nil	-12.5107
elder	-12.5107
/286	-12.5108
chassis	-12.5108
mkv	-12.5109
2146	-12.5109
1498	-12.511
closed	-12.5112
2254	-12.5112
2290	-12.5114
oyo	-12.5115
jnv	-12.5115
2760	-12.5116
detay	-12.5117
selectedcategory	-12.5117
nym	-12.5119
leaves	-12.5119
4305	-12.5119
2649	-12.5119
-1-2	-12.512
1537	-12.5121
2295	-12.5121
1599	-12.5121
nhan	-12.5121
paro	-12.5122
saude	-12.5123
chau	-12.5123
lazy	-12.5124
anka	-12.5124
4032	-12.5124
chester	-12.5125
heath	-12.5125
2467	-12.5125
lila	-12.5126
fdocuments	-12.5126
3919	-12.5126
arma	-12.5126
oel	-12.5127
drake	-12.5128
2475	-12.5132
violation	-12.5133
leak	-12.5134
9%99%90%	-12.5134
=86	-12.5134
2409	-12.5135
mujeres	-12.5136
1018	-12.5136
usage	-12.5136
5335	-12.5137
breeze	-12.5138
ants	-12.5138
3780	-12.5141
contre	-12.5141
2959	-12.5142
5017	-12.5142
3640	-12.5143
gucci	-12.5144
bangalore	-12.5144
3536	-12.5147
2240	-12.5148
3514	-12.5148
4567	-12.5149
2666	-12.5149
2785	-12.515
cek	-12.515
5%85%8	-12.5151
2294	-12.5151
-65-	-12.5151
sucking	-12.5151
1630	-12.5152
sack	-12.5152
higher	-12.5153
1229	-12.5153
1704	-12.5154
backup	-12.5154
niche	-12.5154
noise	-12.5155
kiwi	-12.5155
tees	-12.5156
zxxk	-12.5156
3127	-12.5158
3458	-12.5159
4429	-12.516
2346	-12.5162
biography	-12.5162
okskottlxl	-12.5162
blast	-12.5164
2524	-12.5165
mcc	-12.5165
milwaukee	-12.5165
0029	-12.5166
3383	-12.5166
1176	-12.5167
zion	-12.5169
seznam	-12.5169
netflix	-12.5171
2147	-12.5171
stroy	-12.5171
1878	-12.5171
leslie	-12.5172
2318	-12.5172
vape	-12.5174
4423	-12.5175
speech	-12.5175
timber	-12.5176
poco	-12.5176
3619	-12.5177
2154	-12.5178
3520	-12.5178
remember	-12.5178
tomo	-12.5179
herb	-12.518
dice	-12.5181
2267	-12.5181
2767	-12.5181
1803	-12.5182
hugh	-12.5182
2865	-12.5183
2153	-12.5185
moveis	-12.5185
celeb	-12.5186
blitz	-12.5187
0028	-12.5188
202006/	-12.5188
2477	-12.5189
heren	-12.5191
yet	-12.5191
3495	-12.5191
iert	-12.5193
viamichelin	-12.5193
1129	-12.5195
8032	-12.5195
iwme	-12.5196
/297	-12.5196
tnaflix	-12.5196
traduzione	-12.5196
2808	-12.5197
3270	-12.5197
fille	-12.5199
2620	-12.52
lud	-12.5203
3388	-12.5203
woj	-12.5204
2111	-12.5206
6400	-12.5207
1874	-12.5207
oasis	-12.5207
telefone	-12.5207
3457	-12.5207
9900	-12.5208
2436	-12.5208
komplekt	-12.5213
1078	-12.5213
inverter	-12.5214
inteligente	-12.5214
/508	-12.5214
1545	-12.5215
3132	-12.5216
=76	-12.5217
3348	-12.5218
1343	-12.5218
1871	-12.5219
1730	-12.5219
avm	-12.522
basorat	-12.5221
dwaaqbaj	-12.5221
chao	-12.5222
reco	-12.5222
hdtv	-12.5223
brisbane	-12.5224
2179	-12.5226
_8_	-12.5227
/2005	-12.5228
pem	-12.5229
nrw	-12.5229
paydar	-12.5229
+6+	-12.5229
1160	-12.523
magi	-12.523
0806	-12.523
moh	-12.523
uch	-12.523
hjh	-12.523
tcg	-12.5231
moderne	-12.5232
3265	-12.5232
blvd	-12.5232
evaluation	-12.5233
gardens	-12.5234
vacances	-12.5235
2292	-12.5235
1854	-12.5236
broad	-12.5237
pies	-12.5238
3905	-12.5238
8096	-12.5238
eyjpz	-12.5241
3436	-12.5241
1656	-12.5241
ferro	-12.5242
123/	-12.5242
1528	-12.5243
2418	-12.5245
tejimo	-12.5245
3870	-12.5246
3240	-12.5247
chun	-12.5247
zimmer	-12.5247
sextube	-12.5247
2337	-12.5249
6795	-12.5249
2164	-12.5249
woven	-12.5249
0%90%	-12.5249
3550	-12.525
hodges	-12.525
2497	-12.525
1132	-12.5251
2870	-12.5251
5700	-12.5252
audit	-12.5252
venus	-12.5253
tras	-12.5254
9-4	-12.5255
1466	-12.5256
7%88%	-12.5257
aran	-12.5257
punta	-12.5257
gmarconi	-12.5258
2385	-12.5258
1014	-12.5258
1053	-12.5259
peipus	-12.5259
tfp	-12.526
4580	-12.5261
kolo	-12.5262
herbal	-12.5262
2410	-12.5262
projector	-12.5262
3301	-12.5262
could	-12.5262
paid	-12.5263
rau	-12.5264
andcli	-12.5265
aceous	-12.5265
-1500	-12.5266
202007/	-12.5266
jsessionid	-12.5267
blumen	-12.5267
conlife	-12.5268
inmobiliaria	-12.527
0633.	-12.527
kristoba	-12.527
nchjj	-12.5271
cana	-12.5272
-37-	-12.5273
replica	-12.5273
hilfiger	-12.5273
lanka	-12.5274
2584	-12.5275
2276	-12.5275
rina	-12.5276
crowd	-12.5276
transition	-12.5277
taxonomy	-12.5277
1519	-12.5277
anu	-12.5278
cyl	-12.5279
kerry	-12.5279
injury	-12.5279
,17	-12.5279
=111	-12.528
marcaregistrada	-12.528
=142	-12.528
espana	-12.5281
1120	-12.5281
vacancies	-12.5284
/278	-12.5284
rainer	-12.5285
2282	-12.5285
bizrate	-12.5286
2165	-12.5286
orleans	-12.5287
6688	-12.529
ا	-12.529
/319	-12.5291
2944	-12.5291
keller	-12.5291
3110	-12.5291
2465	-12.5292
2725	-12.5292
svt	-12.5293
0804	-12.5293
133.	-12.5294
1118	-12.5295
1719	-12.5295
/402	-12.5296
calle	-12.5296
4975	-12.5297
goodman	-12.5297
2447	-12.5299
0808	-12.5299
sweat	-12.5299
2733	-12.5302
doug	-12.5302
4006	-12.5302
nost	-12.5303
3624	-12.5303
caravans	-12.5305
acupuncture	-12.5305
dwvar	-12.5306
2772	-12.5306
hiking	-12.5306
milmaria	-12.5307
3568	-12.5308
4669	-12.5308
0304	-12.5311
2449	-12.5311
2485	-12.5311
4560	-12.5312
agg	-12.5313
=115&	-12.5315
clinton	-12.5315
prh	-12.5317
4576	-12.5318
lander	-12.5318
tcm	-12.5319
dryer	-12.5319
lbm	-12.532
carp	-12.532
2747	-12.5321
0705	-12.5321
ipee	-12.5322
athletics	-12.5323
3617	-12.5323
eclipse	-12.5324
1079	-12.5324
offerid	-12.5324
3529	-12.5324
1847	-12.5325
assy	-12.5325
mja	-12.5326
1864	-12.5326
-%28	-12.5326
upholstery	-12.5326
1748	-12.5326
1770	-12.5327
3705	-12.5328
2678	-12.5328
00100	-12.5329
harriet	-12.5329
3498	-12.533
6%96%87%	-12.5331
3264	-12.5331
2152	-12.5332
2790	-12.5334
nzk	-12.5334
2502	-12.5334
clue	-12.5335
indusm	-12.5335
olga	-12.5335
/400	-12.5335
fare	-12.5336
geld	-12.5336
groesse	-12.5338
panther	-12.5338
3959	-12.5338
patron	-12.5339
2162	-12.5341
worm	-12.5342
8192	-12.5343
2764	-12.5343
mobilenumber	-12.5343
fineartamerica	-12.5344
=2013	-12.5344
hexagonmi	-12.5344
/12-	-12.5344
jiang	-12.5345
3824	-12.5345
2558	-12.5345
4014	-12.5346
cone	-12.5347
3397	-12.5348
6043	-12.5348
2636	-12.5348
3316	-12.5349
2667	-12.5349
1534	-12.5349
0009	-12.5349
1423	-12.5349
itchendiningsets	-12.535
3615	-12.5355
patriot	-12.5355
chandelier	-12.5356
3706	-12.5356
holden	-12.5356
corps	-12.5356
jacksonville	-12.5356
0123	-12.5357
3429	-12.5357
2683	-12.5359
2364	-12.536
3548	-12.5361
2384	-12.5361
sept	-12.5362
2529	-12.5362
johnston	-12.5362
1839	-12.5362
makemodel	-12.5364
entreprises	-12.5364
chandler	-12.5365
cordoba	-12.5366
0916	-12.5366
50000	-12.5366
3158	-12.5367
3%80%90%	-12.5369
3305	-12.5369
ange	-12.5371
-1998-	-12.5372
1512	-12.5374
/241	-12.5375
coleman	-12.5378
3440	-12.5379
castelfranco	-12.5379
amar	-12.538
rani	-12.538
wildlife	-12.5381
publish	-12.5381
/201	-12.5381
1882	-12.5381
anno	-12.5382
2568	-12.5383
budapest	-12.5383
3569	-12.5384
disorders	-12.5386
preparation	-12.5386
arra	-12.5387
prt	-12.5388
breaking	-12.5389
2806	-12.539
1353	-12.539
consulta	-12.539
zapatillas	-12.5391
3395	-12.5391
1326	-12.5391
0503	-12.5392
/247	-12.5393
2190	-12.5395
pasteru	-12.5395
3825	-12.5395
tricks	-12.5398
2596	-12.5399
quanzhouh	-12.5399
osis	-12.5399
pdm	-12.54
3625	-12.54
cindy	-12.5401
bondage	-12.5401
caribbean	-12.5401
walt	-12.5403
bran	-12.5403
2676	-12.5403
3166	-12.5404
igrushki	-12.5404
border	-12.5404
ambi	-12.5405
getnewpost	-12.5405
3723	-12.5407
percent	-12.5407
kale	-12.5407
marsh	-12.5407
3285	-12.5407
mmo	-12.5408
3009	-12.5408
apa	-12.5408
2862	-12.5409
1153	-12.5409
1569	-12.5409
6016	-12.541
prc	-12.541
hbw	-12.5411
spencer	-12.5412
gmarket	-12.5412
4395	-12.5413
/257	-12.5413
2874	-12.5414
enrique	-12.5414
traders	-12.5414
1257	-12.5415
3766	-12.5415
esprit	-12.5416
belo	-12.5416
iyo	-12.5417
vampire	-12.5417
samantha	-12.5419
3707	-12.5419
receiver	-12.5419
twister	-12.542
einer	-12.542
3177	-12.542
=2015	-12.5421
2277	-12.5422
cala	-12.5422
chinashoes	-12.5422
pale	-12.5423
pittsburgh	-12.5423
alison	-12.5424
luk	-12.5424
privateeye	-12.5424
2188	-12.5424
2517	-12.5425
1379	-12.5425
employee	-12.5425
30&	-12.5426
2223	-12.5429
zki	-12.5429
3196	-12.5429
isk	-12.5429
=96&	-12.5429
rising	-12.543
footer	-12.543
/617	-12.543
silvia	-12.5432
carolyn	-12.5432
3506	-12.5433
2435	-12.5433
1148	-12.5434
/619	-12.5434
1564	-12.5434
rath	-12.5438
3637	-12.5439
.360	-12.5439
myers	-12.5441
moreno	-12.5441
mapion	-12.5441
2339	-12.5442
=172	-12.5442
shui	-12.5442
2809	-12.5443
2583	-12.5443
4857	-12.5444
hollow	-12.5445
1826	-12.5445
gore	-12.5445
rvw	-12.5446
grammar	-12.5446
2771	-12.5447
equip	-12.5447
roh	-12.5447
3864	-12.5447
ndc	-12.5447
comercio	-12.5448
camry	-12.5448
=160	-12.5449
homesforsale	-12.545
kategori	-12.5452
2595	-12.5452
=177	-12.5454
4055	-12.5454
dispenser	-12.5455
2543	-12.5455
4515	-12.5455
construccion	-12.5456
2427	-12.5456
2690	-12.5456
=153	-12.5456
jlc	-12.5456
imagine	-12.5456
4236	-12.5458
sandy	-12.5458
5046	-12.5458
replies	-12.5459
mrt	-12.5459
3734	-12.546
tym	-12.5461
roda	-12.5461
rgh	-12.5461
sankt	-12.5462
1680	-12.5464
praktijk	-12.5465
bodybuilding	-12.5466
1049	-12.5467
terminal	-12.547
dri	-12.5471
playlists	-12.5472
lgeo	-12.5472
1069	-12.5472
measure	-12.5472
tournament	-12.5472
koh	-12.5473
6005	-12.5473
forumid	-12.5475
2289	-12.5475
%29+	-12.5477
2557	-12.5477
2186	-12.5477
gardening	-12.5477
4409	-12.5479
mondo	-12.5479
compose	-12.548
4446	-12.5484
farma	-12.5484
rota	-12.5485
hwy	-12.5485
zappos	-12.5485
1560	-12.5485
1181	-12.5486
2530	-12.5486
treasure	-12.5486
3455	-12.5486
jesse	-12.5487
1031%2	-12.5488
durf	-12.5489
2742	-12.5489
onthe	-12.5489
4097	-12.549
zeitung	-12.549
3227	-12.549
ipcsa	-12.5491
2122	-12.5491
elsa	-12.5492
2882	-12.5492
4568	-12.5492
cameras	-12.5493
coins	-12.5493
/1997-	-12.5493
chor	-12.5494
1384	-12.5494
experiences	-12.5494
3747	-12.5495
/2011/	-12.5495
suede	-12.5495
cynthia	-12.5496
1094	-12.5496
2286	-12.5497
boca	-12.5497
plates	-12.5499
2635	-12.5499
3469	-12.5499
1461	-12.5499
wien	-12.5499
kaya	-12.55
kleine	-12.55
1829	-12.5501
3477	-12.5501
peninsula	-12.5501
2554	-12.5501
2324	-12.5502
1501	-12.5502
3803	-12.5502
enfant	-12.5504
=154	-12.5504
3545	-12.5505
_12/	-12.5505
ricambi	-12.5505
2417	-12.5506
ologia	-12.5506
2395	-12.5507
ramos	-12.5507
tpu	-12.5509
6%84%9	-12.5509
~;	-12.5509
3523	-12.551
diagnostic	-12.5511
wilhelm	-12.5512
njm	-12.5512
teatro	-12.5512
3490	-12.5513
3546	-12.5513
newspaper	-12.5513
2546	-12.5515
montgomery	-12.5516
thierry	-12.5516
7%89%88%	-12.5517
latlon	-12.5517
mcg	-12.5517
nix	-12.5518
rciniegas	-12.5519
3473	-12.552
8040	-12.5521
2774	-12.5521
odyssey	-12.5523
nyu	-12.5523
9%87%91%	-12.5523
3357	-12.5524
3376	-12.5524
3577	-12.5524
3462	-12.5524
2949	-12.5527
pang	-12.5527
500-	-12.5528
2262	-12.5528
2425	-12.5529
1740	-12.553
otros	-12.553
[...]
