<pad>	0
<s>	0
</s>	0
<unk>	0
<sep>	0
in	-0
er	-1
▁a	-2
▁t	-3
on	-4
re	-5
▁s	-6
or	-7
▁c	-8
es	-9
at	-10
en	-11
an	-12
▁p	-13
al	-14
he	-15
ou	-16
ar	-17
it	-18
is	-19
▁m	-20
▁f	-21
ic	-22
▁b	-23
ed	-24
▁w	-25
▁d	-26
ing	-27
ion	-28
le	-29
▁o	-30
om	-31
▁the	-32
▁an	-33
▁in	-34
as	-35
ac	-36
▁h	-37
ent	-38
▁l	-39
▁to	-40
il	-41
ro	-42
▁n	-43
us	-44
▁of	-45
▁and	-46
▁re	-47
ol	-48
et	-49
▁g	-50
el	-51
am	-52
ch	-53
ri	-54
▁y	-55
ad	-56
st	-57
ation	-58
th	-59
▁e	-60
ct	-61
our	-62
ow	-63
ers	-64
id	-65
▁2	-66
▁st	-67
ay	-68
▁th	-69
un	-70
ew	-71
ot	-72
▁for	-73
ve	-74
ig	-75
ur	-76
▁1	-77
ag	-78
se	-79
ter	-80
ts	-81
lo	-82
▁v	-83
▁on	-84
01	-85
em	-86
im	-87
▁(	-88
ab	-89
oo	-90
est	-91
ul	-92
op	-93
ce	-94
ore	-95
▁is	-96
all	-97
ver	-98
ap	-99
ir	-100
▁us	-101
ate	-102
▁pro	-103
out	-104
00	-105
ut	-106
ess	-107
▁con	-108
▁&	-109
ist	-110
and	-111
if	-112
▁r	-113
um	-114
up	-115
qu	-116
os	-117
oun	-118
ity	-119
ith	-120
▁j	-121
▁al	-122
ies	-123
▁-	-124
ip	-125
are	-126
▁k	-127
▁or	-128
com	-129
▁201	-130
▁ch	-131
res	-132
act	-133
▁you	-134
ment	-135
▁be	-136
▁with	-137
▁your	-138
▁com	-139
▁se	-140
art	-141
ly	-142
▁de	-143
▁he	-144
for	-145
vi	-146
oc	-147
ice	-148
ill	-149
ine	-150
ard	-151
ub	-152
ak	-153
por	-154
ain	-155
od	-156
erv	-157
ail	-158
ions	-159
ia	-160
the	-161
iv	-162
▁wh	-163
con	-164
og	-165
▁|	-166
ook	-167
pe	-168
eb	-169
age	-170
▁sh	-171
gh	-172
ind	-173
▁at	-174
end	-175
▁are	-176
ome	-177
▁by	-178
▁as	-179
▁tr	-180
ial	-181
av	-182
▁fr	-183
▁ad	-184
▁ex	-185
ews	-186
ite	-187
igh	-188
▁,	-189
ide	-190
ive	-191
ack	-192
ust	-193
▁this	-194
ant	-195
pl	-196
ber	-197
▁it	-198
ge	-199
▁ac	-200
ire	-201
ud	-202
ary	-203
ex	-204
ast	-205
sh	-206
▁le	-207
▁un	-208
arch	-209
▁all	-210
ount	-211
▁more	-212
ord	-213
..	-214
ure	-215
▁3	-216
ell	-217
per	-218
ick	-219
ere	-220
ans	-221
port	-222
▁res	-223
▁pl	-224
ost	-225
▁ap	-226
ign	-227
ff	-228
cl	-229
▁that	-230
one	-231
pt	-232
▁cont	-233
▁serv	-234
▁from	-235
ark	-236
ck	-237
ne	-238
▁do	-239
form	-240
ik	-241
iz	-242
ork	-243
▁ph	-244
▁ar	-245
▁can	-246
ish	-247
ass	-248
ations	-249
ents	-250
cont	-251
ms	-252
ph	-253
ave	-254
▁en	-255
▁we	-256
ated	-257
ld	-258
▁up	-259
▁2018	-260
▁.	-261
ance	-262
te	-263
ree	-264
riv	-265
we	-266
▁ab	-267
du	-268
ry	-269
righ	-270
▁cl	-271
ath	-272
ood	-273
view	-274
ase	-275
▁ro	-276
ress	-277
ices	-278
▁am	-279
▁i	-280
pro	-281
ors	-282
gr	-283
▁comp	-284
ob	-285
▁not	-286
▁pr	-287
▁acc	-288
▁5	-289
ue	-290
able	-291
ings	-292
▁4	-293
ile	-294
ool	-295
ther	-296
ical	-297
▁our	-298
▁ne	-299
ian	-300
▁qu	-301
ib	-302
lp	-303
▁new	-304
acy	-305
▁sc	-306
ie	-307
wh	-308
alth	-309
own	-310
day	-311
▁pol	-312
▁off	-313
about	-314
ach	-315
log	-316
contact	-317
ory	-318
aw	-319
▁19	-320
enter	-321
ren	-322
ame	-323
ake	-324
als	-325
▁me	-326
...	-327
▁col	-328
▁gr	-329
ics	-330
tr	-331
201	-332
ction	-333
▁sp	-334
▁med	-335
see	-336
ink	-337
formation	-338
▁man	-339
ence	-340
ound	-341
ates	-342
▁was	-343
▁te	-344
der	-345
ight	-346
de	-347
int	-348
▁dis	-349
ens	-350
ars	-351
rivacy	-352
sc	-353
ang	-354
▁information	-355
ov	-356
ank	-357
▁have	-358
▁out	-359
search	-360
home	-361
ich	-362
dit	-363
▁em	-364
10	-365
▁/	-366
ug	-367
chool	-368
cial	-369
▁$	-370
▁tim	-371
ps	-372
les	-373
▁8	-374
ong	-375
ous	-376
be	-377
get	-378
▁6	-379
▁will	-380
▁7	-381
▁polic	-382
ple	-383
line	-384
af	-385
▁comm	-386
▁dr	-387
▁about	-388
ult	-389
▁fl	-390
ton	-391
iness	-392
▁ag	-393
arn	-394
▁9	-395
olog	-396
to	-397
reat	-398
▁my	-399
right	-400
ces	-401
19	-402
ace	-403
▁rec	-404
▁gu	-405
iss	-406
▁im	-407
▁policy	-408
uc	-409
ebook	-410
usiness	-411
ons	-412
▁use	-413
dr	-414
irect	-415
▁sup	-416
man	-417
tern	-418
over	-419
ect	-420
row	-421
▁loc	-422
▁spe	-423
pr	-424
oll	-425
ax	-426
▁br	-427
acebook	-428
ict	-429
ty	-430
land	-431
▁health	-432
▁care	-433
io	-434
lect	-435
ery	-436
▁fe	-437
ement	-438
duct	-439
▁help	-440
▁bo	-441
let	-442
▁ed	-443
▁news	-444
▁day	-445
▁home	-446
▁school	-447
▁per	-448
▁web	-449
site	-450
ah	-451
▁has	-452
az	-453
▁ev	-454
▁10	-455
30	-456
ild	-457
ys	-458
▁pre	-459
ets	-460
fer	-461
▁services	-462
ubl	-463
12	-464
gl	-465
ages	-466
ale	-467
ater	-468
ort	-469
find	-470
ru	-471
comm	-472
ike	-473
▁so	-474
▁"	-475
cre	-476
ments	-477
ally	-478
so	-479
▁pe	-480
ise	-481
ities	-482
▁service	-483
▁bl	-484
ould	-485
:00	-486
▁vi	-487
▁ye	-488
ough	-489
▁sy	-490
vert	-491
old	-492
sign	-493
▁part	-494
any	-495
anc	-496
ital	-497
50	-498
▁work	-499
▁ter	-500
by	-501
ode	-502
load	-503
vel	-504
▁count	-505
▁time	-506
ok	-507
▁account	-508
▁car	-509
air	-510
▁direct	-511
ily	-512
now	-513
20	-514
▁no	-515
▁ind	-516
▁list	-517
more	-518
▁·	-519
▁free	-520
000	-521
▁prov	-522
views	-523
bo	-524
▁0	-525
▁cal	-526
fr	-527
▁page	-528
ational	-529
▁center	-530
▁op	-531
▁map	-532
new	-533
read	-534
ins	-535
ited	-536
ext	-537
▁one	-538
▁z	-539
▁des	-540
ility	-541
▁av	-542
ll	-543
▁may	-544
▁any	-545
ition	-546
orn	-547
unity	-548
ames	-549
ople	-550
this	-551
ash	-552
▁reg	-553
cess	-554
news	-555
ss	-556
how	-557
sp	-558
▁add	-559
eric	-560
ards	-561
enu	-562
gram	-563
ours	-564
ade	-565
▁business	-566
very	-567
▁app	-568
ivers	-569
▁now	-570
▁how	-571
word	-572
privacy	-573
▁co	-574
▁prof	-575
▁:	-576
ember	-577
back	-578
ollow	-579
▁search	-580
ep	-581
▁art	-582
▁mon	-583
erson	-584
▁che	-585
its	-586
my	-587
me	-588
11	-589
▁200	-590
▁ass	-591
jo	-592
opy	-593
ures	-594
osp	-595
▁cre	-596
▁pat	-597
urn	-598
ann	-599
▁phot	-600
mon	-601
br	-602
ev	-603
▁inc	-604
ology	-605
▁other	-606
ove	-607
▁bu	-608
ese	-609
au	-610
ating	-611
▁link	-612
glish	-613
▁sur	-614
ustom	-615
ful	-616
▁reserv	-617
ual	-618
ional	-619
ays	-620
▁but	-621
▁online	-622
▁get	-623
ific	-624
ists	-625
ience	-626
ories	-627
2018	-628
amp	-629
rights	-630
ft	-631
ient	-632
med	-633
▁jo	-634
you	-635
▁high	-636
fin	-637
amily	-638
▁sub	-639
ey	-640
orth	-641
fo	-642
ek	-643
ular	-644
▁what	-645
what	-646
▁rights	-647
cy	-648
18	-649
wn	-650
atch	-651
care	-652
min	-653
plo	-654
ower	-655
▁doct	-656
ports	-657
▁here	-658
irst	-659
use	-660
▁site	-661
ublic	-662
25	-663
ert	-664
15	-665
▁num	-666
clud	-667
▁log	-668
▁est	-669
eral	-670
▁vide	-671
cur	-672
orld	-673
▁stud	-674
fl	-675
▁product	-676
▁program	-677
▁act	-678
▁top	-679
▁tw	-680
iel	-681
▁inst	-682
pm	-683
co	-684
▁min	-685
▁over	-686
che	-687
itt	-688
press	-689
▁their	-690
▁exper	-691
▁find	-692
ange	-693
ata	-694
▁who	-695
▁city	-696
gle	-697
els	-698
oup	-699
eds	-700
▁–	-701
add	-702
ix	-703
14	-704
loc	-705
sub	-706
work	-707
aff	-708
▁terms	-709
▁trans	-710
ife	-711
ille	-712
▁people	-713
vis	-714
▁reviews	-715
▁state	-716
ock	-717
16	-718
part	-719
ather	-720
▁val	-721
▁ins	-722
ied	-723
▁sign	-724
▁his	-725
app	-726
▁like	-727
ject	-728
▁special	-729
▁par	-730
ouse	-731
13	-732
▁sm	-733
▁includ	-734
col	-735
▁show	-736
do	-737
ds	-738
▁know	-739
▁fun	-740
enn	-741
▁vis	-742
▁privacy	-743
▁mar	-744
▁requ	-745
▁her	-746
ric	-747
▁det	-748
opyright	-749
fe	-750
ator	-751
clo	-752
▁contact	-753
facebook	-754
eth	-755
▁fri	-756
▁reserved	-757
rib	-758
no	-759
1.	-760
▁provid	-761
▁inter	-762
▁best	-763
sk	-764
iversity	-765
▁go	-766
▁read	-767
▁website	-768
▁park	-769
▁mark	-770
▁colle	-771
17	-772
▁hosp	-773
stem	-774
▁store	-775
itter	-776
▁email	-777
ownload	-778
aur	-779
tt	-780
▁see	-781
▁char	-782
▁ep	-783
▁pm	-784
help	-785
pre	-786
▁)	-787
ull	-788
▁form	-789
▁u	-790
24	-791
rent	-792
▁ca	-793
ips	-794
▁also	-795
▁su	-796
▁access	-797
istr	-798
▁sal	-799
▁2017	-800
gan	-801
ley	-802
▁avail	-803
▁©	-804
▁del	-805
▁view	-806
ina	-807
ript	-808
ping	-809
att	-810
▁#	-811
ger	-812
▁gen	-813
▁rel	-814
▁di	-815
ye	-816
▁company	-817
60	-818
2.	-819
ines	-820
▁name	-821
▁review	-822
99	-823
▁when	-824
▁manag	-825
▁facebook	-826
▁been	-827
gen	-828
top	-829
ources	-830
ca	-831
▁she	-832
ident	-833
▁cr	-834
▁cor	-835
▁'	-836
▁americ	-837
bers	-838
▁post	-839
ature	-840
arm	-841
ely	-842
ross	-843
ville	-844
▁medic	-845
▁family	-846
40	-847
▁county	-848
sw	-849
ble	-850
▁sol	-851
terms	-852
ible	-853
cer	-854
▁ser	-855
1,	-856
other	-857
velop	-858
▁support	-859
obile	-860
▁sk	-861
▁first	-862
▁bas	-863
reen	-864
ness	-865
▁photos	-866
shop	-867
▁20	-868
son	-869
reg	-870
▁play	-871
email	-872
not	-873
ateg	-874
▁system	-875
health	-876
▁they	-877
▁ty	-878
▁12	-879
▁world	-880
▁clo	-881
▁fin	-882
come	-883
▁+	-884
▁bel	-885
chn	-886
▁aw	-887
▁number	-888
▁which	-889
inter	-890
▁inv	-891
ra	-892
oint	-893
▁stat	-894
▁x	-895
▁rep	-896
aph	-897
vide	-898
ron	-899
bl	-900
pa	-901
▁book	-902
▁call	-903
▁content	-904
outh	-905
dis	-906
▁real	-907
▁need	-908
hn	-909
▁own	-910
▁medical	-911
ret	-912
▁if	-913
▁york	-914
nt	-915
learn	-916
uck	-917
tim	-918
ister	-919
▁only	-920
▁hom	-921
▁back	-922
▁word	-923
▁quest	-924
▁intern	-925
vertis	-926
cent	-927
aq	-928
share	-929
▁pay	-930
,000	-931
ield	-932
3.	-933
nect	-934
hed	-935
istory	-936
-8	-937
spe	-938
book	-939
▁el	-940
comp	-941
ier	-942
▁epis	-943
4.	-944
▁bet	-945
ants	-946
▁than	-947
ram	-948
alk	-949
▁custom	-950
▁ri	-951
▁years	-952
go	-953
ene	-954
ucation	-955
▁rest	-956
ues	-957
usic	-958
▁af	-959
ails	-960
▁make	-961
inn	-962
red	-963
▁states	-964
iles	-965
ington	-966
rough	-967
▁hours	-968
ced	-969
ize	-970
▁cons	-971
▁menu	-972
▁under	-973
▁condit	-974
ative	-975
▁pres	-976
icle	-977
27	-978
▁follow	-979
ety	-980
▁office	-981
please	-982
▁right	-983
▁ret	-984
oci	-985
iction	-986
sy	-987
▁open	-988
your	-989
▁fac	-990
▁mem	-991
▁tri	-992
▁university	-993
urch	-994
rel	-995
igation	-996
▁every	-997
▁law	-998
▁found	-999
▁main	-1000
80	-1001
▁mo	-1002
).	-1003
don	-1004
aut	-1005
▁products	-1006
rist	-1007
▁available	-1008
▁address	-1009
bu	-1010
23	-1011
oogle	-1012
▁most	-1013
tw	-1014
▁team	-1015
icles	-1016
▁dec	-1017
▁data	-1018
▁hot	-1019
edia	-1020
▁good	-1021
▁week	-1022
aid	-1023
▁pass	-1024
▁sim	-1025
▁design	-1026
5.	-1027
▁port	-1028
▁adv	-1029
▁look	-1030
▁person	-1031
▁cur	-1032
off	-1033
▁199	-1034
ium	-1035
▁stre	-1036
▁just	-1037
▁phone	-1038
▁air	-1039
▁md	-1040
▁upd	-1041
▁ft	-1042
▁la	-1043
▁net	-1044
▁“	-1045
▁cook	-1046
▁es	-1047
▁events	-1048
26	-1049
lease	-1050
▁ste	-1051
mar	-1052
▁year	-1053
ral	-1054
▁great	-1055
▁proper	-1056
▁video	-1057
▁through	-1058
▁bro	-1059
▁set	-1060
▁oct	-1061
28	-1062
ients	-1063
ives	-1064
ites	-1065
▁att	-1066
▁does	-1067
adem	-1068
▁doctor	-1069
75	-1070
▁ve	-1071
....	-1072
ott	-1073
70	-1074
bur	-1075
serv	-1076
▁well	-1077
avel	-1078
ows	-1079
▁[	-1080
__	-1081
ality	-1082
▁area	-1083
▁disc	-1084
cept	-1085
▁shop	-1086
ason	-1087
ump	-1088
▁cent	-1089
▁»	-1090
▁code	-1091
fore	-1092
ai	-1093
urance	-1094
org	-1095
▁nav	-1096
▁rem	-1097
ission	-1098
▁links	-1099
29	-1100
▁cour	-1101
ee	-1102
copyright	-1103
▁tool	-1104
po	-1105
▁life	-1106
200	-1107
▁mod	-1108
▁english	-1109
▁friend	-1110
room	-1111
ift	-1112
▁info	-1113
▁opt	-1114
iving	-1115
▁card	-1116
community	-1117
ari	-1118
aim	-1119
▁start	-1120
▁some	-1121
cul	-1122
▁job	-1123
-0	-1124
▁its	-1125
▁homes	-1126
cript	-1127
ili	-1128
phot	-1129
mark	-1130
plic	-1131
▁18	-1132
▁medicine	-1133
▁experience	-1134
▁child	-1135
sup	-1136
▁there	-1137
▁bank	-1138
▁check	-1139
mer	-1140
ides	-1141
▁red	-1142
cal	-1143
▁don	-1144
gal	-1145
aining	-1146
scri	-1147
free	-1148
cle	-1149
▁into	-1150
hip	-1151
▁games	-1152
▁brow	-1153
▁pri	-1154
▁community	-1155
▁bre	-1156
▁food	-1157
▁class	-1158
ution	-1159
▁eas	-1160
less	-1161
ired	-1162
ified	-1163
atur	-1164
▁pop	-1165
▁public	-1166
ands	-1167
45	-1168
ane	-1169
▁profess	-1170
▁techn	-1171
▁full	-1172
ids	-1173
▁wr	-1174
▁report	-1175
thing	-1176
-3	-1177
▁15	-1178
ship	-1179
phone	-1180
-5	-1181
car	-1182
english	-1183
▁ob	-1184
▁develop	-1185
ctions	-1186
▁month	-1187
ting	-1188
▁ge	-1189
▁>	-1190
pos	-1191
▁enter	-1192
▁11	-1193
play	-1194
▁dif	-1195
▁cle	-1196
▁learn	-1197
ais	-1198
uro	-1199
0.	-1200
▁sale	-1201
ask	-1202
▁way	-1203
odes	-1204
▁...	-1205
▁aut	-1206
iam	-1207
ada	-1208
elf	-1209
ube	-1210
▁history	-1211
▁2016	-1212
mit	-1213
▁price	-1214
▁after	-1215
▁lead	-1216
▁used	-1217
▁hospital	-1218
//	-1219
▁tax	-1220
▁estate	-1221
careers	-1222
▁bar	-1223
ense	-1224
▁today	-1225
list	-1226
erg	-1227
ictionary	-1228
▁house	-1229
ont	-1230
▁aff	-1231
oot	-1232
rid	-1233
▁group	-1234
▁wind	-1235
▁eng	-1236
:30	-1237
create	-1238
ocial	-1239
raph	-1240
▁guide	-1241
her	-1242
ior	-1243
itals	-1244
▁them	-1245
bs	-1246
aths	-1247
ute	-1248
▁test	-1249
1)	-1250
akes	-1251
yle	-1252
scribe	-1253
led	-1254
business	-1255
▁management	-1256
ober	-1257
▁want	-1258
ases	-1259
ats	-1260
▁record	-1261
://	-1262
▁organ	-1263
▁directions	-1264
▁visit	-1265
best	-1266
▁pract	-1267
inst	-1268
uss	-1269
ney	-1270
post	-1271
▁near	-1272
▁treat	-1273
ball	-1274
adv	-1275
tain	-1276
rics	-1277
▁would	-1278
▁pos	-1279
▁conditions	-1280
▁str	-1281
web	-1282
▁cap	-1283
▁equ	-1284
▁network	-1285
44	-1286
▁market	-1287
eng	-1288
▁two	-1289
ights	-1290
▁sl	-1291
▁blog	-1292
ibility	-1293
eter	-1294
ials	-1295
tv	-1296
iqu	-1297
aster	-1298
35	-1299
urs	-1300
▁pa	-1301
ograph	-1302
ults	-1303
▁power	-1304
itch	-1305
ond	-1306
ries	-1307
aking	-1308
▁ma	-1309
ma	-1310
ization	-1311
vers	-1312
utions	-1313
ody	-1314
iat	-1315
omen	-1316
▁using	-1317
▁had	-1318
▁north	-1319
follow	-1320
▁resources	-1321
▁order	-1322
▁fil	-1323
22	-1324
▁end	-1325
angu	-1326
twitter	-1327
▁tv	-1328
product	-1329
ern	-1330
▁long	-1331
ized	-1332
ford	-1333
ida	-1334
77	-1335
.,	-1336
65	-1337
▁phys	-1338
▁media	-1339
▁au	-1340
atest	-1341
pect	-1342
▁int	-1343
▁wik	-1344
▁love	-1345
ability	-1346
ici	-1347
▁answ	-1348
▁30	-1349
▁surg	-1350
related	-1351
▁location	-1352
ke	-1353
▁lo	-1354
▁these	-1355
blog	-1356
▁should	-1357
ino	-1358
▁college	-1359
mo	-1360
▁water	-1361
▁profile	-1362
▁cert	-1363
2,	-1364
par	-1365
requ	-1366
atures	-1367
ana	-1368
way	-1369
▁were	-1370
▁sun	-1371
▁share	-1372
ser	-1373
ones	-1374
ploy	-1375
ware	-1376
33	-1377
▁street	-1378
overn	-1379
menu	-1380
▁details	-1381
ony	-1382
click	-1383
▁saf	-1384
▁please	-1385
aces	-1386
▁met	-1387
▁cho	-1388
ding	-1389
▁restaur	-1390
▁rece	-1391
ls	-1392
na	-1393
uring	-1394
ickets	-1395
ven	-1396
▁•	-1397
▁offer	-1398
▁mill	-1399
▁navigation	-1400
▁credit	-1401
▁questions	-1402
lc	-1403
une	-1404
download	-1405
▁where	-1406
subscribe	-1407
pol	-1408
9.	-1409
),	-1410
bal	-1411
95	-1412
access	-1413
▁times	-1414
ference	-1415
▁sw	-1416
check	-1417
fri	-1418
▁16	-1419
she	-1420
can	-1421
ipedia	-1422
90	-1423
ner	-1424
▁many	-1425
cr	-1426
▁john	-1427
▁insurance	-1428
count	-1429
▁mi	-1430
▁gl	-1431
iforn	-1432
ote	-1433
outube	-1434
▁2014	-1435
faq	-1436
oney	-1437
edback	-1438
▁ang	-1439
igin	-1440
ibr	-1441
pat	-1442
▁item	-1443
▁live	-1444
▁oper	-1445
▁lic	-1446
▁including	-1447
▁rent	-1448
▁blo	-1449
ifornia	-1450
agram	-1451
▁*	-1452
▁plan	-1453
▁associ	-1454
ences	-1455
▁ny	-1456
▁music	-1457
▁parts	-1458
▁west	-1459
▁doctors	-1460
dule	-1461
▁south	-1462
▁14	-1463
close	-1464
join	-1465
-4	-1466
▁education	-1467
▁pages	-1468
▁last	-1469
curity	-1470
hedule	-1471
▁har	-1472
uch	-1473
united	-1474
board	-1475
▁star	-1476
rive	-1477
azon	-1478
mary	-1479
enef	-1480
▁days	-1481
36	-1482
ww	-1483
▁down	-1484
ters	-1485
▁surgery	-1486
ci	-1487
▁24	-1488
-6	-1489
▁ly	-1490
special	-1491
custom	-1492
▁place	-1493
3,	-1494
▁25	-1495
▁game	-1496
bre	-1497
▁elect	-1498
▁american	-1499
▁recip	-1500
ica	-1501
▁episode	-1502
ouis	-1503
avor	-1504
wood	-1505
▁board	-1506
▁2015	-1507
▁depart	-1508
gin	-1509
▁ann	-1510
▁connect	-1511
▁tem	-1512
▁vers	-1513
vertise	-1514
▁staff	-1515
show	-1516
▁cross	-1517
sun	-1518
order	-1519
▁hol	-1520
86	-1521
skip	-1522
ago	-1523
thor	-1524
▁download	-1525
endar	-1526
▁ele	-1527
pañ	-1528
▁hand	-1529
vir	-1530
▁room	-1531
▁exam	-1532
▁national	-1533
▁property	-1534
www	-1535
▁local	-1536
uts	-1537
▁made	-1538
85	-1539
ico	-1540
bor	-1541
▁beach	-1542
orida	-1543
▁mov	-1544
commend	-1545
▁cart	-1546
ased	-1547
34	-1548
exas	-1549
ests	-1550
▁color	-1551
▁ver	-1552
ptember	-1553
of	-1554
▁mess	-1555
▁google	-1556
▁again	-1557
▁stand	-1558
▁lar	-1559
▁take	-1560
▁et	-1561
▁contro	-1562
▁current	-1563
▁applic	-1564
▁mobile	-1565
▁next	-1566
▁calcul	-1567
und	-1568
▁type	-1569
21	-1570
la	-1571
gu	-1572
pop	-1573
▁videos	-1574
▁ke	-1575
▁road	-1576
▁ago	-1577
ners	-1578
▁united	-1579
▁tx	-1580
8.	-1581
▁resp	-1582
2)	-1583
cast	-1584
▁camp	-1585
▁patients	-1586
ply	-1587
▁below	-1588
▁llc	-1589
vertising	-1590
umb	-1591
gest	-1592
ource	-1593
idd	-1594
7.	-1595
prof	-1596
▁mag	-1597
pañol	-1598
▁spr	-1599
val	-1600
▁old	-1601
▁date	-1602
▁press	-1603
call	-1604
net	-1605
cor	-1606
▁tools	-1607
ince	-1608
ama	-1609
ished	-1610
ify	-1611
iting	-1612
▁po	-1613
▁deli	-1614
▁—	-1615
ches	-1616
video	-1617
▁ent	-1618
▁build	-1619
▁prote	-1620
ency	-1621
des	-1622
got	-1623
claim	-1624
letter	-1625
▁dist	-1626
▁project	-1627
▁rad	-1628
pri	-1629
ills	-1630
▁series	-1631
mr	-1632
aint	-1633
public	-1634
▁click	-1635
▁oh	-1636
▁chang	-1637
ancial	-1638
▁articles	-1639
▁activ	-1640
oose	-1641
▁17	-1642
▁offic	-1643
▁christ	-1644
▁before	-1645
school	-1646
▁head	-1647
▁said	-1648
open	-1649
ush	-1650
▁file	-1651
▁vol	-1652
▁dictionary	-1653
df	-1654
ota	-1655
▁sq	-1656
utes	-1657
▁vir	-1658
mobile	-1659
nes	-1660
▁deal	-1661
▁select	-1662
▁very	-1663
vent	-1664
▁white	-1665
most	-1666
▁box	-1667
}}	-1668
time	-1669
6.	-1670
▁fore	-1671
▁locations	-1672
37	-1673
fact	-1674
▁dev	-1675
▁research	-1676
itor	-1677
▁const	-1678
▁results	-1679
▁register	-1680
vie	-1681
▁weather	-1682
ler	-1683
▁war	-1684
link	-1685
aries	-1686
aper	-1687
photos	-1688
{{	-1689
▁sports	-1690
▁cost	-1691
ugust	-1692
print	-1693
▁san	-1694
ec	-1695
ties	-1696
intern	-1697
lex	-1698
▁miss	-1699
ider	-1700
▁black	-1701
watch	-1702
▁eff	-1703
aily	-1704
brow	-1705
▁iss	-1706
lete	-1707
▁wa	-1708
cc	-1709
ategories	-1710
▁club	-1711
▁assist	-1712
▁offers	-1713
▁ear	-1714
-7	-1715
trans	-1716
▁proble	-1717
▁quality	-1718
anta	-1719
ose	-1720
stand	-1721
map	-1722
high	-1723
▁non	-1724
uly	-1725
▁ship	-1726
▁process	-1727
ways	-1728
▁benef	-1729
pare	-1730
▁origin	-1731
location	-1732
ris	-1733
▁members	-1734
▁sch	-1735
ges	-1736
▁los	-1737
100	-1738
ween	-1739
ains	-1740
met	-1741
▁sales	-1742
88	-1743
▁stars	-1744
irth	-1745
mat	-1746
ape	-1747
ocum	-1748
ny	-1749
▁change	-1750
▁perform	-1751
▁must	-1752
box	-1753
▁login	-1754
▁er	-1755
job	-1756
▁contin	-1757
▁lik	-1758
▁each	-1759
▁ave	-1760
ots	-1761
▁cookies	-1762
di	-1763
events	-1764
well	-1765
ston	-1766
▁provide	-1767
uary	-1768
sm	-1769
anch	-1770
▁100	-1771
▁spec	-1772
icago	-1773
uk	-1774
▁buy	-1775
ism	-1776
ado	-1777
▁october	-1778
▁story	-1779
▁dig	-1780
▁department	-1781
▁louis	-1782
▁much	-1783
▁dise	-1784
39	-1785
▁differ	-1786
ental	-1787
iter	-1788
ams	-1789
▁lab	-1790
pass	-1791
▁california	-1792
thank	-1793
▁island	-1794
stud	-1795
-9	-1796
▁print	-1797
▁children	-1798
▁foot	-1799
str	-1800
▁bill	-1801
▁nor	-1802
ten	-1803
cel	-1804
pay	-1805
--	-1806
▁indust	-1807
field	-1808
lin	-1809
online	-1810
▁programs	-1811
riev	-1812
overnment	-1813
videos	-1814
▁watch	-1815
▁invest	-1816
▁defin	-1817
char	-1818
itle	-1819
direct	-1820
ster	-1821
▁sing	-1822
▁affili	-1823
istration	-1824
▁easy	-1825
wed	-1826
▁between	-1827
▁ext	-1828
izz	-1829
32	-1830
from	-1831
▁gall	-1832
▁america	-1833
▁mil	-1834
▁views	-1835
▁pack	-1836
38	-1837
▁training	-1838
▁jobs	-1839
▁following	-1840
▁personal	-1841
▁such	-1842
▁angel	-1843
▁coun	-1844
▁cards	-1845
ourn	-1846
istrict	-1847
fort	-1848
store	-1849
roll	-1850
ele	-1851
support	-1852
▁wash	-1853
▁password	-1854
item	-1855
ision	-1856
▁sum	-1857
ators	-1858
▁run	-1859
▁prom	-1860
mail	-1861
olf	-1862
▁security	-1863
▁appro	-1864
▁then	-1865
▁let	-1866
▁flo	-1867
rem	-1868
▁travel	-1869
▁rd	-1870
▁id	-1871
▁def	-1872
there	-1873
▁mich	-1874
ha	-1875
ril	-1876
west	-1877
ved	-1878
ades	-1879
▁lim	-1880
ling	-1881
▁song	-1882
company	-1883
login	-1884
ury	-1885
unities	-1886
▁pet	-1887
rec	-1888
ored	-1889
▁hospitals	-1890
food	-1891
▁exp	-1892
anies	-1893
▁could	-1894
▁cancer	-1895
▁blue	-1896
▁twitter	-1897
▁options	-1898
sed	-1899
▁line	-1900
▁development	-1901
▁patient	-1902
▁kn	-1903
▁hum	-1904
people	-1905
aft	-1906
ilar	-1907
ba	-1908
▁key	-1909
ged	-1910
yes	-1911
▁guides	-1912
▁corpor	-1913
mission	-1914
anish	-1915
▁addit	-1916
▁mr	-1917
▁sav	-1918
sports	-1919
▁social	-1920
oud	-1921
rieved	-1922
istry	-1923
americ	-1924
▁soft	-1925
▁tickets	-1926
make	-1927
▁words	-1928
▁ut	-1929
icro	-1930
▁big	-1931
ael	-1932
san	-1933
ergy	-1934
3)	-1935
atic	-1936
ibrary	-1937
▁students	-1938
elcome	-1939
cause	-1940
46	-1941
▁bal	-1942
▁schools	-1943
advertise	-1944
ste	-1945
ugu	-1946
▁copyright	-1947
hol	-1948
.5	-1949
ward	-1950
wik	-1951
person	-1952
▁hard	-1953
▁?	-1954
▁ide	-1955
cook	-1956
▁based	-1957
▁florida	-1958
▁rock	-1959
▁engine	-1960
49	-1961
▁friends	-1962
▁men	-1963
ittle	-1964
when	-1965
▁opport	-1966
▁better	-1967
▁miles	-1968
▁mot	-1969
connect	-1970
anguage	-1971
▁appoint	-1972
buy	-1973
▁som	-1974
▁different	-1975
▁member	-1976
oct	-1977
imate	-1978
retrieved	-1979
▁article	-1980
bar	-1981
▁ir	-1982
card	-1983
▁glo	-1984
▁country	-1985
▁texas	-1986
bert	-1987
▁women	-1988
▁small	-1989
▁track	-1990
▁him	-1991
inc	-1992
▁king	-1993
47	-1994
ification	-1995
ham	-1996
▁control	-1997
▁meet	-1998
▁2013	-1999
▁ref	-2000
▁green	-2001
ivid	-2002
▁solutions	-2003
rop	-2004
▁town	-2005
ploye	-2006
▁=	-2007
family	-2008
adu	-2009
▁fire	-2010
▁htt	-2011
▁hy	-2012
▁low	-2013
unic	-2014
▁vari	-2015
▁customer	-2016
▁rat	-2017
▁level	-2018
▁conf	-2019
▁even	-2020
hy	-2021
▁general	-2022
▁popular	-2023
with	-2024
▁international	-2025
▁treatment	-2026
edic	-2027
visit	-2028
bc	-2029
iana	-2030
but	-2031
▁appe	-2032
48	-2033
▁clin	-2034
▁happ	-2035
▁collection	-2036
pend	-2037
▁ask	-2038
▁did	-2039
▁court	-2040
▁cat	-2041
ived	-2042
▁arch	-2043
current	-2044
▁facts	-2045
▁land	-2046
▁cover	-2047
66	-2048
▁light	-2049
55	-2050
zz	-2051
▁return	-2052
▁dem	-2053
bi	-2054
▁schedule	-2055
▁(19	-2056
colle	-2057
burg	-2058
▁try	-2059
▁without	-2060
▁text	-2061
▁mer	-2062
▁episodes	-2063
gg	-2064
select	-2065
▁practice	-2066
▁event	-2067
wr	-2068
▁rating	-2069
ruct	-2070
sal	-2071
miss	-2072
▁features	-2073
down	-2074
▁super	-2075
anç	-2076
self	-2077
▁latest	-2078
▁purch	-2079
▁past	-2080
mal	-2081
disc	-2082
browse	-2083
ilities	-2084
forgot	-2085
▁fall	-2086
ulture	-2087
last	-2088
oma	-2089
ography	-2090
ison	-2091
▁publ	-2092
rivate	-2093
▁baths	-2094
▁veh	-2095
▁mult	-2096
▁ip	-2097
▁impro	-2098
ique	-2099
hel	-2100
▁professional	-2101
education	-2102
▁less	-2103
hot	-2104
▁heart	-2105
▁rate	-2106
thers	-2107
▁version	-2108
rest	-2109
▁favor	-2110
▁squ	-2111
set	-2112
real	-2113
79	-2114
▁produ	-2115
▁living	-2116
uff	-2117
bro	-2118
ped	-2119
ird	-2120
▁jan	-2121
ious	-2122
class	-2123
state	-2124
ançais	-2125
▁anim	-2126
itions	-2127
ruction	-2128
▁13	-2129
▁wikipedia	-2130
ently	-2131
ules	-2132
atured	-2133
▁50	-2134
where	-2135
▁mean	-2136
▁mater	-2137
▁church	-2138
▁technology	-2139
fect	-2140
▁sat	-2141
▁companies	-2142
tainment	-2143
▁bi	-2144
▁value	-2145
78	-2146
ercial	-2147
▁drive	-2148
local	-2149
cell	-2150
sing	-2151
▁accept	-2152
recent	-2153
vol	-2154
2017	-2155
music	-2156
ints	-2157
weet	-2158
place	-2159
avid	-2160
▁size	-2161
soft	-2162
▁required	-2163
▁calendar	-2164
ering	-2165
▁mc	-2166
ademark	-2167
▁around	-2168
ually	-2169
▁request	-2170
cond	-2171
ona	-2172
cons	-2173
aby	-2174
▁ic	-2175
▁lyrics	-2176
▁pick	-2177
▁party	-2178
start	-2179
▁recommend	-2180
▁directory	-2181
▁plans	-2182
▁beds	-2183
▁tips	-2184
▁organization	-2185
▁photo	-2186
▁provided	-2187
dom	-2188
yn	-2189
▁2012	-2190
just	-2191
irm	-2192
interest	-2193
▁angeles	-2194
ples	-2195
house	-2196
▁pain	-2197
power	-2198
key	-2199
▁ther	-2200
▁say	-2201
▁september	-2202
▁effect	-2203
ga	-2204
sq	-2205
ox	-2206
▁kids	-2207
-2018	-2208
quick	-2209
.0	-2210
head	-2211
▁during	-2212
sl	-2213
____	-2214
▁cam	-2215
31	-2216
pes	-2217
page	-2218
advice	-2219
▁author	-2220
otes	-2221
▁anal	-2222
travel	-2223
unch	-2224
utsch	-2225
viron	-2226
ipment	-2227
▁teach	-2228
alm	-2229
▁sym	-2230
▁partners	-2231
sim	-2232
abet	-2233
▁items	-2234
▁docum	-2235
first	-2236
google	-2237
htt	-2238
▁windows	-2239
plies	-2240
vious	-2241
yl	-2242
uter	-2243
........	-2244
ansas	-2245
▁whe	-2246
vest	-2247
roid	-2248
▁(1)	-2249
mentary	-2250
▁district	-2251
osis	-2252
law	-2253
▁season	-2254
▁user	-2255
▁safety	-2256
customer	-2257
▁feedback	-2258
▁turn	-2259
▁dog	-2260
aud	-2261
mem	-2262
anced	-2263
▁sell	-2264
▁bed	-2265
ployment	-2266
ags	-2267
▁records	-2268
cas	-2269
▁ill	-2270
▁28	-2271
▁create	-2272
▁lake	-2273
76	-2274
ux	-2275
men	-2276
action	-2277
ato	-2278
light	-2279
mas	-2280
▁trademark	-2281
▁carol	-2282
ained	-2283
augh	-2284
▁washington	-2285
ologists	-2286
ume	-2287
resh	-2288
verage	-2289
▁field	-2290
▁away	-2291
▁table	-2292
▁question	-2293
▁fact	-2294
services	-2295
look	-2296
▁restaurant	-2297
9,	-2298
▁while	-2299
ml	-2300
▁gir	-2301
world	-2302
▁1,	-2303
▁images	-2304
accessibility	-2305
▁statement	-2306
▁benefits	-2307
coming	-2308
ishing	-2309
ginia	-2310
they	-2311
atter	-2312
avas	-2313
▁money	-2314
ership	-2315
▁tre	-2316
7,	-2317
▁ur	-2318
oms	-2319
▁disease	-2320
▁sex	-2321
▁give	-2322
den	-2323
▁beaut	-2324
▁same	-2325
upd	-2326
▁east	-2327
joy	-2328
▁tour	-2329
▁mass	-2330
▁]	-2331
▁26	-2332
hosp	-2333
▁changes	-2334
▁night	-2335
▁movies	-2336
▁include	-2337
ves	-2338
oh	-2339
ta	-2340
popular	-2341
▁aud	-2342
near	-2343
cu	-2344
city	-2345
edit	-2346
▁screen	-2347
4)	-2348
agn	-2349
▁syn	-2350
▁gard	-2351
▁appointment	-2352
mp	-2353
▁creat	-2354
media	-2355
▁needs	-2356
▁gift	-2357
▁rele	-2358
05	-2359
ania	-2360
▁leg	-2361
hood	-2362
▁import	-2363
text	-2364
aving	-2365
ebru	-2366
▁daily	-2367
▁browser	-2368
plore	-2369
▁admin	-2370
▁fit	-2371
vironment	-2372
▁body	-2373
clus	-2374
▁ads	-2375
▁interest	-2376
▁apps	-2377
avascript	-2378
▁grow	-2379
▁calculator	-2380
full	-2381
▁plus	-2382
change	-2383
town	-2384
ements	-2385
sa	-2386
▁sam	-2387
ung	-2388
▁point	-2389
▁answer	-2390
▁science	-2391
cription	-2392
▁div	-2393
ebruary	-2394
▁things	-2395
▁ok	-2396
mber	-2397
resent	-2398
▁library	-2399
▁august	-2400
beds	-2401
,"	-2402
.00	-2403
▁jack	-2404
▁deals	-2405
enior	-2406
vd	-2407
▁score	-2408
tra	-2409
sol	-2410
▁systems	-2411
star	-2412
▁stock	-2413
▁minutes	-2414
ror	-2415
▁sug	-2416
▁bay	-2417
ables	-2418
▁2010	-2419
▁complete	-2420
tings	-2421
▁because	-2422
office	-2423
submit	-2424
▁little	-2425
resources	-2426
personal	-2427
▁being	-2428
aring	-2429
▁mount	-2430
▁phil	-2431
▁license	-2432
▁gener	-2433
john	-2434
▁within	-2435
▁won	-2436
det	-2437
why	-2438
used	-2439
▁wood	-2440
▁@	-2441
▁comment	-2442
american	-2443
▁advertising	-2444
▁comments	-2445
-10	-2446
ground	-2447
▁three	-2448
uccess	-2449
gas	-2450
ope	-2451
▁hotels	-2452
omy	-2453
ances	-2454
▁repair	-2455
▁ant	-2456
56	-2457
-2	-2458
ks	-2459
▁contr	-2460
▁equipment	-2461
▁financial	-2462
iddle	-2463
▁expl	-2464
▁gar	-2465
▁payment	-2466
enc	-2467
▁academ	-2468
."	-2469
▁choices	-2470
▁quick	-2471
▁fam	-2472
ze	-2473
instagram	-2474
▁shipping	-2475
wind	-2476
▁employe	-2477
▁pot	-2478
ufact	-2479
▁que	-2480
▁style	-2481
youtube	-2482
▁faq	-2483
attle	-2484
tod	-2485
general	-2486
ounts	-2487
▁both	-2488
▁works	-2489
▁software	-2490
save	-2491
register	-2492
ires	-2493
▁fed	-2494
▁install	-2495
▁autom	-2496
▁lot	-2497
▁recipes	-2498
▁rank	-2499
exp	-2500
▁books	-2501
▁español	-2502
main	-2503
locations	-2504
under	-2505
▁apart	-2506
▁li	-2507
▁march	-2508
ums	-2509
▁keep	-2510
vertisement	-2511
.”	-2512
▁similar	-2513
reviews	-2514
life	-2515
ining	-2516
ês	-2517
▁partic	-2518
active	-2519
weather	-2520
▁dat	-2521
je	-2522
▁those	-2523
▁il	-2524
ouston	-2525
erts	-2526
▁require	-2527
▁shows	-2528
▁too	-2529
uguês	-2530
los	-2531
▁always	-2532
ning	-2533
4,	-2534
ال	-2535
/2018	-2536
canc	-2537
ief	-2538
oung	-2539
icians	-2540
▁walk	-2541
▁months	-2542
89	-2543
spons	-2544
▁movie	-2545
▁digital	-2546
loading	-2547
▁legal	-2548
rad	-2549
ategory	-2550
▁franc	-2551
umn	-2552
aging	-2553
▁answers	-2554
may	-2555
▁edit	-2556
legal	-2557
itis	-2558
quest	-2559
▁guid	-2560
▁since	-2561
▁nc	-2562
▁located	-2563
jobs	-2564
▁central	-2565
icing	-2566
▁topics	-2567
password	-2568
mod	-2569
▁va	-2570
welcome	-2571
▁poss	-2572
▁birth	-2573
▁think	-2574
ón	-2575
rench	-2576
▁q	-2577
▁learning	-2578
actions	-2579
▁oil	-2580
▁usa	-2581
fun	-2582
▁wed	-2583
▁clean	-2584
▁carolina	-2585
▁application	-2586
amazon	-2587
▁student	-2588
▁cir	-2589
▁hall	-2590
test	-2591
▁inn	-2592
▁never	-2593
aker	-2594
oman	-2595
su	-2596
▁government	-2597
▁pare	-2598
▁improve	-2599
ician	-2600
▁vac	-2601
nav	-2602
del	-2603
▁case	-2604
▁accessories	-2605
ude	-2606
▁fre	-2607
▁pur	-2608
fax	-2609
▁receive	-2610
rew	-2611
▁valley	-2612
▁aust	-2613
▁updates	-2614
▁internet	-2615
▁message	-2616
▁stories	-2617
▁delivery	-2618
▁foundation	-2619
like	-2620
oups	-2621
thern	-2622
ara	-2623
▁zip	-2624
tog	-2625
olar	-2626
develop	-2627
que	-2628
north	-2629
ulation	-2630
alog	-2631
▁mal	-2632
aturday	-2633
▁update	-2634
▁gold	-2635
anning	-2636
▁ga	-2637
featured	-2638
▁je	-2639
send	-2640
water	-2641
▁apply	-2642
▁far	-2643
800	-2644
ination	-2645
,”	-2646
▁study	-2647
istor	-2648
igan	-2649
letters	-2650
ridge	-2651
products	-2652
andom	-2653
nearby	-2654
▁pp	-2655
▁forms	-2656
▁express	-2657
ym	-2658
south	-2659
ready	-2660
▁youtube	-2661
97	-2662
▁pan	-2663
▁maps	-2664
▁course	-2665
▁another	-2666
▁instit	-2667
invest	-2668
▁newsletter	-2669
uel	-2670
▁started	-2671
▁range	-2672
▁problem	-2673
43	-2674
social	-2675
ifications	-2676
▁ris	-2677
▁sure	-2678
▁mail	-2679
▁stor	-2680
▁numbers	-2681
utor	-2682
▁july	-2683
itemap	-2684
▁pdf	-2685
great	-2686
▁choose	-2687
▁pharm	-2688
▁pict	-2689
▁prem	-2690
opt	-2691
▁pu	-2692
▁sites	-2693
request	-2694
td	-2695
▁feel	-2696
outs	-2697
▁coup	-2698
posts	-2699
cour	-2700
▁left	-2701
▁save	-2702
▁21	-2703
▁coll	-2704
▁ident	-2705
▁wall	-2706
500	-2707
▁ever	-2708
▁looking	-2709
▁close	-2710
▁break	-2711
▁respons	-2712
plac	-2713
live	-2714
ensive	-2715
info	-2716
▁--	-2717
▁above	-2718
▁®	-2719
TM	-2720
azine	-2721
ilt	-2722
▁president	-2723
▁customers	-2724
▁original	-2725
jor	-2726
▁gallery	-2727
name	-2728
42	-2729
ius	-2730
ought	-2731
ically	-2732
▁40	-2733
▁hor	-2734
ita	-2735
▁river	-2736
▁2011	-2737
▁space	-2738
mont	-2739
books	-2740
itary	-2741
▁driv	-2742
▁square	-2743
▁private	-2744
ural	-2745
▁short	-2746
68	-2747
▁den	-2748
next	-2749
▁still	-2750
fil	-2751
oes	-2752
ergen	-2753
atural	-2754
lic	-2755
rie	-2756
itted	-2757
itu	-2758
ender	-2759
▁proced	-2760
ools	-2761
ething	-2762
▁ratings	-2763
jump	-2764
▁transl	-2765
website	-2766
ream	-2767
tot	-2768
▁prices	-2769
▁restaurants	-2770
▁amazon	-2771
▁ww	-2772
▁association	-2773
script	-2774
sur	-2775
credit	-2776
▁crossword	-2777
report	-2778
▁auto	-2779
ecut	-2780
pages	-2781
▁az	-2782
apan	-2783
▁las	-2784
▁registered	-2785
amb	-2786
▁opportunities	-2787
ouch	-2788
ka	-2789
▁human	-2790
▁sold	-2791
wash	-2792
adel	-2793
rect	-2794
▁stop	-2795
▁helpful	-2796
▁reports	-2797
▁updated	-2798
oston	-2799
medical	-2800
acter	-2801
gress	-2802
▁profession	-2803
oles	-2804
67	-2805
inion	-2806
pet	-2807
▁sent	-2808
▁ger	-2809
▁come	-2810
▁portal	-2811
▁notice	-2812
▁collect	-2813
▁arts	-2814
enue	-2815
▁common	-2816
▁age	-2817
▁talk	-2818
hours	-2819
▁cell	-2820
64	-2821
lanta	-2822
ension	-2823
▁mary	-2824
▁drug	-2825
ians	-2826
▁incre	-2827
▁holid	-2828
-1	-2829
▁cities	-2830
lv	-2831
market	-2832
▁trail	-2833
price	-2834
▁reading	-2835
87	-2836
▁mac	-2837
year	-2838
ournal	-2839
jan	-2840
▁hotel	-2841
▁ital	-2842
▁index	-2843
▁tele	-2844
▁rich	-2845
ever	-2846
fac	-2847
▁status	-2848
-12	-2849
59	-2850
ellow	-2851
▁hon	-2852
blo	-2853
unt	-2854
▁why	-2855
▁hous	-2856
urope	-2857
▁brands	-2858
▁building	-2859
elect	-2860
▁die	-2861
service	-2862
▁side	-2863
li	-2864
▁sever	-2865
69	-2866
owers	-2867
ended	-2868
▁april	-2869
iami	-2870
▁elementary	-2871
allas	-2872
toggle	-2873
itive	-2874
▁join	-2875
who	-2876
▁language	-2877
▁listings	-2878
▁advice	-2879
▁brand	-2880
lot	-2881
▁present	-2882
ronic	-2883
▁virginia	-2884
▁sn	-2885
apy	-2886
▁areas	-2887
▁paper	-2888
rick	-2889
iano	-2890
edin	-2891
▁micro	-2892
sel	-2893
▁june	-2894
christ	-2895
▁sil	-2896
reek	-2897
▁computer	-2898
▁javascript	-2899
here	-2900
har	-2901
today	-2902
uses	-2903
itchen	-2904
▁deg	-2905
ette	-2906
▁provides	-2907
latest	-2908
▁ii	-2909
▁four	-2910
orgia	-2911
ogn	-2912
contin	-2913
▁truck	-2914
utr	-2915
ethod	-2916
▁important	-2917
▁hold	-2918
river	-2919
▁ideas	-2920
▁agre	-2921
▁francis	-2922
▁cele	-2923
▁additional	-2924
ipp	-2925
09	-2926
child	-2927
nor	-2928
itation	-2929
▁sand	-2930
cs	-2931
▁max	-2932
overview	-2933
▁listing	-2934
▁stores	-2935
exico	-2936
sat	-2937
▁weight	-2938
▁clear	-2939
▁success	-2940
▁mor	-2941
▁chicago	-2942
ending	-2943
▁agree	-2944
57	-2945
▁skin	-2946
mil	-2947
▁individ	-2948
▁cast	-2949
ieve	-2950
41	-2951
▁surge	-2952
inner	-2953
da	-2954
doct	-2955
ders	-2956
based	-2957
▁few	-2958
advertisement	-2959
ships	-2960
06	-2961
▁god	-2962
iple	-2963
ential	-2964
patient	-2965
▁william	-2966
bed	-2967
▁diagn	-2968
▁ms	-2969
08	-2970
baths	-2971
gar	-2972
abase	-2973
▁grand	-2974
apol	-2975
berg	-2976
tal	-2977
cert	-2978
ng	-2979
-19	-2980
sell	-2981
▁choice	-2982
categories	-2983
omet	-2984
▁sound	-2985
pract	-2986
▁model	-2987
phil	-2988
▁likes	-2989
feedback	-2990
phia	-2991
▁gro	-2992
▁official	-2993
explore	-2994
glo	-2995
▁22	-2996
▁industry	-2997
▁gas	-2998
▁vehicle	-2999
!!	-3000
will	-3001
▁rates	-3002
▁yet	-3003
total	-3004
▁dou	-3005
▁edition	-3006
adelphia	-3007
▁definition	-3008
gov	-3009
park	-3010
history	-3011
iff	-3012
▁radio	-3013
oice	-3014
▁communic	-3015
sure	-3016
▁shopping	-3017
nts	-3018
▁condition	-3019
▁codes	-3020
▁second	-3021
▁dur	-3022
bel	-3023
▁fast	-3024
cat	-3025
amed	-3026
▁kind	-3027
▁www	-3028
▁provider	-3029
▁types	-3030
▁related	-3031
▁friday	-3032
rip	-3033
istics	-3034
▁assistance	-3035
rial	-3036
▁bur	-3037
▁working	-3038
▁bath	-3039
ergency	-3040
ming	-3041
anded	-3042
▁complet	-3043
faqs	-3044
ledge	-3045
▁got	-3046
▁blood	-3047
aven	-3048
▁energy	-3049
▁refer	-3050
uture	-3051
▁der	-3052
▁spanish	-3053
elines	-3054
▁trad	-3055
▁culture	-3056
abetes	-3057
hi	-3058
.)	-3059
▁garden	-3060
after	-3061
meet	-3062
▁might	-3063
▁penn	-3064
these	-3065
▁ct	-3066
arts	-3067
ersey	-3068
▁large	-3069
ns	-3070
▁1.	-3071
fast	-3072
▁yp	-3073
04	-3074
band	-3075
cross	-3076
wer	-3077
▁award	-3078
▁manager	-3079
▁via	-3080
▁million	-3081
▁drink	-3082
vision	-3083
▁issues	-3084
▁station	-3085
non	-3086
utrition	-3087
▁allow	-3088
mich	-3089
inois	-3090
▁global	-3091
▁subject	-3092
▁fair	-3093
ured	-3094
tax	-3095
▁something	-3096
cap	-3097
▁put	-3098
france	-3099
every	-3100
▁floor	-3101
gift	-3102
apter	-3103
▁film	-3104
▁hill	-3105
▁standard	-3106
▁tom	-3107
ios	-3108
dec	-3109
ival	-3110
▁nurs	-3111
▁mach	-3112
▁specific	-3113
orge	-3114
▁action	-3115
▁categories	-3116
▁commit	-3117
▁settings	-3118
▁environment	-3119
▁professionals	-3120
84	-3121
door	-3122
▁bow	-3123
izza	-3124
▁vs	-3125
ribution	-3126
aust	-3127
▁manufact	-3128
▁educ	-3129
▁favorite	-3130
thes	-3131
ky	-3132
▁protect	-3133
mult	-3134
▁unit	-3135
▁{{	-3136
▁canada	-3137
apolis	-3138
techn	-3139
63	-3140
ear	-3141
wards	-3142
▁activities	-3143
▁doll	-3144
▁method	-3145
▁purchase	-3146
▁rob	-3147
▁performance	-3148
sum	-3149
sponsored	-3150
▁nj	-3151
52	-3152
▁wor	-3153
▁january	-3154
lands	-3155
many	-3156
ray	-3157
asy	-3158
▁coach	-3159
▁single	-3160
unte	-3161
▁physicians	-3162
▁making	-3163
ien	-3164
6)	-3165
▁}}	-3166
▁mus	-3167
▁27	-3168
hone	-3169
october	-3170
▁licens	-3171
▁farm	-3172
▁baby	-3173
▁expert	-3174
mc	-3175
▁wal	-3176
▁marketing	-3177
good	-3178
▁2,	-3179
mov	-3180
▁ppo	-3181
wikipedia	-3182
07	-3183
▁section	-3184
hom	-3185
omas	-3186
▁ohio	-3187
▁celebr	-3188
▁perfect	-3189
user	-3190
ague	-3191
rant	-3192
▁dom	-3193
sections	-3194
▁psy	-3195
▁unt	-3196
▁move	-3197
▁reservations	-3198
account	-3199
▁young	-3200
ett	-3201
▁29	-3202
中文	-3203
▁cup	-3204
▁database	-3205
ancy	-3206
▁middle	-3207
▁broad	-3208
alf	-3209
▁alb	-3210
▁vill	-3211
▁mid	-3212
▁convers	-3213
inary	-3214
▁mart	-3215
▁image	-3216
▁later	-3217
58	-3218
▁advis	-3219
return	-3220
▁represent	-3221
ises	-3222
▁federal	-3223
▁spring	-3224
▁airport	-3225
▁claim	-3226
wide	-3227
▁nov	-3228
ysis	-3229
▁enjoy	-3230
md	-3231
▁title	-3232
dig	-3233
corpor	-3234
enger	-3235
▁soon	-3236
▁discuss	-3237
college	-3238
ican	-3239
astic	-3240
iful	-3241
▁posts	-3242
washington	-3243
stat	-3244
week	-3245
anguages	-3246
ero	-3247
sylv	-3248
avail	-3249
▁really	-3250
▁apple	-3251
era	-3252
▁trust	-3253
ivity	-3254
▁toget	-3255
/201	-3256
information	-3257
▁23	-3258
▁replac	-3259
▁hair	-3260
▁director	-3261
put	-3262
▁together	-3263
▁golf	-3264
iences	-3265
▁français	-3266
acts	-3267
▁possible	-3268
54	-3269
research	-3270
▁jersey	-3271
stock	-3272
▁cut	-3273
▁stay	-3274
profit	-3275
publ	-3276
▁lov	-3277
▁por	-3278
ros	-3279
▁contract	-3280
need	-3281
▁supplies	-3282
▁listed	-3283
lim	-3284
nd	-3285
▁alt	-3286
▁send	-3287
donate	-3288
▁sou	-3289
itten	-3290
▁tur	-3291
02	-3292
▁comb	-3293
national	-3294
▁cy	-3295
sylvania	-3296
▁mission	-3297
icken	-3298
aste	-3299
▁dealer	-3300
98	-3301
▁meas	-3302
03	-3303
▁others	-3304
casts	-3305
rooms	-3306
▁son	-3307
title	-3308
español	-3309
/18	-3310
▁function	-3311
▁logo	-3312
▁psych	-3313
iance	-3314
color	-3315
▁https	-3316
lines	-3317
▁soci	-3318
ighbor	-3319
▁block	-3320
5)	-3321
illed	-3322
▁called	-3323
abul	-3324
olic	-3325
▁rout	-3326
▁going	-3327
▁february	-3328
▁nation	-3329
▁letter	-3330
track	-3331
arant	-3332
claimer	-3333
▁cab	-3334
▁healthcare	-3335
▁cri	-3336
members	-3337
kn	-3338
ban	-3339
5,	-3340
▁avenue	-3341
▁major	-3342
employment	-3343
anks	-3344
▁roll	-3345
photo	-3346
▁files	-3347
▁jose	-3348
▁specialty	-3349
jack	-3350
aurus	-3351
▁chann	-3352
nesota	-3353
rum	-3354
▁source	-3355
atory	-3356
▁fort	-3357
hum	-3358
▁awards	-3359
▁paul	-3360
▁career	-3361
▁availability	-3362
hl	-3363
polit	-3364
vey	-3365
▁consult	-3366
▁cancel	-3367
▁pal	-3368
dictionary	-3369
ging	-3370
▁union	-3371
cop	-3372
72	-3373
▁‘	-3374
▁nove	-3375
international	-3376
▁hour	-3377
data	-3378
leep	-3379
▁win	-3380
advertising	-3381
arian	-3382
▁properties	-3383
6,	-3384
73	-3385
▁corn	-3386
▁fat	-3387
places	-3388
inning	-3389
amin	-3390
tools	-3391
▁guidelines	-3392
▁michael	-3393
ralia	-3394
▁button	-3395
▁november	-3396
▁mat	-3397
black	-3398
thanks	-3399
▁tell	-3400
▁consider	-3401
chicago	-3402
▁commercial	-3403
articles	-3404
iatric	-3405
▁invol	-3406
▁added	-3407
lead	-3408
lah	-3409
▁james	-3410
▁says	-3411
hib	-3412
▁window	-3413
ald	-3414
affic	-3415
try	-3416
oph	-3417
ulty	-3418
ouri	-3419
▁natural	-3420
ifts	-3421
▁2009	-3422
▁cars	-3423
▁document	-3424
▁registration	-3425
▁deter	-3426
bit	-3427
address	-3428
▁host	-3429
schools	-3430
rey	-3431
take	-3432
▁lists	-3433
iology	-3434
type	-3435
▁magazine	-3436
":	-3437
▁<	-3438
74	-3439
▁december	-3440
▁cand	-3441
portation	-3442
▁david	-3443
▁recent	-3444
ket	-3445
▁gradu	-3446
ampa	-3447
verse	-3448
depend	-3449
mag	-3450
▁fig	-3451
▁ltd	-3452
tegr	-3453
▁known	-3454
ocr	-3455
▁agreement	-3456
ski	-3457
▁eye	-3458
▁ath	-3459
▁cas	-3460
lor	-3461
cret	-3462
▁retail	-3463
▁master	-3464
▁resid	-3465
ursday	-3466
▁vegas	-3467
aming	-3468
asil	-3469
▁total	-3470
ptoms	-3471
▁2000	-3472
▁users	-3473
▁mom	-3474
▁chall	-3475
oen	-3476
▁brown	-3477
▁average	-3478
▁journal	-3479
conom	-3480
women	-3481
mes	-3482
▁(2)	-3483
green	-3484
▁dest	-3485
▁sec	-3486
▁chem	-3487
▁construction	-3488
▁ham	-3489
▁compl	-3490
abl	-3491
▁expect	-3492
bon	-3493
▁theat	-3494
rock	-3495
http	-3496
opedic	-3497
▁self	-3498
▁therapy	-3499
onyms	-3500
oke	-3501
master	-3502
▁against	-3503
▁makes	-3504
▁smith	-3505
▁respect	-3506
gn	-3507
▁future	-3508
games	-3509
ime	-3510
▁trip	-3511
ecutive	-3512
83	-3513
▁points	-3514
▁bul	-3515
62	-3516
▁dan	-3517
ker	-3518
gall	-3519
▁match	-3520
▁corporation	-3521
aj	-3522
urolog	-3523
▁cru	-3524
▁until	-3525
▁fest	-3526
ashion	-3527
▁corporate	-3528
▁tar	-3529
ole	-3530
las	-3531
usa	-3532
idential	-3533
iven	-3534
whe	-3535
ention	-3536
face	-3537
mb	-3538
orning	-3539
iod	-3540
▁ped	-3541
▁ball	-3542
phys	-3543
cil	-3544
ructions	-3545
ffee	-3546
yer	-3547
oral	-3548
▁dent	-3549
▁concer	-3550
▁simple	-3551
edu	-3552
▁dental	-3553
▁consum	-3554
▁rental	-3555
▁able	-3556
that	-3557
ula	-3558
ij	-3559
blue	-3560
▁prevent	-3561
abled	-3562
▁mix	-3563
discover	-3564
ately	-3565
lahoma	-3566
max	-3567
▁suggest	-3568
ends	-3569
▁ess	-3570
▁names	-3571
estern	-3572
atin	-3573
student	-3574
fol	-3575
▁limited	-3576
▁deliver	-3577
▁michigan	-3578
▁alerts	-3579
▁suite	-3580
ving	-3581
53	-3582
tor	-3583
proper	-3584
ening	-3585
date	-3586
rich	-3587
ifest	-3588
canada	-3589
ourses	-3590
82	-3591
▁ber	-3592
▁worth	-3593
▁division	-3594
uation	-3595
▁entertainment	-3596
▁;	-3597
▁category	-3598
▁recipe	-3599
▁bad	-3600
rodu	-3601
▁rules	-3602
▁meaning	-3603
ads	-3604
clusive	-3605
▁veter	-3606
features	-3607
uesday	-3608
ayer	-3609
▁means	-3610
standing	-3611
▁often	-3612
▁football	-3613
yal	-3614
▁agent	-3615
▁summer	-3616
financial	-3617
corporate	-3618
monday	-3619
ared	-3620
▁across	-3621
gage	-3622
heart	-3623
▁2019	-3624
▁leaders	-3625
vin	-3626
low	-3627
▁mel	-3628
▁afr	-3629
▁2008	-3630
inese	-3631
▁foc	-3632
▁front	-3633
▁orders	-3634
rom	-3635
▁francisco	-3636
▁3,	-3637
ucky	-3638
▁planning	-3639
▁georgia	-3640
itz	-3641
addit	-3642
foot	-3643
▁ben	-3644
▁feet	-3645
日本	-3646
iers	-3647
▁jun	-3648
expanded	-3649
aska	-3650
apply	-3651
craft	-3652
▁subscript	-3653
article	-3654
▁continue	-3655
ighborhood	-3656
erc	-3657
build	-3658
▁marri	-3659
▁closed	-3660
▁guarant	-3661
▁recogn	-3662
ologist	-3663
▁fresh	-3664
▁polit	-3665
oenix	-3666
ondon	-3667
uals	-3668
ena	-3669
▁trademarks	-3670
▁french	-3671
roit	-3672
▁along	-3673
▁received	-3674
ocabul	-3675
navigation	-3676
▁owner	-3677
ancing	-3678
▁android	-3679
closed	-3680
tech	-3681
▁apartments	-3682
▁bon	-3683
hold	-3684
▁engineering	-3685
▁cit	-3686
▁desk	-3687
ск	-3688
schedule	-3689
erve	-3690
▁symptoms	-3691
▁dress	-3692
▁solution	-3693
▁announ	-3694
inal	-3695
camp	-3696
▁motor	-3697
ocabulary	-3698
▁policies	-3699
talk	-3700
▁materials	-3701
▁columb	-3702
mess	-3703
▁academy	-3704
▁http	-3705
tickets	-3706
white	-3707
▁spot	-3708
▁problems	-3709
▁early	-3710
▁lin	-3711
▁finance	-3712
▁five	-3713
september	-3714
nesday	-3715
rs	-3716
▁blvd	-3717
missions	-3718
▁asked	-3719
newsletter	-3720
81	-3721
▁pharmacy	-3722
▁8:00	-3723
▁wil	-3724
-201	-3725
▁tn	-3726
gy	-3727
▁português	-3728
▁wi	-3729
deutsch	-3730
ken	-3731
staff	-3732
calendar	-3733
akers	-3734
via	-3735
▁clinic	-3736
▁several	-3737
program	-3738
▁60	-3739
fa	-3740
▁risk	-3741
sn	-3742
dale	-3743
lab	-3744
win	-3745
icket	-3746
▁orth	-3747
medic	-3748
wa	-3749
51	-3750
ennes	-3751
▁step	-3752
wy	-3753
▁assess	-3754
ength	-3755
▁ways	-3756
▁du	-3757
▁pie	-3758
▁overview	-3759
▁instagram	-3760
▁employees	-3761
▁%	-3762
▁dead	-3763
sitemap	-3764
▁→	-3765
61	-3766
recip	-3767
▁projects	-3768
▁bus	-3769
▁1-8	-3770
900	-3771
▁glass	-3772
ivil	-3773
lar	-3774
▁agency	-3775
recommend	-3776
fall	-3777
▁become	-3778
iro	-3779
▁songs	-3780
hd	-3781
upload	-3782
depart	-3783
▁fish	-3784
▁safe	-3785
bill	-3786
▁protection	-3787
▁anton	-3788
▁values	-3789
▁owners	-3790
▁centers	-3791
▁compet	-3792
sch	-3793
▁everything	-3794
▁wish	-3795
insurance	-3796
▁society	-3797
hall	-3798
="	-3799
airs	-3800
ki	-3801
ora	-3802
▁device	-3803
entertainment	-3804
cular	-3805
prom	-3806
stay	-3807
▁fix	-3808
8,	-3809
▁sus	-3810
▁pizza	-3811
▁designed	-3812
brasil	-3813
▁storage	-3814
leg	-3815
▁illinois	-3816
ati	-3817
awai	-3818
▁tech	-3819
ady	-3820
▁parking	-3821
▁mexico	-3822
▁kitchen	-3823
▁van	-3824
▁term	-3825
▁continu	-3826
ribut	-3827
▁trump	-3828
mitted	-3829
empt	-3830
gers	-3831
▁girl	-3832
▁example	-3833
▁supply	-3834
saf	-3835
▁histor	-3836
acters	-3837
▁discover	-3838
tml	-3839
exam	-3840
lection	-3841
▁dc	-3842
8)	-3843
▁careers	-3844
fit	-3845
▁rentals	-3846
acks	-3847
copy	-3848
▁scholar	-3849
ua	-3850
exper	-3851
have	-3852
▁zone	-3853
directions	-3854
▁having	-3855
▁police	-3856
ament	-3857
university	-3858
▁fa	-3859
▁surgeons	-3860
▁character	-3861
▁jud	-3862
▁excell	-3863
▁named	-3864
imon	-3865
▁branch	-3866
▁smart	-3867
orders	-3868
big	-3869
▁nursing	-3870
▁wid	-3871
▁friendly	-3872
▁includes	-3873
▁cash	-3874
hips	-3875
▁imm	-3876
cri	-3877
▁beg	-3878
▁studies	-3879
▁relations	-3880
▁remov	-3881
▁hun	-3882
▁wild	-3883
paper	-3884
▁releases	-3885
▁funeral	-3886
▁knowledge	-3887
▁mind	-3888
▁mn	-3889
▁requirements	-3890
):	-3891
ola	-3892
▁kit	-3893
mond	-3894
fire	-3895
▁deutsch	-3896
science	-3897
▁currently	-3898
itting	-3899
ilies	-3900
ched	-3901
▁touch	-3902
▁cu	-3903
izes	-3904
▁quotes	-3905
ounds	-3906
▁sunday	-3907
▁draw	-3908
▁ari	-3909
developers	-3910
member	-3911
shopping	-3912
spr	-3913
▁tren	-3914
▁01	-3915
▁forum	-3916
▁ready	-3917
▁directly	-3918
doctors	-3919
▁springs	-3920
lyn	-3921
dist	-3922
available	-3923
▁internal	-3924
▁places	-3925
icial	-3926
inger	-3927
▁death	-3928
▁searches	-3929
pinterest	-3930
▁diego	-3931
lando	-3932
94	-3933
ref	-3934
cm	-3935
imum	-3936
updated	-3937
▁pressure	-3938
mot	-3939
▁insp	-3940
ión	-3941
war	-3942
kansas	-3943
▁sa	-3944
orial	-3945
pts	-3946
super	-3947
ano	-3948
▁christmas	-3949
▁4,	-3950
/2	-3951
▁mur	-3952
▁diet	-3953
umber	-3954
▁9:00	-3955
▁transfer	-3956
defin	-3957
▁pictures	-3958
▁degree	-3959
▁independ	-3960
▁door	-3961
▁fund	-3962
db	-3963
chester	-3964
links	-3965
consin	-3966
parent	-3967
isconsin	-3968
▁2018,	-3969
movies	-3970
▁activity	-3971
▁beautiful	-3972
▁basket	-3973
▁annual	-3974
ailed	-3975
▁2007	-3976
▁coupons	-3977
▁rap	-3978
▁oak	-3979
some	-3980
▁speed	-3981
▁cool	-3982
▁earn	-3983
rd	-3984
lock	-3985
▁mybook	-3986
▁bott	-3987
▁display	-3988
pod	-3989
▁relation	-3990
▁chart	-3991
▁appear	-3992
▁result	-3993
pot	-3994
step	-3995
▁nearby	-3996
▁copy	-3997
ennessee	-3998
kins	-3999
words	-4000
▁convert	-4001
▁correct	-4002
▁houston	-4003
icks	-4004
▁$3	-4005
design	-4006
▁replacement	-4007
ration	-4008
71	-4009
▁indian	-4010
game	-4011
▁boy	-4012
▁plant	-4013
▁conference	-4014
senior	-4015
mine	-4016
atlanta	-4017
▁jr	-4018
▁sem	-4019
▁tit	-4020
▁occ	-4021
chan	-4022
dent	-4023
sor	-4024
▁parents	-4025
▁release	-4026
▁kingdom	-4027
▁quote	-4028
cam	-4029
bas	-4030
▁true	-4031
vs	-4032
▁amount	-4033
gradu	-4034
minal	-4035
▁military	-4036
▁instructions	-4037
▁income	-4038
sam	-4039
ule	-4040
tar	-4041
pdf	-4042
prov	-4043
▁etc	-4044
▁league	-4045
oid	-4046
point	-4047
previous	-4048
hind	-4049
▁init	-4050
hospital	-4051
mm	-4052
birth	-4053
▁employ	-4054
pression	-4055
comments	-4056
▁pennsylvania	-4057
▁channel	-4058
▁coast	-4059
▁2018.	-4060
▁diagnosis	-4061
want	-4062
▁mont	-4063
\/	-4064
▁happy	-4065
iture	-4066
amber	-4067
▁strateg	-4068
restaur	-4069
▁unique	-4070
profess	-4071
▁math	-4072
pres	-4073
▁redu	-4074
96	-4075
▁certified	-4076
▁puzz	-4077
▁banking	-4078
▁physician	-4079
▁bud	-4080
▁furn	-4081
▁material	-4082
▁particip	-4083
atholic	-4084
▁catalog	-4085
................	-4086
aps	-4087
team	-4088
hospitals	-4089
ben	-4090
▁loss	-4091
▁birthday	-4092
rank	-4093
oe	-4094
▁creek	-4095
▁meeting	-4096
▁morning	-4097
mt	-4098
▁third	-4099
hr	-4100
ferences	-4101
ander	-4102
een	-4103
▁period	-4104
▁brit	-4105
jun	-4106
quality	-4107
cancel	-4108
▁dam	-4109
property	-4110
▁japan	-4111
▁percent	-4112
▁region	-4113
was	-4114
▁beauty	-4115
▁shoes	-4116
▁mad	-4117
▁issue	-4118
▁ax	-4119
▁chicken	-4120
global	-4121
▁pac	-4122
▁rid	-4123
▁wire	-4124
pose	-4125
▁examples	-4126
▁groups	-4127
aves	-4128
▁chat	-4129
▁graph	-4130
ifestyle	-4131
idence	-4132
▁muse	-4133
unteer	-4134
93	-4135
august	-4136
▁band	-4137
▁providing	-4138
▁uses	-4139
iring	-4140
indust	-4141
prise	-4142
▁countries	-4143
▁senior	-4144
choose	-4145
▁sen	-4146
david	-4147
▁integr	-4148
▁analysis	-4149
▁ing	-4150
▁variety	-4151
▁struct	-4152
▁face	-4153
▁grade	-4154
py	-4155
edy	-4156
comment	-4157
▁drop	-4158
night	-4159
cart	-4160
ording	-4161
▁previous	-4162
▁promot	-4163
owa	-4164
0)	-4165
▁bring	-4166
ively	-4167
92	-4168
▁finder	-4169
thr	-4170
affili	-4171
▁5,	-4172
michael	-4173
va	-4174
ски	-4175
▁trade	-4176
ither	-4177
reply	-4178
▁least	-4179
▁weeks	-4180
▁campus	-4181
sunday	-4182
▁5:00	-4183
▁institute	-4184
▁procedures	-4185
▁valid	-4186
burgh	-4187
▁satis	-4188
-11	-4189
apers	-4190
▁yourself	-4191
▁imp	-4192
tee	-4193
march	-4194
▁estimate	-4195
▁multiple	-4196
▁classic	-4197
hand	-4198
1-8	-4199
commercial	-4200
▁colorado	-4201
hor	-4202
value	-4203
________	-4204
▁primary	-4205
clear	-4206
▁courses	-4207
long	-4208
▁rac	-4209
windows	-4210
▁dates	-4211
▁ford	-4212
zip	-4213
français	-4214
▁fees	-4215
▁flu	-4216
▁council	-4217
za	-4218
oop	-4219
▁rated	-4220
▁feed	-4221
▁ال	-4222
",	-4223
▁falls	-4224
author	-4225
▁russ	-4226
▁europe	-4227
plan	-4228
timore	-4229
▁monday	-4230
tag	-4231
▁getting	-4232
▁accur	-4233
▁appl	-4234
ias	-4235
▁certific	-4236
▁vision	-4237
▁organiz	-4238
▁affiliated	-4239
▁athlet	-4240
hab	-4241
▁saint	-4242
▁editor	-4243
fs	-4244
abama	-4245
▁fly	-4246
powered	-4247
sold	-4248
▁inj	-4249
body	-4250
▁done	-4251
tle	-4252
▁mountain	-4253
▁8,	-4254
https	-4255
▁tree	-4256
▁built	-4257
▁error	-4258
gent	-4259
dan	-4260
日本語	-4261
ername	-4262
▁creative	-4263
▁sched	-4264
omb	-4265
7)	-4266
▁driver	-4267
▁ren	-4268
condit	-4269
group	-4270
▁attor	-4271
▁lu	-4272
bt	-4273
mel	-4274
organ	-4275
additional	-4276
▁note	-4277
▁devices	-4278
▁qual	-4279
give	-4280
▁conver	-4281
anna	-4282
note	-4283
grades	-4284
produ	-4285
ocol	-4286
▁uk	-4287
astro	-4288
▁enable	-4289
onse	-4290
▁hope	-4291
▁icon	-4292
apt	-4293
asing	-4294
▁hills	-4295
gallery	-4296
▁individual	-4297
clin	-4298
▁strong	-4299
▁physical	-4300
micro	-4301
miami	-4302
front	-4303
government	-4304
▁premium	-4305
▁guard	-4306
academ	-4307
yp	-4308
▁largest	-4309
ja	-4310
▁pers	-4311
▁temper	-4312
▁already	-4313
azing	-4314
▁prior	-4315
erry	-4316
▁earth	-4317
itts	-4318
cookie	-4319
saturday	-4320
▁due	-4321
alo	-4322
▁clue	-4323
ella	-4324
▁aid	-4325
▁spir	-4326
psy	-4327
▁player	-4328
continue	-4329
▁duration	-4330
stone	-4331
▁tab	-4332
▁univers	-4333
▁outs	-4334
times	-4335
flu	-4336
▁prime	-4337
oon	-4338
▁submit	-4339
▁partner	-4340
▁skills	-4341
imonials	-4342
▁gun	-4343
code	-4344
▁cou	-4345
icon	-4346
▁ce	-4347
▁matt	-4348
veland	-4349
▁republic	-4350
▁contained	-4351
▁offices	-4352
▁housing	-4353
anger	-4354
▁serve	-4355
afts	-4356
review	-4357
9)	-4358
ead	-4359
tren	-4360
oss	-4361
avis	-4362
▁steel	-4363
▁documents	-4364
▁snow	-4365
ortgage	-4366
lotte	-4367
▁jackson	-4368
ternal	-4369
▁capital	-4370
▁eat	-4371
wellness	-4372
bank	-4373
ya	-4374
partners	-4375
▁templ	-4376
▁leave	-4377
▁selection	-4378
▁exchange	-4379
daily	-4380
▁wide	-4381
language	-4382
ems	-4383
newsletters	-4384
ores	-4385
10.	-4386
▁automatic	-4387
▁families	-4388
▁units	-4389
tri	-4390
▁analy	-4391
▁ful	-4392
manage	-4393
▁cop	-4394
atform	-4395
antic	-4396
▁production	-4397
▁lett	-4398
▁oc	-4399
▁boston	-4400
bol	-4401
▁ha	-4402
apple	-4403
▁providers	-4404
gi	-4405
----	-4406
cology	-4407
sites	-4408
▁vict	-4409
▁pod	-4410
▁profiles	-4411
isa	-4412
▁holiday	-4413
▁difference	-4414
▁secret	-4415
requently	-4416
ooth	-4417
▁kansas	-4418
▁advertise	-4419
▁base	-4420
▁created	-4421
become	-4422
season	-4423
vac	-4424
▁advanced	-4425
eder	-4426
tele	-4427
▁innov	-4428
oween	-4429
▁diabetes	-4430
▁hur	-4431
▁fitness	-4432
▁force	-4433
▁coffee	-4434
children	-4435
ring	-4436
▁needed	-4437
cele	-4438
mi	-4439
auk	-4440
400	-4441
bul	-4442
▁electric	-4443
▁›	-4444
thu	-4445
▁7,	-4446
using	-4447
▁foods	-4448
hs	-4449
angle	-4450
▁pricing	-4451
imal	-4452
▁flash	-4453
▁weekly	-4454
▁studio	-4455
grade	-4456
▁round	-4457
▁advent	-4458
▁whether	-4459
▁accepted	-4460
syn	-4461
havi	-4462
teach	-4463
▁ice	-4464
▁quiz	-4465
friday	-4466
lee	-4467
▁wonder	-4468
▁counsel	-4469
▁labor	-4470
▁10,	-4471
▁classes	-4472
":"	-4473
▁cookie	-4474
dy	-4475
▁takes	-4476
▁iphone	-4477
plus	-4478
▁specialties	-4479
▁inform	-4480
▁description	-4481
fre	-4482
▁adult	-4483
▁warn	-4484
mac	-4485
friend	-4486
▁reason	-4487
ennis	-4488
round	-4489
▁firm	-4490
▁establ	-4491
tweet	-4492
▁2006	-4493
▁animal	-4494
▁porn	-4495
▁written	-4496
rian	-4497
sex	-4498
random	-4499
▁ple	-4500
▁mis	-4501
etts	-4502
cookies	-4503
▁yes	-4504
▁thomas	-4505
▁decor	-4506
even	-4507
road	-4508
▁mainten	-4509
▁rankings	-4510
▁ach	-4511
▁33	-4512
▁pen	-4513
pg	-4514
▁indic	-4515
▁comes	-4516
▁frank	-4517
also	-4518
xx	-4519
update	-4520
▁powered	-4521
▁served	-4522
91	-4523
▁upon	-4524
▁comfort	-4525
▁everyone	-4526
▁characters	-4527
▁nutrition	-4528
agon	-4529
▁wait	-4530
month	-4531
▁object	-4532
sav	-4533
reens	-4534
rence	-4535
han	-4536
ech	-4537
▁applications	-4538
▁girls	-4539
▁maintenance	-4540
▁2005	-4541
▁target	-4542
rss	-4543
languages	-4544
▁remove	-4545
linkedin	-4546
movie	-4547
sen	-4548
▁(201	-4549
▁administration	-4550
▁fur	-4551
▁scr	-4552
▁saturday	-4553
▁sens	-4554
illa	-4555
▁3.	-4556
maps	-4557
::	-4558
published	-4559
spanish	-4560
▁trial	-4561
houston	-4562
idden	-4563
▁savings	-4564
▁champ	-4565
advanced	-4566
▁officer	-4567
ini	-4568
▁thing	-4569
▁path	-4570
achus	-4571
▁antonio	-4572
▁village	-4573
▁ten	-4574
▁load	-4575
awaii	-4576
▁jew	-4577
digital	-4578
▁whole	-4579
▁0.	-4580
▁addition	-4581
▁ariz	-4582
golf	-4583
▁converter	-4584
eries	-4585
▁took	-4586
▁pc	-4587
▁rewards	-4588
▁inf	-4589
▁emergency	-4590
ields	-4591
▁johnson	-4592
▁egg	-4593
occer	-4594
▁resort	-4595
tue	-4596
eball	-4597
▁explor	-4598
▁train	-4599
▁bag	-4600
write	-4601
▁option	-4602
▁bible	-4603
▁response	-4604
ituaries	-4605
▁healthy	-4606
▁opinion	-4607
april	-4608
▁prepare	-4609
▁gal	-4610
▁heat	-4611
▁owned	-4612
▁practices	-4613
equ	-4614
▁wine	-4615
achusetts	-4616
pal	-4617
▁microsoft	-4618
▁woman	-4619
▁tutor	-4620
know	-4621
▁rom	-4622
▁ky	-4623
pan	-4624
ronics	-4625
inem	-4626
▁fill	-4627
king	-4628
▁invent	-4629
ria	-4630
▁server	-4631
▁included	-4632
▁reference	-4633
event	-4634
isions	-4635
hotels	-4636
tom	-4637
▁princ	-4638
const	-4639
▁final	-4640
▁format	-4641
texas	-4642
▁cause	-4643
keep	-4644
▁clothing	-4645
▁2.	-4646
tual	-4647
▁connected	-4648
▁burn	-4649
overs	-4650
▁necess	-4651
itional	-4652
▁six	-4653
▁opportunity	-4654
▁inside	-4655
▁someone	-4656
▁cold	-4657
▁civil	-4658
▁cloud	-4659
▁dallas	-4660
florida	-4661
▁once	-4662
osh	-4663
▁od	-4664
▁arizona	-4665
ipal	-4666
▁commission	-4667
▁conven	-4668
ological	-4669
entucky	-4670
appro	-4671
pu	-4672
▁ju	-4673
▁accounts	-4674
ef	-4675
▁tours	-4676
▁forecast	-4677
june	-4678
run	-4679
rate	-4680
▁leading	-4681
▁basketball	-4682
▁hu	-4683
▁reply	-4684
primary	-4685
reet	-4686
▁abuse	-4687
kin	-4688
found	-4689
▁lee	-4690
orts	-4691
▁ast	-4692
ii	-4693
california	-4694
▁scott	-4695
▁hd	-4696
engine	-4697
orm	-4698
izing	-4699
coll	-4700
cos	-4701
▁published	-4702
▁writing	-4703
▁ensure	-4704
▁lower	-4705
▁facility	-4706
▁businesses	-4707
ito	-4708
▁pin	-4709
▁govern	-4710
asons	-4711
cut	-4712
▁gives	-4713
anner	-4714
▁10:00	-4715
ulations	-4716
ipl	-4717
▁discount	-4718
ittsburgh	-4719
only	-4720
▁publish	-4721
▁fee	-4722
ession	-4723
▁traffic	-4724
한국	-4725
▁active	-4726
ably	-4727
▁depend	-4728
dem	-4729
▁(2	-4730
▁tal	-4731
▁vacation	-4732
uth	-4733
style	-4734
july	-4735
fully	-4736
wich	-4737
money	-4738
brevi	-4739
▁client	-4740
▁feature	-4741
▁tor	-4742
▁specialist	-4743
▁brook	-4744
▁resource	-4745
▁balance	-4746
▁vin	-4747
▁sep	-4748
▁cannot	-4749
▁31	-4750
irement	-4751
▁serving	-4752
▁machine	-4753
▁oklahoma	-4754
emale	-4755
holid	-4756
career	-4757
▁driving	-4758
side	-4759
5.0	-4760
▁given	-4761
irts	-4762
.99	-4763
istic	-4764
600	-4765
▁effects	-4766
▁facilities	-4767
▁dut	-4768
his	-4769
▁lookup	-4770
▁jones	-4771
▁role	-4772
payment	-4773
orthopedic	-4774
▁employee	-4775
▁half	-4776
▁leadership	-4777
▁clinical	-4778
▁gifts	-4779
cing	-4780
akota	-4781
▁enough	-4782
▁dollar	-4783
elly	-4784
▁exc	-4785
▁went	-4786
ivest	-4787
▁90	-4788
▁approach	-4789
▁clock	-4790
▁ul	-4791
▁silver	-4792
▁sport	-4793
▁regular	-4794
auto	-4795
ranty	-4796
▁cream	-4797
tur	-4798
bow	-4799
▁kid	-4800
wear	-4801
rup	-4802
▁vehicles	-4803
homes	-4804
▁hel	-4805
▁lines	-4806
spring	-4807
usion	-4808
▁executive	-4809
▁mir	-4810
▁econom	-4811
rx	-4812
otive	-4813
aken	-4814
▁spons	-4815
▁seen	-4816
erce	-4817
ouble	-4818
imedia	-4819
▁artists	-4820
index	-4821
pers	-4822
▁particular	-4823
▁chinese	-4824
irt	-4825
9-	-4826
itude	-4827
▁cases	-4828
▁austin	-4829
▁throughout	-4830
love	-4831
▁dry	-4832
hard	-4833
central	-4834
▁jul	-4835
rome	-4836
▁alex	-4837
$3	-4838
▁christian	-4839
known	-4840
▁born	-4841
sale	-4842
asa	-4843
▁parks	-4844
anda	-4845
▁regional	-4846
small	-4847
fic	-4848
ifi	-4849
eline	-4850
▁2001	-4851
bet	-4852
ji	-4853
model	-4854
▁viewed	-4855
▁recently	-4856
nee	-4857
nection	-4858
fc	-4859
elling	-4860
▁clients	-4861
▁35	-4862
rankings	-4863
tery	-4864
▁george	-4865
▁museum	-4866
xim	-4867
▁measure	-4868
▁exerc	-4869
▁eth	-4870
▁population	-4871
▁ton	-4872
▁understand	-4873
▁agents	-4874
▁commons	-4875
mos	-4876
▁oz	-4877
thritis	-4878
vo	-4879
acc	-4880
mls	-4881
comple	-4882
▁contain	-4883
▁dark	-4884
kids	-4885
leave	-4886
finance	-4887
▁dining	-4888
priate	-4889
▁jeff	-4890
aylor	-4891
▁wiki	-4892
▁flight	-4893
▁loan	-4894
▁!	-4895
▁wedding	-4896
▁payments	-4897
bury	-4898
brand	-4899
fi	-4900
yms	-4901
▁bit	-4902
▁secure	-4903
sales	-4904
mart	-4905
▁extra	-4906
reme	-4907
▁manual	-4908
colleges	-4909
math	-4910
▁marks	-4911
▁outside	-4912
▁chief	-4913
▁volume	-4914
project	-4915
beaut	-4916
▁chapter	-4917
▁audio	-4918
country	-4919
▁regard	-4920
▁pool	-4921
wal	-4922
james	-4923
▁educational	-4924
ordin	-4925
iatrics	-4926
▁inches	-4927
▁6,	-4928
rain	-4929
▁lives	-4930
▁modern	-4931
▁doesn	-4932
한국어	-4933
▁gear	-4934
tem	-4935
past	-4936
practice	-4937
▁winter	-4938
▁1:	-4939
icy	-4940
–2018	-4941
almart	-4942
div	-4943
bb	-4944
▁believe	-4945
▁committee	-4946
compare	-4947
arter	-4948
▁testing	-4949
philadelphia	-4950
▁sher	-4951
urer	-4952
▁survey	-4953
▁11,	-4954
▁wel	-4955
▁memorial	-4956
technology	-4957
itect	-4958
▁maryland	-4959
▁reach	-4960
▁altern	-4961
2-	-4962
▁archive	-4963
aged	-4964
detroit	-4965
mad	-4966
▁liter	-4967
▁forward	-4968
▁india	-4969
/10	-4970
manent	-4971
▁highway	-4972
▁coverage	-4973
▁sleep	-4974
▁though	-4975
▁length	-4976
▁dakota	-4977
▁operations	-4978
spect	-4979
▁lux	-4980
limited	-4981
▁serves	-4982
▁browse	-4983
▁wat	-4984
▁cry	-4985
▁williams	-4986
mid	-4987
▁late	-4988
▁attr	-4989
cost	-4990
▁returns	-4991
oria	-4992
rees	-4993
▁ba	-4994
▁employment	-4995
▁charles	-4996
▁shel	-4997
resp	-4998
boston	-4999
","	-5000
▁steps	-5001
cean	-5002
disclaimer	-5003
▁various	-5004
roy	-5005
▁entire	-5006
▁furniture	-5007
▁2:	-5008
▁incor	-5009
▁riv	-5010
▁army	-5011
▁recre	-5012
lake	-5013
▁minnesota	-5014
▁disorders	-5015
▁aug	-5016
▁ground	-5017
português	-5018
▁(3	-5019
▁fashion	-5020
flo	-5021
isl	-5022
wedding	-5023
▁cheese	-5024
▁assistant	-5025
enge	-5026
▁fight	-5027
giving	-5028
january	-5029
radio	-5030
recipes	-5031
▁hear	-5032
▁cd	-5033
▁wisconsin	-5034
▁write	-5035
agement	-5036
▁sau	-5037
▁transportation	-5038
▁industrial	-5039
cardi	-5040
▁certain	-5041
▁wellness	-5042
security	-5043
shire	-5044
▁robert	-5045
▁figure	-5046
▁(3)	-5047
▁occur	-5048
▁martin	-5049
▁except	-5050
itar	-5051
umni	-5052
▁auth	-5053
▁sky	-5054
▁plac	-5055
▁na	-5056
▁indiana	-5057
▁luc	-5058
▁shoot	-5059
▁101	-5060
inations	-5061
ية	-5062
▁patrick	-5063
▁administr	-5064
▁4.	-5065
▁grant	-5066
▁coming	-5067
dallas	-5068
▁came	-5069
ela	-5070
▁dish	-5071
▁mother	-5072
▁former	-5073
ued	-5074
mis	-5075
▁philadelphia	-5076
▁album	-5077
▁involved	-5078
answer	-5079
crib	-5080
yers	-5081
▁standards	-5082
ockey	-5083
tion	-5084
listen	-5085
▁45	-5086
tel	-5087
▁catholic	-5088
▁led	-5089
▁joseph	-5090
graduate	-5091
▁holidays	-5092
▁manage	-5093
3-	-5094
awards	-5095
aks	-5096
italiano	-5097
▁flowers	-5098
▁eval	-5099
shipping	-5100
▁(200	-5101
▁behavi	-5102
▁stuff	-5103
▁medicare	-5104
opinion	-5105
rhe	-5106
▁dream	-5107
▁subst	-5108
lights	-5109
▁teams	-5110
▁else	-5111
walk	-5112
▁missouri	-5113
wauk	-5114
commod	-5115
▁80	-5116
▁growth	-5117
favor	-5118
coun	-5119
pack	-5120
▁logged	-5121
▁neighborhood	-5122
▁rain	-5123
▁viol	-5124
▁inqu	-5125
▁southern	-5126
uit	-5127
▁charge	-5128
250	-5129
▁herein	-5130
while	-5131
aa	-5132
300	-5133
▁communities	-5134
autom	-5135
▁guarantee	-5136
admin	-5137
trending	-5138
▁platform	-5139
names	-5140
▁hop	-5141
▁counter	-5142
ру	-5143
▁basic	-5144
▁helps	-5145
ubs	-5146
▁matter	-5147
plement	-5148
▁festival	-5149
▁thes	-5150
▁ef	-5151
▁london	-5152
▁forest	-5153
▁conversion	-5154
▁avg	-5155
lev	-5156
▁wrong	-5157
▁mall	-5158
recommended	-5159
stet	-5160
psych	-5161
▁position	-5162
▁treated	-5163
▁kb	-5164
▁didn	-5165
gon	-5166
appoint	-5167
▁technical	-5168
▁selected	-5169
▁lost	-5170
▁taking	-5171
ación	-5172
▁italian	-5173
▁batter	-5174
cially	-5175
▁ox	-5176
▁tennessee	-5177
ws	-5178
▁taxes	-5179
nove	-5180
▁mile	-5181
▁santa	-5182
▁conduct	-5183
conditions	-5184
▁notes	-5185
▁amazing	-5186
sug	-5187
which	-5188
▁affect	-5189
iant	-5190
rency	-5191
▁stone	-5192
celebr	-5193
rol	-5194
▁fox	-5195
november	-5196
bell	-5197
born	-5198
reng	-5199
4-	-5200
andy	-5201
baby	-5202
▁800	-5203
▁running	-5204
helpful	-5205
▁players	-5206
▁distance	-5207
avg	-5208
william	-5209
▁among	-5210
ault	-5211
▁welcome	-5212
politics	-5213
▁elig	-5214
▁diseases	-5215
▁playing	-5216
ideshow	-5217
dog	-5218
▁compon	-5219
azz	-5220
made	-5221
▁columbia	-5222
▁9,	-5223
coln	-5224
waukee	-5225
▁voice	-5226
ribute	-5227
icut	-5228
brook	-5229
ultural	-5230
▁seek	-5231
rength	-5232
▁arriv	-5233
▁gy	-5234
▁drugs	-5235
▁messenger	-5236
case	-5237
▁clos	-5238
transl	-5239
ashville	-5240
▁carri	-5241
▁exist	-5242
ni	-5243
▁paint	-5244
▁determine	-5245
source	-5246
▁websites	-5247
▁spirit	-5248
▁fol	-5249
poses	-5250
urse	-5251
thy	-5252
training	-5253
▁bell	-5254
html	-5255
▁rose	-5256
origin	-5257
▁either	-5258
nam	-5259
rac	-5260
▁maintain	-5261
▁starting	-5262
▁exclusive	-5263
▁prob	-5264
fitness	-5265
▁crit	-5266
▁crow	-5267
▁completed	-5268
رب	-5269
february	-5270
inners	-5271
pn	-5272
ached	-5273
▁ticket	-5274
arl	-5275
▁75	-5276
cars	-5277
**	-5278
includ	-5279
onto	-5280
gold	-5281
▁km	-5282
▁(2018	-5283
▁random	-5284
hist	-5285
table	-5286
▁attorney	-5287
december	-5288
▁32	-5289
ür	-5290
rical	-5291
▁ze	-5292
▁funds	-5293
▁independent	-5294
avy	-5295
ani	-5296
▁faqs	-5297
▁cos	-5298
▁bowl	-5299
columb	-5300
▁sweet	-5301
▁posted	-5302
▁offered	-5303
investor	-5304
▁membership	-5305
▁500	-5306
docum	-5307
▁metro	-5308
mv	-5309
▁rh	-5310
deal	-5311
icious	-5312
▁connection	-5313
▁experts	-5314
▁1999	-5315
▁70	-5316
▁rub	-5317
▁gram	-5318
pac	-5319
▁separ	-5320
▁da	-5321
▁jes	-5322
ilton	-5323
▁kill	-5324
fed	-5325
erk	-5326
▁longer	-5327
working	-5328
rob	-5329
ista	-5330
odge	-5331
hous	-5332
ura	-5333
{{::	-5334
▁associates	-5335
150	-5336
regon	-5337
▁caf	-5338
uters	-5339
imes	-5340
▁procedure	-5341
iet	-5342
reh	-5343
▁doing	-5344
▁models	-5345
izzes	-5346
▁animals	-5347
cards	-5348
ellig	-5349
ooper	-5350
pedia	-5351
details	-5352
▁letters	-5353
▁thous	-5354
▁mic	-5355
▁loans	-5356
▁higher	-5357
cancer	-5358
porary	-5359
away	-5360
▁behind	-5361
county	-5362
-18	-5363
-20	-5364
oper	-5365
sey	-5366
▁giving	-5367
ceed	-5368
▁eag	-5369
▁axe	-5370
▁recover	-5371
9.99	-5372
▁dedic	-5373
ipe	-5374
▁publications	-5375
▁islands	-5376
▁fan	-5377
professional	-5378
▁hit	-5379
▁buff	-5380
▁enroll	-5381
▁rooms	-5382
▁oregon	-5383
official	-5384
▁ram	-5385
▁estim	-5386
▁century	-5387
▁associated	-5388
▁fax	-5389
arrow	-5390
▁investment	-5391
cd	-5392
obe	-5393
elry	-5394
encies	-5395
▁mp	-5396
▁double	-5397
apa	-5398
▁coupon	-5399
▁teacher	-5400
accessories	-5401
▁packages	-5402
apps	-5403
east	-5404
▁responsible	-5405
▁arm	-5406
category	-5407
yond	-5408
ский	-5409
▁usually	-5410
glass	-5411
▁brain	-5412
▁anything	-5413
▁impact	-5414
▁communication	-5415
roat	-5416
eller	-5417
▁wheel	-5418
▁dogs	-5419
▁goal	-5420
▁depos	-5421
boro	-5422
▁les	-5423
healthy	-5424
▁german	-5425
▁background	-5426
prem	-5427
▁$4	-5428
▁height	-5429
▁lay	-5430
/4	-5431
drive	-5432
▁causes	-5433
▁triangle	-5434
living	-5435
▁sea	-5436
▁fine	-5437
▁wife	-5438
wall	-5439
microsoft	-5440
gir	-5441
▁told	-5442
▁phoenix	-5443
▁specials	-5444
iced	-5445
cement	-5446
berry	-5447
vas	-5448
igna	-5449
file	-5450
message	-5451
adult	-5452
▁ra	-5453
▁sheet	-5454
hon	-5455
ributions	-5456
ups	-5457
awn	-5458
ologies	-5459
▁si	-5460
101	-5461
▁coaches	-5462
2.5	-5463
▁expertise	-5464
calcul	-5465
简体	-5466
robert	-5467
zen	-5468
created	-5469
▁father	-5470
▁dinner	-5471
▁shield	-5472
▁race	-5473
сский	-5474
nov	-5475
2016	-5476
yles	-5477
▁deep	-5478
europe	-5479
ctor	-5480
▁introdu	-5481
summer	-5482
▁miami	-5483
driv	-5484
wise	-5485
▁organizations	-5486
▁translation	-5487
mount	-5488
aughter	-5489
athy	-5490
ahoo	-5491
weight	-5492
▁signs	-5493
▁complex	-5494
▁44	-5495
abor	-5496
▁pas	-5497
▁acron	-5498
antage	-5499
pc	-5500
700	-5501
▁stream	-5502
▁12,	-5503
▁advertis	-5504
2:	-5505
lists	-5506
▁2014–2018	-5507
▁monthly	-5508
orrow	-5509
▁defense	-5510
happ	-5511
atives	-5512
illy	-5513
▁england	-5514
internet	-5515
▁focus	-5516
▁switch	-5517
▁orlando	-5518
forms	-5519
▁2003	-5520
▁honor	-5521
▁ak	-5522
▁thanks	-5523
gs	-5524
uri	-5525
▁metal	-5526
▁orange	-5527
ireland	-5528
ising	-5529
ache	-5530
/2017	-5531
▁alabama	-5532
aling	-5533
عرب	-5534
▁dun	-5535
vada	-5536
ustain	-5537
▁subscription	-5538
raight	-5539
bay	-5540
▁thursday	-5541
bridge	-5542
▁saved	-5543
▁#:	-5544
▁15,	-5545
enry	-5546
louis	-5547
however	-5548
image	-5549
▁suppl	-5550
rong	-5551
▁linkedin	-5552
▁purposes	-5553
▁theatre	-5554
▁reporting	-5555
▁vo	-5556
11.	-5557
▁shall	-5558
▁sar	-5559
▁constit	-5560
testimonials	-5561
▁challenge	-5562
private	-5563
▁fab	-5564
▁pul	-5565
▁(1	-5566
▁youth	-5567
▁liked	-5568
▁leader	-5569
australia	-5570
ala	-5571
▁highest	-5572
▁outdoor	-5573
▁55	-5574
groups	-5575
▁kore	-5576
▁allows	-5577
phis	-5578
cepts	-5579
▁visitors	-5580
iment	-5581
▁quickly	-5582
mass	-5583
aware	-5584
12.	-5585
▁teachers	-5586
▁china	-5587
▁chamber	-5588
▁rv	-5589
▁13,	-5590
ti	-5591
fox	-5592
aho	-5593
sec	-5594
▁western	-5595
si	-5596
pi	-5597
▁scores	-5598
▁picture	-5599
screen	-5600
▁increase	-5601
▁spect	-5602
coup	-5603
▁eyes	-5604
rit	-5605
▁respective	-5606
posed	-5607
▁intended	-5608
conds	-5609
▁costs	-5610
inder	-5611
ivestrong	-5612
aked	-5613
lets	-5614
▁swe	-5615
▁consumer	-5616
▁vit	-5617
▁progress	-5618
ifer	-5619
▁tables	-5620
▁nothing	-5621
▁crafts	-5622
▁parent	-5623
▁fi	-5624
emergency	-5625
▁justice	-5626
fish	-5627
▁africa	-5628
cling	-5629
▁publishing	-5630
▁television	-5631
nc	-5632
faction	-5633
▁instead	-5634
▁necessary	-5635
antasy	-5636
▁centre	-5637
▁nature	-5638
▁48	-5639
aham	-5640
ippi	-5641
▁fishing	-5642
grand	-5643
easy	-5644
▁interactive	-5645
▁paid	-5646
▁sitemap	-5647
area	-5648
▁enh	-5649
pen	-5650
icient	-5651
php	-5652
▁column	-5653
mill	-5654
works	-5655
pharm	-5656
leans	-5657
▁sr	-5658
▁theme	-5659
looking	-5660
▁package	-5661
membership	-5662
cue	-5663
▁desktop	-5664
▁mapquest	-5665
▁espe	-5666
▁disney	-5667
▁garage	-5668
▁$5	-5669
▁tests	-5670
present	-5671
▁sets	-5672
retail	-5673
chat	-5674
opa	-5675
omberg	-5676
▁2004	-5677
▁vocabulary	-5678
cover	-5679
rolog	-5680
▁cer	-5681
▁communications	-5682
▁corner	-5683
ava	-5684
ords	-5685
▁equal	-5686
sil	-5687
▁7:00	-5688
oga	-5689
▁held	-5690
japan	-5691
5.00	-5692
two	-5693
▁jump	-5694
lywood	-5695
questions	-5696
▁australia	-5697
▁certification	-5698
term	-5699
▁14,	-5700
greg	-5701
▁further	-5702
eland	-5703
astroenter	-5704
force	-5705
mination	-5706
▁thought	-5707
▁benefit	-5708
etna	-5709
▁directors	-5710
arel	-5711
▁(2018)	-5712
▁thesaurus	-5713
description	-5714
aha	-5715
histor	-5716
▁aware	-5717
▁encour	-5718
▁effective	-5719
▁highly	-5720
▁massachusetts	-5721
tic	-5722
ided	-5723
worth	-5724
issippi	-5725
ales	-5726
▁compreh	-5727
▁spa	-5728
▁mode	-5729
tty	-5730
ised	-5731
▁atlanta	-5732
bour	-5733
▁artist	-5734
onym	-5735
cigna	-5736
▁route	-5737
inson	-5738
tampa	-5739
▁grill	-5740
printable	-5741
▁buck	-5742
medi	-5743
▁ell	-5744
mic	-5745
aly	-5746
ined	-5747
▁os	-5748
▁scient	-5749
1-	-5750
▁survi	-5751
▁pred	-5752
▁purpose	-5753
install	-5754
break	-5755
cles	-5756
ebr	-5757
▁pinterest	-5758
ils	-5759
short	-5760
▁20,	-5761
nel	-5762
fair	-5763
▁levels	-5764
activ	-5765
▁according	-5766
center	-5767
▁discounts	-5768
applic	-5769
▁saw	-5770
▁cond	-5771
▁orleans	-5772
christmas	-5773
▁ranch	-5774
▁guest	-5775
▁confirm	-5776
8-	-5777
▁iowa	-5778
▁recreation	-5779
▁vot	-5780
added	-5781
neapolis	-5782
▁exact	-5783
▁favorites	-5784
▁27,	-5785
oring	-5786
▁afford	-5787
scape	-5788
similar	-5789
▁specialists	-5790
▁30,	-5791
remember	-5792
▁flights	-5793
▁electronic	-5794
▁2002	-5795
▁fir	-5796
▁denver	-5797
▁tracking	-5798
▁operating	-5799
alb	-5800
copd	-5801
▁chap	-5802
ugs	-5803
aver	-5804
single	-5805
▁installation	-5806
▁(8	-5807
once	-5808
olution	-5809
▁protected	-5810
▁temperature	-5811
incinn	-5812
▁simply	-5813
▁extension	-5814
▁residential	-5815
▁extr	-5816
▁mt	-5817
▁jim	-5818
▁gets	-5819
▁famous	-5820
▁chemical	-5821
abeth	-5822
itage	-5823
vention	-5824
▁compare	-5825
▁baltimore	-5826
▁wy	-5827
▁likely	-5828
▁300	-5829
ened	-5830
employ	-5831
alex	-5832
▁stats	-5833
ocolate	-5834
uma	-5835
▁sciences	-5836
orse	-5837
▁6:00	-5838
contents	-5839
did	-5840
tuesday	-5841
environment	-5842
▁hands	-5843
▁diam	-5844
▁vent	-5845
wednesday	-5846
ae	-5847
weekly	-5848
▁statistics	-5849
phy	-5850
▁genius	-5851
rief	-5852
then	-5853
▁sin	-5854
▁neck	-5855
▁core	-5856
▁taken	-5857
iropract	-5858
incinnati	-5859
oul	-5860
▁bac	-5861
▁skip	-5862
▁collins	-5863
before	-5864
0.00	-5865
▁temp	-5866
thursday	-5867
▁strength	-5868
opening	-5869
hop	-5870
▁1996	-5871
▁worldwide	-5872
▁(4)	-5873
▁cable	-5874
▁monitor	-5875
▁intellig	-5876
▁(0)	-5877
▁disorder	-5878
otic	-5879
▁hus	-5880
▁corre	-5881
▁fields	-5882
▁relationship	-5883
▁tag	-5884
pick	-5885
русский	-5886
▁opening	-5887
▁tu	-5888
▁bob	-5889
dd	-5890
distance	-5891
▁treatments	-5892
▁greater	-5893
ju	-5894
actor	-5895
adian	-5896
▁colleges	-5897
pin	-5898
ogram	-5899
ambig	-5900
▁downtown	-5901
safety	-5902
▁fel	-5903
▁liqu	-5904
sort	-5905
folio	-5906
▁cheap	-5907
station	-5908
cloud	-5909
ensions	-5910
plant	-5911
▁acqu	-5912
musician	-5913
onesia	-5914
editor	-5915
neys	-5916
ellite	-5917
▁interview	-5918
lu	-5919
▁pattern	-5920
▁inventory	-5921
▁36	-5922
antly	-5923
building	-5924
▁pacific	-5925
stop	-5926
wers	-5927
▁stri	-5928
▁boat	-5929
atering	-5930
▁slo	-5931
chang	-5932
▁00	-5933
▁fro	-5934
▁external	-5935
▁moving	-5936
10)	-5937
▁beat	-5938
ucks	-5939
▁yellow	-5940
▁kentucky	-5941
benef	-5942
▁para	-5943
comes	-5944
gnancy	-5945
▁lat	-5946
phen	-5947
human	-5948
▁worked	-5949
tagline	-5950
▁signed	-5951
▁credits	-5952
adj	-5953
▁calls	-5954
▁newsletters	-5955
▁factors	-5956
gard	-5957
cir	-5958
▁lock	-5959
▁theater	-5960
▁assessment	-5961
▁toy	-5962
ambiguation	-5963
bad	-5964
▁rang	-5965
clos	-5966
©2018	-5967
▁17,	-5968
forum	-5969
▁mechan	-5970
each	-5971
nutrition	-5972
▁haven	-5973
▁28,	-5974
jackson	-5975
▁salt	-5976
igious	-5977
▁chair	-5978
▁pickup	-5979
▁sources	-5980
wis	-5981
▁tuesday	-5982
▁operation	-5983
mca	-5984
conf	-5985
▁goes	-5986
▁nice	-5987
▁18,	-5988
▁rail	-5989
pically	-5990
▁(4	-5991
▁command	-5992
rating	-5993
▁3:	-5994
cher	-5995
pson	-5996
▁breast	-5997
students	-5998
$4	-5999
came	-6000
deli	-6001
▁bridge	-6002
cbs	-6003
posted	-6004
asters	-6005
▁improvement	-6006
▁ti	-6007
russ	-6008
▁academic	-6009
cite	-6010
▁achieve	-6011
▁campa	-6012
▁louisiana	-6013
▁satisfaction	-6014
▁liber	-6015
▁sac	-6016
oster	-6017
cho	-6018
profile	-6019
▁10/	-6020
military	-6021
▁enabled	-6022
▁flag	-6023
▁16,	-6024
▁experiences	-6025
▁sugar	-6026
prote	-6027
boy	-6028
host	-6029
venue	-6030
ariz	-6031
examples	-6032
ila	-6033
creat	-6034
number	-6035
▁goods	-6036
▁latin	-6037
urology	-6038
▁hardware	-6039
diabetes	-6040
party	-6041
▁reader	-6042
ko	-6043
▁british	-6044
▁charlotte	-6045
redfin	-6046
anth	-6047
mind	-6048
▁gyne	-6049
▁dim	-6050
▁hockey	-6051
▁(5	-6052
▁miller	-6053
▁24,	-6054
▁locator	-6055
aints	-6056
$1,	-6057
▁campaign	-6058
iner	-6059
eway	-6060
▁anyone	-6061
▁diffic	-6062
heim	-6063
▁21,	-6064
00-	-6065
asia	-6066
▁harris	-6067
erald	-6068
reci	-6069
▁tum	-6070
▁parties	-6071
izabeth	-6072
▁pep	-6073
▁contains	-6074
cery	-6075
▁forums	-6076
▁seconds	-6077
▁boo	-6078
things	-6079
ributor	-6080
amic	-6081
▁japanese	-6082
azil	-6083
▁feb	-6084
▁flex	-6085
▁claims	-6086
wire	-6087
▁cleaning	-6088
▁bedroom	-6089
▁colors	-6090
department	-6091
▁fully	-6092
▁ash	-6093
iques	-6094
▁markets	-6095
عربية	-6096
▁wireless	-6097
▁10:	-6098
since	-6099
▁budget	-6100
ador	-6101
podcasts	-6102
▁stage	-6103
tics	-6104
estic	-6105
▁davis	-6106
nn	-6107
seattle	-6108
wan	-6109
volunteer	-6110
medicare	-6111
▁topic	-6112
▁19,	-6113
jud	-6114
aetna	-6115
jul	-6116
▁mortgage	-6117
redients	-6118
enses	-6119
ienced	-6120
claimers	-6121
▁clip	-6122
▁fans	-6123
brid	-6124
street	-6125
chem	-6126
activity	-6127
▁chev	-6128
▁ocean	-6129
alg	-6130
▁weekend	-6131
cohol	-6132
content	-6133
jeff	-6134
▁kr	-6135
▁situ	-6136
▁trends	-6137
▁iv	-6138
aland	-6139
▁verify	-6140
frank	-6141
▁entry	-6142
synonyms	-6143
rated	-6144
▁oly	-6145
ager	-6146
▁boys	-6147
▁faculty	-6148
whether	-6149
▁م	-6150
▁notices	-6151
▁accessibility	-6152
▁reli	-6153
porter	-6154
▁shared	-6155
▁affiliations	-6156
size	-6157
▁tires	-6158
▁ridge	-6159
alls	-6160
mrs	-6161
▁adults	-6162
▁puzzle	-6163
crossword	-6164
cape	-6165
▁cabin	-6166
▁surface	-6167
▁arthritis	-6168
▁vote	-6169
french	-6170
▁kits	-6171
▁delivered	-6172
▁houses	-6173
thesaurus	-6174
umer	-6175
▁fuel	-6176
western	-6177
▁gri	-6178
abilities	-6179
tu	-6180
▁schedul	-6181
▁walmart	-6182
ez	-6183
▁renew	-6184
educ	-6185
▁spl	-6186
clopedia	-6187
umin	-6188
lantic	-6189
ario	-6190
▁25,	-6191
▁cbs	-6192
▁disclaimer	-6193
ho	-6194
▁apartment	-6195
conomy	-6196
▁easily	-6197
skin	-6198
▁jour	-6199
▁especially	-6200
enities	-6201
▁34	-6202
bing	-6203
▁alph	-6204
ted	-6205
fill	-6206
".	-6207
▁royal	-6208
▁cm	-6209
▁22,	-6210
compl	-6211
▁millions	-6212
healthcare	-6213
parts	-6214
▁sense	-6215
▁symbol	-6216
colorado	-6217
wing	-6218
▁interests	-6219
gun	-6220
▁dedicated	-6221
deals	-6222
▁chain	-6223
▁crime	-6224
getting	-6225
dro	-6226
cin	-6227
▁idea	-6228
▁olymp	-6229
idad	-6230
▁(7	-6231
ía	-6232
▁nh	-6233
cha	-6234
▁breakfast	-6235
▁°	-6236
hem	-6237
ework	-6238
ees	-6239
anes	-6240
▁interested	-6241
apore	-6242
upcoming	-6243
▁excellent	-6244
▁09	-6245
▁stick	-6246
▁upper	-6247
smart	-6248
iders	-6249
▁prepar	-6250
halloween	-6251
▁hmo	-6252
tour	-6253
▁toys	-6254
▁plastic	-6255
terior	-6256
▁peters	-6257
hur	-6258
bn	-6259
aren	-6260
▁wanted	-6261
arr	-6262
▁waste	-6263
minnesota	-6264
▁offering	-6265
▁synonyms	-6266
▁fellow	-6267
▁kil	-6268
lie	-6269
▁fm	-6270
▁faith	-6271
▁edited	-6272
▁residents	-6273
▁shown	-6274
▁comprehensive	-6275
▁battle	-6276
nic	-6277
iration	-6278
▁beyond	-6279
▁pleas	-6280
ento	-6281
donald	-6282
▁reverse	-6283
12)	-6284
▁heights	-6285
▁technologies	-6286
▁thank	-6287
employe	-6288
acron	-6289
awa	-6290
▁straight	-6291
▁subscribe	-6292
▁26,	-6293
glas	-6294
android	-6295
▁champions	-6296
denver	-6297
actual	-6298
▁proud	-6299
▁lane	-6300
campus	-6301
▁clark	-6302
tags	-6303
returns	-6304
▁4:	-6305
oz	-6306
core	-6307
▁cro	-6308
ether	-6309
▁carry	-6310
jim	-6311
oak	-6312
▁missing	-6313
nfl	-6314
▁summary	-6315
▁reflect	-6316
▁nw	-6317
▁url	-6318
▁eating	-6319
▁investig	-6320
▁beer	-6321
▁dermat	-6322
▁continuing	-6323
▁architect	-6324
▁nom	-6325
▁citiz	-6326
▁distribution	-6327
▁kenn	-6328
oosing	-6329
▁congress	-6330
aco	-6331
doc	-6332
ulu	-6333
▁tip	-6334
▁inbox	-6335
bath	-6336
▁assign	-6337
lay	-6338
▁individuals	-6339
ます	-6340
▁edge	-6341
hu	-6342
aton	-6343
▁almost	-6344
▁warm	-6345
▁bread	-6346
ially	-6347
▁attribution	-6348
perform	-6349
2015	-6350
▁attend	-6351
▁lawyer	-6352
iger	-6353
asp	-6354
▁explorer	-6355
▁registry	-6356
▁23,	-6357
▁visits	-6358
arizona	-6359
▁fail	-6360
▁adjust	-6361
▁advantage	-6362
▁dance	-6363
▁hund	-6364
▁certificate	-6365
▁lit	-6366
recently	-6367
▁requests	-6368
▁stations	-6369
ار	-6370
▁shut	-6371
▁looks	-6372
intend	-6373
library	-6374
▁downloads	-6375
▁lap	-6376
▁poly	-6377
▁luxury	-6378
▁hab	-6379
▁remember	-6380
plements	-6381
▁expected	-6382
▁ios	-6383
▁mes	-6384
▁recru	-6385
▁ray	-6386
-01	-6387
▁ability	-6388
dings	-6389
penn	-6390
▁minute	-6391
▁networks	-6392
▁butter	-6393
deb	-6394
una	-6395
asket	-6396
▁suff	-6397
▁covered	-6398
▁wednesday	-6399
▁06	-6400
sand	-6401
▁jesus	-6402
iac	-6403
▁leaf	-6404
marri	-6405
hemat	-6406
▁useful	-6407
▁verified	-6408
owned	-6409
learning	-6410
▁tam	-6411
associ	-6412
-15	-6413
onda	-6414
ensation	-6415
▁bol	-6416
▁lunch	-6417
▁shops	-6418
▁arab	-6419
▁signific	-6420
hal	-6421
doors	-6422
▁arrow	-6423
▁circle	-6424
▁ult	-6425
▁golden	-6426
exican	-6427
▁expand	-6428
▁#1	-6429
▁firms	-6430
fly	-6431
eless	-6432
internal	-6433
▁influ	-6434
▁released	-6435
$2	-6436
utc	-6437
▁grove	-6438
▁detailed	-6439
▁utah	-6440
▁challeng	-6441
▁warranty	-6442
aza	-6443
▁multi	-6444
▁marine	-6445
crete	-6446
chapter	-6447
coupons	-6448
shot	-6449
athan	-6450
▁hi	-6451
▁sauce	-6452
ebraska	-6453
▁11:	-6454
ederlands	-6455
paid	-6456
▁coordin	-6457
▁trailer	-6458
▁regarding	-6459
▁lease	-6460
ester	-6461
papers	-6462
▁icd	-6463
▁laws	-6464
▁healthgrades	-6465
▁mini	-6466
▁daniel	-6467
vit	-6468
▁pil	-6469
▁pets	-6470
▁overall	-6471
restaurants	-6472
bus	-6473
district	-6474
parking	-6475
▁teen	-6476
enty	-6477
advis	-6478
raine	-6479
ricane	-6480
aqu	-6481
▁fle	-6482
▁normal	-6483
settings	-6484
▁roof	-6485
▁became	-6486
azy	-6487
elle	-6488
▁female	-6489
anne	-6490
▁avoid	-6491
▁male	-6492
▁listen	-6493
paul	-6494
▁moon	-6495
oved	-6496
▁endorse	-6497
indian	-6498
ordan	-6499
▁traditional	-6500
stream	-6501
▁diets	-6502
▁designs	-6503
▁licensed	-6504
▁fo	-6505
spec	-6506
introdu	-6507
▁kim	-6508
▁removal	-6509
▁tire	-6510
ituary	-6511
▁outlook	-6512
▁seattle	-6513
▁trying	-6514
▁political	-6515
mann	-6516
▁mental	-6517
gets	-6518
▁ency	-6519
erto	-6520
▁usd	-6521
$5	-6522
▁nv	-6523
▁asse	-6524
xi	-6525
▁teaching	-6526
izon	-6527
▁professor	-6528
▁iron	-6529
▁session	-6530
▁rehab	-6531
▁filter	-6532
stein	-6533
▁abbrevi	-6534
adium	-6535
▁demand	-6536
▁prefer	-6537
▁contacts	-6538
▁07	-6539
block	-6540
▁acid	-6541
-75	-6542
▁ml	-6543
▁finding	-6544
specialty	-6545
▁crew	-6546
▁cooper	-6547
vocabulary	-6548
▁nyc	-6549
-24	-6550
hun	-6551
yan	-6552
rheum	-6553
▁pron	-6554
▁lv	-6555
▁mm	-6556
▁commerce	-6557
▁bb	-6558
contr	-6559
already	-6560
turn	-6561
unes	-6562
▁ban	-6563
sar	-6564
▁barn	-6565
▁titles	-6566
▁zealand	-6567
▁85	-6568
▁29,	-6569
avan	-6570
gener	-6571
cleveland	-6572
▁selling	-6573
▁potential	-6574
thalm	-6575
gate	-6576
▁covers	-6577
▁plants	-6578
trad	-6579
alt	-6580
▁merch	-6581
▁occas	-6582
iling	-6583
▁instrum	-6584
▁authority	-6585
leadership	-6586
▁shar	-6587
▁emails	-6588
▁affairs	-6589
▁changed	-6590
graph	-6591
(1)	-6592
▁lif	-6593
800)	-6594
van	-6595
▁retirement	-6596
▁actually	-6597
ku	-6598
▁flow	-6599
industry	-6600
▁explore	-6601
tips	-6602
colon	-6603
▁bottom	-6604
▁$2	-6605
▁38	-6606
programs	-6607
▁tra	-6608
▁began	-6609
▁exercise	-6610
evin	-6611
bob	-6612
▁ride	-6613
tes	-6614
▁rod	-6615
middle	-6616
directory	-6617
happy	-6618
clothing	-6619
verified	-6620
</	-6621
ingham	-6622
aka	-6623
▁appreci	-6624
fam	-6625
▁$10	-6626
▁structure	-6627
▁cinem	-6628
▁played	-6629
▁statements	-6630
▁bbc	-6631
shows	-6632
▁excellence	-6633
male	-6634
▁ring	-6635
▁processing	-6636
▁northern	-6637
frequently	-6638
▁hwy	-6639
export	-6640
pain	-6641
▁1998	-6642
▁banks	-6643
aug	-6644
edom	-6645
owner	-6646
▁nose	-6647
▁ol	-6648
ception	-6649
study	-6650
inton	-6651
▁mcc	-6652
▁tea	-6653
▁pun	-6654
▁buying	-6655
▁taylor	-6656
▁mas	-6657
▁rais	-6658
▁visual	-6659
▁reported	-6660
▁api	-6661
▁bab	-6662
▁france	-6663
▁virtual	-6664
3:	-6665
▁actions	-6666
▁seat	-6667
sky	-6668
▁begin	-6669
▁suit	-6670
▁whose	-6671
ulf	-6672
▁(6	-6673
ssary	-6674
▁palm	-6675
adow	-6676
idents	-6677
▁nurse	-6678
friendly	-6679
ributors	-6680
▁alert	-6681
beauty	-6682
▁hyper	-6683
manufact	-6684
▁tourn	-6685
▁jon	-6686
bles	-6687
▁sid	-6688
clean	-6689
▁thousands	-6690
▁visa	-6691
▁treas	-6692
▁languages	-6693
▁cooking	-6694
bud	-6695
lik	-6696
▁08	-6697
faculty	-6698
acity	-6699
veter	-6700
sus	-6701
cool	-6702
artist	-6703
▁shot	-6704
▁subscriptions	-6705
monthly	-6706
▁arr	-6707
▁blu	-6708
▁tub	-6709
▁featured	-6710
opher	-6711
▁bear	-6712
▁daughter	-6713
▁template	-6714
▁considered	-6715
▁mu	-6716
olester	-6717
average	-6718
clinical	-6719
▁positive	-6720
▁hawaii	-6721
bean	-6722
▁username	-6723
birthday	-6724
ان	-6725
▁disabled	-6726
▁2.5	-6727
▁broker	-6728
▁lifestyle	-6729
eed	-6730
lifestyle	-6731
enjoy	-6732
transportation	-6733
▁lessons	-6734
▁adventure	-6735
rh	-6736
acle	-6737
▁dentistry	-6738
bes	-6739
esome	-6740
▁convenient	-6741
ops	-6742
▁accommod	-6743
▁dies	-6744
▁chance	-6745
squ	-6746
little	-6747
rig	-6748
oming	-6749
▁recy	-6750
eff	-6751
▁ipad	-6752
▁established	-6753
pton	-6754
▁peter	-6755
▁cells	-6756
epis	-6757
▁joint	-6758
construction	-6759
▁thread	-6760
▁degrees	-6761
▁baseball	-6762
▁lights	-6763
▁tablet	-6764
pool	-6765
farm	-6766
mg	-6767
▁lind	-6768
▁arkansas	-6769
▁counseling	-6770
▁prep	-6771
▁couldn	-6772
▁lam	-6773
▁8:30	-6774
annual	-6775
igs	-6776
▁1995	-6777
permanent	-6778
rep	-6779
▁pump	-6780
▁transactions	-6781
▁manufacturing	-6782
▁mut	-6783
▁responsibility	-6784
▁swim	-6785
▁isn	-6786
▁neuro	-6787
virginia	-6788
kitchen	-6789
▁11:00	-6790
▁memory	-6791
culture	-6792
ographic	-6793
▁developed	-6794
fix	-6795
▁corp	-6796
▁reset	-6797
/7	-6798
▁99	-6799
▁pull	-6800
▁compar	-6801
▁wv	-6802
▁compos	-6803
▁mah	-6804
▁practition	-6805
zy	-6806
▁cub	-6807
phoenix	-6808
nba	-6809
▁insights	-6810
umes	-6811
▁cock	-6812
▁deposit	-6813
alph	-6814
mlb	-6815
opens	-6816
india	-6817
▁pok	-6818
idata	-6819
▁88	-6820
▁guy	-6821
▁appears	-6822
▁clicking	-6823
▁mit	-6824
▁components	-6825
entic	-6826
closure	-6827
▁recovery	-6828
▁sd	-6829
complete	-6830
surg	-6831
▁ia	-6832
sid	-6833
anim	-6834
▁spok	-6835
sep	-6836
▁sample	-6837
▁mine	-6838
▁smok	-6839
regular	-6840
120	-6841
ophy	-6842
archived	-6843
\"	-6844
▁lakes	-6845
▁veget	-6846
14)	-6847
▁tro	-6848
ometry	-6849
carol	-6850
oldid	-6851
winter	-6852
certified	-6853
▁bags	-6854
ras	-6855
german	-6856
vens	-6857
▁bio	-6858
umps	-6859
▁manner	-6860
▁finish	-6861
obituaries	-6862
cus	-6863
▁intelligence	-6864
▁pow	-6865
accept	-6866
olesterol	-6867
▁premier	-6868
through	-6869
▁disp	-6870
holiday	-6871
▁injury	-6872
breast	-6873
▁decisions	-6874
vict	-6875
▁lawyers	-6876
athlet	-6877
▁photography	-6878
▁votes	-6879
ares	-6880
▁100%	-6881
▁medium	-6882
▁task	-6883
-13	-6884
▁radar	-6885
▁maine	-6886
▁stress	-6887
apes	-6888
▁hamp	-6889
▁lady	-6890
▁sort	-6891
ennifer	-6892
saint	-6893
▁upload	-6894
▁37	-6895
▁sexual	-6896
ira	-6897
veh	-6898
▁essential	-6899
▁easier	-6900
▁historic	-6901
▁hub	-6902
scrib	-6903
hc	-6904
▁mb	-6905
▁older	-6906
forcement	-6907
▁economic	-6908
▁horse	-6909
▁candid	-6910
oa	-6911
hour	-6912
▁apr	-6913
bot	-6914
1/	-6915
level	-6916
▁helping	-6917
▁fer	-6918
▁lincoln	-6919
▁neg	-6920
▁richard	-6921
▁anywhere	-6922
2014	-6923
▁roy	-6924
▁limit	-6925
restaurant	-6926
▁peace	-6927
▁larger	-6928
afood	-6929
audio	-6930
▁joe	-6931
▁rib	-6932
és	-6933
som	-6934
▁ks	-6935
ridged	-6936
▁adopt	-6937
▁connecticut	-6938
ás	-6939
everything	-6940
stal	-6941
benefits	-6942
lan	-6943
▁flat	-6944
▁solver	-6945
iti	-6946
nie	-6947
ilder	-6948
▁setting	-6949
▁bure	-6950
▁recommendations	-6951
aneous	-6952
burn	-6953
▁films	-6954
दी	-6955
caa	-6956
fection	-6957
हि	-6958
dev	-6959
▁deck	-6960
▁anderson	-6961
ascular	-6962
partner	-6963
dc	-6964
▁identify	-6965
!!!	-6966
iny	-6967
▁describ	-6968
fashion	-6969
▁methods	-6970
▁iii	-6971
altern	-6972
mexico	-6973
-16	-6974
rors	-6975
▁fal	-6976
▁died	-6977
▁syndr	-6978
▁encyclopedia	-6979
ürk	-6980
publications	-6981
▁cafe	-6982
hair	-6983
▁andrew	-6984
▁typing	-6985
▁prevention	-6986
▁protein	-6987
▁affordable	-6988
purch	-6989
hidden	-6990
teen	-6991
▁bern	-6992
▁obtain	-6993
▁attack	-6994
▁definitions	-6995
reach	-6996
▁inspe	-6997
▁redfin	-6998
▁mig	-6999
▁hip	-7000
▁marsh	-7001
▁hide	-7002
▁environmental	-7003
▁unab	-7004
▁divers	-7005
hotel	-7006
▁31,	-7007
▁gain	-7008
▁historical	-7009
▁industries	-7010
boards	-7011
rv	-7012
mig	-7013
▁queen	-7014
▁vend	-7015
▁accurate	-7016
▁requires	-7017
outdoor	-7018
▁decision	-7019
▁jewelry	-7020
▁affiliate	-7021
nhl	-7022
depression	-7023
hide	-7024
▁vitals	-7025
listed	-7026
ра	-7027
▁05	-7028
▁bir	-7029
▁saving	-7030
▁lord	-7031
erse	-7032
▁throat	-7033
▁dial	-7034
common	-7035
ariants	-7036
▁messages	-7037
iatry	-7038
energy	-7039
▁checks	-7040
▁dep	-7041
taining	-7042
▁dealers	-7043
▁ahead	-7044
trust	-7045
▁pediatric	-7046
cycle	-7047
entry	-7048
-23	-7049
iters	-7050
system	-7051
marketplace	-7052
rat	-7053
zo	-7054
iries	-7055
federal	-7056
▁resorts	-7057
▁nfl	-7058
▁compliance	-7059
▁drivers	-7060
disclaimers	-7061
nut	-7062
▁calories	-7063
▁moment	-7064
ocket	-7065
rolet	-7066
▁04	-7067
▁replies	-7068
▁representative	-7069
etary	-7070
▁prec	-7071
▁excel	-7072
▁submitted	-7073
▁brid	-7074
▁exhib	-7075
draw	-7076
speed	-7077
▁livestrong	-7078
▁capt	-7079
(7	-7080
-14	-7081
▁10.	-7082
▁bound	-7083
-17	-7084
▁prop	-7085
▁chocolate	-7086
▁speak	-7087
intage	-7088
▁ln	-7089
cry	-7090
ione	-7091
▁couple	-7092
▁rot	-7093
▁salon	-7094
eston	-7095
olesale	-7096
otional	-7097
cuit	-7098
angel	-7099
▁rou	-7100
markets	-7101
▁root	-7102
sleep	-7103
▁dire	-7104
refer	-7105
▁cake	-7106
▁unabridged	-7107
▁blogs	-7108
pricing	-7109
▁salary	-7110
▁unknown	-7111
▁hampshire	-7112
▁49	-7113
▁mg	-7114
▁aqu	-7115
mediat	-7116
▁democr	-7117
▁reality	-7118
1:	-7119
▁dyn	-7120
▁(9	-7121
song	-7122
▁promotions	-7123
grad	-7124
eters	-7125
dining	-7126
arters	-7127
▁soccer	-7128
▁advance	-7129
tell	-7130
▁12:	-7131
icd	-7132
roe	-7133
▁heavy	-7134
-25	-7135
rance	-7136
▁designer	-7137
wd	-7138
▁heritage	-7139
pittsburgh	-7140
lon	-7141
▁quarter	-7142
▁generator	-7143
atoid	-7144
▁craft	-7145
▁broadcast	-7146
ali	-7147
rap	-7148
15)	-7149
large	-7150
▁surround	-7151
▁doors	-7152
▁seven	-7153
▁conserv	-7154
▁rice	-7155
▁creating	-7156
▁seem	-7157
vier	-7158
▁syndrome	-7159
experience	-7160
▁$1.	-7161
▁matters	-7162
required	-7163
▁satellite	-7164
hello	-7165
▁enterprise	-7166
▁thor	-7167
▁attention	-7168
traffic	-7169
uguese	-7170
▁storm	-7171
▁bond	-7172
▁piece	-7173
▁graduate	-7174
rece	-7175
gb	-7176
▁cad	-7177
sou	-7178
young	-7179
▁scen	-7180
pire	-7181
▁opens	-7182
▁define	-7183
▁restr	-7184
110	-7185
▁7:	-7186
iphone	-7187
lt	-7188
years	-7189
▁vary	-7190
▁talent	-7191
sport	-7192
▁nick	-7193
▁urban	-7194
▁airlines	-7195
suggest	-7196
▁~	-7197
▁pel	-7198
mediate	-7199
▁trouble	-7200
club	-7201
▁(5)	-7202
▁styles	-7203
credited	-7204
▁om	-7205
rists	-7206
pediatric	-7207
verb	-7208
aturing	-7209
notes	-7210
▁veterans	-7211
cum	-7212
▁approved	-7213
▁beginning	-7214
pie	-7215
▁reve	-7216
pur	-7217
lat	-7218
▁nm	-7219
▁usage	-7220
▁hay	-7221
▁kong	-7222
▁meat	-7223
javascript	-7224
▁1997	-7225
▁detail	-7226
▁lighting	-7227
▁cow	-7228
▁spread	-7229
▁gon	-7230
ulum	-7231
convert	-7232
3.5	-7233
▁saying	-7234
mediately	-7235
▁germany	-7236
▁racing	-7237
istan	-7238
parents	-7239
▁archives	-7240
▁certifications	-7241
fle	-7242
phere	-7243
▁pounds	-7244
premium	-7245
▁battery	-7246
▁5.	-7247
median	-7248
second	-7249
▁clerk	-7250
▁graduated	-7251
▁pup	-7252
▁agencies	-7253
inars	-7254
▁wear	-7255
▁(20	-7256
▁filters	-7257
▁currency	-7258
▁rev	-7259
▁growing	-7260
wild	-7261
▁ministry	-7262
▁slow	-7263
العربية	-7264
george	-7265
▁loved	-7266
▁vice	-7267
▁(18	-7268
▁charts	-7269
14.	-7270
alike	-7271
▁regulations	-7272
▁hunt	-7273
standard	-7274
forums	-7275
▁panel	-7276
125	-7277
▁>>	-7278
section	-7279
unk	-7280
▁however	-7281
▁label	-7282
▁grocery	-7283
finder	-7284
▁trucks	-7285
▁employer	-7286
santa	-7287
▁navig	-7288
▁chrome	-7289
▁refund	-7290
▁scot	-7291
▁seems	-7292
aga	-7293
▁meetings	-7294
▁difficult	-7295
▁indianapolis	-7296
▁rule	-7297
▁collabor	-7298
▁signature	-7299
▁wonderful	-7300
space	-7301
sac	-7302
ocks	-7303
▁actor	-7304
▁plate	-7305
hub	-7306
▁phr	-7307
▁committed	-7308
alle	-7309
▁hits	-7310
aki	-7311
▁grammar	-7312
▁9:	-7313
▁goals	-7314
▁booking	-7315
basket	-7316
greens	-7317
yard	-7318
▁applied	-7319
▁guests	-7320
document	-7321
magazine	-7322
urers	-7323
▁courts	-7324
physical	-7325
▁alcohol	-7326
mor	-7327
gender	-7328
▁eastern	-7329
▁exempt	-7330
▁criminal	-7331
▁{	-7332
ema	-7333
-200	-7334
dest	-7335
issue	-7336
13.	-7337
collins	-7338
▁fabric	-7339
oil	-7340
▁husband	-7341
▁95	-7342
specialties	-7343
▁colon	-7344
▁automatically	-7345
union	-7346
buff	-7347
▁365	-7348
▁petersburg	-7349
çe	-7350
austin	-7351
anned	-7352
ige	-7353
▁bron	-7354
▁tail	-7355
▁toll	-7356
▁extensive	-7357
cements	-7358
▁collections	-7359
mate	-7360
cit	-7361
grow	-7362
▁remote	-7363
definitions	-7364
abble	-7365
executive	-7366
▁puzzles	-7367
▁electronics	-7368
-30	-7369
▁46	-7370
username	-7371
▁mississippi	-7372
▁pier	-7373
filter	-7374
▁revol	-7375
▁auction	-7376
▁meal	-7377
▁gardens	-7378
oor	-7379
iciency	-7380
▁upcoming	-7381
ergies	-7382
▁$1,	-7383
▁anc	-7384
▁detect	-7385
▁preview	-7386
nurs	-7387
▁destination	-7388
mus	-7389
attan	-7390
▁brother	-7391
▁damage	-7392
▁sod	-7393
▁moo	-7394
▁formula	-7395
treat	-7396
▁1986	-7397
▁serious	-7398
neighborhood	-7399
iors	-7400
▁orthopedic	-7401
▁legisl	-7402
▁lip	-7403
▁advoc	-7404
▁rather	-7405
urologists	-7406
spot	-7407
anti	-7408
dermat	-7409
contributions	-7410
def	-7411
▁ot	-7412
adhd	-7413
paces	-7414
▁rescue	-7415
▁milk	-7416
▁musical	-7417
▁workshe	-7418
/19	-7419
score	-7420
▁automotive	-7421
▁pub	-7422
▁illust	-7423
rose	-7424
13)	-7425
▁bou	-7426
mouth	-7427
▁ware	-7428
london	-7429
variants	-7430
ictions	-7431
beach	-7432
▁pretty	-7433
ibbean	-7434
court	-7435
collect	-7436
▁default	-7437
▁mike	-7438
brands	-7439
▁operated	-7440
rael	-7441
15.	-7442
▁mos	-7443
ensus	-7444
wheel	-7445
▁journey	-7446
inf	-7447
▁recommended	-7448
▁supports	-7449
▁sew	-7450
▁factory	-7451
thew	-7452
▁printing	-7453
ucle	-7454
▁frame	-7455
▁recording	-7456
crime	-7457
▁workers	-7458
▁tun	-7459
▁chris	-7460
▁lots	-7461
▁concern	-7462
ürkçe	-7463
▁memphis	-7464
polic	-7465
unci	-7466
▁dash	-7467
academic	-7468
▁volunteer	-7469
">	-7470
chor	-7471
ramento	-7472
▁movement	-7473
▁tampa	-7474
▁mailing	-7475
toys	-7476
▁dar	-7477
▁otherwise	-7478
ova	-7479
import	-7480
▁hrs	-7481
flash	-7482
▁config	-7483
-27	-7484
▁printable	-7485
▁coc	-7486
▁checking	-7487
yon	-7488
▁bars	-7489
▁surgeon	-7490
alumni	-7491
▁allowed	-7492
technical	-7493
brit	-7494
teams	-7495
images	-7496
▁bang	-7497
▁fuck	-7498
▁candy	-7499
▁2014–2018.	-7500
▁occup	-7501
sd	-7502
▁hearing	-7503
ilitation	-7504
▁haw	-7505
namespaces	-7506
sharealike	-7507
fan	-7508
▁ros	-7509
▁trees	-7510
▁minimum	-7511
▁functions	-7512
hey	-7513
▁affiliates	-7514
▁rss	-7515
▁65	-7516
illo	-7517
osophy	-7518
iones	-7519
▁noun	-7520
entine	-7521
▁hollywood	-7522
▁anti	-7523
▁inch	-7524
▁accuracy	-7525
zone	-7526
aught	-7527
▁quant	-7528
being	-7529
▁reserve	-7530
jet	-7531
mbly	-7532
▁worst	-7533
econom	-7534
▁magic	-7535
(8	-7536
▁150	-7537
▁tel	-7538
▁lift	-7539
10/	-7540
course	-7541
mits	-7542
▁appropriate	-7543
oy	-7544
▁resist	-7545
scholar	-7546
eye	-7547
outhe	-7548
ima	-7549
aron	-7550
ohio	-7551
shirts	-7552
▁workshop	-7553
▁attractions	-7554
8:00	-7555
ryan	-7556
▁ones	-7557
▁theory	-7558
▁anth	-7559
▁talking	-7560
kind	-7561
▁whit	-7562
jon	-7563
▁ken	-7564
10:00	-7565
sr	-7566
director	-7567
▁indonesia	-7568
mun	-7569
bara	-7570
▁scene	-7571
▁wilson	-7572
dam	-7573
▁streaming	-7574
▁64	-7575
tops	-7576
ewood	-7577
cru	-7578
▁guitar	-7579
eman	-7580
▁delay	-7581
▁strategy	-7582
ando	-7583
pty	-7584
▁louisville	-7585
eas	-7586
fresh	-7587
▁nut	-7588
▁thom	-7589
quer	-7590
uten	-7591
▁changing	-7592
▁comfortable	-7593
assist	-7594
▁02	-7595
▁nevada	-7596
▁dol	-7597
▁russian	-7598
sea	-7599
registration	-7600
▁bedrooms	-7601
▁agr	-7602
encing	-7603
mental	-7604
hydr	-7605
afric	-7606
hen	-7607
▁lex	-7608
▁bull	-7609
dic	-7610
america	-7611
-05	-7612
elp	-7613
newsroom	-7614
▁coloring	-7615
▁trailers	-7616
▁ا	-7617
▁sheets	-7618
clusion	-7619
▁reliable	-7620
iation	-7621
▁evalu	-7622
anchise	-7623
oops	-7624
michigan	-7625
ebra	-7626
▁5:	-7627
▁pepper	-7628
marks	-7629
▁evidence	-7630
▁reasons	-7631
▁sor	-7632
▁6:	-7633
▁eligible	-7634
▁recognition	-7635
▁43	-7636
ango	-7637
▁gynecology	-7638
▁39	-7639
▁hero	-7640
mike	-7641
broad	-7642
china	-7643
sound	-7644
▁versions	-7645
rix	-7646
haw	-7647
removed	-7648
▁harper	-7649
▁draft	-7650
▁cruise	-7651
stetrics	-7652
.:	-7653
▁7:30	-7654
▁maker	-7655
▁delicious	-7656
columbus	-7657
▁african	-7658
▁198	-7659
▁1980	-7660
georgia	-7661
boys	-7662
▁infr	-7663
▁harbor	-7664
true	-7665
▁allen	-7666
▁blank	-7667
▁potato	-7668
▁permission	-7669
▁brothers	-7670
church	-7671
ifieds	-7672
▁adding	-7673
departments	-7674
▁helped	-7675
▁infect	-7676
aysia	-7677
▁shower	-7678
overall	-7679
▁milwaukee	-7680
arks	-7681
▁paying	-7682
lyrics	-7683
17)	-7684
cash	-7685
▁sandwich	-7686
▁controll	-7687
▁trib	-7688
software	-7689
youth	-7690
▁boot	-7691
▁salaries	-7692
▁household	-7693
mir	-7694
▁1990	-7695
▁sizes	-7696
▁addresses	-7697
aled	-7698
▁salad	-7699
▁powerful	-7700
▁passion	-7701
▁partnership	-7702
▁spine	-7703
▁ages	-7704
▁visiting	-7705
uru	-7706
▁handle	-7707
▁engineer	-7708
ika	-7709
communic	-7710
▁tracker	-7711
ocrin	-7712
▁columbus	-7713
sever	-7714
▁determin	-7715
▁alternative	-7716
▁acceptance	-7717
▁discussion	-7718
▁existing	-7719
url	-7720
izer	-7721
▁paste	-7722
▁util	-7723
-06	-7724
▁tags	-7725
reams	-7726
▁pound	-7727
▁somet	-7728
policies	-7729
▁screening	-7730
▁italiano	-7731
▁templates	-7732
▁foreign	-7733
gary	-7734
▁immediately	-7735
▁joy	-7736
/8	-7737
simon	-7738
▁enforcement	-7739
▁sharing	-7740
solutions	-7741
ayette	-7742
▁calling	-7743
▁portfolio	-7744
charles	-7745
favorites	-7746
▁chemistry	-7747
noun	-7748
▁bone	-7749
▁imag	-7750
▁bird	-7751
cities	-7752
2010	-7753
▁transport	-7754
api	-7755
▁wikimedia	-7756
2013	-7757
▁actual	-7758
▁walking	-7759
zer	-7760
reference	-7761
▁ingredients	-7762
▁speech	-7763
cb	-7764
▁departments	-7765
motor	-7766
▁ireland	-7767
▁catch	-7768
▁certificates	-7769
itzer	-7770
4.5	-7771
does	-7772
tre	-7773
▁12:00	-7774
▁signing	-7775
metic	-7776
lam	-7777
richard	-7778
corn	-7779
▁kat	-7780
▁consist	-7781
lington	-7782
iances	-7783
toronto	-7784
cler	-7785
summary	-7786
emporary	-7787
iversary	-7788
nick	-7789
alam	-7790
viation	-7791
ão	-7792
fest	-7793
jose	-7794
closures	-7795
▁$100	-7796
▁gray	-7797
▁extrem	-7798
▁relev	-7799
▁authentic	-7800
strong	-7801
▁cris	-7802
▁stan	-7803
gt	-7804
▁eggs	-7805
▁fame	-7806
trade	-7807
gom	-7808
daniel	-7809
▁taste	-7810
dat	-7811
thomas	-7812
▁concerns	-7813
italian	-7814
▁parish	-7815
oklahoma	-7816
▁financing	-7817
ustainability	-7818
cn	-7819
▁row	-7820
▁camera	-7821
▁portland	-7822
journal	-7823
▁input	-7824
▁spent	-7825
omi	-7826
▁bapt	-7827
▁tank	-7828
▁evening	-7829
▁electrical	-7830
▁frequently	-7831
▁suggestions	-7832
▁duty	-7833
▁kings	-7834
▁obituary	-7835
▁hart	-7836
▁execut	-7837
jew	-7838
▁successful	-7839
kes	-7840
▁doc	-7841
status	-7842
▁py	-7843
▁pros	-7844
▁empty	-7845
▁prepared	-7846
▁fiber	-7847
▁navy	-7848
agu	-7849
▁himself	-7850
mile	-7851
paren	-7852
▁bright	-7853
▁decl	-7854
▁probably	-7855
▁jac	-7856
electronics	-7857
nas	-7858
rology	-7859
iking	-7860
orship	-7861
success	-7862
iples	-7863
gro	-7864
▁effort	-7865
employee	-7866
▁spotlight	-7867
▁中文	-7868
stor	-7869
▁jam	-7870
▁beef	-7871
▁brad	-7872
án	-7873
sequ	-7874
▁plays	-7875
▁ultimate	-7876
▁chevrolet	-7877
▁secretary	-7878
-26	-7879
ounce	-7880
xiety	-7881
▁wheels	-7882
▁picks	-7883
▁sellers	-7884
enna	-7885
rise	-7886
doctor	-7887
▁tower	-7888
▁innovation	-7889
imdb	-7890
jective	-7891
▁politics	-7892
▁с	-7893
anton	-7894
▁contents	-7895
▁watching	-7896
▁galleries	-7897
▁prescription	-7898
▁henry	-7899
▁relief	-7900
▁associate	-7901
enda	-7902
▁stadium	-7903
▁$6	-7904
ados	-7905
▁wayne	-7906
▁solid	-7907
should	-7908
▁alaska	-7909
▁8:	-7910
soccer	-7911
▁behavior	-7912
▁unlimited	-7913
▁understanding	-7914
bass	-7915
▁ru	-7916
ximately	-7917
▁charges	-7918
/16	-7919
preps	-7920
▁cleveland	-7921
);	-7922
discuss	-7923
film	-7924
▁tournament	-7925
▁consent	-7926
▁revenue	-7927
▁references	-7928
▁pad	-7929
▁tap	-7930
cup	-7931
▁98	-7932
▁mand	-7933
▁cc	-7934
▁acronym	-7935
around	-7936
▁sit	-7937
▁madison	-7938
▁77	-7939
▁haz	-7940
▁1000	-7941
▁rivers	-7942
▁managed	-7943
▁+1	-7944
▁tonight	-7945
▁incorpor	-7946
▁scale	-7947
▁chronic	-7948
always	-7949
basketball	-7950
▁$50	-7951
▁minor	-7952
▁buildings	-7953
criptions	-7954
▁township	-7955
▁experienced	-7956
▁lbs	-7957
slideshow	-7958
onymous	-7959
▁mexican	-7960
▁vista	-7961
▁inquiries	-7962
▁flor	-7963
▁highlights	-7964
▁bureau	-7965
celebrity	-7966
sung	-7967
▁mole	-7968
aura	-7969
▁steak	-7970
▁greatest	-7971
oji	-7972
▁belie	-7973
iop	-7974
▁hr	-7975
affiliated	-7976
issa	-7977
prime	-7978
igion	-7979
▁phones	-7980
leyball	-7981
guest	-7982
▁franklin	-7983
▁dvd	-7984
planning	-7985
wikidata	-7986
▁citation	-7987
▁numer	-7988
orlando	-7989
onia	-7990
ributed	-7991
▁postal	-7992
multiple	-7993
plans	-7994
▁compensation	-7995
football	-7996
▁canadian	-7997
cab	-7998
▁observ	-7999
▁76	-8000
▁marriott	-8001
chart	-8002
historical	-8003
germany	-8004
▁douglas	-8005
▁fraud	-8006
riculum	-8007
▁lewis	-8008
pediatrics	-8009
▁sometimes	-8010
▁ب	-8011
series	-8012
▁dollars	-8013
▁schedules	-8014
visa	-8015
▁sab	-8016
ouver	-8017
▁starts	-8018
▁generation	-8019
▁hp	-8020
remove	-8021
▁roman	-8022
▁announced	-8023
▁supplements	-8024
bloomberg	-8025
▁sed	-8026
′′	-8027
fm	-8028
writing	-8029
▁awesome	-8030
iry	-8031
▁tall	-8032
nia	-8033
▁adam	-8034
▁wars	-8035
chris	-8036
▁respond	-8037
▁dv	-8038
saved	-8039
▁sons	-8040
▁apparel	-8041
▁bike	-8042
▁launch	-8043
oli	-8044
fy	-8045
▁delaware	-8046
▁patent	-8047
understanding	-8048
die	-8049
▁rico	-8050
▁adobe	-8051
▁mist	-8052
▁relax	-8053
chinese	-8054
▁advisory	-8055
flag	-8056
uren	-8057
states	-8058
quarters	-8059
▁realty	-8060
▁greek	-8061
anny	-8062
▁deb	-8063
▁mck	-8064
tras	-8065
▁papers	-8066
▁produce	-8067
etch	-8068
▁honey	-8069
न्	-8070
▁aer	-8071
▁html	-8072
umbing	-8073
▁election	-8074
atting	-8075
▁ratio	-8076
▁superv	-8077
$6	-8078
▁wings	-8079
▁ni	-8080
thur	-8081
▁gam	-8082
▁dentist	-8083
definition	-8084
hell	-8085
uries	-8086
▁quizzes	-8087
interaction	-8088
istries	-8089
▁42	-8090
parency	-8091
classic	-8092
iding	-8093
scott	-8094
never	-8095
▁prev	-8096
▁sept	-8097
during	-8098
three	-8099
▁goodrx	-8100
▁efficient	-8101
▁developers	-8102
हिन्	-8103
▁performing	-8104
हिन्दी	-8105
univers	-8106
▁um	-8107
▁accessible	-8108
▁marketplace	-8109
▁1/2	-8110
▁regul	-8111
scr	-8112
rote	-8113
▁400	-8114
▁bru	-8115
▁vine	-8116
▁actress	-8117
▁imdb	-8118
▁prospect	-8119
▁verification	-8120
unit	-8121
▁cyl	-8122
eding	-8123
▁plug	-8124
▁interesting	-8125
▁gym	-8126
former	-8127
9:00	-8128
delivery	-8129
▁bib	-8130
onstr	-8131
▁species	-8132
dess	-8133
stan	-8134
▁programming	-8135
aya	-8136
▁cardi	-8137
kim	-8138
▁utility	-8139
▁pittsburgh	-8140
topics	-8141
▁paris	-8142
pets	-8143
▁loop	-8144
going	-8145
▁initi	-8146
▁refresh	-8147
▁basis	-8148
▁×	-8149
promot	-8150
して	-8151
urt	-8152
sorry	-8153
answers	-8154
etic	-8155
liter	-8156
▁6.	-8157
trip	-8158
▁1.5	-8159
▁flower	-8160
▁pending	-8161
▁accounting	-8162
0.0	-8163
ante	-8164
reds	-8165
▁boards	-8166
▁capacity	-8167
▁completely	-8168
▁width	-8169
half	-8170
▁hang	-8171
▁waiting	-8172
▁shooting	-8173
▁hat	-8174
▁soul	-8175
▁truth	-8176
itute	-8177
rimination	-8178
▁implement	-8179
ahasa	-8180
blr	-8181
▁fear	-8182
leston	-8183
translate	-8184
-07	-8185
▁pine	-8186
▁supported	-8187
wine	-8188
▁italy	-8189
advent	-8190
-28	-8191
▁ski	-8192
rupt	-8193
blogs	-8194
▁judge	-8195
▁nearly	-8196
16)	-8197
199	-8198
▁elizabeth	-8199
▁arrest	-8200
unicipal	-8201
▁marriage	-8202
consumer	-8203
appropriate	-8204
▁obituaries	-8205
issan	-8206
▁pink	-8207
four	-8208
endars	-8209
▁feeds	-8210
▁critical	-8211
(9	-8212
▁rand	-8213
▁married	-8214
early	-8215
helor	-8216
hill	-8217
license	-8218
ucson	-8219
subject	-8220
downloads	-8221
apr	-8222
▁alone	-8223
emon	-8224
▁drag	-8225
▁nic	-8226
amount	-8227
▁frequ	-8228
▁liquid	-8229
▁).	-8230
earth	-8231
mph	-8232
▁magn	-8233
gomery	-8234
publish	-8235
cad	-8236
▁severe	-8237
▁broadway	-8238
ami	-8239
din	-8240
computer	-8241
voice	-8242
▁$7	-8243
cold	-8244
▁european	-8245
16.	-8246
▁yard	-8247
bri	-8248
rates	-8249
▁upgrade	-8250
hart	-8251
wait	-8252
▁lite	-8253
▁dor	-8254
stores	-8255
▁subscrib	-8256
tit	-8257
▁gran	-8258
▁everyday	-8259
tap	-8260
agen	-8261
spain	-8262
▁divid	-8263
▁enrollment	-8264
peter	-8265
▁lawn	-8266
▁casino	-8267
▁edt	-8268
embed	-8269
▁1-800	-8270
▁imaging	-8271
▁recognized	-8272
?"	-8273
▁montana	-8274
▁incorrect	-8275
--------	-8276
▁biggest	-8277
etime	-8278
dental	-8279
▁wordpress	-8280
19.	-8281
imp	-8282
▁employers	-8283
cord	-8284
release	-8285
iest	-8286
▁bass	-8287
▁euro	-8288
▁newest	-8289
▁direction	-8290
spir	-8291
▁reduce	-8292
▁licensing	-8293
▁120	-8294
2000	-8295
nonprofit	-8296
annah	-8297
▁faster	-8298
▁dub	-8299
▁mrs	-8300
▁1979	-8301
archives	-8302
rheumatoid	-8303
▁idaho	-8304
▁nashville	-8305
▁plaza	-8306
▁trips	-8307
iley	-8308
helle	-8309
▁native	-8310
▁detroit	-8311
▁assembly	-8312
final	-8313
▁eagle	-8314
example	-8315
▁economy	-8316
christian	-8317
▁boxes	-8318
▁rapids	-8319
▁	-8320
e	-8321
a	-8322
o	-8323
t	-8324
i	-8325
s	-8326
r	-8327
n	-8328
l	-8329
c	-8330
d	-8331
h	-8332
u	-8333
m	-8334
p	-8335
g	-8336
f	-8337
y	-8338
b	-8339
w	-8340
v	-8341
.	-8342
k	-8343
,	-8344
0	-8345
1	-8346
2	-8347
-	-8348
3	-8349
5	-8350
8	-8351
x	-8352
:	-8353
9	-8354
4	-8355
j	-8356
7	-8357
6	-8358
)	-8359
(	-8360
z	-8361
q	-8362
/	-8363
'	-8364
&	-8365
|	-8366
"	-8367
?	-8368
!	-8369
$	-8370
’	-8371
_	-8372
©	-8373
·	-8374
+	-8375
–	-8376
#	-8377
%	-8378
;	-8379
[	-8380
]	-8381
*	-8382
>	-8383
”	-8384
“	-8385
@	-8386
{	-8387
}	-8388
=	-8389
•	-8390
»	-8391
ا	-8392
®	-8393
°	-8394
é	-8395
—	-8396
ñ	-8397
с	-8398
ç	-8399
ل	-8400
^	-8401
的	-8402
<	-8403
。	-8404
а	-8405
の	-8406
ó	-8407
ر	-8408
á	-8409
и	-8410
ー	-8411
í	-8412
\	-8413
р	-8414
中	-8415
、	-8416
к	-8417
о	-8418
ê	-8419
م	-8420
ي	-8421
е	-8422
文	-8423
ン	-8424
н	-8425
ب	-8426
日	-8427
و	-8428
M	-8429
い	-8430
ن	-8431
T	-8432
ت	-8433
に	-8434
ü	-8435
本	-8436
‘	-8437
т	-8438
ی	-8439
у	-8440
で	-8441
す	-8442
を	-8443
る	-8444
د	-8445
語	-8446
し	-8447
ع	-8448
ة	-8449
一	-8450
ト	-8451
›	-8452
س	-8453
人	-8454
→	-8455
ス	-8456
イ	-8457
て	-8458
ま	-8459
л	-8460
と	-8461
た	-8462
′	-8463
в	-8464
な	-8465
用	-8466
は	-8467
й	-8468
が	-8469
ه	-8470
ä	-8471
ル	-8472
大	-8473
×	-8474
・	-8475
体	-8476
是	-8477
č	-8478
한	-8479
ö	-8480
à	-8481
ッ	-8482
国	-8483
국	-8484
~	-8485
年	-8486
有	-8487
ú	-8488
š	-8489
어	-8490
ラ	-8491
ف	-8492
п	-8493
不	-8494
在	-8495
ア	-8496
д	-8497
м	-8498
简	-8499
リ	-8500
学	-8501
か	-8502
り	-8503
ク	-8504
会	-8505
上	-8506
新	-8507
プ	-8508
ら	-8509
お	-8510
►	-8511
英	-8512
б	-8513
ı	-8514
生	-8515
れ	-8516
ी	-8517
も	-8518
ق	-8519
シ	-8520
和	-8521
ь	-8522
く	-8523
こ	-8524
ح	-8525
ش	-8526
了	-8527
タ	-8528
λ	-8529
г	-8530
っ	-8531
う	-8532
ド	-8533
さ	-8534
「	-8535
下	-8536
レ	-8537
я	-8538
方	-8539
י	-8540
以	-8541
ă	-8542
ह	-8543
ि	-8544
分	-8545
月	-8546
â	-8547
行	-8548
」	-8549
£	-8550
作	-8551
द	-8552
«	-8553
き	-8554
出	-8555
ã	-8556
品	-8557
可	-8558
グ	-8559
ج	-8560
第	-8561
з	-8562
个	-8563
ん	-8564
地	-8565
è	-8566
ệ	-8567
我	-8568
า	-8569
्	-8570
最	-8571
カ	-8572
时	-8573
न	-8574
为	-8575
要	-8576
全	-8577
あ	-8578
语	-8579
能	-8580
コ	-8581
公	-8582
子	-8583
合	-8584
事	-8585
ك	-8586
成	-8587
名	-8588
网	-8589
多	-8590
ế	-8591
フ	-8592
法	-8593
­	-8594
情	-8595
ы	-8596
ジ	-8597
自	-8598
小	-8599
サ	-8600
å	-8601
ک	-8602
理	-8603
入	-8604
ز	-8605
ロ	-8606
定	-8607
ε	-8608
家	-8609
工	-8610
テ	-8611
€	-8612
手	-8613
ת	-8614
▾	-8615
来	-8616
这	-8617
體	-8618
خ	-8619
マ	-8620
キ	-8621
到	-8622
部	-8623
バ	-8624
信	-8625
点	-8626
天	-8627
繁	-8628
发	-8629
メ	-8630
更	-8631
ר	-8632
表	-8633
ι	-8634
美	-8635
加	-8636
ž	-8637
使	-8638
đ	-8639
ビ	-8640
高	-8641
つ	-8642
于	-8643
ص	-8644
⁄	-8645
意	-8646
ท	-8647
者	-8648
よ	-8649
件	-8650
你	-8651
け	-8652
心	-8653
だ	-8654
ご	-8655
金	-8656
机	-8657
之	-8658
内	-8659
回	-8660
§	-8661
ë	-8662
ş	-8663
版	-8664
好	-8665
性	-8666
海	-8667
ย	-8668
通	-8669
ч	-8670
ו	-8671
ム	-8672
集	-8673
ブ	-8674
ν	-8675
度	-8676
特	-8677
ュ	-8678
他	-8679
式	-8680
社	-8681
κ	-8682
ち	-8683
所	-8684
电	-8685
料	-8686
业	-8687
外	-8688
オ	-8689
面	-8690
せ	-8691
ィ	-8692
数	-8693
物	-8694
图	-8695
关	-8696
前	-8697
め	-8698
デ	-8699
ב	-8700
看	-8701
力	-8702
η	-8703
科	-8704
利	-8705
【	-8706
ô	-8707
市	-8708
ไ	-8709
同	-8710
典	-8711
】	-8712
¿	-8713
开	-8714
百	-8715
么	-8716
─	-8717
α	-8718
商	-8719
▼	-8720
位	-8721
や	-8722
对	-8723
`	-8724
安	-8725
后	-8726
解	-8727
え	-8728
水	-8729
得	-8730
主	-8731
教	-8732
都	-8733
目	-8734
ā	-8735
与	-8736
词	-8737
報	-8738
如	-8739
明	-8740
动	-8741
们	-8742
ニ	-8743
ط	-8744
辞	-8745
服	-8746
就	-8747
相	-8748
系	-8749
提	-8750
ウ	-8751
格	-8752
务	-8753
也	-8754
店	-8755
ά	-8756
计	-8757
注	-8758
チ	-8759
ł	-8760
游	-8761
章	-8762
ע	-8763
间	-8764
ど	-8765
み	-8766
过	-8767
客	-8768
知	-8769
常	-8770
女	-8771
经	-8772
パ	-8773
ə	-8774
ל	-8775
取	-8776
程	-8777
期	-8778
说	-8779
わ	-8780
ø	-8781
أ	-8782
−	-8783
ナ	-8784
時	-8785
其	-8786
گ	-8787
字	-8788
ж	-8789
区	-8790
载	-8791
ร	-8792
化	-8793
索	-8794
》	-8795
《	-8796
北	-8797
х	-8798
三	-8799
站	-8800
影	-8801
台	-8802
及	-8803
代	-8804
保	-8805
動	-8806
言	-8807
画	-8808
评	-8809
立	-8810
道	-8811
น	-8812
资	-8813
ポ	-8814
活	-8815
果	-8816
等	-8817
十	-8818
查	-8819
‐	-8820
ャ	-8821
ї	-8822
正	-8823
ų	-8824
ć	-8825
そ	-8826
↓	-8827
京	-8828
号	-8829
見	-8830
重	-8831
ш	-8832
星	-8833
翻	-8834
设	-8835
★	-8836
業	-8837
起	-8838
世	-8839
æ	-8840
ョ	-8841
̇	-8842
而	-8843
里	-8844
←	-8845
ц	-8846
制	-8847
量	-8848
エ	-8849
条	-8850
次	-8851
電	-8852
登	-8853
器	-8854
二	-8855
書	-8856
ъ	-8857
セ	-8858
当	-8859
️	-8860
া	-8861
پ	-8862
斯	-8863
片	-8864
ネ	-8865
长	-8866
或	-8867
示	-8868
进	-8869
ư	-8870
ミ	-8871
間	-8872
思	-8873
ה	-8874
ė	-8875
色	-8876
א	-8877
ा	-8878
无	-8879
考	-8880
ō	-8881
页	-8882
ピ	-8883
西	-8884
口	-8885
平	-8886
問	-8887
比	-8888
機	-8889
↔	-8890
空	-8891
今	-8892
现	-8893
ペ	-8894
	-8895
ý	-8896
ズ	-8897
首	-8898
山	-8899
î	-8900
南	-8901
食	-8902
座	-8903
接	-8904
将	-8905
线	-8906
音	-8907
何	-8908
员	-8909
場	-8910
غ	-8911
容	-8912
应	-8913
收	-8914
界	-8915
อ	-8916
元	-8917
单	-8918
基	-8919
政	-8920
车	-8921
产	-8922
论	-8923
交	-8924
ạ	-8925
万	-8926
技	-8927
路	-8928
酒	-8929
司	-8930
息	-8931
校	-8932
视	-8933
问	-8934
↑	-8935
供	-8936
联	-8937
感	-8938
気	-8939
ο	-8940
题	-8941
真	-8942
费	-8943
μ	-8944
ェ	-8945
您	-8946
具	-8947
报	-8948
이	-8949
じ	-8950
运	-8951
实	-8952
建	-8953
管	-8954
่	-8955
告	-8956
開	-8957
请	-8958
育	-8959
流	-8960
身	-8961
原	-8962
场	-8963
ą	-8964
引	-8965
無	-8966
然	-8967
近	-8968
展	-8969
і	-8970
因	-8971
モ	-8972
着	-8973
ก	-8974
へ	-8975
去	-8976
¡	-8977
ɪ	-8978
还	-8979
ホ	-8980
ˈ	-8981
受	-8982
เ	-8983
由	-8984
例	-8985
話	-8986
ả	-8987
想	-8988
民	-8989
精	-8990
门	-8991
מ	-8992
型	-8993
历	-8994
推	-8995
ğ	-8996
像	-8997
נ	-8998
†	-8999
先	-9000
ベ	-9001
华	-9002
书	-9003
克	-9004
很	-9005
限	-9006
花	-9007
演	-9008
ф	-9009
选	-9010
专	-9011
ダ	-9012
ツ	-9013
友	-9014
ì	-9015
写	-9016
录	-9017
放	-9018
関	-9019
ं	-9020
ม	-9021
発	-9022
种	-9023
城	-9024
院	-9025
ワ	-9026
完	-9027
江	-9028
ę	-9029
源	-9030
́	-9031
户	-9032
ى	-9033
免	-9034
什	-9035
ง	-9036
持	-9037
介	-9038
τ	-9039
老	-9040
译	-9041
神	-9042
ř	-9043
任	-9044
编	-9045
ש	-9046
旅	-9047
َ	-9048
级	-9049
卡	-9050
四	-9051
航	-9052
快	-9053
东	-9054
光	-9055
連	-9056
記	-9057
餐	-9058
但	-9059
周	-9060
怎	-9061
州	-9062
検	-9063
ض	-9064
共	-9065
打	-9066
配	-9067
支	-9068
直	-9069
送	-9070
،	-9071
没	-9072
乐	-9073
少	-9074
装	-9075
～	-9076
爱	-9077
付	-9078
آ	-9079
向	-9080
类	-9081
味	-9082
证	-9083
¥	-9084
ī	-9085
ケ	-9086
头	-9087
指	-9088
博	-9089
置	-9090
试	-9091
读	-9092
求	-9093
ั	-9094
投	-9095
ю	-9096
香	-9097
ာ	-9098
歌	-9099
广	-9100
被	-9101
港	-9102
र	-9103
ث	-9104
排	-9105
ě	-9106
●	-9107
始	-9108
対	-9109
ษ	-9110
õ	-9111
助	-9112
布	-9113
包	-9114
微	-9115
热	-9116
約	-9117
话	-9118
覧	-9119
白	-9120
σ	-9121
备	-9122
ē	-9123
票	-9124
้	-9125
ậ	-9126
风	-9127
♥	-9128
些	-9129
ガ	-9130
王	-9131
清	-9132
إ	-9133
剧	-9134
标	-9135
火	-9136
ภ	-9137
戏	-9138
存	-9139
易	-9140
ハ	-9141
复	-9142
此	-9143
软	-9144
统	-9145
局	-9146
非	-9147
样	-9148
ū	-9149
形	-9150
員	-9151
設	-9152
招	-9153
ี	-9154
参	-9155
必	-9156
円	-9157
申	-9158
留	-9159
ρ	-9160
创	-9161
現	-9162
ล	-9163
师	-9164
்	-9165
房	-9166
‬	-9167
企	-9168
职	-9169
ُ	-9170
研	-9171
导	-9172
算	-9173
需	-9174
δ	-9175
π	-9176
便	-9177
五	-9178
反	-9179
球	-9180
ò	-9181
各	-9182
节	-9183
至	-9184
声	-9185
已	-9186
别	-9187
ś	-9188
从	-9189
模	-9190
訳	-9191
ว	-9192
後	-9193
项	-9194
术	-9195
ు	-9196
ß	-9197
变	-9198
史	-9199
¢	-9200
ئ	-9201
战	-9202
搜	-9203
记	-9204
選	-9205
べ	-9206
案	-9207
務	-9208
频	-9209
权	-9210
那	-9211
景	-9212
ห	-9213
结	-9214
验	-9215
造	-9216
素	-9217
売	-9218
属	-9219
材	-9220
印	-9221
म	-9222
享	-9223
ボ	-9224
官	-9225
ג	-9226
太	-9227
转	-9228
并	-9229
再	-9230
長	-9231
ם	-9232
ộ	-9233
ิ	-9234
ば	-9235
两	-9236
質	-9237
传	-9238
组	-9239
ด	-9240
除	-9241
习	-9242
初	-9243
辑	-9244
己	-9245
‹	-9246
古	-9247
変	-9248
ソ	-9249
见	-9250
改	-9251
深	-9252
阅	-9253
做	-9254
超	-9255
む	-9256
究	-9257
ż	-9258
男	-9259
追	-9260
修	-9261
即	-9262
议	-9263
다	-9264
ù	-9265
只	-9266
每	-9267
ა	-9268
価	-9269
灣	-9270
气	-9271
消	-9272
党	-9273
处	-9274
ォ	-9275
ț	-9276
办	-9277
様	-9278
总	-9279
功	-9280
ი	-9281
整	-9282
野	-9283
速	-9284
ನ	-9285
健	-9286
録	-9287
亚	-9288
荐	-9289
車	-9290
び	-9291
予	-9292
私	-9293
福	-9294
節	-9295
ớ	-9296
ส	-9297
答	-9298
ذ	-9299
状	-9300
▪	-9301
医	-9302
篇	-9303
码	-9304
际	-9305
ব	-9306
қ	-9307
မ	-9308
√	-9309
บ	-9310
ょ	-9311
价	-9312
楽	-9313
ி	-9314
『	-9315
班	-9316
ố	-9317
喜	-9318
儿	-9319
命	-9320
欢	-9321
菜	-9322
個	-9323
强	-9324
列	-9325
沪	-9326
士	-9327
』	-9328
実	-9329
质	-9330
马	-9331
✓	-9332
木	-9333
准	-9334
切	-9335
ল	-9336
ị	-9337
播	-9338
認	-9339
ต	-9340
ろ	-9341
ゴ	-9342
达	-9343
规	-9344
豆	-9345
询	-9346
拉	-9347
据	-9348
த	-9349
未	-9350
林	-9351
邮	-9352
才	-9353
ơ	-9354
ค	-9355
调	-9356
ず	-9357
±	-9358
э	-9359
义	-9360
汉	-9361
宝	-9362
기	-9363
赛	-9364
東	-9365
象	-9366
ờ	-9367
ấ	-9368
ể	-9369
击	-9370
浩	-9371
ề	-9372
単	-9373
ʻ	-9374
ς	-9375
ァ	-9376
又	-9377
端	-9378
血	-9379
细	-9380
☰	-9381
厅	-9382
ظ	-9383
ד	-9384
別	-9385
ե	-9386
优	-9387
境	-9388
照	-9389
尔	-9390
로	-9391
册	-9392
句	-9393
確	-9394
❤	-9395
하	-9396
让	-9397
ザ	-9398
划	-9399
德	-9400
פ	-9401
室	-9402
死	-9403
增	-9404
ゲ	-9405
举	-9406
给	-9407
ء	-9408
ம	-9409
含	-9410
讯	-9411
青	-9412
八	-9413
щ	-9414
米	-9415
ギ	-9416
款	-9417
测	-9418
의	-9419
‪	-9420
曲	-9421
称	-9422
略	-9423
※	-9424
段	-9425
韩	-9426
ţ	-9427
漫	-9428
预	-9429
ק	-9430
■	-9431
九	-9432
望	-9433
致	-9434
聘	-9435
千	-9436
断	-9437
足	-9438
題	-9439
良	-9440
藏	-9441
製	-9442
詳	-9443
把	-9444
圣	-9445
ね	-9446
箱	-9447
ノ	-9448
决	-9449
带	-9450
説	-9451
越	-9452
े	-9453
康	-9454
種	-9455
览	-9456
船	-9457
售	-9458
观	-9459
效	-9460
获	-9461
지	-9462
込	-9463
가	-9464
六	-9465
短	-9466
続	-9467
失	-9468
役	-9469
読	-9470
ή	-9471
क	-9472
领	-9473
ụ	-9474
养	-9475
ủ	-9476
步	-9477
買	-9478
病	-9479
夫	-9480
郵	-9481
双	-9482
黄	-9483
ા	-9484
施	-9485
维	-9486
ং	-9487
呼	-9488
帮	-9489
确	-9490
฿	-9491
ï	-9492
汇	-9493
住	-9494
S	-9495
治	-9496
į	-9497
几	-9498
团	-9499
河	-9500
移	-9501
計	-9502
奖	-9503
細	-9504
值	-9505
♦	-9506
結	-9507
肉	-9508
ழ	-9509
择	-9510
温	-9511
率	-9512
低	-9513
约	-9514
ա	-9515
ゃ	-9516
签	-9517
详	-9518
番	-9519
規	-9520
附	-9521
识	-9522
는	-9523
似	-9524
该	-9525
购	-9526
為	-9527
黑	-9528
库	-9529
ર	-9530
ợ	-9531
々	-9532
张	-9533
載	-9534
ِ	-9535
探	-9536
根	-9537
사	-9538
春	-9539
湖	-9540
玩	-9541
闻	-9542
映	-9543
认	-9544
株	-9545
田	-9546
ะ	-9547
ぶ	-9548
防	-9549
绿	-9550
密	-9551
故	-9552
盛	-9553
找	-9554
✕	-9555
ח	-9556
כ	-9557
ી	-9558
志	-9559
龙	-9560
購	-9561
에	-9562
ð	-9563
居	-9564
吉	-9565
阳	-9566
早	-9567
独	-9568
스	-9569
吃	-9570
李	-9571
艺	-9572
経	-9573
転	-9574
시	-9575
板	-9576
顿	-9577
運	-9578
際	-9579
症	-9580
络	-9581
连	-9582
候	-9583
域	-9584
資	-9585
類	-9586
省	-9587
რ	-9588
园	-9589
夏	-9590
季	-9591
서	-9592
干	-9593
换	-9594
较	-9595
奇	-9596
ત	-9597
依	-9598
皮	-9599
角	-9600
念	-9601
销	-9602
按	-9603
边	-9604
堂	-9605
대	-9606
兰	-9607
它	-9608
财	-9609
顺	-9610
ș	-9611
↵	-9612
眼	-9613
营	-9614
ગ	-9615
普	-9616
著	-9617
落	-9618
ુ	-9619
届	-9620
ข	-9621
七	-9622
亲	-9623
屋	-9624
积	-9625
જ	-9626
ט	-9627
ほ	-9628
ป	-9629
君	-9630
聞	-9631
走	-9632
婚	-9633
門	-9634
γ	-9635
波	-9636
破	-9637
策	-9638
纳	-9639
随	-9640
↳	-9641
販	-9642
馆	-9643
ე	-9644
„	-9645
往	-9646
护	-9647
续	-9648
订	-9649
☆	-9650
址	-9651
υ	-9652
स	-9653
ల	-9654
応	-9655
显	-9656
▲	-9657
ˌ	-9658
盘	-9659
چ	-9660
ठ	-9661
攻	-9662
返	-9663
త	-9664
般	-9665
過	-9666
ń	-9667
土	-9668
牌	-9669
ն	-9670
军	-9671
释	-9672
夜	-9673
朝	-9674
ె	-9675
输	-9676
리	-9677
稿	-9678
గ	-9679
待	-9680
极	-9681
์	-9682
幕	-9683
母	-9684
प	-9685
▸	-9686
止	-9687
且	-9688
她	-9689
析	-9690
适	-9691
ס	-9692
罗	-9693
宫	-9694
离	-9695
仕	-9696
威	-9697
違	-9698
げ	-9699
ヘ	-9700
國	-9701
調	-9702
보	-9703
ր	-9704
ọ	-9705
巨	-9706
智	-9707
药	-9708
니	-9709
川	-9710
ω	-9711
強	-9712
扫	-9713
ầ	-9714
则	-9715
職	-9716
고	-9717
洲	-9718
ゼ	-9719
升	-9720
构	-9721
武	-9722
₹	-9723
愛	-9724
队	-9725
族	-9726
济	-9727
葉	-9728
众	-9729
紹	-9730
ů	-9731
広	-9732
柬	-9733
β	-9734
刻	-9735
半	-9736
แ	-9737
吧	-9738
術	-9739
尼	-9740
র	-9741
線	-9742
红	-9743
培	-9744
牛	-9745
觉	-9746
归	-9747
券	-9748
್	-9749
榜	-9750
均	-9751
课	-9752
差	-9753
满	-9754
责	-9755
을	-9756
ί	-9757
區	-9758
石	-9759
ಕ	-9760
富	-9761
态	-9762
村	-9763
税	-9764
错	-9765
庭	-9766
্	-9767
岁	-9768
宿	-9769
彩	-9770
检	-9771
听	-9772
概	-9773
決	-9774
進	-9775
ლ	-9776
府	-9777
်	-9778
云	-9779
ር	-9780
环	-9781
試	-9782
诗	-9783
飞	-9784
ː	-9785
ಡ	-9786
ุ	-9787
จ	-9788
协	-9789
哪	-9790
害	-9791
歴	-9792
ি	-9793
休	-9794
绍	-9795
ْ	-9796
ứ	-9797
异	-9798
組	-9799
难	-9800
秋	-9801
島	-9802
帳	-9803
ल	-9804
✔	-9805
य	-9806
雅	-9807
พ	-9808
ồ	-9809
永	-9810
玛	-9811
請	-9812
자	-9813
ữ	-9814
县	-9815
朋	-9816
笔	-9817
奥	-9818
脑	-9819
范	-9820
ť	-9821
松	-9822
许	-9823
谱	-9824
麻	-9825
ّ	-9826
払	-9827
袋	-9828
န	-9829
丁	-9830
인	-9831
暴	-9832
ാ	-9833
射	-9834
θ	-9835
吗	-9836
ừ	-9837
访	-9838
ช	-9839
າ	-9840
―	-9841
迎	-9842
互	-9843
层	-9844
験	-9845
일	-9846
终	-9847
요	-9848
ざ	-9849
委	-9850
油	-9851
荷	-9852
県	-9853
浏	-9854
아	-9855
令	-9856
压	-9857
旗	-9858
▶	-9859
况	-9860
壁	-9861
希	-9862
授	-9863
編	-9864
簡	-9865
鉄	-9866
阿	-9867
트	-9868
ひ	-9869
達	-9870
律	-9871
風	-9872
주	-9873
യ	-9874
ြ	-9875
専	-9876
退	-9877
수	-9878
梦	-9879
纪	-9880
群	-9881
买	-9882
括	-9883
拍	-9884
背	-9885
谷	-9886
充	-9887
瓣	-9888
ヤ	-9889
递	-9890
降	-9891
序	-9892
瓶	-9893
ヨ	-9894
链	-9895
園	-9896
席	-9897
执	-9898
承	-9899
礼	-9900
键	-9901
를	-9902
ਾ	-9903
ം	-9904
¬	-9905
ੀ	-9906
携	-9907
會	-9908
յ	-9909
學	-9910
済	-9911
ự	-9912
森	-9913
終	-9914
讲	-9915
費	-9916
ਜ	-9917
သ	-9918
遇	-9919
ਪ	-9920
ੰ	-9921
否	-9922
启	-9923
哈	-9924
幸	-9925
底	-9926
激	-9927
療	-9928
贴	-9929
🙂	-9930
ぐ	-9931
営	-9932
ִ	-9933
染	-9934
ユ	-9935
ਬ	-9936
മ	-9937
圳	-9938
控	-9939
楼	-9940
ല	-9941
備	-9942
冷	-9943
ヒ	-9944
采	-9945
ဘ	-9946
佳	-9947
急	-9948
産	-9949
益	-9950
远	-9951
刷	-9952
响	-9953
抚	-9954
換	-9955
货	-9956
ן	-9957
农	-9958
绝	-9959
停	-9960
担	-9961
若	-9962
补	-9963
հ	-9964
צ	-9965
右	-9966
秘	-9967
钱	-9968
✨	-9969
份	-9970
ĭ	-9971
舞	-9972
나	-9973
โ	-9974
笑	-9975
迷	-9976
這	-9977
铁	-9978
静	-9979
도	-9980
優	-9981
त	-9982
観	-9983
ό	-9984
巴	-9985
卷	-9986
魔	-9987
φ	-9988
ู	-9989
险	-9990
雄	-9991
ื	-9992
围	-9993
媒	-9994
