<s>	-0
<pad>	-1
</s>	-2
<unk>	-3
.	-4
▁the	-5
,	-6
▁to	-7
▁and	-8
▁of	-9
▁a	-10
▁in	-11
-	-12
▁for	-13
▁that	-14
▁on	-15
▁is	-16
âĢ	-17
's	-18
▁with	-19
▁The	-20
▁was	-21
▁"	-22
▁at	-23
▁it	-24
▁as	-25
▁said	-26
Ļ	-27
▁be	-28
s	-29
▁by	-30
▁from	-31
▁are	-32
▁have	-33
▁has	-34
:	-35
▁(	-36
▁he	-37
▁I	-38
▁his	-39
▁will	-40
▁an	-41
▁this	-42
)	-43
▁âĢ	-44
▁not	-45
Ŀ	-46
▁you	-47
ľ	-48
▁their	-49
▁or	-50
▁they	-51
▁we	-52
▁but	-53
▁who	-54
▁more	-55
▁had	-56
▁been	-57
▁were	-58
▁about	-59
,"	-60
▁which	-61
▁up	-62
▁its	-63
▁can	-64
▁one	-65
▁out	-66
▁also	-67
▁$	-68
▁her	-69
▁all	-70
▁after	-71
."	-72
/	-73
▁would	-74
't	-75
▁year	-76
▁when	-77
▁first	-78
▁she	-79
▁two	-80
▁over	-81
▁people	-82
▁A	-83
▁our	-84
▁It	-85
▁time	-86
▁than	-87
▁into	-88
▁there	-89
t	-90
▁He	-91
▁new	-92
▁âĢĶ	-93
▁last	-94
▁just	-95
▁In	-96
▁other	-97
▁so	-98
▁what	-99
I	-100
▁like	-101
a	-102
▁some	-103
S	-104
Ã«	-105
▁them	-106
▁years	-107
'	-108
▁do	-109
▁your	-110
▁-	-111
▁1	-112
"	-113
▁if	-114
▁could	-115
?	-116
▁no	-117
i	-118
m	-119
▁get	-120
▁U	-121
▁now	-122
▁him	-123
▁back	-124
▁But	-125
▁âĢĵ	-126
▁my	-127
▁'	-128
▁only	-129
▁three	-130
;	-131
▁2	-132
The	-133
1	-134
▁percent	-135
▁against	-136
▁before	-137
▁company	-138
o	-139
▁Trump	-140
▁how	-141
▁because	-142
▁any	-143
▁most	-144
▁being	-145
▁make	-146
▁where	-147
▁during	-148
▁through	-149
▁while	-150
000	-151
▁This	-152
▁million	-153
ing	-154
▁3	-155
▁made	-156
▁well	-157
▁10	-158
▁down	-159
▁off	-160
▁says	-161
▁me	-162
▁B	-163
▁going	-164
▁team	-165
▁We	-166
▁those	-167
▁government	-168
▁way	-169
We	-170
▁many	-171
▁then	-172
▁work	-173
▁told	-174
com	-175
2	-176
▁game	-177
▁And	-178
in	-179
year	-180
▁p	-181
▁very	-182
▁day	-183
▁home	-184
▁take	-185
▁week	-186
▁since	-187
▁New	-188
▁may	-189
▁even	-190
▁season	-191
▁see	-192
▁2017	-193
▁state	-194
▁5	-195
ed	-196
▁should	-197
▁around	-198
▁2018	-199
▁second	-200
▁us	-201
▁still	-202
▁much	-203
▁4	-204
▁good	-205
▁think	-206
%	-207
▁S	-208
▁these	-209
▁market	-210
▁D	-211
th	-212
▁go	-213
're	-214
▁such	-215
▁know	-216
▁including	-217
▁don	-218
y	-219
▁next	-220
▁P	-221
▁did	-222
▁under	-223
▁say	-224
en	-225
▁L	-226
▁between	-227
▁per	-228
▁K	-229
▁C	-230
▁6	-231
▁world	-232
▁part	-233
▁N	-234
▁right	-235
▁want	-236
▁four	-237
),	-238
▁high	-239
▁need	-240
re	-241
e	-242
It	-243
▁help	-244
5	-245
3	-246
▁country	-247
▁R	-248
▁police	-249
A	-250
▁long	-251
▁They	-252
▁end	-253
er	-254
▁T	-255
▁M	-256
u	-257
▁both	-258
▁here	-259
an	-260
on	-261
▁7	-262
▁de	-263
▁She	-264
▁business	-265
▁report	-266
j	-267
ers	-268
▁really	-269
▁President	-270
ar	-271
▁G	-272
▁Friday	-273
▁F	-274
▁best	-275
▁same	-276
▁another	-277
▁set	-278
old	-279
▁That	-280
as	-281
n	-282
▁come	-283
▁family	-284
▁public	-285
▁For	-286
▁As	-287
0	-288
▁H	-289
▁8	-290
▁20	-291
▁five	-292
es	-293
▁Tuesday	-294
▁n	-295
▁Thursday	-296
▁quarter	-297
h	-298
▁top	-299
▁got	-300
▁life	-301
▁Monday	-302
▁found	-303
▁use	-304
▁W	-305
4	-306
▁Wednesday	-307
▁own	-308
▁according	-309
▁play	-310
▁show	-311
▁St	-312
▁man	-313
▁left	-314
▁United	-315
▁12	-316
▁place	-317
▁If	-318
▁lot	-319
▁former	-320
▁0	-321
).	-322
▁support	-323
ie	-324
▁billion	-325
▁t	-326
▁shares	-327
!	-328
z	-329
k	-330
▁State	-331
▁points	-332
▁group	-333
▁school	-334
▁information	-335
▁2016	-336
al	-337
r	-338
▁win	-339
▁news	-340
▁used	-341
▁put	-342
▁city	-343
▁J	-344
▁There	-345
▁number	-346
C	-347
've	-348
▁each	-349
▁too	-350
▁won	-351
ly	-352
▁month	-353
is	-354
▁added	-355
▁look	-356
▁better	-357
▁every	-358
▁&	-359
▁days	-360
▁9	-361
▁took	-362
▁night	-363
▁e	-364
▁11	-365
os	-366
▁few	-367
or	-368
▁North	-369
▁You	-370
▁third	-371
▁great	-372
▁called	-373
▁On	-374
▁past	-375
▁came	-376
▁months	-377
▁Saturday	-378
▁15	-379
▁big	-380
▁E	-381
▁US	-382
▁things	-383
▁O	-384
▁d	-385
▁start	-386
B	-387
▁stock	-388
▁30	-389
▁women	-390
▁South	-391
▁May	-392
▁never	-393
▁president	-394
▁Sunday	-395
▁without	-396
man	-397
8	-398
▁didn	-399
▁local	-400
6	-401
▁something	-402
▁case	-403
▁All	-404
it	-405
7	-406
▁So	-407
▁children	-408
▁away	-409
▁little	-410
▁six	-411
▁City	-412
▁County	-413
▁data	-414
at	-415
▁already	-416
d	-417
▁money	-418
▁early	-419
▁across	-420
▁expected	-421
▁run	-422
▁later	-423
am	-424
▁price	-425
▁games	-426
▁Mr	-427
b	-428
▁might	-429
▁different	-430
▁reported	-431
▁deal	-432
▁media	-433
▁growth	-434
▁community	-435
▁China	-436
'm	-437
c	-438
▁went	-439
▁No	-440
▁able	-441
▁making	-442
▁area	-443
▁far	-444
▁statement	-445
▁House	-446
▁working	-447
M	-448
▁k	-449
▁seen	-450
▁companies	-451
▁today	-452
▁members	-453
▁until	-454
▁full	-455
▁again	-456
▁half	-457
▁share	-458
le	-459
▁always	-460
▁court	-461
l	-462
and	-463
▁change	-464
▁find	-465
9	-466
▁system	-467
▁V	-468
▁York	-469
▁American	-470
▁head	-471
▁players	-472
▁does	-473
▁health	-474
▁m	-475
▁power	-476
▁point	-477
▁hit	-478
▁.	-479
▁--	-480
▁free	-481
.,	-482
▁lead	-483
▁several	-484
▁recent	-485
▁call	-486
N	-487
▁law	-488
▁keep	-489
▁open	-490
▁News	-491
▁give	-492
ia	-493
▁March	-494
D	-495
▁National	-496
▁At	-497
▁times	-498
▁future	-499
R	-500
▁14	-501
▁June	-502
▁officials	-503
▁18	-504
▁important	-505
f	-506
▁final	-507
▁13	-508
▁One	-509
P	-510
▁following	-511
▁car	-512
▁least	-513
▁water	-514
▁event	-515
▁line	-516
▁move	-517
▁services	-518
▁having	-519
▁When	-520
▁students	-521
▁Police	-522
el	-523
▁am	-524
▁Z	-525
▁side	-526
▁story	-527
▁due	-528
▁meeting	-529
K	-530
▁must	-531
▁States	-532
▁likely	-533
G	-534
▁continue	-535
▁ago	-536
▁party	-537
▁major	-538
▁industry	-539
▁less	-540
30	-541
▁un	-542
▁hard	-543
▁service	-544
▁16	-545
▁looking	-546
▁held	-547
ve	-548
▁whether	-549
▁July	-550
▁taken	-551
▁along	-552
▁asked	-553
▁started	-554
▁become	-555
▁forward	-556
▁research	-557
▁office	-558
▁political	-559
to	-560
▁together	-561
▁getting	-562
▁plan	-563
▁25	-564
T	-565
▁among	-566
▁coming	-567
▁decision	-568
▁video	-569
▁2015	-570
g	-571
▁After	-572
▁security	-573
L	-574
▁care	-575
▁given	-576
▁available	-577
âĢĶ	-578
▁s	-579
▁West	-580
'll	-581
▁pay	-582
▁near	-583
▁saying	-584
▁announced	-585
▁program	-586
▁April	-587
▁real	-588
▁University	-589
▁With	-590
AP	-591
▁social	-592
▁close	-593
et	-594
▁current	-595
▁why	-596
F	-597
▁To	-598
▁Twitter	-599
▁though	-600
▁17	-601
▁taking	-602
▁Inc	-603
▁men	-604
w	-605
▁comes	-606
ley	-607
▁doing	-608
▁process	-609
▁John	-610
ch	-611
00	-612
▁financial	-613
▁low	-614
▁enough	-615
▁While	-616
▁further	-617
▁post	-618
▁feel	-619
st	-620
▁person	-621
▁Facebook	-622
▁World	-623
▁within	-624
ad	-625
▁done	-626
the	-627
▁late	-628
▁tax	-629
▁doesn	-630
▁thing	-631
▁national	-632
▁job	-633
▁using	-634
▁However	-635
ic	-636
▁campaign	-637
▁record	-638
▁behind	-639
://	-640
▁Department	-641
p	-642
▁others	-643
▁January	-644
▁order	-645
▁[	-646
▁sales	-647
▁yet	-648
Ä	-649
▁small	-650
▁series	-651
▁face	-652
▁What	-653
▁50	-654
▁ever	-655
▁earlier	-656
▁love	-657
up	-658
▁rights	-659
▁An	-660
ist	-661
▁morning	-662
▁Washington	-663
▁young	-664
▁latest	-665
▁India	-666
▁trying	-667
▁fire	-668
▁led	-669
▁strong	-670
▁return	-671
▁level	-672
O	-673
▁average	-674
▁period	-675
▁experience	-676
ak	-677
▁possible	-678
▁believe	-679
▁include	-680
▁oil	-681
▁recently	-682
▁once	-683
▁known	-684
▁lost	-685
▁sure	-686
us	-687
▁weeks	-688
▁food	-689
▁reports	-690
▁rating	-691
▁Minister	-692
▁woman	-693
▁provide	-694
▁project	-695
▁issue	-696
▁live	-697
10	-698
▁clear	-699
he	-700
▁cost	-701
▁played	-702
▁released	-703
▁coach	-704
v	-705
▁24	-706
▁seven	-707
▁plans	-708
▁development	-709
ur	-710
ĺ	-711
▁increase	-712
This	-713
▁policy	-714
▁cent	-715
▁based	-716
E	-717
il	-718
▁December	-719
▁global	-720
▁trade	-721
▁hours	-722
▁higher	-723
▁goal	-724
H	-725
▁Al	-726
▁100	-727
▁minutes	-728
▁election	-729
▁America	-730
▁rate	-731
▁Ch	-732
▁21	-733
...	-734
▁White	-735
▁director	-736
▁position	-737
▁shot	-738
▁large	-739
▁c	-740
▁b	-741
]	-742
▁issues	-743
▁death	-744
▁building	-745
▁total	-746
▁often	-747
▁v	-748
▁countries	-749
▁history	-750
▁outside	-751
▁federal	-752
▁19	-753
▁fact	-754
▁High	-755
▁career	-756
im	-757
▁international	-758
▁November	-759
▁front	-760
▁kind	-761
▁key	-762
ra	-763
▁San	-764
▁short	-765
▁name	-766
▁According	-767
▁course	-768
▁re	-769
▁wanted	-770
W	-771
▁September	-772
▁interest	-773
▁role	-774
▁results	-775
▁economic	-776
▁2014	-777
▁chance	-778
▁October	-779
▁special	-780
▁official	-781
▁needs	-782
um	-783
▁l	-784
▁products	-785
▁non	-786
▁@	-787
▁Bank	-788
▁ahead	-789
▁house	-790
U	-791
▁board	-792
▁old	-793
▁saw	-794
▁lower	-795
▁European	-796
▁control	-797
▁Russia	-798
▁eight	-799
▁release	-800
▁potential	-801
▁thought	-802
▁investigation	-803
▁online	-804
based	-805
▁technology	-806
▁Donald	-807
id	-808
▁body	-809
▁risk	-810
ian	-811
▁capital	-812
▁staff	-813
▁action	-814
▁League	-815
▁playing	-816
▁makes	-817
▁almost	-818
▁performance	-819
▁22	-820
▁g	-821
▁film	-822
▁nearly	-823
▁Center	-824
▁visit	-825
▁Group	-826
▁bank	-827
▁bit	-828
▁received	-829
▁August	-830
▁military	-831
▁His	-832
ine	-833
▁chief	-834
▁School	-835
▁bring	-836
▁Court	-837
▁(@	-838
▁means	-839
▁Sh	-840
▁fans	-841
▁se	-842
▁40	-843
20	-844
".	-845
V	-846
▁cut	-847
▁killed	-848
▁#	-849
▁prices	-850
▁gave	-851
▁Street	-852
ir	-853
▁Y	-854
▁currently	-855
▁f	-856
ay	-857
ne	-858
te	-859
▁try	-860
▁Park	-861
ĥ	-862
J	-863
▁question	-864
▁hand	-865
▁economy	-866
▁investors	-867
able	-868
▁player	-869
▁By	-870
▁David	-871
▁loss	-872
ab	-873
▁below	-874
▁wrote	-875
co	-876
ate	-877
▁running	-878
un	-879
▁began	-880
▁single	-881
▁field	-882
▁23	-883
▁leader	-884
▁w	-885
▁California	-886
▁fourth	-887
▁actually	-888
▁list	-889
ll	-890
▁couple	-891
▁study	-892
▁teams	-893
He	-894
ah	-895
▁Canada	-896
▁la	-897
▁result	-898
▁access	-899
▁vote	-900
▁More	-901
▁February	-902
▁revenue	-903
▁offer	-904
▁let	-905
ier	-906
▁buy	-907
▁attack	-908
▁black	-909
▁r	-910
▁areas	-911
▁stop	-912
▁impact	-913
▁match	-914
▁investment	-915
▁customers	-916
▁leaders	-917
ies	-918
▁member	-919
▁child	-920
▁road	-921
ul	-922
▁value	-923
▁shows	-924
▁Dr	-925
▁De	-926
ant	-927
▁London	-928
▁room	-929
▁music	-930
▁production	-931
▁anything	-932
▁firm	-933
▁biggest	-934
▁air	-935
▁problem	-936
▁general	-937
▁wasn	-938
▁i	-939
▁private	-940
▁especially	-941
▁administration	-942
▁additional	-943
▁Co	-944
▁opportunity	-945
▁hold	-946
&	-947
▁matter	-948
▁senior	-949
▁club	-950
▁someone	-951
▁Ã	-952
▁East	-953
▁2019	-954
.'	-955
▁needed	-956
▁James	-957
time	-958
▁however	-959
▁everything	-960
▁everyone	-961
▁died	-962
▁involved	-963
▁friends	-964
▁isn	-965
▁worth	-966
ik	-967
▁Cup	-968
▁showed	-969
There	-970
▁28	-971
▁meet	-972
▁26	-973
▁27	-974
Y	-975
▁region	-976
▁Press	-977
▁Now	-978
▁son	-979
▁space	-980
▁leading	-981
▁states	-982
▁weekend	-983
▁Â£	-984
▁mother	-985
▁previous	-986
▁UK	-987
▁Michael	-988
▁leave	-989
est	-990
em	-991
▁z	-992
▁Some	-993
ors	-994
out	-995
15	-996
▁war	-997
▁website	-998
▁star	-999
X	-1000
ro	-1001
▁target	-1002
▁himself	-1003
▁turn	-1004
▁Europe	-1005
▁worked	-1006
▁energy	-1007
▁scored	-1008
▁*	-1009
▁soon	-1010
▁ball	-1011
▁TV	-1012
▁annual	-1013
▁2013	-1014
▁race	-1015
▁International	-1016
'd	-1017
▁Market	-1018
▁conference	-1019
io	-1020
▁o	-1021
▁changes	-1022
ig	-1023
▁officers	-1024
▁inside	-1025
▁form	-1026
▁published	-1027
▁phone	-1028
▁co	-1029
▁legal	-1030
▁executive	-1031
▁fight	-1032
ings	-1033
▁hope	-1034
▁summer	-1035
▁officer	-1036
▁football	-1037
▁property	-1038
@	-1039
▁book	-1040
▁parents	-1041
▁costs	-1042
ac	-1043
▁manager	-1044
▁create	-1045
▁age	-1046
▁email	-1047
▁markets	-1048
▁main	-1049
▁human	-1050
▁sent	-1051
▁management	-1052
▁Day	-1053
ton	-1054
▁cash	-1055
▁focus	-1056
▁expect	-1057
▁training	-1058
▁became	-1059
▁whose	-1060
▁events	-1061
▁round	-1062
▁Le	-1063
▁fell	-1064
▁above	-1065
▁analysts	-1066
▁talk	-1067
▁situation	-1068
ri	-1069
ated	-1070
ke	-1071
▁wants	-1072
ag	-1073
▁lives	-1074
om	-1075
▁al	-1076
▁demand	-1077
▁safety	-1078
▁rest	-1079
▁Council	-1080
▁personal	-1081
▁site	-1082
▁Russian	-1083
▁mid	-1084
▁nothing	-1085
▁whole	-1086
▁bill	-1087
▁sold	-1088
▁British	-1089
se	-1090
▁remain	-1091
12	-1092
▁foreign	-1093
▁shooting	-1094
▁stay	-1095
50	-1096
ang	-1097
▁hospital	-1098
▁bad	-1099
▁address	-1100
▁Korea	-1101
▁happened	-1102
▁charges	-1103
▁white	-1104
▁31	-1105
If	-1106
▁earnings	-1107
▁break	-1108
▁light	-1109
▁terms	-1110
▁Chinese	-1111
▁Senate	-1112
ana	-1113
▁idea	-1114
ap	-1115
of	-1116
▁nine	-1117
▁compared	-1118
▁build	-1119
ard	-1120
In	-1121
▁similar	-1122
▁gas	-1123
▁victory	-1124
▁2012	-1125
▁debt	-1126
▁Mar	-1127
▁arrested	-1128
▁comment	-1129
▁increased	-1130
▁medical	-1131
▁29	-1132
▁Jan	-1133
▁groups	-1134
▁despite	-1135
▁fall	-1136
▁tell	-1137
▁workers	-1138
▁town	-1139
Ã©	-1140
▁wife	-1141
▁questions	-1142
▁continued	-1143
▁heart	-1144
▁met	-1145
▁brought	-1146
▁helped	-1147
▁Congress	-1148
▁step	-1149
▁father	-1150
▁moment	-1151
▁product	-1152
▁probably	-1153
▁largest	-1154
▁vehicle	-1155
▁England	-1156
▁allow	-1157
▁starting	-1158
▁kids	-1159
▁incident	-1160
▁net	-1161
▁rates	-1162
▁Read	-1163
▁pressure	-1164
▁included	-1165
▁read	-1166
▁issued	-1167
ol	-1168
▁either	-1169
▁efforts	-1170
▁includes	-1171
▁Republican	-1172
ish	-1173
âĢ¦	-1174
▁goals	-1175
aj	-1176
▁en	-1177
x	-1178
▁raised	-1179
au	-1180
▁longer	-1181
ut	-1182
▁watch	-1183
▁Texas	-1184
You	-1185
▁range	-1186
nd	-1187
▁funds	-1188
▁remains	-1189
▁Mark	-1190
▁60	-1191
▁que	-1192
sh	-1193
▁interview	-1194
▁rather	-1195
▁residents	-1196
▁growing	-1197
▁pre	-1198
▁paid	-1199
▁cases	-1200
▁Reuters	-1201
▁difficult	-1202
▁sign	-1203
▁Google	-1204
▁https	-1205
▁Paul	-1206
▁living	-1207
day	-1208
▁Q	-1209
iz	-1210
▁Red	-1211
▁land	-1212
They	-1213
▁Road	-1214
_	-1215
▁These	-1216
▁view	-1217
▁agency	-1218
▁reason	-1219
▁allowed	-1220
▁Australia	-1221
az	-1222
▁Re	-1223
▁turned	-1224
11	-1225
▁nation	-1226
▁ready	-1227
▁press	-1228
▁budget	-1229
▁daily	-1230
▁Chief	-1231
▁families	-1232
▁significant	-1233
▁First	-1234
▁themselves	-1235
▁j	-1236
▁runs	-1237
▁accused	-1238
▁takes	-1239
▁spent	-1240
▁via	-1241
ot	-1242
ina	-1243
25	-1244
land	-1245
▁example	-1246
▁authorities	-1247
▁date	-1248
▁ended	-1249
all	-1250
Reuters	-1251
▁businesses	-1252
ans	-1253
▁details	-1254
▁ground	-1255
▁pretty	-1256
▁Apple	-1257
ation	-1258
▁Smith	-1259
▁Company	-1260
▁Florida	-1261
▁drug	-1262
▁response	-1263
one	-1264
▁education	-1265
▁mean	-1266
▁league	-1267
▁anyone	-1268
▁minister	-1269
▁title	-1270
▁adding	-1271
▁problems	-1272
▁opening	-1273
▁conditions	-1274
▁red	-1275
▁decided	-1276
Å	-1277
▁posted	-1278
term	-1279
▁amount	-1280
▁EU	-1281
▁success	-1282
▁evidence	-1283
▁Obama	-1284
▁addition	-1285
▁provided	-1286
▁Los	-1287
▁agreement	-1288
▁stage	-1289
ens	-1290
▁relationship	-1291
▁General	-1292
▁sector	-1293
▁student	-1294
ating	-1295
▁test	-1296
",	-1297
▁winning	-1298
▁felt	-1299
▁source	-1300
Z	-1301
▁seems	-1302
▁cause	-1303
▁schools	-1304
▁drive	-1305
▁ensure	-1306
▁huge	-1307
▁My	-1308
▁Health	-1309
▁scene	-1310
▁giving	-1311
▁center	-1312
▁positive	-1313
▁yards	-1314
▁jobs	-1315
▁account	-1316
▁heard	-1317
▁quality	-1318
▁ways	-1319
▁immediately	-1320
▁employees	-1321
are	-1322
▁pass	-1323
▁CEO	-1324
▁receive	-1325
▁looks	-1326
▁Africa	-1327
▁throughout	-1328
led	-1329
▁related	-1330
▁sell	-1331
▁Union	-1332
▁Photo	-1333
ter	-1334
▁quickly	-1335
▁How	-1336
▁various	-1337
▁reach	-1338
▁pick	-1339
▁charged	-1340
▁quite	-1341
ent	-1342
q	-1343
ins	-1344
▁photo	-1345
▁understand	-1346
▁âĢ¢	-1347
▁reached	-1348
▁track	-1349
uk	-1350
▁effort	-1351
ville	-1352
▁central	-1353
▁daughter	-1354
▁contract	-1355
▁injury	-1356
▁opened	-1357
▁($	-1358
▁straight	-1359
17	-1360
▁credit	-1361
▁Indian	-1362
▁sexual	-1363
▁works	-1364
▁easy	-1365
18	-1366
▁closed	-1367
▁h	-1368
▁happen	-1369
▁force	-1370
ler	-1371
▁happy	-1372
▁shared	-1373
▁overall	-1374
▁moving	-1375
á	-1376
▁projects	-1377
▁Black	-1378
▁concerns	-1379
▁class	-1380
▁tried	-1381
▁appeared	-1382
▁content	-1383
▁District	-1384
▁term	-1385
▁instead	-1386
▁Office	-1387
▁continues	-1388
▁levels	-1389
▁afternoon	-1390
▁fund	-1391
▁sale	-1392
▁driver	-1393
▁ask	-1394
▁cannot	-1395
ner	-1396
end	-1397
▁Here	-1398
field	-1399
▁store	-1400
www	-1401
▁certain	-1402
▁self	-1403
▁dollar	-1404
▁Her	-1405
▁popular	-1406
▁follow	-1407
▁spending	-1408
by	-1409
▁moved	-1410
▁goes	-1411
▁created	-1412
▁stand	-1413
▁operations	-1414
▁looked	-1415
▁treatment	-1416
ov	-1417
▁district	-1418
▁signed	-1419
▁hands	-1420
▁model	-1421
▁Angeles	-1422
▁y	-1423
▁border	-1424
▁income	-1425
▁Last	-1426
▁charge	-1427
▁driving	-1428
▁Japan	-1429
▁rise	-1430
▁talks	-1431
▁followed	-1432
▁previously	-1433
▁users	-1434
▁funding	-1435
▁Johnson	-1436
▁	-1437
ou	-1438
ai	-1439
▁named	-1440
▁friend	-1441
▁Nov	-1442
▁defense	-1443
▁Britain	-1444
▁entire	-1445
▁trading	-1446
▁failed	-1447
▁El	-1448
▁claims	-1449
▁comments	-1450
▁beat	-1451
ib	-1452
▁basis	-1453
▁Jones	-1454
▁present	-1455
▁Be	-1456
▁double	-1457
▁rose	-1458
ite	-1459
▁ability	-1460
▁original	-1461
▁dead	-1462
▁Commission	-1463
▁Me	-1464
▁competition	-1465
▁2011	-1466
▁knew	-1467
▁material	-1468
av	-1469
▁France	-1470
▁score	-1471
▁sense	-1472
▁serious	-1473
▁confirmed	-1474
▁anti	-1475
▁violence	-1476
▁improve	-1477
son	-1478
Ã³	-1479
▁AP	-1480
▁sh	-1481
▁host	-1482
▁Mike	-1483
▁patients	-1484
▁NFL	-1485
▁crisis	-1486
▁revealed	-1487
ach	-1488
▁Prime	-1489
▁built	-1490
▁Not	-1491
▁rules	-1492
▁else	-1493
▁department	-1494
▁itself	-1495
ise	-1496
500	-1497
▁complete	-1498
ion	-1499
▁trial	-1500
▁Bay	-1501
▁Dec	-1502
▁attention	-1503
▁travel	-1504
▁Central	-1505
ry	-1506
▁agreed	-1507
▁mind	-1508
▁Mc	-1509
▁70	-1510
▁contact	-1511
ari	-1512
▁Times	-1513
▁spot	-1514
▁French	-1515
▁gets	-1516
op	-1517
▁brand	-1518
▁calls	-1519
▁banks	-1520
▁design	-1521
▁safe	-1522
▁offers	-1523
▁practice	-1524
▁Of	-1525
Ã¡	-1526
ling	-1527
▁true	-1528
off	-1529
▁numbers	-1530
▁fun	-1531
▁learn	-1532
▁multiple	-1533
▁Is	-1534
res	-1535
als	-1536
▁common	-1537
ized	-1538
▁challenge	-1539
▁committee	-1540
▁Our	-1541
▁base	-1542
ani	-1543
▁Association	-1544
ung	-1545
▁network	-1546
▁Brown	-1547
▁approach	-1548
16	-1549
▁finished	-1550
▁review	-1551
▁required	-1552
▁app	-1553
▁Man	-1554
▁âĢ¦	-1555
twitter	-1556
▁Democratic	-1557
13	-1558
▁evening	-1559
▁Tom	-1560
Ã¤	-1561
▁Associated	-1562
▁Canadian	-1563
▁college	-1564
▁spokesman	-1565
▁article	-1566
▁towards	-1567
▁Chicago	-1568
▁movie	-1569
14	-1570
ity	-1571
▁forces	-1572
▁Chris	-1573
▁Democrats	-1574
▁features	-1575
▁hearing	-1576
▁X	-1577
▁Also	-1578
▁message	-1579
age	-1580
▁noted	-1581
▁Super	-1582
▁thousands	-1583
aw	-1584
▁Bill	-1585
▁Ar	-1586
▁La	-1587
ip	-1588
▁/	-1589
▁During	-1590
▁note	-1591
.)	-1592
▁wrong	-1593
if	-1594
▁passed	-1595
▁Two	-1596
▁die	-1597
,'	-1598
▁Don	-1599
▁Germany	-1600
▁letter	-1601
▁described	-1602
▁Iran	-1603
▁Williams	-1604
▁particularly	-1605
▁add	-1606
▁conversation	-1607
▁Se	-1608
▁highest	-1609
be	-1610
▁homes	-1611
▁sports	-1612
▁gone	-1613
▁Ad	-1614
▁el	-1615
▁opportunities	-1616
▁words	-1617
▁leaving	-1618
▁Christmas	-1619
As	-1620
▁Government	-1621
▁simply	-1622
▁husband	-1623
▁Research	-1624
▁Mexico	-1625
ates	-1626
ale	-1627
▁Green	-1628
$	-1629
od	-1630
▁Hall	-1631
▁natural	-1632
▁operating	-1633
les	-1634
ations	-1635
▁Kim	-1636
▁gold	-1637
ok	-1638
▁provides	-1639
(	-1640
ell	-1641
▁begin	-1642
▁Party	-1643
back	-1644
▁Amazon	-1645
19	-1646
▁majority	-1647
▁Even	-1648
▁check	-1649
▁weather	-1650
▁organization	-1651
▁stories	-1652
▁Car	-1653
▁forced	-1654
▁George	-1655
▁walk	-1656
ong	-1657
▁filed	-1658
▁Justice	-1659
▁launched	-1660
▁offered	-1661
▁www	-1662
▁construction	-1663
▁Ben	-1664
▁served	-1665
▁...	-1666
▁parts	-1667
▁cancer	-1668
▁guys	-1669
Reporting	-1670
ash	-1671
less	-1672
▁leadership	-1673
▁Committee	-1674
▁regular	-1675
▁council	-1676
▁cars	-1677
▁Director	-1678
▁judge	-1679
▁victims	-1680
▁Daily	-1681
▁kept	-1682
▁effect	-1683
▁beyond	-1684
pm	-1685
▁talking	-1686
▁considered	-1687
ore	-1688
▁Advertisement	-1689
▁st	-1690
ED	-1691
▁middle	-1692
▁raise	-1693
we	-1694
▁claimed	-1695
ino	-1696
▁alleged	-1697
▁Pro	-1698
▁Scott	-1699
▁Oct	-1700
▁consider	-1701
▁Share	-1702
▁traffic	-1703
▁African	-1704
▁couldn	-1705
▁toward	-1706
▁search	-1707
But	-1708
▁launch	-1709
▁injured	-1710
That	-1711
▁although	-1712
▁activities	-1713
▁changed	-1714
▁sources	-1715
▁missing	-1716
▁u	-1717
▁35	-1718
▁cover	-1719
ised	-1720
▁|	-1721
ow	-1722
ES	-1723
▁decades	-1724
ich	-1725
▁caused	-1726
▁elections	-1727
ane	-1728
IS	-1729
▁feet	-1730
▁Bar	-1731
▁version	-1732
▁grow	-1733
▁vehicles	-1734
▁options	-1735
▁individual	-1736
▁environment	-1737
▁Robert	-1738
▁Valley	-1739
▁From	-1740
per	-1741
ara	-1742
▁systems	-1743
▁protect	-1744
▁King	-1745
▁injuries	-1746
▁finally	-1747
▁nuclear	-1748
40	-1749
▁ratio	-1750
▁gun	-1751
▁Pakistan	-1752
▁Management	-1753
▁Air	-1754
ce	-1755
▁opposition	-1756
ment	-1757
ick	-1758
▁pro	-1759
▁act	-1760
▁platform	-1761
▁lack	-1762
▁pair	-1763
▁500	-1764
▁calling	-1765
ary	-1766
▁programs	-1767
▁scheduled	-1768
▁fast	-1769
▁joined	-1770
▁War	-1771
▁Editing	-1772
▁Since	-1773
▁Ryan	-1774
▁Mac	-1775
▁Big	-1776
▁Lake	-1777
▁digital	-1778
When	-1779
ue	-1780
▁assets	-1781
▁seeing	-1782
▁Act	-1783
▁partner	-1784
▁Board	-1785
▁beginning	-1786
▁supply	-1787
▁miles	-1788
▁prison	-1789
ons	-1790
▁Americans	-1791
ub	-1792
▁Or	-1793
me	-1794
▁benefits	-1795
▁benefit	-1796
▁measures	-1797
▁hear	-1798
▁parties	-1799
▁successful	-1800
▁Just	-1801
▁victim	-1802
▁block	-1803
▁limited	-1804
▁trip	-1805
▁People	-1806
▁serve	-1807
▁art	-1808
ism	-1809
▁wide	-1810
▁Sch	-1811
▁80	-1812
▁Thomas	-1813
▁90	-1814
▁stocks	-1815
▁girl	-1816
▁Asia	-1817
▁seeking	-1818
▁certainly	-1819
▁Services	-1820
▁College	-1821
▁communities	-1822
▁extra	-1823
▁2010	-1824
ness	-1825
▁holding	-1826
ous	-1827
▁tough	-1828
ade	-1829
▁mobile	-1830
▁owns	-1831
▁Do	-1832
▁Fire	-1833
▁spoke	-1834
▁returned	-1835
▁size	-1836
▁criminal	-1837
▁Instagram	-1838
▁offering	-1839
▁God	-1840
▁Service	-1841
▁page	-1842
her	-1843
▁deep	-1844
wood	-1845
▁crime	-1846
▁Sports	-1847
ile	-1848
▁Global	-1849
▁proposed	-1850
ain	-1851
▁session	-1852
▁Federal	-1853
▁Syria	-1854
▁ch	-1855
▁threat	-1856
▁allegations	-1857
▁Republicans	-1858
▁German	-1859
▁strategy	-1860
▁commercial	-1861
ING	-1862
▁Secretary	-1863
Q	-1864
▁reporters	-1865
100	-1866
▁Capital	-1867
▁Both	-1868
▁Post	-1869
▁Israel	-1870
▁save	-1871
ts	-1872
ill	-1873
▁drop	-1874
▁reserved	-1875
▁Many	-1876
▁avoid	-1877
▁200	-1878
iv	-1879
▁damage	-1880
▁condition	-1881
▁dropped	-1882
▁door	-1883
▁planning	-1884
ire	-1885
▁card	-1886
▁designed	-1887
▁reduce	-1888
AN	-1889
▁Un	-1890
ford	-1891
▁Then	-1892
▁pic	-1893
▁Copyright	-1894
▁rain	-1895
▁Martin	-1896
▁domestic	-1897
45	-1898
ge	-1899
▁murder	-1900
▁speech	-1901
line	-1902
▁helping	-1903
▁planned	-1904
▁feature	-1905
ud	-1906
▁type	-1907
ham	-1908
▁Public	-1909
ja	-1910
▁insurance	-1911
▁attacks	-1912
▁Corp	-1913
▁forecast	-1914
▁resources	-1915
ma	-1916
?"	-1917
▁Am	-1918
▁Sept	-1919
▁push	-1920
▁attorney	-1921
23	-1922
▁emergency	-1923
▁winner	-1924
▁blood	-1925
▁north	-1926
▁Feb	-1927
▁baby	-1928
▁floor	-1929
▁spend	-1930
▁ex	-1931
▁dollars	-1932
▁unit	-1933
▁Hill	-1934
▁der	-1935
▁About	-1936
▁alone	-1937
ization	-1938
▁presidential	-1939
▁activity	-1940
▁THE	-1941
ee	-1942
ber	-1943
▁Other	-1944
▁owner	-1945
▁hour	-1946
▁cities	-1947
▁answer	-1948
ide	-1949
▁fully	-1950
ek	-1951
ists	-1952
▁coverage	-1953
▁vs	-1954
▁figure	-1955
▁population	-1956
org	-1957
▁snow	-1958
▁becoming	-1959
▁Sam	-1960
▁Carolina	-1961
▁join	-1962
▁profit	-1963
▁items	-1964
▁index	-1965
▁analysis	-1966
▁tournament	-1967
▁stake	-1968
▁perfect	-1969
way	-1970
▁band	-1971
▁girls	-1972
▁option	-1973
▁plays	-1974
oc	-1975
▁providing	-1976
ÃŃ	-1977
24	-1978
▁wouldn	-1979
▁ones	-1980
▁declined	-1981
▁written	-1982
▁voters	-1983
▁candidate	-1984
▁suspect	-1985
▁policies	-1986
▁peace	-1987
ast	-1988
▁particular	-1989
for	-1990
▁hopes	-1991
▁station	-1992
▁Most	-1993
▁speak	-1994
▁River	-1995
▁asking	-1996
▁statements	-1997
▁fifth	-1998
ha	-1999
▁Nigeria	-2000
af	-2001
▁explained	-2002
▁bar	-2003
▁housing	-2004
▁Santa	-2005
▁identified	-2006
▁simple	-2007
▁critical	-2008
▁Club	-2009
▁Security	-2010
▁Like	-2011
▁starts	-2012
art	-2013
▁street	-2014
▁reality	-2015
▁heavy	-2016
▁progress	-2017
▁showing	-2018
▁challenges	-2019
▁ban	-2020
▁committed	-2021
35	-2022
»	-2023
▁directly	-2024
▁aren	-2025
▁claim	-2026
▁Western	-2027
ind	-2028
▁gives	-2029
▁Saudi	-2030
▁choice	-2031
▁Th	-2032
▁approved	-2033
▁located	-2034
▁arrived	-2035
22	-2036
▁caught	-2037
▁professional	-2038
▁missed	-2039
▁culture	-2040
▁Year	-2041
▁Ohio	-2042
▁Ltd	-2043
▁Another	-2044
▁seem	-2045
▁believes	-2046
▁believed	-2047
▁character	-2048
▁Aug	-2049
red	-2050
▁fine	-2051
▁prior	-2052
▁thinking	-2053
▁http	-2054
▁+	-2055
▁zone	-2056
▁putting	-2057
▁crash	-2058
▁Australian	-2059
▁Ab	-2060
▁focused	-2061
▁REUTERS	-2062
▁Fox	-2063
▁Sp	-2064
▁traditional	-2065
▁analyst	-2066
▁wait	-2067
IT	-2068
▁request	-2069
ru	-2070
ians	-2071
ize	-2072
▁finish	-2073
▁laws	-2074
▁ran	-2075
ER	-2076
▁south	-2077
▁speed	-2078
▁movement	-2079
▁assault	-2080
▁exchange	-2081
▁appear	-2082
▁Sun	-2083
▁le	-2084
▁maybe	-2085
▁losing	-2086
▁subject	-2087
ive	-2088
mer	-2089
▁Business	-2090
▁Bl	-2091
▁appears	-2092
▁advantage	-2093
▁Lee	-2094
ada	-2095
▁Under	-2096
▁prevent	-2097
▁respect	-2098
▁sex	-2099
▁centre	-2100
▁Joe	-2101
ado	-2102
▁table	-2103
▁equipment	-2104
▁fair	-2105
▁tour	-2106
▁32	-2107
▁Financial	-2108
▁county	-2109
▁devices	-2110
▁customer	-2111
▁infrastructure	-2112
▁expectations	-2113
▁facing	-2114
▁upon	-2115
▁cross	-2116
▁Open	-2117
AL	-2118
▁quick	-2119
▁attempt	-2120
▁completed	-2121
▁facility	-2122
▁confidence	-2123
▁Supreme	-2124
▁piece	-2125
our	-2126
▁places	-2127
▁sometimes	-2128
▁poor	-2129
▁storm	-2130
▁hot	-2131
▁affected	-2132
na	-2133
▁abuse	-2134
▁Ms	-2135
▁word	-2136
over	-2137
▁brother	-2138
▁necessary	-2139
▁eventually	-2140
▁Star	-2141
▁send	-2142
▁boy	-2143
▁Rs	-2144
▁remember	-2145
21	-2146
▁climate	-2147
▁capacity	-2148
▁responsible	-2149
▁Matt	-2150
month	-2151
▁suffered	-2152
%.	-2153
og	-2154
▁Peter	-2155
▁,	-2156
▁feeling	-2157
ze	-2158
▁buying	-2159
oy	-2160
ij	-2161
▁bought	-2162
▁actions	-2163
▁owned	-2164
▁___	-2165
▁physical	-2166
▁specific	-2167
▁battle	-2168
▁Energy	-2169
▁picture	-2170
▁active	-2171
▁individuals	-2172
▁guy	-2173
▁regional	-2174
▁bond	-2175
ows	-2176
▁Toronto	-2177
▁rule	-2178
▁develop	-2179
▁crowd	-2180
▁guilty	-2181
▁female	-2182
▁selling	-2183
▁Follow	-2184
▁myself	-2185
ata	-2186
▁device	-2187
▁reasons	-2188
▁records	-2189
▁fighting	-2190
ON	-2191
ities	-2192
▁Home	-2193
▁status	-2194
▁plant	-2195
▁drugs	-2196
▁Church	-2197
▁completely	-2198
▁disease	-2199
▁highly	-2200
▁Paris	-2201
▁decade	-2202
▁owners	-2203
▁wall	-2204
▁camp	-2205
▁Steve	-2206
▁reporting	-2207
▁earned	-2208
▁Images	-2209
▁existing	-2210
▁Sen	-2211
▁concern	-2212
▁hundreds	-2213
▁song	-2214
▁knows	-2215
▁unique	-2216
▁lose	-2217
▁Kh	-2218
▁approximately	-2219
▁haven	-2220
▁park	-2221
▁independent	-2222
▁Although	-2223
▁Andrew	-2224
▁paper	-2225
▁developed	-2226
▁rising	-2227
▁direct	-2228
▁purchase	-2229
▁exactly	-2230
▁q	-2231
▁massive	-2232
▁box	-2233
▁champion	-2234
▁Clinton	-2235
▁voice	-2236
▁arrest	-2237
▁Korean	-2238
▁learning	-2239
▁Virginia	-2240
▁sa	-2241
▁par	-2242
▁chairman	-2243
▁agencies	-2244
▁healthy	-2245
▁Those	-2246
▁powerful	-2247
▁45	-2248
▁difference	-2249
▁Jackson	-2250
▁enforcement	-2251
▁dividend	-2252
qu	-2253
▁enjoy	-2254
▁ruling	-2255
▁ongoing	-2256
▁software	-2257
ks	-2258
▁location	-2259
▁mostly	-2260
▁candidates	-2261
men	-2262
▁broke	-2263
What	-2264
▁Br	-2265
▁2008	-2266
▁consumer	-2267
▁discuss	-2268
▁di	-2269
▁primary	-2270
▁En	-2271
▁green	-2272
▁concerned	-2273
▁image	-2274
▁Premier	-2275
▁Meanwhile	-2276
▁fired	-2277
▁Boston	-2278
ann	-2279
▁camera	-2280
▁traded	-2281
▁hasn	-2282
▁excited	-2283
▁increasing	-2284
▁Despite	-2285
▁citizens	-2286
▁euro	-2287
▁reportedly	-2288
▁minute	-2289
▁Will	-2290
▁LLC	-2291
▁sp	-2292
▁Michigan	-2293
▁stopped	-2294
▁eye	-2295
▁denied	-2296
▁modern	-2297
▁Wall	-2298
▁definitely	-2299
point	-2300
▁lines	-2301
▁politics	-2302
▁hotel	-2303
▁retail	-2304
▁stated	-2305
▁Over	-2306
▁grew	-2307
▁broadcast	-2308
▁legislation	-2309
▁fresh	-2310
▁bid	-2311
▁managed	-2312
▁society	-2313
▁scoring	-2314
▁Get	-2315
▁intelligence	-2316
▁holiday	-2317
▁governor	-2318
▁estimated	-2319
▁experts	-2320
▁Jeff	-2321
▁struck	-2322
▁hits	-2323
▁carry	-2324
▁placed	-2325
▁stores	-2326
▁expressed	-2327
▁valued	-2328
▁ad	-2329
▁twice	-2330
ala	-2331
▁display	-2332
▁usually	-2333
▁responded	-2334
▁dog	-2335
AS	-2336
▁Fed	-2337
▁2009	-2338
▁documents	-2339
▁normal	-2340
▁train	-2341
▁fl	-2342
▁shown	-2343
▁Ed	-2344
▁sort	-2345
▁allegedly	-2346
▁shots	-2347
ka	-2348
▁accounts	-2349
▁yesterday	-2350
▁creating	-2351
▁church	-2352
▁bus	-2353
▁award	-2354
▁equity	-2355
▁photos	-2356
▁33	-2357
▁fiscal	-2358
je	-2359
▁consumers	-2360
▁Manchester	-2361
no	-2362
▁Kevin	-2363
▁gain	-2364
▁corporate	-2365
▁civil	-2366
▁Middle	-2367
ally	-2368
▁sound	-2369
▁English	-2370
IC	-2371
▁winds	-2372
▁worst	-2373
▁Grand	-2374
▁effective	-2375
▁Island	-2376
▁drivers	-2377
▁fan	-2378
pe	-2379
▁sides	-2380
▁Go	-2381
▁clean	-2382
âĢĵ	-2383
▁television	-2384
▁Jr	-2385
▁allows	-2386
My	-2387
▁greater	-2388
ance	-2389
▁decisions	-2390
▁restaurant	-2391
▁Hospital	-2392
▁Tr	-2393
▁balance	-2394
▁mph	-2395
▁keeping	-2396
▁seconds	-2397
▁weapons	-2398
ert	-2399
▁pain	-2400
ass	-2401
▁steps	-2402
ger	-2403
▁Brexit	-2404
▁remaining	-2405
▁bringing	-2406
ure	-2407
▁weight	-2408
And	-2409
▁writing	-2410
Photo	-2411
▁Christian	-2412
ob	-2413
▁sport	-2414
▁figures	-2415
▁trust	-2416
▁skills	-2417
▁seat	-2418
▁faces	-2419
ck	-2420
▁born	-2421
▁super	-2422
▁fuel	-2423
▁del	-2424
▁meant	-2425
ica	-2426
▁justice	-2427
▁spring	-2428
▁killing	-2429
▁negative	-2430
▁Richard	-2431
▁und	-2432
▁factors	-2433
▁signs	-2434
▁learned	-2435
▁Game	-2436
▁audience	-2437
▁deliver	-2438
▁illegal	-2439
▁blue	-2440
▁screen	-2441
▁remained	-2442
▁announcement	-2443
IN	-2444
▁waiting	-2445
▁thanks	-2446
▁immigration	-2447
▁FBI	-2448
▁warned	-2449
▁measure	-2450
▁draw	-2451
▁positions	-2452
▁debut	-2453
▁Media	-2454
▁allowing	-2455
air	-2456
hen	-2457
▁mark	-2458
ys	-2459
▁prepared	-2460
▁Vegas	-2461
ep	-2462
ice	-2463
2018	-2464
▁defensive	-2465
60	-2466
▁Beach	-2467
▁pulled	-2468
£	-2469
▁lawyer	-2470
▁cast	-2471
▁solution	-2472
▁eyes	-2473
▁marketing	-2474
▁Foundation	-2475
▁risks	-2476
▁Today	-2477
za	-2478
▁draft	-2479
▁ice	-2480
26	-2481
▁Har	-2482
▁Executive	-2483
▁truck	-2484
ions	-2485
▁Your	-2486
▁Ireland	-2487
▁Jim	-2488
▁ha	-2489
▁fear	-2490
▁36	-2491
UR	-2492
▁Ford	-2493
▁watching	-2494
ien	-2495
▁style	-2496
▁Good	-2497
▁wearing	-2498
▁Houston	-2499
▁onto	-2500
▁boost	-2501
▁application	-2502
▁Dan	-2503
▁spread	-2504
▁Davis	-2505
▁strike	-2506
els	-2507
▁wind	-2508
▁interested	-2509
▁guard	-2510
▁mission	-2511
▁yourself	-2512
▁operation	-2513
▁larger	-2514
She	-2515
▁seasons	-2516
28	-2517
27	-2518
▁respond	-2519
ci	-2520
▁Centre	-2521
Our	-2522
▁names	-2523
▁flight	-2524
▁quarterback	-2525
▁standard	-2526
so	-2527
▁suggested	-2528
▁Mal	-2529
▁older	-2530
ini	-2531
▁perhaps	-2532
ont	-2533
▁Institute	-2534
▁millions	-2535
▁mental	-2536
ÃĤ	-2537
ga	-2538
▁clients	-2539
▁please	-2540
▁loan	-2541
▁aware	-2542
ft	-2543
int	-2544
75	-2545
05	-2546
AY	-2547
▁Out	-2548
▁hair	-2549
ied	-2550
▁seemed	-2551
ene	-2552
ty	-2553
NYSE	-2554
▁offensive	-2555
▁taxes	-2556
▁initial	-2557
ren	-2558
▁separate	-2559
la	-2560
▁Miami	-2561
AC	-2562
▁clearly	-2563
▁fit	-2564
▁Coast	-2565
▁firms	-2566
▁partners	-2567
▁upcoming	-2568
▁cold	-2569
▁proposal	-2570
AT	-2571
▁shut	-2572
▁Community	-2573
▁nature	-2574
▁Sal	-2575
▁bottom	-2576
ting	-2577
▁Click	-2578
▁nice	-2579
ets	-2580
▁hurt	-2581
itt	-2582
ama	-2583
▁carried	-2584
▁Con	-2585
rd	-2586
▁estate	-2587
▁Las	-2588
▁Law	-2589
ng	-2590
▁protection	-2591
▁produce	-2592
▁currency	-2593
▁happens	-2594
▁Per	-2595
ney	-2596
▁Long	-2597
▁fellow	-2598
▁cuts	-2599
▁reading	-2600
ano	-2601
▁proud	-2602
ost	-2603
▁UN	-2604
▁Arizona	-2605
AD	-2606
▁helps	-2607
▁winter	-2608
▁finding	-2609
▁Gold	-2610
att	-2611
▁Why	-2612
▁basketball	-2613
lin	-2614
▁Can	-2615
▁Bowl	-2616
ial	-2617
▁Alex	-2618
200	-2619
AM	-2620
▁presence	-2621
▁produced	-2622
▁developing	-2623
▁regarding	-2624
▁debate	-2625
▁vice	-2626
▁Italy	-2627
▁su	-2628
its	-2629
ator	-2630
▁34	-2631
▁complex	-2632
▁presented	-2633
▁researchers	-2634
▁slow	-2635
ya	-2636
▁sanctions	-2637
▁loved	-2638
▁seek	-2639
▁responsibility	-2640
▁admitted	-2641
▁album	-2642
▁solutions	-2643
▁facilities	-2644
ett	-2645
▁Gu	-2646
▁Well	-2647
▁lawmakers	-2648
▁miss	-2649
ful	-2650
▁Nick	-2651
'.	-2652
▁feels	-2653
▁prime	-2654
▁knowledge	-2655
▁deals	-2656
▁Taylor	-2657
▁survey	-2658
▁Francisco	-2659
▁joint	-2660
▁whom	-2661
▁sit	-2662
01	-2663
▁tr	-2664
▁organizations	-2665
▁Avenue	-2666
▁Their	-2667
▁Tim	-2668
▁rally	-2669
game	-2670
▁bigger	-2671
▁lawsuit	-2672
▁recorded	-2673
▁favorite	-2674
yard	-2675
▁transaction	-2676
▁qu	-2677
oh	-2678
▁interesting	-2679
▁inflation	-2680
ath	-2681
▁stuff	-2682
▁industrial	-2683
ico	-2684
TS	-2685
▁speaking	-2686
▁losses	-2687
ID	-2688
▁Stadium	-2689
▁stars	-2690
▁Women	-2691
▁Blue	-2692
▁wins	-2693
▁des	-2694
▁competitive	-2695
ters	-2696
▁pounds	-2697
▁direction	-2698
▁innings	-2699
▁Best	-2700
▁actor	-2701
▁dangerous	-2702
▁require	-2703
▁plus	-2704
▁solid	-2705
▁generation	-2706
▁strength	-2707
▁Mary	-2708
For	-2709
▁plenty	-2710
▁Team	-2711
▁influence	-2712
▁faced	-2713
▁es	-2714
▁Islamic	-2715
let	-2716
▁Development	-2717
▁path	-2718
▁youth	-2719
▁commitment	-2720
▁beautiful	-2721
▁Jack	-2722
ort	-2723
▁ten	-2724
▁attend	-2725
ars	-2726
Ã³n	-2727
▁views	-2728
▁euros	-2729
▁author	-2730
▁core	-2731
▁supporters	-2732
▁iPhone	-2733
▁fashion	-2734
▁smaller	-2735
▁elected	-2736
▁university	-2737
▁picked	-2738
wa	-2739
▁ordered	-2740
▁Sc	-2741
▁Å	-2742
▁largely	-2743
+	-2744
▁Attorney	-2745
▁paying	-2746
AR	-2747
▁connection	-2748
▁setting	-2749
▁na	-2750
▁Rock	-2751
▁recovery	-2752
ew	-2753
▁serving	-2754
▁surprise	-2755
▁occurred	-2756
▁division	-2757
▁telling	-2758
▁margin	-2759
▁2020	-2760
▁sister	-2761
▁NBA	-2762
▁voted	-2763
▁con	-2764
By	-2765
▁49	-2766
▁foot	-2767
Ã¼	-2768
▁Turkey	-2769
▁amazing	-2770
▁combined	-2771
▁appearance	-2772
▁easily	-2773
DAY	-2774
▁notes	-2775
▁Start	-2776
▁language	-2777
▁extremely	-2778
▁cloudy	-2779
▁Let	-2780
▁delivered	-2781
▁improved	-2782
▁collection	-2783
▁PM	-2784
▁estimates	-2785
▁boys	-2786
izing	-2787
▁text	-2788
▁closer	-2789
▁protest	-2790
▁province	-2791
▁shop	-2792
▁smart	-2793
de	-2794
▁Sheriff	-2795
EN	-2796
▁corner	-2797
▁panel	-2798
▁books	-2799
▁supported	-2800
▁mentioned	-2801
ver	-2802
▁Ministry	-2803
▁Prince	-2804
▁USA	-2805
▁receiving	-2806
▁choose	-2807
▁IN	-2808
▁Spain	-2809
▁section	-2810
▁considering	-2811
▁Cor	-2812
▁wish	-2813
▁welcome	-2814
▁Conference	-2815
ere	-2816
▁Officer	-2817
▁hoping	-2818
▁portfolio	-2819
▁standards	-2820
▁grand	-2821
▁Real	-2822
▁secure	-2823
▁Corporation	-2824
▁Rep	-2825
▁Kelly	-2826
▁streets	-2827
▁sitting	-2828
▁slightly	-2829
▁Investment	-2830
99	-2831
ond	-2832
▁units	-2833
▁votes	-2834
▁segment	-2835
▁championship	-2836
▁squad	-2837
iting	-2838
ron	-2839
®	-2840
▁em	-2841
▁touch	-2842
▁38	-2843
▁ceremony	-2844
▁decide	-2845
▁approval	-2846
So	-2847
▁Port	-2848
▁sub	-2849
▁sc	-2850
▁rep	-2851
▁Week	-2852
▁upper	-2853
▁agree	-2854
ny	-2855
▁matches	-2856
ics	-2857
▁tweeted	-2858
▁heat	-2859
▁Great	-2860
▁penalty	-2861
▁mass	-2862
▁alongside	-2863
▁herself	-2864
berg	-2865
▁science	-2866
▁entered	-2867
▁appeal	-2868
▁Pr	-2869
▁file	-2870
che	-2871
▁Report	-2872
▁Three	-2873
▁Northern	-2874
▁Jordan	-2875
▁amid	-2876
▁pace	-2877
▁jail	-2878
▁finance	-2879
▁Young	-2880
32	-2881
▁willing	-2882
▁conduct	-2883
▁Par	-2884
▁established	-2885
▁returns	-2886
▁aid	-2887
▁internet	-2888
IA	-2889
29	-2890
▁meetings	-2891
▁warning	-2892
▁Cl	-2893
▁campus	-2894
Most	-2895
▁Fund	-2896
▁William	-2897
▁Japanese	-2898
▁consensus	-2899
▁brain	-2900
!"	-2901
▁poll	-2902
▁tech	-2903
▁trend	-2904
▁potentially	-2905
▁reduced	-2906
▁Show	-2907
▁37	-2908
▁happening	-2909
▁Brazil	-2910
pl	-2911
▁Cal	-2912
▁covered	-2913
▁enter	-2914
TV	-2915
▁catch	-2916
foot	-2917
▁union	-2918
▁expansion	-2919
▁Singapore	-2920
▁Detroit	-2921
▁attended	-2922
ats	-2923
▁newspaper	-2924
▁Division	-2925
news	-2926
▁cap	-2927
▁removed	-2928
▁48	-2929
▁Royal	-2930
▁window	-2931
▁parking	-2932
▁dark	-2933
▁standing	-2934
▁update	-2935
▁agent	-2936
▁transfer	-2937
▁Army	-2938
▁uses	-2939
80	-2940
▁Te	-2941
▁introduced	-2942
▁male	-2943
▁Southern	-2944
▁ratings	-2945
▁island	-2946
▁Miller	-2947
▁teachers	-2948
▁advice	-2949
▁familiar	-2950
uf	-2951
▁sought	-2952
▁por	-2953
▁Eric	-2954
▁da	-2955
▁ideas	-2956
uh	-2957
▁sixth	-2958
▁talent	-2959
▁Image	-2960
ering	-2961
run	-2962
ments	-2963
▁conducted	-2964
300	-2965
▁urged	-2966
▁discovered	-2967
▁pl	-2968
▁understanding	-2969
▁offense	-2970
▁secretary	-2971
▁sk	-2972
▁loans	-2973
▁Gr	-2974
▁applications	-2975
▁crude	-2976
go	-2977
▁Instead	-2978
▁opinion	-2979
▁doubt	-2980
ey	-2981
▁dis	-2982
31	-2983
▁experienced	-2984
▁leg	-2985
▁Cleveland	-2986
ven	-2987
▁failure	-2988
market	-2989
ack	-2990
▁decline	-2991
▁changing	-2992
▁300	-2993
▁defence	-2994
▁Brian	-2995
▁delivery	-2996
▁married	-2997
▁declared	-2998
▁pull	-2999
▁limit	-3000
▁MORE	-3001
▁defeat	-3002
▁expand	-3003
▁Colorado	-3004
▁Rob	-3005
iss	-3006
▁worse	-3007
▁perform	-3008
ising	-3009
▁2007	-3010
▁Del	-3011
▁surgery	-3012
▁easier	-3013
▁maintain	-3014
▁Ex	-3015
▁tied	-3016
▁east	-3017
▁user	-3018
ola	-3019
▁programme	-3020
▁manufacturing	-3021
▁hitting	-3022
▁x	-3023
▁skin	-3024
▁artist	-3025
▁tells	-3026
▁nearby	-3027
▁Daniel	-3028
▁Power	-3029
▁determined	-3030
▁actual	-3031
▁treated	-3032
▁lived	-3033
▁computer	-3034
▁cool	-3035
oo	-3036
▁Pl	-3037
▁effects	-3038
▁environmental	-3039
▁Morgan	-3040
▁flow	-3041
▁achieve	-3042
▁Bell	-3043
▁testing	-3044
▁Bob	-3045
▁whatever	-3046
▁Because	-3047
US	-3048
▁Hollywood	-3049
▁conflict	-3050
▁walking	-3051
▁Judge	-3052
▁Alabama	-3053
▁aircraft	-3054
▁te	-3055
well	-3056
▁goods	-3057
▁identify	-3058
▁associated	-3059
▁Ver	-3060
▁Education	-3061
▁airport	-3062
IL	-3063
▁falling	-3064
▁giant	-3065
▁Ma	-3066
▁Medical	-3067
▁ride	-3068
▁den	-3069
º	-3070
▁Jose	-3071
▁west	-3072
▁Pacific	-3073
▁visitors	-3074
▁Watch	-3075
▁Nations	-3076
▁gains	-3077
▁schedule	-3078
34	-3079
▁Exchange	-3080
▁payments	-3081
▁II	-3082
70	-3083
No	-3084
▁Syrian	-3085
▁Adam	-3086
▁ne	-3087
▁partnership	-3088
▁bl	-3089
▁Georgia	-3090
▁sites	-3091
▁models	-3092
▁degree	-3093
▁determine	-3094
▁Wilson	-3095
▁contest	-3096
▁professor	-3097
▁Chelsea	-3098
▁meaning	-3099
▁Games	-3100
▁Trust	-3101
▁Asian	-3102
33	-3103
▁link	-3104
▁Up	-3105
▁holds	-3106
▁Top	-3107
▁Italian	-3108
ord	-3109
▁Kansas	-3110
▁farmers	-3111
▁extended	-3112
▁birth	-3113
▁reform	-3114
▁relations	-3115
▁write	-3116
▁supporting	-3117
55	-3118
ita	-3119
▁notice	-3120
ster	-3121
▁animals	-3122
▁Jersey	-3123
▁arm	-3124
▁Foreign	-3125
▁Life	-3126
▁truly	-3127
▁Once	-3128
▁Mayor	-3129
▁Free	-3130
▁Agency	-3131
▁Wood	-3132
▁passing	-3133
DA	-3134
▁52	-3135
▁moves	-3136
▁com	-3137
house	-3138
▁Its	-3139
▁marijuana	-3140
ines	-3141
▁veteran	-3142
▁variety	-3143
ki	-3144
ff	-3145
amb	-3146
▁listed	-3147
▁pushed	-3148
▁volume	-3149
▁increasingly	-3150
▁kick	-3151
▁rock	-3152
ank	-3153
▁fees	-3154
▁enable	-3155
▁images	-3156
▁truth	-3157
▁ministry	-3158
▁rare	-3159
▁Dallas	-3160
▁Minnesota	-3161
▁contributed	-3162
▁Charles	-3163
▁percentage	-3164
▁technical	-3165
▁App	-3166
▁assistant	-3167
▁interests	-3168
▁immediate	-3169
38	-3170
▁Town	-3171
▁closing	-3172
▁Anthony	-3173
▁southern	-3174
ase	-3175
▁Putin	-3176
▁Force	-3177
ba	-3178
▁refused	-3179
▁Still	-3180
ix	-3181
▁Col	-3182
▁materials	-3183
▁structure	-3184
▁driven	-3185
▁patient	-3186
▁broken	-3187
▁radio	-3188
▁scale	-3189
▁replace	-3190
▁39	-3191
▁Land	-3192
▁deputy	-3193
und	-3194
▁color	-3195
OS	-3196
▁roads	-3197
▁corruption	-3198
▁Rose	-3199
▁employee	-3200
▁Water	-3201
▁seats	-3202
▁walked	-3203
ec	-3204
▁cents	-3205
▁chain	-3206
▁payment	-3207
▁Android	-3208
eb	-3209
▁commission	-3210
▁throw	-3211
▁count	-3212
▁accident	-3213
▁expensive	-3214
ered	-3215
▁Yes	-3216
▁Louis	-3217
▁studies	-3218
▁investigating	-3219
▁century	-3220
▁discussion	-3221
▁inter	-3222
DAQ	-3223
▁Before	-3224
▁initially	-3225
*	-3226
▁investments	-3227
▁multi	-3228
▁tight	-3229
▁confident	-3230
▁counter	-3231
▁Qu	-3232
▁governments	-3233
▁armed	-3234
▁suit	-3235
▁row	-3236
▁locations	-3237
▁episode	-3238
itch	-3239
▁younger	-3240
▁festival	-3241
▁pitch	-3242
▁OF	-3243
▁talked	-3244
ca	-3245
▁protests	-3246
▁targets	-3247
90	-3248
▁originally	-3249
▁singer	-3250
▁journey	-3251
ug	-3252
▁apply	-3253
▁teacher	-3254
▁chances	-3255
):	-3256
▁deaths	-3257
isation	-3258
▁Stephen	-3259
▁code	-3260
▁Championship	-3261
▁Jason	-3262
▁AT	-3263
▁accept	-3264
▁Series	-3265
▁values	-3266
▁bed	-3267
▁Harry	-3268
▁flat	-3269
▁tools	-3270
▁publicly	-3271
37	-3272
▁pointed	-3273
▁Golden	-3274
ps	-3275
▁unable	-3276
ants	-3277
▁estimate	-3278
▁warm	-3279
▁basic	-3280
ern	-3281
▁raising	-3282
▁Related	-3283
▁ultimately	-3284
▁northern	-3285
▁plane	-3286
▁Vice	-3287
▁Raj	-3288
▁Justin	-3289
anc	-3290
▁brings	-3291
▁Art	-3292
OT	-3293
▁shift	-3294
▁BBC	-3295
▁Su	-3296
BS	-3297
▁bag	-3298
▁doctor	-3299
▁fill	-3300
▁downtown	-3301
▁possibility	-3302
▁Ag	-3303
▁est	-3304
44	-3305
▁struggling	-3306
▁linked	-3307
▁tickets	-3308
▁Jay	-3309
▁Call	-3310
▁stands	-3311
▁wedding	-3312
▁resident	-3313
eng	-3314
▁leads	-3315
▁advance	-3316
▁Atlanta	-3317
▁tie	-3318
▁advanced	-3319
pt	-3320
burg	-3321
▁Earlier	-3322
▁Sw	-3323
▁Zealand	-3324
▁exercise	-3325
▁AM	-3326
▁affect	-3327
▁possession	-3328
▁involving	-3329
▁42	-3330
▁writer	-3331
▁Beijing	-3332
▁doctors	-3333
▁obviously	-3334
▁er	-3335
▁Olympic	-3336
▁75	-3337
▁Khan	-3338
▁Fort	-3339
app	-3340
like	-3341
▁sea	-3342
ock	-3343
▁mix	-3344
▁Iraq	-3345
▁Muslim	-3346
▁Finally	-3347
▁continuing	-3348
▁pr	-3349
▁Ke	-3350
▁Joseph	-3351
▁expects	-3352
▁institutions	-3353
▁conservative	-3354
own	-3355
▁Chairman	-3356
▁returning	-3357
.-	-3358
▁stood	-3359
▁vision	-3360
ess	-3361
▁adults	-3362
▁yield	-3363
▁prove	-3364
▁orders	-3365
▁dream	-3366
36	-3367
related	-3368
▁sl	-3369
▁everybody	-3370
ui	-3371
▁represents	-3372
▁discussed	-3373
▁becomes	-3374
▁village	-3375
CC	-3376
▁negotiations	-3377
▁Philadelphia	-3378
▁celebrate	-3379
▁farm	-3380
Ã§	-3381
▁registered	-3382
▁Governor	-3383
OL	-3384
▁Mon	-3385
▁filing	-3386
04	-3387
SE	-3388
▁Assembly	-3389
▁actress	-3390
▁si	-3391
▁thank	-3392
▁heading	-3393
▁Who	-3394
▁famous	-3395
▁consecutive	-3396
▁marriage	-3397
ette	-3398
NAS	-3399
acks	-3400
▁Please	-3401
▁Diego	-3402
▁baseball	-3403
▁Moore	-3404
▁ties	-3405
▁carrying	-3406
que	-3407
▁turning	-3408
▁McC	-3409
▁Ken	-3410
OR	-3411
▁Stock	-3412
▁buildings	-3413
49	-3414
▁Van	-3415
39	-3416
▁Seattle	-3417
▁wild	-3418
▁crew	-3419
▁route	-3420
▁Time	-3421
▁tonight	-3422
▁moments	-3423
▁videos	-3424
▁internal	-3425
▁Liverpool	-3426
port	-3427
▁chair	-3428
▁rival	-3429
▁Scotland	-3430
round	-3431
ith	-3432
▁breaking	-3433
▁voting	-3434
ically	-3435
▁producer	-3436
▁Love	-3437
▁remove	-3438
PA	-3439
▁asset	-3440
▁requires	-3441
▁signing	-3442
ages	-3443
▁impressive	-3444
▁Irish	-3445
▁authority	-3446
▁ruled	-3447
▁aimed	-3448
▁captain	-3449
AG	-3450
▁plants	-3451
▁Anderson	-3452
▁Spanish	-3453
▁banking	-3454
▁threats	-3455
▁suspended	-3456
▁tests	-3457
▁religious	-3458
▁electric	-3459
▁READ	-3460
▁strategic	-3461
▁split	-3462
ex	-3463
▁practices	-3464
▁Israeli	-3465
▁Arabia	-3466
▁Moscow	-3467
▁franchise	-3468
▁custody	-3469
▁Old	-3470
▁requirements	-3471
▁quarterly	-3472
▁comfortable	-3473
▁crimes	-3474
▁headed	-3475
▁newsletter	-3476
▁animal	-3477
▁regulations	-3478
long	-3479
▁CNN	-3480
▁assists	-3481
▁shopping	-3482
▁Gov	-3483
▁Securities	-3484
▁assistance	-3485
▁nor	-3486
▁relatively	-3487
▁increases	-3488
▁generally	-3489
▁55	-3490
▁gained	-3491
▁41	-3492
▁pictures	-3493
gan	-3494
▁pop	-3495
▁updates	-3496
▁Republic	-3497
▁rebounds	-3498
▁Patrick	-3499
▁relief	-3500
▁acting	-3501
▁Festival	-3502
▁2006	-3503
▁boss	-3504
▁types	-3505
65	-3506
▁Yet	-3507
▁purpose	-3508
ning	-3509
▁matters	-3510
▁compete	-3511
ball	-3512
▁Ram	-3513
▁sw	-3514
▁Following	-3515
▁Bush	-3516
▁troops	-3517
▁supposed	-3518
▁freedom	-3519
▁featured	-3520
▁storage	-3521
▁Information	-3522
▁Hong	-3523
▁golf	-3524
▁agents	-3525
▁fraud	-3526
▁minimum	-3527
▁artists	-3528
▁eat	-3529
high	-3530
▁Former	-3531
▁Kong	-3532
▁Josh	-3533
▁Delhi	-3534
▁showers	-3535
▁Academy	-3536
▁apartment	-3537
▁van	-3538
▁fish	-3539
oe	-3540
▁films	-3541
▁Bo	-3542
▁edge	-3543
▁possibly	-3544
▁tweet	-3545
09	-3546
▁resolution	-3547
jo	-3548
▁kill	-3549
▁44	-3550
▁cell	-3551
▁scheme	-3552
▁th	-3553
▁bonds	-3554
▁entry	-3555
▁secret	-3556
▁43	-3557
▁ending	-3558
▁weren	-3559
▁Credit	-3560
▁Live	-3561
▁retired	-3562
▁machine	-3563
▁summit	-3564
▁sharing	-3565
▁acquired	-3566
▁era	-3567
▁wear	-3568
ical	-3569
07	-3570
▁exciting	-3571
li	-3572
BC	-3573
▁Social	-3574
▁historic	-3575
▁Che	-3576
▁Lewis	-3577
ira	-3578
▁stolen	-3579
▁Speaking	-3580
▁sleep	-3581
▁spokeswoman	-3582
week	-3583
▁purchased	-3584
▁importance	-3585
EC	-3586
▁ends	-3587
▁dress	-3588
▁parliament	-3589
▁Cruz	-3590
▁cards	-3591
hi	-3592
▁Email	-3593
▁represent	-3594
▁brands	-3595
▁Senior	-3596
▁participants	-3597
▁fly	-3598
▁identity	-3599
▁Ham	-3600
▁Sky	-3601
ĳ	-3602
SA	-3603
▁promised	-3604
▁trouble	-3605
▁suffering	-3606
▁leaves	-3607
▁suggest	-3608
Sh	-3609
▁busy	-3610
▁properties	-3611
▁worldwide	-3612
▁cloud	-3613
▁SEC	-3614
▁closely	-3615
▁manage	-3616
▁numerous	-3617
▁background	-3618
▁Express	-3619
▁65	-3620
▁Tony	-3621
▁Madrid	-3622
ev	-3623
der	-3624
▁significantly	-3625
▁alternative	-3626
▁ship	-3627
head	-3628
ators	-3629
▁dinner	-3630
ax	-3631
SC	-3632
▁criticism	-3633
▁Mah	-3634
▁Min	-3635
rie	-3636
▁Tour	-3637
▁bench	-3638
▁adds	-3639
▁seriously	-3640
star	-3641
▁Journal	-3642
▁Di	-3643
ali	-3644
▁sentence	-3645
▁Several	-3646
▁mayor	-3647
ati	-3648
▁suggests	-3649
▁behavior	-3650
▁stronger	-3651
▁Food	-3652
▁client	-3653
not	-3654
▁Price	-3655
▁targeted	-3656
▁Singh	-3657
▁Network	-3658
▁prosecutors	-3659
▁directed	-3660
▁Democrat	-3661
bl	-3662
ues	-3663
▁Family	-3664
▁connected	-3665
▁Champions	-3666
▁roughly	-3667
▁absolutely	-3668
08	-3669
▁passengers	-3670
Ã¶	-3671
▁Special	-3672
▁coast	-3673
▁complaint	-3674
▁400	-3675
▁Em	-3676
ves	-3677
▁dogs	-3678
▁handle	-3679
▁otherwise	-3680
▁sees	-3681
▁ticket	-3682
▁Award	-3683
All	-3684
▁task	-3685
▁songs	-3686
▁Among	-3687
▁dedicated	-3688
▁steel	-3689
looking	-3690
▁shortly	-3691
▁tackle	-3692
ative	-3693
▁minor	-3694
Ã¢	-3695
▁provider	-3696
vers	-3697
use	-3698
ives	-3699
▁typically	-3700
▁arms	-3701
▁Ant	-3702
▁IS	-3703
▁jump	-3704
▁Â©	-3705
47	-3706
aff	-3707
▁monthly	-3708
▁Microsoft	-3709
▁CBS	-3710
▁threatened	-3711
▁honor	-3712
▁Mo	-3713
42	-3714
▁inning	-3715
▁pool	-3716
▁healthcare	-3717
▁Story	-3718
▁Tennessee	-3719
▁promote	-3720
EL	-3721
▁emotional	-3722
▁pe	-3723
▁factor	-3724
▁investigators	-3725
Ľ	-3726
▁Back	-3727
▁Project	-3728
▁cu	-3729
side	-3730
▁messages	-3731
TH	-3732
eg	-3733
▁experiences	-3734
▁causing	-3735
▁joining	-3736
▁package	-3737
▁bodies	-3738
▁lots	-3739
▁Harris	-3740
▁cl	-3741
▁Internet	-3742
free	-3743
▁performed	-3744
▁pieces	-3745
buy	-3746
▁caption	-3747
▁web	-3748
▁contracts	-3749
At	-3750
▁attempted	-3751
▁unlikely	-3752
▁click	-3753
▁invest	-3754
IM	-3755
▁View	-3756
▁neighborhood	-3757
▁ring	-3758
▁Four	-3759
ail	-3760
46	-3761
One	-3762
▁native	-3763
CH	-3764
OM	-3765
▁alcohol	-3766
▁Val	-3767
▁characters	-3768
▁Pat	-3769
▁politicians	-3770
▁Mag	-3771
▁begins	-3772
▁Ak	-3773
▁los	-3774
▁personnel	-3775
▁enjoyed	-3776
▁Technology	-3777
▁sun	-3778
▁IT	-3779
▁document	-3780
▁deficit	-3781
▁coalition	-3782
▁memory	-3783
▁pushing	-3784
any	-3785
ified	-3786
▁founder	-3787
▁2000	-3788
2017	-3789
▁visited	-3790
▁Though	-3791
ph	-3792
▁soft	-3793
▁flag	-3794
▁mom	-3795
inch	-3796
▁Samsung	-3797
▁apps	-3798
▁touchdown	-3799
▁Care	-3800
▁Mrs	-3801
▁redistributed	-3802
▁encourage	-3803
ched	-3804
▁tend	-3805
▁regions	-3806
pp	-3807
IP	-3808
br	-3809
ush	-3810
▁argued	-3811
▁junior	-3812
BA	-3813
▁severe	-3814
▁NIGHT	-3815
▁def	-3816
▁surrounding	-3817
48	-3818
▁engine	-3819
▁filled	-3820
▁seventh	-3821
▁battery	-3822
▁Allen	-3823
▁guidance	-3824
▁roll	-3825
▁rural	-3826
▁expert	-3827
▁convicted	-3828
▁likes	-3829
▁Ro	-3830
▁grown	-3831
▁retirement	-3832
▁intended	-3833
▁mis	-3834
▁army	-3835
▁dance	-3836
▁Thank	-3837
▁ent	-3838
▁outlook	-3839
▁para	-3840
▁dry	-3841
▁TO	-3842
era	-3843
▁waste	-3844
▁faster	-3845
▁Eagles	-3846
TA	-3847
▁Frank	-3848
Ã	-3849
LE	-3850
ura	-3851
ko	-3852
ao	-3853
▁distribution	-3854
▁improvement	-3855
▁playoff	-3856
▁acquisition	-3857
▁CH	-3858
▁tomorrow	-3859
▁struggle	-3860
▁Human	-3861
▁newly	-3862
oon	-3863
▁Ne	-3864
con	-3865
sc	-3866
▁unless	-3867
▁transition	-3868
ten	-3869
▁Inter	-3870
▁equal	-3871
▁rec	-3872
▁appointed	-3873
▁wake	-3874
▁Earth	-3875
ose	-3876
▁Eastern	-3877
▁soldiers	-3878
▁Parliament	-3879
▁sets	-3880
▁attempts	-3881
▁Illinois	-3882
▁revenues	-3883
▁Wil	-3884
▁heads	-3885
▁prepare	-3886
▁priority	-3887
PS	-3888
▁Jo	-3889
▁NBC	-3890
▁therefore	-3891
yn	-3892
▁initiative	-3893
ct	-3894
▁coffee	-3895
▁Fair	-3896
43	-3897
den	-3898
form	-3899
ova	-3900
▁appropriate	-3901
▁Play	-3902
▁accepted	-3903
▁creative	-3904
▁follows	-3905
▁rescue	-3906
▁tree	-3907
With	-3908
▁Netflix	-3909
▁Football	-3910
▁surprised	-3911
▁lowest	-3912
800	-3913
amp	-3914
▁worried	-3915
mar	-3916
ran	-3917
▁visiting	-3918
▁selected	-3919
▁Music	-3920
▁Ann	-3921
▁explain	-3922
ging	-3923
▁widely	-3924
▁square	-3925
▁trends	-3926
▁improving	-3927
▁Head	-3928
▁Queen	-3929
▁Society	-3930
▁cutting	-3931
▁GOP	-3932
03	-3933
',	-3934
ET	-3935
▁Drive	-3936
oll	-3937
ato	-3938
▁Sea	-3939
▁jury	-3940
▁Rights	-3941
▁investor	-3942
▁ABC	-3943
▁tool	-3944
▁Are	-3945
▁rejected	-3946
▁emerging	-3947
▁counts	-3948
▁nations	-3949
▁false	-3950
▁treat	-3951
va	-3952
▁weak	-3953
▁Highway	-3954
down	-3955
▁struggled	-3956
▁MP	-3957
▁guests	-3958
▁gender	-3959
▁houses	-3960
rit	-3961
▁Wild	-3962
▁streak	-3963
uc	-3964
▁Reserve	-3965
▁Ratings	-3966
alt	-3967
▁greatest	-3968
▁lawyers	-3969
▁reaching	-3970
▁temperatures	-3971
To	-3972
▁outstanding	-3973
▁passes	-3974
▁faith	-3975
inc	-3976
▁cr	-3977
▁informed	-3978
oz	-3979
▁trees	-3980
▁sending	-3981
▁150	-3982
bo	-3983
▁wine	-3984
ros	-3985
▁suspected	-3986
▁repeatedly	-3987
▁hat	-3988
▁shape	-3989
▁Wh	-3990
▁assist	-3991
▁stress	-3992
▁feed	-3993
ark	-3994
ored	-3995
▁watched	-3996
▁incredible	-3997
cl	-3998
nt	-3999
▁entertainment	-4000
ih	-4001
▁beauty	-4002
▁bi	-4003
▁Local	-4004
▁sat	-4005
41	-4006
▁broad	-4007
▁heavily	-4008
▁engaged	-4009
▁specifically	-4010
▁Men	-4011
▁Ross	-4012
▁2005	-4013
ST	-4014
95	-4015
▁download	-4016
400	-4017
▁sentenced	-4018
▁Catholic	-4019
▁Oklahoma	-4020
▁threw	-4021
▁worry	-4022
▁imp	-4023
▁drove	-4024
▁colleagues	-4025
▁agenda	-4026
64	-4027
▁Each	-4028
▁fee	-4029
New	-4030
ium	-4031
▁spokesperson	-4032
▁bills	-4033
▁47	-4034
▁Afghanistan	-4035
▁invited	-4036
▁YouTube	-4037
▁anniversary	-4038
▁dozen	-4039
ram	-4040
▁Only	-4041
▁employment	-4042
Getty	-4043
▁gap	-4044
▁sweet	-4045
▁Little	-4046
▁inf	-4047
ying	-4048
▁glass	-4049
▁classes	-4050
▁coal	-4051
▁Sub	-4052
▁duty	-4053
CA	-4054
▁coaches	-4055
Â	-4056
anna	-4057
▁Sk	-4058
▁46	-4059
ison	-4060
ille	-4061
▁ST	-4062
ric	-4063
▁participate	-4064
▁equ	-4065
▁rich	-4066
▁respectively	-4067
▁expenses	-4068
▁combination	-4069
right	-4070
▁shareholders	-4071
▁turns	-4072
▁earn	-4073
▁51	-4074
ured	-4075
▁drink	-4076
▁Kar	-4077
▁Shares	-4078
▁Mid	-4079
▁Getty	-4080
▁bridge	-4081
lo	-4082
▁inspired	-4083
▁surface	-4084
▁gift	-4085
ence	-4086
▁challenging	-4087
▁offices	-4088
▁suspects	-4089
▁Finance	-4090
▁ab	-4091
bound	-4092
▁momentum	-4093
▁backed	-4094
▁parent	-4095
▁crucial	-4096
ave	-4097
▁dealing	-4098
▁regulatory	-4099
▁apparently	-4100
▁Mat	-4101
▁apart	-4102
▁port	-4103
ole	-4104
▁beach	-4105
▁cultural	-4106
▁institutional	-4107
▁beating	-4108
▁Iowa	-4109
▁Ali	-4110
67	-4111
▁je	-4112
ays	-4113
▁weekly	-4114
▁birthday	-4115
▁pipeline	-4116
▁knee	-4117
▁solar	-4118
▁Pe	-4119
▁category	-4120
▁Area	-4121
ky	-4122
ures	-4123
06	-4124
▁Ball	-4125
▁semi	-4126
▁Hamilton	-4127
hip	-4128
▁Ph	-4129
▁Next	-4130
▁athletes	-4131
ii	-4132
▁movies	-4133
han	-4134
net	-4135
▁plastic	-4136
▁behalf	-4137
gen	-4138
▁findings	-4139
▁stretch	-4140
▁Sa	-4141
▁officially	-4142
▁Sarah	-4143
▁privacy	-4144
▁Mad	-4145
▁none	-4146
gh	-4147
On	-4148
▁drama	-4149
▁Fl	-4150
ika	-4151
▁Arsenal	-4152
▁violent	-4153
UN	-4154
called	-4155
59	-4156
▁hate	-4157
▁relationships	-4158
▁granted	-4159
▁Jon	-4160
▁listen	-4161
season	-4162
▁fewer	-4163
GA	-4164
▁Labour	-4165
▁remarks	-4166
▁Jonathan	-4167
▁Ros	-4168
sey	-4169
▁Ontario	-4170
▁Thompson	-4171
▁Night	-4172
▁ranked	-4173
▁Ukraine	-4174
▁immigrants	-4175
▁degrees	-4176
▁Ge	-4177
▁labor	-4178
umb	-4179
▁YORK	-4180
▁allies	-4181
sp	-4182
hed	-4183
sw	-4184
▁tariffs	-4185
SP	-4186
▁classic	-4187
▁awards	-4188
ents	-4189
▁fix	-4190
▁soccer	-4191
▁concert	-4192
ust	-4193
▁adult	-4194
▁output	-4195
▁managing	-4196
02	-4197
▁promise	-4198
▁awareness	-4199
▁gross	-4200
▁entering	-4201
▁po	-4202
oj	-4203
▁metal	-4204
▁exit	-4205
▁excellent	-4206
▁clubs	-4207
hold	-4208
▁replaced	-4209
▁Class	-4210
▁scientists	-4211
▁primarily	-4212
▁Mer	-4213
Ã£o	-4214
▁circumstances	-4215
ades	-4216
▁supplies	-4217
aker	-4218
▁Sand	-4219
▁scandal	-4220
▁settlement	-4221
▁Wisconsin	-4222
▁Warriors	-4223
▁Austin	-4224
▁journalists	-4225
ening	-4226
▁reflect	-4227
▁Buy	-4228
▁Awards	-4229
▁selection	-4230
▁Bel	-4231
bury	-4232
▁technologies	-4233
%,	-4234
ime	-4235
▁Ä	-4236
▁Administration	-4237
▁channel	-4238
Star	-4239
▁transport	-4240
▁awarded	-4241
ena	-4242
▁motor	-4243
orn	-4244
kin	-4245
▁featuring	-4246
▁phones	-4247
▁AND	-4248
▁relevant	-4249
▁See	-4250
▁winners	-4251
▁dad	-4252
▁Source	-4253
▁Check	-4254
aut	-4255
▁Far	-4256
▁opponents	-4257
▁outcome	-4258
▁doors	-4259
▁suicide	-4260
ima	-4261
▁jumped	-4262
▁perspective	-4263
▁transportation	-4264
▁thinks	-4265
▁Mor	-4266
▁deadline	-4267
▁53	-4268
▁Deputy	-4269
ery	-4270
▁detailed	-4271
uch	-4272
▁Bur	-4273
▁trades	-4274
▁Greg	-4275
▁zero	-4276
erson	-4277
▁Children	-4278
▁du	-4279
66	-4280
▁mixed	-4281
▁Barack	-4282
54	-4283
▁territory	-4284
▁ac	-4285
▁concept	-4286
▁Add	-4287
▁ourselves	-4288
▁reaction	-4289
▁Sydney	-4290
ink	-4291
▁consistent	-4292
▁boat	-4293
room	-4294
▁dozens	-4295
▁effectively	-4296
but	-4297
▁motion	-4298
▁alive	-4299
▁Key	-4300
weight	-4301
▁exports	-4302
▁operate	-4303
▁regime	-4304
▁Authority	-4305
och	-4306
▁CR	-4307
leg	-4308
▁forget	-4309
American	-4310
bs	-4311
▁thoughts	-4312
▁Sign	-4313
▁Patriots	-4314
▁brief	-4315
▁Oregon	-4316
▁Bal	-4317
▁mine	-4318
▁citing	-4319
▁magazine	-4320
more	-4321
ERS	-4322
▁Ber	-4323
ua	-4324
ox	-4325
▁Main	-4326
▁instance	-4327
tr	-4328
▁restaurants	-4329
ora	-4330
▁harassment	-4331
","	-4332
Ł	-4333
▁silver	-4334
▁Mueller	-4335
▁Senator	-4336
▁Every	-4337
▁footage	-4338
ms	-4339
▁opposed	-4340
▁Link	-4341
▁ver	-4342
▁pleased	-4343
ame	-4344
ending	-4345
▁rivals	-4346
ida	-4347
ike	-4348
ta	-4349
▁Cook	-4350
▁headquarters	-4351
ear	-4352
▁aggressive	-4353
▁courts	-4354
▁Museum	-4355
▁im	-4356
▁Holdings	-4357
▁communication	-4358
▁phase	-4359
yl	-4360
▁powers	-4361
▁proved	-4362
▁carbon	-4363
▁aside	-4364
▁Olympics	-4365
▁gathered	-4366
▁Pennsylvania	-4367
▁smartphone	-4368
▁Met	-4369
▁Hurricane	-4370
▁protected	-4371
▁communications	-4372
▁emerged	-4373
▁aim	-4374
▁stable	-4375
ides	-4376
GB	-4377
▁entirely	-4378
▁missile	-4379
▁Gen	-4380
▁unclear	-4381
▁electricity	-4382
ology	-4383
away	-4384
▁license	-4385
▁Pittsburgh	-4386
▁cameras	-4387
▁musical	-4388
▁managers	-4389
57	-4390
▁scores	-4391
▁profile	-4392
hel	-4393
¼	-4394
▁shouldn	-4395
RA	-4396
);	-4397
▁permanent	-4398
ome	-4399
▁et	-4400
▁mar	-4401
▁favor	-4402
▁maker	-4403
▁discussions	-4404
ory	-4405
▁sharp	-4406
▁pleaded	-4407
▁passenger	-4408
quarter	-4409
▁dem	-4410
▁versus	-4411
▁mainly	-4412
▁eighth	-4413
▁Airport	-4414
▁Cross	-4415
million	-4416
▁Nas	-4417
▁cited	-4418
56	-4419
▁yes	-4420
▁Below	-4421
arn	-4422
▁Turkish	-4423
▁Sl	-4424
▁stepped	-4425
▁producers	-4426
▁overnight	-4427
▁sounds	-4428
52	-4429
▁64	-4430
▁54	-4431
58	-4432
▁Clark	-4433
▁Rick	-4434
▁gr	-4435
▁Mont	-4436
▁beer	-4437
une	-4438
▁reporter	-4439
▁charity	-4440
▁eating	-4441
▁extend	-4442
▁guess	-4443
NA	-4444
▁hedge	-4445
▁encouraged	-4446
owned	-4447
▁Mel	-4448
▁Kentucky	-4449
ace	-4450
▁lineup	-4451
▁hosts	-4452
▁capable	-4453
PR	-4454
▁Arts	-4455
▁controversial	-4456
▁hosted	-4457
ries	-4458
▁roster	-4459
▁fixed	-4460
▁Walker	-4461
ged	-4462
▁disaster	-4463
▁dispute	-4464
▁Denver	-4465
▁Trade	-4466
ute	-4467
ese	-4468
cy	-4469
▁grant	-4470
▁Max	-4471
▁distance	-4472
isc	-4473
▁editor	-4474
▁Dave	-4475
▁performances	-4476
▁lay	-4477
▁vulnerable	-4478
▁Murray	-4479
▁âĤ¬	-4480
▁mining	-4481
▁2004	-4482
level	-4483
ability	-4484
▁auto	-4485
▁fake	-4486
▁attacked	-4487
ona	-4488
ups	-4489
ened	-4490
▁fallen	-4491
▁stations	-4492
▁Contact	-4493
itz	-4494
▁incidents	-4495
▁complaints	-4496
▁operates	-4497
▁refugees	-4498
▁essential	-4499
▁Test	-4500
▁demands	-4501
▁roles	-4502
yr	-4503
▁acts	-4504
▁usual	-4505
ring	-4506
▁handed	-4507
▁Matthew	-4508
hour	-4509
▁industries	-4510
▁shoot	-4511
▁Authorities	-4512
▁probe	-4513
▁Utah	-4514
▁RBI	-4515
▁AD	-4516
▁prospect	-4517
outs	-4518
▁Uber	-4519
▁bright	-4520
▁mention	-4521
▁savings	-4522
▁Miss	-4523
ONDON	-4524
▁1990	-4525
arm	-4526
▁Ten	-4527
These	-4528
▁explains	-4529
minute	-4530
85	-4531
▁maximum	-4532
▁ro	-4533
▁rookie	-4534
▁studio	-4535
▁Cam	-4536
▁Gal	-4537
▁defend	-4538
hand	-4539
53	-4540
▁Oil	-4541
▁serves	-4542
▁sn	-4543
ios	-4544
▁Defense	-4545
AB	-4546
▁hired	-4547
▁supports	-4548
▁premium	-4549
ef	-4550
▁failing	-4551
▁Indiana	-4552
▁exp	-4553
▁objective	-4554
▁affordable	-4555
▁Com	-4556
▁Thanks	-4557
▁anywhere	-4558
▁confirm	-4559
ited	-4560
▁representing	-4561
▁witness	-4562
69	-4563
▁claiming	-4564
▁violation	-4565
▁historical	-4566
med	-4567
▁preparing	-4568
▁Tech	-4569
▁posts	-4570
OC	-4571
▁Graham	-4572
▁Gl	-4573
▁Lions	-4574
ales	-4575
▁ID	-4576
▁correct	-4577
▁Antonio	-4578
▁advertising	-4579
▁eastern	-4580
OW	-4581
▁holdings	-4582
▁polls	-4583
▁SH	-4584
▁executives	-4585
▁Jewish	-4586
▁Gary	-4587
▁prize	-4588
▁Commissioner	-4589
▁cells	-4590
ify	-4591
▁lunch	-4592
▁democracy	-4593
▁Er	-4594
▁regularly	-4595
▁resulted	-4596
▁Ave	-4597
▁Partners	-4598
▁rewritten	-4599
▁lo	-4600
▁cooperation	-4601
▁Gulf	-4602
▁smoke	-4603
▁Memorial	-4604
▁wave	-4605
▁fears	-4606
▁kid	-4607
▁Giants	-4608
▁recovered	-4609
row	-4610
▁Radio	-4611
▁Barcelona	-4612
▁wonderful	-4613
▁Dow	-4614
▁stream	-4615
▁Simon	-4616
▁detail	-4617
▁volunteers	-4618
▁Ind	-4619
▁forms	-4620
mann	-4621
▁Ray	-4622
oor	-4623
▁Take	-4624
▁represented	-4625
het	-4626
▁blow	-4627
aged	-4628
RE	-4629
▁Missouri	-4630
▁covering	-4631
▁profits	-4632
▁concluded	-4633
▁thus	-4634
▁Columbia	-4635
ode	-4636
▁Zimbabwe	-4637
▁disclosed	-4638
▁lifted	-4639
▁Sean	-4640
▁Harvey	-4641
▁Plus	-4642
ces	-4643
▁Greece	-4644
▁Lady	-4645
▁delay	-4646
▁kitchen	-4647
▁Index	-4648
▁bear	-4649
▁puts	-4650
new	-4651
88	-4652
▁Ash	-4653
Å¡	-4654
▁performing	-4655
law	-4656
▁Part	-4657
▁indicated	-4658
▁announce	-4659
▁compensation	-4660
▁ka	-4661
▁Science	-4662
ris	-4663
▁recommendations	-4664
▁Second	-4665
▁lights	-4666
▁temporary	-4667
urs	-4668
▁western	-4669
stone	-4670
68	-4671
▁Disney	-4672
▁playoffs	-4673
▁judges	-4674
▁engineering	-4675
▁Pen	-4676
▁Pal	-4677
▁obvious	-4678
▁Bridge	-4679
▁End	-4680
▁Arab	-4681
▁except	-4682
▁hole	-4683
class	-4684
▁causes	-4685
▁connect	-4686
▁AI	-4687
An	-4688
▁chose	-4689
▁Elizabeth	-4690
min	-4691
▁proper	-4692
▁NHL	-4693
▁races	-4694
▁innovation	-4695
▁sugar	-4696
600	-4697
▁Modi	-4698
illa	-4699
▁trillion	-4700
▁Sar	-4701
▁Affairs	-4702
▁impossible	-4703
▁guide	-4704
▁captured	-4705
▁Sales	-4706
▁species	-4707
51	-4708
▁ar	-4709
▁master	-4710
▁stayed	-4711
iro	-4712
▁Economic	-4713
▁vast	-4714
ili	-4715
▁pet	-4716
ye	-4717
77	-4718
▁keeps	-4719
▁Phil	-4720
▁EPS	-4721
▁Regional	-4722
▁sectors	-4723
▁desire	-4724
▁Stanley	-4725
¾	-4726
▁unknown	-4727
▁pot	-4728
▁PR	-4729
▁knowing	-4730
▁flying	-4731
▁Treasury	-4732
iers	-4733
enn	-4734
ably	-4735
▁sick	-4736
▁manner	-4737
▁manufacturers	-4738
▁champions	-4739
gy	-4740
Part	-4741
ister	-4742
▁Mountain	-4743
▁imagine	-4744
▁portion	-4745
▁Camp	-4746
▁chemical	-4747
ible	-4748
▁Analy	-4749
▁Bureau	-4750
▁pm	-4751
▁updated	-4752
▁etc	-4753
▁Field	-4754
iles	-4755
▁obtained	-4756
▁stick	-4757
▁cat	-4758
har	-4759
▁marked	-4760
▁medium	-4761
▁Des	-4762
People	-4763
▁wealth	-4764
ores	-4765
▁Baltimore	-4766
▁tip	-4767
▁dismissed	-4768
▁Victoria	-4769
▁Brad	-4770
Ch	-4771
▁56	-4772
▁stadium	-4773
eth	-4774
▁thunder	-4775
▁tested	-4776
▁drawn	-4777
▁counsel	-4778
ld	-4779
▁spirit	-4780
uss	-4781
▁theme	-4782
my	-4783
▁necessarily	-4784
▁elements	-4785
▁collected	-4786
▁Res	-4787
▁Maryland	-4788
▁Enter	-4789
▁founded	-4790
ae	-4791
▁pilot	-4792
▁shoulder	-4793
PC	-4794
▁argument	-4795
▁yen	-4796
▁receiver	-4797
▁harm	-4798
▁ET	-4799
▁protesters	-4800
▁72	-4801
▁Aaron	-4802
▁ed	-4803
▁expecting	-4804
":"	-4805
▁bike	-4806
Äĩ	-4807
▁luxury	-4808
half	-4809
▁Barbara	-4810
▁foundation	-4811
▁ill	-4812
▁submitted	-4813
▁deeply	-4814
▁hospitals	-4815
▁BJP	-4816
▁shock	-4817
▁platforms	-4818
▁summary	-4819
▁Where	-4820
▁celebration	-4821
iff	-4822
▁veterans	-4823
▁achieved	-4824
fl	-4825
▁activists	-4826
▁Manager	-4827
▁formal	-4828
▁formed	-4829
▁investigate	-4830
▁Kyle	-4831
▁:	-4832
▁Ra	-4833
ovic	-4834
▁drinking	-4835
▁networks	-4836
▁Alexander	-4837
▁Os	-4838
▁)	-4839
▁bomb	-4840
▁recalled	-4841
ito	-4842
ient	-4843
▁representatives	-4844
▁Christ	-4845
▁Way	-4846
▁deadly	-4847
▁investing	-4848
▁Russell	-4849
▁consumption	-4850
▁harder	-4851
▁bail	-4852
▁critics	-4853
▁danger	-4854
▁drew	-4855
▁Sol	-4856
▁copyright	-4857
▁Henry	-4858
▁buyers	-4859
▁residential	-4860
▁maintenance	-4861
pr	-4862
▁marks	-4863
▁ages	-4864
▁covers	-4865
▁ton	-4866
▁titles	-4867
▁PS	-4868
▁Evans	-4869
▁migrants	-4870
▁flights	-4871
▁monitoring	-4872
▁addressed	-4873
▁vital	-4874
▁controlled	-4875
▁weapon	-4876
▁inches	-4877
▁reduction	-4878
▁urban	-4879
▁coaching	-4880
▁reducing	-4881
ila	-4882
▁realize	-4883
▁meat	-4884
▁ref	-4885
▁overseas	-4886
▁blame	-4887
▁terrorist	-4888
▁stuck	-4889
▁Us	-4890
esh	-4891
pro	-4892
▁58	-4893
ough	-4894
▁exposure	-4895
▁Abu	-4896
state	-4897
▁providers	-4898
▁fore	-4899
▁jet	-4900
bar	-4901
▁ownership	-4902
ret	-4903
▁upset	-4904
▁facts	-4905
▁purchasing	-4906
▁reforms	-4907
▁river	-4908
▁somebody	-4909
▁guest	-4910
iy	-4911
▁auction	-4912
▁Reading	-4913
▁consequences	-4914
▁representative	-4915
▁appointment	-4916
add	-4917
▁collaboration	-4918
▁Tesla	-4919
▁Cohen	-4920
▁engagement	-4921
▁speaks	-4922
EST	-4923
▁exposed	-4924
▁maintained	-4925
rs	-4926
▁dating	-4927
▁Program	-4928
board	-4929
▁racing	-4930
▁pension	-4931
ign	-4932
iti	-4933
▁Five	-4934
▁extensive	-4935
▁Ha	-4936
▁Point	-4937
▁Mexican	-4938
▁expanded	-4939
▁totally	-4940
▁investigations	-4941
▁Orleans	-4942
▁cycle	-4943
▁ESPN	-4944
ifying	-4945
▁cup	-4946
▁Az	-4947
▁Investors	-4948
▁engage	-4949
reg	-4950
▁fought	-4951
▁terrorism	-4952
▁blocked	-4953
▁OK	-4954
Äį	-4955
72	-4956
▁destroyed	-4957
«	-4958
▁staying	-4959
▁afford	-4960
▁appearances	-4961
▁Hills	-4962
▁crore	-4963
▁strategies	-4964
▁tips	-4965
▁Sm	-4966
▁Fr	-4967
▁banned	-4968
▁Son	-4969
ask	-4970
▁limits	-4971
▁recognition	-4972
▁eligible	-4973
▁Gar	-4974
▁volatility	-4975
▁laid	-4976
nes	-4977
▁grade	-4978
▁RE	-4979
▁Hart	-4980
▁57	-4981
oma	-4982
▁uncertainty	-4983
▁recognized	-4984
▁PC	-4985
▁chosen	-4986
uz	-4987
▁adviser	-4988
una	-4989
▁assessment	-4990
▁reveal	-4991
mo	-4992
After	-4993
▁Bro	-4994
▁Off	-4995
▁peak	-4996
▁referred	-4997
▁SC	-4998
▁2003	-4999
ification	-5000
▁shutdown	-5001
▁Officials	-5002
ias	-5003
▁extreme	-5004
▁flood	-5005
▁hockey	-5006
▁wage	-5007
▁Net	-5008
▁damaged	-5009
▁replacement	-5010
▁Maria	-5011
▁creation	-5012
▁guns	-5013
aci	-5014
▁worker	-5015
do	-5016
▁viewers	-5017
▁seed	-5018
sts	-5019
▁touchdowns	-5020
▁mistake	-5021
ray	-5022
ull	-5023
▁pricing	-5024
▁strongly	-5025
▁aims	-5026
▁Navy	-5027
▁Egypt	-5028
ker	-5029
▁ve	-5030
▁Steven	-5031
▁res	-5032
ational	-5033
▁requests	-5034
▁emissions	-5035
▁Arena	-5036
uma	-5037
▁Atlantic	-5038
hr	-5039
▁AFP	-5040
▁Square	-5041
▁contribute	-5042
▁function	-5043
▁dec	-5044
▁Nelson	-5045
89	-5046
▁referendum	-5047
▁Pre	-5048
▁applied	-5049
▁GMT	-5050
▁Iranian	-5051
▁Nigerian	-5052
▁Any	-5053
NG	-5054
▁acknowledged	-5055
▁referring	-5056
▁venture	-5057
▁imports	-5058
▁blog	-5059
▁futures	-5060
OU	-5061
▁UFC	-5062
▁neither	-5063
▁extension	-5064
hes	-5065
▁Med	-5066
76	-5067
▁sustainable	-5068
ains	-5069
▁reputation	-5070
▁Vancouver	-5071
▁basically	-5072
acy	-5073
▁sad	-5074
▁Francis	-5075
▁Kennedy	-5076
▁Nevada	-5077
▁Lu	-5078
ras	-5079
▁Av	-5080
▁rear	-5081
▁Ho	-5082
▁properly	-5083
abe	-5084
▁Hotel	-5085
▁opinions	-5086
under	-5087
▁Station	-5088
▁FOR	-5089
ops	-5090
▁adopted	-5091
▁Swiss	-5092
▁Country	-5093
▁Ter	-5094
▁Andy	-5095
Me	-5096
▁Cooper	-5097
▁Tigers	-5098
▁Creek	-5099
▁gay	-5100
iner	-5101
▁AN	-5102
▁bird	-5103
lla	-5104
▁Kate	-5105
▁Pet	-5106
ni	-5107
▁prospects	-5108
ater	-5109
ites	-5110
▁escape	-5111
lam	-5112
ake	-5113
▁1980	-5114
▁Lag	-5115
▁successfully	-5116
▁districts	-5117
▁ministers	-5118
aries	-5119
▁frame	-5120
▁ON	-5121
▁Euro	-5122
▁Markets	-5123
▁register	-5124
▁defeated	-5125
▁developments	-5126
▁ninth	-5127
▁quiet	-5128
▁generated	-5129
▁valuable	-5130
▁recommended	-5131
▁Theatre	-5132
▁Cap	-5133
bed	-5134
▁reference	-5135
▁ease	-5136
oring	-5137
▁66	-5138
▁improvements	-5139
▁elsewhere	-5140
▁Hillary	-5141
▁defender	-5142
▁Right	-5143
zy	-5144
▁comprehensive	-5145
▁spotted	-5146
▁Oakland	-5147
▁Ok	-5148
▁System	-5149
ique	-5150
▁persons	-5151
▁exist	-5152
▁broader	-5153
▁clinical	-5154
▁2001	-5155
oul	-5156
▁securities	-5157
ghan	-5158
▁shelter	-5159
ero	-5160
ATED	-5161
▁hosting	-5162
▁select	-5163
▁Kavanaugh	-5164
▁restrictions	-5165
osa	-5166
▁yields	-5167
▁LA	-5168
▁59	-5169
▁wonder	-5170
▁absence	-5171
Ã¼r	-5172
ÅĤ	-5173
DP	-5174
▁electronic	-5175
▁illegally	-5176
▁micro	-5177
▁NEW	-5178
▁hall	-5179
▁aged	-5180
▁temperature	-5181
cast	-5182
atic	-5183
▁legacy	-5184
▁affairs	-5185
ji	-5186
▁Resources	-5187
▁gang	-5188
winning	-5189
▁attending	-5190
aro	-5191
▁friendly	-5192
aine	-5193
▁cannabis	-5194
▁airline	-5195
▁noting	-5196
▁professionals	-5197
▁FREE	-5198
RC	-5199
▁financing	-5200
▁independence	-5201
ved	-5202
▁resulting	-5203
▁steady	-5204
▁Winter	-5205
uring	-5206
▁hoped	-5207
98	-5208
▁presentation	-5209
aya	-5210
▁rated	-5211
osh	-5212
▁Analysis	-5213
=	-5214
▁donations	-5215
IR	-5216
▁combat	-5217
▁Howard	-5218
anda	-5219
79	-5220
▁invested	-5221
▁expanding	-5222
omb	-5223
ress	-5224
ble	-5225
▁journalist	-5226
▁Woods	-5227
▁centers	-5228
ott	-5229
▁streaming	-5230
▁terror	-5231
▁sustained	-5232
▁WWE	-5233
pre	-5234
ÅŁ	-5235
ait	-5236
▁arrival	-5237
▁residence	-5238
▁extent	-5239
▁arrive	-5240
▁2002	-5241
▁establish	-5242
74	-5243
▁Argentina	-5244
▁Dem	-5245
inn	-5246
aud	-5247
▁NCAA	-5248
▁questioned	-5249
▁ballot	-5250
▁min	-5251
▁landscape	-5252
▁horse	-5253
▁opponent	-5254
iel	-5255
▁prompted	-5256
atory	-5257
▁lift	-5258
▁association	-5259
cher	-5260
▁defending	-5261
▁tiny	-5262
▁poverty	-5263
▁Safety	-5264
▁petition	-5265
▁Limited	-5266
▁CA	-5267
FC	-5268
Ãł	-5269
oni	-5270
▁monitor	-5271
ÃŃa	-5272
MA	-5273
▁answers	-5274
▁Mitchell	-5275
▁bo	-5276
▁Shah	-5277
▁sm	-5278
▁medal	-5279
▁Civil	-5280
▁recognize	-5281
key	-5282
▁pregnant	-5283
▁spots	-5284
ante	-5285
▁academic	-5286
▁initiatives	-5287
▁secured	-5288
▁CL	-5289
ils	-5290
▁anticipated	-5291
▁involvement	-5292
▁Make	-5293
▁insisted	-5294
▁Wales	-5295
▁clothing	-5296
▁tracks	-5297
▁symptoms	-5298
▁plate	-5299
▁NY	-5300
▁retailers	-5301
▁Pan	-5302
▁fled	-5303
▁quoted	-5304
▁saved	-5305
▁Carter	-5306
▁teaching	-5307
▁Tokyo	-5308
▁Cr	-5309
▁Six	-5310
▁Picture	-5311
▁recover	-5312
▁comedy	-5313
ree	-5314
▁strikes	-5315
▁Sanders	-5316
sel	-5317
▁graduate	-5318
▁pending	-5319
St	-5320
▁warrant	-5321
▁honest	-5322
▁GM	-5323
▁noticed	-5324
▁Galaxy	-5325
ider	-5326
▁proposals	-5327
▁wore	-5328
▁indeed	-5329
EM	-5330
▁Channel	-5331
ances	-5332
▁Brady	-5333
86	-5334
▁gotten	-5335
▁throwing	-5336
▁Leader	-5337
▁Video	-5338
71	-5339
▁welcomed	-5340
NEW	-5341
▁fairly	-5342
▁promises	-5343
▁Silver	-5344
▁rape	-5345
▁opener	-5346
ares	-5347
▁Sir	-5348
making	-5349
▁cur	-5350
▁rooms	-5351
73	-5352
▁amounts	-5353
▁Industry	-5354
▁Dar	-5355
▁62	-5356
ted	-5357
▁abroad	-5358
▁Maybe	-5359
▁readers	-5360
oke	-5361
▁publication	-5362
▁Jean	-5363
▁operator	-5364
▁Having	-5365
▁Mil	-5366
life	-5367
▁generate	-5368
▁Craig	-5369
▁Mass	-5370
▁Bh	-5371
▁requested	-5372
▁crazy	-5373
▁Space	-5374
▁copy	-5375
▁export	-5376
▁context	-5377
▁br	-5378
62	-5379
▁Robinson	-5380
▁cyber	-5381
ENT	-5382
BI	-5383
arg	-5384
▁speaker	-5385
▁dramatic	-5386
▁Ol	-5387
▁Mill	-5388
▁trained	-5389
▁editing	-5390
▁salary	-5391
▁directors	-5392
▁explore	-5393
▁lucky	-5394
▁prominent	-5395
▁brothers	-5396
▁neck	-5397
icht	-5398
▁Watson	-5399
born	-5400
▁proven	-5401
▁principal	-5402
▁edition	-5403
Ed	-5404
▁switch	-5405
maker	-5406
▁relative	-5407
mi	-5408
▁Bruce	-5409
ho	-5410
▁Scottish	-5411
water	-5412
▁Sport	-5413
▁Kings	-5414
▁Collins	-5415
adi	-5416
▁celebrated	-5417
▁clothes	-5418
▁sunny	-5419
▁Charlotte	-5420
ees	-5421
▁scenes	-5422
▁Data	-5423
▁wounded	-5424
▁unusual	-5425
▁realized	-5426
▁Plan	-5427
▁Trans	-5428
▁FC	-5429
▁letters	-5430
▁alerts	-5431
▁Warren	-5432
DS	-5433
oss	-5434
pping	-5435
▁suspension	-5436
▁benchmark	-5437
▁Acc	-5438
▁alert	-5439
▁passion	-5440
▁Est	-5441
▁latter	-5442
▁stability	-5443
▁arts	-5444
▁pursue	-5445
▁Season	-5446
▁fields	-5447
▁method	-5448
63	-5449
▁folks	-5450
▁exclusive	-5451
▁crews	-5452
▁sessions	-5453
▁Major	-5454
▁Mount	-5455
▁map	-5456
▁=	-5457
▁situations	-5458
▁Berlin	-5459
rey	-5460
▁dates	-5461
▁sheet	-5462
▁Lo	-5463
▁fighters	-5464
▁Mart	-5465
▁atmosphere	-5466
▁illness	-5467
▁competing	-5468
▁Christopher	-5469
▁Roy	-5470
mm	-5471
iano	-5472
▁ge	-5473
▁Rams	-5474
▁conversations	-5475
▁Pa	-5476
▁Tel	-5477
▁appreciate	-5478
78	-5479
▁Total	-5480
low	-5481
▁Stone	-5482
▁opposite	-5483
▁barrel	-5484
▁developers	-5485
▁express	-5486
▁highs	-5487
which	-5488
par	-5489
▁Vietnam	-5490
▁blocks	-5491
▁recording	-5492
▁adjusted	-5493
▁ret	-5494
▁AR	-5495
▁militants	-5496
▁innovative	-5497
▁Ghana	-5498
FR	-5499
▁fantastic	-5500
▁mortgage	-5501
ando	-5502
▁Lane	-5503
ises	-5504
▁Â	-5505
▁homeless	-5506
▁Kal	-5507
▁approached	-5508
▁rounds	-5509
▁margins	-5510
ament	-5511
▁Motor	-5512
▁encouraging	-5513
ÂŃ	-5514
uru	-5515
▁handling	-5516
▁Massachusetts	-5517
▁planet	-5518
▁Spring	-5519
▁Bon	-5520
gu	-5521
Beat	-5522
▁drawing	-5523
▁Phoenix	-5524
very	-5525
aid	-5526
▁Ste	-5527
▁Entertainment	-5528
▁Ron	-5529
▁assigned	-5530
▁SA	-5531
News	-5532
▁interviews	-5533
▁Oh	-5534
media	-5535
vel	-5536
▁permission	-5537
▁transactions	-5538
▁traders	-5539
▁solo	-5540
▁provincial	-5541
▁suggesting	-5542
¡	-5543
▁diverse	-5544
▁67	-5545
▁ranks	-5546
▁Fre	-5547
▁favourite	-5548
▁63	-5549
▁differences	-5550
▁targeting	-5551
▁actors	-5552
▁76	-5553
icated	-5554
▁collect	-5555
akes	-5556
war	-5557
▁contained	-5558
ches	-5559
▁library	-5560
▁segments	-5561
▁Line	-5562
Ãª	-5563
ual	-5564
▁bags	-5565
▁factory	-5566
▁ear	-5567
▁somewhat	-5568
▁rail	-5569
▁UP	-5570
ula	-5571
▁Niger	-5572
▁las	-5573
▁implementation	-5574
▁emails	-5575
kel	-5576
wing	-5577
▁advised	-5578
--	-5579
istic	-5580
▁depth	-5581
▁shoes	-5582
▁Jennifer	-5583
▁venue	-5584
▁contain	-5585
▁highlights	-5586
▁capabilities	-5587
▁processes	-5588
▁tradition	-5589
▁contacted	-5590
▁producing	-5591
▁trail	-5592
rem	-5593
▁600	-5594
▁68	-5595
AA	-5596
▁Ba	-5597
▁Such	-5598
▁Tyler	-5599
ipp	-5600
▁survived	-5601
ami	-5602
▁Continue	-5603
▁capture	-5604
bi	-5605
61	-5606
96	-5607
▁threatening	-5608
▁keen	-5609
dale	-5610
▁trailer	-5611
▁stages	-5612
▁Gordon	-5613
▁finishing	-5614
▁legislative	-5615
▁useful	-5616
▁Greek	-5617
ald	-5618
▁grounds	-5619
▁Du	-5620
storms	-5621
ills	-5622
▁expense	-5623
▁detained	-5624
Today	-5625
▁diet	-5626
▁wood	-5627
▁Cameron	-5628
▁thrown	-5629
▁cricket	-5630
▁ideal	-5631
with	-5632
▁teammates	-5633
ours	-5634
▁projected	-5635
▁personally	-5636
▁Boy	-5637
rom	-5638
▁Philippines	-5639
win	-5640
ges	-5641
▁counties	-5642
▁Baker	-5643
▁prosecutor	-5644
▁roof	-5645
met	-5646
▁partly	-5647
▁Moon	-5648
eman	-5649
▁focusing	-5650
▁fishing	-5651
than	-5652
▁Jeremy	-5653
▁Bad	-5654
ais	-5655
▁controls	-5656
▁tonnes	-5657
▁shall	-5658
▁61	-5659
▁gathering	-5660
▁ERA	-5661
▁presidency	-5662
▁85	-5663
▁Gas	-5664
▁scenario	-5665
▁quarters	-5666
▁ang	-5667
▁settled	-5668
▁Commerce	-5669
▁anybody	-5670
▁garden	-5671
▁Library	-5672
▁bet	-5673
▁topic	-5674
olo	-5675
▁intense	-5676
87	-5677
▁links	-5678
▁med	-5679
▁AG	-5680
▁flooding	-5681
▁Murphy	-5682
PM	-5683
▁finds	-5684
▁sensitive	-5685
pped	-5686
▁completion	-5687
▁minority	-5688
▁von	-5689
▁striking	-5690
rich	-5691
▁bars	-5692
▁efficient	-5693
▁contributions	-5694
▁visits	-5695
▁attract	-5696
▁Malaysia	-5697
▁REL	-5698
▁opens	-5699
▁essentially	-5700
▁reasonable	-5701
▁sentiment	-5702
▁Melbourne	-5703
▁fitness	-5704
▁frequently	-5705
▁Rangers	-5706
▁museum	-5707
▁DNA	-5708
▁contrast	-5709
▁Adams	-5710
▁Win	-5711
▁falls	-5712
▁imposed	-5713
250	-5714
ood	-5715
▁Rio	-5716
▁choices	-5717
▁yellow	-5718
rin	-5719
ben	-5720
▁Staff	-5721
▁Indonesia	-5722
▁carries	-5723
▁tourism	-5724
UM	-5725
▁Orange	-5726
sell	-5727
▁resolve	-5728
▁Mumbai	-5729
▁pan	-5730
▁implement	-5731
▁midfielder	-5732
OP	-5733
▁tensions	-5734
▁800	-5735
▁Lord	-5736
▁Light	-5737
▁lies	-5738
Ã©s	-5739
▁participation	-5740
▁tries	-5741
▁sheriff	-5742
degree	-5743
▁congressional	-5744
▁mode	-5745
▁regulation	-5746
▁Jacob	-5747
▁Crown	-5748
▁bowl	-5749
▁Mississippi	-5750
▁theft	-5751
▁Kingdom	-5752
▁resort	-5753
▁royal	-5754
▁unemployment	-5755
PP	-5756
▁nomination	-5757
▁TR	-5758
▁behaviour	-5759
bank	-5760
▁Forest	-5761
WASHINGTON	-5762
▁Others	-5763
▁slowly	-5764
▁menu	-5765
vo	-5766
▁Sy	-5767
▁Metro	-5768
▁Lisa	-5769
▁registration	-5770
While	-5771
▁Jesus	-5772
▁250	-5773
▁processing	-5774
▁monetary	-5775
ape	-5776
ener	-5777
▁Systems	-5778
▁disappointed	-5779
▁print	-5780
uy	-5781
ħ	-5782
▁demanding	-5783
▁incredibly	-5784
play	-5785
▁surveillance	-5786
▁Standard	-5787
▁periods	-5788
▁writes	-5789
▁Luke	-5790
▁Palestinian	-5791
▁walks	-5792
▁riding	-5793
▁waters	-5794
▁Sox	-5795
▁traveling	-5796
▁tap	-5797
▁organized	-5798
▁resource	-5799
▁angry	-5800
▁timing	-5801
▁empty	-5802
▁milk	-5803
▁therapy	-5804
▁Brandon	-5805
mon	-5806
▁nationwide	-5807
▁novel	-5808
▁Storm	-5809
iet	-5810
▁Bre	-5811
▁begun	-5812
▁diplomatic	-5813
▁ads	-5814
▁DC	-5815
▁Ob	-5816
▁Montreal	-5817
▁Down	-5818
▁Milwaukee	-5819
▁meal	-5820
▁Puerto	-5821
▁Mas	-5822
▁joy	-5823
▁departure	-5824
▁Wright	-5825
▁spoken	-5826
style	-5827
▁Action	-5828
▁Comey	-5829
▁delivering	-5830
▁toll	-5831
▁midnight	-5832
▁Revenue	-5833
▁firing	-5834
▁stunning	-5835
▁kicked	-5836
▁Ottawa	-5837
▁efficiency	-5838
▁Lincoln	-5839
▁taste	-5840
ez	-5841
▁Weather	-5842
▁Morning	-5843
▁hadn	-5844
▁diversity	-5845
ily	-5846
▁Ay	-5847
▁argue	-5848
▁error	-5849
▁taught	-5850
▁che	-5851
▁occasion	-5852
▁inc	-5853
▁Orlando	-5854
▁Online	-5855
▁legs	-5856
▁Nation	-5857
uck	-5858
▁widespread	-5859
▁Ocean	-5860
▁constantly	-5861
▁Latin	-5862
▁comfort	-5863
▁rely	-5864
uff	-5865
▁Card	-5866
aring	-5867
▁humans	-5868
▁Thomson	-5869
aka	-5870
BIT	-5871
▁Review	-5872
po	-5873
Ãº	-5874
▁trucks	-5875
▁forecasts	-5876
view	-5877
▁longtime	-5878
▁Constitution	-5879
▁reserves	-5880
bit	-5881
▁stressed	-5882
▁contribution	-5883
▁chicken	-5884
▁DE	-5885
▁fat	-5886
▁Oscar	-5887
▁criticized	-5888
▁testimony	-5889
▁apparent	-5890
▁constant	-5891
▁cabinet	-5892
▁Duke	-5893
▁aspects	-5894
lic	-5895
▁Vol	-5896
▁wing	-5897
▁reb	-5898
▁Sessions	-5899
▁Smart	-5900
car	-5901
▁Im	-5902
▁operational	-5903
▁regulators	-5904
▁Jimmy	-5905
eter	-5906
▁nobody	-5907
▁Marc	-5908
▁literally	-5909
▁resistance	-5910
▁Kam	-5911
▁sexually	-5912
▁69	-5913
uth	-5914
▁viewed	-5915
▁picks	-5916
▁din	-5917
▁talented	-5918
▁tennis	-5919
▁strengthen	-5920
▁gl	-5921
▁Protection	-5922
▁installed	-5923
ways	-5924
▁Campbell	-5925
▁Portland	-5926
▁intent	-5927
▁Palace	-5928
▁secondary	-5929
▁locked	-5930
▁PA	-5931
▁landed	-5932
▁length	-5933
▁boosted	-5934
▁purchases	-5935
▁command	-5936
▁Asked	-5937
▁spaces	-5938
▁iconic	-5939
▁recommend	-5940
▁duties	-5941
▁seized	-5942
▁delayed	-5943
FA	-5944
AND	-5945
daq	-5946
▁hiring	-5947
▁occur	-5948
DC	-5949
▁Mus	-5950
▁ag	-5951
▁hopefully	-5952
▁Penn	-5953
ards	-5954
▁striker	-5955
▁rent	-5956
▁Ty	-5957
▁Buffalo	-5958
▁Ky	-5959
▁hike	-5960
pper	-5961
▁120	-5962
▁op	-5963
▁wheel	-5964
▁Ian	-5965
▁chart	-5966
tt	-5967
▁volunteer	-5968
IG	-5969
person	-5970
ight	-5971
▁Book	-5972
unt	-5973
▁Technologies	-5974
Now	-5975
▁favour	-5976
▁Gh	-5977
▁Qatar	-5978
▁Dutch	-5979
▁Grant	-5980
▁Ban	-5981
rel	-5982
▁agreements	-5983
▁educational	-5984
worth	-5985
▁Ward	-5986
700	-5987
▁anymore	-5988
▁repair	-5989
▁operators	-5990
▁Li	-5991
ots	-5992
▁Louisiana	-5993
▁Whether	-5994
▁odds	-5995
▁noon	-5996
▁Str	-5997
▁fail	-5998
iser	-5999
▁forever	-6000
▁recall	-6001
▁Po	-6002
▁Hot	-6003
▁designer	-6004
ido	-6005
LL	-6006
▁Control	-6007
▁survive	-6008
iam	-6009
▁organisation	-6010
▁Work	-6011
▁wider	-6012
▁tank	-6013
work	-6014
▁AS	-6015
▁posting	-6016
▁suddenly	-6017
MC	-6018
▁AL	-6019
▁Professor	-6020
▁Coach	-6021
▁rushed	-6022
▁afraid	-6023
▁activist	-6024
that	-6025
▁Film	-6026
▁backing	-6027
▁household	-6028
▁signal	-6029
▁accurate	-6030
str	-6031
▁Thread	-6032
▁Bears	-6033
ATION	-6034
▁Alliance	-6035
▁McDonald	-6036
▁Venezuela	-6037
ogg	-6038
▁Windows	-6039
makers	-6040
▁utility	-6041
▁rapidly	-6042
▁attractive	-6043
▁pa	-6044
▁Larry	-6045
▁misconduct	-6046
▁freshman	-6047
▁qualified	-6048
▁cleared	-6049
▁crashed	-6050
▁participating	-6051
▁pages	-6052
▁highlight	-6053
▁dialogue	-6054
▁Alberta	-6055
▁ca	-6056
▁witnesses	-6057
ables	-6058
▁followers	-6059
▁ensuring	-6060
▁promoting	-6061
▁searching	-6062
▁remote	-6063
▁clash	-6064
▁firefighters	-6065
▁teen	-6066
▁Place	-6067
▁Note	-6068
▁regardless	-6069
ult	-6070
oney	-6071
ander	-6072
ional	-6073
ining	-6074
▁demanded	-6075
▁Communications	-6076
▁consideration	-6077
TC	-6078
▁Southeast	-6079
aga	-6080
▁Garden	-6081
inger	-6082
ht	-6083
▁branch	-6084
▁mouth	-6085
▁audio	-6086
▁raw	-6087
▁coordinator	-6088
▁exact	-6089
▁Han	-6090
▁delays	-6091
▁Wal	-6092
▁Wells	-6093
▁ng	-6094
▁handful	-6095
▁girlfriend	-6096
▁typical	-6097
▁Wayne	-6098
▁Franklin	-6099
▁constitutional	-6100
▁Chance	-6101
▁blamed	-6102
rim	-6103
▁preliminary	-6104
▁lie	-6105
da	-6106
▁Capitol	-6107
▁routine	-6108
▁NASA	-6109
▁tre	-6110
▁Golf	-6111
▁sight	-6112
▁Der	-6113
▁reserve	-6114
150	-6115
▁speculation	-6116
▁competitors	-6117
▁Macron	-6118
ony	-6119
▁overtime	-6120
▁71	-6121
▁depending	-6122
▁Warner	-6123
▁accusations	-6124
ius	-6125
▁predicted	-6126
▁Charlie	-6127
▁everywhere	-6128
▁cable	-6129
▁Saint	-6130
▁Region	-6131
▁hero	-6132
▁Emb	-6133
▁kinds	-6134
▁starter	-6135
▁solve	-6136
▁Guard	-6137
▁loves	-6138
▁Douglas	-6139
▁funded	-6140
▁Brent	-6141
▁Anyone	-6142
▁substantial	-6143
▁Marine	-6144
▁Michelle	-6145
▁celebrating	-6146
▁offset	-6147
▁button	-6148
gg	-6149
▁medicine	-6150
uri	-6151
▁somewhere	-6152
PD	-6153
▁mon	-6154
▁fires	-6155
final	-6156
oth	-6157
ined	-6158
▁underway	-6159
▁mistakes	-6160
▁grateful	-6161
▁cheap	-6162
È	-6163
▁95	-6164
▁violations	-6165
arr	-6166
▁surprising	-6167
▁ob	-6168
▁NATO	-6169
▁controversy	-6170
▁Sweden	-6171
▁funeral	-6172
▁reviews	-6173
▁promotion	-6174
TY	-6175
▁liberal	-6176
▁promising	-6177
▁SP	-6178
How	-6179
▁memories	-6180
▁breast	-6181
zi	-6182
ights	-6183
▁pattern	-6184
▁outdoor	-6185
▁Mu	-6186
▁rush	-6187
▁Theresa	-6188
▁Pol	-6189
▁describe	-6190
▁Band	-6191
▁Stewart	-6192
▁1999	-6193
▁Raiders	-6194
mp	-6195
▁procedures	-6196
▁plot	-6197
▁hire	-6198
used	-6199
▁1970	-6200
▁picking	-6201
▁Sim	-6202
▁regard	-6203
inal	-6204
backs	-6205
▁Hard	-6206
▁Low	-6207
▁Ac	-6208
Is	-6209
▁guarantee	-6210
▁Given	-6211
▁beta	-6212
▁Tre	-6213
▁trans	-6214
▁retailer	-6215
▁purposes	-6216
▁Hol	-6217
▁enjoying	-6218
▁brown	-6219
▁Perry	-6220
▁plea	-6221
MS	-6222
▁Dakota	-6223
▁Parker	-6224
▁commit	-6225
▁Lawrence	-6226
▁Morris	-6227
ended	-6228
▁virtual	-6229
ÃĹ	-6230
▁fruit	-6231
84	-6232
▁Has	-6233
ishing	-6234
▁dominated	-6235
▁FA	-6236
▁channels	-6237
▁understood	-6238
▁citizen	-6239
▁checks	-6240
▁Kenya	-6241
▁disabled	-6242
SD	-6243
▁protecting	-6244
▁tweets	-6245
▁sparked	-6246
▁CO	-6247
§	-6248
ori	-6249
▁GDP	-6250
▁Ser	-6251
▁Visit	-6252
▁MS	-6253
▁barely	-6254
▁sand	-6255
▁ap	-6256
aging	-6257
▁rel	-6258
▁Perhaps	-6259
▁Mourinho	-6260
▁Jets	-6261
▁disclosure	-6262
▁highlighted	-6263
▁implemented	-6264
▁compliance	-6265
▁AB	-6266
▁Assistant	-6267
▁Cape	-6268
▁funny	-6269
▁leverage	-6270
▁machines	-6271
▁ranging	-6272
▁fastest	-6273
▁Roberts	-6274
▁Policy	-6275
gar	-6276
▁collapse	-6277
▁Through	-6278
▁robbery	-6279
▁Hay	-6280
▁elite	-6281
▁Digital	-6282
▁Fun	-6283
▁Alan	-6284
ement	-6285
▁mit	-6286
▁spin	-6287
▁listening	-6288
▁Doug	-6289
▁Saints	-6290
▁interior	-6291
▁enhance	-6292
▁Cardinals	-6293
ever	-6294
▁robust	-6295
▁inform	-6296
▁suffer	-6297
book	-6298
▁Muslims	-6299
▁agriculture	-6300
▁km	-6301
▁divers	-6302
Ã±	-6303
▁Reg	-6304
▁equivalent	-6305
▁craft	-6306
▁settle	-6307
▁contains	-6308
▁Mack	-6309
▁Dis	-6310
▁Fore	-6311
▁Sudan	-6312
▁Mail	-6313
▁Brooklyn	-6314
izer	-6315
bn	-6316
▁hundred	-6317
▁exhibition	-6318
▁Have	-6319
vin	-6320
▁civilians	-6321
▁Cincinnati	-6322
Some	-6323
▁SE	-6324
▁bat	-6325
▁Ins	-6326
▁calm	-6327
▁tone	-6328
▁normally	-6329
▁seeks	-6330
▁Ass	-6331
▁membership	-6332
▁annually	-6333
▁employers	-6334
CO	-6335
▁complicated	-6336
▁headlines	-6337
▁Labor	-6338
▁lifestyle	-6339
▁Ren	-6340
▁Rich	-6341
cent	-6342
ude	-6343
▁awesome	-6344
▁paint	-6345
▁rolling	-6346
▁walls	-6347
▁lab	-6348
▁tourists	-6349
care	-6350
▁gear	-6351
izz	-6352
▁cream	-6353
▁Tro	-6354
ices	-6355
▁pack	-6356
▁diseases	-6357
▁Speaker	-6358
▁Officers	-6359
▁sky	-6360
83	-6361
▁BE	-6362
▁categories	-6363
▁indicate	-6364
▁ru	-6365
▁Sony	-6366
▁Dun	-6367
ocks	-6368
▁concrete	-6369
▁Madison	-6370
▁Sab	-6371
IV	-6372
▁observed	-6373
ria	-6374
▁interim	-6375
▁encounter	-6376
ista	-6377
▁anger	-6378
▁rapid	-6379
mail	-6380
▁destination	-6381
ĩ	-6382
▁breaks	-6383
rell	-6384
▁Chase	-6385
▁attorneys	-6386
▁rolled	-6387
▁Springs	-6388
▁Village	-6389
TO	-6390
HS	-6391
▁campaigns	-6392
ologist	-6393
▁Tax	-6394
▁III	-6395
▁teach	-6396
▁provision	-6397
▁rem	-6398
▁shirt	-6399
▁deployed	-6400
▁guidelines	-6401
▁av	-6402
zer	-6403
▁rushing	-6404
94	-6405
place	-6406
Man	-6407
▁divided	-6408
▁Gun	-6409
▁windows	-6410
▁components	-6411
aba	-6412
▁Switzerland	-6413
election	-6414
▁Tampa	-6415
▁Ari	-6416
Ã¡s	-6417
▁highway	-6418
▁acres	-6419
▁crown	-6420
known	-6421
▁inquiry	-6422
url	-6423
▁expertise	-6424
▁praised	-6425
yer	-6426
▁conclusion	-6427
▁abortion	-6428
▁lady	-6429
▁tribute	-6430
▁unveiled	-6431
▁beaten	-6432
TE	-6433
▁Mot	-6434
unk	-6435
▁triple	-6436
▁forcing	-6437
▁Tickets	-6438
uit	-6439
▁iron	-6440
▁scientific	-6441
▁IP	-6442
▁diagnosed	-6443
▁ocean	-6444
wide	-6445
▁Cowboys	-6446
LC	-6447
▁methods	-6448
▁Find	-6449
▁Dean	-6450
▁fundamental	-6451
▁Gill	-6452
▁feelings	-6453
IO	-6454
hu	-6455
▁feedback	-6456
ote	-6457
▁duo	-6458
fully	-6459
get	-6460
▁proof	-6461
story	-6462
▁longest	-6463
▁shops	-6464
▁Jong	-6465
▁Cro	-6466
▁Hawaii	-6467
91	-6468
▁Jake	-6469
▁Susan	-6470
▁submit	-6471
rav	-6472
▁modest	-6473
▁lit	-6474
▁attempting	-6475
▁sits	-6476
▁addressing	-6477
93	-6478
▁Bi	-6479
▁lying	-6480
▁Organization	-6481
▁Oak	-6482
oli	-6483
▁fatal	-6484
▁mountain	-6485
val	-6486
lu	-6487
▁Maine	-6488
▁charging	-6489
▁resigned	-6490
illo	-6491
▁recommendation	-6492
party	-6493
▁Web	-6494
▁Panthers	-6495
▁noise	-6496
▁Brussels	-6497
awa	-6498
▁ambassador	-6499
▁accessible	-6500
▁Calgary	-6501
idd	-6502
▁Airlines	-6503
gr	-6504
▁nu	-6505
roy	-6506
▁Mars	-6507
▁Poland	-6508
▁Jerry	-6509
ados	-6510
▁Rico	-6511
▁Mir	-6512
▁Fin	-6513
ious	-6514
▁packed	-6515
▁insider	-6516
President	-6517
▁Bull	-6518
▁Yemen	-6519
▁Connecticut	-6520
▁73	-6521
▁departments	-6522
▁organic	-6523
▁Summer	-6524
▁Bet	-6525
ste	-6526
zo	-6527
rat	-6528
▁alliance	-6529
▁intervention	-6530
wan	-6531
▁OR	-6532
▁defined	-6533
▁Ãł	-6534
▁Chiefs	-6535
▁knocked	-6536
ared	-6537
▁holes	-6538
▁pulling	-6539
▁Todd	-6540
▁Jamie	-6541
▁Sher	-6542
▁signature	-6543
▁Sur	-6544
▁gym	-6545
▁Vladimir	-6546
▁Thailand	-6547
▁gaming	-6548
▁saving	-6549
ceive	-6550
82	-6551
▁Bern	-6552
▁Did	-6553
▁hardware	-6554
ished	-6555
▁conspiracy	-6556
ANS	-6557
▁Intelligence	-6558
▁assembly	-6559
▁101	-6560
▁concise	-6561
▁Manhattan	-6562
▁belief	-6563
▁surge	-6564
▁deserve	-6565
▁consistently	-6566
▁Nor	-6567
okes	-6568
ðŁ	-6569
ME	-6570
▁Asset	-6571
▁substance	-6572
▁prefer	-6573
▁burning	-6574
▁Nik	-6575
ook	-6576
▁Pinterest	-6577
▁boyfriend	-6578
▁Hal	-6579
▁Merkel	-6580
▁introduce	-6581
▁LinkedIn	-6582
▁Full	-6583
▁Farm	-6584
▁childhood	-6585
▁Transportation	-6586
▁terrible	-6587
du	-6588
▁intention	-6589
▁seemingly	-6590
elle	-6591
▁foods	-6592
▁titled	-6593
▁dual	-6594
▁import	-6595
▁developer	-6596
UL	-6597
ington	-6598
▁Delta	-6599
?'	-6600
iness	-6601
▁quit	-6602
▁Garcia	-6603
▁Sri	-6604
▁hip	-6605
▁Brazilian	-6606
elt	-6607
ively	-6608
▁structures	-6609
▁labour	-6610
▁neighbors	-6611
▁till	-6612
▁soil	-6613
▁dropping	-6614
▁nominee	-6615
▁meets	-6616
92	-6617
rant	-6618
isa	-6619
▁luck	-6620
aa	-6621
jet	-6622
▁Tor	-6623
▁Crime	-6624
▁lane	-6625
▁flu	-6626
▁launching	-6627
▁Autom	-6628
aks	-6629
▁universities	-6630
▁pollution	-6631
▁Advis	-6632
▁Mall	-6633
ls	-6634
▁deeper	-6635
▁repeated	-6636
▁meanwhile	-6637
▁chip	-6638
▁outlets	-6639
▁liked	-6640
▁sal	-6641
▁welfare	-6642
ago	-6643
▁makers	-6644
ving	-6645
fer	-6646
▁overcome	-6647
mb	-6648
▁shocked	-6649
akers	-6650
▁nonprofit	-6651
▁donated	-6652
eral	-6653
▁resume	-6654
▁logo	-6655
▁subscription	-6656
▁74	-6657
ela	-6658
▁aspect	-6659
html	-6660
▁sorry	-6661
▁upgrade	-6662
▁stance	-6663
▁fr	-6664
▁papers	-6665
▁attacking	-6666
▁meaningful	-6667
81	-6668
▁Weinstein	-6669
▁creates	-6670
▁honour	-6671
▁Reply	-6672
oph	-6673
▁march	-6674
▁smile	-6675
▁comparison	-6676
will	-6677
▁Sanchez	-6678
▁voter	-6679
▁theory	-6680
▁equally	-6681
▁Roger	-6682
▁perfectly	-6683
▁landing	-6684
▁billions	-6685
▁Bloomberg	-6686
▁permit	-6687
▁finals	-6688
▁racial	-6689
▁pregnancy	-6690
iled	-6691
▁Federation	-6692
▁forest	-6693
▁tag	-6694
aul	-6695
▁drinks	-6696
▁("	-6697
▁Mobile	-6698
▁touched	-6699
▁clock	-6700
▁reg	-6701
▁asylum	-6702
igan	-6703
▁senator	-6704
▁99	-6705
▁Kumar	-6706
▁skill	-6707
▁1998	-6708
pa	-6709
▁Af	-6710
▁mood	-6711
ston	-6712
▁hang	-6713
▁MPs	-6714
Please	-6715
▁Eve	-6716
▁documentary	-6717
▁personality	-6718
▁Cast	-6719
▁discount	-6720
bing	-6721
▁Boeing	-6722
▁depend	-6723
▁crossing	-6724
EX	-6725
▁succeed	-6726
▁humanitarian	-6727
▁Muhammad	-6728
▁wages	-6729
▁column	-6730
▁external	-6731
▁statistics	-6732
▁TODAY	-6733
▁trips	-6734
▁ta	-6735
▁penalties	-6736
▁writers	-6737
▁shipping	-6738
▁Indians	-6739
▁salt	-6740
▁Industrial	-6741
▁Yankees	-6742
▁Den	-6743
▁rough	-6744
▁barrels	-6745
▁Hor	-6746
bert	-6747
▁Dep	-6748
▁resign	-6749
97	-6750
▁balls	-6751
▁Jun	-6752
▁Bab	-6753
▁associate	-6754
▁string	-6755
▁hub	-6756
▁organ	-6757
▁Marshall	-6758
▁FIFA	-6759
▁Mun	-6760
ency	-6761
research	-6762
▁peers	-6763
▁tall	-6764
▁Goldman	-6765
Don	-6766
▁parade	-6767
▁parks	-6768
▁det	-6769
▁disappointing	-6770
▁reflects	-6771
▁Lakers	-6772
▁files	-6773
▁relatives	-6774
▁USD	-6775
▁Article	-6776
▁custom	-6777
▁Carlos	-6778
▁tracking	-6779
▁maintaining	-6780
▁Cur	-6781
ardo	-6782
▁Skip	-6783
▁attitude	-6784
Just	-6785
▁institution	-6786
▁narrow	-6787
▁snap	-6788
▁enterprise	-6789
▁drives	-6790
▁77	-6791
▁crop	-6792
▁virus	-6793
▁celebrity	-6794
▁economies	-6795
ued	-6796
▁sum	-6797
▁Dubai	-6798
▁Insurance	-6799
Ĺ	-6800
ury	-6801
▁Unfortunately	-6802
▁closure	-6803
ota	-6804
▁Philip	-6805
oms	-6806
▁investigated	-6807
▁generations	-6808
▁ETF	-6809
▁Keith	-6810
▁Later	-6811
isk	-6812
▁preferred	-6813
▁default	-6814
▁towns	-6815
▁Rod	-6816
▁Die	-6817
▁integrated	-6818
▁acquiring	-6819
▁voices	-6820
▁ser	-6821
▁presents	-6822
▁BR	-6823
▁Emergency	-6824
▁religion	-6825
HA	-6826
▁responding	-6827
▁Things	-6828
▁beef	-6829
▁Without	-6830
urd	-6831
▁Carl	-6832
▁administrative	-6833
▁Which	-6834
▁challenged	-6835
▁cooking	-6836
ivid	-6837
▁Fer	-6838
▁tremendous	-6839
▁Terry	-6840
iri	-6841
CS	-6842
▁Junior	-6843
▁Reddit	-6844
▁tea	-6845
▁accounting	-6846
lan	-6847
▁detention	-6848
▁replied	-6849
SI	-6850
▁Hel	-6851
ns	-6852
▁Prof	-6853
▁ramp	-6854
▁Conservative	-6855
▁attendance	-6856
▁specialist	-6857
▁Final	-6858
▁advertisement	-6859
▁acquire	-6860
▁WhatsApp	-6861
▁workforce	-6862
▁Calif	-6863
▁speakers	-6864
▁EPA	-6865
▁conviction	-6866
hire	-6867
▁Fisher	-6868
▁Intel	-6869
▁bin	-6870
▁Was	-6871
▁earth	-6872
vi	-6873
▁hurricane	-6874
▁holidays	-6875
▁assume	-6876
▁involve	-6877
▁dynamic	-6878
▁Gre	-6879
▁item	-6880
▁pound	-6881
▁anxiety	-6882
▁Print	-6883
rop	-6884
▁automatically	-6885
▁discrimination	-6886
▁Lam	-6887
▁Coll	-6888
▁impressed	-6889
▁involves	-6890
▁Les	-6891
▁Tri	-6892
▁Look	-6893
▁iOS	-6894
▁grab	-6895
▁Angel	-6896
▁stops	-6897
▁Pay	-6898
▁ECB	-6899
▁bunch	-6900
▁letting	-6901
ele	-6902
▁Additionally	-6903
▁boards	-6904
NC	-6905
▁tragedy	-6906
▁pink	-6907
▁gonna	-6908
ones	-6909
▁rev	-6910
▁Independent	-6911
▁Cambridge	-6912
▁Pence	-6913
▁prosecution	-6914
▁deputies	-6915
▁Ahmed	-6916
▁lows	-6917
▁Amy	-6918
▁Building	-6919
mark	-6920
▁smooth	-6921
▁sole	-6922
▁wanting	-6923
▁Heart	-6924
▁obtain	-6925
▁Bus	-6926
▁exchanges	-6927
friendly	-6928
▁label	-6929
elect	-6930
▁Companies	-6931
owing	-6932
▁CB	-6933
RI	-6934
▁Master	-6935
▁liquid	-6936
▁Danny	-6937
▁proceeds	-6938
▁Laura	-6939
card	-6940
▁tears	-6941
▁exploration	-6942
▁depression	-6943
ken	-6944
▁Fe	-6945
▁lending	-6946
▁Youth	-6947
ality	-6948
NS	-6949
▁moon	-6950
▁Taiwan	-6951
▁struggles	-6952
▁discovery	-6953
▁qualify	-6954
▁wireless	-6955
alia	-6956
▁witnessed	-6957
▁height	-6958
▁Guy	-6959
left	-6960
KE	-6961
▁foul	-6962
▁Mohammed	-6963
▁grass	-6964
▁Non	-6965
▁swim	-6966
▁brilliant	-6967
you	-6968
▁Flynn	-6969
▁singing	-6970
eria	-6971
UT	-6972
▁McCain	-6973
▁Sep	-6974
▁Wars	-6975
▁burden	-6976
▁pas	-6977
▁abandoned	-6978
▁int	-6979
▁Turner	-6980
▁collective	-6981
▁Environmental	-6982
▁Students	-6983
▁offerings	-6984
▁resignation	-6985
▁explosion	-6986
▁Koh	-6987
ager	-6988
▁throws	-6989
▁asks	-6990
light	-6991
▁anyway	-6992
▁yard	-6993
▁carrier	-6994
▁waves	-6995
backed	-6996
TR	-6997
oud	-6998
▁breach	-6999
▁dated	-7000
▁dressed	-7001
▁Dodgers	-7002
oles	-7003
▁78	-7004
▁reads	-7005
▁predict	-7006
▁Jerusalem	-7007
▁PT	-7008
▁crack	-7009
yan	-7010
▁nights	-7011
eline	-7012
▁convinced	-7013
▁lock	-7014
▁carefully	-7015
▁Mercedes	-7016
▁ultimate	-7017
▁dist	-7018
▁slight	-7019
▁Edwards	-7020
▁swing	-7021
iling	-7022
▁knife	-7023
▁Nashville	-7024
IF	-7025
inder	-7026
udd	-7027
▁senators	-7028
▁Further	-7029
▁Xi	-7030
▁str	-7031
▁Od	-7032
days	-7033
▁comm	-7034
▁verdict	-7035
▁confirmation	-7036
king	-7037
▁CS	-7038
▁advocates	-7039
▁pride	-7040
▁memorial	-7041
ams	-7042
erman	-7043
▁teenager	-7044
▁Neil	-7045
uts	-7046
▁soul	-7047
see	-7048
post	-7049
▁chest	-7050
fire	-7051
▁Lynch	-7052
▁peaceful	-7053
OND	-7054
▁Industries	-7055
▁Juan	-7056
▁restore	-7057
▁reliable	-7058
ming	-7059
agan	-7060
Source	-7061
▁Cabinet	-7062
▁remarkable	-7063
▁Trudeau	-7064
▁Es	-7065
▁integrity	-7066
ove	-7067
fe	-7068
▁proceedings	-7069
▁connections	-7070
▁unprecedented	-7071
▁Glen	-7072
ux	-7073
▁earning	-7074
▁ingredients	-7075
▁nominated	-7076
▁Bangladesh	-7077
made	-7078
▁lessons	-7079
▁breakfast	-7080
▁Relations	-7081
▁loose	-7082
Al	-7083
▁upgraded	-7084
ral	-7085
▁Page	-7086
oto	-7087
▁Queensland	-7088
▁procedure	-7089
▁Small	-7090
▁respective	-7091
▁pictured	-7092
▁Bas	-7093
▁preparation	-7094
▁Myanmar	-7095
▁donation	-7096
▁visible	-7097
iest	-7098
▁Broadway	-7099
rick	-7100
▁Schools	-7101
▁arrests	-7102
▁Jessica	-7103
▁Bengal	-7104
▁hell	-7105
▁announcing	-7106
▁mail	-7107
▁McG	-7108
two	-7109
rest	-7110
OD	-7111
▁Bradley	-7112
▁doubled	-7113
▁pledged	-7114
▁comeback	-7115
▁extraordinary	-7116
▁slide	-7117
▁assess	-7118
▁agricultural	-7119
▁Kay	-7120
▁vendors	-7121
▁narrative	-7122
▁reviewed	-7123
▁Pass	-7124
▁inspiration	-7125
▁Hunter	-7126
▁calendar	-7127
▁Diamond	-7128
▁removal	-7129
ners	-7130
▁Kap	-7131
▁consent	-7132
▁visual	-7133
▁cheese	-7134
▁Ther	-7135
▁FR	-7136
▁Shanghai	-7137
iah	-7138
▁Cole	-7139
AK	-7140
▁ranking	-7141
▁cook	-7142
▁halftime	-7143
▁Stars	-7144
▁routes	-7145
aim	-7146
▁establishment	-7147
▁Mug	-7148
▁survivors	-7149
urg	-7150
▁Brett	-7151
▁unexpected	-7152
ained	-7153
▁rarely	-7154
▁Gall	-7155
▁advocate	-7156
▁Nad	-7157
▁911	-7158
▁racist	-7159
erer	-7160
▁Rev	-7161
▁Section	-7162
▁helpful	-7163
CT	-7164
agg	-7165
▁governance	-7166
▁felony	-7167
▁optimistic	-7168
▁electoral	-7169
EG	-7170
town	-7171
▁daughters	-7172
▁answered	-7173
▁thin	-7174
▁Classic	-7175
▁shareholder	-7176
▁Blake	-7177
▁Fla	-7178
▁parliamentary	-7179
dy	-7180
▁commented	-7181
▁tri	-7182
▁globe	-7183
▁mandate	-7184
▁slipped	-7185
▁Tower	-7186
▁operated	-7187
gers	-7188
▁assured	-7189
▁Martinez	-7190
▁designs	-7191
▁Model	-7192
▁stakeholders	-7193
▁defended	-7194
▁seniors	-7195
▁vacation	-7196
▁globally	-7197
ump	-7198
Not	-7199
▁clip	-7200
▁articles	-7201
BR	-7202
km	-7203
▁Front	-7204
PL	-7205
▁adoption	-7206
▁sudden	-7207
▁framework	-7208
▁hanging	-7209
gl	-7210
▁Sel	-7211
▁moderate	-7212
▁reverse	-7213
income	-7214
cor	-7215
▁GB	-7216
▁physically	-7217
▁transparency	-7218
▁Electric	-7219
▁refugee	-7220
profile	-7221
iva	-7222
ately	-7223
▁AC	-7224
▁transferred	-7225
▁affair	-7226
▁Alaska	-7227
oria	-7228
▁Change	-7229
▁repeat	-7230
▁screening	-7231
ender	-7232
▁Cas	-7233
▁Dav	-7234
▁focuses	-7235
▁commissioner	-7236
▁upside	-7237
▁Keep	-7238
▁Blues	-7239
ently	-7240
▁aut	-7241
▁experiencing	-7242
aman	-7243
▁approve	-7244
▁mile	-7245
▁cheaper	-7246
▁Wind	-7247
▁Store	-7248
▁grabbed	-7249
▁sons	-7250
▁fighter	-7251
▁um	-7252
▁Based	-7253
don	-7254
▁constitution	-7255
finals	-7256
act	-7257
¢	-7258
▁mill	-7259
▁organisations	-7260
▁Toyota	-7261
▁yuan	-7262
▁terrorists	-7263
▁forth	-7264
▁availability	-7265
▁entrance	-7266
▁volumes	-7267
▁mult	-7268
plus	-7269
▁Columbus	-7270
▁Summit	-7271
▁babies	-7272
▁Mur	-7273
▁Gray	-7274
▁Char	-7275
▁Butler	-7276
▁pose	-7277
▁Natural	-7278
▁Att	-7279
▁decrease	-7280
▁tens	-7281
kt	-7282
▁minds	-7283
▁impacted	-7284
▁chapter	-7285
▁Op	-7286
▁Harrison	-7287
▁Rodriguez	-7288
▁ethnic	-7289
▁travelling	-7290
▁Bond	-7291
ader	-7292
core	-7293
▁gallery	-7294
founder	-7295
▁Vill	-7296
▁decent	-7297
▁History	-7298
▁Int	-7299
▁Na	-7300
▁Had	-7301
▁mainstream	-7302
▁Ts	-7303
▁bottle	-7304
sen	-7305
▁recession	-7306
▁sophomore	-7307
▁silence	-7308
cc	-7309
▁qualifying	-7310
▁complained	-7311
▁Rad	-7312
▁actively	-7313
▁backs	-7314
▁Musk	-7315
▁careful	-7316
▁meals	-7317
▁Dor	-7318
▁mess	-7319
▁Belgium	-7320
▁ke	-7321
▁Lopez	-7322
▁bow	-7323
▁helicopter	-7324
was	-7325
▁stone	-7326
kins	-7327
▁unlike	-7328
▁collision	-7329
▁Alt	-7330
HP	-7331
▁Mason	-7332
has	-7333
▁climbed	-7334
▁indication	-7335
▁hotels	-7336
▁loud	-7337
▁Milan	-7338
kes	-7339
▁badly	-7340
▁trials	-7341
▁impacts	-7342
▁Jane	-7343
▁crossed	-7344
▁discussing	-7345
▁SM	-7346
▁popularity	-7347
▁Want	-7348
fall	-7349
▁artificial	-7350
▁Bu	-7351
akh	-7352
▁dominant	-7353
gov	-7354
▁premier	-7355
▁execution	-7356
gate	-7357
▁swimming	-7358
▁chat	-7359
▁devastating	-7360
acking	-7361
▁reception	-7362
urt	-7363
▁theater	-7364
▁gather	-7365
▁tear	-7366
uro	-7367
▁democratic	-7368
▁rebels	-7369
▁lifetime	-7370
▁radical	-7371
uan	-7372
▁techniques	-7373
ache	-7374
ior	-7375
▁camps	-7376
▁telephone	-7377
▁Dublin	-7378
▁Brand	-7379
▁Marcus	-7380
aun	-7381
▁Rec	-7382
▁82	-7383
ban	-7384
▁safely	-7385
aku	-7386
aki	-7387
▁bankruptcy	-7388
FF	-7389
▁format	-7390
▁attached	-7391
▁Fame	-7392
▁Edward	-7393
▁merger	-7394
▁Representatives	-7395
izes	-7396
▁hidden	-7397
▁val	-7398
zz	-7399
▁excess	-7400
▁scope	-7401
▁divorce	-7402
▁burn	-7403
▁requirement	-7404
BB	-7405
▁Hand	-7406
▁cons	-7407
▁risen	-7408
▁twitter	-7409
▁offseason	-7410
▁Sometimes	-7411
▁Inf	-7412
▁Ang	-7413
uer	-7414
report	-7415
▁dreams	-7416
▁700	-7417
ips	-7418
▁Dream	-7419
▁gifts	-7420
▁somehow	-7421
▁Tur	-7422
▁Rachel	-7423
can	-7424
▁log	-7425
▁Medicaid	-7426
▁les	-7427
▁tired	-7428
▁Arkansas	-7429
▁liquidity	-7430
▁Phillips	-7431
▁BTC	-7432
▁hide	-7433
▁pun	-7434
▁Run	-7435
lyn	-7436
▁UC	-7437
▁Design	-7438
▁Dev	-7439
▁valuation	-7440
▁reveals	-7441
▁Child	-7442
other	-7443
▁posed	-7444
lee	-7445
▁ships	-7446
▁True	-7447
▁describes	-7448
▁runner	-7449
bro	-7450
▁ankle	-7451
▁od	-7452
▁Annual	-7453
CL	-7454
▁overhaul	-7455
ned	-7456
▁bold	-7457
▁mo	-7458
▁Falls	-7459
▁employed	-7460
▁Gro	-7461
▁flash	-7462
▁TD	-7463
▁nervous	-7464
▁integration	-7465
▁smartphones	-7466
▁movements	-7467
nie	-7468
ition	-7469
▁Third	-7470
Ģ	-7471
▁metres	-7472
▁economist	-7473
omp	-7474
▁teens	-7475
▁everyday	-7476
▁interviewed	-7477
▁briefly	-7478
],	-7479
uke	-7480
▁FOX	-7481
▁underlying	-7482
▁Luc	-7483
▁courses	-7484
ss	-7485
amed	-7486
°	-7487
ju	-7488
▁Banks	-7489
▁outfit	-7490
illing	-7491
▁trafficking	-7492
▁urging	-7493
▁belt	-7494
▁rid	-7495
CP	-7496
▁elderly	-7497
▁Growth	-7498
Ã¡n	-7499
▁Sn	-7500
▁surrounded	-7501
▁sisters	-7502
▁Islam	-7503
▁synd	-7504
▁Costa	-7505
di	-7506
▁Kl	-7507
▁manufacturer	-7508
holders	-7509
▁element	-7510
▁load	-7511
▁booked	-7512
▁accompanied	-7513
▁Chamber	-7514
▁briefing	-7515
Oh	-7516
imi	-7517
▁Defence	-7518
▁Currently	-7519
aking	-7520
▁handled	-7521
▁CD	-7522
▁Benjamin	-7523
▁pocket	-7524
▁Kashmir	-7525
▁lighting	-7526
aps	-7527
▁1997	-7528
ech	-7529
▁addiction	-7530
▁bases	-7531
▁priorities	-7532
▁hardly	-7533
▁Quebec	-7534
▁Earn	-7535
IES	-7536
▁Zach	-7537
▁Along	-7538
MI	-7539
▁ins	-7540
▁Rogers	-7541
▁Kan	-7542
▁Future	-7543
▁triggered	-7544
▁Unit	-7545
▁weighed	-7546
▁pointing	-7547
▁chocolate	-7548
▁Browns	-7549
▁ISIS	-7550
▁goalkeeper	-7551
▁saves	-7552
▁Andre	-7553
burn	-7554
▁Cont	-7555
▁Netherlands	-7556
▁politically	-7557
▁Ashley	-7558
▁Whit	-7559
aded	-7560
PH	-7561
▁borders	-7562
ORE	-7563
▁ally	-7564
Trump	-7565
istan	-7566
▁Hunt	-7567
▁Cancer	-7568
▁Grace	-7569
▁Tottenham	-7570
▁1960	-7571
▁Marg	-7572
▁Bryan	-7573
▁Again	-7574
acing	-7575
▁arguments	-7576
▁Southwest	-7577
▁vocal	-7578
▁judgment	-7579
▁engaging	-7580
▁adopt	-7581
▁rental	-7582
▁linebacker	-7583
▁Kardashian	-7584
▁episodes	-7585
..	-7586
▁unt	-7587
▁vowed	-7588
▁79	-7589
ule	-7590
▁transit	-7591
▁offshore	-7592
▁suppliers	-7593
▁arguing	-7594
▁satellite	-7595
▁Lind	-7596
▁Taliban	-7597
Buy	-7598
▁Caribbean	-7599
▁Barry	-7600
▁authors	-7601
▁Wolf	-7602
▁viewing	-7603
▁Cubs	-7604
From	-7605
▁%	-7606
▁currencies	-7607
Why	-7608
▁Broncos	-7609
▁trick	-7610
▁diesel	-7611
▁Liberal	-7612
FL	-7613
▁topics	-7614
▁retain	-7615
▁Liberty	-7616
▁acquisitions	-7617
ced	-7618
▁fre	-7619
▁fleet	-7620
▁copper	-7621
▁Pot	-7622
jen	-7623
▁Elliott	-7624
▁Pyongyang	-7625
▁object	-7626
▁Use	-7627
▁mutual	-7628
MP	-7629
▁ev	-7630
▁deny	-7631
▁Everyone	-7632
lling	-7633
▁pays	-7634
▁drought	-7635
▁corn	-7636
▁workplace	-7637
rig	-7638
▁Mn	-7639
▁advisory	-7640
▁Cat	-7641
▁chronic	-7642
▁Steelers	-7643
▁boxes	-7644
▁Nap	-7645
▁demonstrated	-7646
▁Tournament	-7647
▁symbol	-7648
▁Afghan	-7649
▁Tan	-7650
ired	-7651
▁Ev	-7652
▁Consumer	-7653
▁moral	-7654
▁Additional	-7655
▁websites	-7656
▁occasions	-7657
▁fate	-7658
▁pitcher	-7659
▁taxpayers	-7660
▁deemed	-7661
▁Libya	-7662
▁priced	-7663
▁distributed	-7664
▁Forum	-7665
▁rice	-7666
▁bloc	-7667
▁provisions	-7668
agh	-7669
▁pen	-7670
▁attracted	-7671
▁Edmonton	-7672
▁thousand	-7673
▁painting	-7674
▁il	-7675
▁courtesy	-7676
▁eliminate	-7677
▁acc	-7678
▁meters	-7679
▁reflected	-7680
▁component	-7681
Every	-7682
▁sells	-7683
▁fault	-7684
▁burned	-7685
▁Kirk	-7686
▁Anna	-7687
▁appeals	-7688
▁eggs	-7689
▁frequent	-7690
▁trigger	-7691
▁revised	-7692
▁Angela	-7693
▁81	-7694
▁singles	-7695
▁viral	-7696
▁worries	-7697
▁Should	-7698
profit	-7699
▁raises	-7700
▁Bryant	-7701
▁Product	-7702
▁tenure	-7703
▁diabetes	-7704
▁colour	-7705
azz	-7706
▁Girls	-7707
▁practical	-7708
▁blind	-7709
ancing	-7710
pictured	-7711
▁finale	-7712
▁Election	-7713
▁athletic	-7714
▁promoted	-7715
▁flowers	-7716
▁trains	-7717
ario	-7718
▁sufficient	-7719
IE	-7720
▁examples	-7721
▁shed	-7722
▁birds	-7723
▁chaos	-7724
▁wound	-7725
▁rocket	-7726
▁wet	-7727
▁sample	-7728
▁Nag	-7729
▁Oliver	-7730
▁scrutiny	-7731
▁Seven	-7732
▁Roman	-7733
▁Fred	-7734
▁weird	-7735
▁Tam	-7736
▁Support	-7737
▁Nathan	-7738
▁studying	-7739
▁introduction	-7740
▁tons	-7741
cer	-7742
aus	-7743
ION	-7744
▁critic	-7745
▁Ah	-7746
alo	-7747
pur	-7748
▁storms	-7749
▁Mission	-7750
▁credits	-7751
▁grants	-7752
▁comp	-7753
▁hearts	-7754
part	-7755
▁pin	-7756
▁subsequent	-7757
▁mad	-7758
▁Sacramento	-7759
woman	-7760
from	-7761
▁outcomes	-7762
▁oldest	-7763
▁desperate	-7764
▁Tal	-7765
▁DJ	-7766
ward	-7767
▁audiences	-7768
▁importantly	-7769
▁Emily	-7770
sk	-7771
▁Heat	-7772
▁Type	-7773
▁Peace	-7774
▁suspicious	-7775
aly	-7776
▁GET	-7777
▁CAP	-7778
dis	-7779
▁Iraqi	-7780
▁Reed	-7781
▁strange	-7782
▁Parent	-7783
900	-7784
▁glad	-7785
▁Troy	-7786
▁Short	-7787
▁heritage	-7788
▁arriving	-7789
ingly	-7790
▁transformation	-7791
▁lease	-7792
▁collapsed	-7793
cha	-7794
▁Patrol	-7795
▁computers	-7796
▁principles	-7797
▁sporting	-7798
▁Hughes	-7799
mile	-7800
▁Cit	-7801
▁drilling	-7802
▁Box	-7803
ÃŁ	-7804
bre	-7805
▁Overall	-7806
▁opioid	-7807
▁delighted	-7808
▁honored	-7809
▁Cold	-7810
▁unions	-7811
▁Cou	-7812
▁Circuit	-7813
▁blast	-7814
sson	-7815
▁Hernandez	-7816
▁Looking	-7817
▁legally	-7818
▁Walmart	-7819
bridge	-7820
▁mat	-7821
rad	-7822
ids	-7823
▁dining	-7824
▁rebound	-7825
abad	-7826
▁Rom	-7827
▁impose	-7828
▁Alpha	-7829
▁Weekly	-7830
TER	-7831
▁Jam	-7832
▁absolute	-7833
▁inventory	-7834
▁Billy	-7835
▁Karen	-7836
▁Friends	-7837
▁Cent	-7838
▁Vikings	-7839
▁Much	-7840
cell	-7841
ads	-7842
▁ph	-7843
▁killer	-7844
▁Members	-7845
▁shooter	-7846
▁Investigators	-7847
▁Joshua	-7848
▁participated	-7849
▁innocent	-7850
▁Richmond	-7851
itor	-7852
▁Dal	-7853
▁Operator	-7854
▁makeup	-7855
▁conf	-7856
▁NEWS	-7857
▁Def	-7858
▁chase	-7859
▁Cost	-7860
mont	-7861
":	-7862
▁arrangements	-7863
stein	-7864
▁retire	-7865
▁Luis	-7866
▁renewed	-7867
▁Township	-7868
▁checked	-7869
arts	-7870
▁Cash	-7871
▁centres	-7872
chers	-7873
▁Solutions	-7874
▁legend	-7875
ige	-7876
most	-7877
osed	-7878
▁Por	-7879
▁premiere	-7880
FS	-7881
▁missiles	-7882
▁Lang	-7883
▁sing	-7884
best	-7885
▁tail	-7886
▁riders	-7887
Picture	-7888
zen	-7889
▁Kent	-7890
▁transform	-7891
▁wildlife	-7892
▁smoking	-7893
▁preseason	-7894
▁Lucas	-7895
▁Anne	-7896
owski	-7897
▁tape	-7898
▁displayed	-7899
▁forum	-7900
▁anonymity	-7901
▁Indianapolis	-7902
hips	-7903
acc	-7904
▁Moreover	-7905
lers	-7906
area	-7907
▁Indeed	-7908
▁conducting	-7909
▁infection	-7910
▁dealt	-7911
OB	-7912
asing	-7913
▁Gaza	-7914
itter	-7915
▁Ka	-7916
▁hopeful	-7917
▁Snow	-7918
▁entitled	-7919
▁affecting	-7920
▁eager	-7921
▁circle	-7922
▁laugh	-7923
▁Prosecutors	-7924
▁Dur	-7925
▁barriers	-7926
▁Poll	-7927
oun	-7928
▁Palm	-7929
chi	-7930
▁samples	-7931
▁compromise	-7932
atter	-7933
▁enormous	-7934
▁Ã©	-7935
coming	-7936
▁Pharmaceutical	-7937
▁rank	-7938
Let	-7939
▁transgender	-7940
▁Cloud	-7941
FO	-7942
▁Bor	-7943
▁bonus	-7944
▁ordinary	-7945
▁Pres	-7946
▁HIV	-7947
ires	-7948
OSE	-7949
▁dancing	-7950
▁HD	-7951
▁versions	-7952
▁88	-7953
rate	-7954
▁tackles	-7955
▁knock	-7956
▁Emma	-7957
▁motivated	-7958
▁Bennett	-7959
▁Burn	-7960
▁grid	-7961
▁embrace	-7962
▁Spurs	-7963
▁flows	-7964
▁Ger	-7965
▁sponsored	-7966
▁survival	-7967
ching	-7968
▁1995	-7969
▁reward	-7970
▁depends	-7971
▁postseason	-7972
▁loaded	-7973
▁neutral	-7974
▁Pop	-7975
BL	-7976
▁revolution	-7977
▁Freedom	-7978
▁recovering	-7979
▁requiring	-7980
ALL	-7981
ARE	-7982
▁mini	-7983
lt	-7984
▁FDA	-7985
▁carpet	-7986
▁Prior	-7987
▁admission	-7988
▁Ever	-7989
▁Tribune	-7990
▁Ronaldo	-7991
▁thick	-7992
▁lanes	-7993
▁84	-7994
▁Memphis	-7995
▁opt	-7996
BO	-7997
▁faculty	-7998
▁Chad	-7999
▁SUV	-8000
▁Hen	-8001
▁este	-8002
▁Hu	-8003
▁Agriculture	-8004
store	-8005
▁Drug	-8006
inter	-8007
▁1996	-8008
ident	-8009
▁backup	-8010
▁Honda	-8011
▁Hope	-8012
oes	-8013
ums	-8014
amer	-8015
▁breath	-8016
▁110	-8017
▁joke	-8018
▁Ald	-8019
▁wondering	-8020
▁Assad	-8021
▁Rem	-8022
▁fundraising	-8023
pot	-8024
Ã¨	-8025
▁questioning	-8026
▁pent	-8027
▁Money	-8028
▁Medicine	-8029
wick	-8030
▁Knights	-8031
▁batting	-8032
▁Mos	-8033
▁designated	-8034
isse	-8035
▁spotlight	-8036
▁lake	-8037
▁caution	-8038
▁inmates	-8039
▁lap	-8040
CE	-8041
▁Javascript	-8042
▁Deutsche	-8043
▁Fargo	-8044
▁guaranteed	-8045
borough	-8046
▁functions	-8047
▁Elementary	-8048
▁Chuck	-8049
▁pitched	-8050
▁Krist	-8051
▁steal	-8052
▁chips	-8053
▁alarm	-8054
▁beloved	-8055
scale	-8056
▁assaulted	-8057
▁Pentagon	-8058
▁temporarily	-8059
▁93	-8060
▁>	-8061
▁Portugal	-8062
ti	-8063
HL	-8064
▁decreased	-8065
▁existence	-8066
▁isolated	-8067
▁deposit	-8068
▁studied	-8069
")	-8070
▁trophy	-8071
▁Brooks	-8072
▁battling	-8073
▁weaker	-8074
▁Private	-8075
▁Access	-8076
▁virtually	-8077
▁shortage	-8078
▁gaining	-8079
▁bathroom	-8080
TON	-8081
▁concerning	-8082
▁engineer	-8083
▁bread	-8084
▁demonstrate	-8085
▁Dh	-8086
▁horses	-8087
▁intersection	-8088
▁colors	-8089
▁delegation	-8090
▁notable	-8091
▁withdrawal	-8092
▁Dennis	-8093
▁locally	-8094
▁coastal	-8095
▁comply	-8096
▁Moh	-8097
▁Albert	-8098
▁closest	-8099
▁CITY	-8100
▁83	-8101
▁cancelled	-8102
▁ðŁ	-8103
▁sharply	-8104
RS	-8105
▁productivity	-8106
▁basket	-8107
SS	-8108
▁admit	-8109
ool	-8110
ination	-8111
▁BB	-8112
▁sur	-8113
▁Steel	-8114
▁Ted	-8115
▁Pac	-8116
▁patterns	-8117
▁listing	-8118
▁replacing	-8119
▁Pradesh	-8120
▁roots	-8121
▁broker	-8122
▁Writing	-8123
▁sued	-8124
▁organised	-8125
▁Thanksgiving	-8126
▁NOT	-8127
▁journalism	-8128
uel	-8129
▁kilometers	-8130
▁hunt	-8131
berry	-8132
▁Mother	-8133
▁legitimate	-8134
▁input	-8135
▁Rel	-8136
▁Guardian	-8137
Ar	-8138
▁transported	-8139
▁bedroom	-8140
ashing	-8141
▁bats	-8142
▁cleaning	-8143
▁wrapped	-8144
Pacific	-8145
▁fence	-8146
▁testified	-8147
▁1994	-8148
▁interference	-8149
▁matching	-8150
▁expression	-8151
eta	-8152
▁Spencer	-8153
▁strategist	-8154
who	-8155
▁victories	-8156
▁2022	-8157
▁stakes	-8158
▁buses	-8159
▁Housing	-8160
▁editorial	-8161
▁86	-8162
▁Bishop	-8163
▁frustrated	-8164
▁appearing	-8165
http	-8166
IGHT	-8167
▁memo	-8168
▁insiders	-8169
Even	-8170
▁classroom	-8171
▁chef	-8172
aining	-8173
].	-8174
▁McD	-8175
▁87	-8176
▁Punjab	-8177
▁ancient	-8178
▁resolved	-8179
▁dying	-8180
▁destruction	-8181
▁governing	-8182
▁restructuring	-8183
▁Pick	-8184
▁municipal	-8185
▁engines	-8186
▁Hudson	-8187
Æ	-8188
▁repeal	-8189
standing	-8190
▁bound	-8191
▁OS	-8192
▁Commonwealth	-8193
▁description	-8194
▁households	-8195
▁mal	-8196
▁stopping	-8197
equ	-8198
▁regulator	-8199
▁containing	-8200
▁removing	-8201
▁withdraw	-8202
▁buried	-8203
▁lists	-8204
▁Gil	-8205
▁lowered	-8206
▁formally	-8207
▁Round	-8208
asi	-8209
¥	-8210
lett	-8211
▁progressive	-8212
▁Falcons	-8213
▁Raw	-8214
gun	-8215
▁contributing	-8216
▁hunting	-8217
▁valid	-8218
▁exception	-8219
▁Players	-8220
▁Tra	-8221
▁racism	-8222
hing	-8223
chen	-8224
▁differently	-8225
▁championships	-8226
▁Eng	-8227
▁NO	-8228
▁Auto	-8229
▁Erdogan	-8230
iding	-8231
▁warming	-8232
▁civilian	-8233
▁Dam	-8234
▁fantasy	-8235
▁Nav	-8236
itions	-8237
▁Drew	-8238
▁Nancy	-8239
▁trapped	-8240
▁Russians	-8241
▁IC	-8242
▁flexibility	-8243
ular	-8244
▁violated	-8245
ipped	-8246
▁garage	-8247
▁Deep	-8248
▁praise	-8249
▁Lab	-8250
▁Player	-8251
▁judicial	-8252
▁donate	-8253
▁separated	-8254
▁releases	-8255
nik	-8256
▁explanation	-8257
aph	-8258
▁loyal	-8259
▁strongest	-8260
▁Shar	-8261
▁rescued	-8262
▁ambitious	-8263
▁climb	-8264
▁scared	-8265
▁ignored	-8266
cut	-8267
▁stole	-8268
▁weakness	-8269
▁Ridge	-8270
oa	-8271
LA	-8272
▁dep	-8273
▁Powell	-8274
Do	-8275
▁protein	-8276
▁reiterated	-8277
▁Cox	-8278
aling	-8279
▁Unlike	-8280
▁Kane	-8281
▁McConnell	-8282
▁showcase	-8283
▁uniform	-8284
ower	-8285
▁discover	-8286
stop	-8287
ipper	-8288
▁treatments	-8289
▁grocery	-8290
▁subscribers	-8291
lock	-8292
ple	-8293
▁flew	-8294
ania	-8295
▁stepping	-8296
▁Soviet	-8297
▁consultant	-8298
ags	-8299
▁Lim	-8300
▁91	-8301
▁Code	-8302
ports	-8303
box	-8304
▁lakh	-8305
▁reminder	-8306
ym	-8307
▁Travis	-8308
▁pure	-8309
now	-8310
▁VR	-8311
▁achievement	-8312
▁Emirates	-8313
▁Thunder	-8314
▁merely	-8315
▁Ca	-8316
▁Average	-8317
▁Da	-8318
▁topped	-8319
▁Curry	-8320
▁chemicals	-8321
▁amendment	-8322
▁Border	-8323
▁Bat	-8324
▁130	-8325
▁programming	-8326
▁tele	-8327
▁Karl	-8328
▁averaged	-8329
▁Spe	-8330
world	-8331
PG	-8332
▁fights	-8333
▁Princess	-8334
▁CIA	-8335
▁Abe	-8336
▁acted	-8337
only	-8338
▁insight	-8339
▁athlete	-8340
▁Tar	-8341
commerce	-8342
▁averaging	-8343
cr	-8344
▁Palestinians	-8345
Well	-8346
▁bull	-8347
▁choosing	-8348
▁surely	-8349
▁Secret	-8350
▁teammate	-8351
▁Amendment	-8352
▁Birmingham	-8353
▁excitement	-8354
strong	-8355
▁Sin	-8356
▁damages	-8357
rated	-8358
▁rankings	-8359
▁conservation	-8360
home	-8361
erm	-8362
ield	-8363
▁disorder	-8364
acher	-8365
▁naturally	-8366
atur	-8367
▁packages	-8368
▁approaches	-8369
icks	-8370
ourn	-8371
▁odd	-8372
▁shore	-8373
▁Being	-8374
▁magic	-8375
▁tourist	-8376
largest	-8377
▁whenever	-8378
▁lenders	-8379
▁egg	-8380
▁Chair	-8381
▁lets	-8382
▁warnings	-8383
į	-8384
▁pol	-8385
▁drag	-8386
▁Amb	-8387
▁Cle	-8388
▁Louisville	-8389
▁Shaw	-8390
lands	-8391
▁anthem	-8392
▁Trail	-8393
▁accepting	-8394
anger	-8395
good	-8396
▁Broad	-8397
▁Lebanon	-8398
▁Million	-8399
▁Henderson	-8400
▁wh	-8401
▁dust	-8402
▁92	-8403
▁Mend	-8404
▁checking	-8405
▁Cow	-8406
sized	-8407
▁automatic	-8408
▁celebrates	-8409
▁arena	-8410
▁finger	-8411
▁Harvard	-8412
▁frustration	-8413
▁strict	-8414
▁preserve	-8415
▁sleeping	-8416
▁converted	-8417
▁insights	-8418
▁tra	-8419
▁jailed	-8420
▁chamber	-8421
▁toxic	-8422
ading	-8423
▁Triple	-8424
grade	-8425
▁Rest	-8426
▁Holy	-8427
oper	-8428
▁desk	-8429
▁matchup	-8430
▁steep	-8431
▁Got	-8432
lay	-8433
▁Cab	-8434
aked	-8435
▁Foster	-8436
▁runners	-8437
▁NA	-8438
▁destroy	-8439
▁supportive	-8440
▁Racing	-8441
▁trademark	-8442
▁jacket	-8443
▁horror	-8444
▁Ale	-8445
▁ass	-8446
▁sch	-8447
abb	-8448
▁planes	-8449
▁impression	-8450
▁Early	-8451
▁Pompe	-8452
▁king	-8453
▁silent	-8454
▁Cuba	-8455
▁medication	-8456
ences	-8457
list	-8458
ailing	-8459
WA	-8460
ella	-8461
▁prop	-8462
▁halt	-8463
▁slowing	-8464
▁Foods	-8465
▁anonymous	-8466
kh	-8467
▁traveled	-8468
▁communicate	-8469
▁ter	-8470
▁Hockey	-8471
▁Robin	-8472
▁swept	-8473
▁clinic	-8474
ration	-8475
len	-8476
▁au	-8477
▁careers	-8478
▁Sound	-8479
▁addresses	-8480
China	-8481
▁Sr	-8482
▁exhibit	-8483
▁Motors	-8484
▁Il	-8485
▁install	-8486
▁Okay	-8487
▁>>	-8488
hood	-8489
stand	-8490
▁audit	-8491
▁cake	-8492
▁flames	-8493
bel	-8494
▁Must	-8495
▁Manafort	-8496
▁commodity	-8497
night	-8498
▁Room	-8499
▁Lanka	-8500
▁commander	-8501
ln	-8502
▁database	-8503
▁Set	-8504
▁graduated	-8505
▁Target	-8506
▁outbreak	-8507
rou	-8508
▁Pope	-8509
▁Equ	-8510
▁polling	-8511
▁dig	-8512
▁brutal	-8513
▁Barn	-8514
▁definition	-8515
▁pit	-8516
▁pickup	-8517
▁Bitcoin	-8518
▁Reid	-8519
▁loving	-8520
▁Herald	-8521
▁Canadians	-8522
▁neighbor	-8523
▁dies	-8524
ione	-8525
▁Ref	-8526
big	-8527
▁guards	-8528
including	-8529
ente	-8530
▁partially	-8531
Image	-8532
▁bulk	-8533
▁slot	-8534
▁Northwest	-8535
▁Barclays	-8536
▁airlines	-8537
iver	-8538
isi	-8539
▁subsidiary	-8540
▁cont	-8541
▁Daniels	-8542
▁script	-8543
▁unfair	-8544
▁screens	-8545
▁prof	-8546
▁Irma	-8547
▁1992	-8548
▁mandatory	-8549
▁Sant	-8550
▁suspicion	-8551
NES	-8552
▁Lauren	-8553
igen	-8554
▁prevention	-8555
▁tension	-8556
ema	-8557
▁tasks	-8558
▁shake	-8559
▁explosive	-8560
▁affects	-8561
▁mum	-8562
▁Dog	-8563
rer	-8564
▁opted	-8565
▁trio	-8566
▁lesson	-8567
▁automotive	-8568
where	-8569
▁Montgomery	-8570
▁couples	-8571
▁89	-8572
AF	-8573
▁info	-8574
▁Form	-8575
▁spectrum	-8576
▁bands	-8577
▁okay	-8578
▁stroke	-8579
▁Netanyahu	-8580
▁wealthy	-8581
▁Around	-8582
▁Glenn	-8583
sec	-8584
there	-8585
ickets	-8586
▁Budget	-8587
▁BMW	-8588
▁flagship	-8589
rier	-8590
▁podcast	-8591
▁pursuing	-8592
▁pos	-8593
▁Islands	-8594
▁Urban	-8595
page	-8596
▁emotions	-8597
ided	-8598
▁dividends	-8599
▁boom	-8600
▁accusing	-8601
ird	-8602
▁Nam	-8603
ava	-8604
▁wishes	-8605
▁Ny	-8606
▁Stanford	-8607
▁criteria	-8608
▁Jews	-8609
▁engineers	-8610
▁accuracy	-8611
▁displays	-8612
▁deserves	-8613
ridge	-8614
omm	-8615
aur	-8616
▁dramatically	-8617
▁unity	-8618
speed	-8619
▁declining	-8620
▁permits	-8621
▁Kn	-8622
▁consulting	-8623
aux	-8624
ATE	-8625
▁Wat	-8626
▁Editor	-8627
sy	-8628
urn	-8629
▁Using	-8630
asc	-8631
ital	-8632
▁cre	-8633
quality	-8634
▁ce	-8635
▁enemy	-8636
▁offence	-8637
icket	-8638
▁Dick	-8639
▁TH	-8640
▁Championships	-8641
▁overwhelming	-8642
rib	-8643
ku	-8644
rap	-8645
▁homer	-8646
acion	-8647
member	-8648
erv	-8649
aney	-8650
MB	-8651
eded	-8652
▁punishment	-8653
▁negotiate	-8654
▁File	-8655
stream	-8656
▁Hur	-8657
▁nose	-8658
▁Fab	-8659
iter	-8660
▁painful	-8661
ITY	-8662
eren	-8663
▁collecting	-8664
Additional	-8665
▁entrepreneurs	-8666
bal	-8667
▁exploring	-8668
▁guitar	-8669
▁partnerships	-8670
▁furniture	-8671
▁authorized	-8672
▁easing	-8673
shirt	-8674
▁Gross	-8675
▁politician	-8676
▁Simpson	-8677
▁drone	-8678
▁Katie	-8679
▁profitability	-8680
▁NHS	-8681
▁Sierra	-8682
▁Norway	-8683
ASHINGTON	-8684
ific	-8685
▁condemned	-8686
team	-8687
▁Nebraska	-8688
▁thrilled	-8689
iller	-8690
▁patrol	-8691
▁WR	-8692
orm	-8693
▁spectacular	-8694
▁Knight	-8695
▁Travel	-8696
nam	-8697
▁muscle	-8698
▁Rain	-8699
▁Colombia	-8700
▁nursing	-8701
▁migration	-8702
▁Mitch	-8703
▁releasing	-8704
▁Besides	-8705
▁Mul	-8706
▁headline	-8707
▁contemporary	-8708
▁dev	-8709
▁Chan	-8710
▁indicates	-8711
▁Ap	-8712
▁Lt	-8713
▁Marvel	-8714
▁remembered	-8715
Â®	-8716
▁Forces	-8717
▁Colin	-8718
▁Gabriel	-8719
▁objects	-8720
▁RHP	-8721
kar	-8722
▁Ko	-8723
▁signals	-8724
▁inner	-8725
real	-8726
RO	-8727
▁romantic	-8728
cat	-8729
▁Kel	-8730
▁gut	-8731
▁Boys	-8732
▁youngest	-8733
▁Celtics	-8734
▁slated	-8735
▁remind	-8736
▁productive	-8737
set	-8738
Co	-8739
▁Bailey	-8740
▁renewable	-8741
▁Carson	-8742
▁Dj	-8743
▁Kos	-8744
▁urge	-8745
▁fin	-8746
▁pursuit	-8747
▁CON	-8748
▁Chapter	-8749
▁pal	-8750
▁gate	-8751
▁Packers	-8752
▁Reports	-8753
▁Rugby	-8754
▁Masters	-8755
MO	-8756
▁98	-8757
▁catches	-8758
▁Agreement	-8759
▁Tillerson	-8760
▁Ice	-8761
▁rumors	-8762
▁Leonard	-8763
▁Dolphins	-8764
▁LP	-8765
top	-8766
▁Crist	-8767
▁Hon	-8768
▁blaze	-8769
▁rhetoric	-8770
ands	-8771
ady	-8772
David	-8773
igh	-8774
▁buzz	-8775
▁Strong	-8776
▁shocking	-8777
▁Rh	-8778
▁negotiating	-8779
▁tender	-8780
▁Johnny	-8781
▁Mario	-8782
▁97	-8783
▁Heritage	-8784
▁exists	-8785
▁prayers	-8786
▁lengthy	-8787
▁safer	-8788
▁Halloween	-8789
▁Jared	-8790
▁Connect	-8791
▁bump	-8792
▁strain	-8793
▁filling	-8794
▁trauma	-8795
▁completing	-8796
cht	-8797
▁killings	-8798
anne	-8799
GE	-8800
▁Rescue	-8801
▁dealers	-8802
▁locals	-8803
▁Victor	-8804
▁tragic	-8805
▁delivers	-8806
orts	-8807
▁rugby	-8808
▁installation	-8809
asa	-8810
▁Bart	-8811
▁journal	-8812
school	-8813
▁Come	-8814
▁Veterans	-8815
Sun	-8816
▁crowds	-8817
▁transparent	-8818
▁implications	-8819
▁Huawei	-8820
sex	-8821
▁rallied	-8822
▁responses	-8823
▁debris	-8824
▁convention	-8825
▁mothers	-8826
BE	-8827
▁Route	-8828
▁rebel	-8829
▁Emmanuel	-8830
aster	-8831
▁understands	-8832
pound	-8833
▁Castle	-8834
▁2021	-8835
rik	-8836
▁GR	-8837
▁convince	-8838
ault	-8839
▁passionate	-8840
▁Sciences	-8841
▁arrives	-8842
idad	-8843
▁celebrities	-8844
ends	-8845
▁Fans	-8846
▁dish	-8847
▁Corps	-8848
hat	-8849
▁employer	-8850
▁Hy	-8851
▁powered	-8852
▁grandmother	-8853
▁FL	-8854
oured	-8855
VE	-8856
▁Inst	-8857
▁Perez	-8858
▁tune	-8859
▁citizenship	-8860
▁ignore	-8861
▁doubles	-8862
IB	-8863
▁programmes	-8864
inda	-8865
▁entities	-8866
▁Interior	-8867
▁prompting	-8868
▁wire	-8869
▁theatre	-8870
%)	-8871
▁heels	-8872
▁Ju	-8873
▁deposits	-8874
▁trash	-8875
mond	-8876
she	-8877
iana	-8878
▁islands	-8879
▁Tommy	-8880
▁pub	-8881
▁discipline	-8882
▁SW	-8883
▁musicians	-8884
▁embassy	-8885
▁QB	-8886
hander	-8887
UES	-8888
▁Ferguson	-8889
▁blocking	-8890
ahn	-8891
▁fines	-8892
▁tactics	-8893
▁bullet	-8894
▁equipped	-8895
▁escaped	-8896
▁Sil	-8897
▁Pack	-8898
▁Athletic	-8899
▁Mic	-8900
▁Does	-8901
▁Carr	-8902
▁Chargers	-8903
▁Kyl	-8904
▁zones	-8905
µ	-8906
iki	-8907
▁greatly	-8908
▁MD	-8909
▁immigrant	-8910
▁Construction	-8911
▁Born	-8912
iment	-8913
▁Wade	-8914
▁visa	-8915
▁genuine	-8916
▁electronics	-8917
▁Sat	-8918
▁sponsors	-8919
▁Montana	-8920
▁spell	-8921
▁Sachs	-8922
▁Et	-8923
▁foster	-8924
▁locker	-8925
▁explaining	-8926
▁Age	-8927
▁gunman	-8928
▁sauce	-8929
▁cry	-8930
▁stimulus	-8931
▁array	-8932
▁compare	-8933
▁boats	-8934
▁ext	-8935
iders	-8936
▁Ast	-8937
▁Parks	-8938
ester	-8939
▁94	-8940
▁relating	-8941
▁vegetables	-8942
▁accountable	-8943
▁hyper	-8944
▁Wim	-8945
▁newest	-8946
▁Rome	-8947
▁Chancellor	-8948
CBS	-8949
▁businessman	-8950
▁Delaware	-8951
▁lands	-8952
court	-8953
aria	-8954
▁approaching	-8955
cker	-8956
▁Salt	-8957
▁Mak	-8958
▁treating	-8959
▁subsequently	-8960
▁Ell	-8961
xton	-8962
▁180	-8963
▁determination	-8964
▁Salman	-8965
▁Joel	-8966
▁classified	-8967
▁span	-8968
▁earthquake	-8969
ranked	-8970
▁96	-8971
▁Tiger	-8972
▁advocacy	-8973
mit	-8974
▁colleges	-8975
▁Yeah	-8976
▁Captain	-8977
▁orange	-8978
▁projections	-8979
▁electrical	-8980
▁MA	-8981
olog	-8982
▁Newcastle	-8983
oppers	-8984
▁representation	-8985
▁lawsuits	-8986
just	-8987
aced	-8988
▁Race	-8989
▁Aqu	-8990
▁Bills	-8991
▁exclusively	-8992
▁Profile	-8993
▁hometown	-8994
▁Stan	-8995
▁starring	-8996
▁deciding	-8997
▁Rating	-8998
▁Medicare	-8999
▁Transport	-9000
▁mystery	-9001
▁Ta	-9002
▁Pad	-9003
▁Swedish	-9004
▁Carroll	-9005
about	-9006
▁torn	-9007
▁nurse	-9008
NE	-9009
▁waited	-9010
▁Jeffrey	-9011
▁Until	-9012
▁bone	-9013
▁Bobby	-9014
▁pronounced	-9015
▁pharmaceutical	-9016
▁Gallery	-9017
▁Match	-9018
▁economists	-9019
▁Marketing	-9020
face	-9021
▁Petroleum	-9022
ories	-9023
▁Mets	-9024
▁Core	-9025
billion	-9026
▁examination	-9027
▁Porter	-9028
2016	-9029
▁golden	-9030
▁sem	-9031
▁Duterte	-9032
▁Jefferson	-9033
▁Tehran	-9034
▁Leicester	-9035
▁DA	-9036
▁adapt	-9037
▁Dame	-9038
▁Ric	-9039
▁unchanged	-9040
ect	-9041
▁sections	-9042
kg	-9043
igned	-9044
▁filings	-9045
▁react	-9046
▁urgent	-9047
▁vessels	-9048
▁spark	-9049
▁butter	-9050
▁Cons	-9051
▁stating	-9052
▁corporations	-9053
▁Hus	-9054
▁damaging	-9055
raw	-9056
▁equality	-9057
Two	-9058
▁Mills	-9059
iu	-9060
▁obligation	-9061
▁Brook	-9062
arian	-9063
Re	-9064
▁photographs	-9065
▁epic	-9066
▁Student	-9067
▁Therefore	-9068
▁god	-9069
▁FILE	-9070
iqu	-9071
▁describing	-9072
▁proceed	-9073
▁cas	-9074
▁Kat	-9075
▁Bra	-9076
▁adequate	-9077
▁passage	-9078
▁thanked	-9079
USA	-9080
▁Neither	-9081
▁Legislature	-9082
▁finances	-9083
▁inst	-9084
ĵ	-9085
▁Angels	-9086
▁vet	-9087
▁Dead	-9088
Ex	-9089
▁kicks	-9090
force	-9091
▁soy	-9092
▁Windsor	-9093
▁enhanced	-9094
▁1993	-9095
▁Czech	-9096
▁gradually	-9097
▁Magic	-9098
▁shadow	-9099
▁neighborhoods	-9100
▁Rivers	-9101
▁rapper	-9102
▁Girl	-9103
▁Rot	-9104
▁crackdown	-9105
fish	-9106
▁preventing	-9107
▁produces	-9108
▁Mi	-9109
▁notified	-9110
▁underground	-9111
WE	-9112
▁admits	-9113
▁boxing	-9114
▁refer	-9115
▁commitments	-9116
▁Woman	-9117
▁denies	-9118
col	-9119
▁Side	-9120
▁ambulance	-9121
▁Rodgers	-9122
▁aftermath	-9123
▁deck	-9124
irmed	-9125
▁errors	-9126
▁Convention	-9127
▁curb	-9128
▁Shop	-9129
▁Thai	-9130
▁ma	-9131
▁respected	-9132
▁MVP	-9133
▁borrowing	-9134
▁cruise	-9135
▁Sure	-9136
▁sentencing	-9137
▁Obamacare	-9138
▁Ir	-9139
▁Sale	-9140
▁Pete	-9141
▁openly	-9142
▁startup	-9143
rock	-9144
▁cargo	-9145
▁telecom	-9146
▁Download	-9147
▁extending	-9148
▁Current	-9149
▁competitions	-9150
▁Kids	-9151
▁shy	-9152
▁Kerry	-9153
▁Never	-9154
▁Devils	-9155
▁prim	-9156
Con	-9157
▁curve	-9158
▁assumed	-9159
▁adjust	-9160
▁immune	-9161
UE	-9162
▁Ur	-9163
▁conventional	-9164
▁grandchildren	-9165
▁Bol	-9166
Ad	-9167
▁Maduro	-9168
fi	-9169
▁UAE	-9170
▁Organ	-9171
▁indicating	-9172
iem	-9173
▁Against	-9174
▁Ambassador	-9175
▁Seoul	-9176
▁criminals	-9177
how	-9178
put	-9179
▁reminded	-9180
▁parked	-9181
lich	-9182
▁continent	-9183
▁matched	-9184
▁Nicole	-9185
▁genetic	-9186
▁humanity	-9187
▁Tem	-9188
▁indicator	-9189
▁vessel	-9190
▁defendant	-9191
▁Griffin	-9192
jan	-9193
▁vend	-9194
boro	-9195
▁brokerage	-9196
▁Fall	-9197
▁mere	-9198
VILLE	-9199
▁lasted	-9200
▁Mind	-9201
▁patch	-9202
▁Insider	-9203
▁Comm	-9204
▁technique	-9205
▁IM	-9206
▁Cavaliers	-9207
▁shame	-9208
▁mil	-9209
oot	-9210
irt	-9211
▁cop	-9212
▁Leon	-9213
▁frozen	-9214
▁slip	-9215
pton	-9216
▁panels	-9217
▁pitching	-9218
▁leather	-9219
▁Logan	-9220
▁Nearly	-9221
urch	-9222
▁instructions	-9223
▁Row	-9224
▁Kurdish	-9225
this	-9226
▁legendary	-9227
su	-9228
▁stabbed	-9229
sters	-9230
▁teenage	-9231
def	-9232
▁oversight	-9233
▁volatile	-9234
▁transmission	-9235
▁Sgt	-9236
▁Indigenous	-9237
▁Oxford	-9238
▁Casey	-9239
▁cor	-9240
▁salaries	-9241
▁sponsor	-9242
▁prescription	-9243
mat	-9244
▁Leeds	-9245
▁Pakistani	-9246
▁evil	-9247
▁tables	-9248
▁Abdul	-9249
▁expectation	-9250
▁legislature	-9251
▁Lin	-9252
¹	-9253
▁contractor	-9254
▁shifting	-9255
▁generous	-9256
▁Eddie	-9257
▁puck	-9258
utt	-9259
▁dubbed	-9260
▁nowhere	-9261
▁betting	-9262
▁disclose	-9263
Ĥ	-9264
▁Fashion	-9265
▁Harper	-9266
handed	-9267
isha	-9268
▁Reds	-9269
▁achievements	-9270
ume	-9271
▁shootings	-9272
▁advisers	-9273
▁Easter	-9274
▁internationally	-9275
▁Wi	-9276
▁Gandhi	-9277
▁Christians	-9278
▁recruiting	-9279
▁experiment	-9280
▁sol	-9281
▁difficulties	-9282
▁influential	-9283
▁hybrid	-9284
▁formation	-9285
▁Boulevard	-9286
▁flags	-9287
▁formula	-9288
front	-9289
▁inclusion	-9290
▁None	-9291
ICE	-9292
▁filming	-9293
▁Lou	-9294
▁Reynolds	-9295
▁pump	-9296
▁exceptional	-9297
ANG	-9298
▁Corporate	-9299
SAN	-9300
▁Healthcare	-9301
▁Ukrainian	-9302
aron	-9303
▁pants	-9304
▁drops	-9305
ete	-9306
▁Studies	-9307
▁wounds	-9308
END	-9309
▁shower	-9310
▁reviewing	-9311
▁Greater	-9312
▁Â»	-9313
itors	-9314
alled	-9315
▁squ	-9316
▁Ronald	-9317
▁Inv	-9318
▁tougher	-9319
▁balanced	-9320
▁lined	-9321
▁principle	-9322
▁1950	-9323
▁leak	-9324
Be	-9325
▁circuit	-9326
▁unfortunate	-9327
▁Gran	-9328
▁Fish	-9329
▁friendship	-9330
asp	-9331
OO	-9332
▁obligations	-9333
▁coup	-9334
OK	-9335
▁breakdown	-9336
▁hook	-9337
▁researcher	-9338
inated	-9339
▁Marie	-9340
▁Gab	-9341
▁WA	-9342
quez	-9343
General	-9344
▁Swift	-9345
▁gust	-9346
▁Carol	-9347
▁Century	-9348
▁OPEC	-9349
▁Rd	-9350
▁Cop	-9351
▁subjects	-9352
▁Comments	-9353
ases	-9354
▁relation	-9355
▁Environment	-9356
ı	-9357
▁gasoline	-9358
▁Log	-9359
▁icon	-9360
▁profitable	-9361
▁Retail	-9362
ANC	-9363
▁appealing	-9364
▁villages	-9365
▁pizza	-9366
▁mall	-9367
▁tower	-9368
▁Linda	-9369
▁accomplished	-9370
▁pod	-9371
▁leaked	-9372
▁Wed	-9373
▁mer	-9374
▁opposing	-9375
!'	-9376
▁stomach	-9377
▁revealing	-9378
▁ho	-9379
DF	-9380
▁Sterling	-9381
▁solely	-9382
▁pres	-9383
▁Cy	-9384
▁Latest	-9385
▁Pitt	-9386
▁Think	-9387
▁capability	-9388
aled	-9389
▁executed	-9390
alling	-9391
▁Silva	-9392
▁restricted	-9393
▁declaration	-9394
▁kilometres	-9395
rol	-9396
▁identifying	-9397
▁donors	-9398
vent	-9399
▁costly	-9400
ense	-9401
▁Seeking	-9402
OURCE	-9403
iving	-9404
▁placing	-9405
tech	-9406
▁bottles	-9407
writer	-9408
▁Seahawks	-9409
oming	-9410
▁Arthur	-9411
ously	-9412
bin	-9413
▁Va	-9414
▁bias	-9415
▁liability	-9416
ift	-9417
rak	-9418
aves	-9419
▁cautious	-9420
▁Prize	-9421
iley	-9422
▁Sharma	-9423
global	-9424
▁wars	-9425
sm	-9426
▁Remember	-9427
wind	-9428
▁Richardson	-9429
▁Sum	-9430
▁Vincent	-9431
▁Rice	-9432
inf	-9433
▁consultation	-9434
range	-9435
▁bacteria	-9436
▁architecture	-9437
▁pole	-9438
▁Mach	-9439
▁cattle	-9440
▁abused	-9441
being	-9442
▁HERE	-9443
▁fame	-9444
▁hearings	-9445
▁Brit	-9446
▁joins	-9447
▁McGregor	-9448
▁oppose	-9449
▁cheer	-9450
itting	-9451
imes	-9452
▁usage	-9453
▁stint	-9454
▁outlet	-9455
▁shoppers	-9456
▁Baptist	-9457
▁inappropriate	-9458
▁ALSO	-9459
▁stealing	-9460
▁pledge	-9461
▁Ran	-9462
▁photographer	-9463
▁prevented	-9464
▁01	-9465
▁Engineering	-9466
▁Products	-9467
▁universe	-9468
▁McCarthy	-9469
¿	-9470
graded	-9471
▁inspection	-9472
▁ind	-9473
Fi	-9474
aren	-9475
▁protections	-9476
▁sorts	-9477
▁Works	-9478
▁billionaire	-9479
▁Gay	-9480
▁iPad	-9481
IX	-9482
▁defendants	-9483
band	-9484
▁farms	-9485
▁hom	-9486
gal	-9487
iant	-9488
▁northeast	-9489
▁Joint	-9490
▁canceled	-9491
▁toys	-9492
▁rein	-9493
▁Tumblr	-9494
pees	-9495
▁Aut	-9496
Police	-9497
▁aide	-9498
▁achieving	-9499
▁mund	-9500
▁Commercial	-9501
first	-9502
▁anticipate	-9503
iac	-9504
▁probation	-9505
hem	-9506
▁ports	-9507
▁Ker	-9508
▁supplier	-9509
▁Father	-9510
▁Anti	-9511
ashed	-9512
▁Table	-9513
bledon	-9514
▁unf	-9515
▁Rash	-9516
▁LeBron	-9517
Car	-9518
bu	-9519
▁Derek	-9520
▁accounted	-9521
▁Pri	-9522
nings	-9523
▁receives	-9524
lev	-9525
▁bilateral	-9526
▁List	-9527
▁LG	-9528
▁Jazz	-9529
▁restored	-9530
▁battles	-9531
ials	-9532
▁occupied	-9533
▁repairs	-9534
▁radar	-9535
▁MLB	-9536
▁NC	-9537
▁flexible	-9538
▁Command	-9539
▁coat	-9540
▁Vir	-9541
▁Colts	-9542
▁BC	-9543
▁twin	-9544
▁prisoners	-9545
▁slowed	-9546
hop	-9547
▁Inn	-9548
▁conflicts	-9549
▁measured	-9550
▁autonomous	-9551
▁Bow	-9552
▁disc	-9553
inson	-9554
▁Sche	-9555
aire	-9556
▁SU	-9557
▁Peterson	-9558
▁drafted	-9559
▁Pelosi	-9560
▁Soon	-9561
▁mechanism	-9562
▁accountability	-9563
▁Northeast	-9564
▁fo	-9565
▁analytics	-9566
▁Everything	-9567
▁perceived	-9568
bers	-9569
▁celebrations	-9570
▁instruments	-9571
▁strip	-9572
▁Juventus	-9573
▁unfortunately	-9574
▁GA	-9575
▁wrestling	-9576
▁statue	-9577
vis	-9578
five	-9579
▁marine	-9580
▁Samuel	-9581
▁responsibilities	-9582
hill	-9583
▁recruit	-9584
▁referee	-9585
▁Rail	-9586
▁Eagle	-9587
▁Congressional	-9588
▁breathing	-9589
▁bass	-9590
hit	-9591
▁spreading	-9592
▁evacuated	-9593
▁intellectual	-9594
▁sovereign	-9595
ocked	-9596
▁slammed	-9597
▁formerly	-9598
▁arch	-9599
▁difficulty	-9600
▁AFC	-9601
▁Fresh	-9602
▁invite	-9603
oner	-9604
▁Mich	-9605
▁pitches	-9606
stock	-9607
▁initiated	-9608
▁Ku	-9609
▁Florence	-9610
yd	-9611
▁Fast	-9612
▁musician	-9613
▁Chile	-9614
anga	-9615
▁dairy	-9616
▁contractors	-9617
ador	-9618
▁Planning	-9619
▁ultra	-9620
▁prayer	-9621
▁suggestions	-9622
▁Ek	-9623
▁random	-9624
▁Sullivan	-9625
▁sensor	-9626
▁homicide	-9627
▁Income	-9628
▁settings	-9629
▁acknowledge	-9630
▁Stay	-9631
▁terminal	-9632
▁1991	-9633
West	-9634
hard	-9635
arc	-9636
▁combine	-9637
▁privately	-9638
▁barrier	-9639
▁median	-9640
▁whereas	-9641
▁Titans	-9642
▁incentives	-9643
▁historically	-9644
▁indictment	-9645
▁hiding	-9646
▁PDT	-9647
▁rebuild	-9648
hol	-9649
▁pour	-9650
▁airports	-9651
▁Edinburgh	-9652
▁appoint	-9653
▁Jul	-9654
▁confusion	-9655
▁dam	-9656
ork	-9657
▁calculated	-9658
▁hood	-9659
▁Temple	-9660
▁Yorkshire	-9661
EP	-9662
ented	-9663
▁apology	-9664
awi	-9665
▁facilitate	-9666
▁Sheffield	-9667
▁rides	-9668
▁compelling	-9669
▁Gonzalez	-9670
roll	-9671
ONG	-9672
UP	-9673
▁Aj	-9674
pen	-9675
▁Var	-9676
▁IPO	-9677
▁Animal	-9678
▁shifted	-9679
▁140	-9680
▁tobacco	-9681
El	-9682
ild	-9683
▁uncertain	-9684
Un	-9685
▁caps	-9686
▁recreational	-9687
▁Tu	-9688
▁enc	-9689
More	-9690
iko	-9691
▁Everton	-9692
▁Walk	-9693
▁murdered	-9694
▁pur	-9695
▁divisions	-9696
ivo	-9697
▁farming	-9698
▁courage	-9699
ped	-9700
▁crying	-9701
▁attributed	-9702
Ã©e	-9703
▁implementing	-9704
▁Wang	-9705
▁speeds	-9706
alk	-9707
aming	-9708
eries	-9709
▁avoided	-9710
▁Messi	-9711
▁considerable	-9712
rt	-9713
▁inauguration	-9714
▁PH	-9715
▁soldier	-9716
▁ore	-9717
ollywood	-9718
otive	-9719
▁Auburn	-9720
▁Sav	-9721
▁Put	-9722
▁emphasis	-9723
▁af	-9724
owed	-9725
▁diagnosis	-9726
▁cart	-9727
▁assisted	-9728
▁Order	-9729
▁Estate	-9730
▁intends	-9731
▁Common	-9732
▁adventure	-9733
▁beliefs	-9734
▁lasting	-9735
cel	-9736
▁deployment	-9737
tra	-9738
▁Stories	-9739
▁quote	-9740
▁feared	-9741
▁convenience	-9742
▁optimism	-9743
▁scientist	-9744
▁Enterprise	-9745
▁Rex	-9746
▁Fel	-9747
▁poses	-9748
▁root	-9749
▁evacuation	-9750
▁presidents	-9751
▁Rather	-9752
▁grave	-9753
▁Heights	-9754
▁jumping	-9755
driven	-9756
▁aluminum	-9757
▁holders	-9758
▁boot	-9759
iber	-9760
▁precious	-9761
uation	-9762
FP	-9763
uses	-9764
▁commentary	-9765
▁advances	-9766
▁Nissan	-9767
▁bronze	-9768
▁inspire	-9769
▁starters	-9770
▁Evan	-9771
rah	-9772
body	-9773
▁crops	-9774
▁seeds	-9775
▁harsh	-9776
▁Homeland	-9777
▁enabled	-9778
ological	-9779
▁workshop	-9780
▁chains	-9781
amps	-9782
▁amongst	-9783
▁Bear	-9784
▁certified	-9785
▁Julie	-9786
▁mountains	-9787
VA	-9788
▁fed	-9789
▁buyer	-9790
ahl	-9791
▁Bos	-9792
▁Crystal	-9793
▁quest	-9794
▁Stein	-9795
▁acceptable	-9796
▁unbeaten	-9797
iring	-9798
ural	-9799
▁uncomfortable	-9800
▁partial	-9801
▁sacrifice	-9802
▁Grande	-9803
▁arrangement	-9804
▁packaging	-9805
screen	-9806
▁mirror	-9807
▁sweep	-9808
▁connecting	-9809
▁panic	-9810
▁Jacksonville	-9811
▁Kremlin	-9812
▁origin	-9813
Brien	-9814
▁northwest	-9815
▁carriers	-9816
▁Riley	-9817
▁aud	-9818
▁appreciation	-9819
▁eliminated	-9820
▁Analyst	-9821
CR	-9822
▁firearm	-9823
▁accommodate	-9824
▁structural	-9825
▁appealed	-9826
▁charter	-9827
ressing	-9828
▁alike	-9829
white	-9830
▁slowdown	-9831
▁weigh	-9832
▁Palmer	-9833
ound	-9834
▁Conn	-9835
▁branches	-9836
▁ace	-9837
▁insists	-9838
yo	-9839
▁Lynn	-9840
▁CC	-9841
▁Within	-9842
▁coll	-9843
▁sustain	-9844
▁emerge	-9845
▁Battle	-9846
VER	-9847
▁aviation	-9848
▁enables	-9849
▁Production	-9850
▁Grove	-9851
▁nationally	-9852
▁Baldwin	-9853
rent	-9854
▁firearms	-9855
irm	-9856
▁considers	-9857
▁Cosby	-9858
▁McK	-9859
▁Ent	-9860
▁incumbent	-9861
iance	-9862
▁giants	-9863
▁kan	-9864
▁minimal	-9865
ivity	-9866
▁Say	-9867
▁Nass	-9868
▁lovely	-9869
▁Furthermore	-9870
▁displaced	-9871
▁contacts	-9872
NY	-9873
▁technological	-9874
ancy	-9875
▁ant	-9876
ope	-9877
▁FY	-9878
▁favorable	-9879
▁Virgin	-9880
▁casual	-9881
▁Lat	-9882
▁populations	-9883
▁romance	-9884
▁forgotten	-9885
▁fleeing	-9886
▁specialty	-9887
▁drill	-9888
▁applying	-9889
▁cocaine	-9890
rea	-9891
▁heroin	-9892
▁sweeping	-9893
▁Maj	-9894
▁troubled	-9895
▁colleague	-9896
▁edged	-9897
omes	-9898
▁Happy	-9899
Â´	-9900
▁militant	-9901
boy	-9902
aver	-9903
Yes	-9904
llo	-9905
▁supporter	-9906
▁Subscribe	-9907
▁Bird	-9908
▁Gibson	-9909
▁hill	-9910
▁newspapers	-9911
▁PHOTO	-9912
▁outing	-9913
▁define	-9914
▁ann	-9915
▁robot	-9916
▁regret	-9917
▁Could	-9918
raz	-9919
▁ceiling	-9920
▁organizers	-9921
▁Tw	-9922
▁criticised	-9923
▁Joh	-9924
▁Je	-9925
▁Bulls	-9926
▁teeth	-9927
▁Ranch	-9928
▁Andrea	-9929
▁conservatives	-9930
▁mag	-9931
vey	-9932
▁predecessor	-9933
▁JPMorgan	-9934
▁draws	-9935
umber	-9936
▁vaccine	-9937
▁Das	-9938
▁disappeared	-9939
▁Iron	-9940
▁litigation	-9941
vert	-9942
▁belong	-9943
▁Ret	-9944
owers	-9945
rain	-9946
controlled	-9947
▁Kil	-9948
▁rehab	-9949
▁Austria	-9950
▁privilege	-9951
▁bounce	-9952
▁bout	-9953
▁Islamist	-9954
▁taxi	-9955
ody	-9956
.'"	-9957
▁dos	-9958
shire	-9959
▁accidents	-9960
▁demonstration	-9961
His	-9962
▁BO	-9963
▁ICE	-9964
van	-9965
File	-9966
▁Manning	-9967
ounded	-9968
▁directions	-9969
lled	-9970
▁offences	-9971
▁laptop	-9972
▁Universal	-9973
▁milestone	-9974
▁Narendra	-9975
▁notion	-9976
▁uns	-9977
▁Lower	-9978
▁midfield	-9979
▁outper	-9980
trans	-9981
▁Ja	-9982
three	-9983
Adds	-9984
▁pressures	-9985
▁prohibited	-9986
▁utilities	-9987
▁bes	-9988
▁Reporter	-9989
▁commodities	-9990
leton	-9991
▁slower	-9992
EE	-9993
auer	-9994
▁tablet	-9995
sl	-9996
iously	-9997
▁aiming	-9998
eland	-9999
▁NEXT	-10000
tered	-10001
IVE	-10002
onic	-10003
May	-10004
▁Military	-10005
Mark	-10006
▁lender	-10007
mate	-10008
▁aboard	-10009
they	-10010
▁respondents	-10011
▁conversion	-10012
▁securing	-10013
▁entity	-10014
▁Harbor	-10015
▁Cu	-10016
▁cats	-10017
▁ACC	-10018
▁Ibrahim	-10019
GL	-10020
▁invitation	-10021
▁cond	-10022
▁Records	-10023
▁Adrian	-10024
▁brave	-10025
▁mineral	-10026
▁sooner	-10027
▁satisfied	-10028
▁pets	-10029
▁notably	-10030
Ä±	-10031
▁marking	-10032
▁RO	-10033
▁Haw	-10034
▁Vis	-10035
▁marketplace	-10036
▁Nat	-10037
▁Forward	-10038
▁Left	-10039
▁aggravated	-10040
▁Close	-10041
acey	-10042
▁landmark	-10043
▁disruption	-10044
▁Challenge	-10045
▁Days	-10046
▁Coun	-10047
ahan	-10048
▁aides	-10049
South	-10050
▁Dylan	-10051
▁Ravens	-10052
▁Nature	-10053
lli	-10054
▁diplomats	-10055
350	-10056
▁Drake	-10057
tag	-10058
▁licensed	-10059
▁Denmark	-10060
▁cancel	-10061
▁instant	-10062
DI	-10063
▁punch	-10064
▁Jenkins	-10065
▁strengthening	-10066
des	-10067
-$	-10068
▁allegation	-10069
▁sizes	-10070
iza	-10071
▁mentally	-10072
▁Residents	-10073
acked	-10074
▁sensors	-10075
,'"	-10076
illion	-10077
▁Champion	-10078
▁excessive	-10079
▁hum	-10080
▁Comp	-10081
rend	-10082
▁Lakes	-10083
▁burst	-10084
▁trainer	-10085
▁clearing	-10086
▁Silicon	-10087
▁350	-10088
DE	-10089
▁Gates	-10090
▁Horn	-10091
ests	-10092
▁Courtesy	-10093
▁bipartisan	-10094
▁habits	-10095
▁Alexa	-10096
walk	-10097
▁snapped	-10098
▁Eight	-10099
itis	-10100
zel	-10101
▁customs	-10102
▁southwest	-10103
▁vary	-10104
Because	-10105
▁payout	-10106
▁accelerate	-10107
▁Barr	-10108
tu	-10109
▁fined	-10110
cost	-10111
▁Theater	-10112
▁Corbyn	-10113
▁stem	-10114
▁undermine	-10115
.;	-10116
▁stays	-10117
▁breakthrough	-10118
▁turnover	-10119
hot	-10120
▁triumph	-10121
▁painted	-10122
▁Winnipeg	-10123
▁Kas	-10124
▁Stuart	-10125
irk	-10126
Am	-10127
▁trusted	-10128
aze	-10129
▁Late	-10130
▁accessories	-10131
▁memorable	-10132
▁Fool	-10133
▁rotation	-10134
▁Bulldogs	-10135
▁Chen	-10136
▁poised	-10137
▁Monte	-10138
▁Clarke	-10139
leading	-10140
▁venues	-10141
▁beneficial	-10142
▁Liam	-10143
▁Brothers	-10144
▁Need	-10145
▁conc	-10146
olly	-10147
▁Julian	-10148
ogue	-10149
▁founding	-10150
▁sidelines	-10151
▁declare	-10152
▁Member	-10153
▁examine	-10154
abs	-10155
▁boundaries	-10156
▁Brisbane	-10157
▁launches	-10158
lor	-10159
▁Ga	-10160
▁thr	-10161
expected	-10162
wal	-10163
▁Barnes	-10164
▁clashes	-10165
content	-10166
▁Clemson	-10167
iger	-10168
Mar	-10169
▁accord	-10170
▁southeast	-10171
ģ	-10172
▁Starbucks	-10173
osing	-10174
▁seasonal	-10175
icking	-10176
▁loyalty	-10177
▁tent	-10178
▁Dy	-10179
▁evident	-10180
▁lobby	-10181
▁tours	-10182
▁bombing	-10183
uations	-10184
▁rises	-10185
▁demonstrations	-10186
▁WATCH	-10187
pin	-10188
▁deb	-10189
▁Draft	-10190
rog	-10191
▁seal	-10192
▁Performance	-10193
▁LGBT	-10194
▁sed	-10195
▁gig	-10196
nan	-10197
▁rainfall	-10198
▁fabric	-10199
▁manages	-10200
▁lifting	-10201
▁Magazine	-10202
▁Criminal	-10203
▁hikes	-10204
▁catching	-10205
▁1989	-10206
OG	-10207
▁disappointment	-10208
▁ir	-10209
▁EV	-10210
stown	-10211
pass	-10212
120	-10213
▁medals	-10214
▁Simmons	-10215
▁inaugural	-10216
▁Corn	-10217
▁motorcycle	-10218
lets	-10219
▁Skype	-10220
Ã©t	-10221
▁scary	-10222
opp	-10223
thirds	-10224
▁Mohamed	-10225
▁teenagers	-10226
ANK	-10227
▁server	-10228
▁outs	-10229
▁dishes	-10230
four	-10231
dr	-10232
▁Ot	-10233
▁Sandy	-10234
▁Shane	-10235
orters	-10236
SH	-10237
▁touching	-10238
▁Nike	-10239
▁HBO	-10240
driving	-10241
▁plug	-10242
▁Baseball	-10243
eling	-10244
hn	-10245
ulate	-10246
eed	-10247
▁Christine	-10248
▁Globe	-10249
▁ethics	-10250
▁Trevor	-10251
iya	-10252
▁360	-10253
▁awaiting	-10254
▁counterpart	-10255
▁subsidies	-10256
pointers	-10257
▁spy	-10258
ILL	-10259
▁takeover	-10260
▁Beyond	-10261
▁surprisingly	-10262
TION	-10263
▁Song	-10264
▁ni	-10265
▁commonly	-10266
▁jack	-10267
▁substitute	-10268
ews	-10269
▁recalls	-10270
▁Commons	-10271
▁sin	-10272
del	-10273
▁Mod	-10274
▁pressing	-10275
▁Television	-10276
▁Inside	-10277
ª	-10278
▁backlash	-10279
▁credible	-10280
▁Jenner	-10281
▁Pu	-10282
▁Stevens	-10283
▁WE	-10284
Last	-10285
▁insurers	-10286
▁Join	-10287
bled	-10288
digit	-10289
▁flooded	-10290
▁Shore	-10291
▁Trophy	-10292
zing	-10293
▁Immigration	-10294
▁superior	-10295
IAN	-10296
▁casino	-10297
▁enabling	-10298
▁meantime	-10299
▁performers	-10300
▁proportion	-10301
▁lawmaker	-10302
▁Conf	-10303
▁convert	-10304
▁farmer	-10305
▁bu	-10306
▁GE	-10307
▁Representative	-10308
▁Bannon	-10309
▁Help	-10310
PT	-10311
formed	-10312
▁Superintendent	-10313
▁frustrating	-10314
▁Register	-10315
▁Political	-10316
▁boots	-10317
▁Ru	-10318
▁Sha	-10319
▁instrument	-10320
tor	-10321
▁Belt	-10322
▁Walsh	-10323
▁recipe	-10324
ilt	-10325
▁Clean	-10326
iors	-10327
▁twenty	-10328
iler	-10329
nder	-10330
▁winger	-10331
▁wheat	-10332
▁Aviation	-10333
▁corrupt	-10334
▁connectivity	-10335
▁Ven	-10336
order	-10337
esc	-10338
break	-10339
▁metals	-10340
▁traditionally	-10341
▁bell	-10342
▁violating	-10343
rough	-10344
▁introducing	-10345
▁guided	-10346
▁Mol	-10347
▁desert	-10348
▁Bree	-10349
Le	-10350
▁Zone	-10351
▁Glass	-10352
▁EUR	-10353
▁Yahoo	-10354
▁laps	-10355
▁differ	-10356
▁Hold	-10357
▁timely	-10358
▁successor	-10359
▁comic	-10360
▁bears	-10361
▁licence	-10362
▁reject	-10363
▁sophisticated	-10364
Too	-10365
▁objectives	-10366
▁Id	-10367
urers	-10368
▁raid	-10369
COM	-10370
▁elect	-10371
▁Hampshire	-10372
▁lens	-10373
▁designers	-10374
▁presently	-10375
▁RCMP	-10376
▁Egyptian	-10377
▁Walter	-10378
▁Wallace	-10379
▁2025	-10380
utics	-10381
ried	-10382
▁refuse	-10383
▁siblings	-10384
▁Nothing	-10385
▁dressing	-10386
▁nerve	-10387
AST	-10388
▁uncertainties	-10389
▁tale	-10390
▁Talk	-10391
▁issuing	-10392
shot	-10393
▁Tak	-10394
▁acid	-10395
▁Nintendo	-10396
▁wash	-10397
pd	-10398
▁Claire	-10399
▁Scot	-10400
▁suits	-10401
▁Bayern	-10402
gest	-10403
▁applicable	-10404
▁interaction	-10405
▁Enforcement	-10406
▁Rohingya	-10407
▁jan	-10408
▁united	-10409
▁Coalition	-10410
▁legislators	-10411
▁detectives	-10412
▁Sing	-10413
▁Between	-10414
▁Poly	-10415
pool	-10416
mal	-10417
▁reply	-10418
▁schemes	-10419
▁Holmes	-10420
▁Senators	-10421
▁Verizon	-10422
▁welcoming	-10423
▁Cricket	-10424
▁Marco	-10425
▁Years	-10426
▁Living	-10427
▁counterparts	-10428
▁Paradise	-10429
▁Trad	-10430
#	-10431
iw	-10432
▁Soccer	-10433
umbled	-10434
▁deceased	-10435
heim	-10436
▁evaluation	-10437
▁wrap	-10438
▁mild	-10439
aji	-10440
▁UCLA	-10441
▁Native	-10442
president	-10443
▁Xbox	-10444
▁enterprises	-10445
▁Slam	-10446
oga	-10447
Rock	-10448
piece	-10449
▁Coleman	-10450
▁comparable	-10451
uba	-10452
▁provinces	-10453
▁Formula	-10454
ipt	-10455
Ã´	-10456
▁tick	-10457
▁IMF	-10458
anch	-10459
atta	-10460
rew	-10461
However	-10462
LS	-10463
etta	-10464
▁Customs	-10465
SU	-10466
▁publishing	-10467
▁inch	-10468
▁kills	-10469
¤	-10470
▁Sus	-10471
▁Beth	-10472
▁steam	-10473
jpg	-10474
pointer	-10475
▁turnovers	-10476
▁powder	-10477
▁USB	-10478
▁Wildlife	-10479
▁Direct	-10480
atively	-10481
▁Ferrari	-10482
▁pleasure	-10483
▁Matthews	-10484
▁ski	-10485
ography	-10486
▁Vermont	-10487
▁Margaret	-10488
▁Munich	-10489
▁layer	-10490
▁Property	-10491
▁economics	-10492
▁Crew	-10493
UK	-10494
▁unnecessary	-10495
▁Glasgow	-10496
▁sealed	-10497
▁clarity	-10498
▁surplus	-10499
▁Canyon	-10500
▁Apart	-10501
▁acceptance	-10502
▁Ellis	-10503
uster	-10504
rid	-10505
▁Hawks	-10506
▁statewide	-10507
▁threaten	-10508
▁Jail	-10509
▁inclusive	-10510
▁mud	-10511
▁pat	-10512
▁bitter	-10513
▁alternatives	-10514
▁affiliate	-10515
▁evaluate	-10516
▁Baby	-10517
▁perception	-10518
tim	-10519
▁refusing	-10520
▁grey	-10521
▁arguably	-10522
▁firmly	-10523
▁Dark	-10524
▁excuse	-10525
▁Raymond	-10526
▁ballots	-10527
inton	-10528
▁125	-10529
▁Catherine	-10530
▁sacks	-10531
▁Deb	-10532
▁workout	-10533
web	-10534
▁batteries	-10535
breaking	-10536
ML	-10537
▁unacceptable	-10538
▁Valentine	-10539
▁YOU	-10540
▁RT	-10541
▁jurisdiction	-10542
▁examined	-10543
strom	-10544
▁Pocket	-10545
▁cement	-10546
▁universal	-10547
▁Oz	-10548
▁kit	-10549
▁churches	-10550
▁suburban	-10551
▁Kushner	-10552
▁Davidson	-10553
Sports	-10554
email	-10555
▁realistic	-10556
▁intend	-10557
▁Grey	-10558
,''	-10559
▁scholarship	-10560
▁philosophy	-10561
▁wheels	-10562
▁motivation	-10563
eway	-10564
match	-10565
▁Date	-10566
John	-10567
▁controlling	-10568
750	-10569
aven	-10570
▁filmed	-10571
▁160	-10572
▁Brock	-10573
▁Details	-10574
▁logistics	-10575
▁assumptions	-10576
▁Step	-10577
▁fails	-10578
▁Notre	-10579
▁juice	-10580
▁counting	-10581
▁photograph	-10582
▁fortunate	-10583
▁establishing	-10584
▁NJ	-10585
▁Workers	-10586
▁Quinn	-10587
▁Heather	-10588
▁timeline	-10589
▁imported	-10590
▁NASCAR	-10591
▁exercises	-10592
▁searched	-10593
▁Ralph	-10594
alf	-10595
▁gene	-10596
▁dependent	-10597
Ã©n	-10598
iate	-10599
▁Bristol	-10600
▁hung	-10601
▁tropical	-10602
▁intensity	-10603
▁Idaho	-10604
▁Mull	-10605
▁suite	-10606
▁blockchain	-10607
cz	-10608
ovich	-10609
▁worn	-10610
▁LE	-10611
AV	-10612
emi	-10613
▁identification	-10614
▁tunnel	-10615
▁ARE	-10616
▁Arm	-10617
▁outrage	-10618
▁twist	-10619
uka	-10620
▁Gra	-10621
▁jets	-10622
▁Thus	-10623
▁compound	-10624
▁financially	-10625
2019	-10626
asse	-10627
▁spare	-10628
▁Noah	-10629
▁Made	-10630
▁Mom	-10631
▁phenomenon	-10632
▁nurses	-10633
▁outlined	-10634
▁polit	-10635
▁Carm	-10636
▁leagues	-10637
▁math	-10638
▁modified	-10639
▁willingness	-10640
▁Amanda	-10641
▁grandfather	-10642
Of	-10643
DR	-10644
▁dip	-10645
▁RAM	-10646
▁Christie	-10647
▁argues	-10648
▁EX	-10649
▁Nine	-10650
▁Scroll	-10651
▁THIS	-10652
Pro	-10653
▁keys	-10654
▁processor	-10655
▁scam	-10656
▁Training	-10657
▁honey	-10658
Ĵ	-10659
▁facebook	-10660
▁Legal	-10661
▁aging	-10662
▁spiritual	-10663
▁Host	-10664
▁lung	-10665
▁USC	-10666
▁dirt	-10667
▁fe	-10668
after	-10669
▁Diana	-10670
▁ounce	-10671
date	-10672
▁Finals	-10673
Ķ	-10674
▁thorough	-10675
▁viable	-10676
▁anytime	-10677
▁fost	-10678
orter	-10679
ware	-10680
▁Holland	-10681
▁Mand	-10682
▁Send	-10683
2013	-10684
▁Volkswagen	-10685
▁suitable	-10686
ifies	-10687
▁comedian	-10688
▁neighbours	-10689
▁Know	-10690
▁curious	-10691
▁Twenty	-10692
▁Prevention	-10693
▁Stephanie	-10694
▁pilots	-10695
▁stored	-10696
▁dire	-10697
▁fits	-10698
ision	-10699
▁Shell	-10700
▁shifts	-10701
▁pepper	-10702
▁attendees	-10703
▁Name	-10704
hers	-10705
rip	-10706
▁watchdog	-10707
andy	-10708
▁bio	-10709
▁publisher	-10710
powered	-10711
▁CM	-10712
rian	-10713
▁Rand	-10714
wise	-10715
▁Jesse	-10716
▁ladies	-10717
▁Metropolitan	-10718
▁Micro	-10719
▁kicking	-10720
▁meg	-10721
▁clouds	-10722
▁trim	-10723
wear	-10724
▁ML	-10725
▁consists	-10726
▁rig	-10727
▁honestly	-10728
GS	-10729
▁Nicholas	-10730
▁cope	-10731
▁publish	-10732
working	-10733
bur	-10734
▁Nar	-10735
olds	-10736
aja	-10737
▁Sad	-10738
▁clicking	-10739
▁bids	-10740
▁Zuckerberg	-10741
▁900	-10742
▁exam	-10743
ivers	-10744
▁pray	-10745
▁reader	-10746
▁Seth	-10747
inem	-10748
▁confront	-10749
stra	-10750
AW	-10751
▁Gian	-10752
▁accordance	-10753
▁interact	-10754
▁Sharks	-10755
▁fireworks	-10756
gment	-10757
illy	-10758
▁const	-10759
ARY	-10760
▁prizes	-10761
▁shoulders	-10762
▁accessed	-10763
▁ecosystem	-10764
▁licensing	-10765
La	-10766
▁dedication	-10767
▁dÃ©	-10768
▁youths	-10769
lem	-10770
▁toy	-10771
▁Prom	-10772
ounding	-10773
rod	-10774
▁1000	-10775
ishes	-10776
Over	-10777
▁gaps	-10778
▁missions	-10779
▁railway	-10780
Day	-10781
orp	-10782
▁Schumer	-10783
▁eclipse	-10784
▁shell	-10785
▁BY	-10786
Many	-10787
▁Record	-10788
▁drunk	-10789
ayan	-10790
▁suggestion	-10791
▁defenders	-10792
▁Newton	-10793
▁disputes	-10794
▁evolution	-10795
▁credibility	-10796
▁Tenn	-10797
▁plain	-10798
size	-10799
cont	-10800
▁lone	-10801
▁fingers	-10802
BUR	-10803
▁Investigation	-10804
▁Qualcomm	-10805
var	-10806
▁countless	-10807
▁Rebecca	-10808
½	-10809
abi	-10810
▁reflecting	-10811
▁Turn	-10812
▁interactive	-10813
▁incentive	-10814
second	-10815
offs	-10816
▁Berkeley	-10817
▁Texans	-10818
▁heated	-10819
▁scorer	-10820
▁Sharif	-10821
▁migrant	-10822
west	-10823
▁Holiday	-10824
▁wrist	-10825
▁chairs	-10826
▁recommends	-10827
▁Wildcats	-10828
▁Ped	-10829
▁Quarter	-10830
▁IV	-10831
▁Arch	-10832
▁standings	-10833
▁bombs	-10834
▁capped	-10835
Can	-10836
▁caring	-10837
▁Lah	-10838
lim	-10839
▁dragged	-10840
▁Beat	-10841
DB	-10842
▁aired	-10843
▁jeans	-10844
action	-10845
▁generating	-10846
▁Gir	-10847
risk	-10848
lon	-10849
stage	-10850
âĤ¬	-10851
earing	-10852
▁Together	-10853
▁reun	-10854
▁Corey	-10855
▁Bak	-10856
▁prestigious	-10857
▁applicants	-10858
here	-10859
▁Mattis	-10860
▁ridiculous	-10861
▁Less	-10862
▁rains	-10863
▁presenting	-10864
anti	-10865
▁disabilities	-10866
▁apartments	-10867
storm	-10868
▁Hem	-10869
▁habit	-10870
▁Ruth	-10871
▁NPR	-10872
nut	-10873
▁appreciated	-10874
▁separation	-10875
uda	-10876
▁minus	-10877
▁Photos	-10878
▁blew	-10879
▁Voice	-10880
▁rallies	-10881
▁fond	-10882
▁Taking	-10883
yt	-10884
FE	-10885
▁Tory	-10886
ressed	-10887
▁Ly	-10888
▁rocks	-10889
▁Rah	-10890
▁elementary	-10891
nis	-10892
▁Presidential	-10893
▁nutrition	-10894
▁baseman	-10895
▁superstar	-10896
▁Wa	-10897
lar	-10898
▁staged	-10899
▁Learn	-10900
▁broadcaster	-10901
▁boasts	-10902
▁doubts	-10903
rum	-10904
▁bare	-10905
cap	-10906
▁climbing	-10907
▁Select	-10908
▁Cant	-10909
▁Nord	-10910
▁Beck	-10911
▁Kad	-10912
ello	-10913
▁enforce	-10914
▁Ze	-10915
ked	-10916
elly	-10917
▁LED	-10918
▁Operations	-10919
▁Luk	-10920
▁certificate	-10921
▁deter	-10922
▁spill	-10923
▁grain	-10924
league	-10925
Up	-10926
▁Kid	-10927
using	-10928
▁Jays	-10929
▁occasionally	-10930
▁MI	-10931
yes	-10932
▁detect	-10933
▁propaganda	-10934
▁neighboring	-10935
sub	-10936
avan	-10937
▁Astros	-10938
oti	-10939
threatening	-10940
▁shorter	-10941
INGS	-10942
▁feeding	-10943
▁elevated	-10944
▁Wenger	-10945
▁undergo	-10946
▁psychological	-10947
▁autom	-10948
NP	-10949
anks	-10950
▁Nokia	-10951
▁drones	-10952
▁recognised	-10953
▁heroes	-10954
agen	-10955
▁parole	-10956
▁Bah	-10957
▁homeowners	-10958
▁Sweet	-10959
▁instances	-10960
▁Parish	-10961
▁SL	-10962
▁unw	-10963
▁delicious	-10964
¯	-10965
▁Investments	-10966
▁Philippine	-10967
inos	-10968
▁mes	-10969
▁bite	-10970
▁cornerback	-10971
▁Hat	-10972
▁deserved	-10973
ologists	-10974
[	-10975
▁wrongdoing	-10976
▁Trent	-10977
▁Ve	-10978
▁Deal	-10979
Mr	-10980
▁overs	-10981
▁honors	-10982
▁ITV	-10983
▁payroll	-10984
▁confused	-10985
▁elaborate	-10986
ange	-10987
World	-10988
▁Resort	-10989
ilia	-10990
▁Kr	-10991
▁conclude	-10992
First	-10993
▁DR	-10994
▁peer	-10995
▁runway	-10996
▁Potter	-10997
cons	-10998
bad	-10999
si	-11000
▁Climate	-11001
▁Holl	-11002
▁weighing	-11003
▁epidemic	-11004
▁Bible	-11005
▁hon	-11006
▁renew	-11007
▁gambling	-11008
▁Nationals	-11009
itable	-11010
▁Outlook	-11011
▁reactions	-11012
▁Cos	-11013
▁Dana	-11014
India	-11015
▁Airbus	-11016
power	-11017
watch	-11018
▁styles	-11019
▁ordinance	-11020
▁cam	-11021
▁invent	-11022
▁Durant	-11023
▁exchanged	-11024
▁yoga	-11025
▁Michel	-11026
▁Wyoming	-11027
▁Phase	-11028
▁Hannah	-11029
▁tem	-11030
▁fare	-11031
omer	-11032
▁trails	-11033
▁quietly	-11034
▁Fourth	-11035
▁wise	-11036
▁appetite	-11037
▁pedestrian	-11038
▁fierce	-11039
hin	-11040
ako	-11041
▁vacant	-11042
▁dynamics	-11043
▁bust	-11044
▁GT	-11045
century	-11046
▁permitted	-11047
▁fog	-11048
▁recruitment	-11049
▁Due	-11050
▁bro	-11051
▁sil	-11052
▁Opp	-11053
▁phrase	-11054
▁Chip	-11055
▁Base	-11056
▁jazz	-11057
▁enemies	-11058
▁remainder	-11059
bles	-11060
▁105	-11061
▁Gur	-11062
▁retiring	-11063
▁Cour	-11064
▁Si	-11065
▁inevitable	-11066
▁Advisory	-11067
▁Campaign	-11068
▁Peninsula	-11069
base	-11070
▁justify	-11071
inen	-11072
North	-11073
▁freezing	-11074
▁photography	-11075
▁appointments	-11076
▁Tree	-11077
Os	-11078
▁divide	-11079
▁MMA	-11080
▁declines	-11081
▁Abbott	-11082
ACH	-11083
▁Jah	-11084
▁spr	-11085
▁skilled	-11086
▁Try	-11087
ANT	-11088
ael	-11089
▁McN	-11090
▁tariff	-11091
generation	-11092
▁Mans	-11093
Or	-11094
▁raped	-11095
▁disability	-11096
▁nominations	-11097
▁happiness	-11098
▁LSU	-11099
▁Interstate	-11100
▁Dance	-11101
▁Making	-11102
▁bailout	-11103
oro	-11104
▁Obviously	-11105
▁inbox	-11106
football	-11107
hy	-11108
▁Case	-11109
▁entertaining	-11110
▁hardest	-11111
▁Opposition	-11112
▁flip	-11113
▁Pirates	-11114
anu	-11115
▁Klopp	-11116
▁ballistic	-11117
▁printed	-11118
▁NFC	-11119
UST	-11120
▁glasses	-11121
▁rum	-11122
▁Duncan	-11123
hal	-11124
▁preview	-11125
BER	-11126
dec	-11127
▁sustainability	-11128
▁aff	-11129
▁hungry	-11130
service	-11131
avi	-11132
▁sometime	-11133
▁mod	-11134
▁Lib	-11135
oko	-11136
▁fundraiser	-11137
▁crowded	-11138
mates	-11139
▁creativity	-11140
▁Hell	-11141
▁treaty	-11142
▁Software	-11143
▁Randy	-11144
▁Polish	-11145
sa	-11146
ardi	-11147
▁cab	-11148
▁Camera	-11149
▁licenses	-11150
▁1988	-11151
▁continuous	-11152
▁paired	-11153
▁tally	-11154
▁grip	-11155
cho	-11156
▁surged	-11157
▁podium	-11158
▁contrary	-11159
SL	-11160
▁Researchers	-11161
cing	-11162
▁mi	-11163
▁disputed	-11164
▁grades	-11165
▁severely	-11166
▁McL	-11167
ondo	-11168
▁shelters	-11169
▁domain	-11170
▁Switch	-11171
▁testify	-11172
case	-11173
omet	-11174
atch	-11175
▁Aff	-11176
▁casting	-11177
berger	-11178
▁intimate	-11179
erc	-11180
plan	-11181
▁Past	-11182
▁Ut	-11183
▁apologized	-11184
▁Det	-11185
alle	-11186
▁whilst	-11187
▁pel	-11188
▁execute	-11189
▁harmful	-11190
▁RB	-11191
onda	-11192
▁Ful	-11193
II	-11194
Those	-11195
▁cryptocurrency	-11196
▁realise	-11197
▁Athens	-11198
▁Application	-11199
ORD	-11200
▁midst	-11201
▁Sem	-11202
▁messaging	-11203
▁cousin	-11204
▁Marsh	-11205
▁Almost	-11206
uto	-11207
wire	-11208
▁Managing	-11209
▁sends	-11210
▁Derby	-11211
▁pad	-11212
▁devoted	-11213
▁Working	-11214
▁Westminster	-11215
▁dirty	-11216
ements	-11217
▁Lew	-11218
door	-11219
▁advisor	-11220
ival	-11221
▁subscribe	-11222
▁credited	-11223
▁pressed	-11224
▁brick	-11225
▁rehabilitation	-11226
▁"[	-11227
erry	-11228
▁transformed	-11229
arp	-11230
▁receivers	-11231
▁Fan	-11232
▁Kris	-11233
▁Charlottesville	-11234
▁ste	-11235
▁constructed	-11236
▁broadly	-11237
▁Better	-11238
▁Janet	-11239
▁enthusiasm	-11240
▁Irving	-11241
▁Const	-11242
Everyone	-11243
agn	-11244
▁Crawford	-11245
▁regards	-11246
▁Burns	-11247
▁jokes	-11248
erg	-11249
ARD	-11250
apped	-11251
▁travelled	-11252
▁Poor	-11253
▁Holly	-11254
▁container	-11255
▁infected	-11256
▁lean	-11257
▁Would	-11258
▁magnitude	-11259
▁Dou	-11260
minded	-11261
▁pastor	-11262
▁wherever	-11263
ulation	-11264
▁1986	-11265
▁Megan	-11266
▁graphic	-11267
▁talents	-11268
▁kn	-11269
▁EC	-11270
▁McM	-11271
▁Kon	-11272
eni	-11273
▁Esc	-11274
inas	-11275
▁Nom	-11276
▁chasing	-11277
arl	-11278
▁Hungary	-11279
▁mainland	-11280
▁Dist	-11281
utes	-11282
▁rubber	-11283
iat	-11284
▁Morrison	-11285
ushing	-11286
iny	-11287
▁copies	-11288
▁Fat	-11289
agged	-11290
▁floating	-11291
▁Curtis	-11292
▁fatally	-11293
▁Manuel	-11294
▁graduates	-11295
nar	-11296
▁Kenny	-11297
▁retreat	-11298
▁retro	-11299
▁Pierre	-11300
listed	-11301
▁Dale	-11302
ding	-11303
▁intentions	-11304
▁sentences	-11305
▁Sere	-11306
▁invasion	-11307
▁premiums	-11308
▁Gardner	-11309
▁shipments	-11310
▁col	-11311
bell	-11312
ilo	-11313
▁worthy	-11314
▁interceptions	-11315
▁complain	-11316
icle	-11317
▁Tah	-11318
▁Mt	-11319
▁Syracuse	-11320
Since	-11321
aches	-11322
▁Cand	-11323
▁interactions	-11324
▁Shawn	-11325
nc	-11326
▁theaters	-11327
ART	-11328
Th	-11329
▁alter	-11330
aley	-11331
imo	-11332
▁responders	-11333
kan	-11334
▁Darren	-11335
▁deliveries	-11336
PI	-11337
125	-11338
▁laughing	-11339
▁Patterson	-11340
▁infections	-11341
▁tur	-11342
130	-11343
▁hackers	-11344
▁warn	-11345
▁freeze	-11346
▁screaming	-11347
▁Echo	-11348
▁Dom	-11349
MAN	-11350
▁Joy	-11351
▁beneath	-11352
▁Half	-11353
▁patent	-11354
▁ugly	-11355
▁lip	-11356
▁nominees	-11357
▁Grade	-11358
▁influenced	-11359
▁abilities	-11360
▁limiting	-11361
▁smell	-11362
▁esc	-11363
▁Bernard	-11364
cs	-11365
▁Myers	-11366
oted	-11367
Black	-11368
▁lim	-11369
▁sworn	-11370
▁Blair	-11371
anes	-11372
▁Event	-11373
▁mature	-11374
▁positioned	-11375
▁erupted	-11376
grand	-11377
▁Tell	-11378
▁backdrop	-11379
▁yeah	-11380
▁Clear	-11381
▁significance	-11382
▁patience	-11383
▁Wing	-11384
▁horrible	-11385
▁deploy	-11386
ipe	-11387
▁bitcoin	-11388
▁committing	-11389
▁dismiss	-11390
▁Blood	-11391
▁Meyer	-11392
selling	-11393
▁regarded	-11394
▁lottery	-11395
▁Luther	-11396
▁pipe	-11397
▁cro	-11398
▁ANC	-11399
▁Solar	-11400
▁similarly	-11401
▁ham	-11402
▁Honor	-11403
tar	-11404
gin	-11405
▁Armstrong	-11406
▁browser	-11407
agon	-11408
via	-11409
▁entries	-11410
▁infl	-11411
▁graduation	-11412
▁alleges	-11413
▁Loading	-11414
▁superb	-11415
ially	-11416
▁administrator	-11417
uls	-11418
▁artistic	-11419
▁ANGEL	-11420
▁Bang	-11421
▁fossil	-11422
¨	-11423
▁poly	-11424
▁Guardiola	-11425
▁Perth	-11426
▁educate	-11427
Cl	-11428
▁committees	-11429
▁forthcoming	-11430
▁adjustments	-11431
count	-11432
▁incoming	-11433
brook	-11434
▁Minneapolis	-11435
▁gown	-11436
▁Croatia	-11437
host	-11438
▁competitor	-11439
▁lyrics	-11440
▁belonging	-11441
▁Frances	-11442
▁Haley	-11443
▁Bruins	-11444
▁mask	-11445
▁Pv	-11446
dollar	-11447
▁bowling	-11448
▁jewelry	-11449
▁Julia	-11450
▁broadband	-11451
▁Bhar	-11452
▁Armed	-11453
vy	-11454
government	-11455
kov	-11456
▁premises	-11457
▁jersey	-11458
▁applies	-11459
▁Freeman	-11460
▁grows	-11461
▁Equity	-11462
▁materially	-11463
▁figured	-11464
ience	-11465
▁majors	-11466
▁Ye	-11467
▁Hey	-11468
oned	-11469
aping	-11470
▁toilet	-11471
▁Connor	-11472
▁avoiding	-11473
pos	-11474
Once	-11475
▁Rockets	-11476
▁Snapchat	-11477
Go	-11478
▁solidarity	-11479
▁Affordable	-11480
▁dial	-11481
▁Omar	-11482
xt	-11483
▁Vatican	-11484
anta	-11485
▁Superior	-11486
▁beaches	-11487
▁Ki	-11488
Ã¥	-11489
KY	-11490
▁gro	-11491
▁Empire	-11492
▁occurs	-11493
▁joked	-11494
▁quotes	-11495
▁Saskatchewan	-11496
pert	-11497
▁maintains	-11498
olt	-11499
▁upgrades	-11500
▁Cho	-11501
▁Alexis	-11502
▁Hundreds	-11503
▁Bud	-11504
▁centuries	-11505
▁Investor	-11506
▁Gomez	-11507
▁conceded	-11508
▁expressing	-11509
▁IBM	-11510
▁advancing	-11511
▁Dollar	-11512
jer	-11513
▁exceed	-11514
author	-11515
rist	-11516
seat	-11517
▁Primary	-11518
▁Forbes	-11519
▁Alzheimer	-11520
▁devastated	-11521
▁awful	-11522
▁Studio	-11523
▁bullpen	-11524
▁mobility	-11525
▁analyze	-11526
lie	-11527
AFP	-11528
iche	-11529
▁Royals	-11530
▁coupled	-11531
▁dug	-11532
▁Ring	-11533
▁environments	-11534
national	-11535
▁Congo	-11536
▁alleging	-11537
wn	-11538
ulating	-11539
▁ur	-11540
▁reaches	-11541
▁Pine	-11542
▁threshold	-11543
▁tournaments	-11544
▁heating	-11545
▁Gard	-11546
▁Hamas	-11547
▁Â«	-11548
▁Holding	-11549
▁possibilities	-11550
▁Hassan	-11551
▁Mohammad	-11552
▁offenders	-11553
▁automated	-11554
▁realised	-11555
ouse	-11556
building	-11557
▁Dub	-11558
▁Geneva	-11559
▁facial	-11560
▁Restaurant	-11561
▁Ng	-11562
▁tot	-11563
▁grace	-11564
▁CP	-11565
▁poster	-11566
hart	-11567
▁Ni	-11568
▁reaff	-11569
▁prov	-11570
▁111	-11571
▁Aid	-11572
▁scrap	-11573
izers	-11574
ogen	-11575
▁tissue	-11576
▁vibrant	-11577
▁rider	-11578
CD	-11579
▁Kitchen	-11580
▁genre	-11581
¬	-11582
depth	-11583
kind	-11584
▁endorsed	-11585
▁simultaneously	-11586
▁intern	-11587
▁Drag	-11588
▁embraced	-11589
▁counted	-11590
uj	-11591
▁Og	-11592
▁physician	-11593
▁IR	-11594
IST	-11595
▁Kir	-11596
▁hacking	-11597
▁Sources	-11598
astic	-11599
growing	-11600
▁Wake	-11601
▁hint	-11602
▁compiled	-11603
▁reign	-11604
▁cinema	-11605
▁boosting	-11606
▁accommodation	-11607
▁Europa	-11608
▁subsidiaries	-11609
▁closures	-11610
▁Bil	-11611
▁Bou	-11612
wh	-11613
▁Aw	-11614
FT	-11615
hole	-11616
▁Nova	-11617
▁NSW	-11618
▁rap	-11619
▁encourages	-11620
GR	-11621
ds	-11622
▁Muk	-11623
▁Survey	-11624
▁Reagan	-11625
oning	-11626
▁neighbouring	-11627
▁McCl	-11628
acht	-11629
▁finishes	-11630
▁Esp	-11631
pat	-11632
▁destinations	-11633
▁Wagner	-11634
▁confronted	-11635
square	-11636
▁pie	-11637
brand	-11638
hl	-11639
▁absent	-11640
▁surf	-11641
▁rifle	-11642
▁SS	-11643
▁Death	-11644
wich	-11645
▁beds	-11646
▁Lock	-11647
▁Agu	-11648
atives	-11649
jee	-11650
▁oral	-11651
▁budgets	-11652
▁inspiring	-11653
IONS	-11654
works	-11655
▁spirits	-11656
▁cabin	-11657
▁satisfaction	-11658
▁voluntary	-11659
▁Municipal	-11660
▁deportation	-11661
▁Writer	-11662
▁VI	-11663
VERTISEMENT	-11664
/.	-11665
▁Southampton	-11666
aces	-11667
▁Helen	-11668
▁Hum	-11669
110	-11670
▁garbage	-11671
through	-11672
▁kingdom	-11673
MT	-11674
augh	-11675
▁bizarre	-11676
▁Starting	-11677
▁wooden	-11678
▁Progress	-11679
iron	-11680
sten	-11681
▁Sergio	-11682
▁HR	-11683
▁turnout	-11684
▁Americas	-11685
▁Sara	-11686
▁agrees	-11687
apper	-11688
▁bra	-11689
▁recycling	-11690
oom	-11691
▁flee	-11692
▁distinct	-11693
IAL	-11694
aha	-11695
▁fever	-11696
▁Partnership	-11697
▁Yu	-11698
▁Pixel	-11699
▁Block	-11700
▁Melissa	-11701
igg	-11702
▁decides	-11703
▁Norman	-11704
▁mas	-11705
held	-11706
▁PD	-11707
▁sheer	-11708
▁Dim	-11709
▁Cass	-11710
▁columnist	-11711
▁Bros	-11712
▁turnaround	-11713
▁Value	-11714
▁Bachelor	-11715
awn	-11716
▁assignment	-11717
ested	-11718
▁Judiciary	-11719
▁diamond	-11720
▁mus	-11721
▁indigenous	-11722
lines	-11723
▁1984	-11724
igroup	-11725
ict	-11726
▁Jaguars	-11727
▁lun	-11728
▁profiles	-11729
▁computing	-11730
▁Belgian	-11731
▁Lloyd	-11732
▁Going	-11733
▁disp	-11734
▁1987	-11735
eder	-11736
▁Vin	-11737
▁govern	-11738
▁blend	-11739
▁Sebastian	-11740
▁Midwest	-11741
iga	-11742
▁spl	-11743
▁topping	-11744
▁networking	-11745
▁Emer	-11746
▁oxygen	-11747
▁Interest	-11748
▁Moy	-11749
▁trader	-11750
▁bay	-11751
▁sticking	-11752
▁Movement	-11753
▁bidding	-11754
tax	-11755
▁academy	-11756
▁MO	-11757
▁Spirit	-11758
▁healing	-11759
wen	-11760
▁Prix	-11761
cal	-11762
▁Operating	-11763
▁instantly	-11764
▁Tonight	-11765
▁sacked	-11766
▁automation	-11767
umps	-11768
▁Ney	-11769
March	-11770
▁Buck	-11771
▁concentration	-11772
Here	-11773
▁travelers	-11774
▁protective	-11775
▁Moody	-11776
▁entrepreneur	-11777
▁fac	-11778
kowski	-11779
▁preparations	-11780
▁dominate	-11781
▁spray	-11782
▁disturbing	-11783
▁Fraser	-11784
▁Cody	-11785
ashi	-11786
▁Pel	-11787
▁risky	-11788
▁awkward	-11789
▁VA	-11790
ails	-11791
▁angle	-11792
▁undergoing	-11793
▁albums	-11794
▁afterwards	-11795
▁Naw	-11796
uge	-11797
enter	-11798
▁Sussex	-11799
▁Recently	-11800
▁likelihood	-11801
large	-11802
▁snaps	-11803
ibr	-11804
▁Malcolm	-11805
▁cru	-11806
▁altogether	-11807
▁setup	-11808
▁torture	-11809
▁fiber	-11810
▁quarterbacks	-11811
▁Getting	-11812
ipping	-11813
▁Norwegian	-11814
▁Miles	-11815
▁Arnold	-11816
▁Disease	-11817
▁tends	-11818
ife	-11819
▁Caroline	-11820
▁navigate	-11821
▁brush	-11822
▁Associates	-11823
▁bath	-11824
▁Centers	-11825
▁MC	-11826
▁taxpayer	-11827
comp	-11828
▁accomplish	-11829
▁Traffic	-11830
▁Bru	-11831
▁greenhouse	-11832
▁Malaysian	-11833
▁Pur	-11834
ased	-11835
▁Knicks	-11836
aters	-11837
▁alt	-11838
ICK	-11839
▁calculations	-11840
▁mindset	-11841
unch	-11842
▁gu	-11843
▁steadily	-11844
▁fiction	-11845
▁Pap	-11846
forming	-11847
▁Actor	-11848
▁Berry	-11849
imp	-11850
▁Upper	-11851
▁assessed	-11852
▁lawn	-11853
▁Roh	-11854
▁clearance	-11855
funded	-11856
▁pret	-11857
▁Hom	-11858
VS	-11859
▁Tourism	-11860
▁Ry	-11861
▁Gonz	-11862
▁Studios	-11863
▁anchor	-11864
▁recognise	-11865
▁cooperate	-11866
enny	-11867
aza	-11868
▁Meet	-11869
▁eventual	-11870
SW	-11871
▁Counsel	-11872
▁Save	-11873
▁lucrative	-11874
▁slim	-11875
▁Greens	-11876
▁chemistry	-11877
▁Sheikh	-11878
▁bridges	-11879
business	-11880
▁Saf	-11881
▁Gy	-11882
▁protocol	-11883
▁nephew	-11884
▁Brands	-11885
▁Culture	-11886
orship	-11887
▁(Â£	-11888
▁Dell	-11889
astics	-11890
▁proving	-11891
▁Mann	-11892
aca	-11893
▁indoor	-11894
▁Uganda	-11895
▁Romney	-11896
▁Stage	-11897
▁ward	-11898
▁Amber	-11899
haw	-11900
▁tw	-11901
▁bullying	-11902
▁CAR	-11903
▁associates	-11904
▁Hopkins	-11905
▁suburb	-11906
▁aggressively	-11907
▁postponed	-11908
▁bas	-11909
▁burglary	-11910
▁Found	-11911
▁floors	-11912
Any	-11913
▁jam	-11914
▁visibility	-11915
▁benefited	-11916
▁Aud	-11917
aying	-11918
iku	-11919
▁Pas	-11920
▁GPS	-11921
▁Owens	-11922
▁reluctant	-11923
▁Olivia	-11924
ols	-11925
▁emotion	-11926
▁Heavy	-11927
▁hostile	-11928
▁favorites	-11929
▁feat	-11930
▁Cord	-11931
▁GO	-11932
▁indicted	-11933
idal	-11934
▁IL	-11935
Ħ	-11936
acer	-11937
ICH	-11938
oda	-11939
▁recipients	-11940
▁tribal	-11941
▁resist	-11942
▁Critics	-11943
▁sang	-11944
▁Math	-11945
▁Brighton	-11946
▁Kw	-11947
▁limitations	-11948
▁interception	-11949
onde	-11950
▁Robertson	-11951
▁enjoys	-11952
site	-11953
▁wings	-11954
▁Celtic	-11955
▁relaxed	-11956
Share	-11957
▁warrants	-11958
oco	-11959
▁critically	-11960
GC	-11961
▁cute	-11962
▁laying	-11963
itude	-11964
▁Mediterranean	-11965
▁watches	-11966
▁disagree	-11967
▁Return	-11968
ARC	-11969
people	-11970
▁twelve	-11971
▁overdose	-11972
▁Lot	-11973
▁FROM	-11974
▁Peters	-11975
▁administrators	-11976
▁slam	-11977
jar	-11978
OH	-11979
▁Initiative	-11980
▁teamed	-11981
▁Majority	-11982
June	-11983
▁Plaza	-11984
lake	-11985
▁glimpse	-11986
▁rings	-11987
▁os	-11988
▁mentor	-11989
have	-11990
▁languages	-11991
▁uncle	-11992
agu	-11993
▁Wine	-11994
▁Category	-11995
▁Ing	-11996
▁contests	-11997
▁Rosen	-11998
▁Whatever	-11999
▁denying	-12000
ean	-12001
▁spec	-12002
▁grad	-12003
▁tenants	-12004
show	-12005
▁Gregory	-12006
▁contention	-12007
▁unanimously	-12008
▁Pin	-12009
fa	-12010
▁Pink	-12011
▁switched	-12012
acre	-12013
▁Trading	-12014
VP	-12015
▁Maple	-12016
Neill	-12017
▁discounts	-12018
alls	-12019
▁sounded	-12020
▁rumours	-12021
▁Cre	-12022
hall	-12023
▁Tele	-12024
▁thankful	-12025
▁surveyed	-12026
UB	-12027
▁dignity	-12028
▁nod	-12029
▁misleading	-12030
▁TX	-12031
▁Burke	-12032
▁mounting	-12033
▁skies	-12034
▁besides	-12035
▁Garrett	-12036
tha	-12037
▁intelligent	-12038
▁tanks	-12039
apping	-12040
▁Rat	-12041
aint	-12042
▁entertain	-12043
▁Abdullah	-12044
▁sink	-12045
▁Lan	-12046
▁Manufacturing	-12047
NFL	-12048
▁themes	-12049
▁Haven	-12050
▁Davies	-12051
▁Kerr	-12052
▁Len	-12053
▁courtroom	-12054
▁failures	-12055
▁lately	-12056
▁Electronics	-12057
▁gorgeous	-12058
▁notification	-12059
▁2030	-12060
aved	-12061
▁deer	-12062
economic	-12063
▁Statistics	-12064
▁confrontation	-12065
▁governors	-12066
▁Haram	-12067
▁LGBTQ	-12068
▁processed	-12069
▁Duchess	-12070
▁downs	-12071
▁pork	-12072
▁humor	-12073
ocese	-12074
▁needing	-12075
▁midterm	-12076
▁Oval	-12077
▁corners	-12078
▁tablets	-12079
eds	-12080
vere	-12081
▁attacker	-12082
Paul	-12083
pee	-12084
▁Alice	-12085
▁renowned	-12086
▁09	-12087
ocking	-12088
▁creditors	-12089
▁Pedro	-12090
▁Phone	-12091
▁surveys	-12092
▁Welsh	-12093
▁cow	-12094
▁builds	-12095
▁000	-12096
▁Azerbaijan	-12097
▁Yad	-12098
▁infant	-12099
▁motorists	-12100
▁poorly	-12101
▁medications	-12102
▁stupid	-12103
▁Castro	-12104
user	-12105
antly	-12106
alty	-12107
▁Cond	-12108
issa	-12109
▁Ivan	-12110
▁costume	-12111
▁08	-12112
▁hence	-12113
▁dangers	-12114
▁bullish	-12115
Life	-12116
▁flavor	-12117
▁Charleston	-12118
▁bikes	-12119
▁workshops	-12120
▁arranged	-12121
▁contender	-12122
▁sequel	-12123
▁Plant	-12124
▁donor	-12125
▁factories	-12126
rict	-12127
ellen	-12128
▁robots	-12129
▁Wor	-12130
▁Directors	-12131
▁Peru	-12132
▁queen	-12133
▁Timothy	-12134
▁Too	-12135
▁observers	-12136
▁ears	-12137
▁bel	-12138
link	-12139
uns	-12140
▁homers	-12141
▁adjacent	-12142
▁confidential	-12143
▁stunned	-12144
iden	-12145
illed	-12146
ESS	-12147
▁convenient	-12148
▁Lindsey	-12149
por	-12150
upp	-12151
▁borrow	-12152
▁Ahmad	-12153
ORT	-12154
▁relate	-12155
▁Self	-12156
▁Vanguard	-12157
utter	-12158
▁Branch	-12159
▁Bolton	-12160
bat	-12161
▁outright	-12162
fighters	-12163
▁Bed	-12164
▁pes	-12165
inski	-12166
▁gunshot	-12167
▁printing	-12168
▁Sent	-12169
vern	-12170
▁harvest	-12171
▁bubble	-12172
▁refund	-12173
▁fuels	-12174
▁dive	-12175
▁diplomat	-12176
▁pile	-12177
▁Very	-12178
rot	-12179
▁Search	-12180
▁Joyce	-12181
▁Pruitt	-12182
▁Level	-12183
▁BP	-12184
▁Lac	-12185
had	-12186
▁expenditure	-12187
▁Madd	-12188
▁pockets	-12189
▁Clippers	-12190
▁Dear	-12191
▁Give	-12192
▁hal	-12193
▁vertical	-12194
▁wholesale	-12195
what	-12196
▁Springfield	-12197
ayed	-12198
▁Som	-12199
▁secrets	-12200
▁charts	-12201
iar	-12202
ibility	-12203
LAND	-12204
▁bearing	-12205
▁prom	-12206
▁tab	-12207
▁sheets	-12208
▁GL	-12209
▁endless	-12210
opening	-12211
▁Owen	-12212
▁underneath	-12213
▁Erik	-12214
▁DACA	-12215
▁steering	-12216
▁footprint	-12217
▁Roma	-12218
▁Ducks	-12219
▁Ellen	-12220
▁Professional	-12221
▁Gardens	-12222
▁goalie	-12223
▁shine	-12224
▁turmoil	-12225
▁hunger	-12226
▁âĢĭ	-12227
active	-12228
hey	-12229
▁blessed	-12230
ason	-12231
oping	-12232
▁Thousands	-12233
▁dose	-12234
▁Lor	-12235
▁evolved	-12236
▁charities	-12237
▁PE	-12238
▁Rub	-12239
ws	-12240
▁mist	-12241
▁Shen	-12242
▁biological	-12243
▁Tweet	-12244
▁collections	-12245
▁substantially	-12246
inner	-12247
▁battled	-12248
▁Cong	-12249
Hold	-12250
wp	-12251
▁wells	-12252
▁sake	-12253
▁unrest	-12254
▁Kurt	-12255
▁ripped	-12256
itation	-12257
▁neighbourhood	-12258
▁inv	-12259
▁cad	-12260
▁Cuban	-12261
▁Wealth	-12262
▁tuition	-12263
▁declaring	-12264
sch	-12265
orne	-12266
▁wondered	-12267
▁Chaff	-12268
▁dealer	-12269
▁Number	-12270
Mobile	-12271
▁scratch	-12272
▁prepares	-12273
▁Sens	-12274
▁Istanbul	-12275
▁Panama	-12276
▁Cay	-12277
▁allocation	-12278
itutional	-12279
▁har	-12280
▁Nazi	-12281
▁Sund	-12282
▁warehouse	-12283
▁backyard	-12284
▁Ill	-12285
▁unlawful	-12286
▁Reform	-12287
▁basement	-12288
▁Hi	-12289
▁Pictures	-12290
▁transfers	-12291
▁Sell	-12292
▁fluid	-12293
▁ambitions	-12294
wife	-12295
▁intensive	-12296
▁steals	-12297
▁festive	-12298
▁Hayes	-12299
▁restoration	-12300
▁branded	-12301
Journal	-12302
▁macro	-12303
▁console	-12304
▁Melania	-12305
▁Rahul	-12306
▁disposal	-12307
▁cult	-12308
▁petrol	-12309
▁tires	-12310
▁kidnapping	-12311
▁115	-12312
▁swap	-12313
▁Sud	-12314
▁blown	-12315
▁Hindu	-12316
▁Beckham	-12317
▁Gul	-12318
▁fixture	-12319
▁wisdom	-12320
▁mines	-12321
fort	-12322
▁rivers	-12323
▁Cyber	-12324
▁touches	-12325
race	-12326
▁relax	-12327
▁crashes	-12328
▁constituency	-12329
▁1979	-12330
▁bureau	-12331
▁interface	-12332
▁detected	-12333
▁Bio	-12334
▁highlighting	-12335
ames	-12336
▁corresponding	-12337
great	-12338
▁gray	-12339
▁advantages	-12340
▁ME	-12341
▁Abbas	-12342
▁naked	-12343
rington	-12344
.),	-12345
▁Face	-12346
third	-12347
▁transcript	-12348
ples	-12349
Good	-12350
▁Arctic	-12351
▁tolerance	-12352
reat	-12353
green	-12354
▁Mik	-12355
▁outreach	-12356
▁rolls	-12357
▁gen	-12358
▁supplied	-12359
▁guarantees	-12360
aug	-12361
▁semif	-12362
ounds	-12363
running	-12364
▁fitting	-12365
▁Risk	-12366
iveness	-12367
family	-12368
▁ti	-12369
▁Isaac	-12370
▁dump	-12371
▁Patricia	-12372
▁passport	-12373
▁Rhode	-12374
Who	-12375
log	-12376
▁stat	-12377
▁rat	-12378
ango	-12379
SB	-12380
▁Maur	-12381
▁smiling	-12382
▁strikeouts	-12383
▁pupils	-12384
▁complications	-12385
▁Advanced	-12386
▁Monetary	-12387
▁Tall	-12388
▁ALL	-12389
▁contributor	-12390
▁Advertising	-12391
▁horrific	-12392
▁competed	-12393
▁Kenneth	-12394
▁hailed	-12395
▁bones	-12396
▁bolster	-12397
▁Boss	-12398
▁hospitalized	-12399
▁Telegraph	-12400
▁Independence	-12401
▁dr	-12402
▁Hang	-12403
▁documented	-12404
▁subtle	-12405
invest	-12406
▁bounced	-12407
▁MAN	-12408
▁profession	-12409
Ń	-12410
▁excellence	-12411
▁Inspector	-12412
▁BL	-12413
▁disrupt	-12414
▁Winston	-12415
▁Communist	-12416
▁Sharon	-12417
▁mechanical	-12418
▁treats	-12419
▁desperately	-12420
▁Indy	-12421
▁Gi	-12422
▁Composite	-12423
▁Heath	-12424
aser	-12425
▁Cardiff	-12426
ilit	-12427
▁eased	-12428
▁prospective	-12429
▁commissioned	-12430
▁tire	-12431
▁align	-12432
▁gesture	-12433
▁weakened	-12434
URE	-12435
SN	-12436
▁nationals	-12437
▁relies	-12438
▁IRS	-12439
▁Count	-12440
▁medicines	-12441
▁congress	-12442
▁stranger	-12443
Qu	-12444
lessly	-12445
▁Queens	-12446
▁Alleg	-12447
uing	-12448
▁Wy	-12449
▁Miguel	-12450
idi	-12451
▁civic	-12452
▁Petro	-12453
endo	-12454
Obviously	-12455
▁reflection	-12456
▁Stop	-12457
▁Fitzgerald	-12458
placed	-12459
shore	-12460
▁correctly	-12461
▁NE	-12462
amy	-12463
▁CT	-12464
some	-12465
▁Mb	-12466
oi	-12467
▁Hogan	-12468
▁Innovation	-12469
▁Villa	-12470
▁CAN	-12471
▁Cemetery	-12472
into	-12473
▁questionable	-12474
▁creator	-12475
rug	-12476
▁semifinals	-12477
mission	-12478
▁cle	-12479
▁Waters	-12480
▁Nixon	-12481
▁BT	-12482
▁assuming	-12483
▁Jer	-12484
▁Clay	-12485
pack	-12486
▁Cool	-12487
may	-12488
▁decor	-12489
▁spike	-12490
▁Somalia	-12491
▁Karn	-12492
▁Damascus	-12493
Shares	-12494
▁sus	-12495
▁Moss	-12496
▁1985	-12497
▁superintendent	-12498
▁Results	-12499
▁spends	-12500
prom	-12501
▁shipped	-12502
▁laundering	-12503
▁Leslie	-12504
▁meteor	-12505
▁abandon	-12506
▁deliberately	-12507
▁Sentinel	-12508
▁fascinating	-12509
▁enrollment	-12510
▁Experts	-12511
▁Similarly	-12512
▁Cuomo	-12513
bor	-12514
▁une	-12515
neutral	-12516
▁hamstring	-12517
▁negotiated	-12518
zes	-12519
▁Leo	-12520
▁Doctor	-12521
▁curriculum	-12522
▁Focus	-12523
▁travels	-12524
▁beverage	-12525
▁Including	-12526
tz	-12527
type	-12528
▁Range	-12529
▁floods	-12530
▁coached	-12531
▁dominance	-12532
letico	-12533
▁Rafael	-12534
▁predictions	-12535
▁prosperity	-12536
▁Cav	-12537
▁clinics	-12538
▁Banking	-12539
▁Coming	-12540
ears	-12541
▁Kaepernick	-12542
▁Blvd	-12543
▁retained	-12544
isions	-12545
▁ko	-12546
▁ensemble	-12547
▁precise	-12548
▁compact	-12549
MD	-12550
▁Jet	-12551
ached	-12552
▁Tru	-12553
▁Bass	-12554
▁Icon	-12555
▁excluding	-12556
sur	-12557
▁construct	-12558
▁voiced	-12559
pan	-12560
▁inability	-12561
▁exc	-12562
▁mate	-12563
▁trailing	-12564
▁successive	-12565
▁bets	-12566
▁gauge	-12567
▁minorities	-12568
▁IND	-12569
▁Vel	-12570
▁GP	-12571
oid	-12572
bon	-12573
▁pred	-12574
▁dash	-12575
▁performer	-12576
▁occasional	-12577
aken	-12578
mes	-12579
America	-12580
▁liver	-12581
Sp	-12582
Big	-12583
▁wildfires	-12584
▁Jackie	-12585
▁Led	-12586
▁Finland	-12587
▁jurors	-12588
olic	-12589
urance	-12590
▁Edge	-12591
open	-12592
▁scenarios	-12593
▁glory	-12594
entry	-12595
▁Coffee	-12596
rep	-12597
▁Chand	-12598
▁Vas	-12599
▁Islamabad	-12600
▁bur	-12601
▁Fle	-12602
▁Edition	-12603
▁shoe	-12604
ï¸ı	-12605
**	-12606
tle	-12607
▁Eb	-12608
keeping	-12609
▁Basketball	-12610
▁Von	-12611
▁CF	-12612
MENT	-12613
amm	-12614
▁Fernando	-12615
▁compares	-12616
▁Double	-12617
▁convictions	-12618
▁atop	-12619
▁cops	-12620
▁remembers	-12621
▁lacking	-12622
dom	-12623
itate	-12624
▁Beauty	-12625
▁develops	-12626
▁Gor	-12627
▁functional	-12628
▁COUNTY	-12629
▁Upon	-12630
▁sprint	-12631
▁injection	-12632
▁minors	-12633
▁Tamil	-12634
▁Gat	-12635
101	-12636
ety	-12637
▁drum	-12638
▁tasked	-12639
▁pact	-12640
▁170	-12641
MR	-12642
▁Ramos	-12643
▁candy	-12644
Sc	-12645
iced	-12646
▁supermarket	-12647
▁worrying	-12648
▁sellers	-12649
▁Tag	-12650
.:	-12651
▁mixture	-12652
oting	-12653
Bl	-12654
▁Ll	-12655
▁Jal	-12656
ican	-12657
▁Bid	-12658
country	-12659
▁Strategy	-12660
▁adverse	-12661
▁plunged	-12662
▁Mit	-12663
▁stark	-12664
aton	-12665
▁booking	-12666
Tr	-12667
▁containers	-12668
▁vintage	-12669
▁Pit	-12670
▁surfaced	-12671
▁independently	-12672
▁detection	-12673
▁Beyon	-12674
▁casualties	-12675
▁stabbing	-12676
oved	-12677
▁barred	-12678
▁thereby	-12679
▁partnered	-12680
▁posing	-12681
▁Shannon	-12682
▁Chapel	-12683
▁technically	-12684
uous	-12685
Â»	-12686
ometer	-12687
▁wildfire	-12688
share	-12689
heart	-12690
▁ammunition	-12691
▁thrive	-12692
▁Stre	-12693
GP	-12694
cÃ©	-12695
▁Monaco	-12696
goal	-12697
▁Um	-12698
▁HSBC	-12699
▁Hilton	-12700
▁Viv	-12701
▁Kell	-12702
▁decisive	-12703
▁motive	-12704
amo	-12705
feld	-12706
▁WH	-12707
iry	-12708
ulu	-12709
▁Schneider	-12710
▁campaigning	-12711
▁separately	-12712
igo	-12713
▁ED	-12714
▁Ramirez	-12715
▁metro	-12716
▁Patel	-12717
▁Chi	-12718
▁Audi	-12719
▁characteristics	-12720
▁restart	-12721
▁keyboard	-12722
▁SD	-12723
his	-12724
biz	-12725
▁Soft	-12726
▁Grammy	-12727
▁contested	-12728
▁weekends	-12729
▁112	-12730
▁cycling	-12731
▁healthier	-12732
ija	-12733
▁header	-12734
▁employ	-12735
İ	-12736
▁shortages	-12737
▁Ask	-12738
▁Ivanka	-12739
▁partisan	-12740
▁flowing	-12741
▁cave	-12742
ENS	-12743
▁ups	-12744
read	-12745
ouch	-12746
▁102	-12747
▁forming	-12748
bot	-12749
bie	-12750
▁enrolled	-12751
▁concussion	-12752
▁affidavit	-12753
▁mysterious	-12754
uries	-12755
▁Mang	-12756
▁authentic	-12757
▁metrics	-12758
▁Twins	-12759
▁prep	-12760
IJ	-12761
▁desired	-12762
▁Div	-12763
wall	-12764
▁Tab	-12765
▁compet	-12766
▁relied	-12767
▁inequality	-12768
▁manual	-12769
▁Bucks	-12770
agging	-12771
▁corporation	-12772
▁banner	-12773
▁graphics	-12774
▁accurately	-12775
▁Meeting	-12776
▁consult	-12777
ser	-12778
▁protesting	-12779
▁hurting	-12780
omed	-12781
tes	-12782
▁rode	-12783
▁startups	-12784
▁handing	-12785
▁Nest	-12786
▁consistency	-12787
anned	-12788
dem	-12789
▁Lyon	-12790
▁Competition	-12791
▁tricky	-12792
▁cos	-12793
▁Bengals	-12794
arry	-12795
▁underwent	-12796
▁Kit	-12797
à	-12798
uploads	-12799
▁skate	-12800
▁''	-12801
▁jun	-12802
▁Content	-12803
focused	-12804
lat	-12805
▁Exp	-12806
ought	-12807
▁nightmare	-12808
▁Expect	-12809
▁precisely	-12810
▁Monica	-12811
▁lobbying	-12812
▁Chester	-12813
▁Invest	-12814
Former	-12815
▁imminent	-12816
▁NL	-12817
▁comparing	-12818
▁Ches	-12819
ede	-12820
▁Nobel	-12821
mers	-12822
▁Kin	-12823
▁Boko	-12824
ount	-12825
▁thoroughly	-12826
▁scattered	-12827
sharing	-12828
markets	-12829
▁Mis	-12830
▁ambition	-12831
▁preference	-12832
▁effectiveness	-12833
rio	-12834
▁heavyweight	-12835
▁overt	-12836
anya	-12837
▁Kanye	-12838
ishi	-12839
▁rewards	-12840
uled	-12841
bach	-12842
▁emphasized	-12843
▁apologize	-12844
▁Recent	-12845
!!	-12846
▁animated	-12847
▁Exxon	-12848
▁fruits	-12849
▁stripped	-12850
fold	-12851
▁Indonesian	-12852
ller	-12853
▁dementia	-12854
▁kidney	-12855
▁halted	-12856
years	-12857
▁concerts	-12858
▁refers	-12859
▁Fri	-12860
Your	-12861
irl	-12862
▁leap	-12863
jud	-12864
▁Hugh	-12865
▁FO	-12866
▁sore	-12867
▁kil	-12868
▁Mate	-12869
cci	-12870
▁setback	-12871
▁tightening	-12872
keeper	-12873
▁Albany	-12874
▁policymakers	-12875
▁disorders	-12876
▁CBC	-12877
▁Diaz	-12878
▁maps	-12879
▁routinely	-12880
▁verify	-12881
▁bash	-12882
▁Jinping	-12883
▁disasters	-12884
▁Monroe	-12885
▁Louise	-12886
JP	-12887
▁Nevertheless	-12888
▁concessions	-12889
▁Pog	-12890
going	-12891
▁Fifth	-12892
▁Jill	-12893
ICT	-12894
▁FM	-12895
▁Sugar	-12896
▁Barb	-12897
▁midway	-12898
▁tin	-12899
▁Pic	-12900
▁PL	-12901
▁leaks	-12902
▁grief	-12903
▁tattoo	-12904
`	-12905
▁ment	-12906
▁Nu	-12907
▁marry	-12908
▁diving	-12909
▁1982	-12910
▁coin	-12911
▁Poc	-12912
▁starred	-12913
▁Riverside	-12914
▁sidelined	-12915
▁miners	-12916
STON	-12917
▁belongs	-12918
▁Santos	-12919
▁Technical	-12920
aco	-12921
▁advise	-12922
▁streams	-12923
▁cooler	-12924
▁HE	-12925
▁ordering	-12926
▁Task	-12927
▁ACT	-12928
▁Anton	-12929
▁certification	-12930
▁Leafs	-12931
▁TS	-12932
▁Serbia	-12933
azi	-12934
inks	-12935
▁EST	-12936
▁relay	-12937
Â°	-12938
▁disappearance	-12939
▁Romania	-12940
▁oven	-12941
▁owed	-12942
▁Strip	-12943
ulated	-12944
UC	-12945
ITE	-12946
bling	-12947
Then	-12948
ppy	-12949
▁unlimited	-12950
▁calories	-12951
▁merchandise	-12952
▁blonde	-12953
▁Spicer	-12954
performing	-12955
▁impl	-12956
▁plates	-12957
▁mosque	-12958
▁demon	-12959
▁ought	-12960
▁dumped	-12961
▁tracked	-12962
even	-12963
▁stabil	-12964
imet	-12965
▁Liga	-12966
ugh	-12967
ther	-12968
agar	-12969
▁architect	-12970
▁allocated	-12971
▁Joey	-12972
▁marathon	-12973
master	-12974
▁Bert	-12975
▁ast	-12976
▁Ebola	-12977
▁Conservation	-12978
nic	-12979
▁parallel	-12980
▁inmate	-12981
▁locate	-12982
▁distribute	-12983
guard	-12984
▁tackling	-12985
ential	-12986
▁vi	-12987
▁cups	-12988
▁rhythm	-12989
▁endured	-12990
▁Hub	-12991
ois	-12992
▁Liberals	-12993
▁Redskins	-12994
▁EP	-12995
▁Knox	-12996
fr	-12997
▁massacre	-12998
oka	-12999
▁compl	-13000
raft	-13001
▁Published	-13002
▁attraction	-13003
▁Stephens	-13004
ility	-13005
▁Pul	-13006
▁Capt	-13007
▁exploded	-13008
▁exceeded	-13009
lying	-13010
▁cal	-13011
Mart	-13012
▁paintings	-13013
inate	-13014
▁Brendan	-13015
▁fortune	-13016
onductor	-13017
▁physicians	-13018
▁Study	-13019
▁Bul	-13020
▁Modern	-13021
HD	-13022
▁Bour	-13023
▁tying	-13024
▁1967	-13025
▁lighter	-13026
▁toss	-13027
inspired	-13028
▁greeted	-13029
▁cycl	-13030
▁verified	-13031
▁merit	-13032
sign	-13033
lder	-13034
▁debts	-13035
▁Snyder	-13036
▁amendments	-13037
▁indicators	-13038
▁Dortmund	-13039
then	-13040
▁Listen	-13041
▁FB	-13042
ref	-13043
▁IoT	-13044
▁Brewers	-13045
▁Leadership	-13046
▁Nicolas	-13047
▁Body	-13048
▁sam	-13049
▁Advisor	-13050
▁cord	-13051
▁abuses	-13052
▁Portuguese	-13053
▁flown	-13054
VR	-13055
▁consumed	-13056
▁reass	-13057
▁alien	-13058
▁rivalry	-13059
▁REPORT	-13060
▁Rush	-13061
▁directing	-13062
▁searches	-13063
▁HP	-13064
▁Roll	-13065
▁Fay	-13066
▁Clare	-13067
▁haul	-13068
▁riot	-13069
▁settlements	-13070
▁norm	-13071
▁accelerated	-13072
▁Lok	-13073
▁clever	-13074
▁hyd	-13075
▁stats	-13076
▁Hull	-13077
kers	-13078
▁buys	-13079
uter	-13080
▁fue	-13081
https	-13082
UD	-13083
▁isolation	-13084
▁suspend	-13085
▁Rules	-13086
▁Circle	-13087
▁Hopefully	-13088
played	-13089
âĢ³	-13090
▁PRE	-13091
sim	-13092
edd	-13093
▁Properties	-13094
▁beans	-13095
▁revive	-13096
▁Bir	-13097
oug	-13098
▁mob	-13099
▁showdown	-13100
iman	-13101
▁pap	-13102
▁vol	-13103
wu	-13104
▁diver	-13105
▁pill	-13106
▁Marlins	-13107
▁Lamar	-13108
▁persistent	-13109
▁condolences	-13110
▁Thor	-13111
Ab	-13112
▁impress	-13113
▁Raptors	-13114
▁references	-13115
▁stiff	-13116
▁Bash	-13117
eding	-13118
▁murders	-13119
▁Gene	-13120
▁Manila	-13121
▁brokers	-13122
Ms	-13123
start	-13124
▁Dhabi	-13125
etz	-13126
▁submission	-13127
▁Schmidt	-13128
▁Personal	-13129
▁Beverly	-13130
▁Movie	-13131
▁Lamb	-13132
▁placement	-13133
▁folk	-13134
▁frequency	-13135
▁planted	-13136
▁twins	-13137
prov	-13138
rec	-13139
▁permanently	-13140
▁coordination	-13141
▁Cart	-13142
▁obstacles	-13143
▁literature	-13144
▁tu	-13145
▁chill	-13146
▁Reserved	-13147
▁lovers	-13148
▁Outside	-13149
▁slideshow	-13150
▁Gru	-13151
▁ty	-13152
▁salad	-13153
▁laboratory	-13154
▁Holt	-13155
▁103	-13156
urb	-13157
▁Organisation	-13158
▁Andrews	-13159
▁recipient	-13160
arch	-13161
▁bleeding	-13162
▁Pand	-13163
▁overturned	-13164
▁listened	-13165
▁clause	-13166
▁nationalist	-13167
▁resumed	-13168
▁Cout	-13169
▁Pride	-13170
▁layers	-13171
▁Bella	-13172
▁reversed	-13173
▁priest	-13174
▁FX	-13175
▁albeit	-13176
▁halfway	-13177
▁cotton	-13178
▁Carey	-13179
▁TE	-13180
OCK	-13181
▁buck	-13182
ributes	-13183
ea	-13184
▁fancy	-13185
▁Buc	-13186
▁bans	-13187
uters	-13188
▁liabilities	-13189
▁Sou	-13190
▁Bernie	-13191
▁intervene	-13192
food	-13193
▁NDP	-13194
▁insist	-13195
▁contracted	-13196
hawk	-13197
),"	-13198
▁Dawn	-13199
▁mol	-13200
▁commissioners	-13201
▁stranded	-13202
▁overwhelmed	-13203
▁recipes	-13204
▁va	-13205
▁rad	-13206
▁scare	-13207
rez	-13208
▁eliminating	-13209
▁resc	-13210
▁Break	-13211
chn	-13212
▁delight	-13213
iot	-13214
▁freely	-13215
TI	-13216
▁Bluetooth	-13217
▁Month	-13218
▁Flor	-13219
▁Freddie	-13220
▁trailed	-13221
▁investigative	-13222
▁imposing	-13223
▁attracting	-13224
awk	-13225
▁Sherman	-13226
▁succeeded	-13227
▁vent	-13228
▁reconciliation	-13229
▁Cel	-13230
▁Throughout	-13231
▁Downtown	-13232
▁Brother	-13233
▁traditions	-13234
▁mir	-13235
▁stamp	-13236
tery	-13237
etti	-13238
isch	-13239
tic	-13240
▁banning	-13241
loss	-13242
▁Speedway	-13243
▁stalled	-13244
▁EN	-13245
ASH	-13246
thing	-13247
▁Appeals	-13248
rac	-13249
▁distress	-13250
▁Conservatives	-13251
▁Premium	-13252
usa	-13253
▁slump	-13254
imm	-13255
▁Supp	-13256
▁Wong	-13257
▁distant	-13258
▁104	-13259
▁tide	-13260
▁Norfolk	-13261
▁Yang	-13262
▁smashed	-13263
▁Barrett	-13264
inho	-13265
▁robbed	-13266
▁Farmers	-13267
filled	-13268
BT	-13269
▁autumn	-13270
▁temple	-13271
▁Jacobs	-13272
▁precipitation	-13273
▁Hours	-13274
▁Flight	-13275
▁beside	-13276
▁Ore	-13277
!)	-13278
▁Turnbull	-13279
▁pig	-13280
▁cooling	-13281
▁servers	-13282
oriented	-13283
▁locks	-13284
▁Sears	-13285
aving	-13286
▁Quick	-13287
▁Glob	-13288
▁Mining	-13289
▁horizon	-13290
arians	-13291
▁Om	-13292
writing	-13293
▁believing	-13294
▁bon	-13295
▁mounted	-13296
▁punt	-13297
ucci	-13298
uzz	-13299
cul	-13300
▁kiss	-13301
▁Ont	-13302
▁Cyprus	-13303
▁relying	-13304
▁piano	-13305
▁cure	-13306
▁continuously	-13307
▁Nobody	-13308
▁Bund	-13309
osis	-13310
▁Aurora	-13311
▁Bach	-13312
▁Kendall	-13313
▁echoed	-13314
iable	-13315
▁conscious	-13316
▁monster	-13317
omo	-13318
proof	-13319
▁Nate	-13320
▁filmmaker	-13321
▁Naj	-13322
▁vendor	-13323
▁Foot	-13324
▁Chang	-13325
▁Fest	-13326
▁selfie	-13327
▁enters	-13328
▁Conor	-13329
▁Mosul	-13330
▁WHAT	-13331
▁wa	-13332
▁Gamb	-13333
osta	-13334
▁cautioned	-13335
▁Tucker	-13336
▁Airways	-13337
▁visitor	-13338
▁Â·	-13339
▁Revolution	-13340
aching	-13341
▁earliest	-13342
▁Quality	-13343
▁shorts	-13344
ube	-13345
▁Operation	-13346
▁Sabha	-13347
▁strengths	-13348
ikes	-13349
▁sexy	-13350
▁rot	-13351
ibles	-13352
▁colours	-13353
THE	-13354
ailed	-13355
▁woke	-13356
▁Embassy	-13357
▁infamous	-13358
rov	-13359
State	-13360
âĢ¦.	-13361
▁pond	-13362
▁capt	-13363
fore	-13364
De	-13365
▁edited	-13366
self	-13367
Hey	-13368
▁portrait	-13369
▁Manufact	-13370
▁Stand	-13371
▁contenders	-13372
':	-13373
acker	-13374
▁withdrawn	-13375
▁Braves	-13376
▁Hosp	-13377
changing	-13378
▁Bag	-13379
▁adjustment	-13380
▁Cousins	-13381
▁AAP	-13382
▁fi	-13383
▁outdoors	-13384
▁lacked	-13385
BM	-13386
▁WHO	-13387
▁PST	-13388
▁Luck	-13389
▁assisting	-13390
▁Ground	-13391
▁Teen	-13392
▁Ole	-13393
▁embarrassing	-13394
▁Walt	-13395
▁Vision	-13396
▁Fal	-13397
▁Zoo	-13398
▁Worth	-13399
▁Floyd	-13400
▁Gujarat	-13401
▁tipped	-13402
▁fam	-13403
▁Dad	-13404
▁worship	-13405
▁tyre	-13406
▁rebuilding	-13407
▁qualities	-13408
▁Lives	-13409
▁beats	-13410
▁450	-13411
▁existed	-13412
▁Georg	-13413
▁poured	-13414
rows	-13415
▁Ox	-13416
▁Sid	-13417
▁mac	-13418
▁teaches	-13419
▁Eli	-13420
alla	-13421
▁downside	-13422
▁Bend	-13423
non	-13424
▁Armenia	-13425
▁cultures	-13426
▁Mae	-13427
▁duration	-13428
▁Athletics	-13429
▁juvenile	-13430
▁lid	-13431
▁bankers	-13432
▁overview	-13433
wy	-13434
▁orbit	-13435
Vs	-13436
because	-13437
Ps	-13438
▁Fran	-13439
▁touring	-13440
▁wary	-13441
▁106	-13442
▁laser	-13443
▁Vij	-13444
âĦ¢	-13445
▁surrender	-13446
press	-13447
rees	-13448
NO	-13449
▁Shortly	-13450
▁Kor	-13451
edu	-13452
▁hatred	-13453
▁tee	-13454
▁famously	-13455
▁keeper	-13456
ND	-13457
▁reduces	-13458
HC	-13459
▁hay	-13460
▁unnamed	-13461
▁Tes	-13462
▁attackers	-13463
▁Few	-13464
▁Richards	-13465
▁1968	-13466
▁speeches	-13467
▁cybersecurity	-13468
▁Infrastructure	-13469
▁07	-13470
ENCE	-13471
uties	-13472
▁anxious	-13473
▁Gang	-13474
▁announcements	-13475
lette	-13476
oret	-13477
▁Rockies	-13478
▁Employees	-13479
▁Thrones	-13480
▁hugely	-13481
▁clin	-13482
▁Hob	-13483
▁fraction	-13484
▁Official	-13485
▁Mariners	-13486
▁Else	-13487
▁sanctuary	-13488
▁Photograph	-13489
▁reopen	-13490
lf	-13491
hm	-13492
vest	-13493
▁speeding	-13494
▁tooth	-13495
▁Shi	-13496
▁Title	-13497
▁Mes	-13498
▁Jobs	-13499
fair	-13500
▁Danish	-13501
▁Malik	-13502
▁laughed	-13503
▁navy	-13504
▁Actress	-13505
▁Williamson	-13506
overs	-13507
▁reckless	-13508
▁jo	-13509
otic	-13510
▁assaulting	-13511
▁pri	-13512
▁Pi	-13513
▁lesser	-13514
▁tit	-13515
▁dat	-13516
▁nail	-13517
▁Marathon	-13518
▁Gren	-13519
▁Dol	-13520
▁jointly	-13521
▁amended	-13522
mine	-13523
▁Bashar	-13524
▁Hyundai	-13525
▁uncovered	-13526
▁educated	-13527
atti	-13528
pres	-13529
▁BRE	-13530
▁ya	-13531
Bank	-13532
odd	-13533
lit	-13534
▁Links	-13535
▁switching	-13536
itte	-13537
▁Sind	-13538
erved	-13539
▁**	-13540
▁positively	-13541
▁frankly	-13542
▁revenge	-13543
▁Trinity	-13544
▁CDC	-13545
▁threatens	-13546
▁hammer	-13547
NET	-13548
▁Mut	-13549
▁sy	-13550
▁unidentified	-13551
icken	-13552
▁drills	-13553
▁tense	-13554
▁foreigners	-13555
OST	-13556
▁ethical	-13557
▁Durham	-13558
▁Qual	-13559
▁territories	-13560
▁id	-13561
hor	-13562
enders	-13563
Mc	-13564
OV	-13565
percent	-13566
▁dom	-13567
▁upward	-13568
▁amb	-13569
▁visas	-13570
zan	-13571
Ãĥ	-13572
▁undocumented	-13573
▁suburbs	-13574
▁hydro	-13575
▁Job	-13576
▁Adelaide	-13577
oya	-13578
▁SR	-13579
▁Mick	-13580
▁consolidation	-13581
▁emotionally	-13582
▁Hop	-13583
Her	-13584
▁loses	-13585
▁Moto	-13586
eled	-13587
▁regulated	-13588
ental	-13589
▁encountered	-13590
▁hop	-13591
▁Trafford	-13592
▁sticks	-13593
▁veto	-13594
▁expose	-13595
▁stretched	-13596
fin	-13597
inance	-13598
chair	-13599
▁Gareth	-13600
▁Pil	-13601
▁Hammond	-13602
▁serial	-13603
omy	-13604
▁cellphone	-13605
▁Clara	-13606
▁reacted	-13607
▁Nic	-13608
▁Homes	-13609
▁Broadcasting	-13610
▁Fut	-13611
▁Supply	-13612
assing	-13613
▁Newman	-13614
▁charitable	-13615
▁Clayton	-13616
▁sovereignty	-13617
▁convincing	-13618
▁Principal	-13619
▁Higher	-13620
▁Cut	-13621
▁Carrie	-13622
▁Spot	-13623
Sometimes	-13624
▁Jar	-13625
▁Consider	-13626
ieu	-13627
▁refinery	-13628
▁bloody	-13629
wheel	-13630
▁cryptocurrencies	-13631
Fund	-13632
▁Sunderland	-13633
▁Events	-13634
âĢĭ	-13635
▁accidentally	-13636
deep	-13637
▁franc	-13638
bec	-13639
▁Hartford	-13640
▁stellar	-13641
wright	-13642
kick	-13643
UG	-13644
▁Beast	-13645
▁refusal	-13646
▁Roberto	-13647
▁Dixon	-13648
▁Diane	-13649
name	-13650
asts	-13651
▁Charter	-13652
▁fueled	-13653
▁contents	-13654
▁accessing	-13655
▁troubles	-13656
▁tops	-13657
▁debuted	-13658
icating	-13659
▁investigator	-13660
▁subscribing	-13661
▁coordinated	-13662
▁Fil	-13663
six	-13664
teen	-13665
▁withdrew	-13666
▁Gilbert	-13667
▁1983	-13668
arsity	-13669
▁imagination	-13670
▁handgun	-13671
▁Alibaba	-13672
▁bug	-13673
▁107	-13674
▁COMP	-13675
▁Something	-13676
▁reliability	-13677
▁FCC	-13678
▁Fowler	-13679
▁singled	-13680
nom	-13681
▁knocking	-13682
▁meddling	-13683
▁determining	-13684
reports	-13685
▁shade	-13686
▁SN	-13687
anto	-13688
▁complaining	-13689
▁Nan	-13690
WS	-13691
▁youngsters	-13692
Il	-13693
▁Kaw	-13694
▁Prop	-13695
▁Cell	-13696
▁Hurricanes	-13697
▁publicity	-13698
▁Xin	-13699
rial	-13700
ICO	-13701
▁supervision	-13702
▁Spotify	-13703
▁Newport	-13704
▁prince	-13705
anche	-13706
▁subscriber	-13707
▁Vic	-13708
ACT	-13709
▁Raf	-13710
▁Acting	-13711
▁collusion	-13712
pet	-13713
isl	-13714
▁commerce	-13715
Health	-13716
▁Abraham	-13717
pri	-13718
▁lightweight	-13719
▁insurer	-13720
Like	-13721
▁helmet	-13722
▁evac	-13723
look	-13724
▁Naval	-13725
160	-13726
▁Fleet	-13727
vol	-13728
▁expired	-13729
▁Klein	-13730
▁Emmy	-13731
ABLE	-13732
▁Morocco	-13733
▁Trip	-13734
uted	-13735
▁nos	-13736
▁Vista	-13737
mas	-13738
▁Rocky	-13739
▁Flint	-13740
enberg	-13741
▁Brow	-13742
▁signatures	-13743
▁polar	-13744
ajo	-13745
▁endorsement	-13746
▁reservations	-13747
LIN	-13748
anny	-13749
elli	-13750
last	-13751
▁oversee	-13752
cm	-13753
▁Oilers	-13754
Are	-13755
▁judiciary	-13756
onte	-13757
▁Track	-13758
▁supervisor	-13759
erk	-13760
isher	-13761
▁intact	-13762
▁slid	-13763
icals	-13764
paid	-13765
▁MAR	-13766
lement	-13767
▁Liu	-13768
▁Large	-13769
▁Wings	-13770
pect	-13771
▁Rum	-13772
▁analyzed	-13773
▁employs	-13774
arte	-13775
ims	-13776
▁Eventually	-13777
▁affiliated	-13778
▁hospitality	-13779
▁Sprint	-13780
▁resolutions	-13781
▁liquor	-13782
▁NAFTA	-13783
ANY	-13784
▁radiation	-13785
▁Prov	-13786
▁pause	-13787
▁TMZ	-13788
▁elbow	-13789
▁resilience	-13790
▁Parents	-13791
mus	-13792
▁Safe	-13793
▁interpretation	-13794
▁raced	-13795
IND	-13796
KR	-13797
▁hinted	-13798
▁Erin	-13799
▁Bahrain	-13800
▁credentials	-13801
eless	-13802
▁procurement	-13803
▁Webb	-13804
▁Lowe	-13805
▁Nak	-13806
▁Learning	-13807
zh	-13808
▁dipped	-13809
▁Suite	-13810
▁misdemeanor	-13811
ALE	-13812
▁strengthened	-13813
▁Sophie	-13814
▁confirms	-13815
▁rac	-13816
gey	-13817
▁shootout	-13818
▁ble	-13819
▁circles	-13820
▁Chef	-13821
▁comprised	-13822
▁Santiago	-13823
▁feud	-13824
beat	-13825
▁staffers	-13826
▁acute	-13827
ski	-13828
▁polled	-13829
▁Kur	-13830
▁Jen	-13831
▁Ultimately	-13832
anded	-13833
▁Honey	-13834
▁announces	-13835
▁amateur	-13836
around	-13837
▁functioning	-13838
group	-13839
▁Squ	-13840
Where	-13841
▁void	-13842
▁Sandra	-13843
isers	-13844
▁helicopters	-13845
▁Gym	-13846
▁Wol	-13847
mouth	-13848
▁subjected	-13849
ici	-13850
ually	-13851
▁Wash	-13852
▁Lindsay	-13853
▁Vers	-13854
▁jumps	-13855
▁neglect	-13856
▁Kuwait	-13857
fund	-13858
ĭ	-13859
ather	-13860
lly	-13861
ei	-13862
Although	-13863
.''	-13864
▁unhappy	-13865
▁pills	-13866
▁magical	-13867
▁dro	-13868
▁inviting	-13869
▁Johnston	-13870
oving	-13871
450	-13872
▁Merc	-13873
▁admitting	-13874
▁insisting	-13875
▁Cru	-13876
▁Resource	-13877
oir	-13878
▁complexity	-13879
▁Roth	-13880
▁Cher	-13881
July	-13882
raf	-13883
▁aggregate	-13884
▁helm	-13885
uclear	-13886
olan	-13887
▁offenses	-13888
▁Wolves	-13889
▁Fu	-13890
▁Pierce	-13891
▁emailed	-13892
▁Stra	-13893
▁pedestrians	-13894
▁ER	-13895
▁Conway	-13896
▁blowing	-13897
CLOSE	-13898
hab	-13899
▁Greene	-13900
▁confessed	-13901
▁Torres	-13902
▁Holocaust	-13903
▁repay	-13904
▁demonstrates	-13905
▁Pool	-13906
gent	-13907
▁deleted	-13908
▁$$	-13909
▁SO	-13910
▁dri	-13911
▁Neg	-13912
▁VP	-13913
▁PF	-13914
▁Prep	-13915
▁organizing	-13916
icker	-13917
▁manufactured	-13918
enson	-13919
adas	-13920
▁wines	-13921
▁machinery	-13922
▁specialists	-13923
▁Detective	-13924
▁DL	-13925
Op	-13926
▁quicker	-13927
▁Penguins	-13928
Engine	-13929
zone	-13930
▁sequence	-13931
▁Lost	-13932
▁warmer	-13933
▁Ethiopia	-13934
▁affirmed	-13935
fest	-13936
resses	-13937
▁soap	-13938
▁booth	-13939
▁notorious	-13940
amin	-13941
▁pursued	-13942
▁Cer	-13943
▁SB	-13944
▁livestock	-13945
▁trace	-13946
▁respects	-13947
arden	-13948
April	-13949
▁128	-13950
▁Said	-13951
ennial	-13952
▁namely	-13953
▁Bot	-13954
▁108	-13955
▁Lem	-13956
nell	-13957
▁confirming	-13958
▁logged	-13959
▁profound	-13960
elo	-13961
▁Chambers	-13962
RT	-13963
▁newer	-13964
▁sideline	-13965
▁Cardinal	-13966
este	-13967
▁narrowly	-13968
▁compromised	-13969
▁policing	-13970
▁porn	-13971
▁arc	-13972
▁learnt	-13973
INE	-13974
step	-13975
▁Domin	-13976
▁waist	-13977
▁boycott	-13978
mitted	-13979
iffs	-13980
ground	-13981
▁Materials	-13982
▁ceasefire	-13983
Right	-13984
▁Zen	-13985
estyle	-13986
Thank	-13987
▁OnePlus	-13988
▁MLS	-13989
▁constituents	-13990
oster	-13991
▁Prosecutor	-13992
▁priorit	-13993
▁Debbie	-13994
▁Expand	-13995
uv	-13996
▁integrate	-13997
▁immun	-13998
▁disciplinary	-13999
▁Imm	-14000
▁ja	-14001
▁gardens	-14002
▁Him	-14003
obe	-14004
▁hitter	-14005
▁bullets	-14006
▁evolving	-14007
▁Scientists	-14008
Michael	-14009
▁DO	-14010
▁unbelievable	-14011
▁looming	-14012
▁downturn	-14013
▁mentality	-14014
▁reopened	-14015
▁ash	-14016
▁Chapman	-14017
▁loop	-14018
▁UT	-14019
▁Tier	-14020
▁unaware	-14021
▁gratitude	-14022
▁performs	-14023
olk	-14024
▁"(	-14025
▁lacks	-14026
▁instructed	-14027
▁Recreation	-14028
sample	-14029
▁requesting	-14030
Canada	-14031
▁supposedly	-14032
▁Hardy	-14033
▁holder	-14034
change	-14035
▁Dominic	-14036
▁Xavier	-14037
▁lig	-14038
▁candid	-14039
▁Rab	-14040
▁conferences	-14041
▁Burton	-14042
Dr	-14043
▁municipalities	-14044
▁crushed	-14045
▁seekers	-14046
▁Citizens	-14047
▁heightened	-14048
▁Casino	-14049
▁desktop	-14050
▁whoever	-14051
▁Impact	-14052
▁cocktail	-14053
▁philanthrop	-14054
▁SAN	-14055
▁Preston	-14056
▁obesity	-14057
▁restrict	-14058
▁Kab	-14059
▁Providence	-14060
▁scar	-14061
▁Chart	-14062
▁bosses	-14063
▁Rate	-14064
▁sav	-14065
pay	-14066
▁transplant	-14067
▁Noble	-14068
child	-14069
▁conclusions	-14070
FI	-14071
▁sack	-14072
▁experimental	-14073
holder	-14074
oca	-14075
herty	-14076
▁MT	-14077
▁catcher	-14078
LY	-14079
▁grams	-14080
reet	-14081
▁adaptation	-14082
▁humble	-14083
▁bot	-14084
▁identical	-14085
ication	-14086
ifer	-14087
▁Crow	-14088
▁regain	-14089
▁Lightning	-14090
▁kg	-14091
▁composed	-14092
▁correspondent	-14093
▁reunion	-14094
▁observe	-14095
▁comprising	-14096
▁impeachment	-14097
▁resh	-14098
▁lemon	-14099
▁Snap	-14100
▁proprietary	-14101
een	-14102
ourt	-14103
▁detective	-14104
▁labels	-14105
▁corridor	-14106
▁Clinic	-14107
▁arra	-14108
▁Pearl	-14109
▁informal	-14110
▁Und	-14111
▁Venezuelan	-14112
▁peninsula	-14113
▁defeating	-14114
▁syndrome	-14115
iere	-14116
▁spite	-14117
bag	-14118
aran	-14119
▁specialized	-14120
▁AA	-14121
▁Lyn	-14122
▁instrumental	-14123
Smith	-14124
▁pivotal	-14125
▁nightclub	-14126
▁Cob	-14127
▁colorful	-14128
▁artwork	-14129
▁1981	-14130
▁dawn	-14131
erville	-14132
uated	-14133
ief	-14134
▁linking	-14135
▁Ow	-14136
▁appreci	-14137
▁reductions	-14138
elling	-14139
▁salmon	-14140
bb	-14141
▁Phillip	-14142
yle	-14143
▁assure	-14144
▁discretion	-14145
▁efficiently	-14146
▁Mau	-14147
abil	-14148
▁intentionally	-14149
▁activated	-14150
▁immense	-14151
▁Strategic	-14152
▁cheating	-14153
▁Trend	-14154
▁Samantha	-14155
▁comple	-14156
▁hack	-14157
▁Serie	-14158
▁Text	-14159
▁stylish	-14160
▁Faith	-14161
▁GST	-14162
▁exterior	-14163
▁blessing	-14164
▁blanket	-14165
▁cooked	-14166
▁retaliation	-14167
▁tro	-14168
▁shelves	-14169
rose	-14170
▁Gram	-14171
▁sho	-14172
▁Argentine	-14173
▁clerk	-14174
specific	-14175
▁agreeing	-14176
▁standout	-14177
black	-14178
▁trending	-14179
▁violate	-14180
Get	-14181
Ã±o	-14182
▁Opt	-14183
▁Frankfurt	-14184
▁Franco	-14185
eness	-14186
▁lining	-14187
▁zoo	-14188
oil	-14189
lia	-14190
rab	-14191
▁organize	-14192
▁woods	-14193
▁scan	-14194
▁urgency	-14195
▁occurring	-14196
▁reliance	-14197
▁concepts	-14198
▁eligibility	-14199
0000	-14200
▁Brief	-14201
▁abusive	-14202
▁Bench	-14203
▁rub	-14204
▁Dil	-14205
▁mount	-14206
▁maturity	-14207
▁Nut	-14208
nee	-14209
enc	-14210
▁gunfire	-14211
▁Kill	-14212
▁gates	-14213
▁flower	-14214
iol	-14215
▁shaped	-14216
▁undoubtedly	-14217
▁backgrounds	-14218
▁Complex	-14219
":{"	-14220
▁naming	-14221
▁monument	-14222
▁oh	-14223
▁embedded	-14224
▁bang	-14225
▁Kro	-14226
▁aggression	-14227
▁Mits	-14228
During	-14229
▁Ep	-14230
iners	-14231
▁Anaheim	-14232
▁rom	-14233
▁outgoing	-14234
▁fulfill	-14235
▁reminds	-14236
▁ren	-14237
à¤	-14238
▁Sue	-14239
▁refresh	-14240
▁lif	-14241
▁fil	-14242
▁Lead	-14243
▁regulate	-14244
▁Teachers	-14245
▁clarify	-14246
obs	-14247
▁blasted	-14248
▁Ax	-14249
▁flavors	-14250
▁mega	-14251
▁hurdles	-14252
▁inspector	-14253
▁Salvador	-14254
▁prescribed	-14255
▁renovation	-14256
OUR	-14257
▁util	-14258
▁Bradford	-14259
▁wasted	-14260
▁lineman	-14261
▁palm	-14262
icate	-14263
▁overseeing	-14264
otted	-14265
▁Rapids	-14266
▁justified	-14267
aby	-14268
▁extends	-14269
▁oath	-14270
bow	-14271
▁Rivera	-14272
Jan	-14273
▁Imran	-14274
▁forests	-14275
▁Shel	-14276
▁Brun	-14277
▁aerial	-14278
▁NOW	-14279
PAR	-14280
▁beverages	-14281
ettel	-14282
▁fragile	-14283
▁codes	-14284
Į	-14285
abel	-14286
Watch	-14287
road	-14288
▁dismissal	-14289
▁Rosa	-14290
▁crunch	-14291
²	-14292
▁innovations	-14293
▁habitat	-14294
▁forefront	-14295
▁Koch	-14296
▁Chevrolet	-14297
▁wheelchair	-14298
▁considerably	-14299
▁expenditures	-14300
▁texts	-14301
▁prompt	-14302
▁skating	-14303
▁petroleum	-14304
▁ICC	-14305
▁vit	-14306
fit	-14307
▁prolonged	-14308
▁Lucy	-14309
▁cho	-14310
▁rocked	-14311
▁Brom	-14312
▁freed	-14313
▁yours	-14314
▁Eden	-14315
▁monitored	-14316
asted	-14317
▁oversees	-14318
ieri	-14319
▁ideology	-14320
▁Fine	-14321
tering	-14322
Top	-14323
▁damp	-14324
uta	-14325
▁lethal	-14326
▁purple	-14327
udge	-14328
▁Chemical	-14329
▁Petersburg	-14330
▁warns	-14331
▁collectively	-14332
▁â	-14333
▁plaintiffs	-14334
▁Boris	-14335
▁sheep	-14336
oves	-14337
▁Author	-14338
▁campuses	-14339
▁destroying	-14340
▁gloves	-14341
▁cease	-14342
▁delegates	-14343
▁preceded	-14344
realDonaldTrump	-14345
▁forwards	-14346
erton	-14347
▁BuzzFeed	-14348
▁occupation	-14349
▁Legion	-14350
▁stir	-14351
▁shale	-14352
▁terrific	-14353
▁newborn	-14354
▁standoff	-14355
OWN	-14356
▁muscles	-14357
▁Herman	-14358
▁Liz	-14359
▁Experience	-14360
▁Success	-14361
▁Hispanic	-14362
▁CCTV	-14363
▁complement	-14364
▁Bing	-14365
▁prem	-14366
▁Johannes	-14367
▁dent	-14368
itar	-14369
▁Hein	-14370
▁Nicola	-14371
▁concludes	-14372
▁Khal	-14373
▁parish	-14374
▁shaking	-14375
▁Schw	-14376
mod	-14377
▁Lil	-14378
Ã±a	-14379
▁Bog	-14380
▁Fight	-14381
▁gre	-14382
▁fel	-14383
▁heal	-14384
err	-14385
TM	-14386
airo	-14387
health	-14388
▁swings	-14389
▁tier	-14390
anka	-14391
ribune	-14392
emouth	-14393
▁Bloom	-14394
▁owing	-14395
Tech	-14396
▁dough	-14397
▁batch	-14398
▁Lion	-14399
▁Zamb	-14400
▁crashing	-14401
▁XL	-14402
ppers	-14403
▁Doctors	-14404
▁Sor	-14405
video	-14406
▁cigarettes	-14407
▁Boxing	-14408
▁constitute	-14409
▁concentrate	-14410
▁Armenian	-14411
▁semester	-14412
position	-14413
emic	-14414
▁NYC	-14415
▁Campus	-14416
▁alternate	-14417
▁exped	-14418
▁publishers	-14419
2015	-14420
▁unanimous	-14421
▁Previous	-14422
▁wellness	-14423
▁Creative	-14424
edy	-14425
AGE	-14426
▁Cavs	-14427
▁1978	-14428
▁fu	-14429
▁Tata	-14430
▁Choice	-14431
▁woes	-14432
▁Cable	-14433
▁~	-14434
▁Gem	-14435
▁consolidated	-14436
▁Manitoba	-14437
Cloud	-14438
▁rounded	-14439
▁Ventura	-14440
▁shark	-14441
▁dresses	-14442
▁traction	-14443
eda	-14444
▁div	-14445
▁dental	-14446
Wh	-14447
▁Gig	-14448
▁Boyd	-14449
▁Transit	-14450
▁televised	-14451
SON	-14452
▁Vince	-14453
▁closes	-14454
apt	-14455
▁Wheeler	-14456
▁Tyson	-14457
▁forensic	-14458
▁punished	-14459
▁seas	-14460
▁navigation	-14461
▁precedent	-14462
▁extremist	-14463
▁composite	-14464
PO	-14465
▁survivor	-14466
▁Vale	-14467
gars	-14468
HT	-14469
▁Riyadh	-14470
▁revival	-14471
▁Payne	-14472
▁collaborative	-14473
▁Customers	-14474
▁Pf	-14475
▁proves	-14476
erve	-14477
▁elev	-14478
▁Paper	-14479
▁chore	-14480
▁thriller	-14481
▁straw	-14482
cock	-14483
Gu	-14484
▁aligned	-14485
▁Chronicle	-14486
▁shouting	-14487
▁1976	-14488
▁lightning	-14489
▁worlds	-14490
▁Opening	-14491
enton	-14492
▁Ana	-14493
▁Gol	-14494
▁Techn	-14495
lis	-14496
▁orientation	-14497
▁Arri	-14498
▁PG	-14499
ross	-14500
▁sank	-14501
LOS	-14502
▁Allison	-14503
▁smiles	-14504
USD	-14505
▁kits	-14506
Bar	-14507
▁Bri	-14508
▁ounces	-14509
▁Nielsen	-14510
eno	-14511
▁109	-14512
▁norms	-14513
▁skip	-14514
180	-14515
▁monitors	-14516
2012	-14517
▁incorporate	-14518
▁mechanisms	-14519
▁Hack	-14520
▁Bomb	-14521
▁Gavin	-14522
▁Natalie	-14523
▁discusses	-14524
▁assembled	-14525
▁cognitive	-14526
owner	-14527
▁genuinely	-14528
▁disappear	-14529
▁AK	-14530
▁stal	-14531
▁soup	-14532
▁Finn	-14533
▁cares	-14534
▁finest	-14535
▁tuned	-14536
ende	-14537
▁Stefan	-14538
▁accompanying	-14539
Ã®	-14540
Maybe	-14541
▁offender	-14542
TT	-14543
▁212	-14544
▁volleyball	-14545
needed	-14546
▁quo	-14547
▁dim	-14548
▁Historical	-14549
▁Lance	-14550
gmail	-14551
▁Gate	-14552
▁demonstrators	-14553
▁dy	-14554
cia	-14555
▁Steele	-14556
▁Joan	-14557
▁Kerala	-14558
KA	-14559
▁Electoral	-14560
▁paths	-14561
Ã¸	-14562
Ne	-14563
▁accepts	-14564
▁lowering	-14565
▁portions	-14566
▁Valencia	-14567
▁festivals	-14568
▁generic	-14569
usk	-14570
▁Vernon	-14571
▁Orioles	-14572
▁renewal	-14573
▁belonged	-14574
▁breathe	-14575
▁220	-14576
▁recruited	-14577
▁logic	-14578
▁recreation	-14579
▁verbal	-14580
▁Haz	-14581
double	-14582
▁favourites	-14583
▁fundamentals	-14584
▁Soc	-14585
360	-14586
SO	-14587
▁alerted	-14588
▁briefed	-14589
▁Bruno	-14590
▁seating	-14591
▁freight	-14592
▁Amer	-14593
▁wished	-14594
table	-14595
growth	-14596
▁Went	-14597
▁hilarious	-14598
▁throat	-14599
bet	-14600
gon	-14601
▁ample	-14602
hee	-14603
▁Hood	-14604
▁Iceland	-14605
▁Ankara	-14606
iang	-14607
▁practicing	-14608
azer	-14609
▁leaf	-14610
▁hottest	-14611
▁marginal	-14612
▁revelations	-14613
▁Prices	-14614
▁Lar	-14615
times	-14616
▁handles	-14617
▁Naz	-14618
▁institute	-14619
▁translate	-14620
▁JP	-14621
▁soared	-14622
▁consume	-14623
▁Tap	-14624
▁Celebrity	-14625
▁Mayweather	-14626
▁Oracle	-14627
▁mor	-14628
ANA	-14629
▁paperwork	-14630
aste	-14631
▁dil	-14632
▁decorated	-14633
▁promotional	-14634
▁Merrill	-14635
▁appliances	-14636
▁COP	-14637
▁lips	-14638
▁Brennan	-14639
▁Mile	-14640
▁Networks	-14641
▁Comment	-14642
▁Ib	-14643
▁Agg	-14644
IDE	-14645
▁initiate	-14646
▁knockout	-14647
▁bargain	-14648
▁accordingly	-14649
bee	-14650
▁Gerald	-14651
▁problematic	-14652
▁trap	-14653
▁finalists	-14654
addy	-14655
would	-14656
▁strictly	-14657
▁Ramsey	-14658
▁downward	-14659
▁extract	-14660
▁famed	-14661
▁OUT	-14662
▁induct	-14663
▁Auckland	-14664
▁poetry	-14665
mos	-14666
▁Guinea	-14667
management	-14668
ohan	-14669
▁Guide	-14670
aily	-14671
umping	-14672
▁enacted	-14673
▁Eye	-14674
vision	-14675
umi	-14676
aped	-14677
▁bicycle	-14678
▁Houth	-14679
▁NAS	-14680
▁tapped	-14681
wer	-14682
otti	-14683
EA	-14684
▁surprises	-14685
▁Update	-14686
▁Pun	-14687
▁Miz	-14688
▁Oro	-14689
▁costumes	-14690
title	-14691
▁surviving	-14692
According	-14693
themed	-14694
▁Peoples	-14695
Se	-14696
▁associations	-14697
hett	-14698
Time	-14699
▁essay	-14700
▁mu	-14701
▁Score	-14702
▁Spani	-14703
▁SEE	-14704
▁males	-14705
▁rage	-14706
EU	-14707
▁Yellow	-14708
rupt	-14709
▁apparel	-14710
▁sweat	-14711
▁nearest	-14712
zman	-14713
▁anticipation	-14714
▁injuring	-14715
▁ousted	-14716
chan	-14717
▁Alert	-14718
▁ber	-14719
atal	-14720
Com	-14721
▁04	-14722
▁afterward	-14723
edge	-14724
▁Booker	-14725
lex	-14726
▁Whole	-14727
▁toughest	-14728
▁Maharashtra	-14729
lier	-14730
[...]
