<unk>	0
<s>	0
</s>	0
-	-2.39039
/	-2.58721
.	-2.6274
://	-3.43141
▁https	-3.50414
_	-3.52754
=	-3.81412
www	-4.01732
com	-4.02478
&	-4.35603
0	-4.96345
2	-5.01176
1	-5.0366
?	-5.08054
a	-5.09573
3	-5.14908
9	-5.17904
s	-5.22774
4	-5.25982
e	-5.33436
5	-5.36248
c	-5.37441
8	-5.37879
6	-5.39138
7	-5.44741
d	-5.52186
b	-5.55714
de	-5.57647
html	-5.62572
gclid	-5.65298
utm	-5.73628
v	-5.74279
g	-5.82651
f	-5.89966
p	-5.91847
en	-5.9228
bwe	-6.02676
i	-6.03007
m	-6.11686
id	-6.12004
▁	-6.13851
co	-6.14048
=&	-6.19212
org	-6.23266
in	-6.24453
o	-6.25338
▁http	-6.2553
t	-6.25622
q	-6.26515
/?	-6.29458
x	-6.33626
r	-6.34628
+	-6.36192
google	-6.38571
es	-6.39861
y	-6.40863
k	-6.49888
l	-6.51596
n	-6.54783
cj	-6.5769
pdf	-6.60341
net	-6.60919
w	-6.61502
it	-6.6168
u	-6.6186
to	-6.63831
fr	-6.64932
wcb	-6.70152
watch	-6.7335
nl	-6.74979
youtube	-6.77266
ds	-6.78308
:	-6.78736
br	-6.79396
the	-6.80186
source	-6.83077
ch	-6.86638
h	-6.8715
j	-6.88984
z	-6.89613
wiki	-6.90367
search	-6.91024
jp	-6.91068
and	-6.9438
aw	-6.96663
campaign	-6.9905
uk	-6.9976
php	-7.00863
of	-7.01067
au	-7.01594
pl	-7.04416
kcqia	-7.07842
medium	-7.08634
ca	-7.09818
la	-7.11996
no	-7.18101
wikipedia	-7.18861
us	-7.20952
tr	-7.24806
content	-7.25716
se	-7.27065
be	-7.29286
eaiaiqobchmi	-7.29746
is	-7.30104
gclsrc	-7.3042
news	-7.31668
blog	-7.32586
tw	-7.32721
|	-7.33635
ad	-7.37908
th	-7.42953
=1&	-7.44296
ac	-7.44573
vn	-7.46589
on	-7.47235
do	-7.48199
for	-7.49093
pt	-7.50787
gov	-7.51074
index	-7.53183
matt	-7.53795
at	-7.55352
product	-7.55837
cjwkcaia	-7.5596
kwd	-7.56724
go	-7.62227
ar	-7.62459
cpc	-7.65119
mx	-7.66248
ru	-7.66263
facebook	-7.6717
kr	-7.67195
hl	-7.67624
edu	-7.67826
my	-7.697
an	-7.72273
hsa	-7.73164
,	-7.73293
article	-7.73589
na	-7.74834
amazon	-7.76507
term	-7.77639
how	-7.78708
tv	-7.80367
questions	-7.80796
https	-7.81699
as	-7.83285
htm	-7.84332
sa	-7.85831
tag	-7.87482
sem	-7.87527
dk	-7.87736
zh	-7.88499
el	-7.89386
web	-7.89992
info	-7.90077
da	-7.90297
video	-7.90586
all	-7.91574
online	-7.91742
za	-7.92015
ref	-7.92358
wp	-7.93224
fi	-7.93657
products	-7.94894
pd	-7.95614
cid	-7.95972
dp	-7.96255
al	-7.97147
ro	-7.97848
view	-7.98234
login	-8.02441
aspx	-8.02548
shop	-8.03055
ie	-8.03811
cz	-8.03957
page	-8.04522
or	-8.04535
brand	-8.04803
download	-8.06228
pro	-8.06318
qavd	-8.07026
home	-8.08032
ealw	-8.0815
un	-8.08248
sl	-8.08721
me	-8.08847
cl	-8.0994
forum	-8.10229
microsoft	-8.10328
ja	-8.10337
%2	-8.11841
pla	-8.11929
di	-8.13034
le	-8.13318
cc	-8.135
type	-8.16114
support	-8.2124
il	-8.22742
mt	-8.2334
et	-8.23689
gb	-8.23976
pc	-8.25022
ph	-8.26114
kw	-8.2698
new	-8.27115
detail	-8.27646
live	-8.27683
with	-8.27761
hu	-8.28289
eu	-8.28615
df	-8.29771
10	-8.2989
ec	-8.30122
nz	-8.30913
gr	-8.31685
si	-8.31723
by	-8.31756
ps	-8.33574
stackoverflow	-8.33909
ko	-8.34203
er	-8.35287
io	-8.35638
true	-8.35908
24	-8.36971
question	-8.3777
device	-8.37814
articles	-8.38373
=1	-8.39029
af	-8.40687
keyword	-8.41311
files	-8.41438
docs	-8.4188
free	-8.4262
post	-8.43057
15	-8.43847
=0&	-8.44637
app	-8.45164
pe	-8.4583
sk	-8.45851
re	-8.4604
reddit	-8.4636
ae	-8.46528
network	-8.4701
store	-8.47022
ap	-8.47023
ed	-8.47474
wa	-8.47512
li	-8.47729
aid	-8.48529
code	-8.48701
windows	-8.49159
cn	-8.49489
comments	-8.5
so	-8.50051
src	-8.50133
data	-8.50315
adwords	-8.50322
vi	-8.50408
from	-8.50433
up	-8.50494
ct	-8.50787
cm	-8.5116
)	-8.51735
du	-8.52635
file	-8.53068
25	-8.53201
hvqmt	-8.54072
hvdev	-8.54074
hvadid	-8.5414
hvnetw	-8.54249
hvrand	-8.54472
ce	-8.54507
hvpos	-8.54778
hvpone	-8.54779
hvptwo	-8.54779
;	-8.55058
para	-8.55252
19	-8.5532
em	-8.56042
what	-8.5618
hvtargid	-8.56408
fd	-8.56529
hvlocphy	-8.56562
category	-8.56698
hvlocint	-8.56879
ve	-8.56907
hvdvcmdl	-8.57107
ef	-8.57229
hp	-8.57323
ne	-8.57828
st	-8.57968
ai	-8.58312
ws	-8.58759
tu	-8.5941
cq	-8.59479
sc	-8.59648
site	-8.59952
20	-8.59974
ta	-8.60024
hk	-8.6016
01	-8.60256
top	-8.60591
ms	-8.61487
mm	-8.62171
best	-8.62245
ba	-8.62355
18	-8.62378
pa	-8.62898
vs	-8.63274
uploads	-8.63286
ag	-8.63753
07	-8.64439
list	-8.64764
te	-8.65208
21	-8.65356
business	-8.65617
rl	-8.66069
55	-8.66386
lp	-8.66474
mi	-8.66522
ma	-8.66562
ab	-8.6711
29	-8.67425
ly	-8.68328
ao	-8.68343
que	-8.68708
dc	-8.69527
su	-8.69882
lt	-8.70096
11	-8.70459
13	-8.70698
os	-8.70799
va	-8.72193
12	-8.72309
ir	-8.72933
brainly	-8.72983
00	-8.73016
ua	-8.7308
linkedin	-8.73831
^	-8.74471
bo	-8.75135
fa	-8.75442
14	-8.75563
cd	-8.75713
media	-8.75932
del	-8.76334
lang	-8.76793
doc	-8.76797
url	-8.76896
08	-8.77444
help	-8.77803
you	-8.77939
topic	-8.78045
group	-8.78343
hd	-8.78643
gl	-8.79062
auto	-8.79136
twitter	-8.7921
cs	-8.79413
service	-8.79865
ppc	-8.80256
guide	-8.80681
ver	-8.80867
hoc	-8.80893
sg	-8.8121
board	-8.81399
health	-8.82201
city	-8.8276
naver	-8.83232
con	-8.83325
item	-8.83806
nw	-8.84953
game	-8.85095
mp	-8.85258
16	-8.85342
09	-8.85359
nu	-8.85661
30	-8.86113
sp	-8.86514
db	-8.86867
hr	-8.87264
test	-8.87669
man	-8.87887
company	-8.88041
wt	-8.88471
fc	-8.88696
sites	-8.89053
ee	-8.89129
dr	-8.89771
document	-8.90217
rs	-8.90369
fl	-8.91085
bg	-8.91428
bd	-8.9178
one	-8.91998
sv	-8.92155
78	-8.922
covid	-8.92286
about	-8.92567
43	-8.93243
aud	-8.9414
47	-8.94155
can	-8.94313
17	-8.94531
69	-8.94572
cb	-8.94815
ip	-8.94902
im	-8.94934
loc	-8.95002
world	-8.95294
books	-8.95499
ga	-8.95528
ka	-8.96119
aiv	-8.96247
50	-8.96379
creative	-8.96383
cat	-8.96517
94	-8.96566
8&	-8.96958
ff	-8.9723
!!	-8.97324
answers	-8.97482
portal	-8.98113
bc	-8.98266
ng	-8.9839
are	-8.98428
van	-8.98543
office	-8.98545
hydadcr	-8.98558
instagram	-8.98611
ni	-8.98665
fe	-8.98697
ww	-8.9898
default	-8.9905
bb	-8.99427
pages	-8.99622
details	-8.99656
key	-8.99866
~	-8.99895
49	-8.99895
22	-9.00383
28	-9.00513
english	-9.00551
og	-9.00663
76	-9.0083
vd	-9.00868
aa	-9.00917
blogspot	-9.01099
les	-9.01184
text	-9.01522
ml	-9.01667
hotel	-9.01711
pk	-9.01786
get	-9.01886
99	-9.02211
videos	-9.02572
services	-9.02582
your	-9.02607
asp	-9.02632
sig	-9.02753
60	-9.02821
gs	-9.03287
dan	-9.03693
dsa	-9.03918
adgrpid	-9.04056
tech	-9.04431
pr	-9.04444
shopping	-9.0459
book	-9.0467
tt	-9.04894
05	-9.05405
scholar	-9.05519
45	-9.05564
ke	-9.05628
car	-9.05856
matchtype	-9.0597
gi	-9.06297
um	-9.07148
fandom	-9.07149
04	-9.07212
forums	-9.07395
am	-9.0743
om	-9.07468
53	-9.07875
-2-	-9.07938
85	-9.08199
community	-9.08205
op	-9.08254
lw	-9.08333
ti	-9.08599
und	-9.08655
campaignid	-9.08743
[	-9.0904
57	-9.09056
59	-9.09088
je	-9.09184
ved	-9.09228
dm	-9.09258
%3	-9.09386
series	-9.09577
qa	-9.09939
cf	-9.10198
-1-	-9.10247
02	-9.10358
64	-9.10393
word	-9.10444
38	-9.10453
he	-9.10515
32	-9.10647
not	-9.10773
play	-9.10922
mobile	-9.11098
oi	-9.11152
black	-9.11325
-10-	-9.11396
target	-9.1141
tl	-9.11455
plus	-9.11567
27	-9.11628
ou	-9.11636
js	-9.11653
wl	-9.11828
eb	-9.11928
name	-9.12248
posts	-9.12351
utf	-9.12374
03	-9.12969
ex	-9.13181
jobs	-9.13467
26	-9.13562
fw	-9.13621
life	-9.13694
gn	-9.13767
=2&	-9.13931
out	-9.14218
ea	-9.14546
link	-9.14616
bi	-9.14688
39	-9.14804
bf	-9.15181
med	-9.1522
we	-9.15287
qo	-9.15566
93	-9.15635
film	-9.15656
art	-9.15727
core	-9.15776
ii	-9.15993
88	-9.16095
06	-9.1632
qx	-9.16593
ji	-9.16737
58	-9.16764
gg	-9.16792
github	-9.16803
public	-9.1699
show	-9.17044
ge	-9.17406
gc	-9.1743
46	-9.17733
games	-9.17998
per	-9.18092
_(	-9.18562
40	-9.18576
ic	-9.18921
los	-9.18934
review	-9.1902
35	-9.19094
34	-9.19348
sport	-9.19494
48	-9.19545
66	-9.19715
92	-9.19754
cw	-9.19797
hi	-9.19923
ki	-9.20065
mo	-9.20152
movie	-9.20302
fb	-9.20515
serp	-9.20742
if	-9.20793
79	-9.208
23	-9.21431
adgroupid	-9.21434
31	-9.21437
client	-9.21564
ha	-9.21667
kcqjw	-9.21878
sex	-9.22175
44	-9.22373
gob	-9.22393
keywords	-9.2254
cam	-9.22711
68	-9.23036
mc	-9.23184
form	-9.23472
pg	-9.23494
user	-9.23631
threads	-9.24057
36	-9.24132
24.	-9.24312
-2021-	-9.24759
nb	-9.24776
signin	-9.2491
sub	-9.25128
set	-9.25334
kid	-9.25375
lg	-9.25594
smart	-9.2585
37	-9.26339
bbs	-9.26474
pi	-9.26589
cr	-9.27049
san	-9.27213
samsung	-9.27436
#	-9.27451
full	-9.2751
89	-9.27585
tistory	-9.27597
lo	-9.28042
65	-9.28064
rch	-9.28192
mg	-9.28205
80	-9.28226
digital	-9.2835
ing	-9.28413
documents	-9.28504
75	-9.28529
51	-9.29031
dd	-9.29122
70	-9.29463
av	-9.29489
54	-9.29828
52	-9.3017
agid	-9.30205
90	-9.30287
td	-9.30565
98	-9.3064
77	-9.30802
apps	-9.31003
56	-9.31021
ei	-9.31057
po	-9.31349
ra	-9.31388
yahoo	-9.31499
!	-9.32058
system	-9.32104
96	-9.32137
read	-9.32147
rx	-9.32258
time	-9.3228
exact	-9.32697
jm	-9.32998
find	-9.33223
95	-9.33312
cu	-9.33875
oh	-9.33952
des	-9.3407
rd	-9.34408
software	-9.34662
gp	-9.34742
yi	-9.34756
42	-9.34808
oq	-9.34825
41	-9.34882
ssl	-9.35001
ya	-9.35121
33	-9.35222
power	-9.35289
lv	-9.35292
locale	-9.3531
hc	-9.35412
aps	-9.35443
club	-9.35461
wr	-9.35691
air	-9.3591
86	-9.36051
ebay	-9.36077
general	-9.36148
story	-9.36505
aff	-9.37068
74	-9.37188
day	-9.37251
ky	-9.37255
84	-9.37316
channel	-9.3797
placement	-9.37985
apple	-9.38098
%	-9.38133
ho	-9.38316
lu	-9.38396
srf	-9.38535
ci	-9.39046
61	-9.39213
ui	-9.39217
ts	-9.393
97	-9.39501
jb	-9.40039
job	-9.40147
redirect	-9.40322
wo	-9.40545
yn	-9.40558
android	-9.40653
sea	-9.40956
67	-9.41435
87	-9.41599
ny	-9.41956
psc	-9.41987
model	-9.42354
mbi	-9.42501
ia	-9.42656
dev	-9.42739
hoi	-9.42756
hf	-9.42791
km	-9.43603
global	-9.43825
sr	-9.43931
qiv	-9.447
xvideos	-9.44722
cards	-9.44827
sale	-9.45109
sh	-9.45143
management	-9.4527
oy	-9.45328
law	-9.45356
science	-9.45746
open	-9.45855
81	-9.45987
state	-9.46159
1.0&	-9.462
intl	-9.4621
shopee	-9.46503
-21&	-9.46647
63	-9.46649
sm	-9.46807
quora	-9.47116
bank	-9.47411
der	-9.47808
faq	-9.48044
outlook	-9.48147
title	-9.48233
ty	-9.48349
=13&	-9.48351
social	-9.4846
bl	-9.48682
gt	-9.48864
profile	-9.48919
api	-9.48984
school	-9.49196
82	-9.49441
ban	-9.49457
using	-9.49594
xxx	-9.50338
design	-9.50427
porn	-9.5043
original	-9.50572
kg	-9.50739
wreply	-9.50843
qk	-9.50951
vis	-9.51028
nih	-9.51127
rver	-9.51157
ht	-9.51199
ocr	-9.51373
cmp	-9.51471
dictionary	-9.51612
dl	-9.51647
use	-9.51946
tn	-9.51977
pm	-9.52106
73	-9.52221
kwcid	-9.52326
local	-9.52357
property	-9.52388
flash	-9.52538
cg	-9.52855
mk	-9.52871
62	-9.5289
rpsnv	-9.52904
az	-9.52926
main	-9.53102
wordpress	-9.5317
max	-9.53267
las	-9.53314
line	-9.53355
asc	-9.53387
music	-9.53488
xc	-9.53604
hm	-9.5366
work	-9.5372
pinterest	-9.53773
71	-9.53847
super	-9.54064
zx	-9.54121
biz	-9.54164
red	-9.54217
jg	-9.5428
83	-9.54292
star	-9.5441
box	-9.54443
ok	-9.54534
son	-9.54557
market	-9.54591
tp	-9.54736
fp	-9.54778
cp	-9.54789
owa	-9.54889
mode	-9.5499
ku	-9.55025
por	-9.55523
food	-9.55554
xnxx	-9.55648
72	-9.56001
noticias	-9.56157
paid	-9.56195
reviews	-9.56433
91	-9.56514
position	-9.56846
resources	-9.56881
sw	-9.56908
match	-9.57097
status	-9.57154
language	-9.57202
mail	-9.57371
travel	-9.57465
targetid	-9.57755
table	-9.57758
uri	-9.57855
tool	-9.58056
ut	-9.58114
server	-9.587
ri	-9.58743
-3-	-9.58817
pid	-9.59011
movies	-9.59176
bn	-9.59528
false	-9.59649
adredir	-9.59696
gen	-9.59787
land	-9.59956
entry	-9.60153
dq	-9.60153
buy	-9.60161
chapter	-9.60233
researchgate	-9.6033
ev	-9.60463
py	-9.60573
tips	-9.60656
people	-9.60712
bing	-9.6085
acc	-9.60929
india	-9.60995
=3&	-9.61186
plan	-9.61301
why	-9.61353
adgroup	-9.61729
pin	-9.62192
cua	-9.62327
error	-9.62564
auth	-9.62625
care	-9.62803
tc	-9.62815
contact	-9.62937
account	-9.63282
jsp	-9.63326
mu	-9.63372
pq	-9.63585
nc	-9.63685
cloud	-9.63771
nlm	-9.63986
house	-9.64084
led	-9.64094
md	-9.64104
fm	-9.64221
params	-9.64235
big	-9.64346
nt	-9.64506
education	-9.64577
project	-9.64612
python	-9.64725
ask	-9.6508
zu	-9.65174
manual	-9.65358
aod	-9.65448
publication	-9.65875
organic	-9.66038
start	-9.6604
response	-9.66064
center	-9.66116
mod	-9.66147
card	-9.66176
chi	-9.6632
kb	-9.66356
doi	-9.6645
library	-9.66681
▁|	-9.66846
die	-9.67002
solutions	-9.67097
location	-9.67156
ek	-9.674
jo	-9.67461
action	-9.67494
booking	-9.67595
ncbi	-9.67675
ul	-9.67702
sn	-9.67729
ads	-9.67837
desktop	-9.67896
tags	-9.68396
class	-9.68458
country	-9.68589
wi	-9.68754
▁+	-9.68972
excel	-9.6944
ik	-9.69442
tools	-9.69534
uni	-9.69544
information	-9.69605
study	-9.69873
landing	-9.70275
tm	-9.70304
eg	-9.7034
postview	-9.70375
pornhub	-9.70391
mit	-9.7071
cv	-9.70724
ns	-9.7074
over	-9.71053
kc	-9.71526
-19-	-9.71528
bar	-9.71588
segment	-9.71819
accounts	-9.71924
lat	-9.71966
tai	-9.71993
ah	-9.7236
tgt	-9.72565
report	-9.72844
mr	-9.72849
iz	-9.72939
iphone	-9.73111
menu	-9.73205
aclk	-9.73241
pmc	-9.73245
ls	-9.73252
bp	-9.73288
drive	-9.73342
wy	-9.73559
asid	-9.73689
nm	-9.73723
adurl	-9.73871
googleadservices	-9.7401
uc	-9.74269
price	-9.74318
pagead	-9.74417
goog	-9.74668
fs	-9.74753
rh	-9.75422
our	-9.75635
ggl	-9.75701
adid	-9.76027
sports	-9.76053
ohost	-9.7618
np	-9.7623
adposition	-9.7645
lk	-9.76479
linkcode	-9.76513
tb	-9.76782
iq	-9.76803
master	-9.7691
cho	-9.7692
internet	-9.76945
cau	-9.76955
that	-9.77151
thread	-9.77155
images	-9.77205
label	-9.77299
logno	-9.77364
como	-9.77422
ft	-9.77669
tin	-9.77767
blogid	-9.7788
lab	-9.78147
ss	-9.78318
cgi	-9.7837
hot	-9.78448
tab	-9.78457
bio	-9.78593
collections	-9.78648
may	-9.78886
quizlet	-9.78911
bu	-9.78943
token	-9.78949
wh	-9.78996
bt	-9.79056
ext	-9.79098
gaming	-9.79404
*	-9.79405
non	-9.80212
sur	-9.80382
archives	-9.80416
pre	-9.80427
team	-9.80478
mbhaqeiwa	-9.8072
bhdfarisa	-9.80764
men	-9.80869
downloads	-9.81031
park	-9.81058
bhdtarisa	-9.81295
porno	-9.81367
qz	-9.81384
ak	-9.81398
ur	-9.81462
hotels	-9.81521
qu	-9.81549
trong	-9.81673
dob	-9.82213
map	-9.82281
pos	-9.82323
real	-9.82484
xx	-9.82627
research	-9.8263
ks	-9.82834
mb	-9.82865
una	-9.82993
nam	-9.8333
int	-9.83603
tz	-9.83706
512	-9.83744
gu	-9.83808
grp	-9.8381
version	-9.83813
-5-	-9.83841
nd	-9.83857
answer	-9.83892
vr	-9.8398
tx	-9.8402
(	-9.84136
","	-9.84145
partner	-9.84316
love	-9.84325
tch	-9.84426
win	-9.84734
dung	-9.84842
arisao	-9.84861
vu	-9.84916
audio	-9.85105
▁de	-9.85179
mv	-9.85275
scribd	-9.85295
custom	-9.85482
dt	-9.85567
mat	-9.85585
mini	-9.85697
wld	-9.85738
geo	-9.8576
international	-9.86025
rt	-9.86106
catalog	-9.8616
galaxy	-9.86316
gia	-9.86318
bs	-9.86343
way	-9.86574
qc	-9.86811
water	-9.86841
ze	-9.86891
mn	-9.87167
cars	-9.87386
control	-9.87448
journal	-9.87644
fo	-9.87709
uo	-9.87712
case	-9.87861
kqavd	-9.87877
imbhaueiwa	-9.87914
lc	-9.87975
vol	-9.87998
'	-9.88213
france	-9.88275
rev	-9.88289
bitstream	-9.88335
click	-9.88384
sid	-9.88611
first	-9.8863
met	-9.88732
wd	-9.88763
oo	-9.88799
yo	-9.88944
goo	-9.89091
learning	-9.8916
studio	-9.89179
iarisa	-9.89234
multi	-9.89496
cy	-9.89683
cjwkcaiah	-9.89703
rc	-9.89764
handle	-9.89775
vz	-9.89791
when	-9.89857
kz	-9.8988
old	-9.89943
hs	-9.90001
stock	-9.90029
xe	-9.90031
radio	-9.90136
xl	-9.9041
who	-9.90455
part	-9.90539
yu	-9.90791
personal	-9.90991
uy	-9.9116
pour	-9.91161
yqavd	-9.91161
=7.0.673	-9.91193
redir	-9.91242
gqavd	-9.91294
adjust	-9.91357
ep	-9.9159
-10	-9.91619
pp	-9.9164
dong	-9.91738
och	-9.91801
now	-9.91857
photos	-9.91965
kit	-9.91975
ju	-9.91977
pu	-9.92058
date	-9.921
das	-9.92121
qqavd	-9.92178
edge	-9.9222
od	-9.92256
sdt	-9.92273
tid	-9.92578
tax	-9.92621
mqavd	-9.92764
ix	-9.9307
family	-9.93081
continue	-9.9321
intel	-9.93243
ot	-9.93292
tripadvisor	-9.93494
cobrandid	-9.9352
uarisa	-9.93857
security	-9.93901
dell	-9.93913
bai	-9.94034
kcqiaq	-9.94042
qq	-9.94204
number	-9.9427
dy	-9.9428
direct	-9.94283
itm	-9.94456
check	-9.94487
7.0&	-9.94491
cbcxt	-9.94528
update	-9.94551
qs	-9.9456
bhdoarisaf	-9.9459
rpscsrfstate	-9.94674
song	-9.94699
sb	-9.94702
eng	-9.94722
subdomain	-9.94739
=292841&	-9.94751
flname	-9.94804
cqavd	-9.94898
program	-9.94973
learn	-9.94981
high	-9.95022
gas	-9.95204
anime	-9.95349
issues	-9.95574
=90015	-9.95673
parts	-9.95979
fy	-9.96014
rm	-9.96034
white	-9.96124
image	-9.96163
zo	-9.96379
more	-9.9657
coronavirus	-9.96617
resource	-9.96694
math	-9.96751
dj	-9.96814
rj	-9.97046
uqavd	-9.97132
oz	-9.97248
nn	-9.97253
sema	-9.9728
canada	-9.97317
motor	-9.97357
java	-9.97463
soft	-9.97569
topics	-9.9764
httpsredirect	-9.97875
blue	-9.97908
order	-9.97909
make	-9.97929
vo	-9.98051
laptop	-9.98061
course	-9.98078
ck	-9.98393
hz	-9.98513
fu	-9.98527
sql	-9.98691
mh	-9.98698
-4-	-9.98932
kh	-9.99017
mercadolibre	-9.99021
-20&	-9.99275
base	-9.99319
rb	-9.99372
bhcgarisa	-9.99447
marketing	-9.9949
hy	-9.99558
hub	-9.9961
cjwkcaiav	-9.9965
does	-9.99668
kcqiay	-9.99693
sky	-9.99917
history	-9.99994
nr	-10.0001
vk	-10.0004
mas	-10.0016
access	-10.0023
courses	-10.0033
casa	-10.0051
mac	-10.0055
torrent	-10.0066
tg	-10.0068
mon	-10.007
after	-10.0071
hq	-10.0077
year	-10.0081
cms	-10.0085
connect	-10.0106
cjwkcajwz	-10.0118
bk	-10.0144
lm	-10.0152
aj	-10.0153
vw	-10.0165
dz	-10.0181
gm	-10.0182
bh	-10.0185
create	-10.0187
sch	-10.0188
change	-10.0193
viet	-10.0194
long	-10.0199
cong	-10.0209
display	-10.0222
green	-10.0223
query	-10.023
size	-10.0234
sqavd	-10.0238
jw	-10.0256
iv	-10.0265
bqeiwa	-10.0271
extra	-10.0278
finance	-10.0282
param	-10.0284
translate	-10.029
browse	-10.0305
openid	-10.031
referrer	-10.0313
rp	-10.0326
bol	-10.0335
prod	-10.034
wqavd	-10.0348
scholart	-10.0349
eqavd	-10.0369
next	-10.0372
money	-10.0375
value	-10.0377
two	-10.0384
emquery	-10.0388
season	-10.0393
%20	-10.0394
ux	-10.0399
gay	-10.0425
oqavd	-10.0432
dos	-10.0441
pw	-10.0442
ez	-10.0445
fx	-10.0451
den	-10.0491
ry	-10.0498
twsrc	-10.0509
none	-10.0511
res	-10.0514
has	-10.0516
quiz	-10.0527
pub	-10.0535
her	-10.054
twgr	-10.0544
twcamp	-10.0554
001	-10.0559
sort	-10.0566
gh	-10.0571
admin	-10.0572
zi	-10.0584
kids	-10.059
age	-10.0596
email	-10.0604
physical	-10.0628
-12-	-10.0645
tk	-10.0652
usb	-10.0669
tarea	-10.0669
branded	-10.0689
ow	-10.0692
aqavd	-10.0694
guides	-10.07
restaurant	-10.0701
baidu	-10.0705
neg	-10.0709
bv	-10.0711
medical	-10.0734
room	-10.0743
zw	-10.0749
adobe	-10.0757
の	-10.0769
ys	-10.0778
training	-10.0793
kt	-10.0799
zm	-10.0808
iqavd	-10.0818
was	-10.0823
http	-10.0835
episode	-10.0837
googhydr	-10.0861
event	-10.0862
wx	-10.0867
photo	-10.0869
-2022-	-10.0901
dw	-10.0903
ram	-10.0909
/?&	-10.0914
kan	-10.0915
hb	-10.0919
par	-10.094
usa	-10.0952
other	-10.0989
bbc	-10.0996
area	-10.0999
ym	-10.1015
merchant	-10.1024
xhamster	-10.1028
collection	-10.1051
bw	-10.1071
today	-10.1072
hn	-10.1085
tube	-10.1085
eaayasaaegi	-10.1088
qt	-10.1102
srch	-10.111
paper	-10.1112
light	-10.1129
have	-10.1144
hw	-10.1152
uz	-10.1157
women	-10.1162
ov	-10.1175
kwid	-10.1178
nh	-10.1183
national	-10.1198
dia	-10.1208
between	-10.1218
ln	-10.122
01.	-10.1223
fix	-10.1224
kl	-10.1246
produto	-10.1262
thai	-10.1265
blogs	-10.127
domain	-10.1273
]=	-10.1274
author	-10.1283
node	-10.1293
cjwkcaiat	-10.1295
ist	-10.1298
generic	-10.13
ig	-10.1303
eaayasaaegk	-10.1309
point	-10.1311
premium	-10.1319
request	-10.1321
lb	-10.1322
ug	-10.133
als	-10.1343
scope	-10.1358
pb	-10.1361
100	-10.1364
zz	-10.1365
xyz	-10.137
qr	-10.1384
filter	-10.1385
anti	-10.14
print	-10.1407
sy	-10.1421
eaayasaaegl	-10.145
string	-10.1477
cap	-10.1482
=1;	-10.1483
eaayasaaegj	-10.1483
magazine	-10.1499
artikel	-10.1499
computer	-10.1507
rio	-10.1508
press	-10.1516
archive	-10.152
bm	-10.1526
assets	-10.1531
color	-10.1531
ej	-10.1532
nk	-10.1533
interest	-10.1548
easy	-10.155
wg	-10.1551
-11-	-10.1557
tri	-10.157
ob	-10.1593
knowledge	-10.1608
une	-10.1622
slideshare	-10.1623
nj	-10.1625
tf	-10.1631
off	-10.1634
pf	-10.164
viewtopic	-10.1645
mot	-10.1669
hh	-10.167
21&	-10.1674
-2021/	-10.1679
sap	-10.1681
jr	-10.1684
ol	-10.1686
sd	-10.169
christmas	-10.1698
cach	-10.17
kp	-10.1704
upload	-10.1706
eur	-10.1706
8%	-10.1716
partition	-10.174
ski	-10.174
region	-10.1745
edition	-10.1757
zg	-10.1768
asia	-10.1769
-10573980&	-10.1775
chat	-10.1803
log	-10.1804
mag	-10.1808
wu	-10.1809
bad	-10.1813
final	-10.1818
kk	-10.1822
this	-10.1833
nsw	-10.1838
platform	-10.1839
wb	-10.1843
currency	-10.1844
qm	-10.1845
centre	-10.1849
noticia	-10.185
ye	-10.1853
roc	-10.1869
pack	-10.1877
add	-10.1878
ud	-10.1882
bao	-10.1887
tap	-10.1896
433	-10.1896
bus	-10.1897
wm	-10.1897
xa	-10.1905
wiv	-10.1913
technology	-10.1917
lr	-10.1919
gv	-10.1925
place	-10.1929
vy	-10.1946
central	-10.1951
gq	-10.1952
ال	-10.196
pay	-10.1963
mmc	-10.1968
wiz	-10.197
ax	-10.1971
||	-10.1978
any	-10.1981
1:	-10.199
storage	-10.199
thi	-10.1992
het	-10.1993
good	-10.1996
gk	-10.2005
uu	-10.2017
lh	-10.2027
gold	-10.2037
phan	-10.2039
feed	-10.206
vem	-10.207
fh	-10.2093
mw	-10.2098
manga	-10.2098
football	-10.2099
lib	-10.2123
fuer	-10.2125
south	-10.2127
rf	-10.2127
rq	-10.213
psk	-10.2137
uw	-10.2145
jealw	-10.2158
chrome	-10.2158
euro	-10.2159
fun	-10.2188
boc	-10.2192
gall	-10.2203
dam	-10.221
/~	-10.2215
jc	-10.2238
articulo	-10.2238
lenovo	-10.2243
namu	-10.2245
tier	-10.2248
xp	-10.2249
events	-10.2255
context	-10.2262
ll	-10.2265
only	-10.2283
rr	-10.2284
eq	-10.2285
lyrics	-10.2286
energy	-10.2297
xealw	-10.2299
rn	-10.2301
=100	-10.2301
build	-10.2308
tim	-10.232
css	-10.2328
cx	-10.2329
australia	-10.2332
mlb	-10.2336
mid	-10.2337
zy	-10.234
nao	-10.2341
student	-10.2349
dec	-10.2363
performance	-10.2366
gw	-10.2367
serie	-10.2375
+-+	-10.2382
vealw	-10.2412
cac	-10.2415
zone	-10.2426
yealw	-10.243
ey	-10.2433
latest	-10.2434
sci	-10.2435
xu	-10.2452
europa	-10.2454
mexico	-10.2457
zealw	-10.246
mkt	-10.2461
-2021	-10.2471
amp	-10.2481
kealw	-10.2482
ford	-10.2483
west	-10.2486
baby	-10.2488
pop	-10.2492
cao	-10.2494
365	-10.2498
style	-10.2498
publications	-10.2501
pn	-10.2509
ld	-10.2524
ij	-10.2532
bealw	-10.2533
jk	-10.2534
sku	-10.2548
qealw	-10.2549
application	-10.2557
healw	-10.256
china	-10.2562
promo	-10.2564
uealw	-10.2574
ler	-10.2579
website	-10.2584
tan	-10.259
ter	-10.2603
lf	-10.2609
stackexchange	-10.2617
scielo	-10.2618
hoa	-10.2626
gealw	-10.263
will	-10.2633
gratis	-10.2637
returnurl	-10.2637
listing	-10.2641
uv	-10.2646
fil	-10.2661
lazada	-10.2663
culture	-10.2675
pealw	-10.2692
-12	-10.2694
switch	-10.2704
girl	-10.2706
vl	-10.2707
legal	-10.2722
back	-10.2725
space	-10.273
fealw	-10.2738
wealw	-10.274
min	-10.2747
weather	-10.2752
sun	-10.2758
king	-10.2762
ox	-10.2764
sz	-10.2769
oc	-10.2779
mealw	-10.2781
via	-10.2785
newtab	-10.2786
ub	-10.2792
866	-10.2793
و	-10.2796
maps	-10.2802
recipes	-10.2803
yt	-10.2806
examples	-10.2806
voor	-10.2807
mar	-10.2814
pcrid	-10.2816
xi	-10.2841
variant	-10.2843
000	-10.2843
asus	-10.2849
fall	-10.2851
tealw	-10.2854
jd	-10.2857
bj	-10.2857
directory	-10.2859
phone	-10.2862
dg	-10.2862
360	-10.2862
college	-10.2876
zarisa	-10.2896
xoc	-10.2897
oealw	-10.2909
mall	-10.2916
track	-10.2918
vt	-10.292
player	-10.2927
iealw	-10.294
txt	-10.2953
groups	-10.2954
0%	-10.2964
dcinside	-10.2976
canva	-10.2978
cealw	-10.2983
egi	-10.299
driver	-10.2991
nealw	-10.2992
rw	-10.2995
gx	-10.3001
uj	-10.3011
azure	-10.3011
port	-10.3016
dien	-10.3031
hay	-10.3042
engineering	-10.3047
hg	-10.3048
abc	-10.3057
bay	-10.3061
uq	-10.3077
anh	-10.3099
mq	-10.3102
/2021/	-10.3122
sao	-10.3132
cafe	-10.3135
oauth	-10.3135
fn	-10.3139
xo	-10.3148
realestate	-10.3159
express	-10.316
act	-10.3162
moi	-10.3169
wk	-10.317
entertainment	-10.3181
dn	-10.3182
rk	-10.3194
dap	-10.3202
iw	-10.3206
zf	-10.321
sim	-10.322
kd	-10.3221
wj	-10.3225
standard	-10.3236
sec	-10.3245
lealw	-10.3249
development	-10.3249
which	-10.3252
gamer	-10.3263
rg	-10.3264
wf	-10.3268
von	-10.3283
comment	-10.3295
abs	-10.3299
dh	-10.3301
pto	-10.3302
note	-10.3306
academy	-10.3308
wn	-10.3309
know	-10.3319
share	-10.3325
imdb	-10.3327
indeed	-10.334
▁(	-10.3348
tinh	-10.3353
pan	-10.3357
war	-10.3362
categories	-10.3368
ue	-10.3372
thu	-10.3379
kzknbhd	-10.3384
unit	-10.3391
gy	-10.3399
sealw	-10.3402
hj	-10.3417
pure	-10.3419
spa	-10.342
convert	-10.3431
lan	-10.3431
eealw	-10.3434
accessories	-10.3454
beauty	-10.3454
wc	-10.3455
ptt	-10.3457
origin	-10.3458
daily	-10.3462
-20-	-10.3465
electric	-10.3468
analysis	-10.347
mf	-10.3477
manager	-10.3501
pet	-10.3519
rv	-10.3531
dvd	-10.3537
mz	-10.3545
oj	-10.3551
unemjzvf	-10.3573
aealw	-10.3574
inter	-10.3586
dkm	-10.3586
dealw	-10.3595
conversion	-10.3615
compare	-10.3616
systems	-10.3621
bang	-10.3645
kn	-10.3661
moto	-10.3664
exam	-10.3664
sobre	-10.3671
body	-10.3674
arisakx	-10.3685
person	-10.3687
kni	-10.3688
mbhdn	-10.3689
journals	-10.3693
olx	-10.3707
iu	-10.3714
install	-10.3724
qiknbh	-10.373
ieiwau	-10.3731
fire	-10.3737
used	-10.3743
zt	-10.3746
bmw	-10.3752
pass	-10.3758
}&	-10.378
lam	-10.3781
pz	-10.3784
realw	-10.3796
pj	-10.3816
bhapeiwa	-10.382
vic	-10.3821
wq	-10.3821
vm	-10.3837
low	-10.3848
down	-10.3857
-15-	-10.3859
recipe	-10.3865
nv	-10.3867
oim	-10.3869
qi	-10.3872
ifg	-10.3879
px	-10.3887
bz	-10.3892
minecraft	-10.3893
stream	-10.3895
run	-10.3902
zs	-10.3907
nx	-10.3912
ew	-10.3919
oe	-10.392
virtual	-10.3923
trade	-10.3928
sequence	-10.393
kj	-10.3934
release	-10.3937
bit	-10.3938
bin	-10.3941
insurance	-10.3942
script	-10.3947
toyota	-10.3949
vf	-10.3954
voi	-10.3956
special	-10.3961
dir	-10.3966
uh	-10.3966
forms	-10.3967
xy	-10.3969
yy	-10.3972
reference	-10.3973
pubmed	-10.3977
/@	-10.3982
che	-10.3989
its	-10.3989
bhameiwa	-10.3993
dv	-10.3995
msn	-10.4
xt	-10.4
jj	-10.4004
aliexpress	-10.4008
lz	-10.4008
wz	-10.4012
tj	-10.4023
results	-10.4023
bq	-10.4024
basic	-10.4034
-100	-10.4035
common	-10.4038
-2020-	-10.4044
difference	-10.4044
paris	-10.405
/10-	-10.4064
lx	-10.4068
yk	-10.4069
]	-10.4077
netflix	-10.4082
dai	-10.4083
lista	-10.4109
fq	-10.4112
izle	-10.4126
machine	-10.4133
={	-10.4133
sf	-10.4143
path	-10.4156
safety	-10.4162
=5&	-10.4173
yl	-10.4177
est	-10.4181
university	-10.4186
dx	-10.4211
kmbhazeiwas	-10.4212
yw	-10.4213
ots	-10.4215
eh	-10.422
renbhayeiwafggkp	-10.4222
gf	-10.4224
kfz	-10.4238
jn	-10.424
zl	-10.4252
vip	-10.4258
noi	-10.426
2:	-10.426
tra	-10.4266
column	-10.4274
kq	-10.4297
rent	-10.4297
devicemodel	-10.4299
most	-10.4305
call	-10.4306
rakuten	-10.4317
ay	-10.4327
var	-10.4329
working	-10.4329
row	-10.4343
mix	-10.4345
tel	-10.4347
sqo	-10.437
corona	-10.4371
ung	-10.4379
bhbteiwa	-10.438
nq	-10.4389
sys	-10.439
road	-10.4396
gws	-10.4408
cdn	-10.441
sol	-10.4416
keep	-10.4435
tugas	-10.4439
models	-10.4441
nhat	-10.4444
njuj	-10.4449
nonce	-10.4451
related	-10.4452
edit	-10.4456
field	-10.4463
fbtn	-10.4464
sqom	-10.4486
rdn	-10.4486
lj	-10.4489
aq	-10.4491
247.	-10.4491
mbhc	-10.4496
oa	-10.4497
lq	-10.4499
bhcvarisa	-10.4505
simple	-10.4512
jl	-10.4513
tarefa	-10.4524
kcqiatj	-10.454
sso	-10.4541
single	-10.4551
poi	-10.4564
iso	-10.4574
han	-10.4576
-100-	-10.458
mega	-10.459
monitor	-10.4594
ley	-10.4595
produkt	-10.4596
hang	-10.4597
but	-10.4598
just	-10.4599
dog	-10.4611
xr	-10.462
mundo	-10.4623
ltd	-10.4623
cmpid	-10.4638
sj	-10.4641
ton	-10.4641
gd	-10.4647
jh	-10.4647
classic	-10.4649
level	-10.465
europe	-10.4653
pantip	-10.4656
til	-10.4658
fk	-10.466
fan	-10.4662
dct	-10.4663
don	-10.4665
locations	-10.467
uf	-10.4677
cambridge	-10.469
nike	-10.4692
bynbh	-10.4694
mlbhb	-10.4701
companies	-10.4716
zn	-10.4721
hai	-10.4729
select	-10.4731
tuc	-10.4734
offer	-10.4736
homework	-10.4739
mark	-10.4749
xh	-10.475
sciencedirect	-10.4753
apply	-10.4754
need	-10.4754
adword	-10.4771
items	-10.4772
vg	-10.4794
num	-10.4796
cjwkcajwq	-10.4798
trk	-10.4804
rz	-10.4804
golf	-10.4812
ih	-10.4813
xrr	-10.4816
kv	-10.4818
feature	-10.482
policy	-10.4824
feeditemid	-10.4827
wv	-10.4827
bhbceiwa	-10.4837
gnwe	-10.4838
zr	-10.4839
ahr	-10.4839
lifestyle	-10.4856
sales	-10.4857
grand	-10.486
linux	-10.4861
bhbieiwa	-10.4867
solution	-10.4873
tec	-10.4875
jav	-10.4881
jy	-10.4881
ocid	-10.4884
cara	-10.492
mom	-10.4924
itemid	-10.4928
function	-10.4929
passive	-10.4935
xm	-10.4937
nf	-10.4943
ser	-10.4951
xti	-10.4954
career	-10.4961
ql	-10.4966
north	-10.4966
drivers	-10.4968
xs	-10.4968
stories	-10.4974
yang	-10.4981
hop	-10.4986
gz	-10.4993
material	-10.4999
qw	-10.5012
xjspbh	-10.5014
eiwaeo	-10.5015
toppr	-10.5015
static	-10.5029
chu	-10.5038
like	-10.5042
camera	-10.5044
projects	-10.5045
rvgi	-10.5045
hx	-10.5046
micro	-10.505
steel	-10.5055
cjwkcaiaz	-10.5061
overview	-10.5064
yr	-10.5065
times	-10.5068
module	-10.5071
bhaleiwa	-10.5099
building	-10.5106
japan	-10.5108
jak	-10.5112
-11	-10.5117
fj	-10.5117
impact	-10.5118
zq	-10.5134
dat	-10.5134
reg	-10.5136
credit	-10.5138
foto	-10.514
developer	-10.5145
wireless	-10.5149
nugnbhc	-10.5161
bau	-10.5166
vb	-10.5178
khr	-10.5179
mj	-10.5185
zc	-10.5186
wood	-10.5188
screen	-10.5193
qgnbhd	-10.5195
lpg	-10.5196
qn	-10.5199
tour	-10.5199
zj	-10.5205
gmb	-10.5206
camp	-10.5207
ten	-10.5229
ة	-10.5229
ssd	-10.5235
tq	-10.5236
salud	-10.5239
ib	-10.5244
sante	-10.5256
step	-10.5256
jt	-10.5262
kx	-10.5265
living	-10.5266
where	-10.5277
streaming	-10.528
xiaomi	-10.5281
database	-10.5282
gj	-10.5285
ged	-10.5288
mods	-10.529
jq	-10.5296
careers	-10.5316
hard	-10.5322
rliyh	-10.5329
umfuz	-10.533
tsvyk	-10.5331
hv	-10.5331
ppccp	-10.5337
qj	-10.5344
force	-10.5351
nieuws	-10.5357
sony	-10.5365
zhihu	-10.5376
lfqobh	-10.5383
aeeiwa	-10.5389
advice	-10.5389
kar	-10.5392
vsobhc	-10.5394
qy	-10.5398
ombhcuarisailndv	-10.5402
karisag	-10.5407
qh	-10.5409
cjwkcaiap	-10.5415
kcqjww	-10.5415
sq	-10.5424
wall	-10.5435
vp	-10.5436
arisaj	-10.5443
zk	-10.5451
ini	-10.5464
eo	-10.5466
weanbh	-10.5466
gallery	-10.547
docx	-10.5474
vat	-10.5483
fz	-10.551
arisapp	-10.5513
oil	-10.5514
talk	-10.5514
pbhdv	-10.5515
lcp	-10.5526
fg	-10.5534
works	-10.5536
current	-10.5538
historia	-10.5544
mercadolivre	-10.555
face	-10.5558
notes	-10.5559
tokyo	-10.5581
showthread	-10.5583
tam	-10.5584
yp	-10.5585
yq	-10.5586
khi	-10.5599
mtd	-10.5606
pupk	-10.561
tutorial	-10.5623
street	-10.5633
electronics	-10.5639
discussions	-10.564
olbhc	-10.5641
silent	-10.5653
qb	-10.5662
indonesia	-10.5664
schools	-10.5667
ios	-10.5668
last	-10.5695
active	-10.5696
vh	-10.5701
solar	-10.5703
into	-10.5706
chegg	-10.5717
vid	-10.5719
quan	-10.5723
qld	-10.5726
fit	-10.573
under	-10.5732
cre	-10.5737
qp	-10.5746
united	-10.5747
khong	-10.5747
pixnet	-10.5767
yh	-10.5769
obhdmarisa	-10.5772
]=&	-10.5791
wobhcwarisaaihne	-10.5798
professional	-10.581
teen	-10.5811
espanol	-10.5811
total	-10.5815
wifi	-10.5821
kcqiak	-10.583
vpn	-10.5836
amd	-10.584
xbox	-10.5844
nova	-10.5848
ville	-10.5848
jz	-10.5849
brasil	-10.5851
allegro	-10.5853
kim	-10.5862
garden	-10.5864
ham	-10.5875
girls	-10.5884
yz	-10.5884
london	-10.5886
cjwkcajwi	-10.5892
arisad	-10.5893
obhdq	-10.5897
homes	-10.5901
zp	-10.591
should	-10.5914
than	-10.5915
xd	-10.5924
ultra	-10.5936
zd	-10.5937
sound	-10.5942
aceid	-10.5943
null	-10.5955
nha	-10.5957
rock	-10.5967
industry	-10.5969
的	-10.597
-30-	-10.5976
raspbhd	-10.598
hybrid	-10.5982
fast	-10.5992
head	-10.5994
enc	-10.5994
definition	-10.6004
pas	-10.6007
result	-10.6007
bike	-10.601
xw	-10.6013
stores	-10.6022
mai	-10.6023
javascript	-10.6024
kcqjwlomlbh	-10.6029
charisagi	-10.6029
flights	-10.6033
thong	-10.6037
yj	-10.6041
nos	-10.6048
qg	-10.6053
types	-10.6053
dom	-10.6053
jx	-10.6057
trans	-10.6058
italia	-10.6059
listado	-10.6063
mens	-10.6067
val	-10.6068
531	-10.6112
bab	-10.6112
customer	-10.6125
phim	-10.6129
speed	-10.6144
@	-10.6162
arisag	-10.6162
ice	-10.6173
_781	-10.6174
metal	-10.6179
guia	-10.6189
japanese	-10.6198
131	-10.6202
ray	-10.6207
sag	-10.6211
zoom	-10.6211
pv	-10.6213
nhan	-10.6214
ring	-10.6215
jf	-10.6224
yf	-10.6224
boy	-10.6231
authorize	-10.624
codes	-10.6241
qobhc	-10.6251
private	-10.6255
xq	-10.6259
tree	-10.6264
kitchen	-10.6267
inc	-10.6284
side	-10.6285
font	-10.629
templates	-10.6295
cjwkcajwo	-10.6301
bhaxeiwa	-10.6302
pokemon	-10.6308
pol	-10.6315
xz	-10.6317
fitness	-10.6318
template	-10.6324
saint	-10.6339
logo	-10.6346
questoes	-10.6349
qf	-10.6362
dau	-10.6377
ultimate	-10.6381
brands	-10.6382
bag	-10.6388
safe	-10.6393
vc	-10.6398
deals	-10.6415
kai	-10.6418
thanh	-10.642
contents	-10.6426
see	-10.6433
kf	-10.6434
qd	-10.6439
format	-10.644
mercedes	-10.6441
africa	-10.6448
xg	-10.6455
prime	-10.6458
img	-10.6461
section	-10.6466
sie	-10.647
bcz	-10.6474
korea	-10.6478
john	-10.6478
canon	-10.648
xv	-10.648
fashion	-10.6487
vod	-10.6487
teams	-10.6489
embhcparisaazfxz	-10.6493
jan	-10.6498
method	-10.6507
qua	-10.6509
sin	-10.651
xn	-10.6517
nav	-10.6519
fwfp	-10.6522
-13-	-10.6529
xj	-10.6539
artist	-10.654
beee	-10.654
hospital	-10.6567
tren	-10.6568
bhctarisa	-10.6585
synbhapeiwaldbel	-10.6587
tracking	-10.6591
etsy	-10.6601
bien	-10.6611
aqs	-10.6612
cache	-10.6613
honda	-10.6614
sam	-10.6621
zb	-10.6624
coursehero	-10.6639
cancer	-10.6639
consumer	-10.6644
problem	-10.6648
servicelogin	-10.6653
auf	-10.6654
icm	-10.666
academia	-10.6662
process	-10.6668
party	-10.667
features	-10.6674
naenbhc	-10.668
league	-10.6685
xk	-10.6692
expert	-10.6705
disney	-10.6707
corporate	-10.6712
sx	-10.6715
loi	-10.6717
adpos	-10.672
restaurants	-10.6725
guru	-10.6729
kcqiaw	-10.673
chm	-10.6741
eiwa	-10.6747
yc	-10.6765
yx	-10.6766
bx	-10.677
walmart	-10.677
pgrid	-10.677
tek	-10.6775
iy	-10.678
sign	-10.6786
mkcid	-10.6791
oferta	-10.6794
range	-10.6795
dinh	-10.6801
calculator	-10.6816
flow	-10.6832
students	-10.6832
oracle	-10.6839
small	-10.6857
reverso	-10.686
self	-10.6861
marca	-10.6868
prd	-10.6876
pod	-10.688
mkevt	-10.6883
thuc	-10.6894
societe	-10.6898
anal	-10.6903
tele	-10.6907
xf	-10.6911
-50-	-10.6922
cjwkcaiak	-10.6925
mil	-10.6931
pvml	-10.6937
bot	-10.6951
caase	-10.6954
obhbyeiwahr	-10.6958
vq	-10.6964
banking	-10.6972
huong	-10.6979
route	-10.6982
complete	-10.6984
cow	-10.6989
option	-10.7002
hmombh	-10.7006
bhdrarisa	-10.7009
dharisa	-10.7009
zv	-10.7011
csdn	-10.7014
-(	-10.7015
uol	-10.7016
nya	-10.7022
1=&	-10.7024
town	-10.7035
nanbhd	-10.7049
varisae	-10.7049
practice	-10.7054
metro	-10.7064
-2019-	-10.7064
ه	-10.7071
ikuobh	-10.7073
empresas	-10.7075
vj	-10.708
lar	-10.7084
cell	-10.7086
500	-10.709
capital	-10.7092
record	-10.7099
repository	-10.7104
nie	-10.7106
multiple	-10.7113
aivi	-10.7121
users	-10.7121
dis	-10.7122
vida	-10.7124
dynamic	-10.7129
zip	-10.713
neo	-10.7142
rate	-10.7144
gouv	-10.7155
mkrid	-10.7169
vietjack	-10.7186
civil	-10.7191
omp	-10.7194
hat	-10.7204
young	-10.7206
xb	-10.7206
qv	-10.7207
spbhb	-10.7208
iii	-10.7211
qui	-10.7212
hand	-10.7214
pii	-10.7223
moon	-10.7234
wie	-10.7238
chiebukuro	-10.7242
slid	-10.7248
jv	-10.7251
session	-10.7265
jqkk	-10.7265
station	-10.7267
issue	-10.7271
block	-10.7272
vx	-10.7273
lid	-10.7274
week	-10.7282
there	-10.7295
lop	-10.7302
object	-10.7306
yg	-10.7311
eco	-10.7318
spring	-10.7321
official	-10.7326
kmpbh	-10.7331
mobi	-10.7332
-14-	-10.7336
able	-10.7337
tbh	-10.7339
大	-10.7347
adw	-10.7347
enbhcaarisafdvti	-10.7349
skin	-10.735
programs	-10.7353
bed	-10.7353
sat	-10.7359
francais	-10.7361
let	-10.7365
▁for	-10.7366
made	-10.7371
friday	-10.7372
goods	-10.7382
doctor	-10.7384
oqobhbmeiwasgelm	-10.7388
transfer	-10.7388
hardware	-10.7396
م	-10.7403
crack	-10.7404
fly	-10.7405
ich	-10.7407
calendar	-10.7408
maker	-10.7412
human	-10.7414
ukm	-10.7424
acfu	-10.743
ikea	-10.7442
ouobha	-10.7446
dict	-10.7455
cpu	-10.7467
bluetooth	-10.7471
hinh	-10.7471
door	-10.7483
cjwkcajw	-10.7486
industrial	-10.7497
children	-10.7503
cobhc	-10.7523
gate	-10.7523
financial	-10.7526
cjwkcaias	-10.7527
hair	-10.7528
farm	-10.7531
kontakt	-10.7533
ozcfkw	-10.7534
end	-10.7535
mer	-10.7546
adg	-10.7572
cfm	-10.7576
revista	-10.7583
bhcnarisa	-10.7588
dest	-10.7599
shtml	-10.761
lite	-10.7616
america	-10.7618
vision	-10.7619
secure	-10.762
engine	-10.7629
try	-10.7633
hydraamazon	-10.7637
=6.7.664	-10.7637
cum	-10.764
dans	-10.7647
ب	-10.7652
discussion	-10.7655
bhaheiwaj	-10.7663
cross	-10.7666
alibaba	-10.767
col	-10.767
laptops	-10.7677
short	-10.7689
cgdnd	-10.769
3.0&	-10.7695
maison	-10.7703
haus	-10.7704
lex	-10.7708
american	-10.7709
without	-10.7714
tracker	-10.772
economia	-10.7729
ppt	-10.7733
tickets	-10.7735
tip	-10.7738
이	-10.7742
kcqjwt	-10.7746
east	-10.7757
printer	-10.7779
physics	-10.778
winter	-10.7785
aus	-10.7797
spanish	-10.7807
cjwkcaiar	-10.7818
qe	-10.7829
uma	-10.783
steam	-10.7854
checkda	-10.7857
steamcommunity	-10.7857
tikwd	-10.7862
well	-10.7865
ana	-10.7873
outdoor	-10.7881
transport	-10.7882
battery	-10.7884
aws	-10.7893
ers	-10.7894
tweet	-10.7896
har	-10.79
aivh	-10.7908
construction	-10.791
aux	-10.7917
ideas	-10.7922
dubai	-10.7933
dot	-10.7939
ship	-10.7941
ynbhdiarisadtgrz	-10.7944
equipment	-10.7947
quick	-10.7948
cultura	-10.7951
eye	-10.7953
articleview	-10.7961
things	-10.7969
empresa	-10.7977
government	-10.798
shoes	-10.7983
wat	-10.7987
indian	-10.799
tema	-10.7993
�	-10.8006
focus	-10.8006
entre	-10.8008
ali	-10.8011
french	-10.8017
aivb	-10.8033
yv	-10.8041
bsn	-10.8049
fv	-10.8059
ano	-10.8064
kia	-10.8067
workspace	-10.8075
explore	-10.8076
exchange	-10.8104
人	-10.8105
huawei	-10.8105
gift	-10.8107
beach	-10.8107
plac	-10.8123
wow	-10.8127
usp	-10.8129
guitar	-10.813
aivg	-10.8144
nvidia	-10.8155
zfun	-10.8156
▁online	-10.8162
cable	-10.8168
drama	-10.8168
password	-10.818
toan	-10.8193
cup	-10.8193
return	-10.8196
sclient	-10.8205
ingles	-10.821
testing	-10.8214
nas	-10.8221
royal	-10.8223
madrid	-10.8224
sta	-10.8224
uae	-10.8236
natural	-10.8248
qjwrjombhc	-10.8256
front	-10.8257
diy	-10.8271
consent	-10.8274
papers	-10.8277
gta	-10.8279
bil	-10.8284
chn	-10.8288
far	-10.8296
bible	-10.8311
his	-10.8316
clinic	-10.8327
eaiaiqobchmiz	-10.8337
visit	-10.8343
mais	-10.8347
cinema	-10.8349
tar	-10.8351
bac	-10.8357
produkte	-10.8358
googshop	-10.8358
staff	-10.8367
corp	-10.8367
night	-10.8368
eaiaiqobchmiu	-10.8368
load	-10.8369
popular	-10.8371
273572&	-10.8373
yd	-10.8381
servicios	-10.8395
yb	-10.8396
xzvx	-10.8404
ner	-10.8408
sample	-10.8419
programming	-10.8424
furniture	-10.8432
paidsearch	-10.8434
chem	-10.8435
bmm	-10.8441
cost	-10.8442
right	-10.8448
properties	-10.8449
bhageiwa	-10.8452
ber	-10.8458
01&	-10.846
editor	-10.846
enterprise	-10.849
adult	-10.8491
react	-10.8498
attachment	-10.8501
zero	-10.8501
take	-10.8503
reports	-10.8506
eaiaiqobchmiy	-10.8507
mbhd	-10.8512
bij	-10.8512
gun	-10.8516
في	-10.8516
album	-10.8519
iflsig	-10.8519
idxno	-10.8519
trial	-10.8523
eaiaiqobchmij	-10.8526
een	-10.853
berg	-10.8532
eaiaiqobchmih	-10.8539
linguee	-10.854
dgnbhameiwawxgcu	-10.8541
fanswers	-10.8541
pri	-10.8549
join	-10.8561
ت	-10.8563
nhs	-10.857
stop	-10.8573
register	-10.8576
problems	-10.8576
future	-10.858
ile	-10.858
singapore	-10.8588
interview	-10.8595
eaiaiqobchmix	-10.8599
pham	-10.8605
dailymotion	-10.8612
thailand	-10.8614
eaiaiqobchmin	-10.8618
getting	-10.862
dang	-10.8621
eaiaiqobchmik	-10.8625
package	-10.8646
wkynbhbfeiwa	-10.8659
chinese	-10.8668
inch	-10.8671
aivc	-10.8675
nqlp	-10.8679
ych	-10.8681
notebook	-10.8682
flex	-10.8684
child	-10.869
eaiaiqobchmiq	-10.8697
libro	-10.8698
gear	-10.87
chart	-10.8702
bat	-10.8715
catalogue	-10.8717
eaiaiqobchmiw	-10.8718
essay	-10.8718
mal	-10.8723
meta	-10.8736
ה	-10.874
adidas	-10.8742
bhdbarisa	-10.8749
스	-10.8759
fforum	-10.8759
jpg	-10.8763
arisair	-10.877
eaiaiqobchmio	-10.8774
cas	-10.8775
genius	-10.8776
kor	-10.8788
solo	-10.8789
nature	-10.8803
pic	-10.8806
haber	-10.8813
save	-10.8817
centro	-10.8829
eaiaiqobchmil	-10.8833
flight	-10.8836
sha	-10.8839
nui	-10.8844
aan	-10.8845
bjeiwa	-10.8846
hindi	-10.8859
alle	-10.8862
productos	-10.8863
technical	-10.8863
/10	-10.8866
zrwobh	-10.8866
lesson	-10.8878
pkw	-10.8885
completesign	-10.8895
meet	-10.89
rspbhbaeiwaulsdu	-10.8909
hero	-10.891
chan	-10.891
orange	-10.8916
cool	-10.8917
offers	-10.8928
geral	-10.8929
eaiaiqobchmii	-10.8933
nacional	-10.8934
▁and	-10.8935
ス	-10.8936
opn	-10.8938
based	-10.8954
navi	-10.8956
great	-10.8965
cover	-10.8976
acq	-10.8976
fen	-10.8982
sync	-10.8983
lee	-10.8987
supply	-10.8989
quality	-10.8991
apk	-10.8991
dich	-10.8992
▁of	-10.8994
seq	-10.8997
visa	-10.8997
eaiaiqobchmir	-10.8999
letter	-10.9007
address	-10.9007
aivd	-10.9016
dual	-10.9024
sheet	-10.9029
fox	-10.9046
conditions	-10.9049
estate	-10.9051
mrfv	-10.9052
kak	-10.9085
happy	-10.9087
tao	-10.9087
remote	-10.9087
】	-10.9093
seo	-10.9102
maria	-10.9107
250	-10.9113
iewobh	-10.9114
limit	-10.9117
cyarisan	-10.912
ada	-10.9121
trang	-10.9123
yes	-10.9129
eaiaiqobchmit	-10.9132
▁to	-10.9133
plcmnt	-10.9135
bosch	-10.9135
zcobhd	-10.9142
mgallery	-10.9144
dark	-10.9145
academic	-10.9146
era	-10.9149
statistics	-10.915
task	-10.9152
mau	-10.9152
god	-10.9155
latam	-10.9155
tieng	-10.9155
repositorio	-10.9156
tests	-10.9157
producto	-10.917
deutsch	-10.9177
eaiaiqobchmim	-10.9187
vbb	-10.9192
rose	-10.9194
cad	-10.92
coffee	-10.921
host	-10.9224
protection	-10.9225
eaiaiqobchmip	-10.9236
quy	-10.9236
tac	-10.9243
nov	-10.9245
emea	-10.925
nang	-10.9259
mature	-10.9259
train	-10.926
bhbbeiwa	-10.9263
controller	-10.9268
dream	-10.9269
trading	-10.927
terminal	-10.9286
band	-10.9287
kinh	-10.929
airport	-10.9294
din	-10.9294
tyutm	-10.9296
epyw	-10.93
ways	-10.931
writing	-10.9315
110	-10.9316
desc	-10.9322
quest	-10.9329
lego	-10.933
cjwkcaial	-10.933
amz	-10.9332
365.	-10.9333
activity	-10.9357
ace	-10.936
trinh	-10.9362
darisa	-10.9374
bel	-10.9377
wqcobhc	-10.9377
eaiaiqobchmiv	-10.9383
cmpgn	-10.9401
tro	-10.9406
gmail	-10.9406
police	-10.941
epar	-10.9413
documentos	-10.9422
2021	-10.9441
tabs	-10.9445
baike	-10.9445
days	-10.9449
visual	-10.945
command	-10.9462
lit	-10.9463
pedia	-10.9463
little	-10.9468
duoc	-10.9469
chile	-10.947
panel	-10.9471
stone	-10.9472
sinh	-10.9482
200	-10.9484
fin	-10.9485
pen	-10.9488
nic	-10.9489
sharepoint	-10.9493
300	-10.9496
pmt	-10.9501
기	-10.9505
oogleusercontent	-10.9511
chinh	-10.9518
fund	-10.9526
wine	-10.9527
sau	-10.953
remove	-10.9531
better	-10.9531
nguoi	-10.9535
clothing	-10.9536
kiem	-10.9536
avec	-10.9547
ark	-10.9548
exe	-10.9551
vv	-10.9552
mis	-10.956
silver	-10.9568
extension	-10.9568
santa	-10.9574
fuck	-10.9574
-16-	-10.9584
chemistry	-10.9587
eaiaiqobchmig	-10.9591
court	-10.9596
ル	-10.9602
lol	-10.9606
quotes	-10.9606
bei	-10.9607
00000	-10.9608
benefits	-10.9611
double	-10.9615
%26	-10.9616
tutorials	-10.9635
kcqiat	-10.9635
nlkh	-10.9637
villa	-10.9637
audi	-10.9649
larisah	-10.9651
xml	-10.9655
qvanbh	-10.9655
wps	-10.9659
three	-10.9661
magic	-10.9667
cut	-10.967
mlm	-10.967
hans	-10.9671
blob	-10.9672
dao	-10.9689
apac	-10.9695
cursos	-10.9701
planning	-10.9703
ball	-10.9705
following	-10.9706
mem	-10.9715
benz	-10.9721
jeek	-10.9725
profil	-10.9725
viewer	-10.9727
planet	-10.9737
member	-10.9738
write	-10.9746
pool	-10.9753
plans	-10.976
mono	-10.976
deal	-10.9763
geforce	-10.977
900	-10.977
sistema	-10.9777
cast	-10.9778
neu	-10.978
vor	-10.9781
cine	-10.9787
▁~	-10.9795
delivery	-10.9798
mass	-10.9805
11.	-10.9805
bhbpeiwa	-10.9805
values	-10.9812
array	-10.9815
philips	-10.9817
tablet	-10.982
commercial	-10.9826
campus	-10.9835
zum	-10.9836
trip	-10.9837
-20	-10.9837
ahukewi	-10.9838
isallowed	-10.9851
womens	-10.9867
gazaaq	-10.9878
rom	-10.9885
zalando	-10.9885
square	-10.9904
stat	-10.9905
sna	-10.9916
terms	-10.992
globo	-10.9923
/2020/	-10.9924
exlaz	-10.9924
ahukewj	-10.9925
004	-10.9928
years	-10.9928
zmgnbh	-10.9933
hon	-10.9935
1000	-10.994
jet	-10.9945
nguyen	-10.9945
docplayer	-10.9949
nhung	-10.9951
whatsapp	-10.9952
island	-10.9956
whats	-10.996
americanas	-10.9964
running	-10.9964
tur	-10.9965
002	-10.9967
german	-10.9968
surface	-10.9969
manuals	-10.9974
david	-10.998
tay	-10.998
trendyol	-10.9987
ibm	-10.9993
bkws	-11.0003
preview	-11.0006
genshin	-11.0009
hash	-11.0013
lot	-11.0019
cant	-11.0021
welcome	-11.0026
activities	-11.0026
plant	-11.003
eaiaiqobchmis	-11.0032
graphics	-11.0036
agent	-11.0037
apa	-11.0037
gel	-11.0042
ket	-11.0043
finder	-11.0051
searchresults	-11.0052
som	-11.0054
inven	-11.0056
mpp	-11.0066
sexy	-11.0069
png	-11.0069
hit	-11.0071
ger	-11.008
rad	-11.0086
mouse	-11.0094
element	-11.0094
rooms	-11.0094
_1_	-11.0098
factory	-11.0098
pelicula	-11.0103
firma	-11.0107
laser	-11.0112
ticket	-11.0114
elle	-11.0114
always	-11.0115
lei	-11.0116
tas	-11.0123
heart	-11.0124
films	-11.0131
tom	-11.0135
plt	-11.0138
message	-11.0139
send	-11.0139
epson	-11.0141
wife	-11.0142
volkswagen	-11.0147
aive	-11.0154
norover	-11.0159
rlsatarget	-11.0162
sang	-11.0162
・	-11.0166
▁in	-11.0169
oct	-11.0171
2=&	-11.0172
lzg	-11.018
tex	-11.0184
teaching	-11.0184
08-21&	-11.0192
qid	-11.0197
insights	-11.0202
external	-11.0205
arts	-11.0205
411	-11.0209
ion	-11.0209
autos	-11.0215
peru	-11.0218
meteo	-11.0219
nude	-11.022
ups	-11.0222
presentation	-11.0223
phrase	-11.0223
fish	-11.0223
giao	-11.0226
shein	-11.0228
trace	-11.0245
zoo	-11.0248
serial	-11.0249
_150050845_51	-11.0252
abcid	-11.0254
playstation	-11.0261
della	-11.0266
-25-	-11.0268
tor	-11.0281
concursos	-11.0282
zen	-11.0284
tea	-11.0293
ebook	-11.0295
alpha	-11.0296
limited	-11.0302
risk	-11.0303
recettes	-11.0308
reading	-11.0308
ant	-11.0314
she	-11.0316
unity	-11.032
evergreen	-11.0321
redirected	-11.0332
-18-	-11.0341
fileadmin	-11.0344
names	-11.0344
recept	-11.0346
quote	-11.0359
massage	-11.0366
ent	-11.037
pot	-11.0373
earth	-11.0377
camping	-11.0384
beta	-11.0387
places	-11.039
look	-11.0391
24&	-11.0393
giai	-11.0395
003	-11.0398
woman	-11.0404
politics	-11.0408
spotify	-11.0414
aivl	-11.0414
dates	-11.0422
count	-11.0423
mann	-11.0432
nord	-11.0434
chip	-11.0436
mediamarkt	-11.0437
holiday	-11.0442
alt	-11.0445
ani	-11.0447
theme	-11.0448
uid	-11.0451
gestion	-11.0454
nintendo	-11.0454
smartphone	-11.0457
hill	-11.0459
grupo	-11.0467
aiva	-11.0467
asset	-11.0467
chuyen	-11.0471
codigo	-11.0476
vietnam	-11.048
bilibili	-11.0485
vivo	-11.0491
dla	-11.0493
converter	-11.0497
some	-11.0502
saude	-11.0507
modern	-11.0511
inside	-11.0514
copy	-11.0522
setup	-11.0537
의	-11.0538
deep	-11.0541
hoe	-11.0543
powerpoint	-11.0544
aivf	-11.0548
eee	-11.0549
devices	-11.0551
advanced	-11.0553
nba	-11.0553
aivj	-11.0553
tien	-11.0554
experience	-11.056
resort	-11.0561
memory	-11.0566
lon	-11.0575
istanbul	-11.0576
vie	-11.0583
example	-11.0593
daum	-11.0593
affiliate	-11.0594
grade	-11.0595
sul	-11.0598
volume	-11.0602
ngu	-11.0603
리	-11.0612
minh	-11.0621
ม	-11.063
cvid	-11.0631
repair	-11.0633
duong	-11.0637
canvapro	-11.0637
recovery	-11.0643
hentai	-11.0646
traffic	-11.0647
400	-11.0647
ipad	-11.0656
export	-11.0668
novel	-11.0671
jul	-11.0673
ssc	-11.0677
bid	-11.0679
root	-11.0684
_1:	-11.0687
aivw	-11.069
magazin	-11.0715
words	-11.0729
zmg	-11.0729
vet	-11.073
educacion	-11.0731
-32	-11.0737
destination	-11.074
button	-11.0742
khoahoc	-11.0745
▁a	-11.0748
mua	-11.0756
tienda	-11.0763
clickid	-11.077
mos	-11.0776
mobil	-11.0781
less	-11.0783
googleads	-11.0789
gran	-11.0792
aivk	-11.0797
64_1	-11.0797
_00_	-11.0801
cpp	-11.0809
bir	-11.0815
colombia	-11.0828
pur	-11.0829
▁search	-11.0829
mind	-11.083
cisco	-11.0833
crypto	-11.084
paul	-11.0842
101	-11.0842
phat	-11.0847
gateway	-11.0849
adb	-11.0851
ica	-11.0852
ghz	-11.0863
ita	-11.0867
normal	-11.0868
liste	-11.0869
truyen	-11.0871
-10/	-11.0873
msi	-11.0876
touch	-11.0884
grammar	-11.0888
120	-11.0898
aivy	-11.0898
asian	-11.0899
roma	-11.0911
dic	-11.0911
accounting	-11.0916
window	-11.092
medicine	-11.0925
animal	-11.0929
retail	-11.0931
sum	-11.0934
11&	-11.094
hepsiburada	-11.094
,+	-11.0941
registration	-11.0942
64_2	-11.0951
exp	-11.0953
gch	-11.0957
giga	-11.0958
glass	-11.0971
123	-11.0975
stats	-11.0978
materials	-11.0979
ben	-11.0981
cpa	-11.0981
four	-11.0987
]&	-11.099
lux	-11.0999
-16	-11.1
":"	-11.1001
softonic	-11.1004
ria	-11.1006
-24-	-11.1009
nen	-11.101
golden	-11.1014
introduction	-11.1016
rtx	-11.102
sua	-11.1023
grid	-11.1025
ی	-11.1026
2020	-11.1028
spot	-11.1029
att	-11.1035
arte	-11.1043
nach	-11.1054
resume	-11.1057
county	-11.1061
phap	-11.1063
kinder	-11.1064
songs	-11.1065
trabajo	-11.107
.123	-11.107
nice	-11.1078
autodesk	-11.1086
shows	-11.1092
shi	-11.1099
lap	-11.1102
stable	-11.1105
lai	-11.1112
dental	-11.1114
craft	-11.112
cjwkcaian	-11.113
gps	-11.1135
64_0	-11.1136
many	-11.114
bet	-11.1143
cyber	-11.1144
documentation	-11.1144
str	-11.1146
investing	-11.1152
nhn	-11.1156
digi	-11.1165
nedir	-11.117
cases	-11.117
figure	-11.1186
sinif	-11.1186
ueber	-11.1187
boot	-11.1195
mus	-11.1204
__._	-11.1209
ات	-11.1209
-22&	-11.1214
chords	-11.1217
pizza	-11.1219
drug	-11.122
folder	-11.1222
wild	-11.1226
mejores	-11.1227
ntp	-11.123
=[	-11.1231
ア	-11.1232
applications	-11.1234
society	-11.1238
bon	-11.124
dragon	-11.1244
3%	-11.1248
truong	-11.1253
fur	-11.1259
rest	-11.1259
-2022	-11.1262
tot	-11.1264
64_3	-11.1265
vien	-11.1273
broad	-11.1274
dotnet	-11.1276
juegos	-11.1279
moe	-11.128
nuoc	-11.1282
vaccine	-11.1284
phong	-11.1287
pad	-11.1287
지	-11.129
here	-11.1293
gtx	-11.1301
stars	-11.1302
rules	-11.1307
pagina	-11.1324
lock	-11.1324
ken	-11.1326
tak	-11.1328
vao	-11.1343
seller	-11.1344
guce	-11.1345
clean	-11.1348
eta	-11.1352
é	-11.1353
tong	-11.1359
production	-11.1366
bee	-11.137
profiles	-11.1375
keyboard	-11.1384
acid	-11.1387
produits	-11.1388
berlin	-11.1396
kknews	-11.1399
spec	-11.1401
modules	-11.1409
dieu	-11.1414
second	-11.1417
hal	-11.143
options	-11.1431
futbol	-11.1433
tang	-11.1434
universal	-11.1437
dor	-11.1447
economy	-11.1447
through	-11.1455
roblox	-11.1461
portable	-11.1462
sach	-11.1462
teacher	-11.1463
skills	-11.1465
huis	-11.1469
tiktok	-11.1469
rezepte	-11.1488
homepage	-11.1496
150	-11.1502
idx	-11.1504
eva	-11.1505
marine	-11.1506
venta	-11.1506
busca	-11.1509
dvc	-11.1514
luc	-11.1522
rog	-11.1525
tre	-11.1529
phi	-11.1536
arquivo	-11.1542
installation	-11.1544
hieu	-11.1549
sel	-11.1552
vch	-11.1557
import	-11.1557
york	-11.1559
salary	-11.1561
say	-11.1568
updates	-11.1569
environment	-11.1577
translation	-11.158
spm	-11.1584
hyundai	-11.1593
bocr	-11.1603
rdr	-11.1607
portugal	-11.1611
lmcobhc	-11.1612
router	-11.1614
nissan	-11.1618
fiche	-11.1623
different	-11.1623
ever	-11.1629
crea	-11.1633
-19/	-11.1635
slide	-11.1637
death	-11.1639
pros	-11.1642
fwindows	-11.1642
nutrition	-11.1643
opinion	-11.1644
rsa	-11.1648
carbon	-11.1651
korean	-11.1651
descargar	-11.1651
wmc	-11.1654
photoshop	-11.1655
srl	-11.1661
guy	-11.1666
releases	-11.1669
district	-11.1684
electrical	-11.1687
monster	-11.1692
nik	-11.1693
dal	-11.1701
voice	-11.1707
james	-11.171
opc	-11.171
ans	-11.1711
-60-	-11.1714
hong	-11.1714
gym	-11.1719
▁brand	-11.1722
cdc	-11.1727
น	-11.1729
=4&	-11.1729
cours	-11.1739
ي	-11.1741
found	-11.1749
frame	-11.175
nghe	-11.175
agoda	-11.1756
novo	-11.1766
-128	-11.1777
bridge	-11.1783
arduino	-11.1793
770	-11.1798
lich	-11.1802
من	-11.1803
generator	-11.1807
-2018-	-11.1813
中	-11.1814
catalogo	-11.1816
mol	-11.1825
challenge	-11.1825
five	-11.1825
browser	-11.1826
facts	-11.183
energie	-11.1833
numbers	-11.1849
letras	-11.1853
toys	-11.1855
用	-11.1856
cnn	-11.1858
elite	-11.1859
cash	-11.1859
marketplace	-11.186
subject	-11.1861
acer	-11.1862
▁profile	-11.1873
formula	-11.1874
rep	-11.1877
input	-11.1885
chung	-11.1885
suche	-11.1885
powershell	-11.1895
joy	-11.1895
todo	-11.1899
사	-11.19
mia	-11.1906
年	-11.1908
listings	-11.1912
ska	-11.1927
diem	-11.1928
인	-11.1934
jun	-11.1939
bis	-11.1943
adults	-11.1949
nonbrand	-11.1951
truck	-11.1955
racing	-11.1958
leg	-11.1961
fonts	-11.1964
cal	-11.1971
microsoftonline	-11.1971
/2019/	-11.1981
ielts	-11.1985
ass	-11.1987
ranking	-11.2002
libros	-11.2003
sai	-11.201
clear	-11.2015
schedule	-11.2021
esl	-11.2024
anna	-11.2025
lieu	-11.2029
reader	-11.2032
michael	-11.2038
lake	-11.2047
ros	-11.2053
strategy	-11.2053
wind	-11.2062
mah	-11.2063
scan	-11.2067
healthcare	-11.2072
ling	-11.2074
steampowered	-11.2075
sharp	-11.2077
lighting	-11.2079
own	-11.2081
bolum	-11.2082
treatment	-11.2083
curso	-11.2093
martin	-11.2097
aaf	-11.2097
nsf	-11.2098
snow	-11.2105
ية	-11.2108
worth	-11.2118
packages	-11.2122
vintage	-11.2123
bhadeiwa	-11.2124
800	-11.2127
refer	-11.2129
meaning	-11.2129
trends	-11.2142
-2020	-11.2146
-2022/	-11.2147
stand	-11.2149
springer	-11.2166
british	-11.217
一	-11.2172
autocad	-11.2175
blood	-11.2177
produkter	-11.2181
gui	-11.2186
aivx	-11.2187
aivt	-11.2188
trust	-11.2192
turkce	-11.22
spankbang	-11.2201
owe	-11.2202
lin	-11.2204
renault	-11.2205
sciences	-11.2207
poly	-11.2212
tennis	-11.2214
bill	-11.2219
sep	-11.222
simulator	-11.2225
jsessionid	-11.2227
iron	-11.2233
casas	-11.2233
anos	-11.2236
nay	-11.2236
atc	-11.2237
another	-11.2237
chain	-11.2247
ン	-11.2256
aparat	-11.2257
philippines	-11.2257
much	-11.226
discover	-11.2261
hant	-11.2264
esp	-11.2268
capitulo	-11.227
robot	-11.2277
kom	-11.2283
sell	-11.2286
zhuanlan	-11.2299
theory	-11.2301
communication	-11.231
kat	-11.232
新	-11.2321
mate	-11.2323
gal	-11.2325
673	-11.2325
perfect	-11.2329
sas	-11.2332
weg	-11.2335
005	-11.2336
|&	-11.2338
-30	-11.2341
nghiem	-11.2342
components	-11.2345
-40-	-11.2352
filme	-11.2354
specs	-11.2356
-50	-11.2357
summary	-11.2359
sourceid	-11.236
mkwid	-11.2362
)&	-11.2372
intro	-11.2374
-2020/	-11.2379
aivs	-11.2383
howto	-11.2394
ink	-11.2397
cai	-11.2401
на	-11.2402
ف	-11.2404
vector	-11.2407
jus	-11.2411
asi	-11.2411
deutschland	-11.2412
aivq	-11.2412
boss	-11.2414
-300	-11.2419
gan	-11.2421
adgp	-11.2423
lari	-11.2425
danh	-11.2429
udemy	-11.2432
mysql	-11.2441
evo	-11.2447
guid	-11.245
internal	-11.245
trung	-11.2451
iwar	-11.2455
kind	-11.2459
udn	-11.246
ero	-11.2461
geeksforgeeks	-11.2465
stage	-11.2466
studies	-11.2471
tum	-11.2471
past	-11.2477
tes	-11.2478
cannot	-11.248
tipo	-11.2486
govt	-11.2491
kino	-11.25
trend	-11.2503
jack	-11.2506
england	-11.251
vehicle	-11.2515
nfl	-11.2519
programme	-11.2533
pussy	-11.2546
syn	-11.2547
grande	-11.2551
ส	-11.2553
sms	-11.2556
tecnologia	-11.2563
nano	-11.2564
fresh	-11.2569
webcam	-11.2582
usd	-11.2582
settings	-11.2586
coop	-11.259
links	-11.2595
siemens	-11.2598
their	-11.2609
hall	-11.2614
malaysia	-11.2619
river	-11.2622
move	-11.2623
dvm	-11.2624
kzw	-11.2625
arttext	-11.2628
markets	-11.2628
provider	-11.2634
airbnb	-11.2634
tokopedia	-11.2635
prices	-11.2641
773	-11.2643
temporada	-11.2643
22&	-11.2646
sensor	-11.2646
toy	-11.265
biet	-11.2652
outlet	-11.2653
123.	-11.2661
before	-11.2664
categoria	-11.2664
biblioteca	-11.2664
mathworks	-11.2667
ment	-11.2668
vendita	-11.267
labs	-11.2671
milf	-11.2673
bra	-11.2674
union	-11.2676
0000	-11.269
に	-11.2691
urn	-11.2695
component	-11.2696
connection	-11.2703
lists	-11.2704
province	-11.2705
univ	-11.2707
gmv	-11.2712
diseases	-11.2713
race	-11.2716
forecast	-11.2721
functions	-11.2724
grey	-11.2726
proxy	-11.2732
due	-11.2737
wire	-11.274
ein	-11.274
faqs	-11.2742
notice	-11.2745
spider	-11.2745
phu	-11.2746
fbclid	-11.2747
imo	-11.275
aqua	-11.2752
crm	-11.2752
duc	-11.2761
brother	-11.2762
quizizz	-11.2773
dead	-11.2774
aaa	-11.2775
role	-11.2776
drugs	-11.2778
tumblr	-11.278
delta	-11.2783
ontario	-11.2785
자	-11.279
い	-11.2792
enter	-11.2795
mental	-11.2796
mean	-11.2798
elektro	-11.2801
gifts	-11.2803
effects	-11.2805
tank	-11.2806
▁shopping	-11.2812
hien	-11.2824
indir	-11.2825
partners	-11.2828
coin	-11.2833
italiano	-11.2834
esta	-11.2835
cuisine	-11.2835
tubes	-11.2838
gaw	-11.2839
agro	-11.284
large	-11.2843
mir	-11.2845
loan	-11.2846
werk	-11.2857
ici	-11.2864
secret	-11.2865
loop	-11.2869
adapter	-11.287
authentication	-11.287
till	-11.2871
mart	-11.2872
foot	-11.2872
boutique	-11.2877
mania	-11.2878
raw	-11.2878
welt	-11.2882
xem	-11.289
gad	-11.2894
horizon	-11.2911
blu	-11.2913
liga	-11.2915
boards	-11.2921
matrix	-11.2924
=1294343&	-11.2925
premier	-11.2928
same	-11.2933
peter	-11.2935
foundation	-11.2945
bez	-11.2959
selected	-11.2964
immobilier	-11.2965
lesbian	-11.2966
=10&	-11.2966
lead	-11.2968
character	-11.2968
nation	-11.2971
771	-11.2973
maths	-11.2981
politik	-11.2982
機	-11.2984
immo	-11.2984
ubuntu	-11.2985
unk	-11.2987
supplies	-11.2988
institute	-11.2994
servlet	-11.2999
portfolio	-11.3
jean	-11.3002
子	-11.3004
justice	-11.3005
hasem	-11.3009
ang	-11.3011
bug	-11.3015
phuong	-11.3016
wondershare	-11.3016
sri	-11.3022
luz	-11.3026
][	-11.3026
ara	-11.303
hem	-11.303
س	-11.3032
loja	-11.3034
ece	-11.3035
exa	-11.3037
clip	-11.3037
educacao	-11.3037
sydney	-11.304
male	-11.3044
informacion	-11.3045
legends	-11.3048
arab	-11.3052
uns	-11.3054
-22-	-11.3057
statement	-11.3061
disneyplus	-11.3063
arabic	-11.3072
heat	-11.3073
payment	-11.3073
qivi	-11.3079
housing	-11.3089
too	-11.309
"	-11.309
certificate	-11.3094
fans	-11.3098
six	-11.3101
katalog	-11.3104
etcc	-11.3108
aivz	-11.311
fsk	-11.3111
indiatimes	-11.3113
meter	-11.3122
tem	-11.3125
paginas	-11.3128
kin	-11.3128
cuz	-11.3131
village	-11.3132
harry	-11.3132
analytics	-11.3134
235	-11.3136
members	-11.3136
elements	-11.3136
got	-11.3138
quoc	-11.3141
thesaurus	-11.3145
while	-11.3147
dalam	-11.3151
▁txt	-11.3156
wave	-11.3172
smb	-11.3174
standards	-11.3174
alwayson	-11.3175
gpu	-11.3175
dll	-11.3176
в	-11.3177
aivr	-11.3178
가	-11.3179
adv	-11.3182
-2016-	-11.3199
quebec	-11.3206
urban	-11.3212
pak	-11.3213
hello	-11.3213
cor	-11.3214
assessment	-11.3215
bqobh	-11.3216
discord	-11.3216
leroymerlin	-11.3225
tui	-11.3228
dlya	-11.3229
astro	-11.3231
mount	-11.3233
aneiwa	-11.3235
kien	-11.3253
mont	-11.3258
vos	-11.3265
branch	-11.3269
muc	-11.3272
manage	-11.3274
-500	-11.3278
bal	-11.328
cda	-11.3285
시	-11.3285
dmm	-11.3287
smartphones	-11.3291
making	-11.33
生	-11.3301
hint	-11.3306
nat	-11.3313
wikihow	-11.3313
mad	-11.3313
typ	-11.3316
month	-11.3317
rec	-11.3321
dynamics	-11.3324
-200	-11.3325
sah	-11.3332
wix	-11.3332
nlid	-11.3336
identity	-11.3348
climate	-11.3349
split	-11.3353
600	-11.3354
qivg	-11.3361
disk	-11.3362
tron	-11.3363
nasil	-11.3375
rank	-11.3376
promotion	-11.3377
-2017-	-11.3379
prezi	-11.3389
hoy	-11.3392
avis	-11.3393
pra	-11.3394
小	-11.3396
pressure	-11.3398
reset	-11.3405
glassdoor	-11.3406
dry	-11.3407
november	-11.3407
ptaid	-11.341
records	-11.3411
healthy	-11.3411
think	-11.3412
json	-11.3413
produtos	-11.3414
wise	-11.3416
comune	-11.3419
passeidireto	-11.3421
actualites	-11.3422
cia	-11.3424
playlist	-11.3428
vmware	-11.3428
vita	-11.3428
drop	-11.3442
gap	-11.3446
western	-11.3451
atlas	-11.3459
uit	-11.3461
guest	-11.3462
lcd	-11.3471
miss	-11.3472
req	-11.3472
pvc	-11.3473
mijn	-11.3479
dont	-11.3485
rich	-11.3489
boots	-11.3494
soc	-11.3494
vin	-11.3496
-17-	-11.35
mama	-11.3501
ron	-11.3502
pubs	-11.3503
yamaha	-11.3503
fig	-11.3508
wiktionary	-11.3509
structure	-11.3509
amateur	-11.3516
grammarly	-11.3518
7%	-11.3519
museum	-11.352
brain	-11.3529
を	-11.3529
piece	-11.3535
thuong	-11.3536
citations	-11.3537
с	-11.3545
numero	-11.3547
early	-11.355
costa	-11.3552
invest	-11.3554
720	-11.3558
srp	-11.3561
desk	-11.3566
channels	-11.3569
220	-11.3569
investment	-11.357
comprar	-11.3572
saml	-11.3577
biology	-11.3578
put	-11.3578
personas	-11.3578
recursos	-11.3579
gem	-11.3579
kultur	-11.3582
ami	-11.3584
council	-11.3589
wiw	-11.3594
discuss	-11.3602
ת	-11.3605
772	-11.3606
eaayaiaaegj	-11.361
formation	-11.3614
victoria	-11.3616
politica	-11.3621
sma	-11.3625
pharma	-11.3628
backup	-11.3634
battle	-11.3642
turn	-11.3656
memo	-11.3657
markt	-11.3663
diamond	-11.3665
garage	-11.3668
console	-11.3668
/2021/11/	-11.3669
ware	-11.3673
barcelona	-11.3674
modelo	-11.3676
rgb	-11.3678
qivb	-11.3679
128	-11.368
brown	-11.3681
swiss	-11.3684
fee	-11.3687
cima	-11.3689
developers	-11.3698
argentina	-11.3698
bikes	-11.3702
دانلود	-11.3707
-365-	-11.371
_2_	-11.371
mktyp	-11.3711
panasonic	-11.3711
terra	-11.3714
primary	-11.3715
paulo	-11.3716
chef	-11.3716
twitch	-11.372
budget	-11.3722
knc	-11.3728
ل	-11.3728
pchome	-11.3733
choice	-11.3735
boe	-11.3736
arm	-11.3736
-40	-11.3742
machines	-11.3745
tich	-11.3754
zur	-11.3758
fulltext	-11.3758
yoga	-11.376
-2021.	-11.3762
articulos	-11.3765
ful	-11.3767
moda	-11.3769
femme	-11.3769
mba	-11.3769
creativeid	-11.3772
exercise	-11.3772
mang	-11.3773
graph	-11.3774
signature	-11.3783
tat	-11.3787
qivc	-11.3788
friends	-11.3788
flutter	-11.3789
oral	-11.3796
faculty	-11.3797
angel	-11.3798
effect	-11.3798
در	-11.3801
turk	-11.3802
datos	-11.3806
shell	-11.3808
players	-11.381
sector	-11.3811
contra	-11.3811
wheel	-11.3813
hanh	-11.3816
during	-11.3818
forbes	-11.3819
nkw	-11.3819
leo	-11.3824
dac	-11.3836
abb	-11.3836
duo	-11.3838
logitech	-11.3842
▁en	-11.3856
ran	-11.3857
eaayaiaaegk	-11.3858
fifa	-11.3861
shin	-11.3862
cnt	-11.3866
450	-11.3866
350205_	-11.3867
2010350205::12:1	-11.3867
007	-11.3869
konu	-11.387
bih	-11.3876
ong	-11.3877
ovo	-11.388
success	-11.3882
tours	-11.3887
prof	-11.3894
australian	-11.3898
xocr	-11.3903
oto	-11.3904
://123	-11.3905
lady	-11.3907
todas	-11.391
pref	-11.391
eat	-11.392
-21-	-11.3927
dns	-11.3931
rand	-11.3933
sweet	-11.3937
り	-11.3941
pal	-11.3946
campid	-11.3959
vaccination	-11.396
agua	-11.396
crid	-11.3961
smith	-11.3962
sou	-11.3963
با	-11.3963
$	-11.3969
phones	-11.397
リ	-11.3971
polo	-11.3972
berita	-11.3978
nia	-11.3979
department	-11.398
duty	-11.3983
eaayaiaaegl	-11.3984
%25	-11.3991
hunter	-11.3993
banco	-11.3993
nuevo	-11.4003
ovd	-11.4012
sans	-11.4013
lik	-11.4017
bas	-11.402
▁bkws	-11.4021
summer	-11.4021
ning	-11.4025
scale	-11.4026
framework	-11.4036
forest	-11.4043
ddr	-11.4044
epi	-11.4047
inn	-11.4052
score	-11.4053
jose	-11.4053
qivd	-11.4057
mkw	-11.4058
rule	-11.4062
states	-11.4063
urun	-11.4067
hyper	-11.4068
qna	-11.4073
demo	-11.4076
parking	-11.4076
xay	-11.4079
voz	-11.4079
zhidao	-11.4079
พ	-11.408
plaza	-11.4086
ا	-11.4087
salon	-11.4088
agenda	-11.409
sezon	-11.4099
apartments	-11.41
agency	-11.4101
gry	-11.4101
valley	-11.4104
lecture	-11.4105
12.	-11.4106
seek	-11.4107
hoidap	-11.4114
checkout	-11.4119
near	-11.412
qivh	-11.4123
256	-11.4126
balance	-11.413
=1366&	-11.413
motors	-11.4132
125	-11.4132
dar	-11.4133
merchantid	-11.4135
disease	-11.4139
=10	-11.4144
moj	-11.4149
leri	-11.4149
patient	-11.4157
nghiep	-11.4161
gmbh	-11.4163
buch	-11.4167
lidl	-11.4171
thomas	-11.4172
architecture	-11.4172
commerce	-11.4172
eaayaiaaegi	-11.4175
kata	-11.4178
gioi	-11.418
upgrade	-11.4189
nederland	-11.4194
joe	-11.4198
magazineluiza	-11.4198
wedding	-11.42
emploi	-11.42
launch	-11.4203
د	-11.4205
/2018/	-11.4206
tis	-11.4208
ngay	-11.4209
acquisition	-11.4213
lexikon	-11.4225
fuel	-11.4227
luong	-11.4227
hack	-11.4234
fer	-11.4234
oss	-11.4235
suc	-11.4246
ado	-11.4254
cep	-11.4256
growth	-11.4257
tabelog	-11.4257
gang	-11.426
nte	-11.4263
este	-11.4268
vba	-11.4271
fisica	-11.4272
regular	-11.4272
points	-11.4279
gid	-11.428
studocu	-11.4285
nye	-11.4287
regional	-11.4288
wih	-11.4295
pho	-11.4296
rates	-11.4298
want	-11.4298
tamil	-11.4299
zapmeta	-11.43
omicron	-11.4303
▁free	-11.4303
stocks	-11.431
▁id	-11.431
vrnc	-11.4311
paint	-11.4311
cycle	-11.4311
floor	-11.4311
750	-11.4313
kho	-11.4322
wan	-11.4328
every	-11.4337
sok	-11.4343
lost	-11.435
flat	-11.4351
privat	-11.4354
fed	-11.4362
stadt	-11.4364
shared	-11.4366
peugeot	-11.4367
imp	-11.4372
tal	-11.438
jam	-11.4386
googleshopping	-11.4386
rtb	-11.4391
recht	-11.4393
basics	-11.4394
luat	-11.4402
laws	-11.4404
coupon	-11.4408
と	-11.4413
could	-11.4418
themen	-11.442
countries	-11.4423
oem	-11.4425
angular	-11.4427
sharing	-11.4433
clid	-11.4446
aya	-11.4448
geek	-11.445
kou	-11.4451
aol	-11.4452
piano	-11.4454
pink	-11.4455
lia	-11.4456
hilfe	-11.4459
arch	-11.4461
codegrepper	-11.4462
abt	-11.4463
fat	-11.4464
technik	-11.4471
homedepot	-11.4471
actualidad	-11.4473
-2019/	-11.4475
pcr	-11.4477
={"	-11.4481
native	-11.4484
guidelines	-11.4484
passage	-11.4486
plastic	-11.4489
gsm	-11.4493
ras	-11.4495
webster	-11.4497
attachments	-11.4497
delete	-11.4501
medi	-11.4506
fotos	-11.4513
pump	-11.4519
highlighted	-11.4521
cung	-11.4523
ش	-11.4535
vehicles	-11.4536
icon	-11.4536
feb	-11.4539
arena	-11.4542
aero	-11.455
electronic	-11.4553
dba	-11.4554
meeting	-11.4556
ofertas	-11.4559
technologies	-11.4563
yeu	-11.4564
internacional	-11.4565
sets	-11.457
yellow	-11.4574
140	-11.4579
musica	-11.4582
ste	-11.4585
ryzen	-11.4587
started	-11.4594
automation	-11.4599
holidays	-11.46
delhi	-11.4609
bach	-11.461
rus	-11.4611
gam	-11.4614
hire	-11.4616
git	-11.4621
vue	-11.4626
pie	-11.4629
sip	-11.4631
fantasy	-11.4635
kingdom	-11.4635
dashboard	-11.4645
บ	-11.4652
mur	-11.4653
pulse	-11.4669
logic	-11.467
plc	-11.467
tempo	-11.4681
cooking	-11.4685
mei	-11.4688
obi	-11.4689
consulta	-11.469
rail	-11.469
kabel	-11.4692
kon	-11.4692
residential	-11.4696
chicken	-11.4701
zona	-11.4701
firmware	-11.4706
tipps	-11.4708
dig	-11.4708
rise	-11.471
rod	-11.4714
高	-11.4718
inicio	-11.4725
arti	-11.4725
cock	-11.473
aivm	-11.4743
cip	-11.4743
bok	-11.4744
branding	-11.4745
ready	-11.4745
distribution	-11.4749
bak	-11.4751
tipos	-11.4753
cricket	-11.4754
senior	-11.476
不	-11.4765
random	-11.4766
container	-11.4768
diesel	-11.4773
left	-11.4783
accessoires	-11.4789
theguardian	-11.4789
weight	-11.4791
servicos	-11.4791
kaufen	-11.4793
foods	-11.4793
fbrnd	-11.4795
-500-	-11.4795
wfc	-11.4797
frage	-11.4797
aivv	-11.4803
cold	-11.4805
boys	-11.4805
vente	-11.4808
warehouse	-11.4809
jeux	-11.4812
::	-11.4822
-19959388920&	-11.4826
ก	-11.4827
goodreads	-11.4829
archivos	-11.4834
006	-11.4836
pharmacy	-11.4837
characters	-11.4838
-1080	-11.4838
tran	-11.4839
energia	-11.484
choose	-11.484
contract	-11.4841
centrum	-11.4841
revistas	-11.4842
ocean	-11.4846
referral	-11.4848
khoa	-11.4848
stay	-11.485
hof	-11.485
bell	-11.4851
horse	-11.4856
hobby	-11.4856
institucional	-11.4856
peliculas	-11.4858
tuong	-11.4862
weblio	-11.4864
espana	-11.4868
드	-11.4868
escort	-11.4869
1||	-11.487
ว	-11.487
done	-11.4882
wear	-11.4884
roll	-11.4886
koop	-11.4887
docker	-11.4889
sims	-11.4889
legacy	-11.489
carte	-11.4893
srt	-11.4896
dna	-11.4896
ahw	-11.4896
classroom	-11.4898
ker	-11.4899
ما	-11.4911
computers	-11.4912
[0]=	-11.4914
rdc	-11.4914
manchester	-11.4915
methods	-11.4923
loai	-11.4926
gads	-11.4931
1080	-11.4932
=7&	-11.4933
arc	-11.4936
ips	-11.494
=,&	-11.4945
anne	-11.4947
curriculum	-11.4949
ais	-11.4949
qivk	-11.4963
each	-11.4967
seat	-11.4967
vai	-11.4972
lights	-11.4975
survey	-11.4979
sop	-11.498
instant	-11.4983
=2211&	-11.4987
ekonomi	-11.499
appliances	-11.4991
interior	-11.4992
must	-11.4992
siln	-11.4992
wet	-11.4994
trac	-11.4996
milano	-11.4997
messenger	-11.4998
trgt	-11.4999
crossword	-11.5
strom	-11.5001
virus	-11.5005
texas	-11.501
sahibinden	-11.5018
ret	-11.5022
layout	-11.5027
texto	-11.5029
generation	-11.503
attribute	-11.5031
kal	-11.5032
pics	-11.5036
dchcsewi	-11.5039
biw	-11.5045
전	-11.5045
description	-11.5047
sitelink	-11.5048
tiet	-11.5049
replacement	-11.505
mitsubishi	-11.505
czy	-11.5058
requirements	-11.5059
rome	-11.5061
=904	-11.5066
prix	-11.5067
crime	-11.507
rum	-11.5072
上	-11.5074
aivu	-11.5075
ysmesp	-11.5078
themes	-11.508
messages	-11.5086
izito	-11.509
ratgeber	-11.5092
retro	-11.5095
tus	-11.5096
kong	-11.5099
storm	-11.5099
oak	-11.51
▁the	-11.51
09-21&	-11.5103
dengan	-11.5108
lostark	-11.5108
tourism	-11.5108
320	-11.5111
annual	-11.5114
jstor	-11.5115
solid	-11.5116
sus	-11.5118
bond	-11.5119
ova	-11.5127
gmc	-11.5128
popup	-11.5135
motion	-11.5145
ntu	-11.5148
analisis	-11.5155
ל	-11.5157
roi	-11.5161
12&	-11.5162
income	-11.5166
marque	-11.5166
britannica	-11.5168
fks	-11.5172
toronto	-11.5173
license	-11.5173
church	-11.5176
transfermarkt	-11.5176
assistant	-11.5176
unam	-11.5177
parent	-11.5179
-365/	-11.5181
tower	-11.5184
checkin	-11.5189
cities	-11.5192
mob	-11.5192
sos	-11.5194
still	-11.5196
suzuki	-11.52
taiwan	-11.52
coast	-11.5201
disable	-11.5216
nid	-11.5217
weebly	-11.5221
len	-11.5224
bagceae	-11.5226
=1007	-11.5226
dss	-11.5228
で	-11.5228
:|	-11.5229
tic	-11.5233
cuc	-11.5233
nan	-11.5234
background	-11.5236
qivj	-11.5238
nursing	-11.524
him	-11.5241
eau	-11.5248
zee	-11.5252
cheap	-11.5255
ciencia	-11.5255
failed	-11.5256
wil	-11.5257
germany	-11.5257
rental	-11.526
ore	-11.5271
주	-11.5271
laravel	-11.5275
charge	-11.528
hdmi	-11.5286
-200-	-11.5288
ias	-11.53
700	-11.53
%252	-11.5301
robert	-11.5303
lines	-11.5303
advnlg	-11.5303
pain	-11.5306
cbc	-11.5309
uact	-11.531
る	-11.5312
tables	-11.5314
artigos	-11.5314
gender	-11.5315
/2021/10/	-11.5317
な	-11.5318
primevideo	-11.5323
publisher	-11.5326
pag	-11.5327
트	-11.5327
kur	-11.5329
ate	-11.533
owy	-11.5332
viva	-11.5335
turbo	-11.5335
they	-11.5336
ster	-11.5338
guidance	-11.5339
selection	-11.534
pdp	-11.5343
ghost	-11.5345
sac	-11.5348
drf	-11.5355
preguntas	-11.5355
nueva	-11.5358
liv	-11.5361
uber	-11.5364
sud	-11.5367
0001	-11.5368
qivy	-11.5368
ict	-11.537
medicina	-11.5378
ante	-11.5378
jordan	-11.5382
recherche	-11.5386
gao	-11.5388
discount	-11.539
cha	-11.5391
december	-11.5392
acrobat	-11.5395
eve	-11.5396
untuk	-11.5396
mor	-11.5398
qive	-11.5398
stack	-11.5408
present	-11.5408
tablets	-11.5409
steps	-11.5409
logout	-11.541
_7_	-11.541
nyheter	-11.5412
pada	-11.5413
talent	-11.5421
paypal	-11.5423
xtor	-11.5426
female	-11.5427
":{"	-11.5428
major	-11.543
rae	-11.5431
daniel	-11.5431
calculate	-11.5431
nhu	-11.5431
tho	-11.5438
lima	-11.5439
pipe	-11.5439
auction	-11.5439
diablo	-11.5441
adp	-11.5445
glas	-11.5446
printers	-11.5446
uhd	-11.545
bitcoin	-11.5453
ق	-11.5454
ด	-11.5457
dance	-11.5457
dnb	-11.5457
idea	-11.546
}	-11.5463
hide	-11.5463
being	-11.5464
nor	-11.5471
fnac	-11.5473
、	-11.5481
callback	-11.5487
patch	-11.5487
todos	-11.5488
360.	-11.5489
hacer	-11.5493
webstore	-11.5494
bts	-11.5496
zillow	-11.5498
mex	-11.5499
=128	-11.55
temp	-11.5505
thang	-11.5508
174	-11.5509
emag	-11.5514
circuit	-11.5516
thoi	-11.5517
nel	-11.5518
59&	-11.5521
mcq	-11.5522
ป	-11.5523
airlines	-11.5524
servizi	-11.5524
nicht	-11.5525
ficha	-11.5526
ahv	-11.553
wir	-11.5531
potter	-11.5533
oma	-11.5537
cream	-11.5539
kakaku	-11.554
chap	-11.5541
nota	-11.5542
classes	-11.5546
canal	-11.5546
ted	-11.5547
uno	-11.5551
flag	-11.5553
available	-11.5555
understanding	-11.556
important	-11.5561
therapy	-11.5563
sheets	-11.5567
concept	-11.5567
div	-11.5569
gian	-11.5569
slow	-11.5573
diet	-11.5574
literature	-11.5581
employee	-11.5585
wissen	-11.5586
would	-11.559
sleep	-11.5591
variable	-11.5592
ama	-11.5592
champions	-11.5596
fine	-11.5598
jbl	-11.5598
bob	-11.5607
lavoro	-11.5607
iot	-11.5607
pixel	-11.5608
seguridad	-11.5611
dchcsewj	-11.5612
pdfs	-11.5612
ndo	-11.5612
designer	-11.5614
и	-11.5616
fab	-11.5617
indo	-11.562
ale	-11.5622
brd	-11.5627
italian	-11.5628
llc	-11.5628
bunnings	-11.563
acnt	-11.5639
otto	-11.5639
albag	-11.564
msg	-11.5641
/2021	-11.5643
departments	-11.5648
10&	-11.5653
rat	-11.566
psp	-11.5661
islam	-11.5664
uso	-11.5664
eli	-11.5665
mak	-11.5665
diario	-11.5667
cfd	-11.5667
idealo	-11.5669
programas	-11.5669
categorie	-11.5669
yan	-11.567
saber	-11.5674
verde	-11.5674
round	-11.5676
canvas	-11.5678
ahu	-11.5679
annuaire	-11.5681
aire	-11.5682
cana	-11.5686
melbourne	-11.5688
phase	-11.5688
lay	-11.5689
thuat	-11.5693
bild	-11.5693
cur	-11.5698
albcp	-11.5701
anglais	-11.5707
leadership	-11.5708
-2019	-11.5709
psychology	-11.5713
160	-11.5715
jusbrasil	-11.5715
iva	-11.5717
ian	-11.5719
veh	-11.572
khu	-11.5723
says	-11.5723
albch	-11.5727
elpais	-11.5729
independent	-11.5733
meb	-11.5733
ptid	-11.5733
topicdetail	-11.5738
wcm	-11.5747
prodotti	-11.5752
008	-11.5753
realtor	-11.5753
merriam	-11.5753
parents	-11.5753
kol	-11.5754
configuration	-11.5755
notmobile	-11.576
wiley	-11.576
dak	-11.5763
noel	-11.5765
kitap	-11.5767
wellness	-11.577
정	-11.5771
sho	-11.5771
comic	-11.5773
gaz	-11.5775
alta	-11.5775
diabetes	-11.5777
lms	-11.5777
push	-11.5786
distance	-11.5787
char	-11.5789
very	-11.579
カ	-11.5797
produit	-11.5799
derecho	-11.5799
mask	-11.5802
italy	-11.5807
ceo	-11.5809
/2021/12/	-11.581
cape	-11.5817
マ	-11.5819
enable	-11.582
producten	-11.583
lis	-11.583
had	-11.5832
pcs	-11.5834
mission	-11.5835
extreme	-11.5841
350	-11.5841
nur	-11.5843
apo	-11.5844
boat	-11.5844
soccer	-11.5845
ave	-11.5848
mov	-11.5849
programa	-11.5849
bom	-11.5852
美	-11.5853
privacy	-11.5855
hosting	-11.5858
filename	-11.5859
行	-11.5859
chemical	-11.5863
mountain	-11.5864
contoh	-11.5865
roz	-11.5867
festival	-11.5873
qivf	-11.5874
saudi	-11.5878
pricing	-11.5882
ن	-11.5885
datasheet	-11.5889
ation	-11.5892
cmd	-11.5894
slim	-11.5896
std	-11.5897
barn	-11.5898
episodes	-11.59
vodafone	-11.5901
230	-11.5902
ign	-11.5902
dogs	-11.5902
sklep	-11.5907
shipping	-11.591
=1008	-11.5911
porto	-11.5912
faire	-11.5915
maintenance	-11.5916
subid	-11.5917
00-000000000000&	-11.5919
dress	-11.5923
mazda	-11.5924
insert	-11.5924
certification	-11.5925
mine	-11.5925
juan	-11.5926
wetter	-11.5927
bags	-11.5927
mario	-11.5933
missing	-11.5934
msdn	-11.5935
kas	-11.5936
mirror	-11.5937
egg	-11.5939
inventory	-11.5939
tire	-11.5943
ora	-11.5943
cay	-11.5946
-1000	-11.5952
celebrity	-11.5952
christian	-11.5962
mtm	-11.5963
healthline	-11.5965
userid	-11.5965
102	-11.5969
etc	-11.5974
mari	-11.5975
exercicios	-11.5975
agri	-11.5975
gio	-11.5981
nft	-11.5988
beautiful	-11.5991
marvel	-11.5992
kun	-11.5995
bur	-11.5998
angebote	-11.6001
abstract	-11.6003
qivl	-11.6003
ping	-11.6005
아	-11.6006
funds	-11.6007
suite	-11.6011
kompas	-11.6011
̇	-11.6012
tiaud	-11.6013
army	-11.6013
scene	-11.6018
googlesem	-11.6028
qiva	-11.6028
counter	-11.6031
unique	-11.6031
amor	-11.6031
masters	-11.6031
praxis	-11.6032
leon	-11.6037
psy	-11.6041
industries	-11.6042
sina	-11.6044
junior	-11.6045
市	-11.6046
locphys	-11.6047
я	-11.6053
processor	-11.6054
mes	-11.6056
205	-11.6056
pat	-11.6058
-120	-11.6058
doctors	-11.6059
naked	-11.6061
albagn	-11.6062
tia	-11.6063
dari	-11.6066
alla	-11.607
qivx	-11.6072
zeit	-11.6073
eksisozluk	-11.6074
-720	-11.6077
possible	-11.6088
clinical	-11.6095
lng	-11.6096
法	-11.6099
immobilien	-11.61
cion	-11.6102
raj	-11.6103
estado	-11.6104
poli	-11.6105
administration	-11.6105
gis	-11.6115
operations	-11.612
adgrp	-11.6121
nachrichten	-11.6123
cate	-11.6125
mla	-11.6131
explained	-11.6131
gli	-11.6132
uuid	-11.6135
cook	-11.6135
마	-11.614
mujer	-11.6143
attractions	-11.6146
2019	-11.6147
cake	-11.6148
slnk	-11.6149
550	-11.615
desi	-11.615
wolf	-11.6151
513	-11.6154
gol	-11.6154
telefon	-11.6154
ireland	-11.6159
イ	-11.6159
electro	-11.6161
spray	-11.6169
comparison	-11.6174
rol	-11.6177
setting	-11.618
rnd	-11.6183
caaseuro	-11.6183
innovation	-11.619
googleloc	-11.6191
cleaning	-11.6192
nta	-11.6192
economics	-11.6194
ค	-11.6194
hashtag	-11.6197
/2017/	-11.6202
à	-11.6203
mein	-11.6204
algebra	-11.6204
252	-11.6206
sexo	-11.6206
ftp	-11.6209
yts	-11.6211
egypt	-11.6211
organization	-11.6211
employment	-11.6213
queen	-11.6214
clnk	-11.6222
buscappc	-11.6223
hlrd	-11.6232
suv	-11.624
grill	-11.6241
lens	-11.6249
chien	-11.6253
khan	-11.6254
coach	-11.6255
vaccines	-11.6256
bonus	-11.6258
ahx	-11.6258
gram	-11.6259
lotto	-11.626
plugin	-11.6264
credito	-11.6267
201	-11.6268
ב	-11.6275
nrw	-11.6277
ح	-11.6279
russian	-11.628
đ	-11.6283
pdfcoffee	-11.6287
品	-11.6287
claims	-11.629
器	-11.6294
valorant	-11.6294
，	-11.6295
adgr	-11.63
soal	-11.6301
egybest	-11.6303
ons	-11.6305
siteid	-11.6307
linea	-11.6307
actor	-11.6307
areas	-11.6312
sti	-11.6315
hogar	-11.6318
perf	-11.6321
grow	-11.6323
retargeting	-11.6324
bird	-11.6325
aria	-11.6326
votre	-11.6329
cons	-11.6329
sistemas	-11.6336
specific	-11.6342
nclid	-11.6344
webcache	-11.6345
decor	-11.6351
ช	-11.6352
gsn	-11.6352
wordreference	-11.6356
natur	-11.6359
wars	-11.6362
creation	-11.6366
cbse	-11.6371
prima	-11.6378
kits	-11.6381
holz	-11.6383
kart	-11.6383
240	-11.6384
mic	-11.6384
qconcursos	-11.6388
stick	-11.6389
gai	-11.639
psu	-11.639
referer	-11.6392
mechanical	-11.6393
binh	-11.6393
제	-11.6395
erp	-11.64
firm	-11.64
111	-11.6401
mercado	-11.6403
rights	-11.6406
mtctp	-11.6407
kurs	-11.6408
jim	-11.6411
flipkart	-11.6412
carrefour	-11.6412
keys	-11.6414
abu	-11.6414
jesus	-11.6415
rot	-11.6416
lien	-11.6417
toc	-11.6418
catch	-11.642
opera	-11.6425
مترجم	-11.643
albbt	-11.6434
leather	-11.6435
jbx	-11.6436
sal	-11.6439
-256	-11.6439
redmi	-11.6443
dag	-11.6445
blocks	-11.6449
어	-11.6452
basketball	-11.6457
creating	-11.6459
close	-11.6462
lift	-11.6462
日	-11.6465
banner	-11.6469
mother	-11.647
glossary	-11.647
mach	-11.6472
stuff	-11.6476
yandex	-11.6478
waste	-11.648
granny	-11.6488
hus	-11.6489
trademark	-11.6489
crystal	-11.6492
dining	-11.6493
ntwrk	-11.6494
burg	-11.6495
bbb	-11.6502
dyn	-11.6503
crlp	-11.6503
qatar	-11.6503
marie	-11.6508
foro	-11.6508
▁pdf	-11.651
=1009	-11.6515
recette	-11.6515
水	-11.6517
investor	-11.652
stainless	-11.6526
middle	-11.6527
nho	-11.653
pieces	-11.6532
papa	-11.6532
telecharger	-11.6532
mvc	-11.6537
mch	-11.6542
が	-11.6545
sara	-11.6547
drink	-11.6553
180	-11.6559
ideal	-11.6563
fiat	-11.6564
poki	-11.6566
tieu	-11.6567
piu	-11.6568
電	-11.6572
turkey	-11.6572
signal	-11.6574
discovery	-11.6576
picture	-11.6579
bayern	-11.6581
,;	-11.6581
heavy	-11.6585
oup	-11.6589
dcard	-11.659
adventure	-11.659
carta	-11.6592
diva	-11.6593
kalender	-11.6593
mtchtyp	-11.6593
flip	-11.6594
수	-11.6595
spor	-11.6598
lamp	-11.6599
spain	-11.6605
theo	-11.6606
jay	-11.6606
gumtree	-11.6607
hey	-11.6608
revision	-11.6608
dvcmdl	-11.6609
dspace	-11.6609
ninja	-11.6613
м	-11.6615
kap	-11.6617
手	-11.6617
chocolate	-11.6618
fditm	-11.6619
intrst	-11.6626
rice	-11.6627
fishing	-11.6628
mlc	-11.6629
sdid	-11.6633
docz	-11.6636
inst	-11.6637
premiere	-11.6642
mining	-11.6644
gesundheit	-11.6646
legend	-11.6646
florida	-11.6647
idsku	-11.6649
plot	-11.6649
elsevier	-11.6651
stein	-11.6654
formato	-11.666
federal	-11.666
beste	-11.6661
rtl	-11.6662
catid	-11.6664
dio	-11.6664
decathlon	-11.6665
▁[	-11.6672
alfa	-11.6673
explorer	-11.6674
destinations	-11.6676
monte	-11.6678
/#	-11.6679
ride	-11.6685
rosa	-11.6686
ntw	-11.6687
로	-11.669
integration	-11.669
boost	-11.6691
aba	-11.6693
การ	-11.6696
ost	-11.6698
vergleich	-11.6702
protocol	-11.6705
qivw	-11.6714
hours	-11.6717
plate	-11.6718
dad	-11.6719
=888888&	-11.672
eshop	-11.6724
ngan	-11.6726
signup	-11.6736
mary	-11.6736
rei	-11.6738
iran	-11.6738
carros	-11.6739
xxl	-11.6739
latino	-11.6739
▁exact	-11.6746
insight	-11.6746
preisvergleich	-11.6746
vous	-11.6748
halo	-11.6749
automotive	-11.675
plants	-11.6751
ren	-11.6753
garmin	-11.6754
vista	-11.676
expand	-11.676
productid	-11.6766
pornstar	-11.6769
contextual	-11.6771
-150	-11.6773
voce	-11.6776
א	-11.6778
pds	-11.6782
ann	-11.6784
520	-11.6787
egitim	-11.6789
thuoc	-11.679
businessinsider	-11.6796
ción	-11.6796
egy	-11.6798
output	-11.6798
consulting	-11.6804
wien	-11.6805
solver	-11.6809
家	-11.681
repo	-11.6813
190	-11.6814
matlab	-11.6817
locales	-11.6819
ting	-11.6819
walk	-11.6821
jin	-11.6824
scid	-11.6827
ruliweb	-11.6827
wholesale	-11.6833
george	-11.6844
jst	-11.6844
alex	-11.6858
notizie	-11.686
admission	-11.6864
kay	-11.6865
bib	-11.6867
lte	-11.6869
cont	-11.6869
length	-11.6872
everything	-11.6873
prompt	-11.6877
superuser	-11.6877
shirt	-11.688
turkiye	-11.6882
sme	-11.689
hdd	-11.6891
viewthread	-11.6892
thinkpad	-11.6893
buzz	-11.6896
고	-11.6901
familia	-11.6905
heim	-11.6906
rapid	-11.6911
mul	-11.6911
roman	-11.6912
linear	-11.6914
signs	-11.6916
kleinanzeigen	-11.6919
deploy	-11.692
doan	-11.692
falabella	-11.6925
yeni	-11.6926
amsterdam	-11.6926
009	-11.6928
=9000	-11.693
fda	-11.6931
achat	-11.6932
tuhoc	-11.6934
droit	-11.6935
kings	-11.6937
tham	-11.6937
bud	-11.6938
1!1	-11.6939
spark	-11.6941
filters	-11.6941
ism	-11.6944
hitta	-11.6947
فيلم	-11.6947
女	-11.6952
本	-11.6952
fact	-11.6953
given	-11.6956
有	-11.6961
aktuell	-11.6962
quot	-11.6962
interface	-11.6964
spy	-11.6965
/2021-	-11.6972
adtype	-11.6973
aula	-11.6975
parte	-11.6977
ameblo	-11.6979
even	-11.6979
ק	-11.6986
seg	-11.6993
254	-11.6993
mec	-11.6993
lhyin	-11.6993
trainer	-11.6995
vox	-11.6996
elo	-11.6998
fid	-11.6998
fac	-11.6999
fra	-11.6999
driving	-11.6999
777	-11.7002
livre	-11.7007
genie	-11.7007
pdv	-11.7012
onlinelibrary	-11.702
launcher	-11.702
rai	-11.7021
fusion	-11.7025
nhieu	-11.7027
hcm	-11.7027
ка	-11.7028
pick	-11.7029
draw	-11.7032
swift	-11.7032
pix	-11.7034
nom	-11.7035
descarga	-11.7039
lessons	-11.7039
ets	-11.7043
break	-11.7048
fort	-11.705
fcid	-11.7051
gog	-11.7053
dun	-11.7058
90&	-11.706
qivr	-11.706
ان	-11.7062
mapa	-11.7065
zoneid	-11.7065
libre	-11.7068
osaka	-11.7069
taxi	-11.7071
igapromo	-11.7072
pluginfile	-11.7077
servers	-11.7077
englisch	-11.7081
135	-11.7081
أ	-11.7082
shot	-11.7083
mente	-11.7084
jardin	-11.7085
fair	-11.7089
259	-11.7092
ejemplos	-11.7092
pornstars	-11.7095
shemale	-11.7095
rar	-11.7096
indiamart	-11.71
winkel	-11.7101
ies	-11.7105
january	-11.7107
wowhead	-11.7112
truc	-11.7114
jar	-11.7126
wallet	-11.713
wallpaper	-11.7134
audit	-11.7138
mun	-11.7141
pension	-11.7141
車	-11.7144
2000	-11.7144
134	-11.7152
dim	-11.7155
ify	-11.7169
pilot	-11.7169
eyj	-11.717
wer	-11.7173
sitelnk	-11.7175
soul	-11.7176
도	-11.7181
2016	-11.7183
stan	-11.7185
zorg	-11.7185
rid	-11.7187
文	-11.7188
pptx	-11.7188
eric	-11.719
コ	-11.719
soy	-11.7193
mkgroup	-11.7193
hut	-11.7194
quimica	-11.7194
ciudad	-11.7198
pia	-11.7199
ari	-11.7199
bios	-11.7199
aldi	-11.7201
ש	-11.7202
arca	-11.7205
理	-11.7206
sis	-11.7208
marco	-11.721
ipo	-11.7218
plugins	-11.7218
tecnica	-11.722
vel	-11.7223
meu	-11.7224
essential	-11.7225
toi	-11.7225
monde	-11.7226
give	-11.7228
conference	-11.7232
experts	-11.7233
california	-11.7238
mam	-11.724
bos	-11.7245
television	-11.725
에	-11.7251
bog	-11.7255
yelp	-11.7255
articleshow	-11.7258
away	-11.726
chevrolet	-11.726
trailer	-11.7261
doanh	-11.7261
antonio	-11.7265
ngo	-11.7269
tie	-11.7272
obs	-11.7275
claro	-11.7276
tesis	-11.7279
userloc	-11.7279
beat	-11.7279
chen	-11.728
ista	-11.7282
ceneo	-11.7282
epic	-11.7283
views	-11.7284
engineer	-11.7284
turismo	-11.7285
lim	-11.7288
대	-11.7288
nga	-11.7295
bim	-11.7296
luna	-11.7296
migliori	-11.7296
mozilla	-11.7298
ayuda	-11.7298
hip	-11.7299
graduate	-11.7301
rain	-11.7306
ismo	-11.7309
booster	-11.7311
luxury	-11.7314
yama	-11.7318
actu	-11.732
pictures	-11.7321
tiger	-11.7324
bun	-11.7327
degree	-11.7334
military	-11.7334
goal	-11.7334
gut	-11.7339
ย	-11.734
issmbautocall	-11.7341
needsmbhouyi	-11.7343
nine	-11.7343
cea	-11.7347
レ	-11.7348
pgeo	-11.7349
sense	-11.7355
sociedad	-11.7359
▁plus	-11.7368
coding	-11.7369
%7	-11.7372
rezept	-11.7372
!8	-11.7373
oficial	-11.7374
half	-11.7376
chong	-11.7377
expo	-11.7379
오	-11.7379
medico	-11.7382
handbook	-11.7383
kategori	-11.7384
protein	-11.7388
金	-11.739
intelligence	-11.7393
cbd	-11.7395
khac	-11.7396
shu	-11.7398
netw	-11.7398
comics	-11.7401
fps	-11.7402
مسلسل	-11.7402
bath	-11.7406
ris	-11.7406
boom	-11.7408
spieler	-11.7409
deportes	-11.7409
nghia	-11.7415
71137539015	-11.7418
please	-11.7421
technet	-11.7424
sst	-11.7424
ligne	-11.7426
them	-11.7428
apache	-11.7429
entreprise	-11.7429
viec	-11.743
obituaries	-11.7431
factor	-11.7436
=1000000000&	-11.7436
310	-11.7437
subtitles	-11.7439
kategoria	-11.744
deutsche	-11.7441
kara	-11.7443
mrntrk	-11.7445
cry	-11.7446
dre	-11.7446
trucks	-11.7452
版	-11.7454
xms	-11.7455
253	-11.7455
speech	-11.7457
pets	-11.7461
guard	-11.7463
tee	-11.7463
beer	-11.7464
141	-11.7471
..69	-11.7471
deck	-11.7477
lst	-11.7477
shutterstock	-11.7478
registro	-11.748
trail	-11.7482
5%	-11.7485
全	-11.7485
programmes	-11.7488
wdorigin	-11.749
units	-11.749
/2021/03/	-11.7491
wal	-11.7491
ع	-11.7493
cosa	-11.7502
מ	-11.7502
million	-11.7503
objects	-11.7503
builder	-11.7504
det	-11.7504
afd	-11.7507
4!1	-11.7508
105	-11.7508
三	-11.7521
dating	-11.7522
490	-11.7524
schule	-11.7525
cube	-11.7525
wit	-11.7528
hol	-11.7531
idealista	-11.7536
include	-11.7537
youth	-11.7539
kem	-11.754
loss	-11.7542
lets	-11.7544
tuyen	-11.7545
division	-11.7546
ى	-11.7547
plug	-11.7551
라	-11.7553
brochure	-11.7558
lane	-11.7563
hombre	-11.7565
european	-11.7565
demand	-11.7569
currencies	-11.7571
ele	-11.7571
dur	-11.7572
jurnal	-11.7574
34192	-11.7574
glo	-11.7581
liquid	-11.7582
mtc	-11.7582
economic	-11.7582
temperature	-11.7583
tvs	-11.7583
ders	-11.7586
rex	-11.7587
bong	-11.7588
paa	-11.7593
hidden	-11.7595
friend	-11.7595
sup	-11.7595
buying	-11.7604
casino	-11.7605
hex	-11.7605
azul	-11.7607
psicologia	-11.7607
dfae	-11.761
oled	-11.7614
/2021/01/	-11.7614
=6&	-11.7616
2_0&	-11.762
gra	-11.762
tout	-11.7621
monitoring	-11.7622
sir	-11.7623
cnc	-11.7627
エ	-11.7629
gar	-11.7632
alert	-11.7634
temas	-11.7635
ע	-11.7638
niet	-11.7643
ท	-11.7643
naruto	-11.7645
clinica	-11.7646
volvo	-11.7648
장	-11.7649
loans	-11.765
/2016/	-11.7653
publicaciones	-11.7654
homme	-11.7656
iris	-11.7657
locator	-11.7659
circle	-11.7661
mel	-11.7664
meer	-11.7673
jos	-11.7673
/12-	-11.7677
cookie	-11.7679
170	-11.7679
6-1	-11.768
stays	-11.7683
ity	-11.7684
к	-11.7685
pil	-11.7688
universidad	-11.769
tits	-11.7691
-80-	-11.7692
bouw	-11.7695
vacuum	-11.7698
bluestacks	-11.7698
printing	-11.7698
moodle	-11.7699
calendario	-11.7701
dra	-11.7705
liverpool	-11.7711
pandas	-11.7714
traduction	-11.7715
cargo	-11.7719
accueil	-11.7722
guias	-11.7723
rap	-11.7723
pflege	-11.7724
pole	-11.7726
/【	-11.7728
jeans	-11.7729
251	-11.7733
stress	-11.7734
cab	-11.7734
eos	-11.7735
automatic	-11.7737
medica	-11.7738
individual	-11.7739
luis	-11.7739
tik	-11.774
gom	-11.7744
clk	-11.7746
milk	-11.7752
oyun	-11.7757
naar	-11.776
▁download	-11.7761
issuu	-11.7763
neuro	-11.7765
wide	-11.7767
gbp	-11.7769
height	-11.7774
rea	-11.7774
blade	-11.7781
config	-11.7781
4%	-11.7782
radar	-11.7784
=11	-11.7784
assurance	-11.7787
birthday	-11.7794
-90-	-11.7796
ס	-11.7798
patent	-11.7804
thay	-11.7812
pasta	-11.7812
foreign	-11.7814
causes	-11.7814
onlyfans	-11.7816
ที่	-11.7816
wang	-11.7816
ium	-11.7817
tricks	-11.7818
▁exa	-11.7818
tiki	-11.7822
bahasa	-11.7822
phd	-11.7822
bagdeae	-11.7823
258	-11.7825
matematica	-11.7828
alberta	-11.7829
adam	-11.7831
wheels	-11.7831
semi	-11.7835
columbia	-11.7836
mhz	-11.7836
-2015-	-11.7838
caas	-11.7838
colour	-11.7839
versus	-11.784
presse	-11.784
ラ	-11.7841
tesla	-11.7843
410	-11.7844
-1000-	-11.7848
icin	-11.7861
130	-11.7861
logistics	-11.7861
efd	-11.7862
imoveis	-11.7863
goi	-11.787
式	-11.787
cameras	-11.787
symptoms	-11.7875
natal	-11.7881
112	-11.7881
>	-11.7885
boi	-11.7886
bois	-11.7889
д	-11.7892
seven	-11.7894
oder	-11.7896
genre	-11.7899
nin	-11.79
prep	-11.7902
gamespot	-11.7906
networking	-11.791
/2020/03/	-11.7911
vale	-11.7912
2018	-11.7914
negro	-11.7914
alternative	-11.7917
storeid	-11.7918
publico	-11.7919
ops	-11.7921
insider	-11.7921
wap	-11.7923
exams	-11.7923
=-1&	-11.7926
garten	-11.7926
/2020/04/	-11.7932
kci	-11.7934
brief	-11.7935
▁la	-11.7935
panama	-11.7936
wobhdrarisanymno	-11.7936
carlos	-11.7937
cio	-11.7939
doo	-11.7942
occ	-11.7942
rim	-11.7944
ness	-11.7946
tres	-11.7951
policies	-11.7951
changes	-11.7953
eda	-11.7954
around	-11.7958
computing	-11.7958
kac	-11.7961
filmes	-11.7963
000000	-11.7964
pac	-11.7964
donna	-11.7968
gst	-11.7971
detalle	-11.7972
gif	-11.7975
mae	-11.7978
か	-11.7979
leben	-11.7983
qivz	-11.7985
kpn	-11.7986
visymo	-11.7986
trivago	-11.7987
rwidth	-11.799
sosyal	-11.799
pentru	-11.799
netstandard	-11.7996
faz	-11.7999
소	-11.8003
kha	-11.8004
awards	-11.801
=20	-11.8012
channable	-11.8013
성	-11.8024
cart	-11.8024
202	-11.8024
tata	-11.8026
champion	-11.8027
webshop	-11.8027
against	-11.803
aon	-11.8039
wei	-11.8042
travail	-11.8044
thiet	-11.8048
scientific	-11.8049
procedure	-11.805
symbol	-11.805
ー	-11.8052
omni	-11.8052
pocket	-11.8052
multimedia	-11.8053
kyo	-11.8056
pwd	-11.8056
！	-11.8059
grad	-11.8061
cul	-11.8061
auctions	-11.8064
promotions	-11.8067
510	-11.8068
moving	-11.8069
admissions	-11.8069
luu	-11.8074
vas	-11.8075
rey	-11.8075
[]=	-11.8076
apex	-11.8078
relationship	-11.8079
mano	-11.8081
navigation	-11.8084
moc	-11.8089
docid	-11.8091
sala	-11.8094
/2020/10/	-11.8096
jeu	-11.8098
dictionnaire	-11.81
210	-11.8104
algo	-11.8104
maxi	-11.8107
scott	-11.8109
rheight	-11.8109
888	-11.8112
retailer	-11.8113
zer	-11.8114
frank	-11.8114
mathematics	-11.8115
parks	-11.8115
sxsrf	-11.8115
=61	-11.8116
exception	-11.8119
woolworths	-11.812
schweiz	-11.8122
255	-11.8122
informatica	-11.8123
bogota	-11.8125
011	-11.8126
unternehmen	-11.8126
sustainability	-11.8128
bfd	-11.8129
venda	-11.813
nhk	-11.813
aaq	-11.8136
recepten	-11.8137
worksheets	-11.8137
kul	-11.8138
oro	-11.8138
pacific	-11.8138
experiment	-11.8139
لل	-11.8139
thesis	-11.814
aka	-11.8142
sexual	-11.8145
mty	-11.8146
kei	-11.8148
couple	-11.8149
frases	-11.8153
wch	-11.8154
iyi	-11.8154
미	-11.8155
animation	-11.8156
errors	-11.816
vln	-11.816
bor	-11.816
juego	-11.8162
cuu	-11.8164
encyclopedia	-11.8164
tru	-11.8166
never	-11.8169
poe	-11.817
nghi	-11.817
occasion	-11.8176
skill	-11.8182
portugues	-11.8183
zwart	-11.8183
diary	-11.8189
rpg	-11.8189
bull	-11.8191
macro	-11.8195
surf	-11.8196
/2020/11/	-11.8199
mumbai	-11.8199
lua	-11.82
서	-11.8201
2-4419-9	-11.8201
010	-11.8203
fruit	-11.8204
become	-11.8205
kiss	-11.8209
chua	-11.821
gigabyte	-11.8213
/2021/09/	-11.8213
hotstar	-11.8213
onebox	-11.8214
ง	-11.8214
zzg	-11.8216
한	-11.8222
dias	-11.8222
lek	-11.8226
porta	-11.8228
し	-11.823
qivt	-11.823
mmca	-11.8234
diagram	-11.8234
cuenta	-11.8235
condition	-11.8238
saat	-11.8239
rou	-11.8239
pci	-11.8242
reasons	-11.8242
hydro	-11.8242
pem	-11.8243
iki	-11.8248
raz	-11.8249
tenant	-11.8254
opel	-11.8256
ها	-11.8258
alma	-11.8263
ankara	-11.8263
taylor	-11.8263
sei	-11.8263
cli	-11.8263
hydes	-11.8266
correct	-11.827
tci	-11.8271
pir	-11.8272
pec	-11.8274
operation	-11.8275
embed	-11.8278
tiempo	-11.828
headphones	-11.8283
330	-11.8285
,"	-11.8292
cek	-11.8293
zbq	-11.8293
cer	-11.8293
bbq	-11.8295
/2020/05/	-11.8296
nytimes	-11.8297
icc	-11.8298
ム	-11.8302
poster	-11.8303
iam	-11.8308
sko	-11.8309
sugar	-11.8309
thegioididong	-11.831
gets	-11.831
qual	-11.8312
（	-11.8312
delle	-11.8312
nut	-11.8313
hos	-11.8314
corporation	-11.8318
山	-11.8318
obj	-11.832
negocios	-11.8323
dizi	-11.8324
業	-11.8326
qivu	-11.8328
=["	-11.8328
sia	-11.8328
/2021/05/	-11.8329
refid	-11.833
damen	-11.8331
coinmarketcap	-11.8336
msc	-11.8339
ble	-11.8339
fiber	-11.8341
linternaute	-11.8342
adwordssearch	-11.8344
分	-11.8344
ล	-11.8345
cultural	-11.8346
-2013-	-11.8346
edr	-11.8347
holland	-11.835
2021.	-11.8351
dokument	-11.8352
420	-11.8355
picclick	-11.8355
espace	-11.8357
pixiv	-11.8357
cdiscount	-11.8357
dok	-11.8358
qivv	-11.8358
ク	-11.8362
actualite	-11.8363
pakistan	-11.8365
127	-11.8374
jako	-11.8375
fiches	-11.8375
csharp	-11.8376
nem	-11.8376
hifi	-11.8376
podcast	-11.8378
eps	-11.8378
hyd	-11.8382
hari	-11.8384
lou	-11.8386
synonyme	-11.8386
sold	-11.8387
avd	-11.8388
techno	-11.8389
_2021_	-11.839
247	-11.8394
desarrollo	-11.8394
tell	-11.8397
cie	-11.8398
aar	-11.8399
비	-11.84
medio	-11.8401
discogs	-11.8402
-27-	-11.8406
mouser	-11.8407
hart	-11.8408
compact	-11.8409
calc	-11.8409
evaluation	-11.8411
bloomberg	-11.8414
ک	-11.8415
fake	-11.8416
columns	-11.8417
define	-11.842
servicio	-11.8422
puerto	-11.8428
hom	-11.843
schwarz	-11.8431
noir	-11.8431
ppv	-11.8432
物	-11.8433
publishing	-11.8435
charts	-11.8439
kab	-11.844
shops	-11.8442
saison	-11.8444
ola	-11.8444
aed	-11.8445
pai	-11.8445
rem	-11.8446
shield	-11.8446
dyson	-11.8446
01_	-11.8448
unbhcrarisacgaiq	-11.8449
mejor	-11.845
▁para	-11.8452
licht	-11.8454
osu	-11.8454
"]&	-11.8454
115	-11.846
tmp	-11.846
offline	-11.8463
=101	-11.8463
sage	-11.8465
techniques	-11.8465
archiv	-11.8468
fare	-11.8468
قسمت	-11.8472
conseils	-11.8473
bear	-11.8475
depot	-11.8477
qivs	-11.8479
2017	-11.8481
parfum	-11.8482
lok	-11.8483
!2	-11.8485
pfx	-11.8495
anyone	-11.8496
ك	-11.8497
rel	-11.8498
’	-11.8499
teamviewer	-11.85
ltn	-11.8501
unable	-11.8507
memoria	-11.8507
latin	-11.8508
bebe	-11.8511
escorts	-11.8511
oppo	-11.8512
▁i	-11.8514
ffd	-11.8516
cote	-11.8518
ز	-11.8519
salaries	-11.852
startup	-11.8521
corner	-11.8521
scuola	-11.8523
/15-	-11.8524
protect	-11.8525
101.	-11.8525
ciencias	-11.8526
echo	-11.8527
spirit	-11.8528
shopify	-11.8532
labor	-11.8533
instruments	-11.8533
weekly	-11.8535
sbs	-11.8536
alza	-11.8537
clips	-11.8542
evolution	-11.8546
dealer	-11.8546
rip	-11.8551
/2021/02/	-11.8553
オ	-11.8554
belle	-11.8555
futebol	-11.8555
transparencia	-11.8557
preto	-11.8559
bul	-11.8562
天	-11.8567
유	-11.8567
cpd	-11.8569
xuat	-11.857
gene	-11.857
ove	-11.8571
【	-11.8572
caso	-11.8572
annunci	-11.8575
gds	-11.8575
born	-11.8576
semana	-11.8578
roy	-11.858
simon	-11.8586
eine	-11.8589
/2020/12/	-11.8592
concrete	-11.8595
sgk	-11.8598
disc	-11.8599
espn	-11.86
ecommerce	-11.8604
attack	-11.8607
chia	-11.8607
bip	-11.8609
lion	-11.8615
188	-11.8616
264	-11.8619
liu	-11.8621
/15/	-11.8622
republic	-11.8623
chris	-11.8624
khoi	-11.8624
mesh	-11.8624
problemas	-11.8624
hamburg	-11.8626
contacts	-11.8628
kayak	-11.863
ssh	-11.8632
ash	-11.8632
tranh	-11.8633
louis	-11.8634
alto	-11.8634
bestbuy	-11.864
bella	-11.864
ต	-11.8642
titan	-11.8642
environmental	-11.8645
troubleshooting	-11.8646
musik	-11.8648
economie	-11.8649
tet	-11.865
lig	-11.8651
vitamin	-11.8652
processing	-11.8655
zealand	-11.8659
اء	-11.8659
/2021/06/	-11.8659
produkty	-11.8664
phil	-11.8664
dji	-11.8665
acao	-11.8667
psd	-11.8671
gor	-11.8671
rack	-11.8672
moh	-11.8683
rico	-11.8684
surgery	-11.8691
地	-11.8695
guida	-11.8697
opening	-11.8702
salute	-11.8703
お	-11.8703
/2021/07/	-11.8704
maas	-11.8705
ear	-11.871
expansion	-11.871
prince	-11.8711
х	-11.8712
fhd	-11.8713
unter	-11.8714
acs	-11.8716
relevance	-11.8718
hbo	-11.872
144	-11.8724
mio	-11.8725
ashx	-11.8727
الحلقة	-11.8728
these	-11.8729
beton	-11.8731
ção	-11.8735
vuelos	-11.8736
epa	-11.8738
fanfiction	-11.8741
sister	-11.8741
qivm	-11.8743
fest	-11.8747
argos	-11.8747
nar	-11.8747
tori	-11.8751
fixed	-11.8752
6-49	-11.8759
kunst	-11.8762
heritage	-11.8763
fao	-11.8765
hao	-11.8769
executive	-11.8772
ura	-11.8774
wivg	-11.8776
speaker	-11.8776
lor	-11.8776
wales	-11.878
-400	-11.8782
douglas	-11.8785
nong	-11.8786
qivq	-11.8786
나	-11.8787
controls	-11.8787
folders	-11.8788
escape	-11.8789
{	-11.8789
ori	-11.8795
pig	-11.8801
vga	-11.8801
ort	-11.8802
recetas	-11.8802
813	-11.8803
skws	-11.8804
beginners	-11.8806
heirloom	-11.8806
affiliateid	-11.8806
appartement	-11.8816
-23-	-11.8818
ა	-11.8821
apartment	-11.8823
xls	-11.8826
teknik	-11.8826
530	-11.8829
=0000000	-11.8831
canh	-11.8831
2!3	-11.8833
mbhcxarisaiddknv	-11.8837
원	-11.8843
ego	-11.8844
attach	-11.8846
nda	-11.885
dicas	-11.8851
bbw	-11.8852
roms	-11.8854
organisation	-11.8854
بر	-11.8855
geld	-11.8856
は	-11.886
projekt	-11.8863
wivb	-11.8864
075	-11.8866
marche	-11.8872
watches	-11.8873
fees	-11.8875
hockey	-11.8877
navidad	-11.8877
出	-11.8879
-32-	-11.888
pha	-11.8881
ucuz	-11.8883
mbhcxarisaiddknx	-11.8886
hora	-11.8886
メ	-11.8887
mdpi	-11.8895
csv	-11.8896
sod	-11.8897
deluxe	-11.89
spar	-11.8901
cnpj	-11.8903
nex	-11.8906
msafed	-11.8906
/2021/04/	-11.8909
highlights	-11.8911
▁2021	-11.8912
gray	-11.8913
sistem	-11.8915
hur	-11.8917
investopedia	-11.8922
username	-11.8922
pwc	-11.8924
9220&	-11.8926
فارسی	-11.8928
adgroupsurvey	-11.8931
ま	-11.8933
aluminium	-11.8933
infinity	-11.8935
pierre	-11.8936
surfaces	-11.8938
256&	-11.894
ecuador	-11.8942
emp	-11.8943
categoryno	-11.8946
ott	-11.8946
etf	-11.8948
familie	-11.8951
mbhcxarisaiddknu	-11.8952
vir	-11.8952
flower	-11.8954
jest	-11.8955
unlock	-11.8958
pli	-11.8959
greek	-11.8962
/2021/08/	-11.8963
klinik	-11.8967
sdk	-11.8967
infantil	-11.8968
82&	-11.8976
bqbh	-11.8977
stockholm	-11.8978
dfd	-11.8979
traduccion	-11.898
hana	-11.8983
uta	-11.8984
teachers	-11.8985
polski	-11.8985
hamilton	-11.8986
1%	-11.8988
ト	-11.899
uptodown	-11.8994
biblio	-11.8997
animals	-11.8998
=9044	-11.8999
expedia	-11.9004
nct	-11.9007
ד	-11.9008
assembly	-11.9008
mesa	-11.9008
inox	-11.901
mars	-11.9011
edf	-11.9011
cel	-11.9013
haz	-11.9013
scanner	-11.9013
evil	-11.9014
essentials	-11.9014
-300-	-11.9016
valor	-11.9017
ejercicios	-11.9019
officeapps	-11.9022
portals	-11.9023
salt	-11.9028
hwbf	-11.9035
lounge	-11.9036
249	-11.9038
257	-11.9041
icons	-11.9043
vez	-11.9043
skyrim	-11.9044
midia	-11.9045
luan	-11.9046
whr	-11.9048
ó	-11.9048
nes	-11.9049
byjus	-11.905
dou	-11.9052
jacket	-11.9059
mdr	-11.906
eam	-11.9061
-28-	-11.9062
macbook	-11.9063
voiture	-11.9065
rak	-11.9068
پ	-11.9069
fmkorea	-11.907
性	-11.9072
accountid	-11.9072
graphic	-11.9074
nummer	-11.9075
bow	-11.9076
nome	-11.9077
vom	-11.9079
houses	-11.908
june	-11.9082
toner	-11.9082
blanc	-11.9082
desde	-11.9084
razer	-11.9086
strategies	-11.9087
roller	-11.9087
oid	-11.909
pago	-11.9092
dsp	-11.9095
=9043	-11.9099
tahun	-11.9099
offerte	-11.9101
cruz	-11.9101
modelos	-11.9102
lefigaro	-11.9106
schutz	-11.9107
phuc	-11.911
sanook	-11.911
primer	-11.911
rok	-11.9111
trackid	-11.9112
jones	-11.9116
203	-11.9117
artykul	-11.912
relaystate	-11.9122
cronaca	-11.9123
shadow	-11.9127
=9055	-11.9127
saga	-11.913
doors	-11.913
mixer	-11.913
kam	-11.9135
bia	-11.9136
panorama	-11.9136
snap	-11.9141
hurriyet	-11.9141
عن	-11.9144
之	-11.9145
zug	-11.9146
norton	-11.9147
ج	-11.9149
103	-11.9152
jquery	-11.9153
kort	-11.9154
creator	-11.9156
matlabcentral	-11.9159
parentcategoryn	-11.9159
/2020/06/	-11.9164
recruitment	-11.9165
fax	-11.9165
wivd	-11.9165
211	-11.9168
attraction	-11.917
31&	-11.917
mbhcxarisaiddknw	-11.9173
bauhaus	-11.9175
marc	-11.9177
pais	-11.9177
sectok	-11.9178
chuc	-11.9179
ninos	-11.9181
opt	-11.9181
assistir	-11.9187
niv	-11.9188
ミ	-11.9191
universe	-11.9192
slideplayer	-11.9194
nyc	-11.9197
daten	-11.9198
manufacturing	-11.92
=906	-11.92
csn	-11.9201
ima	-11.9204
104	-11.9205
farming	-11.9205
hwbc	-11.9207
cuevana	-11.9207
mou	-11.9208
tuf	-11.9213
usage	-11.9217
srv	-11.9219
alu	-11.9219
hak	-11.9227
quran	-11.9228
crash	-11.9228
ambiente	-11.923
559	-11.923
shower	-11.9231
lyon	-11.9231
coolblue	-11.9234
за	-11.9234
eba	-11.9236
1960	-11.9238
tape	-11.9239
hope	-11.924
changing	-11.924
been	-11.9241
ג	-11.9241
ata	-11.9243
entreprises	-11.9244
از	-11.9248
spiele	-11.9251
hour	-11.9257
=102	-11.926
sofa	-11.9261
oxford	-11.9262
tiny	-11.9265
tramites	-11.9268
jon	-11.927
tailieu	-11.9275
period	-11.9276
kamera	-11.9276
/2020/09/	-11.928
學	-11.9283
entity	-11.9284
158	-11.9284
reise	-11.9285
kreis	-11.9288
heroes	-11.9288
dick	-11.929
xhpd	-11.9292
dossier	-11.9292
hydra	-11.9292
bathroom	-11.9293
collect	-11.9293
yabaaggj	-11.9294
ava	-11.9296
purchase	-11.9297
flo	-11.9298
อ	-11.9298
083	-11.9302
ota	-11.9304
israel	-11.9304
fiscal	-11.9311
보	-11.9311
114	-11.9313
phy	-11.9319
statista	-11.9319
nii	-11.932
121	-11.9321
productdetail	-11.9322
fcc	-11.9323
=0000	-11.9324
skoda	-11.9329
obra	-11.933
wish	-11.9331
googleshopp	-11.9331
definicion	-11.9332
affid	-11.9333
vice	-11.9334
zijn	-11.9337
화	-11.9338
unirioja	-11.9338
circular	-11.934
citroen	-11.934
合	-11.934
у	-11.9342
conteudo	-11.9342
rica	-11.9342
fiid	-11.9345
2022	-11.9348
examen	-11.9352
selfservice	-11.9352
really	-11.9355
johnson	-11.9355
148	-11.9356
cabinet	-11.9364
jogos	-11.9369
kita	-11.9369
worldwide	-11.937
ח	-11.9371
halloween	-11.9371
exo	-11.9372
chicago	-11.9374
hairy	-11.9375
feet	-11.9375
kpid	-11.9376
國	-11.9377
gamefaqs	-11.9377
wasser	-11.9381
artigo	-11.9382
maya	-11.9383
工	-11.9385
ige	-11.9385
470	-11.9385
lui	-11.9385
wol	-11.9386
domestic	-11.939
daughter	-11.9391
subtitle	-11.9391
الم	-11.9394
essen	-11.9394
axis	-11.9394
compra	-11.9396
casting	-11.9397
naj	-11.9398
ים	-11.9402
thema	-11.9404
sing	-11.9405
=9042	-11.9405
scripts	-11.9406
570	-11.9407
communities	-11.9407
artists	-11.9411
？	-11.9413
seed	-11.9413
heb	-11.9414
1-21&	-11.9418
wattpad	-11.9418
trovit	-11.942
msdmanuals	-11.942
tandfonline	-11.9421
reality	-11.9421
wash	-11.9423
donde	-11.9425
african	-11.9426
farmacia	-11.9427
ieee	-11.9427
成	-11.9429
lisa	-11.9435
tbl	-11.9435
positive	-11.9436
lord	-11.9439
fight	-11.9439
iptv	-11.944
porte	-11.9441
together	-11.9442
동	-11.9443
kent	-11.9444
=30	-11.9446
sind	-11.9447
hwbe	-11.945
":	-11.9454
tecno	-11.9455
国	-11.9456
dab	-11.9458
proc	-11.9459
jump	-11.9463
zar	-11.9466
faa	-11.9467
director	-11.9477
caid	-11.9479
hwbd	-11.948
bbva	-11.9481
fazer	-11.9485
documento	-11.9487
googlebrandshein	-11.9488
proyecto	-11.949
spiel	-11.9492
204	-11.9497
-2020.	-11.9497
173	-11.9498
ر	-11.95
ffxiv	-11.95
nap	-11.9504
016	-11.9504
т	-11.9505
xhpf	-11.9511
notebooks	-11.9511
arquivos	-11.9517
dol	-11.9518
oven	-11.9518
hole	-11.9519
seguros	-11.9519
equation	-11.9524
direito	-11.9524
nica	-11.9525
=768&	-11.9526
disp	-11.9526
mata	-11.9526
fap	-11.9531
/11-	-11.9532
hue	-11.9534
dialnet	-11.9535
fortnite	-11.9535
particuliers	-11.9536
ics	-11.9538
configure	-11.9538
jeep	-11.9538
flu	-11.9539
articoli	-11.954
2020-	-11.9543
ucm	-11.9548
subscription	-11.9548
wayfair	-11.9554
ط	-11.9555
norma	-11.9556
lcaaqgaqqsqmqgwe	-11.9556
goita	-11.9561
ilo	-11.9563
vinyl	-11.9567
belt	-11.9568
pkg	-11.9569
kum	-11.9569
kod	-11.957
dale	-11.9571
protected	-11.9576
pattern	-11.9576
tung	-11.9577
meg	-11.9577
charles	-11.9578
mda	-11.958
294682000766!	-11.9582
workshop	-11.9584
-419&	-11.9586
third	-11.9586
khoe	-11.9587
zubehoer	-11.9587
primaria	-11.9588
warm	-11.9588
compatible	-11.9591
650	-11.9597
369	-11.9599
canadian	-11.9603
omega	-11.9604
/2020/08/	-11.9604
completa	-11.9605
legislation	-11.9606
mehr	-11.9606
公	-11.9607
nhanh	-11.9608
-250	-11.961
itu	-11.9615
hid	-11.9616
sushi	-11.9616
sodimac	-11.9617
wax	-11.9618
northern	-11.9622
william	-11.9623
dublado	-11.9626
cps	-11.9626
pou	-11.9628
fucking	-11.9634
는	-11.9635
passport	-11.9635
wivi	-11.9636
ika	-11.9637
0-83	-11.9638
52&	-11.9642
sauce	-11.9642
aos	-11.9644
모	-11.9644
321	-11.9645
smile	-11.9647
aagbfm	-11.9649
panda	-11.9649
chon	-11.9653
regions	-11.9654
webmd	-11.9658
onedrive	-11.9658
leave	-11.966
入	-11.966
choi	-11.966
hdr	-11.9661
cruise	-11.9663
kelas	-11.9667
/100	-11.9669
theatre	-11.9669
doubtnut	-11.9671
2020.	-11.9672
fel	-11.9675
mans	-11.9675
cham	-11.9679
prevention	-11.968
sigma	-11.9683
momo	-11.9688
compliance	-11.9689
marken	-11.9692
paz	-11.9693
wivh	-11.9694
scisig	-11.9696
letters	-11.9704
nej	-11.9705
enem	-11.9707
]_	-11.971
2021&	-11.9714
mondo	-11.9722
229	-11.9726
average	-11.9727
valve	-11.9731
bou	-11.9731
rings	-11.9732
turkish	-11.9732
layer	-11.9732
replace	-11.9733
leer	-11.9738
exercises	-11.9738
sek	-11.9738
bundle	-11.9739
binance	-11.9743
-2012-	-11.9744
eaayayaaegk	-11.9746
chair	-11.9748
bachelor	-11.9748
stad	-11.9748
lov	-11.9749
santiago	-11.9754
/20-	-11.9756
kota	-11.9756
msedgntp	-11.9757
were	-11.9757
และ	-11.9758
redwap	-11.9758
xhpc	-11.9758
yellowpages	-11.9759
assistance	-11.9759
realm	-11.9764
kraft	-11.9764
association	-11.9764
slides	-11.9765
nouvelle	-11.9769
theater	-11.977
isfashion	-11.977
bord	-11.9771
084	-11.9771
solve	-11.9771
monografias	-11.9774
279	-11.9775
tun	-11.978
mira	-11.9781
zht	-11.9785
175	-11.9785
manualslib	-11.9788
emb	-11.9788
tutor	-11.979
else	-11.9791
ische	-11.9794
monotaro	-11.9796
princess	-11.9798
sustainable	-11.9799
dua	-11.98
empire	-11.9801
108	-11.9801
sich	-11.9801
ウ	-11.9802
gourmet	-11.9806
nest	-11.9807
velo	-11.9808
480	-11.9808
richard	-11.9808
nij	-11.9809
ruangguru	-11.981
mitula	-11.9811
保	-11.9812
svg	-11.9812
tou	-11.9813
heating	-11.9816
zia	-11.9817
thermal	-11.9817
mint	-11.9818
-2014-	-11.982
latex	-11.9822
saglik	-11.9822
ナ	-11.9823
revit	-11.9823
minutes	-11.9824
チ	-11.9825
manufacturer	-11.9826
detay	-11.9826
analyse	-11.9828
sil	-11.983
crazy	-11.983
cwgaeiaeeledeimb	-11.9831
sagepub	-11.9836
decision	-11.9837
lic	-11.9839
modele	-11.9841
blank	-11.9841
kami	-11.9843
=1006	-11.9844
nieuwe	-11.9844
2021/	-11.9845
hou	-11.9846
unix	-11.9846
alliance	-11.9847
873&	-11.9851
ntt	-11.9852
tenis	-11.9853
diccionario	-11.9855
weekend	-11.9856
raspberry	-11.9856
accommodation	-11.9856
gratuit	-11.9857
avenue	-11.9858
rie	-11.9859
campo	-11.986
praca	-11.9861
antes	-11.9863
segunda	-11.9866
sono	-11.9867
taste	-11.9868
blender	-11.9869
168	-11.9871
195	-11.9873
scheme	-11.9874
730	-11.9875
aim	-11.9875
adaaq	-11.9877
xhpe	-11.9879
ghi	-11.988
jou	-11.988
dmf	-11.9881
hell	-11.9881
rural	-11.9883
routes	-11.9885
oggi	-11.9885
movil	-11.9887
payments	-11.9887
به	-11.9887
transporte	-11.9888
kategorie	-11.9888
dialog	-11.9891
20&	-11.9893
vertical	-11.9894
comfort	-11.9899
phoenix	-11.9899
muy	-11.9899
）	-11.9899
biography	-11.99
others	-11.9902
cluster	-11.9904
380	-11.9904
wivc	-11.9904
化	-11.9905
ure	-11.9906
sar	-11.9909
aeb	-11.991
similar	-11.9911
buscar	-11.9918
porsche	-11.9921
tsu	-11.9922
=5331479	-11.9925
bolig	-11.9925
pearl	-11.9927
completo	-11.9931
teach	-11.9931
monthly	-11.9932
-2010-	-11.9933
146	-11.9941
zpid	-11.9943
accesorios	-11.9947
구	-11.9948
redalyc	-11.9948
astack	-11.9949
sociales	-11.995
จ	-11.9951
lao	-11.9953
=%	-11.9955
autor	-11.9956
crisis	-11.9956
能	-11.9957
163	-11.9958
cert	-11.9959
189	-11.9961
won	-11.9961
scooter	-11.9962
agriculture	-11.9962
koi	-11.9963
specialist	-11.9963
importancia	-11.9964
893	-11.9965
/2020/07/	-11.9965
lys	-11.9966
miami	-11.9966
wont	-11.9968
roboguru	-11.9971
emergency	-11.9971
masa	-11.9972
nyu	-11.9973
dash	-11.9974
xin	-11.9975
401	-11.9976
-35-	-11.9977
eaayayaaegj	-11.9979
sera	-11.9979
conta	-11.998
offres	-11.998
webcams	-11.9982
tutorialspoint	-11.9982
yle	-11.9982
eprints	-11.9983
rig	-11.9986
stm	-11.999
joint	-11.9991
fastquicksearch	-11.9992
bcc	-11.9993
dip	-11.9995
importance	-11.9995
klein	-11.9995
dutch	-11.9996
jsf	-11.9996
conv	-11.9997
monitors	-11.9998
prev	-12
sure	-12.0001
225	-12.0002
horoscope	-12.0005
momoshop	-12.0008
hung	-12.0008
professor	-12.001
relations	-12.0012
nexusmods	-12.0014
radeon	-12.0015
פ	-12.0017
hua	-12.0018
adfs	-12.0018
lookup	-12.0018
hoch	-12.0019
karriere	-12.0021
alquiler	-12.0023
maj	-12.0023
076	-12.0024
speakers	-12.0025
srsa	-12.0027
histoire	-12.0031
/2015/	-12.0035
trai	-12.0035
grant	-12.0037
timesofindia	-12.0037
chuan	-12.0041
relay	-12.005
bootstrap	-12.0055
starter	-12.0055
profesional	-12.0056
pays	-12.0056
088	-12.0058
farma	-12.006
=9056	-12.0061
voyage	-12.0062
navy	-12.0062
baa	-12.0063
biggo	-12.0065
kali	-12.0065
pst	-12.0067
-70-	-12.007
herren	-12.007
scholarr	-12.0071
く	-12.0071
bureau	-12.0071
scr	-12.0071
wii	-12.0076
going	-12.0076
898	-12.0076
gcpc	-12.0077
shirts	-12.0077
226	-12.008
hunt	-12.008
elk	-12.0082
abcabdifcaaqgaq	-12.0082
キ	-12.0083
infinite	-12.0085
き	-12.0085
ん	-12.0085
51&	-12.0087
086	-12.0088
%22	-12.0092
immobiliare	-12.0095
gorev	-12.0103
goto	-12.0103
kill	-12.0106
ار	-12.0107
xid	-12.0108
efe	-12.0109
460	-12.0109
cci	-12.0109
otc	-12.011
sakura	-12.0111
homedetails	-12.0113
bright	-12.0113
neue	-12.0114
lease	-12.0114
dove	-12.0114
rentals	-12.0115
rss	-12.0116
ums	-12.0116
560	-12.0117
yun	-12.0118
553	-12.012
cfa	-12.0122
colegio	-12.0122
candy	-12.0123
beliebtesten	-12.0124
caracteristicas	-12.0125
バ	-12.0126
puzzle	-12.0126
wald	-12.013
tiep	-12.0131
jes	-12.0132
fields	-12.0133
ojs	-12.0133
matematicas	-12.0135
alice	-12.0136
nbk	-12.0138
alan	-12.0142
動	-12.0142
header	-12.0145
modul	-12.0147
automobile	-12.0149
forex	-12.0149
cri	-12.0149
immigration	-12.015
extid	-12.015
vii	-12.0153
modal	-12.0153
=10841_	-12.0153
019	-12.0153
mien	-12.0155
reason	-12.0155
seoul	-12.0159
cause	-12.016
nhl	-12.016
430	-12.0161
216	-12.0161
spd	-12.0162
polska	-12.0165
andre	-12.0169
binary	-12.017
oda	-12.0172
mena	-12.0172
chord	-12.0175
latina	-12.0176
march	-12.0178
april	-12.0179
algorithm	-12.0179
kwgid	-12.0183
sous	-12.0184
-125	-12.0185
bolt	-12.0186
037	-12.0188
brisbane	-12.0193
grado	-12.0193
feel	-12.0194
axa	-12.0196
alcohol	-12.0197
loigiai	-12.0198
lands	-12.02
cables	-12.0201
ratio	-12.0202
rugby	-12.0204
ロ	-12.0211
ibs	-12.0213
woo	-12.0217
marina	-12.0219
]-	-12.0223
田	-12.0224
inner	-12.0226
artificial	-12.0227
た	-12.0228
作	-12.0229
plane	-12.0229
attr	-12.0229
maat	-12.0233
principal	-12.0234
beyond	-12.0235
على	-12.0236
viewdate	-12.0236
-2017	-12.0239
tuin	-12.0241
permalink	-12.0241
=1536&	-12.0243
pres	-12.0244
cic	-12.0244
statements	-12.0246
126	-12.0246
washington	-12.0247
russia	-12.0247
blegateway	-12.0249
daf	-12.025
yok	-12.025
investors	-12.0251
macys	-12.0252
dgc	-12.0253
complex	-12.0253
タ	-12.0253
punto	-12.0256
nje	-12.0259
tous	-12.0259
editorial	-12.0262
原	-12.0263
straight	-12.0264
esqod	-12.0269
014	-12.027
ground	-12.0271
argument	-12.0272
ole	-12.0273
신	-12.0273
castle	-12.0273
cuando	-12.0273
1200	-12.0273
motorola	-12.0275
mango	-12.0276
networks	-12.0277
dwg	-12.0278
1711180	-12.0278
resultados	-12.0278
merge	-12.0282
publica	-12.0287
/2020/01/	-12.0289
wirtschaft	-12.029
electronica	-12.0291
someone	-12.0291
misumi	-12.0292
274	-12.0294
vegan	-12.0299
bahn	-12.03
paso	-12.0302
concurso	-12.0303
slot	-12.0304
2015	-12.0305
emirates	-12.0306
handel	-12.0308
doctolib	-12.031
specifications	-12.0313
norte	-12.0313
137	-12.0313
enjoy	-12.0315
alimentos	-12.0316
twin	-12.0318
bangkok	-12.0319
arabia	-12.0319
kov	-12.0319
alarm	-12.032
papel	-12.0322
proof	-12.0322
reisen	-12.0327
hills	-12.0327
cute	-12.0328
zadanie	-12.0328
xlsx	-12.0328
神	-12.0329
013	-12.033
bygg	-12.033
jur	-12.0332
ecc	-12.0332
angle	-12.0332
cleaner	-12.0332
-26-	-12.0333
sonic	-12.0333
ccb	-12.0334
3-4	-12.0335
-150-	-12.0338
hvexi	-12.034
pcampaignid	-12.034
gist	-12.0341
facil	-12.0342
patients	-12.0344
ufc	-12.0346
forma	-12.0347
wing	-12.0348
های	-12.0348
gul	-12.0352
checker	-12.0352
disco	-12.0353
technique	-12.0354
motherboard	-12.0355
eaayayaaegl	-12.0356
ize	-12.0359
rust	-12.0362
lbs	-12.0363
kommune	-12.0365
empleo	-12.0366
=318615;	-12.0368
owner	-12.0369
fach	-12.0372
pull	-12.0373
expression	-12.0374
rare	-12.0375
manuel	-12.0376
colleges	-12.0376
40&	-12.0376
iya	-12.0378
cef	-12.0379
sts	-12.0379
samlrequest	-12.038
165	-12.038
workplace	-12.0381
jzq	-12.0387
358	-12.0389
nek	-12.0389
081	-12.0391
kosten	-12.0391
santos	-12.0392
lettre	-12.0392
owl	-12.0392
broadband	-12.0394
142	-12.0397
witcher	-12.0398
forward	-12.0398
instance	-12.0399
cocina	-12.0401
respuestas	-12.0402
▁on	-12.0406
ки	-12.0407
하	-12.041
behind	-12.0411
eaayayaaegi	-12.0411
milan	-12.0413
rating	-12.0415
coins	-12.0415
soru	-12.0417
162	-12.042
beneficios	-12.0424
「	-12.0425
nti	-12.0429
photography	-12.0433
ใน	-12.0433
fabric	-12.0434
biologia	-12.0435
gala	-12.0437
ohne	-12.0437
directorio	-12.0438
hau	-12.0439
interactive	-12.0439
serve	-12.0439
veja	-12.0439
jour	-12.0442
mbhciarisaddufve	-12.0442
udemyads	-12.0444
wel	-12.0447
pam	-12.0448
shares	-12.0454
youporn	-12.0458
cheat	-12.0458
nokia	-12.0459
み	-12.0459
antivirus	-12.046
196	-12.0461
burn	-12.0462
journey	-12.0464
9376527	-12.0465
cher	-12.0465
fag	-12.0467
4765445	-12.0468
57&	-12.0469
pov	-12.0471
batteries	-12.0473
revolution	-12.0474
方	-12.0474
hel	-12.0477
filmy	-12.0478
peak	-12.048
informer	-12.0481
comunidad	-12.0481
fec	-12.0483
下	-12.0484
012	-12.0485
autoscout	-12.0485
640	-12.0487
第	-12.0487
ettoday	-12.0489
wonder	-12.049
440	-12.049
سریال	-12.0492
kns	-12.0493
unidad	-12.0494
γ	-12.0494
mere	-12.0494
-1-2-	-12.0494
dae	-12.0495
ssp	-12.0496
criminal	-12.0497
officeworks	-12.05
vac	-12.0501
bars	-12.0502
operator	-12.0502
herramientas	-12.0502
950	-12.0503
principles	-12.0504
sohu	-12.0505
ของ	-12.0506
jakarta	-12.0507
2.0/	-12.0507
opti	-12.0507
calgary	-12.0513
hold	-12.0515
fecha	-12.0516
pit	-12.0516
moment	-12.0517
jung	-12.0517
transit	-12.0519
mbhciarisaddufvf	-12.0519
mbhciarisaddufvh	-12.0519
chuong	-12.052
prediction	-12.052
thoai	-12.0521
bedrijf	-12.0521
wroc	-12.0521
%8	-12.0522
bro	-12.0523
ober	-12.0523
seu	-12.0527
mju	-12.0527
officehome	-12.0528
kok	-12.0528
niz	-12.0529
xuite	-12.0529
amc	-12.0529
watt	-12.0531
是	-12.0532
0002	-12.0533
ili	-12.0536
크	-12.0537
▁software	-12.0539
trien	-12.0542
ati	-12.0545
tfg	-12.0545
rpm	-12.0545
honey	-12.0547
professionals	-12.055
seguro	-12.055
シ	-12.0552
โ	-12.0552
▁ads	-12.0555
precision	-12.0557
deloitte	-12.0557
lung	-12.0558
pedro	-12.0559
xda	-12.056
drag	-12.056
suchen	-12.0561
startseite	-12.0562
mig	-12.0564
ppy	-12.0565
082	-12.0565
304	-12.0565
prova	-12.0566
kot	-12.0568
404	-12.0568
myq	-12.0569
consejos	-12.0571
106	-12.0572
normas	-12.0572
trustpilot	-12.0574
advisor	-12.0575
ead	-12.0576
phai	-12.0576
lag	-12.0584
mtg	-12.0585
087	-12.0586
292	-12.0588
σ	-12.0588
selling	-12.059
meat	-12.0591
skole	-12.0591
cookpad	-12.0592
telegram	-12.0593
leader	-12.0594
hoat	-12.0594
光	-12.0594
공	-12.0594
tudo	-12.0598
」	-12.0599
cee	-12.06
funda	-12.06
biblia	-12.0602
209	-12.0605
mui	-12.0606
rin	-12.0607
membership	-12.0607
cambio	-12.0611
bieu	-12.0612
nous	-12.0614
kis	-12.0615
▁gratis	-12.0617
president	-12.0619
calcio	-12.0621
jag	-12.0622
和	-12.0622
celular	-12.0626
samples	-12.0635
cpn	-12.0635
defense	-12.0635
aktuelles	-12.0637
doesnt	-12.0638
switches	-12.0638
reis	-12.0639
btc	-12.064
tile	-12.0641
206	-12.0641
vacatures	-12.0643
-64-	-12.0644
kop	-12.0647
jooble	-12.0647
broker	-12.0648
dit	-12.0649
cena	-12.0649
特	-12.065
practices	-12.0652
710	-12.0654
hir	-12.0654
googleshopd	-12.0654
coupons	-12.0657
/2019/11/	-12.0658
irish	-12.0661
migration	-12.0665
benh	-12.0668
850	-12.0668
basis	-12.0668
ddm	-12.0669
mouth	-12.0671
expid	-12.0672
ridge	-12.0673
bkk	-12.0675
mbhciarisaddufvg	-12.0675
increase	-12.0679
courts	-12.0679
077	-12.0679
bass	-12.0681
096	-12.0682
zara	-12.0682
celebrities	-12.0682
海	-12.0682
santander	-12.0683
fiyatlari	-12.0685
nhi	-12.0686
revue	-12.0687
/2020	-12.0688
andhomes	-12.0689
maz	-12.0693
tbs	-12.0694
strong	-12.0694
hyprod	-12.0696
328	-12.0698
897	-12.07
fill	-12.0701
開	-12.0703
ive	-12.0704
informe	-12.0705
-2018	-12.071
vak	-12.0711
hefreedictionary	-12.0712
ske	-12.0718
oka	-12.0721
vino	-12.0721
mfa	-12.0722
234	-12.0723
ador	-12.0724
ห	-12.0725
自	-12.0726
yoo	-12.0727
filmora	-12.0728
▁t	-12.0732
williams	-12.0732
flix	-12.0734
015	-12.0735
diz	-12.0736
bba	-12.0736
challenges	-12.0737
mobility	-12.0737
lucky	-12.0739
archivo	-12.074
montreal	-12.0741
versions	-12.0746
teoria	-12.0747
ollinsdictionary	-12.075
nbr	-12.0755
redes	-12.0758
salesforce	-12.0763
once	-12.0763
부	-12.0764
▁email	-12.0764
undergraduate	-12.0764
xing	-12.0765
giant	-12.0765
burger	-12.0768
reserve	-12.0769
mzq	-12.0769
vard	-12.077
▁meet	-12.0771
б	-12.0772
corte	-12.0772
-11/	-12.0776
222	-12.0778
-01-	-12.0779
118	-12.078
ド	-12.0781
hpe	-12.0783
í	-12.0783
brazil	-12.0784
英語	-12.0784
identifier	-12.0787
spiceworks	-12.0787
fluid	-12.0788
creampie	-12.0788
221	-12.0788
noise	-12.0788
kel	-12.0795
instructions	-12.0796
mcafee	-12.0799
flowers	-12.0801
having	-12.0802
huu	-12.0802
savings	-12.0803
century	-12.0804
landingv	-12.0805
다	-12.0805
ビ	-12.0808
studios	-12.0809
219	-12.0811
esports	-12.0811
078	-12.0813
authuser	-12.0813
enciclopedia	-12.0814
wkz	-12.0815
fuji	-12.0816
bali	-12.0816
uncensored	-12.0817
reporting	-12.0821
bdc	-12.0823
ouest	-12.0823
uva	-12.0825
dlc	-12.0826
\	-12.0828
596	-12.0833
motos	-12.0837
resident	-12.0839
zim	-12.084
079	-12.0842
camara	-12.0843
lbr	-12.0846
fog	-12.0846
intra	-12.0846
501	-12.0848
ressources	-12.085
tha	-12.085
groceries	-12.0853
again	-12.0855
seal	-12.0856
sata	-12.0857
022	-12.0859
=15	-12.0859
代	-12.0859
misc	-12.0862
designs	-12.0862
eff	-12.0865
nurse	-12.0865
required	-12.0865
ody	-12.0865
reverse	-12.0865
laboral	-12.0866
gbv	-12.0868
feedid	-12.0869
polar	-12.0869
sui	-12.087
fea	-12.0872
kfc	-12.0874
uci	-12.0875
auckland	-12.0877
blanco	-12.0877
stk	-12.0878
fetch	-12.0879
مشاهدة	-12.0879
mill	-12.0879
457	-12.088
rav	-12.0881
301	-12.0882
線	-12.0882
socket	-12.0883
ella	-12.089
latitude	-12.0891
goc	-12.0894
外	-12.0895
chay	-12.0898
tul	-12.0898
kah	-12.0899
明	-12.09
draft	-12.0901
variables	-12.0902
ships	-12.0903
xmlui	-12.0903
creme	-12.0906
cuoc	-12.0907
clickserve	-12.0907
tutto	-12.0909
п	-12.091
lie	-12.091
kawa	-12.0912
bae	-12.0919
=12&	-12.092
pharm	-12.0921
!!+	-12.0923
oku	-12.0923
lec	-12.0924
rubber	-12.0926
quang	-12.0926
lowes	-12.0933
santo	-12.094
pes	-12.094
connected	-12.0941
630	-12.0942
ideapad	-12.0944
progress	-12.0946
pecas	-12.095
116	-12.0951
keo	-12.0952
gum	-12.0952
keywordid	-12.0953
515	-12.0956
aivo	-12.0957
websites	-12.0957
strip	-12.0962
viu	-12.0964
foi	-12.0965
semanticscholar	-12.0966
horn	-12.0968
agi	-12.097
eller	-12.0971
dailymail	-12.0972
tommy	-12.0973
marks	-12.0973
resorts	-12.0976
managing	-12.0976
ص	-12.0978
آ	-12.0983
inspiration	-12.0983
decreto	-12.0985
ای	-12.0985
_1=	-12.0986
verse	-12.0987
yvd	-12.099
nwell	-12.0993
ฟ	-12.0993
dienst	-12.0995
eodev	-12.0995
uje	-12.0996
cipc	-12.0997
tela	-12.0997
156	-12.1
integrated	-12.1003
direkt	-12.1005
advantages	-12.1006
978	-12.1006
perfume	-12.1009
455	-12.1009
解	-12.1009
catholic	-12.101
vegas	-12.1011
escolar	-12.1015
=21.9	-12.1016
sinonimos	-12.1017
population	-12.1017
harvard	-12.1019
actress	-12.1019
anab	-12.1022
muenchen	-12.1022
109	-12.1023
▁do	-12.1025
/2019/12/	-12.1025
packaging	-12.1026
fal	-12.1026
walking	-12.1029
perth	-12.103
ihr	-12.103
14&	-12.103
banks	-12.1031
leaf	-12.1032
dil	-12.1032
matematik	-12.1033
rlsa	-12.1035
vans	-12.1035
supap	-12.1035
540	-12.1037
290	-12.1038
ccc	-12.1039
border	-12.1039
nara	-12.1042
mma	-12.1043
laura	-12.1044
belgium	-12.1044
ard	-12.1045
meo	-12.1046
advance	-12.1046
і	-12.1046
persona	-12.1047
dota	-12.105
]_[	-12.105
digitale	-12.1051
/2020/02/	-12.1051
lawyer	-12.1052
bare	-12.1052
bmc	-12.1052
oslo	-12.1053
305	-12.1054
-400-	-12.1058
exclusive	-12.1059
previous	-12.1059
gsi	-12.106
ute	-12.1061
khai	-12.1061
vara	-12.1061
cats	-12.1062
215	-12.1065
ced	-12.1065
-220	-12.107
seks	-12.1071
度	-12.1072
/2019/10/	-12.1076
gon	-12.1077
=!3	-12.1078
compilation	-12.1079
kann	-12.1079
kos	-12.1081
bcf	-12.1081
/2022/	-12.1083
layouts	-12.1083
negocio	-12.1085
adding	-12.1087
vest	-12.1087
名	-12.1088
newsletter	-12.1088
265	-12.1091
ncert	-12.1093
coaching	-12.1094
essays	-12.1094
haar	-12.1095
う	-12.1099
vital	-12.11
inspiron	-12.11
charger	-12.1101
299	-12.1101
precio	-12.1102
ام	-12.1106
214	-12.1106
tecnico	-12.1108
centres	-12.1108
recruit	-12.1109
fucked	-12.111
strategic	-12.1111
22.563.000	-12.1111
forza	-12.1112
freedom	-12.1113
concepts	-12.1113
16&	-12.1114
legion	-12.1118
investigacion	-12.1118
permission	-12.1119
chieu	-12.1119
260	-12.112
-2-0-	-12.1121
viral	-12.1121
lub	-12.1122
wwe	-12.1123
elec	-12.1123
dose	-12.1123
platinum	-12.1126
610	-12.1126
profit	-12.1126
cfe	-12.1126
cali	-12.1129
breaking	-12.1129
render	-12.1129
comercio	-12.113
icd	-12.113
ktm	-12.1132
071	-12.1139
economictimes	-12.1139
074	-12.1143
manomano	-12.1147
headset	-12.1147
testi	-12.1149
shift	-12.1149
017	-12.115
pageid	-12.1151
qaq	-12.1151
kate	-12.1151
mtb	-12.1152
endpoint	-12.1152
291	-12.1154
107	-12.1156
mut	-12.116
heureka	-12.1161
194	-12.1161
157	-12.1163
خ	-12.1163
zap	-12.1165
340	-12.1166
nji	-12.1168
aiab	-12.1169
ndi	-12.1171
detection	-12.1171
aki	-12.1173
provincia	-12.1174
revenue	-12.1174
planner	-12.1176
ebooks	-12.1177
nhap	-12.1177
assignment	-12.1178
sentence	-12.1181
shape	-12.1182
097	-12.1184
wct	-12.1185
regione	-12.1186
newsroom	-12.1187
-65526620	-12.1188
ddd	-12.1189
dys	-12.1193
conrad	-12.1193
280	-12.1193
hiv	-12.1193
built	-12.1195
gue	-12.1197
crear	-12.12
troubleshoot	-12.1201
stereo	-12.1202
aivp	-12.1203
117	-12.1205
crew	-12.1206
pagesjaunes	-12.1211
wohnen	-12.1212
세	-12.1213
mjy	-12.1214
motorcycle	-12.1214
escuela	-12.1216
:2096/	-12.1216
dub	-12.1217
=_._	-12.1219
ett	-12.1221
力	-12.1221
iste	-12.1222
chess	-12.1222
maru	-12.1223
then	-12.1223
emma	-12.1227
effective	-12.1227
177	-12.1228
boca	-12.1229
grace	-12.1229
toilet	-12.123
138	-12.123
showing	-12.1231
energi	-12.1233
locationid	-12.1234
||&	-12.1234
dfa	-12.1235
lanka	-12.1235
325	-12.1235
meilleurs	-12.1237
merk	-12.124
spin	-12.1241
literatura	-12.1241
099	-12.1243
thermo	-12.1244
critical	-12.1245
icu	-12.1245
makes	-12.1246
ejje	-12.1247
mum	-12.125
celulares	-12.1251
mayoclinic	-12.1251
208	-12.1255
145	-12.1256
psi	-12.1257
chron	-12.1257
valencia	-12.1258
ere	-12.1259
12.31&	-12.1259
quando	-12.126
skroutz	-12.1261
bmj	-12.1261
usar	-12.1262
169	-12.1263
▁đ	-12.1265
aku	-12.1266
makeup	-12.1269
ocw	-12.1269
resolution	-12.127
issmbactive	-12.127
在	-12.1272
ddc	-12.1273
muz	-12.1273
ז	-12.1274
心	-12.1275
事	-12.1275
098	-12.1277
primera	-12.1277
=5_1&	-12.1279
grund	-12.128
informatie	-12.128
rug	-12.1282
spel	-12.1284
opportunities	-12.1285
zione	-12.1287
otk	-12.1288
esqed	-12.129
asahi	-12.1291
과	-12.1291
skola	-12.1291
providers	-12.1292
installer	-12.1292
searchresult	-12.1292
ジ	-12.1299
leads	-12.1302
powder	-12.1303
737	-12.1304
thien	-12.1304
palm	-12.1304
fca	-12.1305
tuning	-12.1306
chefkoch	-12.1307
werken	-12.1307
baixar	-12.1308
dle	-12.1308
zon	-12.1309
freepik	-12.1309
fff	-12.1309
musical	-12.131
984	-12.1312
gamma	-12.1312
upper	-12.1313
bilgisayar	-12.1316
ceb	-12.1319
ingenieria	-12.1322
petit	-12.1323
xps	-12.1325
minute	-12.1326
649	-12.1327
-250-	-12.1327
mundial	-12.1328
319	-12.1331
profi	-12.1332
اس	-12.1333
albert	-12.1333
agreement	-12.1335
atm	-12.1336
follow	-12.1342
sessionid	-12.1345
justdial	-12.1345
controle	-12.1346
smash	-12.1346
mutual	-12.1347
เ	-12.1347
bean	-12.1347
indoor	-12.1348
leagueoflegends	-12.1348
502	-12.1349
▁y	-12.135
580	-12.1351
galeri	-12.1351
eaa	-12.1352
mali	-12.1353
zentrum	-12.1353
gir	-12.1354
232	-12.1356
tau	-12.1356
abril	-12.1357
095	-12.1357
122	-12.1358
505	-12.1359
warning	-12.136
tinhte	-12.1362
gastro	-12.1363
027	-12.1364
bangalore	-12.1364
mori	-12.1364
gross	-12.1364
조	-12.1366
colors	-12.1367
among	-12.1368
313	-12.1368
mga	-12.1373
differences	-12.1376
定	-12.1377
commands	-12.1377
/2019/09/	-12.1378
197	-12.1382
starting	-12.1382
hoang	-12.1382
型	-12.1383
해	-12.1383
eagle	-12.1384
specials	-12.1385
facilities	-12.1385
nak	-12.1387
voir	-12.1388
pandora	-12.1388
xac	-12.139
proyectos	-12.139
425	-12.1392
▁test	-12.1392
nederlands	-12.1393
카	-12.1394
wardsdatascience	-12.1395
=18&	-12.1398
hospitals	-12.1398
wuy	-12.1401
uomo	-12.1401
parms	-12.1403
2021_	-12.1403
ney	-12.1404
shoe	-12.1406
equity	-12.1406
sede	-12.1407
jal	-12.1407
ら	-12.1408
aab	-12.1408
studium	-12.141
homemade	-12.1411
bilder	-12.1412
+%	-12.1415
ebc	-12.1415
livro	-12.1417
nju	-12.1417
jib	-12.1418
trim	-12.1418
ell	-12.1419
contenido	-12.142
preis	-12.1422
roof	-12.1423
kir	-12.1426
일	-12.1426
619	-12.1427
flyer	-12.1429
reuters	-12.143
religion	-12.143
stuck	-12.1431
duy	-12.1431
personality	-12.1433
hatenablog	-12.1433
679	-12.1435
133	-12.1437
sche	-12.1442
empty	-12.1443
541	-12.1443
isi	-12.1444
ete	-12.1446
rue	-12.1447
fonds	-12.1448
klm	-12.1449
-2016	-12.1454
gur	-12.1454
ruten	-12.1459
packs	-12.146
advies	-12.1461
storia	-12.1463
mdm	-12.1463
needs	-12.1464
phr	-12.1464
czech	-12.1466
pelo	-12.1471
longdo	-12.1472
communications	-12.1472
pandemic	-12.1473
chennai	-12.1473
stor	-12.1473
ón	-12.1474
swarm	-12.1474
166	-12.1475
tail	-12.1476
768	-12.1477
aak	-12.1477
fdb	-12.1477
mixed	-12.148
vers	-12.1482
studie	-12.1485
trader	-12.1486
hun	-12.1487
scholarship	-12.1491
utility	-12.1494
lbhdlarisaiprqcj	-12.1495
secondary	-12.1495
heres	-12.1495
bcb	-12.1496
ont	-12.1498
185	-12.1498
mayor	-12.1498
wivj	-12.1498
creek	-12.15
hvd	-12.1504
161	-12.1507
employees	-12.1507
noon	-12.1508
aeg	-12.1508
月	-12.1511
basket	-12.1513
amazonaws	-12.1514
featured	-12.1516
operating	-12.1517
ming	-12.1517
residence	-12.1518
lbhdlarisaiprqcl	-12.152
approach	-12.152
caf	-12.1521
001&	-12.1522
147	-12.1522
arxiv	-12.1522
dbd	-12.1524
oesterreich	-12.1524
timest	-12.1524
vila	-12.1525
ngoai	-12.1526
مع	-12.153
cells	-12.1532
downloader	-12.1532
산	-12.1533
blonde	-12.1534
dni	-12.1535
nordic	-12.1537
vectors	-12.154
pty	-12.1542
tnt	-12.1543
laboratorio	-12.1543
182	-12.1544
台	-12.1544
mrs	-12.1546
afc	-12.1546
jeg	-12.1546
212	-12.1547
supplier	-12.1547
ricerca	-12.1548
ams	-12.1548
2012	-12.1548
fallback	-12.1552
regulations	-12.1553
402	-12.1554
200-	-12.1555
dhl	-12.1561
ะ	-12.1562
weiss	-12.1562
hor	-12.1563
230&	-12.1569
clanek	-12.157
nick	-12.1571
yum	-12.1572
020	-12.1572
groupe	-12.1572
nai	-12.1573
cmu	-12.1574
ニ	-12.1574
showroom	-12.1575
byte	-12.1576
758	-12.1578
submit	-12.1579
gadgets	-12.1581
gids	-12.1581
cba	-12.1581
rouge	-12.1583
svc	-12.1584
129	-12.1584
googlesearch	-12.1584
psg	-12.1585
googleapis	-12.1586
jaar	-12.1592
aam	-12.1594
kenshoo	-12.1597
bedroom	-12.1597
governance	-12.1598
reaction	-12.1599
店	-12.16
late	-12.16
papier	-12.1603
lnkd	-12.1603
ré	-12.1604
akt	-12.1606
bone	-12.1606
looking	-12.1608
=12	-12.1609
223	-12.1609
386	-12.161
pap	-12.161
inglese	-12.161
tesco	-12.161
ndy	-12.1612
shp	-12.1613
lager	-12.1615
fba	-12.1617
学	-12.1619
obhdmarisaixllkc	-12.1619
milliyet	-12.1619
moebel	-12.1621
pax	-12.1621
toolbox	-12.1622
caravan	-12.1625
ы	-12.1625
870	-12.1626
exercices	-12.1626
viz	-12.163
yer	-12.163
spo	-12.163
vil	-12.1631
cet	-12.1631
tera	-12.1632
userfiles	-12.1637
loa	-12.1639
primo	-12.1641
genesis	-12.1642
nvd	-12.1644
fue	-12.1644
runescape	-12.1645
django	-12.1646
zak	-12.1646
414	-12.1647
kku	-12.165
mee	-12.1651
oxy	-12.1652
dames	-12.1653
/2019/03/	-12.1656
aaj	-12.1656
estudio	-12.1659
hinative	-12.166
ן	-12.1661
eia	-12.1661
lbhdlarisaiprqci	-12.1664
085	-12.1665
ethernet	-12.1666
apollo	-12.1667
ingilizce	-12.1667
dune	-12.1668
finding	-12.1668
greater	-12.1668
fleet	-12.1668
affich	-12.1669
chang	-12.1669
costco	-12.1672
우	-12.1672
swap	-12.1676
such	-12.1677
consumers	-12.1679
dartsearch	-12.1682
=20&	-12.1683
cimri	-12.1683
100-	-12.1684
maple	-12.1684
subscribe	-12.1687
mieten	-12.1687
claim	-12.1688
volt	-12.1688
mtype	-12.1689
bits	-12.169
2-0000-0	-12.1692
returns	-12.1693
=124	-12.1693
orderby	-12.1696
koh	-12.1696
ffe	-12.1697
fakta	-12.1698
124	-12.1698
089	-12.1698
vona	-12.1698
serv	-12.1698
birth	-12.1699
니	-12.17
paket	-12.17
timeline	-12.1701
obhdmarisaixllkf	-12.1701
sketchup	-12.1703
lmah	-12.1703
666&	-12.1705
379	-12.1705
-45-	-12.1706
famous	-12.1706
lbhdlarisaiprqck	-12.1706
giua	-12.1706
37&	-12.1708
hukum	-12.1708
pcode	-12.1709
kow	-12.1709
048	-12.171
hry	-12.1714
yet	-12.1716
rider	-12.1717
nudevista	-12.1717
-600	-12.1718
bam	-12.1718
coches	-12.1719
lil	-12.172
giam	-12.1723
purpose	-12.1723
183	-12.1724
monday	-12.1727
rover	-12.1729
cartoon	-12.1732
fas	-12.1732
avi	-12.1732
aires	-12.1732
303	-12.1733
guys	-12.1736
ctf	-12.1737
hoan	-12.1738
older	-12.1738
970	-12.1739
/2019/01/	-12.1739
wetransfer	-12.1739
roku	-12.174
october	-12.174
/2022-	-12.174
hbomax	-12.1741
triple	-12.1741
webmail	-12.1742
annonces	-12.1744
nyheder	-12.1745
dist	-12.1746
ubi	-12.1747
390	-12.1749
wand	-12.175
غ	-12.175
상	-12.1751
schema	-12.1751
pumps	-12.1753
installing	-12.1753
740	-12.1753
teens	-12.1754
г	-12.1754
tarjeta	-12.1755
urlaub	-12.1755
lingua	-12.1756
rankings	-12.1756
會	-12.1757
jxoc	-12.1759
mcid	-12.1759
electrique	-12.1764
edb	-12.1766
walker	-12.1766
ege	-12.1769
vancouver	-12.177
procedures	-12.1771
kyoto	-12.1771
wivk	-12.1771
mfp	-12.1771
recycling	-12.1775
competition	-12.1777
foros	-12.178
municipal	-12.1781
jazz	-12.1782
liberty	-12.1783
obhdmarisaixllke	-12.1784
neck	-12.1785
tuoi	-12.1785
426	-12.179
intent	-12.179
ethics	-12.1791
mug	-12.1791
bock	-12.1792
fussball	-12.1793
pair	-12.1796
1001	-12.1796
bsc	-12.1797
spare	-12.1797
msa	-12.1797
ซ	-12.1799
143	-12.1802
eyes	-12.1803
calidad	-12.1804
prop	-12.1805
mhlw	-12.1806
mortgage	-12.1809
-2018/	-12.181
alter	-12.1812
rang	-12.1813
rvr	-12.1815
311	-12.1817
tires	-12.182
wrong	-12.1821
obhdmarisaixllkd	-12.1823
prg	-12.1823
jas	-12.1824
recent	-12.1825
pep	-12.1825
hara	-12.1826
inline	-12.1827
bfb	-12.1827
=1010	-12.1828
-120-	-12.1829
회	-12.183
mercari	-12.1831
172	-12.1834
فر	-12.1835
baba	-12.1836
demon	-12.1838
polis	-12.1839
236	-12.1842
branco	-12.1843
transmission	-12.1845
crown	-12.1847
980	-12.1847
sigmaaldrich	-12.1847
wealth	-12.1847
skyscanner	-12.1848
brunch	-12.1849
estados	-12.185
kerja	-12.185
analog	-12.185
jewelry	-12.185
pdffiller	-12.1851
naya	-12.1853
lip	-12.1854
119	-12.1855
-419	-12.1855
05-21&	-12.1855
gamers	-12.1856
kew	-12.1857
mkv	-12.1858
ntk	-12.1859
knight	-12.1861
trees	-12.1863
digit	-12.1864
部	-12.1864
vua	-12.1869
=9062	-12.187
offerid	-12.187
frauen	-12.1874
fem	-12.1874
388	-12.1877
996	-12.1878
iga	-12.1879
apotheke	-12.1879
width	-12.1879
giay	-12.1881
ngon	-12.1882
lower	-12.1882
trabalho	-12.1882
intranet	-12.1883
luft	-12.1883
2=0&	-12.1883
amazing	-12.1884
csp	-12.1884
cual	-12.1885
·	-12.1887
husband	-12.1888
rows	-12.1889
vov	-12.1889
456	-12.189
521	-12.1892
2013	-12.1896
zol	-12.1898
tez	-12.1898
vert	-12.1899
=728&	-12.19
practical	-12.19
akku	-12.1904
cec	-12.1904
3000	-12.1905
elektronik	-12.1908
kijiji	-12.1908
abd	-12.1908
xlx	-12.1912
worlds	-12.1912
vimeo	-12.1913
npc	-12.1914
portail	-12.1917
languages	-12.1917
monkey	-12.1917
נ	-12.1918
rocket	-12.1919
多	-12.1921
aah	-12.1922
cbs	-12.1922
ook	-12.1926
styles	-12.1926
vocabulary	-12.1927
1-4	-12.1928
=127	-12.1928
marriage	-12.1928
mike	-12.1929
palace	-12.1929
integral	-12.1929
=407-132-4411&	-12.193
/2014/	-12.1931
taipei	-12.1931
hyw	-12.1932
clubs	-12.1932
beef	-12.1932
atk	-12.1938
brick	-12.1939
289	-12.194
pesquisa	-12.1941
boats	-12.1942
%253	-12.1942
passion	-12.1943
ier	-12.1946
jtm	-12.1946
eventos	-12.1947
場	-12.1947
cooling	-12.1948
pricerunner	-12.1954
forever	-12.1957
rut	-12.1957
dropbox	-12.1958
091	-12.1959
dergipark	-12.1959
nikon	-12.1959
187	-12.196
thue	-12.1961
instituto	-12.1962
pow	-12.1962
cir	-12.1962
klima	-12.1965
helpx	-12.1967
安	-12.1972
przy	-12.1973
gutefrage	-12.1973
comercial	-12.1975
bulk	-12.1975
timeout	-12.1975
sverige	-12.1978
업	-12.1982
feedback	-12.1983
jee	-12.1984
rush	-12.1986
rede	-12.1987
visualstudio	-12.1987
jane	-12.1988
steuer	-12.1992
siz	-12.1994
amo	-12.1994
categoryid	-12.1995
certified	-12.1995
napoli	-12.1996
escola	-12.1996
فیلم	-12.1996
plast	-12.1997
kvk	-12.1998
funciona	-12.1998
228	-12.1999
vej	-12.1999
showtopic	-12.2001
227	-12.2002
738	-12.2002
צ	-12.2003
eea	-12.2003
666	-12.2005
gre	-12.2007
cerca	-12.2008
voltage	-12.2009
_2=	-12.2009
eamyasaaegi	-12.2009
suisse	-12.201
ット	-12.201
073	-12.201
kyu	-12.2012
minha	-12.2012
huy	-12.2012
gros	-12.2013
ivy	-12.2013
janeiro	-12.2015
magasin	-12.2016
040	-12.2018
fbc	-12.2018
699	-12.2019
satilik	-12.202
rumah	-12.202
estilo	-12.202
midi	-12.202
444	-12.2022
islands	-12.2024
stud	-12.2025
programmer	-12.2026
=126	-12.2027
njc	-12.203
eamyasaaegk	-12.2031
pengertian	-12.2031
bold	-12.2032
akakce	-12.2034
vrt	-12.2034
melhores	-12.2035
911	-12.2036
electrolux	-12.2037
ando	-12.204
episodio	-12.2042
348	-12.2045
vlc	-12.2046
maximum	-12.2046
qaa	-12.2046
368	-12.2047
00-20&	-12.2048
cotton	-12.2049
tekst	-12.2049
ira	-12.2049
garcia	-12.205
二	-12.2054
leasing	-12.2056
few	-12.2056
pik	-12.206
loading	-12.2062
ladies	-12.2065
fibra	-12.2065
tyo	-12.2067
virgin	-12.2068
加	-12.2069
doktor	-12.207
infrastructure	-12.2071
999	-12.2072
lokal	-12.2074
magnetic	-12.2074
charging	-12.2074
odg	-12.2075
vraag	-12.2077
flora	-12.2079
anni	-12.2081
fut	-12.2081
ajax	-12.2083
デ	-12.2084
mzg	-12.2084
schul	-12.2085
prm	-12.2087
lac	-12.2087
270	-12.209
無	-12.2091
insta	-12.2091
-110	-12.2091
osa	-12.2092
ブ	-12.2095
stern	-12.2095
industria	-12.2096
hyz	-12.2098
bea	-12.2098
wivf	-12.2098
slip	-12.21
rainbow	-12.2101
mso	-12.2103
grip	-12.2105
carolina	-12.2106
hyy	-12.2108
alba	-12.2108
dublin	-12.2109
foam	-12.2109
oui	-12.211
whole	-12.211
szt	-12.2112
prensa	-12.2113
093	-12.2113
frankfurt	-12.2115
zoeken	-12.2115
/11/	-12.2116
billing	-12.2116
exterior	-12.2117
hyr	-12.2117
centros	-12.2117
prodotto	-12.2119
=11&	-12.2121
pom	-12.2122
abo	-12.2122
eamyasaaegj	-12.2123
та	-12.2124
mawdoo	-12.2124
wizard	-12.2125
yna	-12.2125
pvt	-12.2128
skip	-12.2129
ert	-12.213
statistik	-12.213
=9&	-12.213
vendre	-12.2131
natura	-12.2133
extensions	-12.2133
matic	-12.2133
164	-12.2135
kerst	-12.2135
サ	-12.2136
buz	-12.2136
tender	-12.2138
hoteles	-12.2138
thuthuat	-12.214
scheda	-12.214
treccani	-12.2142
scotland	-12.2143
mala	-12.2147
jvd	-12.2148
ين	-12.215
vax	-12.215
最	-12.215
rob	-12.2153
ф	-12.2154
mtk	-12.2155
~~	-12.2156
tbc	-12.2156
nina	-12.2157
fallout	-12.2158
crf	-12.2159
152	-12.216
853	-12.2162
722	-12.2166
webapps	-12.2167
mikro	-12.2169
catering	-12.217
tsid	-12.217
sword	-12.2171
infos	-12.2171
193	-12.2172
googleadwords	-12.2172
238	-12.2175
saving	-12.2176
mana	-12.2182
gegen	-12.2183
workers	-12.2183
durch	-12.2183
puma	-12.2184
inverter	-12.2184
academics	-12.2185
ksa	-12.2187
eko	-12.219
nodeid	-12.219
oneplus	-12.219
617	-12.219
updated	-12.219
gil	-12.2191
zei	-12.2191
miz	-12.2192
/2018/10/	-12.2192
fone	-12.2194
maken	-12.2194
telecom	-12.2194
haberler	-12.2196
luac	-12.22
coupe	-12.2202
cfb	-12.2202
laserjet	-12.2207
국	-12.2207
용	-12.2212
色	-12.2212
npm	-12.2213
compound	-12.2214
clima	-12.2216
vina	-12.2218
567	-12.2218
ntc	-12.2219
boo	-12.222
道	-12.2221
myaccount	-12.2222
txtgostdde	-12.2222
zdrowie	-12.2223
hud	-12.2224
daftar	-12.2225
officer	-12.2225
aap	-12.2227
cinemas	-12.2227
018	-12.2228
isshow	-12.2228
zeitung	-12.2229
joo	-12.223
pvd	-12.223
digikey	-12.2231
113	-12.2231
176	-12.2232
southern	-12.2232
faces	-12.2233
sarah	-12.2234
pnp	-12.2234
nja	-12.2234
ר	-12.2234
pon	-12.2235
��	-12.2235
chosun	-12.2235
aqa	-12.2236
pok	-12.2236
ون	-12.2239
radius	-12.2239
offre	-12.224
eden	-12.224
whisky	-12.2241
kxoc	-12.2241
rpp	-12.2241
asos	-12.2243
mek	-12.2243
childrens	-12.2244
339	-12.2246
mujeres	-12.2247
kut	-12.2248
henry	-12.2249
cfc	-12.2249
niki	-12.2249
通	-12.2251
nurxxx	-12.2252
klasse	-12.2254
327	-12.2254
cmt	-12.2257
367	-12.2258
fam	-12.2259
可	-12.226
jroc	-12.2261
batch	-12.2261
within	-12.2262
creed	-12.2263
lust	-12.2263
ndr	-12.2264
263	-12.2265
982	-12.2265
nis	-12.2265
dokumente	-12.2265
363	-12.2265
/2018/11/	-12.2269
ร	-12.2271
ados	-12.2271
wdg	-12.2271
torino	-12.2271
音	-12.2272
vung	-12.2273
sdn	-12.2273
rapport	-12.2273
308	-12.2274
dura	-12.2277
ور	-12.2278
thing	-12.2279
cherry	-12.2281
395	-12.2281
mzm	-12.2282
csc	-12.2285
facile	-12.2287
rama	-12.2289
nivel	-12.2289
wein	-12.229
mhy	-12.229
spi	-12.229
fbf	-12.229
lvl	-12.2291
widget	-12.2293
magnet	-12.2293
elearning	-12.2293
njq	-12.2294
19&	-12.2296
codice	-12.2296
zhi	-12.2297
solved	-12.2298
167	-12.2298
uba	-12.2301
544	-12.2301
/2019/08/	-12.2302
tone	-12.2303
eamyasaaegl	-12.2303
ratings	-12.2305
pregnancy	-12.2307
כ	-12.2308
=70	-12.2309
742	-12.231
正	-12.231
709	-12.2312
vay	-12.2312
exit	-12.2313
2010	-12.2314
bulletin	-12.2316
czesci	-12.2316
dresses	-12.2316
hog	-12.2319
deces	-12.2319
139	-12.2322
administracion	-12.2326
zzz	-12.2327
weibo	-12.2328
indicator	-12.2328
rbc	-12.2329
covers	-12.233
alternatives	-12.233
pickup	-12.233
labo	-12.2332
ffa	-12.2332
wivw	-12.2334
coder	-12.2334
া	-12.2334
francisco	-12.2334
525	-12.2336
법	-12.2337
koy	-12.2337
cnblogs	-12.2338
sten	-12.2339
ック	-12.2339
searchtext	-12.2339
nhau	-12.234
951&	-12.2341
onderwijs	-12.2342
classification	-12.2342
629	-12.2343
improve	-12.2343
387	-12.2343
clock	-12.2343
frei	-12.2343
งาน	-12.2344
rah	-12.2344
wij	-12.2345
blockpage	-12.2346
waar	-12.2348
kwrd	-12.2351
集	-12.2352
advertising	-12.2355
eating	-12.2355
summit	-12.2358
gama	-12.236
anak	-12.2361
jysk	-12.2362
classe	-12.2366
=9071	-12.2367
superior	-12.2367
378	-12.2368
pwn	-12.2368
autotrader	-12.237
queensland	-12.2372
wordwall	-12.2373
oli	-12.2374
tekno	-12.2374
processo	-12.2374
tnhh	-12.2375
039	-12.2375
dfw	-12.2377
boa	-12.2377
860	-12.2377
hxoc	-12.2377
日本	-12.2378
wpf	-12.2379
soi	-12.238
csr	-12.2381
soap	-12.2383
father	-12.2384
hya	-12.2385
272	-12.2386
gdn	-12.2387
xue	-12.2387
globalassets	-12.2388
645	-12.239
registry	-12.2393
mud	-12.2393
-31-	-12.2395
pbs	-12.2395
hammer	-12.2395
zam	-12.2395
depth	-12.2396
nitro	-12.2398
dach	-12.24
grab	-12.24
hys	-12.24
χ	-12.2401
gua	-12.2401
meetings	-12.2402
316	-12.2402
cheats	-12.2403
mara	-12.2403
gard	-12.2403
across	-12.2406
670	-12.2407
abroad	-12.2408
hen	-12.2408
beck	-12.2409
pip	-12.2411
useful	-12.2415
tcp	-12.2415
zxoc	-12.2417
higher	-12.2418
chapters	-12.2418
geschichte	-12.2419
е	-12.2421
juq	-12.2422
pine	-12.2423
355	-12.2423
แ	-12.2423
15&	-12.2425
xvd	-12.2426
vacation	-12.2426
isation	-12.2426
hyb	-12.2427
leisure	-12.2428
kil	-12.243
273	-12.243
ichi	-12.243
hout	-12.2431
表	-12.2431
656	-12.2431
npmjs	-12.2432
riu	-12.2432
lsw	-12.2432
afegj	-12.2432
kiz	-12.2433
ageverification	-12.2433
528	-12.2433
pendidikan	-12.2433
smallbusiness	-12.2435
а	-12.2436
276	-12.2436
unknown	-12.2438
302	-12.2438
explain	-12.244
nec	-12.2443
dbs	-12.2445
splash	-12.2446
cookies	-12.2446
renta	-12.2446
2351	-12.2447
fad	-12.2448
：	-12.2448
filipino	-12.2449
wmls	-12.2449
klas	-12.245
formacion	-12.2452
invalid	-12.2454
mzc	-12.2455
darty	-12.2456
노	-12.2457
cub	-12.2458
bowl	-12.2458
gub	-12.246
/2019/07/	-12.2461
rightmove	-12.2461
affinity	-12.2461
muni	-12.2461
viewkey	-12.2462
playing	-12.2465
405	-12.2468
tras	-12.2468
mao	-12.247
hyq	-12.2471
bottom	-12.2471
756	-12.2473
ord	-12.2474
jenis	-12.2474
huge	-12.2478
-480	-12.2479
makita	-12.2479
239	-12.2479
442	-12.248
nama	-12.2483
217	-12.2483
hum	-12.2484
smc	-12.2484
100.	-12.2484
parliament	-12.2485
747	-12.2485
haven	-12.2486
dublaj	-12.2488
8752&	-12.2489
loire	-12.2489
atelier	-12.2493
書	-12.2494
eme	-12.2494
bdd	-12.2495
nyj	-12.2496
amount	-12.2497
▁m	-12.2497
bilgi	-12.2497
hse	-12.25
028	-12.2501
184	-12.2502
moz	-12.2503
telefono	-12.2504
powerbi	-12.2505
701	-12.2505
aviation	-12.2506
hye	-12.2507
ा	-12.2509
boek	-12.2509
pim	-12.251
livres	-12.2512
informatique	-12.2514
theqoo	-12.2515
angebot	-12.2515
verify	-12.2516
ksu	-12.2517
alles	-12.2517
voe	-12.252
libri	-12.2521
tales	-12.2522
romania	-12.2523
231	-12.2523
oidc	-12.2524
155	-12.2525
mare	-12.2525
748	-12.2528
hei	-12.2528
irs	-12.2529
facial	-12.2529
/12/	-12.253
taxes	-12.2531
ถ	-12.2531
283	-12.2534
fcb	-12.2536
traduzione	-12.2536
francaise	-12.2536
horror	-12.2537
reach	-12.2538
eaqybcabegj	-12.254
trek	-12.254
bcd	-12.254
vungoi	-12.2541
pants	-12.2541
therapie	-12.2542
ovy	-12.2542
tomshardware	-12.2543
biomedcentral	-12.2543
/2019/05/	-12.2544
artykuly	-12.2544
hose	-12.2545
leyes	-12.2546
istcompany	-12.2546
medien	-12.2546
754	-12.2547
prevent	-12.2548
shark	-12.2548
rewards	-12.255
sont	-12.255
hood	-12.2554
030	-12.2555
620	-12.2556
austria	-12.2557
offset	-12.2558
bff	-12.2561
ctype	-12.2561
kaufland	-12.2564
authority	-12.2564
329	-12.2565
xboc	-12.2565
wixsite	-12.2566
contrato	-12.2568
フ	-12.2569
forte	-12.2569
hva	-12.2569
fold	-12.257
dggueiaeeledem	-12.2571
fef	-12.2572
gaa	-12.2575
277	-12.2575
ltda	-12.2576
handling	-12.2576
191	-12.2577
award	-12.2578
july	-12.2579
wvd	-12.258
333	-12.258
peri	-12.2581
nasa	-12.2582
responsive	-12.2583
vuc	-12.2583
▁pc	-12.2583
-101-	-12.2585
traditional	-12.2585
leaked	-12.2587
gobierno	-12.2588
-75-	-12.259
dax	-12.259
β	-12.2591
ropa	-12.2591
538	-12.2593
373&	-12.2594
julia	-12.2597
hollywood	-12.2597
895	-12.2598
026	-12.2598
nyy	-12.2599
joseph	-12.26
matters	-12.2602
metric	-12.2603
aug	-12.2604
certificado	-12.2604
holy	-12.2604
nst	-12.2605
tecnicas	-12.2606
351	-12.2606
miguel	-12.2606
veg	-12.2606
simply	-12.2609
pio	-12.261
tina	-12.2611
yumpu	-12.2611
mfg	-12.2611
eclipse	-12.2612
glosbe	-12.2612
vik	-12.2612
ibq	-12.2612
marin	-12.2613
patterns	-12.2613
887	-12.2614
editing	-12.2614
706	-12.2615
545	-12.2615
-2019.	-12.2615
038	-12.2615
iqjzihccmq	-12.2616
morning	-12.2616
syd	-12.2616
svet	-12.2617
dik	-12.2618
jura	-12.2623
svar	-12.2623
funding	-12.2623
taimienphi	-12.2625
realme	-12.2625
jer	-12.2627
minimum	-12.2629
gadget	-12.263
ndg	-12.263
ი	-12.263
vxoc	-12.2631
funeral	-12.2631
drum	-12.2631
계	-12.2634
▁10	-12.2635
factors	-12.2637
engagement	-12.2637
605&	-12.2639
klub	-12.2639
yak	-12.264
filiale	-12.2641
fon	-12.2641
strike	-12.2641
programm	-12.2642
dbt	-12.2642
everyday	-12.2643
mjq	-12.2644
astra	-12.2644
555	-12.2644
dha	-12.2645
copper	-12.2645
fce	-12.2645
nyi	-12.2646
oman	-12.2646
banca	-12.2647
kenh	-12.2649
ecole	-12.2649
telekom	-12.265
268	-12.2651
736	-12.2651
restore	-12.2652
spc	-12.2652
pmwiki	-12.2652
penal	-12.2653
plagiarism	-12.2653
ability	-12.2654
calls	-12.2654
aplicaciones	-12.2655
erkek	-12.2656
mittel	-12.2656
eaqybcabegi	-12.2656
weixin	-12.2657
341	-12.2657
034	-12.2657
shock	-12.2657
aivn	-12.2659
dtl	-12.266
jpn	-12.2663
ш	-12.2664
fundamentals	-12.2665
xllmnvbs	-12.2665
/(	-12.2666
equal	-12.2667
moo	-12.2668
/2022/01/	-12.2669
286	-12.2669
hln	-12.267
778	-12.2671
deeplink	-12.2671
apr	-12.2674
jumbo	-12.2674
flooring	-12.2675
chau	-12.2675
dirty	-12.2676
siam	-12.2678
finanzen	-12.2678
μ	-12.2678
335	-12.2678
hap	-12.2679
globe	-12.2681
jersey	-12.2682
pns	-12.2683
1100	-12.2683
nrk	-12.2687
precios	-12.2688
kxh	-12.2688
cylex	-12.2691
sut	-12.2691
novembre	-12.2691
38&	-12.2692
berry	-12.2693
超	-12.2693
248	-12.2693
eow	-12.2694
extract	-12.2695
وال	-12.2696
consider	-12.2696
=1000	-12.2699
ped	-12.2701
searchtype	-12.2701
474	-12.2702
avant	-12.2703
technopat	-12.2703
346	-12.2704
tester	-12.2705
352	-12.2706
quyen	-12.2707
prospecting	-12.2709
regulation	-12.271
pratique	-12.2711
hyt	-12.2711
publish	-12.2712
mmo	-12.2714
":["	-12.2714
clients	-12.2715
830	-12.2716
rwd	-12.2716
wok	-12.2716
044	-12.2717
pearson	-12.2718
bbm	-12.2718
boobs	-12.272
percent	-12.272
poco	-12.2721
ciclo	-12.2721
154	-12.2721
bisnis	-12.2721
steve	-12.2722
camper	-12.2722
gei	-12.2724
truth	-12.2725
jackets	-12.2725
qzg	-12.2727
actions	-12.2727
wboc	-12.2728
xxoc	-12.2729
dow	-12.2729
tti	-12.273
bdsm	-12.2731
alpes	-12.2732
parameter	-12.2732
schneider	-12.2734
cdd	-12.2739
vega	-12.274
485	-12.274
sbi	-12.2741
267	-12.2742
275	-12.2742
zig	-12.2742
organizations	-12.2743
치	-12.2743
ffb	-12.2744
afe	-12.2746
traducao	-12.2746
=15&	-12.2746
muscle	-12.2747
881	-12.2748
659	-12.2749
casio	-12.275
albums	-12.275
customs	-12.275
scroll	-12.2752
syllabus	-12.2752
riot	-12.2755
hund	-12.2755
lean	-12.2756
zroc	-12.2758
dcf	-12.2759
applied	-12.276
patents	-12.276
ศ	-12.2761
telephone	-12.2762
nikkei	-12.2764
themeid	-12.2764
alc	-12.2766
urs	-12.2766
straat	-12.2767
solidworks	-12.2767
516	-12.277
thuy	-12.277
353	-12.2771
amt	-12.2772
ricardo	-12.2772
undefined	-12.2773
mmsi	-12.2774
osi	-12.2774
frontiersin	-12.2775
vessel	-12.2776
normativa	-12.2778
npr	-12.2778
stellen	-12.2778
fae	-12.2779
vtp	-12.2779
hits	-12.278
bottle	-12.278
maroc	-12.278
844	-12.2781
ral	-12.2781
307	-12.2783
satellite	-12.2784
181	-12.2786
accuweather	-12.2787
lcl	-12.2787
qroc	-12.2791
aag	-12.2792
370	-12.2793
282	-12.2794
doing	-12.2794
bagmeae	-12.2795
터	-12.2795
commentcamarche	-12.2796
lemon	-12.2796
963	-12.2796
з	-12.2799
tei	-12.2801
ς	-12.2801
cycling	-12.2802
armor	-12.2803
kup	-12.2803
vang	-12.2803
portale	-12.2804
sapo	-12.2805
371	-12.2808
econ	-12.2808
ض	-12.2808
kiwi	-12.2809
361	-12.281
capacity	-12.2811
contre	-12.2812
ugg	-12.2812
988	-12.2812
medizin	-12.2813
こ	-12.2815
bdb	-12.2815
84&	-12.2819
fbb	-12.2819
rvd	-12.2819
cliente	-12.282
mie	-12.282
michel	-12.282
illustrator	-12.2821
314	-12.2821
konto	-12.2822
champ	-12.2823
perfil	-12.2823
jackson	-12.2824
eleconomista	-12.2824
cairn	-12.2827
hyu	-12.2828
_10_	-12.2828
agents	-12.2829
vlaanderen	-12.2829
drone	-12.2832
974	-12.2835
alm	-12.2835
728	-12.2835
イン	-12.2835
nbhcrarisacgaiqx	-12.2836
ross	-12.2836
教	-12.2837
jira	-12.2837
boxes	-12.2837
nombre	-12.2837
kingston	-12.2837
svd	-12.2838
drill	-12.2838
licence	-12.2838
citizen	-12.2839
paradise	-12.284
jalan	-12.284
ł	-12.2843
greece	-12.2843
andreas	-12.2845
marktplaats	-12.2846
566	-12.2847
takes	-12.2848
pmk	-12.2848
adm	-12.2848
atom	-12.285
▁sale	-12.285
sama	-12.2853
066	-12.2853
094	-12.2853
gri	-12.2854
kao	-12.2854
elizabeth	-12.2855
tyres	-12.2855
obituary	-12.2856
hunde	-12.2858
yue	-12.286
2011	-12.286
cnbc	-12.286
cheese	-12.2862
checklist	-12.2864
poke	-12.2865
subcategory	-12.2867
419	-12.2868
ecco	-12.2868
617&	-12.2869
322	-12.287
ни	-12.287
generate	-12.2871
715	-12.2872
anexo	-12.2872
tir	-12.2875
extended	-12.2875
uxoc	-12.2877
opp	-12.2877
ά	-12.2877
ę	-12.2877
plumbing	-12.2878
tut	-12.2879
maar	-12.2881
famille	-12.2882
jai	-12.2882
determine	-12.2882
emu	-12.2883
iwl	-12.2884
lewis	-12.2884
973	-12.2885
tyre	-12.2885
chez	-12.2885
213	-12.2885
dnd	-12.2886
wtf	-12.2886
bfe	-12.2887
mjk	-12.2887
wivl	-12.2887
207	-12.2887
й	-12.2888
alexander	-12.2888
13&	-12.289
actividades	-12.289
libraries	-12.2891
textbook	-12.2892
ending	-12.2893
cls	-12.2893
onsem	-12.2893
542	-12.2894
odd	-12.2895
по	-12.2896
infra	-12.2896
friendly	-12.2898
zem	-12.2903
eks	-12.2904
/2019/02/	-12.2906
degrees	-12.2909
compte	-12.291
aircraft	-12.291
poder	-12.291
xts	-12.2911
olm	-12.2912
ذ	-12.2912
because	-12.2913
andrea	-12.2913
jcr	-12.2913
bros	-12.2914
gti	-12.2915
920	-12.2915
quyet	-12.2915
287	-12.2917
=8&	-12.2917
saramin	-12.2918
zan	-12.2918
modulo	-12.2919
pneus	-12.292
fxoc	-12.2922
mvd	-12.2923
rick	-12.2924
businesses	-12.2926
spf	-12.2927
–	-12.2927
acion	-12.2927
chelsea	-12.2929
doll	-12.293
136	-12.293
popularposts	-12.2932
315	-12.2935
bern	-12.2935
917	-12.2935
buc	-12.2936
commission	-12.2938
advent	-12.2938
vboc	-12.2938
cff	-12.2939
jwq	-12.294
パ	-12.2941
retirement	-12.2941
φ	-12.2941
docu	-12.2941
mzk	-12.2943
direction	-12.2943
cola	-12.2944
proceso	-12.2946
crunchyroll	-12.2948
handy	-12.2948
vvd	-12.2949
nasional	-12.2951
unidades	-12.2952
=71	-12.2952
jia	-12.2953
aktien	-12.2953
personen	-12.2954
899	-12.2954
ไทย	-12.2956
λ	-12.2957
wonen	-12.2959
vragen	-12.2959
lgw	-12.2962
=1011	-12.2962
時	-12.2963
gris	-12.2964
phys	-12.2964
capture	-12.2964
kleding	-12.2964
stu	-12.2966
nyt	-12.2967
closed	-12.297
andrew	-12.2971
aboutyou	-12.2972
odi	-12.2972
galeria	-12.2972
customers	-12.2973
notas	-12.2974
eria	-12.2974
002&	-12.2974
++	-12.2976
fcf	-12.2977
660	-12.2977
072	-12.2978
王	-12.2979
者	-12.2979
nei	-12.2979
ius	-12.2981
zwq	-12.2982
wpk	-12.2982
dawn	-12.2983
2014	-12.2984
idcampanha	-12.2985
comunicacion	-12.2985
terre	-12.2985
whirlpool	-12.2985
heaven	-12.2986
ω	-12.2986
erotic	-12.2987
subformato	-12.299
prog	-12.2991
industrie	-12.2991
705	-12.2991
prive	-12.2992
132	-12.2994
▁pro	-12.2994
marriott	-12.2995
wordhippo	-12.2995
gestao	-12.2996
ipv	-12.2997
emplois	-12.2998
concert	-12.2998
ndl	-12.2999
smartwatch	-12.2999
무	-12.3001
mongodb	-12.3008
ntg	-12.3009
lyn	-12.3009
/10.1186/	-12.301
8-21&	-12.3011
sofia	-12.3012
priser	-12.3012
261	-12.3013
silva	-12.3015
simulation	-12.3017
placa	-12.3017
quem	-12.3017
marcas	-12.3019
dwaaqbaj	-12.302
libero	-12.3021
builders	-12.3025
ט	-12.3025
qxoc	-12.3026
calculators	-12.3029
gdp	-12.3029
kost	-12.303
stem	-12.3031
2020&	-12.3032
▁word	-12.3032
=5649908	-12.3034
ish	-12.3034
wpcid	-12.3035
wallpapers	-12.3035
icaaqgaqqsqm	-12.3038
875	-12.3038
831	-12.3038
α	-12.3038
institut	-12.3039
sym	-12.3039
ccm	-12.304
manila	-12.3041
nero	-12.3041
edc	-12.3042
543	-12.3042
postal	-12.3044
867	-12.3045
731	-12.3046
506	-12.3046
brake	-12.3047
zte	-12.3047
spiegel	-12.3049
caixa	-12.305
wive	-12.3051
matter	-12.3052
jio	-12.3054
qgaq	-12.3056
xroc	-12.3057
saas	-12.3057
hilton	-12.3058
bbf	-12.306
tbm	-12.306
odm	-12.3061
planes	-12.3062
karte	-12.3065
families	-12.3065
jobstreet	-12.3067
bfc	-12.3068
filmi	-12.3068
isk	-12.3068
frost	-12.3069
159	-12.3069
wsj	-12.3069
ير	-12.3069
behavior	-12.3071
تر	-12.3073
uji	-12.3074
prov	-12.3074
kzs	-12.3076
hui	-12.3077
jobb	-12.3077
lfd	-12.3079
pere	-12.3079
309	-12.3079
318	-12.3081
好	-12.3082
xdq	-12.3083
something	-12.3085
ancestry	-12.3085
preparation	-12.3085
wxoc	-12.3085
mdg	-12.3089
curve	-12.309
zpd	-12.3091
arrow	-12.3091
numeros	-12.3091
mjg	-12.3094
hands	-12.3095
syo	-12.3096
не	-12.3096
利	-12.3098
zdf	-12.3098
568	-12.3098
consultant	-12.3099
scm	-12.31
8-4	-12.3101
284	-12.3101
383	-12.3102
609	-12.3104
survival	-12.3104
employer	-12.3106
istbi	-12.3107
aea	-12.3107
840	-12.3108
offices	-12.3108
ncr	-12.3108
clothes	-12.3109
ם	-12.311
aao	-12.311
237	-12.311
notification	-12.3111
964	-12.3111
775	-12.3111
518	-12.3111
relation	-12.3112
zaman	-12.3113
ghe	-12.3113
269	-12.3114
046	-12.3115
osm	-12.3115
ryan	-12.3115
花	-12.3117
weer	-12.3117
ール	-12.3118
ucr	-12.3118
psn	-12.3119
dum	-12.312
raum	-12.312
melhor	-12.3121
wick	-12.3122
magyar	-12.3122
615	-12.3122
962	-12.3122
wohnung	-12.3123
nim	-12.3123
/10/	-12.3124
parker	-12.3126
233	-12.3127
corriere	-12.3128
ebb	-12.3128
nmah	-12.3128
mzy	-12.3129
士	-12.313
790	-12.3131
wvw	-12.3132
=125	-12.3132
長	-12.3133
seminar	-12.3133
validation	-12.3134
998	-12.3136
686	-12.3138
sociale	-12.3139
pvp	-12.3139
aas	-12.314
contenidos	-12.3141
posta	-12.3143
sweden	-12.3145
ч	-12.3147
dart	-12.3147
ulm	-12.3148
portuguese	-12.3148
honor	-12.315
049	-12.3151
628	-12.3152
036	-12.3154
brothers	-12.3155
definitions	-12.3155
problema	-12.3156
juu	-12.3157
pxoc	-12.3158
customid	-12.3158
/2019/04/	-12.3158
august	-12.3162
batterie	-12.3162
september	-12.3162
338	-12.3164
fir	-12.3164
tje	-12.3165
主	-12.3166
haut	-12.3166
788	-12.3166
482	-12.3168
sfdc	-12.3169
kelly	-12.317
fait	-12.317
maa	-12.3171
lunch	-12.3172
transparent	-12.3174
bvd	-12.3175
ffc	-12.3176
qvd	-12.3176
cim	-12.3176
wot	-12.3177
/2019/06/	-12.3177
symbols	-12.3178
abf	-12.3178
あ	-12.3179
447	-12.3179
qboc	-12.318
linda	-12.3182
路	-12.3182
karl	-12.3182
gxoc	-12.3184
cbf	-12.3184
apres	-12.3184
403	-12.3186
551	-12.3186
hcl	-12.3187
▁h	-12.3187
khoan	-12.3192
=129	-12.3193
wcs	-12.3194
504	-12.3194
skipapp	-12.3194
giang	-12.3195
toshiba	-12.3195
bread	-12.3197
yam	-12.3197
pune	-12.3197
proff	-12.3197
zmq	-12.3198
astrology	-12.3199
2008	-12.32
cosmetics	-12.3201
384	-12.3201
cari	-12.3202
xet	-12.3202
locphy	-12.3204
680	-12.3204
folk	-12.3204
bxoc	-12.3207
rocks	-12.3207
vroc	-12.3208
527	-12.3208
chaturbate	-12.3208
lje	-12.3208
aai	-12.3212
mtq	-12.3212
mggiabcabbcxazi	-12.3212
hroc	-12.3213
atencion	-12.3213
09&	-12.3213
railway	-12.3218
vim	-12.3219
timer	-12.3219
ranger	-12.3219
assist	-12.322
372	-12.3221
iai	-12.3222
materiales	-12.3222
944	-12.3223
jewellery	-12.3225
privatkunden	-12.3225
kvd	-12.3225
awareness	-12.3226
2%	-12.3227
pris	-12.3228
quo	-12.3229
called	-12.323
structures	-12.3233
virginia	-12.3236
sneakers	-12.3237
unlimited	-12.3239
holder	-12.324
789	-12.324
sierra	-12.3241
rts	-12.3242
023	-12.3242
temple	-12.3244
pela	-12.3245
021	-12.3246
092	-12.3248
mcu	-12.3248
tale	-12.3249
-65-	-12.3249
171	-12.325
thinking	-12.3251
cidade	-12.3252
ecb	-12.3253
baf	-12.3253
especial	-12.3254
grandes	-12.3258
natale	-12.3259
729	-12.326
9%84%	-12.326
writer	-12.3262
nts	-12.3263
-404	-12.3264
tpl	-12.3265
ctx	-12.3265
-360-	-12.3265
igg	-12.3265
viajes	-12.3266
-2011-	-12.3267
mbc	-12.3269
upd	-12.327
species	-12.327
oferty	-12.3271
گ	-12.3272
=1010746	-12.3273
=152	-12.3273
facility	-12.3274
grants	-12.3275
cuong	-12.3277
mbm	-12.3279
cem	-12.3279
baden	-12.3279
zwn	-12.328
375	-12.3281
nad	-12.3282
msclkid	-12.3287
bfa	-12.3288
uebersicht	-12.3288
drawing	-12.3288
nigeria	-12.3289
laboratory	-12.329
218	-12.329
evg	-12.3291
yhs	-12.3293
formations	-12.3293
uvd	-12.3294
zet	-12.3295
onder	-12.3295
commons	-12.3295
/10.1007/	-12.3295
dataset	-12.3296
-29-	-12.3296
ž	-12.3297
636	-12.3298
π	-12.33
ガ	-12.33
151	-12.33
vendor	-12.3306
soup	-12.3306
ire	-12.3307
2!1	-12.3307
618	-12.3308
-2000-	-12.3308
987	-12.3311
flg	-12.3311
informationen	-12.3311
fei	-12.3311
chase	-12.3311
面	-12.3313
mjc	-12.3314
15871/	-12.3316
eaqybcabegk	-12.3318
mts	-12.3319
511	-12.3319
359	-12.3319
sung	-12.3319
lanh	-12.3321
lagu	-12.3321
avg	-12.3322
xxi	-12.3322
coursera	-12.3323
election	-12.3323
uses	-12.3323
corsair	-12.3324
ema	-12.3325
articolo	-12.3327
534	-12.3329
345	-12.3329
faf	-12.3329
beam	-12.333
064	-12.333
afa	-12.333
422	-12.333
cdb	-12.3331
transaction	-12.3332
平	-12.3333
mfc	-12.3333
hyderabad	-12.3334
gangbang	-12.3334
eqid	-12.3335
wivy	-12.3336
stations	-12.3337
eeb	-12.3338
458	-12.3338
allen	-12.3339
educational	-12.334
xoa	-12.3341
rund	-12.3342
guo	-12.3343
dice	-12.3343
searchword	-12.3344
366	-12.3344
ned	-12.3345
mfd	-12.3345
viking	-12.3347
rfd	-12.3348
lisboa	-12.3348
criteria	-12.3348
taj	-12.3349
robo	-12.335
lev	-12.3351
zna	-12.3352
경	-12.3352
liz	-12.3352
eaqybcabegl	-12.3355
detik	-12.3355
spectrum	-12.3356
otg	-12.3359
955	-12.336
suspension	-12.336
rong	-12.3361
listen	-12.3362
makemytrip	-12.3362
498	-12.3363
035	-12.3364
nxoc	-12.3364
activation	-12.3364
juri	-12.3367
bash	-12.3369
outside	-12.337
tutoriales	-12.337
loader	-12.3371
qiu	-12.3372
kanal	-12.3372
langid	-12.3372
labour	-12.3373
braun	-12.3373
cfq	-12.3373
edd	-12.3375
=1031	-12.3376
nir	-12.3376
024	-12.3377
celeb	-12.3377
ryu	-12.3378
zfd	-12.338
butter	-12.3382
visitor	-12.3384
zakon	-12.3385
finger	-12.3385
digest	-12.3385
linh	-12.3385
zjq	-12.3386
kboc	-12.3387
604	-12.3387
%22%3	-12.3388
subaru	-12.3391
cvd	-12.3392
otros	-12.3392
bhd	-12.3394
livros	-12.3396
warszawa	-12.3396
학	-12.3397
975	-12.3398
nps	-12.3402
extendoffice	-12.3403
wctx	-12.3404
lodge	-12.3407
ntv	-12.3407
devops	-12.3408
birds	-12.341
프	-12.3411
thieu	-12.3412
reclameaqui	-12.3412
ksp	-12.3412
362	-12.3413
dtp	-12.3413
312	-12.3414
geografia	-12.3414
zos	-12.3415
ssa	-12.3416
584	-12.3418
wtrealm	-12.3418
miles	-12.3418
tableau	-12.3418
atlassian	-12.3422
616	-12.3423
agence	-12.3425
rij	-12.3425
rios	-12.3426
prt	-12.3426
diploma	-12.3426
emoji	-12.3428
innen	-12.3428
ancient	-12.3428
washing	-12.3429
schuhe	-12.3429
aal	-12.343
561	-12.343
qiita	-12.3432
=2021	-12.3432
245	-12.3433
bartleby	-12.3433
406	-12.3434
angeles	-12.3434
poz	-12.3436
dcb	-12.3438
both	-12.344
construccion	-12.3442
985	-12.3443
costs	-12.3443
_01_	-12.3443
192	-12.3445
battlefield	-12.3447
kip	-12.3448
matematika	-12.3448
bboc	-12.3449
firebase	-12.345
ugm	-12.345
285	-12.3451
anniversary	-12.3452
aec	-12.3452
psycho	-12.3453
863	-12.3453
political	-12.3454
342	-12.3454
bic	-12.3456
mdl	-12.3457
zou	-12.3459
blowjob	-12.3459
050	-12.346
danawa	-12.346
trovaprezzi	-12.3462
fibre	-12.3463
669	-12.3466
systeme	-12.3467
mdc	-12.3468
ivd	-12.3468
lcc	-12.3469
screenrant	-12.3469
trio	-12.3469
eaqyasabegi	-12.347
757	-12.3471
analyst	-12.3472
wivs	-12.3472
membuat	-12.3472
techcommunity	-12.3477
=16&	-12.3477
ccf	-12.3478
secrets	-12.3478
も	-12.3479
subjects	-12.348
rkl	-12.3481
fol	-12.3481
bce	-12.3481
838	-12.3481
nou	-12.3482
fos	-12.3482
真	-12.3482
vig	-12.3483
lava	-12.3484
baseball	-12.3485
airpods	-12.3486
ผ	-12.3486
445	-12.3487
317	-12.3487
amento	-12.3488
wig	-12.3489
beginner	-12.3492
白	-12.3492
yhoc	-12.3493
796	-12.3494
hook	-12.3495
rakyat	-12.3495
詞典	-12.3496
instrument	-12.3497
runner	-12.3497
nfd	-12.3497
dora	-12.3498
fboc	-12.3499
takealot	-12.3499
kredit	-12.35
585	-12.35
bnn	-12.3501
localhost	-12.3502
ybqgaeiaemgui	-12.3502
twinkl	-12.3503
/2018/08/	-12.3503
149	-12.3503
dokumen	-12.3505
tfd	-12.3508
owners	-12.3509
scp	-12.3513
aktualnosci	-12.3514
orden	-12.3515
:"	-12.3516
mots	-12.3516
486	-12.3518
dé	-12.3519
846	-12.3521
otq	-12.3522
セ	-12.3523
ndtv	-12.3524
421	-12.3524
要	-12.3526
agora	-12.3526
tku	-12.3526
ipa	-12.3526
drives	-12.3527
880	-12.3528
965	-12.3528
hyo	-12.3532
dollar	-12.3532
sitio	-12.3532
filedetails	-12.3533
syu	-12.3533
xpy	-12.3534
toolid	-12.3534
yaz	-12.3535
tarot	-12.3536
ート	-12.3536
picks	-12.3539
452	-12.354
ão	-12.354
523	-12.3546
puo	-12.3546
etre	-12.3546
rez	-12.3548
/2017/10/	-12.3549
"}	-12.355
sss	-12.355
strength	-12.355
rys	-12.3551
directhit	-12.3552
mobiles	-12.3552
descargas	-12.3552
/2018/03/	-12.3552
xocx	-12.3552
irp	-12.3554
ricette	-12.3555
zdq	-12.3555
yas	-12.3556
817	-12.3556
lingerie	-12.3556
pode	-12.3557
eaqyasabegk	-12.3558
南	-12.356
olive	-12.356
__._&	-12.3563
178	-12.3565
xia	-12.3566
991	-12.3566
749	-12.3566
hornbach	-12.3567
techradar	-12.3569
cse	-12.357
torrents	-12.357
petite	-12.3571
575	-12.3571
295	-12.3571
vari	-12.3572
00001	-12.3573
puu	-12.3573
bpp	-12.3576
buecher	-12.3576
teste	-12.358
jogo	-12.3581
1"]}}}&	-12.3583
accept	-12.3583
roles	-12.3583
344	-12.3584
587	-12.3585
boston	-12.3588
scores	-12.3591
eaqyasabegl	-12.3591
wwf	-12.3591
zdg	-12.3591
fbid	-12.3592
/2017/11/	-12.3593
kfd	-12.3593
364	-12.3594
546	-12.3594
ไ	-12.3594
salvador	-12.3595
feld	-12.3595
zelf	-12.3595
measure	-12.3596
diagnostic	-12.3597
taking	-12.3598
tradingview	-12.3598
ihg	-12.3598
cpid	-12.3598
548	-12.3601
agd	-12.3602
sabah	-12.3604
viewcontent	-12.3605
lls	-12.3609
389	-12.361
sensors	-12.3613
quelle	-12.3614
vyq	-12.3614
smu	-12.3618
worker	-12.3618
752	-12.3618
tft	-12.3619
374	-12.3619
wfd	-12.362
ncc	-12.3622
skins	-12.3622
れ	-12.3622
yboc	-12.3623
mapping	-12.3625
securite	-12.3628
zvd	-12.3629
262	-12.363
문	-12.3631
verein	-12.3632
zie	-12.3632
yuu	-12.3633
afid	-12.3634
588	-12.3635
einer	-12.3635
=220	-12.3635
anatomy	-12.3636
606	-12.3636
kerala	-12.3637
tte	-12.3639
612	-12.364
nouveau	-12.364
baru	-12.3641
istitem	-12.3641
口	-12.3641
요	-12.3641
/2018/12/	-12.3642
noor	-12.3643
nea	-12.3643
nbhcrarisacgaiqv	-12.3643
buku	-12.3644
connector	-12.3644
wiva	-12.3645
niu	-12.3646
mtu	-12.3647
hboc	-12.3651
horizontal	-12.3653
defence	-12.3653
471	-12.3655
lazi	-12.3655
buu	-12.3656
jurisprudencia	-12.3658
708	-12.3659
stc	-12.366
oam	-12.366
empleos	-12.3661
食	-12.3661
casasbahia	-12.3662
780	-12.3663
š	-12.3665
jyu	-12.3665
machinery	-12.3666
ppd	-12.3667
sue	-12.3668
mineral	-12.367
р	-12.3672
airline	-12.3673
244	-12.3673
prezzo	-12.3674
blackfriday	-12.3674
eab	-12.3675
hotmail	-12.3678
西	-12.3679
▁l	-12.3679
kli	-12.3679
266	-12.3681
benefit	-12.3682
particulier	-12.3685
ems	-12.3685
sarthaks	-12.3686
pret	-12.3686
lider	-12.3687
njk	-12.3687
matome	-12.3688
subito	-12.3688
pons	-12.369
け	-12.3692
synology	-12.3692
67&	-12.3693
▁drive	-12.3693
edmonton	-12.3695
imi	-12.3696
moovitapp	-12.3696
ю	-12.3696
vera	-12.3698
디	-12.3699
rescue	-12.3699
vul	-12.37
635	-12.37
plano	-12.3702
measurement	-12.3703
rcc	-12.3703
somos	-12.3704
805	-12.3706
fbd	-12.3706
gep	-12.3707
plex	-12.3707
cryptocurrency	-12.3708
buildings	-12.3708
probleme	-12.3708
rtv	-12.371
mora	-12.3711
umi	-12.3712
quad	-12.3712
fiverr	-12.3714
jmah	-12.3714
shooting	-12.3715
speaking	-12.3715
verwaltung	-12.3715
ieeexplore	-12.3717
dock	-12.3717
mzi	-12.3717
=14	-12.3718
578	-12.3719
xii	-12.3719
코	-12.372
guatemala	-12.372
sya	-12.372
ndq	-12.3721
hfd	-12.3722
39&	-12.3722
865	-12.3722
ufd	-12.3723
developing	-12.3724
ntz	-12.3724
356	-12.3726
exc	-12.3726
080	-12.3726
350203_201035020	-12.3727
ward	-12.3727
quel	-12.3727
ului	-12.3728
η	-12.3729
���	-12.3729
sent	-12.3729
884	-12.373
334	-12.3733
soluciones	-12.3733
17&	-12.3733
cpf	-12.3734
disadvantages	-12.3734
mdy	-12.3735
yify	-12.3736
tcl	-12.3737
lci	-12.3738
eigen	-12.3739
imh	-12.374
347	-12.374
manufacturers	-12.374
transportation	-12.3741
tpm	-12.3741
wird	-12.3741
prom	-12.3742
zdy	-12.3744
696	-12.3744
foo	-12.3746
morgan	-12.3747
スト	-12.3747
712	-12.3748
accident	-12.3749
357	-12.375
562	-12.3755
pul	-12.3756
für	-12.3757
trap	-12.3758
carousell	-12.3759
suomi	-12.3759
unsere	-12.3761
memorial	-12.3762
nah	-12.3763
/10.3389/	-12.3765
935	-12.3765
stanford	-12.3765
servis	-12.3765
caja	-12.3767
optical	-12.3768
svt	-12.3769
trabajos	-12.3769
kadin	-12.3769
tony	-12.3772
mister	-12.3773
テ	-12.3773
bose	-12.3774
/2018/01/	-12.3775
mina	-12.3775
bocx	-12.3776
ntm	-12.3776
577	-12.3777
singer	-12.3779
vvs	-12.3779
626	-12.3779
senza	-12.378
és	-12.378
دی	-12.378
30&	-12.3782
contracts	-12.3782
mez	-12.3783
ncl	-12.3784
crt	-12.3785
kva	-12.3786
bcn	-12.3788
cue	-12.379
4000	-12.3791
sauna	-12.3791
adelaide	-12.3792
▁del	-12.3792
clicks	-12.3792
zfp	-12.3794
360&	-12.3795
heater	-12.3796
278	-12.3798
wilson	-12.3799
poker	-12.3799
oty	-12.3799
txoc	-12.3799
soundcloud	-12.38
nix	-12.38
peer	-12.38
_5_	-12.3801
mediaexpert	-12.3801
potential	-12.3804
690	-12.3804
fri	-12.3805
jfd	-12.3806
417	-12.3806
postgresql	-12.3806
kep	-12.3807
565	-12.3807
xiao	-12.3807
barra	-12.3808
997	-12.3809
holding	-12.3809
bubble	-12.3809
mta	-12.381
nbhcrarisacgaiqu	-12.3811
receita	-12.3813
showbiz	-12.3814
%9	-12.3814
fcd	-12.3816
curr	-12.3817
モ	-12.3818
thao	-12.3818
helpdesk	-12.3818
์	-12.382
gpla	-12.382
beim	-12.3821
fran	-12.3821
nganh	-12.3823
zoe	-12.3823
防	-12.3823
안	-12.3823
ilk	-12.3824
nez	-12.3826
leak	-12.3826
georgia	-12.3827
sieu	-12.3827
nuovo	-12.3828
niem	-12.3828
dome	-12.383
voo	-12.3831
zomato	-12.3831
logon	-12.3834
871	-12.3835
refresh	-12.3835
njy	-12.3838
966	-12.3838
836	-12.3838
9%	-12.3838
beratung	-12.3839
owo	-12.384
educa	-12.3841
bui	-12.3842
605	-12.3843
dda	-12.3844
8000	-12.3846
cvs	-12.3848
ary	-12.385
5000	-12.3851
507	-12.3852
affairs	-12.3852
910	-12.3854
universities	-12.3854
kard	-12.3857
레	-12.3859
_2021	-12.3859
dian	-12.3859
eaqyasabegj	-12.386
489	-12.3861
nroc	-12.3862
lernen	-12.3863
invoice	-12.3863
uboc	-12.3863
744	-12.3863
loft	-12.3864
keuken	-12.3865
avoid	-12.3866
wzx	-12.3868
ymq	-12.3871
guerra	-12.3874
cita	-12.3874
suit	-12.3876
arcgis	-12.3876
aura	-12.3877
jhoc	-12.3877
timber	-12.3879
corsi	-12.388
50&	-12.388
fiyati	-12.3881
oud	-12.3882
carro	-12.3883
623	-12.3883
adset	-12.3885
glen	-12.3886
cce	-12.3888
495	-12.3888
967	-12.3889
lithium	-12.3889
tenorshare	-12.389
wivr	-12.389
falls	-12.3891
yzy	-12.3891
datetime	-12.3891
746	-12.3893
509	-12.3893
develop	-12.3893
stx	-12.3894
354	-12.3895
acceso	-12.3897
bazar	-12.3898
-2000	-12.3901
firewall	-12.3901
wired	-12.3902
vfd	-12.3902
conseil	-12.3902
daddy	-12.3903
dorf	-12.3903
npd	-12.3905
supreme	-12.3906
finanzas	-12.3906
sak	-12.3906
authorization	-12.3907
aae	-12.3908
590	-12.3909
397	-12.391
إ	-12.391
684	-12.3911
reduce	-12.3913
scratch	-12.3917
labels	-12.3917
yroc	-12.3917
gcp	-12.3919
631	-12.3919
956	-12.3921
yzq	-12.3924
aav	-12.3926
xiv	-12.3927
877	-12.3928
pont	-12.3928
consult	-12.3929
trigger	-12.393
dfb	-12.393
382	-12.3931
arbeit	-12.3931
months	-12.3931
mento	-12.3933
accu	-12.3933
517	-12.3936
actual	-12.3937
userreviews	-12.3937
brasilescola	-12.3939
luv	-12.3939
▁management	-12.3939
pneu	-12.394
soon	-12.3942
quantum	-12.3943
/2018/05/	-12.3943
pornpics	-12.3944
blk	-12.3945
hyx	-12.3945
sik	-12.3945
tig	-12.3946
funny	-12.3946
503	-12.3949
quantrimang	-12.3949
levels	-12.395
jtg	-12.3951
roo	-12.3952
vault	-12.3953
estudios	-12.3953
minister	-12.3955
vui	-12.3955
lxoc	-12.3955
sevilla	-12.3955
pixma	-12.3957
033	-12.3957
326	-12.3958
377	-12.3958
396	-12.3958
kisti	-12.3961
upc	-12.3961
yong	-12.3961
sunday	-12.3961
tpd	-12.3963
slave	-12.3963
eae	-12.3966
381	-12.3966
pmp	-12.3967
hmw	-12.3967
แบบ	-12.3968
kroc	-12.3968
2020/	-12.3969
christ	-12.397
841	-12.397
323	-12.397
khz	-12.3971
293	-12.3971
yapi	-12.3971
transformation	-12.3971
strand	-12.3972
立	-12.3973
riz	-12.3974
negative	-12.3974
639	-12.3975
programma	-12.3976
yourdictionary	-12.3977
giu	-12.3978
initial	-12.3979
sole	-12.3979
dana	-12.398
afb	-12.398
與	-12.3981
purple	-12.3981
boden	-12.3981
inbox	-12.3983
recover	-12.3984
bageeae	-12.3984
2-4	-12.3987
investments	-12.3988
trying	-12.399
977	-12.399
politique	-12.3991
hani	-12.3991
fragen	-12.3991
doctoralia	-12.3992
806	-12.3992
saiba	-12.3993
296	-12.3996
空	-12.3998
azione	-12.3998
avm	-12.3999
068	-12.3999
lda	-12.4
moa	-12.4
liter	-12.4001
diseno	-12.4006
cuanto	-12.4008
dreams	-12.4011
telefonu	-12.4012
zky	-12.4013
civ	-12.4016
qzy	-12.4016
emergencies	-12.4016
739	-12.4017
blockchain	-12.4017
emdtl	-12.4021
hyv	-12.4024
uploaded	-12.4025
719	-12.4026
cura	-12.4026
ooo	-12.4026
246	-12.4027
soo	-12.4027
ortho	-12.4027
/2018/07/	-12.4029
tops	-12.4029
rik	-12.4029
pisos	-12.403
gboc	-12.4031
bps	-12.4032
bolsa	-12.4036
pfm	-12.4036
boch	-12.4036
pelis	-12.4037
ispr	-12.4037
ivo	-12.4038
179	-12.4038
sayfa	-12.4039
/2019	-12.4039
908	-12.4039
kpi	-12.404
wiadomosci	-12.404
elcorteingles	-12.4041
pasa	-12.4041
xocz	-12.4042
receitas	-12.4043
finn	-12.4043
fpz	-12.4043
723	-12.4044
trouble	-12.4044
mxoc	-12.4045
trademe	-12.4046
484	-12.4048
토	-12.4048
eaqybsabegi	-12.4048
า	-12.4049
4-4	-12.4049
lvd	-12.405
eaton	-12.405
oxi	-12.4053
logos	-12.4054
eqgueiaeelede	-12.4054
703	-12.4054
ztq	-12.4055
dbf	-12.4056
pagetype	-12.4057
945	-12.4057
678	-12.4057
lboc	-12.4057
tsi	-12.4058
syc	-12.4058
cdmx	-12.4059
xocq	-12.406
peace	-12.4061
audience	-12.4061
ntq	-12.4061
futuro	-12.4061
rpd	-12.4061
rechner	-12.4062
fundacion	-12.4062
465	-12.4062
opd	-12.4064
н	-12.4066
954	-12.4067
askubuntu	-12.4068
meine	-12.4068
hbc	-12.4069
wah	-12.4069
549	-12.4069
proposal	-12.407
babe	-12.4072
bbd	-12.4072
arama	-12.4073
dept	-12.4074
kevin	-12.4075
vape	-12.4075
casual	-12.4075
relief	-12.4077
960	-12.4077
qfd	-12.4077
tcs	-12.408
rsf	-12.408
979	-12.4081
kova	-12.4082
tractor	-12.4082
め	-12.4083
331	-12.4084
lockdown	-12.4087
vag	-12.4088
mroc	-12.4089
735	-12.4091
handleiding	-12.4092
danmark	-12.4093
الت	-12.4094
nua	-12.4094
gyo	-12.4094
vedantu	-12.4095
pmi	-12.4095
baja	-12.4095
meng	-12.4096
significado	-12.4096
fpt	-12.4097
056	-12.4097
arzt	-12.4098
knowledgebase	-12.4098
harga	-12.41
surat	-12.41
bah	-12.41
debt	-12.4101
349	-12.4101
nagar	-12.4104
153	-12.4104
民	-12.4105
mdf	-12.4106
fvg	-12.4106
druck	-12.4107
689	-12.4107
ttc	-12.4107
victor	-12.4108
gossiping	-12.4109
advantage	-12.4109
461	-12.411
=9001	-12.411
476	-12.4112
451	-12.4112
τ	-12.4112
yard	-12.4112
dbb	-12.4114
ό	-12.4114
2200006	-12.4117
ergo	-12.4117
agencia	-12.4118
nck	-12.412
scout	-12.412
rape	-12.4123
tune	-12.4124
=14&	-12.4125
legis	-12.4125
versicherung	-12.4125
stamp	-12.4126
molecular	-12.4126
sari	-12.4126
cft	-12.4128
xix	-12.4128
608	-12.4129
fedex	-12.4131
aks	-12.4132
dbc	-12.4133
373	-12.4133
qwg	-12.4133
klass	-12.4134
equipo	-12.4134
889	-12.4137
mop	-12.4137
kenya	-12.4139
952	-12.414
upp	-12.414
mura	-12.4142
733	-12.4143
416	-12.4143
=1920&	-12.4145
xfd	-12.4146
reno	-12.4147
violet	-12.4147
nfc	-12.4149
/2017/01/	-12.4149
icy	-12.4149
redtube	-12.4149
443	-12.4151
rac	-12.4152
helse	-12.4154
ดี	-12.4154
croc	-12.4155
671	-12.4155
.163.	-12.4155
painting	-12.4156
banque	-12.4156
ipao	-12.4159
probability	-12.4159
penis	-12.4161
sey	-12.4161
638	-12.4162
btn	-12.4163
fpw	-12.4165
▁adwords	-12.4168
網	-12.4169
killer	-12.417
ή	-12.4171
186	-12.4171
862	-12.4172
chief	-12.4174
ldy	-12.4176
ludwig	-12.4178
ucl	-12.4179
waterproof	-12.4179
smartredirect	-12.4182
removal	-12.4182
drinks	-12.4182
415	-12.4182
tijd	-12.4182
syndrome	-12.4184
リー	-12.4185
ymf	-12.4185
971	-12.4186
quickbooks	-12.4186
abk	-12.4187
634	-12.4187
reform	-12.4188
kurashi	-12.4189
fvd	-12.419
genuine	-12.419
009&	-12.4191
861	-12.4191
prison	-12.4191
levi	-12.4192
904	-12.4192
romance	-12.4193
431	-12.4193
5!1	-12.4193
東	-12.4194
672	-12.4195
whoop	-12.4195
มี	-12.4195
nym	-12.4196
/2013/	-12.4196
lawn	-12.4196
kmart	-12.4197
izm	-12.4197
mdq	-12.4198
iec	-12.4198
942	-12.4199
cbt	-12.4202
reifen	-12.4203
kaj	-12.4204
tarif	-12.4204
tara	-12.4204
432	-12.4205
brook	-12.4206
groep	-12.4206
aktion	-12.4207
notices	-12.4207
cooper	-12.4207
/2018/09/	-12.4208
letra	-12.421
_2020_	-12.421
eekweb	-12.4211
바	-12.4212
ppp	-12.4212
poy	-12.4213
pwm	-12.4214
cxoc	-12.4214
mzu	-12.4215
szq	-12.4216
gundem	-12.4218
asa	-12.4218
방	-12.4219
野	-12.4219
eaayasabegi	-12.4219
532	-12.4221
tls	-12.4222
msoffice	-12.4222
yfd	-12.4222
ibu	-12.4223
allianz	-12.4224
bases	-12.4225
297	-12.4226
mjm	-12.4226
propiedades	-12.4227
smoke	-12.4227
conf	-12.4228
/2018/04/	-12.4228
hae	-12.4229
845	-12.423
-2015	-12.423
nutri	-12.423
ハ	-12.4231
migros	-12.4231
882	-12.4231
tutors	-12.4231
vistaprint	-12.4232
953	-12.4234
652	-12.4235
zai	-12.4235
frequency	-12.4236
singh	-12.4236
464	-12.4237
toolkit	-12.4238
acf	-12.4238
我	-12.4241
prepaid	-12.4243
epicgames	-12.4243
434	-12.4243
movistar	-12.4244
438	-12.4244
:::	-12.4244
pcb	-12.4247
976	-12.4247
sharedfiles	-12.4247
sounds	-12.4248
dpr	-12.4249
946	-12.4251
"&	-12.4252
837	-12.4253
warframe	-12.4254
justwatch	-12.4254
antigen	-12.4255
videa	-12.4256
larousse	-12.4257
802	-12.4257
skuid	-12.4257
duoi	-12.4259
daire	-12.4259
magasins	-12.4259
/2017/03/	-12.4259
repubblica	-12.426
wake	-12.4261
teil	-12.4261
تو	-12.4262
ago	-12.4264
chairs	-12.4264
448	-12.4265
572	-12.4267
moderna	-12.4267
seite	-12.4267
930	-12.4267
failure	-12.4267
uvm	-12.4269
365/	-12.427
iye	-12.427
supermarket	-12.427
cure	-12.4272
makers	-12.4272
venue	-12.4272
nhac	-12.4273
licensing	-12.4274
aci	-12.4274
procurement	-12.4274
altadefinizione	-12.4274
shy	-12.4274
wlk	-12.4275
κ	-12.4275
wort	-12.4276
mze	-12.4279
fpx	-12.4279
defender	-12.428
ccd	-12.428
kek	-12.4283
э	-12.4284
haj	-12.4285
298	-12.4286
lund	-12.4286
temps	-12.4288
rsc	-12.4288
juice	-12.4288
rtc	-12.4288
eaqybsabegk	-12.4288
gig	-12.4289
tuan	-12.4289
nboc	-12.429
925	-12.4291
514	-12.4291
evidence	-12.4292
زیرنویس	-12.4292
prawo	-12.4294
eaayasabegj	-12.4295
jue	-12.4296
765	-12.4296
sns	-12.4297
msu	-12.4297
717	-12.4298
calculo	-12.4298
cite	-12.4299
847	-12.4301
_$	-12.4303
mechanics	-12.4303
elmundo	-12.4303
する	-12.4305
435	-12.4305
ツ	-12.4305
675	-12.4307
exercice	-12.4308
004&	-12.431
certificates	-12.4312
533	-12.4312
067	-12.4314
swe	-12.4315
flor	-12.4315
qmq	-12.4315
xjm	-12.4317
typescript	-12.4317
resumen	-12.4318
xhoc	-12.4318
bangladesh	-12.4319
890	-12.432
%5	-12.432
autodoc	-12.432
fim	-12.432
contacto	-12.4321
champagne	-12.4322
886	-12.4323
transition	-12.4324
ズ	-12.4324
iro	-12.4325
497	-12.4326
queue	-12.4327
patrick	-12.4327
ywq	-12.4328
그	-12.4328
الأ	-12.4328
termo	-12.4329
electricity	-12.4329
yxoc	-12.433
ddf	-12.4331
edi	-12.4331
969	-12.4332
sofproduct	-12.4332
mea	-12.4333
547	-12.4333
espresso	-12.4333
apkpure	-12.4334
423	-12.4334
apteka	-12.4334
valle	-12.4334
rotterdam	-12.4336
ppn	-12.4336
parallel	-12.4336
nun	-12.4337
blad	-12.4339
mwq	-12.4341
xocy	-12.4341
bep	-12.4341
voy	-12.4344
611	-12.4344
ddb	-12.4345
nbhcrarisacgaiqw	-12.4346
포	-12.4346
cbb	-12.4347
-2017/	-12.4349
klo	-12.4352
sunny	-12.4353
err	-12.4354
karaoke	-12.4355
552	-12.4355
treatments	-12.4355
gro	-12.4356
outils	-12.4356
243	-12.4361
428	-12.4361
hugo	-12.4362
475	-12.4362
198	-12.4363
868	-12.4363
nyh	-12.4363
uhr	-12.4366
vad	-12.4366
dcc	-12.4366
enfant	-12.4366
taobao	-12.4367
467	-12.4368
563	-12.4369
dramacool	-12.4369
ко	-12.4369
efa	-12.437
ports	-12.437
associate	-12.437
voucher	-12.437
ieren	-12.4371
kako	-12.4372
menus	-12.4373
tboc	-12.4374
prf	-12.4377
lama	-12.4377
اب	-12.4378
760	-12.4378
emc	-12.4378
sant	-12.4379
mcdonalds	-12.4379
","-","	-12.4379
cui	-12.438
coming	-12.438
smd	-12.4381
tub	-12.4382
hangi	-12.4382
্	-12.4383
星	-12.4383
miner	-12.4383
relationships	-12.4383
arms	-12.4384
hygiene	-12.4385
bisa	-12.4388
wool	-12.4388
meme	-12.4389
qhoc	-12.439
格	-12.439
bordeaux	-12.4391
historical	-12.4391
jyw	-12.4392
tiles	-12.4393
tio	-12.4394
obras	-12.4395
385	-12.4395
vogue	-12.4396
776	-12.4397
759	-12.4398
=1280&	-12.4398
stal	-12.4399
905	-12.4399
gong	-12.4399
apd	-12.4401
avr	-12.4401
774	-12.4402
/2016/10/	-12.4403
441	-12.4406
eaayasabegl	-12.4406
mbs	-12.4407
cadeau	-12.4407
gfd	-12.4407
cutting	-12.4409
nfs	-12.4409
fully	-12.4409
sommer	-12.4409
bocy	-12.441
origen	-12.4411
986	-12.4411
tua	-12.4413
ersatzteile	-12.4414
khau	-12.4416
jyo	-12.4416
iol	-12.4416
769	-12.4418
spb	-12.4418
398	-12.4419
tcg	-12.442
vtch	-12.442
έ	-12.442
tyt	-12.4422
ネ	-12.4423
gdm	-12.4424
556	-12.4425
487	-12.4426
会	-12.4427
766	-12.4428
pioneer	-12.4428
eamyayaaegk	-12.4428
å	-12.4429
livedoor	-12.443
footwear	-12.4431
praxistipps	-12.4431
podcasts	-12.4431
gore	-12.4432
vts	-12.4433
puede	-12.4433
ון	-12.4433
交	-12.4435
mgm	-12.4435
343	-12.4435
zek	-12.4435
eis	-12.4436
bocq	-12.4437
sfd	-12.4438
ç	-12.4439
desktops	-12.4441
526	-12.4443
acessorios	-12.4444
adc	-12.4444
lroc	-12.4445
508	-12.4446
porntags	-12.4447
5!3	-12.4447
rxoc	-12.4448
zjy	-12.445
さ	-12.4451
481	-12.4451
677	-12.4452
meny	-12.4453
306	-12.4453
khanacademy	-12.4454
/102	-12.4457
042	-12.446
876	-12.4461
lau	-12.4462
eaqybsabegl	-12.4464
encoder	-12.4465
habitat	-12.4465
teh	-12.4465
799	-12.4467
337	-12.4468
constant	-12.4469
uur	-12.4471
resistance	-12.4471
lawyers	-12.4473
ako	-12.4474
exist	-12.4474
影	-12.4475
gvd	-12.4476
plid	-12.4476
lcy	-12.4477
18&	-12.4477
rek	-12.4477
ques	-12.4478
elf	-12.4478
rroc	-12.4478
916	-12.448
894	-12.448
ruby	-12.4482
]-[	-12.4482
241	-12.4484
586	-12.4484
/2018/02/	-12.4485
風	-12.4486
kadar	-12.4487
ssi	-12.4488
ifd	-12.4491
hhoc	-12.4492
idol	-12.4492
kjv	-12.4493
7-8	-12.4493
782	-12.4494
groupon	-12.4494
kopen	-12.4494
bdf	-12.4494
notify	-12.4495
troc	-12.4495
yol	-12.4497
ucc	-12.4497
卡	-12.4497
orders	-12.4498
グ	-12.4499
446	-12.4499
ο	-12.4499
eamyayaaegj	-12.45
833	-12.4501
donga	-12.4501
synonymer	-12.4502
swr	-12.4502
nty	-12.4504
ottawa	-12.4507
bier	-12.4509
prn	-12.4513
instalar	-12.4516
nio	-12.4516
810	-12.4518
weihnachts	-12.4518
/14-	-12.4519
lem	-12.452
asked	-12.452
ث	-12.452
seasons	-12.4521
-【	-12.4521
duck	-12.4523
caps	-12.4524
005&	-12.4524
nzk	-12.4525
thuyet	-12.4525
venom	-12.4526
rboc	-12.4526
fucks	-12.4527
aat	-12.4528
dados	-12.4528
-2016/	-12.453
bateria	-12.453
798	-12.4532
599	-12.4532
synonyms	-12.4532
eaayasabegk	-12.4533
predictions	-12.4533
883	-12.4534
cada	-12.4534
vbg	-12.4534
miro	-12.4534
gsb	-12.4535
hep	-12.4536
eaqybsabegj	-12.4536
rocx	-12.4537
newton	-12.4537
acoes	-12.4538
udg	-12.4538
oculus	-12.454
karten	-12.454
practica	-12.4541
extcr	-12.4542
pis	-12.4542
nus	-12.4543
proddetail	-12.4543
646	-12.4544
colorado	-12.4545
9-4	-12.4549
063	-12.4549
parisacbnlzp	-12.455
kaz	-12.455
947	-12.4551
466	-12.4551
zgq	-12.4551
nsp	-12.4552
tgtid	-12.4553
theft	-12.4553
tabela	-12.4554
weber	-12.4554
.1001	-12.4554
hho	-12.4555
fiets	-12.4557
pfd	-12.4557
vent	-12.4557
extli	-12.4559
raid	-12.4562
651	-12.4562
tentang	-12.4563
ポ	-12.4564
記	-12.4568
斯	-12.4568
arquitectura	-12.4568
▁general	-12.4569
norm	-12.457
silk	-12.4571
sticker	-12.4572
603	-12.4573
654	-12.4574
wem	-12.4574
ranked	-12.4577
tcm	-12.4577
extpu	-12.4577
avto	-12.4578
miele	-12.4578
rtm	-12.4579
-2008-	-12.458
lojista	-12.458
832	-12.458
412	-12.4581
663	-12.4581
574	-12.4583
818	-12.4585
tiene	-12.4586
ensino	-12.4586
393	-12.4587
extprovid	-12.4587
bola	-12.4588
italiana	-12.4591
doh	-12.4594
vhoc	-12.4597
pel	-12.4599
shampoo	-12.46
á	-12.4602
676	-12.4605
ubereats	-12.4605
parameters	-12.4605
murder	-12.4605
projet	-12.4606
philippine	-12.4606
savoir	-12.4607
oog	-12.4608
gulf	-12.4608
yzg	-12.4609
aia	-12.4609
groc	-12.4609
704	-12.461
958	-12.461
ization	-12.461
989	-12.4611
animes	-12.4611
407	-12.4611
orf	-12.4614
199	-12.4614
662	-12.4614
eef	-12.4615
-541132862	-12.4615
modell	-12.4616
berger	-12.4617
vare	-12.4617
fpd	-12.4618
pfizer	-12.4618
resolve	-12.4618
safari	-12.4619
ovi	-12.462
yjq	-12.4621
orgasm	-12.4621
punch	-12.4621
951	-12.4622
glow	-12.4623
lightning	-12.4624
041	-12.4625
89&	-12.4626
faith	-12.4627
ctr	-12.4628
ე	-12.4628
doe	-12.4628
=103	-12.4629
065	-12.4634
eri	-12.4634
regio	-12.4634
decimal	-12.4635
tok	-12.4636
jvc	-12.4636
koeln	-12.4636
kaspersky	-12.4638
bec	-12.4638
miy	-12.4639
479	-12.464
mrp	-12.4641
kick	-12.4641
914	-12.4642
hbv	-12.4643
americas	-12.4645
yah	-12.4646
galleries	-12.4646
060	-12.4647
lum	-12.4647
medlineplus	-12.4647
beau	-12.4647
partir	-12.4648
667	-12.4649
="	-12.465
wicked	-12.465
ggd	-12.4652
위	-12.4654
))/	-12.4655
lara	-12.4656
jtk	-12.4656
ipp	-12.4658
mik	-12.4658
stol	-12.4659
aix	-12.4661
oxa	-12.4662
abuse	-12.4662
767	-12.4662
milanuncios	-12.4662
rvs	-12.4663
kln	-12.4663
lopez	-12.4663
6000	-12.4664
brian	-12.4665
flexible	-12.4665
godaddy	-12.4665
792	-12.4668
pei	-12.4668
ekran	-12.4669
知	-12.467
motivation	-12.467
standorte	-12.4671
=900	-12.4671
-419/	-12.4673
administrator	-12.4673
程	-12.4673
madre	-12.4674
judicial	-12.4674
documenti	-12.4675
sic	-12.4678
nespresso	-12.4678
zyw	-12.468
htc	-12.4681
urbandictionary	-12.4683
7-4	-12.4683
961	-12.4685
dieta	-12.4685
820	-12.4685
535	-12.4685
اد	-12.4685
serverfault	-12.4685
cord	-12.4686
น้ำ	-12.4687
sorulari	-12.4688
elections	-12.4688
454	-12.469
427	-12.4691
mboc	-12.4693
032	-12.4694
juz	-12.4696
633	-12.4697
zch	-12.4697
cpm	-12.4698
683	-12.4698
oki	-12.4699
odbx	-12.47
zik	-12.47
591	-12.47
ohm	-12.4702
mcqs	-12.4703
fou	-12.4704
parque	-12.4706
693	-12.4708
spaces	-12.4708
prze	-12.4708
skal	-12.4708
editions	-12.471
lak	-12.471
dcd	-12.471
rte	-12.4711
愛	-12.4711
jstage	-12.4712
annonce	-12.4712
eastern	-12.4714
khoc	-12.4714
baker	-12.4714
dce	-12.4715
shimano	-12.4716
ypd	-12.4716
031	-12.4716
xataka	-12.4716
aspire	-12.472
=!	-12.472
054	-12.472
uny	-12.4721
aoc	-12.4722
receta	-12.4724
bypass	-12.4725
524	-12.4725
045	-12.4725
filosofia	-12.4726
kpd	-12.4727
wivt	-12.4727
trending	-12.4728
centers	-12.4728
warranty	-12.4728
miller	-12.4729
xoo	-12.4729
impress	-12.473
authors	-12.473
여	-12.473
deviantart	-12.473
silicone	-12.4733
668	-12.4733
lexus	-12.4735
ryo	-12.4735
huur	-12.4736
qvc	-12.4736
addons	-12.4737
發	-12.4738
ceiling	-12.4739
lga	-12.4739
michelin	-12.474
unite	-12.4741
odq	-12.4741
plmah	-12.4742
geography	-12.4743
romana	-12.4744
ฮ	-12.4745
ebf	-12.4746
cvc	-12.475
ipn	-12.475
bluray	-12.475
463	-12.4751
dpd	-12.4751
968	-12.4752
byt	-12.4753
alexa	-12.4753
tiendas	-12.4753
gva	-12.4753
cuales	-12.4753
tzw	-12.4754
cdw	-12.4755
تحميل	-12.4757
-36-	-12.4757
يل	-12.4757
estrategia	-12.4758
arisanspate	-12.476
lut	-12.476
tasks	-12.476
zel	-12.4761
trump	-12.4765
642	-12.4765
movement	-12.4765
prc	-12.4767
erotik	-12.4767
khach	-12.4767
bite	-12.4768
000000&	-12.4768
thuvienphapluat	-12.4768
rtp	-12.4769
eaqyayabegj	-12.4769
omron	-12.477
kbs	-12.4771
aee	-12.4773
734	-12.4775
salle	-12.4775
maak	-12.4776
notre	-12.4776
ú	-12.4776
frozen	-12.4777
eki	-12.4777
fdf	-12.4778
opac	-12.4778
ホ	-12.4778
webapp	-12.4778
obd	-12.4778
信	-12.478
msk	-12.478
hsc	-12.478
pcy	-12.478
751	-12.478
dolar	-12.4781
dinner	-12.4781
csgo	-12.4781
483	-12.4783
electron	-12.4784
856	-12.4785
canli	-12.4785
dclid	-12.4786
711	-12.4786
990	-12.4787
07&	-12.4787
strix	-12.4789
cpi	-12.4789
psm	-12.479
mich	-12.479
segundo	-12.4792
loci	-12.4792
eck	-12.4793
453	-12.4794
carne	-12.4795
netherlands	-12.4795
hyf	-12.4795
dane	-12.4796
391	-12.4798
charlotte	-12.4798
resz	-12.4798
chateau	-12.48
583	-12.4801
orlando	-12.4801
ztg	-12.4802
854	-12.4802
nhiem	-12.4802
woolies	-12.4802
pretty	-12.4803
invite	-12.4804
matching	-12.4804
=21	-12.4804
condo	-12.4804
/2018/06/	-12.4805
terapia	-12.4805
guns	-12.4806
affiliates	-12.4807
seeds	-12.4807
ความ	-12.4809
pavilion	-12.481
dhabi	-12.481
dyr	-12.4813
njg	-12.4815
embassy	-12.4815
payroll	-12.4815
ί	-12.4816
xpd	-12.4817
leaders	-12.4818
vio	-12.4819
imperial	-12.4819
ndc	-12.4819
529	-12.4819
neliti	-12.4819
diagnosis	-12.482
guardian	-12.482
901	-12.4821
veneto	-12.4821
broken	-12.4822
rear	-12.4822
convertir	-12.4823
621	-12.4824
broc	-12.4824
util	-12.4825
ecf	-12.4827
swing	-12.4827
rib	-12.4828
awesome	-12.4834
ă	-12.4835
ous	-12.4836
595	-12.4837
currentpage	-12.4837
社	-12.4837
-55-	-12.4838
moy	-12.4838
915	-12.4841
!!!	-12.4842
zij	-12.4843
dish	-12.4843
copa	-12.4844
bagleae	-12.4845
gdz	-12.4846
bildung	-12.4848
호	-12.4849
extmt	-12.485
scienceon	-12.4853
execution	-12.4853
bem	-12.4854
dff	-12.4854
amdata	-12.4854
feu	-12.4854
6!1	-12.4855
buddy	-12.4855
pers	-12.4858
osf	-12.4859
nuclear	-12.486
carrera	-12.4861
bruno	-12.4862
breast	-12.4863
gardens	-12.4864
curseforge	-12.4864
hsw	-12.4864
mng	-12.4867
yeh	-12.4867
959	-12.4869
vacances	-12.487
bum	-12.4871
zny	-12.4872
461&	-12.4872
811	-12.4872
614	-12.4874
mise	-12.4874
aluminum	-12.4875
hik	-12.4877
enfants	-12.4877
worst	-12.4877
giving	-12.4877
moet	-12.4878
ntb	-12.4879
parenting	-12.4879
haku	-12.488
lectures	-12.488
prepare	-12.488
2001	-12.4881
hyc	-12.4882
6%	-12.4883
actividad	-12.4884
745	-12.4885
astuces	-12.4888
bert	-12.4888
=6307	-12.4888
khq	-12.489
043	-12.489
lottery	-12.4891
271	-12.4891
utp	-12.4892
apuntes	-12.4892
pandemia	-12.4893
=9069	-12.4893
sjo	-12.4893
tore	-12.4894
policia	-12.4894
yay	-12.4896
ksh	-12.4896
/13-	-12.4896
unisex	-12.4897
consumo	-12.4898
hed	-12.4898
tutti	-12.4899
702	-12.4899
samo	-12.4899
axe	-12.4899
zhoc	-12.4901
mri	-12.4903
/2018	-12.4903
vehiculos	-12.4903
858	-12.4903
981	-12.4904
heute	-12.4905
ugr	-12.4906
ill	-12.4907
hoz	-12.4909
uro	-12.4911
thaijo	-12.4911
sortby	-12.4912
pred	-12.4913
fondo	-12.4916
dxoc	-12.4916
kaart	-12.4916
ghana	-12.4917
903	-12.4918
lovers	-12.4919
smp	-12.4919
yayinlari	-12.492
gaat	-12.492
gossip	-12.4922
diritto	-12.4922
rix	-12.4922
aef	-12.4923
tix	-12.4923
bergen	-12.4924
nail	-12.4924
637	-12.4926
nate	-12.4926
wivq	-12.4927
coat	-12.4927
wait	-12.4928
hbm	-12.4928
naz	-12.4928
مر	-12.4928
tuo	-12.4929
gruppe	-12.4929
household	-12.493
haute	-12.493
cooler	-12.4931
rocq	-12.4933
jnp	-12.4934
postcode	-12.4936
dicionario	-12.4936
oti	-12.4936
kvm	-12.4939
medicalnewstoday	-12.4941
lez	-12.4942
feh	-12.4943
mbo	-12.4943
lille	-12.4944
648	-12.4944
468	-12.4944
ties	-12.4945
iletisim	-12.4945
allow	-12.4947
xocj	-12.4948
ija	-12.4948
05&	-12.4949
equipos	-12.4952
brnd	-12.4953
puc	-12.4954
025	-12.4954
poo	-12.4954
keyboards	-12.4958
divers	-12.4959
cra	-12.4959
techtudo	-12.4959
mje	-12.4959
fond	-12.496
kanagawa	-12.4961
786	-12.4962
/100-	-12.4962
appliance	-12.4962
lww	-12.4963
dinero	-12.4965
242	-12.4966
adalah	-12.4967
acts	-12.4968
newsid	-12.4969
jspui	-12.4969
zbocr	-12.4971
-600-	-12.4971
citation	-12.4972
972	-12.4973
newcastle	-12.4974
complet	-12.4975
massa	-12.4975
449	-12.4976
kamp	-12.4977
urdu	-12.4978
sld	-12.4978
029	-12.4978
sleeve	-12.4978
939	-12.4978
giac	-12.4978
957	-12.4979
hunting	-12.4979
psych	-12.4979
koz	-12.498
825	-12.4981
rua	-12.4982
ν	-12.4982
vyy	-12.4983
2019.	-12.4983
dodge	-12.4984
nguon	-12.4984
jby	-12.4985
fighter	-12.4986
allophones	-12.4988
995	-12.499
tattoo	-12.499
jug	-12.4991
klar	-12.4992
816	-12.4993
о	-12.4995
aqui	-12.4996
qzw	-12.4997
ι	-12.4999
891	-12.5
charges	-12.5001
wivm	-12.5002
banana	-12.5004
ות	-12.5006
planeta	-12.5006
motorsport	-12.5007
2021-	-12.5007
vps	-12.5007
nuc	-12.5008
docente	-12.5009
gdt	-12.501
872	-12.501
bmi	-12.5011
-3-0-	-12.5012
ebd	-12.5013
destiny	-12.5013
blok	-12.5013
281	-12.5014
horas	-12.5014
lucas	-12.5015
poland	-12.5016
ejournal	-12.5016
blanca	-12.5016
yuz	-12.5017
former	-12.5018
syl	-12.5018
suppliers	-12.502
tourist	-12.502
58&	-12.5021
ojo	-12.5021
木	-12.5023
892	-12.5023
continuous	-12.5023
cbp	-12.5024
wagen	-12.5024
33&	-12.5025
deposit	-12.5025
stil	-12.5025
decoration	-12.5025
dms	-12.5026
parisacbnlzo	-12.5027
0004	-12.5028
adn	-12.5028
heren	-12.5028
telugu	-12.5029
mevzuat	-12.5031
inhydr	-12.5031
teatro	-12.5031
vhs	-12.5032
giz	-12.5032
maan	-12.5033
valves	-12.5033
infobae	-12.5034
herald	-12.5034
è	-12.5034
期	-12.5035
fortune	-12.5035
volta	-12.5035
685	-12.5036
eaf	-12.5037
vakantie	-12.5037
1500	-12.5037
cement	-12.5037
pretagteam	-12.5039
preise	-12.504
qbq	-12.504
voj	-12.504
uio	-12.5041
fhoc	-12.5042
zio	-12.5043
hss	-12.5043
nxt	-12.5043
wav	-12.5044
938	-12.5044
mji	-12.5044
earn	-12.5047
rft	-12.5048
jcb	-12.5048
wert	-12.5048
fase	-12.5049
bka	-12.505
prueba	-12.5051
oso	-12.5053
lnk	-12.5053
threat	-12.5053
wzw	-12.5053
sections	-12.5054
krakow	-12.5054
diferencia	-12.5055
texture	-12.5056
718	-12.5056
mti	-12.5056
clo	-12.5058
بی	-12.5058
dvr	-12.5059
332	-12.5059
wivz	-12.5061
基	-12.5062
pbocr	-12.5062
zjg	-12.5062
▁na	-12.5063
hwh	-12.5064
wko	-12.5065
dossiers	-12.5066
bpm	-12.5066
girlfriend	-12.5067
yzm	-12.5068
sbt	-12.5068
797	-12.5068
lur	-12.5069
arisanspath	-12.5072
564	-12.5072
/123	-12.5073
dati	-12.5073
-230	-12.5074
mcg	-12.5076
499	-12.5077
modeling	-12.5079
otm	-12.508
582	-12.508
hearing	-12.508
biografia	-12.508
announces	-12.508
uti	-12.5081
864	-12.5082
legifrance	-12.5082
ní	-12.5084
vix	-12.5086
springs	-12.5086
ric	-12.5087
metall	-12.5087
/2017/05/	-12.5087
fuente	-12.5091
prove	-12.5091
408	-12.5093
片	-12.5094
npo	-12.5094
625	-12.5094
clase	-12.5094
ı	-12.5095
ggf	-12.5095
rms	-12.5096
北	-12.5097
834	-12.5099
ambiental	-12.5103
ohio	-12.5103
413	-12.5104
前	-12.5105
igi	-12.5106
tent	-12.5106
bahia	-12.5107
xocw	-12.5107
224	-12.5108
/2012/	-12.5108
requisitos	-12.5108
carrier	-12.5108
45&	-12.511
continental	-12.511
semester	-12.5111
rsv	-12.5112
nieuw	-12.5112
069	-12.5113
rta	-12.5116
begin	-12.5118
857	-12.5118
ultima	-12.5119
qpd	-12.5119
л	-12.512
elgiganten	-12.512
jungle	-12.5122
_2015	-12.5122
puy	-12.5122
896	-12.5123
doz	-12.5124
nzq	-12.5127
detect	-12.5128
barcode	-12.5129
/2016/11/	-12.513
extap	-12.5131
recommended	-12.5131
absolute	-12.5131
polish	-12.5132
tarjetas	-12.5134
outline	-12.5134
tym	-12.5134
885	-12.5135
ubc	-12.5137
科	-12.5137
makro	-12.5137
paste	-12.5138
941	-12.5138
589	-12.514
nino	-12.514
poem	-12.514
worksheet	-12.5141
ozel	-12.5142
fichas	-12.5142
hmz	-12.5142
etudes	-12.5143
wur	-12.5143
yon	-12.5144
839	-12.5146
851	-12.5147
581	-12.5148
665	-12.5149
eed	-12.5152
ubs	-12.5152
sephora	-12.5154
2009	-12.5154
abi	-12.5156
scholarships	-12.5156
harley	-12.5157
hongkong	-12.5158
536	-12.516
uebersetzung	-12.5161
ghs	-12.5162
jorge	-12.5162
949	-12.5162
reservations	-12.5163
spreadsheets	-12.5163
inspection	-12.5164
paga	-12.5165
heads	-12.5166
725	-12.5167
gfx	-12.5168
pagine	-12.5169
butik	-12.517
cuoi	-12.517
598	-12.517
34&	-12.517
eaaybcaaegl	-12.5172
597	-12.5174
hmv	-12.5176
mhw	-12.5176
testo	-12.5176
marka	-12.5177
zendesk	-12.5177
nepal	-12.5179
rocy	-12.518
sika	-12.518
aktiv	-12.5181
چ	-12.5181
exttg	-12.5181
puedo	-12.5182
smt	-12.5182
elcomercio	-12.5183
implementation	-12.5183
tram	-12.5186
pxx	-12.5186
neon	-12.5187
amg	-12.5187
clic	-12.5188
gts	-12.5188
yxi	-12.519
/2022	-12.519
539	-12.5191
tenders	-12.5192
hiro	-12.5192
nzi	-12.5193
lily	-12.5193
squid	-12.5193
nella	-12.5193
aurora	-12.5194
▁di	-12.5194
cdf	-12.5196
onze	-12.5196
র	-12.5196
shaw	-12.5197
rada	-12.5198
aluguel	-12.5198
bkn	-12.5198
sars	-12.5199
pena	-12.5199
pmah	-12.5201
xock	-12.5202
motherboards	-12.5203
uts	-12.5203
medias	-12.5204
vam	-12.5205
mrt	-12.5205
lavanguardia	-12.5205
smh	-12.5207
川	-12.5208
artikler	-12.5209
xam	-12.521
lombardia	-12.521
bearings	-12.5211
fortinet	-12.5211
/2017/09/	-12.5211
방법	-12.5212
409	-12.5213
instead	-12.5214
gain	-12.5214
ministry	-12.5215
/#/	-12.5218
을	-12.522
raja	-12.5221
849	-12.5223
selectporsrch	-12.5224
林	-12.5224
eltiempo	-12.5225
hype	-12.5225
oni	-12.5227
iboc	-12.5228
dudca	-12.5228
captain	-12.5229
khx	-12.5229
vesti	-12.523
hmah	-12.5231
grass	-12.5232
wordplays	-12.5233
/110	-12.5234
slut	-12.5235
injury	-12.5235
panels	-12.5235
perguntas	-12.5236
marques	-12.5239
compras	-12.5239
491	-12.5239
alone	-12.5239
554	-12.5239
vxu	-12.524
=(	-12.5241
2017.	-12.5241
trackeame	-12.5242
houston	-12.5245
ecu	-12.5246
dame	-12.5247
mynavi	-12.5248
desert	-12.5249
bocz	-12.5249
phantom	-12.525
soe	-12.525
bca	-12.5252
oab	-12.5253
froc	-12.5254
scg	-12.5254
81&	-12.5255
imu	-12.5255
pier	-12.5256
linio	-12.5259
/103	-12.526
acres	-12.5261
yao	-12.5261
mattress	-12.5261
502&	-12.5263
864&	-12.5264
crc	-12.5264
781	-12.5266
ู	-12.5266
scam	-12.5266
ppg	-12.5267
jfk	-12.5267
hardcore	-12.5267
blick	-12.5268
-180	-12.5268
lina	-12.5271
manh	-12.5271
/2017/07/	-12.5272
ytq	-12.5274
927	-12.5274
despegar	-12.5275
uoc	-12.5275
restaurante	-12.5275
區	-12.5276
12763_1720986	-12.5277
352566565909	-12.5277
prayer	-12.5277
000001	-12.5278
taskbar	-12.528
784	-12.5281
-2018.	-12.5281
hbs	-12.5281
zrw	-12.5281
relax	-12.5283
622	-12.5284
stf	-12.5285
frecuentes	-12.5287
jom	-12.5287
evd	-12.5287
shelf	-12.5288
aide	-12.5289
forces	-12.5291
kik	-12.5291
μα	-12.5292
suy	-12.5292
abcd	-12.5292
288	-12.5294
zzw	-12.5294
firmy	-12.5297
869	-12.5297
experimentid	-12.5298
zed	-12.5298
8458_	-12.5299
826	-12.5299
forge	-12.53
477	-12.53
depression	-12.53
meal	-12.5302
epd	-12.5302
njm	-12.5302
lud	-12.5303
vagas	-12.5304
lage	-12.5304
pog	-12.5304
karta	-12.5304
繁體	-12.5305
057	-12.5305
811&	-12.5305
oldu	-12.5307
ppm	-12.5307
sons	-12.5307
dunia	-12.5309
cpr	-12.5309
plataforma	-12.5309
imaging	-12.5309
geraete	-12.531
aspnet	-12.531
ssb	-12.531
mktdata	-12.531
zwy	-12.5311
synonym	-12.5312
937	-12.5314
asx	-12.5314
quq	-12.5316
ッ	-12.5317
kommun	-12.5318
seznam	-12.532
мо	-12.532
ltq	-12.532
336	-12.532
bring	-12.5321
repack	-12.5321
poetry	-12.5322
/2007	-12.5322
644	-12.5324
ж	-12.5324
hoo	-12.5324
porter	-12.5324
recommend	-12.5325
nok	-12.5325
lance	-12.5326
remix	-12.5327
vou	-12.5327
raad	-12.5327
zju	-12.5328
tcf	-12.533
lts	-12.533
647	-12.533
ли	-12.5332
tendencias	-12.5332
disorders	-12.5333
버	-12.5333
rechts	-12.5333
chiba	-12.5335
knx	-12.5335
은	-12.5337
nrc	-12.5337
pourquoi	-12.5337
=49&	-12.5339
herz	-12.5339
clever	-12.5341
dent	-12.5341
/2017/12/	-12.5341
940	-12.5343
579	-12.5344
locp	-12.5346
vaz	-12.5347
cboc	-12.5348
包	-12.5349
realty	-12.535
926	-12.535
powered	-12.535
trieu	-12.535
nerd	-12.535
vse	-12.5351
808	-12.5351
donne	-12.5352
hidro	-12.5352
496	-12.5353
vymaps	-12.5354
656&	-12.5354
noord	-12.5356
recorder	-12.5357
ubisoft	-12.5358
soil	-12.5358
fdc	-12.5359
aprender	-12.536
674	-12.5361
cancel	-12.5362
philosophy	-12.5362
roche	-12.5363
gabriel	-12.5363
607	-12.5363
roas	-12.5364
wdw	-12.5365
geen	-12.5365
toscana	-12.5365
receiver	-12.5367
สี	-12.5368
vzw	-12.5369
branches	-12.537
avast	-12.5371
oas	-12.5371
specification	-12.5372
werden	-12.5373
nmq	-12.5373
birmingham	-12.5373
mrk	-12.5374
653	-12.5374
zoominfo	-12.5374
qzz	-12.5375
993	-12.5375
716	-12.5375
idade	-12.5376
serum	-12.5377
chauffage	-12.5377
laundry	-12.5379
additional	-12.5379
ator	-12.538
muh	-12.5381
nvr	-12.5382
oel	-12.5382
odc	-12.5382
spr	-12.5384
worldbank	-12.5385
fai	-12.5387
dci	-12.5387
所	-12.5389
664	-12.5389
keto	-12.539
scopes	-12.5391
=907	-12.5391
bagneae	-12.5391
الع	-12.5392
842	-12.5393
demande	-12.5393
taka	-12.5393
myheritage	-12.5394
dboc	-12.5396
hive	-12.54
fang	-12.5401
732	-12.5401
gnu	-12.5401
mansion	-12.5402
yourself	-12.5403
558	-12.5403
ี	-12.5404
重	-12.5406
ausbildung	-12.5406
bari	-12.5406
variation	-12.5406
centos	-12.5406
finish	-12.5407
quanto	-12.5409
dunya	-12.5409
:8080/	-12.541
後	-12.541
belgique	-12.541
pornzog	-12.541
itis	-12.5412
+(	-12.5413
ciu	-12.5413
462	-12.5413
moral	-12.5414
ilhcabbcxax	-12.5416
blind	-12.5418
luxe	-12.5418
blitz	-12.5418
kaya	-12.5419
welding	-12.5419
764	-12.5419
poradnik	-12.5419
oheilhcabbcxax	-12.5421
eaaybcaaegj	-12.5421
pdg	-12.5422
fisco	-12.5422
hij	-12.5422
.0.69	-12.5422
assassins	-12.5423
sujet	-12.5424
573	-12.5425
elastic	-12.5426
kpop	-12.5426
نا	-12.5427
etti	-12.5427
件	-12.5434
goals	-12.5434
828	-12.5435
928	-12.5437
skinny	-12.5438
mna	-12.5441
ology	-12.5441
947&	-12.5442
294	-12.5443
verb	-12.5444
yks	-12.5445
-144	-12.5445
uniform	-12.5445
sine	-12.5446
kubernetes	-12.5446
embedded	-12.5447
upm	-12.5447
531&	-12.5447
qqq	-12.5448
wjq	-12.5449
ukraine	-12.5449
dacia	-12.545
602	-12.545
teoma	-12.5451
flying	-12.5451
hydrogen	-12.5452
klu	-12.5452
rna	-12.5454
jlg	-12.5454
personnel	-12.5455
equities	-12.5455
537	-12.5456
jie	-12.5459
nacht	-12.5459
pantalla	-12.546
fiesta	-12.5461
oxygen	-12.5461
rki	-12.5461
norge	-12.5462
ije	-12.5464
carreras	-12.5464
429	-12.5466
anno	-12.5466
721	-12.5467
reply	-12.5467
chrono	-12.5468
genel	-12.5468
agile	-12.5469
▁business	-12.5469
ithome	-12.547
bky	-12.547
ethereum	-12.5471
ifq	-12.5471
eset	-12.5471
xocu	-12.5472
boxing	-12.5472
maritime	-12.5473
kcc	-12.5475
wjm	-12.5478
kindle	-12.5478
freight	-12.5478
師	-12.5479
addsession	-12.548
individuals	-12.548
busqueda	-12.5481
jkx	-12.5481
kham	-12.5483
deux	-12.5485
aziende	-12.5485
zebra	-12.5488
nue	-12.5488
iych	-12.5493
grocery	-12.5494
flores	-12.5494
948	-12.5495
vzc	-12.5495
blizzard	-12.5496
motorcycles	-12.5496
sot	-12.5497
wyw	-12.5497
sistemi	-12.5497
wrap	-12.5497
punta	-12.5498
liebe	-12.5498
fern	-12.5501
kompass	-12.5502
848	-12.5503
376	-12.5503
ztk	-12.5504
etica	-12.5505
sito	-12.5508
hhs	-12.5508
archi	-12.5509
smartanswers	-12.5509
052	-12.551
finans	-12.5512
ptc	-12.5513
evaluacion	-12.5513
caribbean	-12.5516
partnership	-12.5518
uam	-12.5519
jol	-12.5519
9%8	-12.552
gpd	-12.552
清	-12.552
detalhe	-12.552
874	-12.552
socks	-12.5521
879	-12.5523
prs	-12.5523
xbg	-12.5525
oasis	-12.5525
studenti	-12.5525
fool	-12.5525
valores	-12.5527
059	-12.5527
behaviour	-12.5527
aprendizaje	-12.5528
ztm	-12.5529
buh	-12.5529
kawasaki	-12.5532
tuy	-12.5533
823	-12.5534
odds	-12.5535
lun	-12.5535
bitesize	-12.5537
voc	-12.5537
/104	-12.5538
lose	-12.5541
rii	-12.5541
issuer	-12.5541
sena	-12.5542
pikiran	-12.5542
belajar	-12.5543
docsity	-12.5543
chemicals	-12.5544
endo	-12.5545
tiendeo	-12.5547
awiax	-12.5549
て	-12.5549
kub	-12.5552
mef	-12.5554
sfl	-12.5555
blogger	-12.5556
thy	-12.5557
namasha	-12.5558
wdr	-12.5558
ugc	-12.5559
personer	-12.5561
ferrari	-12.5563
vjq	-12.5563
belgie	-12.5564
iis	-12.5567
gag	-12.5568
enfermedades	-12.5568
apparel	-12.5573
chai	-12.5576
量	-12.5578
binding	-12.5578
violence	-12.5578
pubg	-12.5579
dut	-12.5579
apartamento	-12.5581
tisch	-12.5581
bpk	-12.5581
leeds	-12.5582
לי	-12.5582
elm	-12.5583
qoo	-12.5583
getstarted	-12.5584
prace	-12.5585
encoding	-12.5586
fay	-12.5586
guz	-12.5587
ول	-12.5588
eamyayaaegl	-12.5588
tagalog	-12.5588
otobank	-12.5589
jnj	-12.5589
698	-12.559
體	-12.559
č	-12.5591
mood	-12.5592
xanh	-12.5592
902	-12.5593
bocj	-12.5593
uroc	-12.5594
smo	-12.5595
047	-12.5595
zin	-12.5596
voyeur	-12.5596
755	-12.5598
/2017/08/	-12.5599
launches	-12.56
761	-12.56
bollywood	-12.5601
amazus	-12.5602
pura	-12.5603
leistungen	-12.5603
687	-12.5605
jiu	-12.5606
cky	-12.5607
vpd	-12.5608
dafont	-12.5609
plat	-12.5609
diego	-12.5609
guc	-12.561
994	-12.5611
門	-12.5611
fate	-12.5611
knt	-12.5611
altin	-12.5612
sxoc	-12.5613
poc	-12.5613
quien	-12.5615
elespanol	-12.5616
efb	-12.5617
durante	-12.5617
jdw	-12.5617
783	-12.5618
=9061	-12.5618
cordless	-12.5619
cik	-12.562
nexus	-12.562
개	-12.5623
。	-12.5623
2006	-12.5624
ubu	-12.5626
元	-12.5627
hag	-12.5628
izi	-12.563
bedev	-12.5631
1009897	-12.5631
later	-12.5632
tweakers	-12.5634
examination	-12.5635
perform	-12.5635
grau	-12.5636
qiq	-12.5637
reunion	-12.5637
gezondheid	-12.5637
concepto	-12.5638
qgw	-12.5638
dop	-12.5638
carpet	-12.564
alo	-12.564
physio	-12.564
courier	-12.564
478	-12.564
rui	-12.5641
gente	-12.5642
個	-12.5644
xvbb	-12.5644
え	-12.5644
msedgdhp	-12.5644
mij	-12.5644
droid	-12.5645
malaga	-12.5646
madeira	-12.5648
cle	-12.565
655	-12.565
-3000-	-12.5652
-130	-12.5652
vnexpress	-12.5653
ダ	-12.5654
است	-12.5655
thairath	-12.5657
grove	-12.5657
containers	-12.5658
dictionnaires	-12.5658
sdg	-12.5659
▁generic	-12.566
mls	-12.5662
473	-12.5663
hrm	-12.5664
=3527	-12.5664
hwa	-12.5664
dienmayxanh	-12.5665
qled	-12.5667
yag	-12.5668
vyz	-12.5669
dfc	-12.5669
tsc	-12.567
_2019_	-12.5671
yjmk	-12.5672
unica	-12.5673
ette	-12.5673
bub	-12.5673
522	-12.5677
tratamiento	-12.5678
carmen	-12.568
488	-12.568
teknologi	-12.568
rita	-12.568
mcc	-12.568
incest	-12.5681
iyw	-12.5682
394	-12.5682
metodo	-12.5682
923	-12.5683
θ	-12.5683
grave	-12.5684
declaration	-12.5685
्	-12.5686
^^	-12.5686
zoll	-12.5688
definiciones	-12.5688
058	-12.5689
byg	-12.569
ি	-12.569
gamewith	-12.569
jvb	-12.5692
spell	-12.5693
657	-12.5694
isbn	-12.5697
-160	-12.5698
mpg	-12.5699
aktie	-12.5699
submission	-12.57
graz	-12.57
strings	-12.57
vms	-12.5701
verification	-12.5702
afp	-12.5702
=58	-12.5702
brush	-12.5702
كتاب	-12.5703
но	-12.5709
amvu	-12.5709
requests	-12.571
msp	-12.571
jti	-12.5713
tjnm	-12.5713
seiten	-12.5713
announcement	-12.5713
υ	-12.5713
472	-12.5714
중	-12.5715
sens	-12.5716
managed	-12.5718
ปี	-12.5718
yjy	-12.5719
leading	-12.5719
gora	-12.572
459	-12.572
famosos	-12.572
also	-12.572
readthedocs	-12.5723
highlight	-12.5723
joh	-12.5724
combo	-12.5724
dine	-12.5724
yat	-12.5726
plata	-12.5726
muebles	-12.5727
noviembre	-12.5728
nuova	-12.5728
tion	-12.5728
ffp	-12.573
592	-12.5731
061	-12.5732
numpy	-12.5732
threesome	-12.5733
arbeits	-12.5733
onderdelen	-12.5736
parcel	-12.5736
bloom	-12.5737
bocw	-12.5737
finale	-12.5738
sexe	-12.5738
unidos	-12.5739
ixoc	-12.5739
punkt	-12.574
hasta	-12.5742
nep	-12.5743
bnf	-12.5743
jll	-12.5743
recepty	-12.5743
equations	-12.5744
nelson	-12.5744
피	-12.5744
hydcaabk	-12.5745
breakfast	-12.5745
atti	-12.5747
waz	-12.5748
mock	-12.575
dataframe	-12.575
682	-12.5751
wongnai	-12.5753
jkq	-12.5753
zine	-12.5755
kast	-12.5755
hate	-12.5756
yugioh	-12.5756
danske	-12.5757
vst	-12.5759
sty	-12.5759
vacancies	-12.5761
र	-12.5761
ripley	-12.5763
906	-12.5763
nico	-12.5765
deployment	-12.5765
verlag	-12.5765
maha	-12.5765
/2017/06/	-12.5768
eaaybcaaegi	-12.5769
ltk	-12.577
fot	-12.5771
/107	-12.5772
curry	-12.5772
gazeta	-12.5773
oboc	-12.5773
681	-12.5774
983	-12.5774
jem	-12.5775
tintuc	-12.5776
ndm	-12.5776
disability	-12.5779
424	-12.5779
jij	-12.5779
kombi	-12.578
ezy	-12.578
qdq	-12.5781
fnf	-12.5782
legislacao	-12.5782
rag	-12.5783
oscar	-12.5784
รุ่น	-12.5784
ote	-12.5784
873	-12.5784
saitama	-12.5785
minor	-12.5786
sortiment	-12.5786
mystery	-12.5786
mvq	-12.5788
glasses	-12.5791
citrix	-12.5792
terraria	-12.5793
algemeen	-12.5794
00&	-12.5794
576	-12.5795
hhq	-12.5795
regression	-12.5796
triangle	-12.5796
parca	-12.5796
nil	-12.5798
/2017/04/	-12.5799
debate	-12.5799
ihn	-12.58
crema	-12.5801
upi	-12.5803
coingecko	-12.5804
persons	-12.5804
odu	-12.5804
facet	-12.5805
jessica	-12.5805
crop	-12.5806
married	-12.5808
growing	-12.5808
calcular	-12.581
groupid	-12.5812
suites	-12.5813
artikelen	-12.5813
exoc	-12.5813
hhw	-12.5814
siyah	-12.5814
futura	-12.5814
eec	-12.5816
xocl	-12.5816
myanimelist	-12.5816
mzkw	-12.5817
zahlen	-12.5817
juridicas	-12.5818
kora	-12.5818
399	-12.5819
762	-12.5819
idee	-12.5819
kleine	-12.5819
ო	-12.582
doubleclick	-12.582
googleshopc	-12.5821
seine	-12.5821
medicines	-12.5821
tabid	-12.5821
dtrm	-12.5821
liveworksheets	-12.5822
span	-12.5825
fred	-12.5826
culo	-12.5826
mulher	-12.5826
filmweb	-12.5826
affitto	-12.5826
yjg	-12.5826
portlet	-12.5827
compressor	-12.5828
supplements	-12.5829
hku	-12.5829
raf	-12.5829
000&	-12.583
peng	-12.583
linked	-12.583
mond	-12.5836
qvq	-12.5837
661	-12.5837
arsenal	-12.584
adresse	-12.5841
xep	-12.5842
ノ	-12.5842
arisanspatg	-12.5843
xocv	-12.5843
unicef	-12.5843
dhs	-12.5844
bhoc	-12.5844
:[	-12.5845
0003-0000-0	-12.5845
數	-12.5846
seis	-12.5846
/106	-12.5847
uda	-12.5847
tabla	-12.5847
jvm	-12.5848
ery	-12.5848
kyw	-12.5848
frontend	-12.585
forced	-12.5852
6-4	-12.5853
medicamentos	-12.5853
qty	-12.5855
=120	-12.5857
jqq	-12.5857
fiction	-12.5858
fms	-12.5858
bda	-12.5859
bpb	-12.5859
688	-12.586
azienda	-12.586
kala	-12.5862
emilia	-12.5862
wivx	-12.5862
oecd	-12.5863
bjv	-12.5863
aquarium	-12.5863
vgp	-12.5864
civic	-12.5864
uml	-12.5864
bearing	-12.5865
sellerid	-12.5866
leder	-12.5867
aga	-12.5867
tfw	-12.5867
joi	-12.5867
δ	-12.5867
bravo	-12.5869
znq	-12.5869
mgt	-12.5871
gmt	-12.5871
787	-12.5872
mamma	-12.5875
franchise	-12.5875
브	-12.5876
nrm	-12.5876
rhein	-12.5878
794	-12.5879
certain	-12.588
ttl	-12.588
released	-12.5881
724	-12.5881
rocw	-12.5881
nbc	-12.5881
714	-12.5883
rao	-12.5883
feat	-12.5883
kkq	-12.5884
oficina	-12.5884
datasheets	-12.5884
nicovideo	-12.5884
cabo	-12.5885
hier	-12.5886
kbdoc	-12.5886
相	-12.5888
outdoors	-12.589
uaid	-12.589
austin	-12.5891
clue	-12.5892
ils	-12.5893
xuq	-12.5894
douban	-12.5894
partnerid	-12.5896
prisma	-12.5896
izo	-12.5897
429&	-12.5898
cambiar	-12.5898
613	-12.5899
2004	-12.5899
aib	-12.5901
설	-12.5901
ligi	-12.5902
cfg	-12.5902
oglu	-12.5902
goz	-12.5903
ouid	-12.5903
fischer	-12.5905
runtime	-12.5906
519	-12.5907
418	-12.5907
kfw	-12.5909
658	-12.5911
wai	-12.5911
materia	-12.5911
lrt	-12.5912
ía	-12.5914
tue	-12.5914
pyr	-12.5914
rub	-12.5915
zix	-12.5916
779	-12.5917
ihk	-12.5918
novi	-12.5919
/105	-12.5922
zjk	-12.5922
진	-12.5922
fetish	-12.5923
shine	-12.5924
yxj	-12.5924
competitors	-12.5924
alte	-12.5924
khw	-12.5925
字	-12.5926
601	-12.5926
5-4	-12.5927
-6.0	-12.5927
unico	-12.5928
anuncios	-12.5928
flug	-12.5929
horny	-12.5929
-15-6-	-12.5929
shou	-12.593
494	-12.5931
392	-12.5931
務	-12.5931
regiao	-12.5932
zdw	-12.5932
signed	-12.5933
▁gmail	-12.5934
/2016/01/	-12.5934
cron	-12.5936
luk	-12.5937
lauren	-12.5938
ywy	-12.5938
speak	-12.5938
medecin	-12.5938
urunler	-12.5939
rox	-12.5939
wanted	-12.594
connectors	-12.594
rocz	-12.594
ytg	-12.594
loo	-12.594
lkz	-12.5941
mgq	-12.5941
kiev	-12.5941
zne	-12.5943
436	-12.5943
eze	-12.5943
cartes	-12.5943
vndoc	-12.5944
lampe	-12.5944
mech	-12.5944
chest	-12.5945
wia	-12.5945
sor	-12.5945
nef	-12.5946
vuong	-12.5946
muslim	-12.5946
easeus	-12.5946
eamyayaaegi	-12.5947
gucci	-12.5947
lifecycle	-12.5948
directions	-12.5949
hra	-12.5952
bologna	-12.5953
hacks	-12.5953
snu	-12.5953
到	-12.5957
取	-12.5957
=123	-12.5957
▁my	-12.5957
vong	-12.5957
053	-12.5957
jog	-12.5958
isdl	-12.596
.104.	-12.5962
936	-12.5962
zjz	-12.5964
dvb	-12.5964
569	-12.5968
pivot	-12.5969
justin	-12.5969
buds	-12.5969
htl	-12.597
edh	-12.5972
interieur	-12.5973
計	-12.5974
connections	-12.5975
gew	-12.5976
afrique	-12.5977
khe	-12.5977
nau	-12.5979
cny	-12.598
324	-12.598
contrat	-12.598
iba	-12.5981
dxb	-12.5982
intuit	-12.5982
707	-12.5982
[...]
