<unk>	0
<s>	0
</s>	0
.	-2.40286
/	-2.5319
-	-2.58764
s	-3.18193
▁http	-3.30262
://	-3.30598
com	-3.79525
www	-4.10115
_	-4.25042
e	-4.31181
a	-4.54446
=	-4.61555
b	-4.61828
d	-4.6282
c	-4.76365
?	-5.08082
html	-5.1276
f	-5.15698
1	-5.20316
2	-5.2386
&	-5.28285
3	-5.33614
5	-5.34909
%	-5.43668
0	-5.45363
4	-5.46462
9	-5.57549
6	-5.6035
8	-5.61348
+	-5.65388
7	-5.65696
p	-5.71646
de	-5.81785
m	-5.93991
t	-5.9521
i	-5.96929
co	-6.0634
pdf	-6.0688
r	-6.11726
n	-6.20341
g	-6.22435
php	-6.24854
v	-6.26365
id	-6.29521
l	-6.31656
in	-6.32475
x	-6.35945
net	-6.36745
k	-6.42635
%2	-6.44516
%20	-6.48149
org	-6.50237
q	-6.52428
,	-6.53328
o	-6.5759
y	-6.59289
/?	-6.62093
ru	-6.62848
jp	-6.63064
h	-6.65644
facebook	-6.661
w	-6.66743
0%	-6.71884
u	-6.73378
z	-6.73438
en	-6.80926
search	-6.8147
it	-6.82776
pinterest	-6.85294
fr	-6.85419
the	-6.85707
uk	-6.88229
pin	-6.90069
j	-6.93569
ca	-6.94096
by	-6.95299
index	-6.98829
8%	-6.99828
cn	-7.03956
amazon	-7.0475
and	-7.0592
page	-7.06929
to	-7.06984
br	-7.09614
%3	-7.16306
of	-7.21593
au	-7.2411
%5	-7.25709
3%	-7.25926
product	-7.26599
la	-7.27455
be	-7.28365
pl	-7.29061
do	-7.33628
htm	-7.36523
nl	-7.37194
us	-7.37378
for	-7.40976
info	-7.41344
5%	-7.4624
shop	-7.49983
ac	-7.5118
item	-7.53066
dp	-7.5395
bc	-7.5613
ba	-7.56464
doc	-7.57258
forum	-7.57965
ar	-7.61921
author	-7.62223
ch	-7.62594
photos	-7.66314
=1	-7.69278
tyjrepair	-7.69428
:	-7.69701
3%83%	-7.70549
no	-7.71977
gr	-7.72043
me	-7.72266
4%	-7.73041
manual	-7.73729
pt	-7.74397
on	-7.75266
3%82%	-7.75555
post	-7.76316
7%	-7.76624
ad	-7.77076
ec	-7.77676
tag	-7.78208
ebay	-7.79045
07	-7.82056
type	-7.82553
news	-7.8315
cz	-7.83976
video	-7.86288
10	-7.87568
aspx	-7.87996
11	-7.88424
my	-7.88478
le	-7.90394
new	-7.90816
view	-7.92649
home	-7.92933
bb	-7.93476
af	-7.93972
blog	-7.94653
tv	-7.94806
00	-7.95022
ce	-7.95833
01	-7.96274
aa	-7.97418
za	-7.97597
at	-7.97689
bd	-7.98697
book	-7.98926
ab	-7.98941
list	-8.00163
da	-8.00476
online	-8.0206
detail	-8.03272
%238%	-8.04465
mx	-8.05433
=1&	-8.0545
public	-8.05968
20	-8.06316
pro	-8.06588
ed	-8.07447
%7	-8.08183
make	-8.08608
9%	-8.09459
th	-8.09569
cc	-8.09578
action	-8.11203
or	-8.1185
edu	-8.12607
bf	-8.13186
watch	-8.13631
24	-8.13664
ro	-8.14239
reviews	-8.15816
6%	-8.16632
kr	-8.17865
18	-8.18038
go	-8.18278
all	-8.19154
jobs	-8.19632
12	-8.20296
site	-8.21228
=&	-8.21266
category	-8.22339
ja	-8.22563
name	-8.23337
user	-8.23366
fi	-8.24213
phone	-8.24467
service	-8.24805
%8	-8.24834
ne	-8.25392
app	-8.25595
youtube	-8.26318
ip	-8.26476
add	-8.26786
gov	-8.26835
with	-8.27281
et	-8.28031
ae	-8.28043
rtf	-8.28205
29	-8.28454
tr	-8.28912
13	-8.28956
brand	-8.30223
ko	-8.31161
un	-8.31206
14	-8.32201
21	-8.32693
nz	-8.33444
sort	-8.33684
15	-8.33755
ly	-8.33765
store	-8.33991
er	-8.34101
19	-8.36155
eb	-8.36317
50	-8.36391
tw	-8.37637
25	-8.37787
30	-8.37851
1%	-8.37941
itm	-8.39292
16	-8.39453
posts	-8.39667
products	-8.39832
al	-8.4015
an	-8.40465
~	-8.40835
catalog	-8.41167
dk	-8.41948
profile	-8.42462
cf	-8.42904
filter	-8.42998
55	-8.43401
cat	-8.43673
set	-8.43799
auto	-8.43942
aliexpress	-8.44833
diagram	-8.44866
read	-8.44879
sk	-8.45463
von	-8.45536
ff	-8.46042
free	-8.46161
pa	-8.46173
na	-8.46875
17	-8.47006
ua	-8.47511
hu	-8.47931
top	-8.48029
tg	-8.48187
tripadvisor	-8.4835
download	-8.4867
photo	-8.48878
2%	-8.49072
el	-8.49569
hack	-8.50051
city	-8.5026
sale	-8.5049
97	-8.50737
cd	-8.51861
40	-8.52514
books	-8.53078
true	-8.53353
hot	-8.53457
eu	-8.53506
ph	-8.53806
web	-8.54414
fa	-8.54513
22	-8.54821
show	-8.56096
pg	-8.56397
ob	-8.5687
fc	-8.56875
28	-8.57188
db	-8.57553
zh	-8.57792
52	-8.5802
st	-8.58164
ma	-8.59062
23	-8.59433
cp	-8.59676
hi	-8.60196
gp	-8.6032
from	-8.60468
26	-8.60603
ie	-8.60604
il	-8.60838
93	-8.61272
90	-8.61516
re	-8.61664
27	-8.61783
is	-8.62132
cl	-8.62144
up	-8.62286
rh	-8.62382
04	-8.62841
ir	-8.63858
32	-8.64252
ipshu	-8.64434
60	-8.65091
test	-8.65204
key	-8.65549
02	-8.65847
guide	-8.65865
du	-8.65942
%9	-8.665
biz	-8.66593
report	-8.66725
35	-8.66749
80	-8.6722
51	-8.67436
number	-8.67514
people	-8.67519
wood	-8.68054
alibaba	-8.68491
31	-8.68513
article	-8.68562
200	-8.68572
33	-8.68695
45	-8.68857
41	-8.68879
09	-8.68896
price	-8.69067
99	-8.69327
06	-8.69473
group	-8.70068
yahoo	-8.70269
ef	-8.70512
44	-8.70518
diy	-8.7112
03	-8.71444
ref	-8.71719
forums	-8.71786
di	-8.71874
model	-8.72587
36	-8.73065
ps	-8.73142
34	-8.73452
geschrieben	-8.73602
bi	-8.73849
cm	-8.73885
48	-8.74029
art	-8.74636
42	-8.74909
38	-8.75228
mm	-8.75262
70	-8.75264
05	-8.75626
39	-8.75768
mod	-8.75852
black	-8.763
37	-8.76312
75	-8.76777
64	-8.76867
08	-8.77022
review	-8.77205
vi	-8.77327
88	-8.77357
debest	-8.77377
56	-8.77403
89	-8.77544
man	-8.7825
mp	-8.78353
49	-8.78454
92	-8.78562
gb	-8.78714
cgi	-8.78748
mi	-8.78975
topic	-8.79019
54	-8.79216
=%	-8.79472
58	-8.79735
login	-8.79749
46	-8.79995
77	-8.80247
69	-8.80963
43	-8.81263
87	-8.81324
66	-8.81594
hotel	-8.81666
94	-8.81707
asp	-8.81992
;	-8.8202
location	-8.82031
47	-8.82075
car	-8.82217
edition	-8.82236
size	-8.82594
91	-8.83248
53	-8.83388
85	-8.83849
domain	-8.84183
84	-8.84245
pid	-8.84264
xn	-8.84399
96	-8.84489
best	-8.85058
blogspot	-8.85194
65	-8.85524
98	-8.86294
95	-8.86403
ea	-8.86417
vigorprecision	-8.86496
0%5	-8.86661
57	-8.86778
63	-8.86891
86	-8.86958
fe	-8.8702
parts	-8.87073
wp	-8.87359
79	-8.87412
74	-8.87517
repair	-8.87699
61	-8.87732
59	-8.87947
82	-8.87998
81	-8.88325
mylife	-8.88547
yw	-8.88549
73	-8.8894
club	-8.8908
lang	-8.89117
24.	-8.89276
job	-8.89352
world	-8.89755
78	-8.89854
wiring	-8.89913
72	-8.90335
ka	-8.90354
83	-8.90396
68	-8.90478
rt	-8.90996
71	-8.91414
76	-8.91795
62	-8.9186
vn	-8.91897
house	-8.92261
tid	-8.92279
67	-8.92376
por	-8.92397
asin	-8.92974
dr	-8.93289
company	-8.93389
les	-8.94139
hz	-8.94648
school	-8.94694
dc	-8.94724
music	-8.95129
=2	-8.95154
image	-8.95845
bo	-8.96025
board	-8.96101
psahz	-8.96107
order	-8.96133
linkedin	-8.96396
ny	-8.96406
url	-8.96535
pc	-8.96731
color	-8.96822
form	-8.96899
cb	-8.97018
fb	-8.97602
table	-8.97635
title	-8.9805
=%2	-8.98127
red	-8.98385
im	-8.98448
=0&	-8.98961
ta	-8.99006
rakuten	-8.99037
-2-	-8.99123
map	-8.99164
code	-9.0043
listing	-9.00559
hd	-9.00575
find	-9.00623
content	-9.00688
box	-9.01061
np	-9.01418
design	-9.01649
bbs	-9.0228
ga	-9.02696
written	-9.02836
mercadolibre	-9.03045
init	-9.03338
fd	-9.03505
twitter	-9.03746
ok	-9.03827
df	-9.04319
videos	-9.04331
data	-9.04596
bg	-9.04646
movie	-9.04678
mall	-9.05035
you	-9.05572
tx	-9.05649
-1-	-9.0585
sex	-9.0588
porn	-9.06014
bar	-9.0605
epid	-9.06234
hr	-9.06322
nc	-9.06352
one	-9.06393
iu	-9.06408
pubview	-9.06436
media	-9.06718
po	-9.07213
play	-9.07255
how	-9.07464
si	-9.07491
io	-9.07932
results	-9.08276
comment	-9.09144
=2&	-9.0944
mo	-9.09468
link	-9.1038
te	-9.10942
indeed	-9.10965
ipv	-9.12329
pagesection	-9.12509
ii	-9.12629
cart	-9.12717
share	-9.12845
5%8	-9.12854
comments	-9.12905
business	-9.13113
kl	-9.13543
google	-9.13667
day	-9.14017
ve	-9.14146
question	-9.14344
life	-9.14411
ya	-9.14747
=3	-9.15129
ask	-9.15394
wiki	-9.15549
=0	-9.16033
fl	-9.16183
ng	-9.16388
sales	-9.16662
bgc	-9.16759
date	-9.17067
ki	-9.17119
und	-9.17184
lt	-9.17342
li	-9.17411
az	-9.17532
baidu	-9.17695
sch	-9.1801
tech	-9.18632
bl	-9.1897
am	-9.19431
hk	-9.19937
cid	-9.19954
hp	-9.19993
china	-9.20663
ing	-9.20868
op	-9.21223
star	-9.21274
full	-9.21312
rd	-9.21884
ic	-9.22184
1%8	-9.22424
6%9	-9.22513
questions	-9.23104
wt	-9.23194
area	-9.23233
white	-9.23484
ni	-9.23554
plus	-9.23717
pr	-9.23932
english	-9.2408
printable	-9.24528
men	-9.24838
plans	-9.2502
archive	-9.25452
time	-9.25775
lx	-9.25872
8&	-9.26306
1&	-9.26832
women	-9.27127
sport	-9.27244
md	-9.2739
ci	-9.27495
node	-9.2755
ml	-9.27556
property	-9.28461
tt	-9.28477
live	-9.28504
love	-9.28712
newreply	-9.28832
mobile	-9.29017
stock	-9.29081
big	-9.29449
max	-9.29538
kw	-9.29585
so	-9.29651
dd	-9.29657
ai	-9.29682
-2020.	-9.30196
studio	-9.30363
=6	-9.30712
blue	-9.308
tk	-9.30837
answers	-9.31026
contact	-9.31081
ri	-9.31414
gallery	-9.31469
ford	-9.31518
air	-9.31575
mode	-9.31813
ct	-9.31862
escrito	-9.32197
version	-9.32748
year	-9.32882
furniture	-9.33272
he	-9.33716
qid	-9.34245
default	-9.34266
print	-9.34387
john	-9.34408
your	-9.35063
usa	-9.35543
special	-9.35567
community	-9.35603
section	-9.35609
thread	-9.36015
style	-9.36019
100	-9.36214
buy	-9.36463
categories	-9.36677
light	-9.36899
va	-9.37013
redirect	-9.37037
toys	-9.37124
%252	-9.37706
pn	-9.37985
ge	-9.38026
status	-9.38407
ti	-9.38416
directory	-9.38548
country	-9.38605
get	-9.38784
game	-9.38843
para	-9.38996
wa	-9.39029
kz	-9.39072
mc	-9.40097
tu	-9.40276
em	-9.40309
out	-9.40447
gm	-9.40935
episode	-9.41039
=4	-9.41183
lh	-9.41227
ator	-9.41242
der	-9.41255
yes	-9.41316
mail	-9.41416
reddit	-9.41521
ho	-9.41617
space	-9.42027
jd	-9.42526
del	-9.42566
con	-9.42978
vote	-9.43652
state	-9.44001
power	-9.44095
series	-9.44171
3%81%	-9.44318
ccl	-9.44563
room	-9.4474
ww	-9.44958
file	-9.4497
ke	-9.45152
tags	-9.45217
tumblr	-9.45469
cloudfront	-9.45626
=(	-9.45748
xl	-9.45985
san	-9.46079
start	-9.46113
threads	-9.46285
xx	-9.46387
main	-9.46431
photodirectlink	-9.46537
items	-9.46822
jb	-9.47305
ku	-9.47421
tl	-9.47717
digital	-9.47787
entry	-9.48139
dtrzv	-9.48147
value	-9.48302
case	-9.48352
hm	-9.48581
sports	-9.48646
ky	-9.48658
park	-9.48722
details	-9.488
story	-9.48929
source	-9.49098
member	-9.49108
wall	-9.49234
services	-9.49457
-3-	-9.49563
tel	-9.49629
pe	-9.49754
travel	-9.49823
desc	-9.49833
collection	-9.50046
=5	-9.50322
fm	-9.50354
van	-9.50408
lv	-9.50462
vk	-9.50624
market	-9.50853
pm	-9.51065
oz	-9.51082
um	-9.51293
amp	-9.51498
server	-9.51585
lu	-9.52106
/1/	-9.52756
7%9	-9.52848
mt	-9.5311
edit	-9.53266
address	-9.53565
instagram	-9.53689
recepty	-9.54289
goo	-9.54496
ahr	-9.54738
season	-9.54824
inc	-9.5485
land	-9.54853
target	-9.54914
work	-9.55136
center	-9.55197
green	-9.55329
nkw	-9.55507
per	-9.55875
ha	-9.55947
abuse	-9.56063
super	-9.56076
about	-9.56276
open	-9.566
000	-9.56709
high	-9.57082
5%9	-9.5713
nj	-9.57236
if	-9.57803
message	-9.58187
om	-9.58245
ht	-9.5845
xxx	-9.58664
kg	-9.58695
baby	-9.58746
yelp	-9.58786
david	-9.59013
yo	-9.59018
ck	-9.59065
oh	-9.59283
pk	-9.5942
health	-9.59422
browse	-9.59467
kids	-9.59531
showthread	-9.60345
jsp	-9.60491
mr	-9.60908
living	-9.61146
cars	-9.61151
ty	-9.61384
food	-9.61562
part	-9.61753
ex	-9.61806
age	-9.61881
blogid	-9.62036
qa	-9.62037
ot	-9.62245
cam	-9.62328
ou	-9.62339
postid	-9.62414
line	-9.6244
lookup	-9.62877
mckesson	-9.62928
pw	-9.63015
pp	-9.63206
field	-9.63436
care	-9.63633
blogger	-9.63919
events	-9.6392
film	-9.64214
kd	-9.64556
fashion	-9.64668
sub	-9.64874
xml	-9.65081
gl	-9.65112
piece	-9.65153
restaurant	-9.65185
wikipedia	-9.6524
die	-9.65314
ia	-9.65505
reply	-9.65626
used	-9.65667
render	-9.65791
what	-9.65825
lo	-9.65975
nu	-9.66049
word	-9.66141
pic	-9.66179
pinili	-9.6618
%26	-9.66279
wordpress	-9.66284
hl	-9.66317
document	-9.66426
mk	-9.66536
lg	-9.66553
real	-9.66762
mms	-9.66802
ectionalsleather	-9.67152
we	-9.67207
thebest	-9.67279
ra	-9.67335
aid	-9.67647
channel	-9.67777
mini	-9.6779
michael	-9.6789
1%80%	-9.68299
audio	-9.68477
region	-9.68496
bn	-9.68687
qu	-9.68788
aw	-9.6886
keyword	-9.68956
cy	-9.68961
jo	-9.69102
long	-9.69147
exam	-9.69471
bor	-9.69542
over	-9.69585
reclinings	-9.69589
zu	-9.69703
ft	-9.69734
movies	-9.70029
ak	-9.7006
mg	-9.7008
gold	-9.70199
vw	-9.70228
shoes	-9.70288
tube	-9.70516
bed	-9.70589
hy	-9.70599
kitchen	-9.70627
=3&	-9.70654
entityid	-9.70677
tp	-9.70712
files	-9.70786
rc	-9.70798
imgr	-9.70992
west	-9.71093
kuek	-9.71147
csrft	-9.71239
xpcx	-9.71275
ebook	-9.71577
her	-9.71707
648	-9.71817
can	-9.71979
mn	-9.72008
lp	-9.72076
je	-9.72227
history	-9.72421
vo	-9.72548
outdoor	-9.72923
auction	-9.72962
qq	-9.72974
wishlist	-9.73122
zw	-9.73233
gt	-9.73511
ld	-9.73514
query	-9.73556
dining	-9.73728
good	-9.73761
event	-9.73803
utf	-9.74161
showuserreviews	-9.74234
tm	-9.74282
wi	-9.74344
support	-9.74563
tn	-9.74842
element	-9.74885
girl	-9.75028
goods	-9.75116
old	-9.75185
dog	-9.75214
332	-9.75241
album	-9.75348
pcb	-9.75365
pi	-9.75374
+%	-9.75627
law	-9.75728
language	-9.75739
token	-9.7598
mit	-9.76034
who	-9.76267
led	-9.76589
wr	-9.7668
mu	-9.76712
spankbang	-9.77037
py	-9.77168
mastermind	-9.77174
team	-9.77444
nd	-9.77872
back	-9.77902
wine	-9.7808
chm	-9.78201
rj	-9.7835
now	-9.78413
1%82%	-9.78634
bin	-9.78726
1/8%5	-9.78745
nr	-9.78843
weather	-9.78875
cr	-9.79438
%2520	-9.79561
pb	-9.79746
tieba	-9.79753
card	-9.79772
bj	-9.79838
games	-9.80081
dir	-9.80128
accessories	-9.80182
2020.	-9.80504
nm	-9.80511
shirt	-9.80709
direct	-9.80865
mid	-9.80903
calculadora	-9.80943
currency	-9.80999
(	-9.81518
pub	-9.81547
allegro	-9.81562
other	-9.81573
family	-9.81886
lz	-9.8199
1%5	-9.8203
nav	-9.82191
local	-9.82204
pre	-9.82348
pornhub	-9.82475
offer	-9.82477
hub	-9.82494
help	-9.82763
yellowpages	-9.8293
etsy	-9.83063
ry	-9.83108
like	-9.83506
fq	-9.83581
jt	-9.83606
water	-9.83791
ligou	-9.83851
gob	-9.84274
north	-9.84504
core	-9.8453
gu	-9.84669
portal	-9.84859
mercadolivre	-9.84898
dev	-9.85069
ag	-9.85137
permalink	-9.85726
shopping	-9.8587
pad	-9.8614
jean	-9.8621
honda	-9.86299
system	-9.86331
radio	-9.86333
bk	-9.86368
kit	-9.86405
more	-9.86516
global	-9.86609
ln	-9.86746
su	-9.86839
jpg	-9.87026
south	-9.87037
fun	-9.87138
press	-9.87343
uy	-9.87411
format	-9.87723
xyz	-9.87727
km	-9.8812
porno	-9.88226
collections	-9.88337
diabetes	-9.88361
auctions	-9.88378
gg	-9.88426
leather	-9.8875
way	-9.88757
mark	-9.88793
av	-9.889
ll	-9.89084
1%81%	-9.89313
person	-9.89457
office	-9.89603
homes	-9.89639
yu	-9.89655
whois	-9.89841
num	-9.89903
que	-9.90057
tz	-9.90138
single	-9.90173
hash	-9.90291
=10	-9.90327
international	-9.90339
next	-9.90376
ov	-9.90606
cover	-9.90629
motor	-9.90773
vintage	-9.9102
%253	-9.91024
jm	-9.91058
garden	-9.9106
master	-9.91154
paper	-9.91289
-4-	-9.9133
min	-9.91466
vb	-9.91497
icu	-9.91511
ur	-9.91733
poc	-9.91835
place	-9.91978
og	-9.92037
*	-9.92143
cu	-9.92222
9%84%	-9.92231
bathroom	-9.92302
nf	-9.9236
chair	-9.92513
mf	-9.92546
friendlyta	-9.92581
uid	-9.9262
----------------	-9.92671
first	-9.92837
compare	-9.92957
american	-9.93163
coffee	-9.93182
street	-9.93222
engine	-9.9328
calendar	-9.93355
pu	-9.9364
cafe	-9.93681
computer	-9.93698
brother	-9.93754
img	-9.93902
result	-9.94009
sign	-9.94072
king	-9.94194
ao	-9.94229
vin	-9.94428
mb	-9.94506
nt	-9.94884
daily	-9.94898
3%83%83%	-9.94934
india	-9.95136
toyota	-9.95473
olx	-9.95522
asc	-9.95603
torrent	-9.95615
front	-9.95702
gi	-9.95757
paul	-9.96061
kh	-9.96169
samsung	-9.96272
8%8	-9.96394
images	-9.96446
%0	-9.9677
los	-9.96838
france	-9.96968
tab	-9.97051
3%83%9	-9.97105
ah	-9.97169
001	-9.97184
gay	-9.97219
specs	-9.97252
gh	-9.97299
extra	-9.97441
gq	-9.97442
%27	-9.97567
peter	-9.97814
timedtext	-9.97907
able	-9.97912
grand	-9.97963
buyma	-9.98211
dy	-9.98515
wap	-9.98677
robert	-9.98707
tools	-9.98861
qc	-9.98933
letaky	-9.98954
rn	-9.98957
jr	-9.98989
2%5	-9.99016
suncityxm	-9.99045
journal	-9.99092
stop	-9.9913
body	-9.99343
social	-9.99857
hotels	-9.99905
girls	-9.9999
gw	-10.0023
-10	-10.0027
pcexpress	-10.003
rv	-10.0031
beach	-10.0042
fanwen	-10.0047
pet	-10.0058
james	-10.0062
sur	-10.0071
9%9	-10.0101
county	-10.0106
chapter	-10.0109
ut	-10.0126
non	-10.0129
ju	-10.0134
womens	-10.0134
dj	-10.0147
9%8	-10.0154
bmw	-10.0157
.)	-10.016
misc	-10.0168
solutions	-10.0169
ul	-10.0181
infor	-10.0189
nmbr	-10.0225
xhamster	-10.0257
track	-10.026
bio	-10.0264
update	-10.0279
science	-10.0305
panel	-10.0317
mat	-10.0319
song	-10.0322
text	-10.033
fn	-10.0341
hq	-10.0354
/6-	-10.0354
player	-10.0358
dm	-10.0362
sofa	-10.0365
town	-10.037
glass	-10.0384
ol	-10.0386
purchase	-10.0391
pour	-10.0402
bath	-10.0405
141	-10.0409
zz	-10.0413
/20	-10.0421
plan	-10.0426
chi	-10.043
smart	-10.0436
project	-10.0462
anti	-10.0468
party	-10.048
listado	-10.0481
iv	-10.0484
taobao	-10.0494
soft	-10.0495
beauty	-10.05
classic	-10.0501
bag	-10.0503
cv	-10.0518
down	-10.0519
dvd	-10.0522
cloud	-10.0533
numero	-10.0537
teen	-10.0562
check	-10.0569
road	-10.0575
wo	-10.0583
aquaty	-10.0596
jianlimoban	-10.0607
win	-10.062
lk	-10.0635
uz	-10.0636
are	-10.064
hh	-10.0647
zl	-10.0652
bid	-10.0656
popular	-10.0668
not	-10.067
silver	-10.0692
txt	-10.07
end	-10.0706
tasks	-10.0709
act	-10.071
cheap	-10.0716
nike	-10.0738
run	-10.0744
goto	-10.0749
rail	-10.0764
iz	-10.0765
apple	-10.077
=7	-10.0783
ik	-10.0797
gen	-10.0798
multi	-10.0801
martin	-10.0803
foto	-10.0806
software	-10.081
moto	-10.0831
archiwum	-10.0831
tabelog	-10.0833
ji	-10.0849
fo	-10.0862
trade	-10.09
,+	-10.0914
french	-10.0921
promotion	-10.0923
dmusic	-10.0937
yy	-10.0966
users	-10.0973
9%88%	-10.0979
cfm	-10.0988
class	-10.0991
hill	-10.1015
two	-10.1024
iphone	-10.1026
rb	-10.1033
-10-	-10.1034
hand	-10.1042
lc	-10.1044
metal	-10.1056
customer	-10.1066
mz	-10.1068
med	-10.1074
select	-10.1086
talk	-10.1086
email	-10.109
casa	-10.1093
zx	-10.1093
ville	-10.1112
2&	-10.112
dan	-10.1137
module	-10.1146
pos	-10.1147
gems	-10.1149
brown	-10.1154
-5-	-10.1161
made	-10.1162
mens	-10.1172
doctor	-10.1177
rose	-10.118
ver	-10.1205
rent	-10.1222
management	-10.1224
3%83%8	-10.1242
pages	-10.1244
=4&	-10.1247
head	-10.1253
click	-10.1255
vip	-10.1258
wx	-10.1265
nb	-10.127
medical	-10.1274
last	-10.1292
fu	-10.1307
fuse	-10.1311
bay	-10.132
golf	-10.1329
college	-10.1332
xxw	-10.1352
see	-10.1358
vanity	-10.1358
tokyo	-10.1367
nw	-10.1374
noindex	-10.1379
base	-10.1395
rock	-10.1402
mon	-10.1403
inkjet	-10.1412
mh	-10.1421
condition	-10.1422
cur	-10.1423
yulk	-10.1425
tj	-10.1433
chat	-10.1439
easy	-10.1461
request	-10.1471
retail	-10.1484
off	-10.151
thomas	-10.1514
asermat	-10.1542
congress	-10.1543
ug	-10.1547
pdfdir	-10.1548
nh	-10.1554
par	-10.1578
uc	-10.1584
fid	-10.1596
fox	-10.1601
yc	-10.1604
mar	-10.1621
pf	-10.1622
library	-10.1623
dl	-10.1634
9%85%	-10.1634
uu	-10.1641
also	-10.1654
hn	-10.1654
lot	-10.17
ist	-10.171
training	-10.1718
yi	-10.1729
bfe	-10.1734
bank	-10.1752
construction	-10.1754
log	-10.1759
east	-10.176
modern	-10.1763
wh	-10.1764
zy	-10.1764
vt	-10.1765
viewtopic	-10.178
account	-10.1784
dress	-10.1798
tome	-10.1814
hair	-10.1815
son	-10.182
saint	-10.182
alpha	-10.1829
hc	-10.1852
ui	-10.1852
tradicni	-10.1864
small	-10.1868
wang	-10.1874
fj	-10.1878
this	-10.1887
low	-10.1936
ze	-10.1945
storage	-10.1946
3499	-10.1952
month	-10.1954
hikkoshi	-10.1955
viewed	-10.197
ltd	-10.1973
teachers	-10.2003
anshinn	-10.2004
groups	-10.2005
yt	-10.202
display	-10.2025
workshop	-10.2033
premium	-10.2038
gz	-10.2038
res	-10.2042
=5&	-10.2074
suche	-10.2084
steel	-10.2086
genre	-10.2087
ring	-10.2089
dlya	-10.2123
mynavi	-10.2123
lm	-10.2126
host	-10.2135
pan	-10.2137
rio	-10.2143
control	-10.2145
.(	-10.2147
custom	-10.2166
vy	-10.2173
application	-10.2178
ram	-10.2189
mw	-10.2191
bu	-10.2198
gift	-10.2201
vod	-10.2221
sky	-10.2252
york	-10.2271
fh	-10.2277
soa	-10.2279
maps	-10.23
baito	-10.2321
war	-10.2324
original	-10.2328
rx	-10.2339
label	-10.2345
maria	-10.2346
freeddns	-10.2348
clothing	-10.235
website	-10.235
boy	-10.2351
bike	-10.2355
vol	-10.2356
right	-10.2415
brandos	-10.2434
door	-10.2458
oo	-10.247
.)_.	-10.247
produto	-10.2479
mv	-10.249
side	-10.2509
natural	-10.2511
tree	-10.252
that	-10.2526
owners	-10.2531
cg	-10.254
double	-10.2545
wy	-10.2562
uni	-10.2564
equipment	-10.2566
little	-10.2572
ap	-10.2572
wu	-10.2573
500	-10.2575
zo	-10.2576
oil	-10.2584
may	-10.2603
drive	-10.2608
london	-10.2623
electronics	-10.2635
oferta	-10.266
zi	-10.2663
rr	-10.2672
picclick	-10.2689
github	-10.2691
some	-10.2717
limit	-10.2722
vz	-10.2725
xz	-10.2729
fan	-10.274
point	-10.2741
iq	-10.2751
ek	-10.276
tour	-10.2767
jk	-10.2769
addfilter	-10.2789
bw	-10.2796
ye	-10.2802
grade	-10.2805
create	-10.2809
nn	-10.2821
pink	-10.2829
expert	-10.2829
kj	-10.2839
machine	-10.2847
customers	-10.2863
zone	-10.2864
nub	-10.2871
pogoda	-10.2878
nv	-10.2896
league	-10.2904
stone	-10.2911
gumtree	-10.2912
lee	-10.2916
ei	-10.2918
)	-10.2921
fabricante	-10.2924
national	-10.2934
today	-10.2935
united	-10.2948
ray	-10.2954
estate	-10.2958
zdv	-10.2961
mam	-10.2964
money	-10.2964
province	-10.2967
short	-10.2985
__2	-10.2987
galaxy	-10.2993
upload	-10.2996
whocalled	-10.3008
sexy	-10.3015
kn	-10.3024
archives	-10.3036
rm	-10.3037
lake	-10.305
quote	-10.3051
young	-10.3056
study	-10.3062
rk	-10.3063
tb	-10.3072
gy	-10.3079
-12-	-10.3081
education	-10.3087
itemid	-10.3113
bt	-10.3115
our	-10.3129
material	-10.3129
change	-10.3149
rating	-10.317
europe	-10.3173
ez	-10.3179
hiphop	-10.3198
ameblo	-10.3213
tc	-10.3224
120	-10.3228
amateur	-10.3237
wear	-10.324
zm	-10.3243
yn	-10.3246
fy	-10.3248
rw	-10.3249
bus	-10.3254
mercedes	-10.3274
iy	-10.3275
redtube	-10.3279
ton	-10.3282
network	-10.3283
rope	-10.3283
smith	-10.3284
electric	-10.3296
only	-10.3297
objid	-10.33
vp	-10.3327
spanish	-10.3328
dh	-10.3329
whitepages	-10.3346
complete	-10.3346
signup	-10.3361
asian	-10.3368
eur	-10.337
ix	-10.3377
pattern	-10.3378
wm	-10.3381
categoria	-10.3386
lw	-10.3395
truck	-10.3395
ow	-10.34
unixtimestamp	-10.3402
factory	-10.3418
sun	-10.3429
ianyancha	-10.3445
vr	-10.3447
kk	-10.345
reg	-10.3452
rebonline	-10.3461
fire	-10.3463
research	-10.3463
footway	-10.3464
encoding	-10.3466
fx	-10.3467
vu	-10.3468
brands	-10.348
cartreview	-10.3486
tool	-10.349
src	-10.3491
caili	-10.3505
6%8	-10.3512
term	-10.3515
videolar	-10.3518
booking	-10.3522
idx	-10.3524
pack	-10.3528
myaym	-10.3529
avakfi	-10.353
hasanho	-10.353
pop	-10.354
general	-10.3545
che	-10.3558
asia	-10.3594
._.(	-10.3622
1000	-10.3623
lab	-10.3627
wikileaks	-10.3635
christmas	-10.3639
gn	-10.3639
marketing	-10.3646
canada	-10.3649
discussion	-10.3656
japanese	-10.367
daniel	-10.3683
riandmi	-10.3686
dasins	-10.3686
wholesale	-10.3693
german	-10.3705
zg	-10.3705
afriedman	-10.3707
csrftoken	-10.3709
manualdir	-10.372
bel	-10.3729
geo	-10.3741
7%94%	-10.3742
syh	-10.3756
vg	-10.376
lightinthebox	-10.3763
nissan	-10.377
002	-10.3781
position	-10.3791
artist	-10.3807
ana	-10.3825
ice	-10.3828
japan	-10.3828
fast	-10.3833
central	-10.3842
123.	-10.3844
internet	-10.3859
building	-10.3861
101	-10.3869
cx	-10.3887
abis	-10.3903
tri	-10.3905
hw	-10.3906
fuer	-10.391
port	-10.3919
large	-10.3923
audi	-10.3931
handle	-10.3931
menu	-10.3932
mary	-10.3934
oc	-10.3934
express	-10.3937
band	-10.3956
39660	-10.3958
manager	-10.3961
herokuapp	-10.3967
face	-10.3977
37812	-10.398
adidas	-10.3983
35398	-10.3983
richard	-10.3985
marie	-10.3987
gas	-10.3988
imdb	-10.3989
pogody	-10.3994
church	-10.3997
cfec	-10.4002
ideas	-10.4007
hj	-10.401
volume	-10.4013
sectional	-10.4013
anal	-10.4022
realestate	-10.4023
searchweb	-10.4025
oy	-10.403
america	-10.4036
xy	-10.4046
fitness	-10.4047
tvolink	-10.4055
recept	-10.4058
rl	-10.4059
9%86%	-10.4062
path	-10.4067
str	-10.4079
od	-10.4092
wedding	-10.4094
qt	-10.4101
250	-10.4126
xc	-10.413
under	-10.4131
systems	-10.4134
zip	-10.4145
tom	-10.4159
hard	-10.416
station	-10.4163
yamaha	-10.419
flow	-10.4192
great	-10.4193
guides	-10.4199
colid	-10.4224
dingwei	-10.4228
information	-10.4229
step	-10.4231
8723754	-10.4238
resource	-10.4253
coliid	-10.4265
ig	-10.4277
issuu	-10.4279
jack	-10.4281
displaycondition	-10.4285
amzdp	-10.4286
switch	-10.4291
weight	-10.4292
xnxx	-10.4303
api	-10.4312
course	-10.4317
mal	-10.4318
ux	-10.4329
reclining	-10.4335
-6-	-10.4339
return	-10.4343
fg	-10.4345
mom	-10.4353
%90%	-10.4357
jn	-10.4359
patio	-10.437
wd	-10.4372
val	-10.4372
jw	-10.4378
ada	-10.4384
bee	-10.4389
wg	-10.4395
xw	-10.4401
level	-10.4409
student	-10.4411
iid	-10.4425
island	-10.4425
kijiji	-10.4425
records	-10.4427
sell	-10.4448
oa	-10.4454
rf	-10.4462
save	-10.4465
dg	-10.4471
wv	-10.4476
airbnb	-10.4484
xq	-10.449
register	-10.4491
3%83%88%	-10.4496
windows	-10.4498
ave	-10.4509
california	-10.4509
-100-	-10.4513
cond	-10.4513
photography	-10.4526
jj	-10.4547
magic	-10.4551
redirecturl	-10.4555
prod	-10.456
skin	-10.4567
fit	-10.4571
yr	-10.4582
yz	-10.4594
%22	-10.4606
gd	-10.4621
summer	-10.4622
300	-10.4624
microsoft	-10.4645
fk	-10.4654
controller	-10.4657
paris	-10.4662
reseau	-10.4662
bad	-10.4665
chevrolet	-10.4669
msg	-10.4671
oem	-10.4676
christian	-10.4676
!	-10.4687
zt	-10.4687
designs	-10.4709
container	-10.4716
douban	-10.4725
ali	-10.4725
lista	-10.4736
nk	-10.4743
2017.	-10.4746
rz	-10.4783
mtu	-10.4783
spec	-10.4785
answer	-10.4785
%80%	-10.4789
rss	-10.4812
inter	-10.4812
feed	-10.4815
dz	-10.4823
rg	-10.4841
interia	-10.4861
loveseat	-10.4862
texas	-10.4866
mix	-10.4873
mq	-10.4878
gun	-10.4884
ter	-10.4902
jl	-10.4916
route	-10.4917
pv	-10.4928
hg	-10.4928
just	-10.4928
database	-10.4935
projects	-10.4937
yh	-10.4943
gk	-10.4949
une	-10.4959
exp	-10.4966
members	-10.4967
xo	-10.4987
zq	-10.4992
dating	-10.4994
lr	-10.5008
ping	-10.5015
cap	-10.5015
holiday	-10.5019
cool	-10.5019
xi	-10.502
xp	-10.5022
mac	-10.5023
zp	-10.5023
xm	-10.5029
false	-10.5031
jc	-10.5038
=10001	-10.5038
gc	-10.5038
rp	-10.5039
pz	-10.505
lighting	-10.5051
kods	-10.5063
gnavi	-10.5066
dom	-10.5079
most	-10.5081
aj	-10.5081
bh	-10.5081
articles	-10.5084
-12	-10.5085
0%9	-10.5094
pot	-10.5095
frame	-10.5097
adult	-10.51
avy	-10.5103
tiodiningoutdoor	-10.5105
003	-10.5125
tan	-10.513
tips	-10.5132
santa	-10.5135
euro	-10.5141
userid	-10.5141
toggle	-10.5145
standard	-10.5154
novel	-10.5156
anne	-10.5164
citizen	-10.5193
manufacturer	-10.5199
discount	-10.5219
lib	-10.5226
ih	-10.5231
sko	-10.5232
listings	-10.5237
lady	-10.5254
loc	-10.526
eg	-10.5261
xvideos	-10.5271
ev	-10.5284
properties	-10.5285
stats	-10.5288
william	-10.5289
3%81%8	-10.5293
kt	-10.5293
ism	-10.5296
fw	-10.5299
mirror	-10.5299
dark	-10.5307
1%83%	-10.531
magazine	-10.5323
planet	-10.5331
wl	-10.5338
ym	-10.5341
maker	-10.5342
night	-10.5343
shopee	-10.5344
mega	-10.5346
chuanlongmotor	-10.5353
tax	-10.5379
note	-10.538
caf	-10.5381
fur	-10.5383
den	-10.5387
bestseller	-10.5391
technology	-10.5393
simple	-10.5402
mlb	-10.5403
kan	-10.5407
anna	-10.5409
advanced	-10.541
android	-10.5414
plastic	-10.5426
human	-10.5429
fish	-10.5432
lf	-10.5437
hx	-10.5439
zb	-10.5448
doi	-10.5455
xt	-10.5455
delete	-10.5457
heart	-10.5459
stand	-10.5484
orange	-10.5488
telefon	-10.5497
spring	-10.5499
mj	-10.5516
mobi	-10.5516
delta	-10.5518
echo	-10.5525
grey	-10.5531
george	-10.5542
%25	-10.5548
sina	-10.5549
ian	-10.555
olink	-10.5558
well	-10.5568
ball	-10.5572
gx	-10.5576
xiaoshuo	-10.5576
fang	-10.5584
6%96%	-10.5586
hof	-10.5593
123	-10.5605
royal	-10.5605
gid	-10.5612
ban	-10.562
decor	-10.5621
=6&	-10.5636
range	-10.5637
force	-10.5648
uv	-10.5652
angel	-10.5655
logsoku	-10.5659
jan	-10.566
llc	-10.5667
zj	-10.5669
creator	-10.5669
returnto	-10.5673
qi	-10.5675
companies	-10.5676
yl	-10.5679
rooms	-10.568
srt	-10.5682
hat	-10.5686
winter	-10.5689
eng	-10.5707
indian	-10.5717
hb	-10.5722
gj	-10.5727
apk	-10.5728
block	-10.5734
rstlst	-10.5735
engineering	-10.5737
symptoms	-10.574
px	-10.5742
%84%	-10.5752
360	-10.5753
0&	-10.5761
89%3	-10.5764
program	-10.5766
works	-10.5769
storeid	-10.5774
vid	-10.5781
keywords	-10.5781
florida	-10.5782
cast	-10.5785
150	-10.5795
football	-10.5796
quality	-10.5797
total	-10.5801
scott	-10.5802
registration	-10.5806
hans	-10.5811
fuck	-10.5811
pandora	-10.5813
%89%	-10.5817
woman	-10.5825
after	-10.5843
met	-10.5843
happy	-10.5846
fz	-10.5847
farmmachinery	-10.5871
playlist	-10.5876
sea	-10.5878
worksheet	-10.5881
ten	-10.5889
vm	-10.5892
nabytek	-10.5898
mag	-10.5902
010	-10.5907
gundem	-10.5907
jz	-10.5911
court	-10.5912
practice	-10.5917
kp	-10.5919
picture	-10.5922
=10&	-10.5923
ey	-10.5965
depositphotos	-10.5969
round	-10.5973
desk	-10.5975
micro	-10.5977
bv	-10.5983
yx	-10.5993
autos	-10.5994
xr	-10.5998
hv	-10.5999
5%85%	-10.6
700	-10.6006
-20-	-10.6006
jewelry	-10.6014
=15	-10.6018
cross	-10.6021
heureka	-10.6021
inch	-10.6022
craft	-10.6029
.1688.	-10.6033
jx	-10.6061
feature	-10.6062
hf	-10.6068
ox	-10.6088
tableware	-10.6129
mrl	-10.6133
faq	-10.6147
security	-10.6148
creative	-10.6149
uw	-10.6152
count	-10.6154
vx	-10.616
berg	-10.6165
loja	-10.6166
private	-10.6169
camera	-10.6174
wz	-10.6175
spokeo	-10.618
/12	-10.6202
dw	-10.6207
ski	-10.6209
jy	-10.621
promo	-10.6215
wk	-10.6216
week	-10.6227
gv	-10.6228
=20	-10.6235
will	-10.6249
wenku	-10.6256
algebra	-10.6257
need	-10.6266
jh	-10.6269
unit	-10.627
inn	-10.6285
diamond	-10.6286
zzhengle	-10.6288
rezepte	-10.6291
attachment	-10.6291
-33	-10.6309
busca	-10.6318
albums	-10.6319
pageid	-10.6329
stories	-10.6331
echris	-10.6345
gear	-10.635
string	-10.6351
lat	-10.6361
vv	-10.6378
wn	-10.6381
supply	-10.6388
charles	-10.6408
qz	-10.6411
flower	-10.6415
pagina	-10.6415
diesel	-10.6416
facet	-10.6417
solid	-10.642
vl	-10.6423
components	-10.6429
kancelarsky	-10.643
110	-10.6435
lacey	-10.6435
performance	-10.6435
srl	-10.6436
jg	-10.6441
sol	-10.6441
112	-10.6444
mexico	-10.6447
qr	-10.645
ness	-10.6464
ann	-10.6477
ken	-10.6482
finance	-10.6495
villa	-10.6498
yellow	-10.6498
nx	-10.6501
%97%	-10.651
treatment	-10.6516
loveseatsofabed	-10.653
tvstandsleather	-10.6531
sleeperottoman	-10.6533
toy	-10.6539
tim	-10.6541
yj	-10.6541
marca	-10.6549
trip	-10.6552
hall	-10.656
polo	-10.6565
bedroom	-10.6566
jose	-10.6578
quick	-10.658
sleeve	-10.6582
square	-10.6585
wq	-10.6595
duckdns	-10.6596
fbid	-10.6599
speed	-10.6599
trucksales	-10.6606
farm	-10.6606
uenc	-10.6608
sites	-10.6613
=12	-10.6618
floor	-10.6624
cj	-10.6628
don	-10.6642
recipes	-10.6648
subject	-10.6648
foursquare	-10.6649
barrel	-10.6659
oi	-10.6661
lin	-10.6671
est	-10.6675
kim	-10.6677
professional	-10.6692
140	-10.6694
option	-10.67
sam	-10.6711
repartie	-10.6722
eq	-10.6726
wire	-10.673
component	-10.6731
oubangbeier	-10.6736
shape	-10.6737
4&	-10.6743
match	-10.6744
cotton	-10.6747
wooden	-10.6751
;2020/	-10.6752
district	-10.6757
pod	-10.6761
sony	-10.6769
rate	-10.6771
kv	-10.6771
gf	-10.6782
england	-10.6787
cw	-10.6788
manga	-10.6793
write	-10.6795
yk	-10.6799
peoplefinders	-10.68
pool	-10.6803
qy	-10.6805
stainfantil	-10.6806
004	-10.6808
flag	-10.6809
wfd	-10.6809
gel	-10.681
tek	-10.6814
/16	-10.6816
call	-10.6819
fp	-10.682
benz	-10.6822
shu	-10.6832
xu	-10.6833
prefn	-10.6833
barbarana	-10.6835
prefv	-10.684
desktop	-10.6841
gta	-10.6842
ultra	-10.6842
serie	-10.6843
schem	-10.6848
sportwerk	-10.685
join	-10.6851
oj	-10.6851
nova	-10.6857
auroraf	-10.6858
xj	-10.6861
wc	-10.6861
yandex	-10.6874
zr	-10.6874
centre	-10.6881
mann	-10.6894
chris	-10.6899
river	-10.6906
ustiplast	-10.6907
italian	-10.6911
jv	-10.6914
tea	-10.6918
distance	-10.6924
uh	-10.6925
qp	-10.6926
publication	-10.6942
ij	-10.695
look	-10.6978
deal	-10.6992
=7&	-10.6995
huaqiang	-10.7003
postreview	-10.7008
yq	-10.7009
bazar	-10.7018
pydskm	-10.7022
livre	-10.7025
lj	-10.7035
urban	-10.7048
aq	-10.705
outlet	-10.7062
pierre	-10.7067
algo	-10.7076
lahorees	-10.7082
loss	-10.7087
3%82%8	-10.7098
flat	-10.7104
abc	-10.7105
demo	-10.7107
admin	-10.711
eye	-10.7112
/2019	-10.7124
vh	-10.7125
unlimited	-10.714
identifier	-10.7147
zn	-10.7147
dodge	-10.715
cum	-10.7154
zillow	-10.7169
fly	-10.7172
cq	-10.7191
activity	-10.7195
dance	-10.7204
where	-10.7206
xh	-10.721
jegs	-10.7214
xv	-10.7219
cal	-10.724
dia	-10.7241
stream	-10.7245
suzuki	-10.7248
cut	-10.7256
barcelona	-10.7258
das	-10.7263
mount	-10.7267
personal	-10.7273
energy	-10.7278
ler	-10.7287
div	-10.7288
buch	-10.7291
origin	-10.7295
build	-10.7298
resources	-10.7301
friends	-10.7305
sierra	-10.7314
lon	-10.732
clip	-10.732
bol	-10.7331
valley	-10.7335
partner	-10.7339
related	-10.7349
wowon	-10.7364
clusters	-10.7365
via	-10.7366
kat	-10.7373
let	-10.738
wheel	-10.7383
han	-10.7386
sets	-10.7391
medium	-10.7392
thr	-10.7408
gettyimages	-10.7419
anime	-10.7422
battery	-10.7425
tf	-10.7432
casual	-10.7434
embed	-10.7443
similar	-10.7449
children	-10.7461
guy	-10.7463
cabinet	-10.7464
industrial	-10.7471
uj	-10.7478
bill	-10.7485
yg	-10.749
fv	-10.7501
referring	-10.751
have	-10.7513
use	-10.7521
whoislookup	-10.7521
vehicle	-10.7535
screen	-10.7537
008	-10.7539
deals	-10.7573
chiebukuro	-10.758
realtor	-10.758
uri	-10.7585
fabric	-10.7594
denounce	-10.7596
furnit	-10.7601
gray	-10.7607
ehealthme	-10.761
uo	-10.7611
jq	-10.7616
kx	-10.7635
limited	-10.7637
shipping	-10.7642
three	-10.7655
academy	-10.7656
iko	-10.7666
basic	-10.7667
gate	-10.7668
africa	-10.7689
showmsg	-10.7693
qui	-10.77
sessid	-10.7701
child	-10.7709
theme	-10.7714
wf	-10.7716
fuel	-10.7717
7%8	-10.7722
reader	-10.7731
lisa	-10.7732
volvo	-10.7736
entretiens	-10.7741
105	-10.7741
009	-10.7743
feeds	-10.7744
culture	-10.7749
pq	-10.7749
drawer	-10.7757
vf	-10.7758
zk	-10.7764
lyrics	-10.7766
yoga	-10.7774
mer	-10.7776
official	-10.7778
tele	-10.7781
/14	-10.7781
ay	-10.7785
400	-10.7791
awnlyn	-10.7791
shopmarsh	-10.7791
teacher	-10.7793
yp	-10.7795
oq	-10.7798
una	-10.7798
pay	-10.78
istockphoto	-10.7801
ley	-10.7804
huantong	-10.7804
chjersey	-10.7806
epub	-10.7812
qk	-10.7819
wild	-10.7843
wj	-10.7848
-7-	-10.7851
lite	-10.7856
finder	-10.7859
template	-10.7862
biquge	-10.7862
ling	-10.7869
pj	-10.7872
iii	-10.7881
uvled	-10.7884
ker	-10.7884
solution	-10.7887
australia	-10.7895
horse	-10.7913
6%97%	-10.7914
foundation	-10.792
self	-10.7922
seat	-10.7931
jet	-10.7937
record	-10.794
nq	-10.7947
animal	-10.7953
servlet	-10.7954
zhidao	-10.7954
detoulouse	-10.7956
var	-10.7958
rq	-10.7967
attr	-10.7968
gratis	-10.7972
parallel	-10.7974
trans	-10.7983
sop	-10.7987
ham	-10.7988
deutsch	-10.801
chairs	-10.8018
thecarp	-10.8023
dream	-10.803
dam	-10.8033
selected	-10.8034
800	-10.8043
kia	-10.8043
ingwebsites	-10.8048
escort	-10.805
cable	-10.805
focus	-10.8075
choice	-10.8075
less	-10.8078
qw	-10.8092
university	-10.8098
-50-	-10.81
180	-10.8104
salary	-10.8106
frank	-10.8111
has	-10.8111
diet	-10.8113
chefkoch	-10.8115
rwl	-10.8119
boats	-10.8119
guru	-10.8122
shutterstock	-10.8132
=8&	-10.8145
near	-10.8147
005	-10.8148
pictures	-10.815
colorstoneworks	-10.8151
peoplesearch	-10.8153
hyundai	-10.8157
scholar	-10.8158
=30	-10.8159
/(	-10.8169
ql	-10.817
thai	-10.8171
sao	-10.8177
rbc	-10.8179
114	-10.8181
milf	-10.8182
iw	-10.8193
publicrecords	-10.8196
nice	-10.8197
venta	-10.8205
360.	-10.8217
female	-10.8218
tbl	-10.8218
102	-10.8219
letter	-10.8221
arla	-10.8222
latest	-10.8223
showroom	-10.8234
-30-	-10.8242
racing	-10.826
active	-10.8276
oe	-10.8277
cock	-10.8279
chevy	-10.8281
seo	-10.8289
secret	-10.8289
-11-	-10.8299
pussy	-10.8306
fcategories	-10.8307
corp	-10.8308
600	-10.8312
boat	-10.8313
ant	-10.8313
delivery	-10.8321
alex	-10.8326
rover	-10.8332
moon	-10.8336
jeep	-10.8338
cup	-10.8341
wheels	-10.8342
favorite	-10.8353
xf	-10.836
documents	-10.836
350	-10.8362
theblack	-10.8364
badoo	-10.8371
mart	-10.8375
lane	-10.8379
rbl	-10.8381
0000	-10.8382
skor	-10.8385
sitemap	-10.8395
imap	-10.8397
secure	-10.8407
goodreads	-10.841
garage	-10.8414
bz	-10.8435
joseph	-10.844
007	-10.844
lou	-10.8451
+%26+	-10.8453
sweet	-10.8456
marine	-10.8464
ize	-10.8469
why	-10.8473
tile	-10.8475
artikel	-10.8478
produkt	-10.8481
tank	-10.849
union	-10.8505
mizunoshop	-10.8509
shower	-10.8511
connect	-10.8514
72%3	-10.8515
125	-10.8524
race	-10.8525
0,	-10.8526
flash	-10.8531
nleytools	-10.8536
ovh	-10.8539
platform	-10.8545
cafepress	-10.8545
vc	-10.8546
logo	-10.855
rack	-10.8562
cards	-10.8567
jordan	-10.8567
interior	-10.8572
learning	-10.8578
fverde	-10.8585
plate	-10.8587
zf	-10.8589
nature	-10.8596
woodworking	-10.8599
agent	-10.8604
365	-10.8618
vj	-10.8624
casino	-10.8627
msgsend	-10.8628
any	-10.8632
blood	-10.8632
ron	-10.8637
ner	-10.8644
eeile	-10.8648
eric	-10.8656
supplies	-10.8659
mike	-10.8664
aux	-10.8684
-2018-	-10.8686
hashtag	-10.8687
kq	-10.8688
math	-10.8707
mazda	-10.8711
kategoria	-10.8721
simon	-10.8722
earth	-10.8732
ship	-10.8734
jf	-10.8743
dell	-10.875
seriya	-10.8751
qm	-10.8753
johnson	-10.8754
bulb	-10.8754
xk	-10.8756
haus	-10.8757
hbfdjxc	-10.8759
coupon	-10.8763
%95%	-10.8765
bell	-10.8769
pen	-10.8771
flowers	-10.8783
gal	-10.8784
mumuji	-10.8789
signin	-10.8793
lan	-10.8795
pain	-10.8799
mature	-10.8801
development	-10.8806
tables	-10.8811
8-%	-10.8813
financial	-10.8814
solar	-10.8815
dot	-10.8824
jersey	-10.8825
111	-10.883
jcid	-10.8831
zzfydjc	-10.884
=50	-10.8844
121	-10.8844
mountain	-10.8848
108	-10.8849
160	-10.8852
context	-10.8854
train	-10.8858
lq	-10.8859
3%83%95%	-10.8863
ment	-10.8863
ajax	-10.8865
eva	-10.8867
ellis	-10.8869
prime	-10.887
0-%	-10.8876
joe	-10.8877
marc	-10.8882
volkswagen	-10.8882
2017	-10.8884
trailer	-10.8884
homedepot	-10.8888
iso	-10.8891
sound	-10.8899
foot	-10.8899
karstadtsports	-10.8902
-15-	-10.8902
edge	-10.8903
boss	-10.8912
louis	-10.8914
vector	-10.892
god	-10.8921
uq	-10.8928
220	-10.8928
_1_	-10.893
driver	-10.8931
tire	-10.8939
rid	-10.8943
ben	-10.8943
grid	-10.8951
chinese	-10.8952
tq	-10.8955
zv	-10.8956
12103_	-10.8964
boutique	-10.8964
/17	-10.8972
ropa	-10.8978
iron	-10.8983
lb	-10.8993
qj	-10.9
=11	-10.9002
apps	-10.9005
201	-10.9012
meins	-10.9023
109	-10.9024
cha	-10.9027
ikyu	-10.9037
cate	-10.9042
campus	-10.9042
-2019-	-10.9043
wb	-10.9047
credit	-10.9054
xg	-10.9059
zhijia	-10.906
dojo	-10.9073
qn	-10.9092
western	-10.9093
-16	-10.91
'	-10.9101
fullscreen	-10.9108
=9&	-10.9109
vq	-10.911
prev	-10.911
safety	-10.9114
restaurants	-10.912
lit	-10.9121
ren	-10.9127
access	-10.9138
joy	-10.9141
jones	-10.9148
rad	-10.9161
boys	-10.9164
vision	-10.9164
zc	-10.9165
deviantart	-10.9166
noticias	-10.9166
sleep	-10.9169
repquote	-10.9175
massage	-10.9175
skyrock	-10.9177
lock	-10.9191
fresh	-10.9192
height	-10.9193
jump	-10.9194
qo	-10.9196
lamp	-10.9198
.51	-10.92
rec	-10.9208
clear	-10.9209
landmark	-10.9212
jim	-10.9214
productid	-10.9215
-2017-	-10.9215
tours	-10.9216
korean	-10.922
tee	-10.9221
reference	-10.9222
sakura	-10.9223
was	-10.9234
cmd	-10.9239
cache	-10.925
states	-10.926
diary	-10.9265
miss	-10.9271
mitsubishi	-10.9273
returnurl	-10.9283
awhang	-10.9287
designer	-10.9288
queen	-10.9298
odezhda	-10.9299
capital	-10.9303
crystal	-10.9306
2_2_	-10.9314
pcs	-10.9315
pedia	-10.9325
agenda	-10.9334
qg	-10.9339
-24-	-10.9339
monster	-10.935
lollipop	-10.9361
boots	-10.9371
dict	-10.9372
snow	-10.9374
four	-10.9381
legal	-10.9384
082	-10.9385
spa	-10.9386
006	-10.9393
ion	-10.9394
3%83%90%	-10.9394
qx	-10.9402
camp	-10.9403
times	-10.9409
103	-10.9422
%81%	-10.9431
chan	-10.9437
organic	-10.9439
consulting	-10.9444
solo	-10.9446
era	-10.9447
electrical	-10.9451
arena	-10.9454
stainless	-10.9456
antonio	-10.9458
138	-10.9461
elite	-10.9471
gitlab	-10.9472
ero	-10.9475
blu	-10.9478
fall	-10.9485
dictionary	-10.9497
mai	-10.9501
italia	-10.9519
xinchang	-10.9546
dale	-10.9548
counter	-10.9551
dv	-10.9553
golden	-10.9553
128	-10.9553
pol	-10.9562
dhgate	-10.9564
bq	-10.9575
chicago	-10.9577
maison	-10.958
commercial	-10.9583
=100&	-10.9592
106	-10.9595
know	-10.9597
realty	-10.9599
publishing	-10.9601
2019	-10.9605
eh	-10.9614
720	-10.9637
scheels	-10.9639
iframe	-10.9639
beautiful	-10.9645
9-%	-10.9651
bible	-10.9672
empresa	-10.9673
caller	-10.9695
aaaabaaaaaf	-10.9696
lunch	-10.9698
%98%	-10.9699
ink	-10.9708
chicken	-10.9721
9%81%	-10.9724
bird	-10.973
ej	-10.9733
static	-10.9741
rosa	-10.9759
=16	-10.9761
streaming	-10.9764
tai	-10.9774
jlid	-10.9774
jay	-10.9775
plant	-10.978
88.	-10.9781
sirka	-10.9785
onsale	-10.9788
cell	-10.9791
expand	-10.9793
government	-10.9794
017	-10.9803
radius	-10.9803
dis	-10.9805
stool	-10.9806
ud	-10.981
neu	-10.981
kov	-10.9811
deep	-10.9815
fine	-10.982
arm	-10.9825
laptop	-10.9825
pas	-10.983
7%99%	-10.9841
083	-10.9854
purple	-10.987
steve	-10.9873
spot	-10.9875
stephen	-10.9876
520	-10.9894
=20&	-10.9902
vie	-10.9907
vic	-10.9918
pick	-10.9919
col	-10.992
kb	-10.992
kc	-10.9923
104	-10.9923
moda	-10.9923
destination	-10.9924
pass	-10.9932
drug	-10.9936
=12&	-10.9936
081	-10.9938
topsales	-10.995
trading	-10.9974
agency	-10.9975
https	-10.9976
cushions	-10.9982
berlin	-10.9992
friend	-10.9997
cute	-11
nsw	-11.0002
174	-11.0005
salon	-11.001
qh	-11.0014
012	-11.0018
zen	-11.002
pump	-11.0021
metro	-11.0025
senior	-11.0038
washington	-11.0047
113	-11.0061
kai	-11.0062
renault	-11.0067
window	-11.0074
adc	-11.0082
disney	-11.0085
second	-11.0097
museum	-11.01
eki	-11.0108
avito	-11.0113
village	-11.0119
shirts	-11.0129
raw	-11.0131
icon	-11.0131
making	-11.0133
#!	-11.014
handbook	-11.0141
row	-11.0142
century	-11.0147
leg	-11.0148
touch	-11.0151
wind	-11.0153
orderby	-11.0164
analysis	-11.0167
mono	-11.0168
days	-11.0169
andreas	-11.017
against	-11.0179
fix	-11.0195
career	-11.0196
medicine	-11.0198
rug	-11.0201
victoria	-11.0202
industry	-11.0209
qv	-11.0214
ria	-11.0216
zd	-11.0218
watchlist	-11.0219
bags	-11.0224
neo	-11.0233
zoom	-11.0235
beer	-11.0235
zhuti	-11.0236
neck	-11.0243
cash	-11.0244
colour	-11.0255
words	-11.0257
telius	-11.0277
header	-11.0281
gifts	-11.0283
116	-11.0284
adam	-11.0287
russian	-11.0295
$	-11.0298
themike	-11.0299
trend	-11.0305
notes	-11.0307
death	-11.0313
rsmith	-11.0318
.123	-11.0323
expedia	-11.0324
padding	-11.0326
%92%	-11.0329
glassdoor	-11.033
taylor	-11.0338
bob	-11.0342
take	-11.0342
190	-11.0344
flex	-11.0364
115	-11.0366
avec	-11.0368
inventory	-11.0383
five	-11.0385
male	-11.0391
------------	-11.0394
freedom	-11.0397
))/	-11.0401
130	-11.0404
-2016-	-11.0405
011	-11.0406
wallpaper	-11.0409
osaka	-11.0412
universal	-11.0419
hospital	-11.0419
pri	-11.042
pure	-11.042
motorcycle	-11.0422
dx	-11.0422
colombia	-11.0423
showpost	-11.0424
blonde	-11.0425
hardware	-11.0439
240	-11.044
chart	-11.0448
electronic	-11.0451
fishing	-11.0458
126	-11.0469
loan	-11.0474
yv	-11.0481
avto	-11.0482
013	-11.0483
lastname	-11.0488
205	-11.0495
ger	-11.0503
122	-11.0504
3%9	-11.0504
kudos	-11.0504
poly	-11.0505
idealista	-11.0509
colegio	-11.0513
wilson	-11.0514
jacket	-11.0518
instant	-11.0521
dragon	-11.0522
cdn	-11.0527
ftent	-11.0529
bridge	-11.0537
rank	-11.0542
bench	-11.0545
,%20	-11.0548
character	-11.0554
portable	-11.0555
seller	-11.0558
semi	-11.056
move	-11.0561
=40	-11.0562
quotes	-11.0563
.))	-11.0567
qf	-11.0571
nude	-11.0573
mobil	-11.0591
ful	-11.0593
likes	-11.0593
nuvas	-11.0597
170	-11.06
-2015-	-11.0603
172	-11.0603
dental	-11.0608
pizza	-11.0609
dns	-11.0613
adapter	-11.0613
cream	-11.0616
086	-11.0617
release	-11.0618
pocket	-11.0621
450	-11.0622
got	-11.0623
retro	-11.063
166	-11.063
aya	-11.0632
acr	-11.0634
pics	-11.0638
=14	-11.0643
juan	-11.0645
disneytu	-11.0649
dry	-11.0651
damen	-11.0652
petit	-11.0654
=25	-11.0654
usb	-11.0654
cho	-11.0658
monotaro	-11.066
=13	-11.0666
alan	-11.0667
adde	-11.0673
sel	-11.0685
__5	-11.0686
automotive	-11.069
harness	-11.0692
legacy	-11.0697
insurance	-11.0699
ucfan	-11.0704
carro	-11.0704
society	-11.0705
-2014-	-11.0712
linda	-11.0714
resort	-11.0716
jeans	-11.0717
holder	-11.0718
button	-11.0722
bet	-11.0723
running	-11.0727
015	-11.0727
ever	-11.0739
corner	-11.074
leon	-11.0742
dresses	-11.0744
203	-11.075
transport	-11.0751
walmart	-11.0753
here	-11.0757
follow	-11.0757
230	-11.0759
lagu	-11.0764
learn	-11.0766
fat	-11.0766
plaza	-11.0771
when	-11.0775
viewthread	-11.0782
fantasy	-11.0784
pixnet	-11.0789
%83%	-11.0791
pur	-11.0798
schuhe	-11.0802
templates	-11.0809
fiat	-11.0813
recruit	-11.0825
entertainment	-11.0826
scene	-11.0828
oak	-11.0832
myfish	-11.0836
nik	-11.084
%91%	-11.0843
-2020-	-11.0843
stage	-11.085
=4340	-11.0851
650	-11.0852
accent	-11.0863
stan	-11.0866
andrew	-11.0867
ottoman	-11.0868
michel	-11.0868
department	-11.0871
uf	-11.0876
ue	-11.0882
navi	-11.0883
safe	-11.0885
tie	-11.0887
fil	-11.0891
common	-11.0893
activities	-11.0901
addtolist	-11.0904
marka	-11.0913
baseball	-11.0916
-100	-11.092
cinema	-11.0927
/22	-11.0928
sugar	-11.0932
hsn	-11.0934
fort	-11.0937
153	-11.0938
final	-11.0938
aqua	-11.0945
deutschland	-11.0958
submitaction	-11.0972
sarah	-11.0978
yyxcaaaaa	-11.0979
sourcepage	-11.0989
wife	-11.099
chip	-11.0993
specials	-11.0995
ub	-11.0997
badges	-11.0999
8%80%83%	-11.1004
mining	-11.1005
jex	-11.1006
beta	-11.1008
findcomment	-11.1008
dans	-11.1009
mloca	-11.1011
3%83%87%	-11.1012
-60-	-11.1015
blogarchive	-11.1016
ticket	-11.1019
novelupdates	-11.102
msn	-11.1022
442	-11.1028
mil	-11.103
(1)	-11.1032
dick	-11.1033
129	-11.1034
har	-11.1044
shi	-11.1044
mind	-11.1048
notebook	-11.1065
poi	-11.1066
9%83%	-11.1068
turbo	-11.1068
avenue	-11.1073
luxury	-11.1076
ash	-11.1077
hosting	-11.1081
grande	-11.1084
175	-11.1089
crew	-11.1094
085	-11.11
cook	-11.1102
-18-	-11.1113
tits	-11.112
tricky	-11.1121
apartments	-11.1128
locale	-11.1133
168	-11.1136
3%83%86%	-11.1137
current	-11.1137
-16-	-11.1143
lux	-11.1145
painting	-11.1147
protection	-11.115
int	-11.1153
yic	-11.1154
hai	-11.1157
tec	-11.1158
nie	-11.1164
201602_	-11.1171
201603_0	-11.1174
=50&	-11.1185
peugeot	-11.1185
load	-11.1196
straight	-11.1198
-14-	-11.1199
mas	-11.1207
facilities	-11.1208
-25-	-11.1215
lol	-11.1215
introduction	-11.1221
084	-11.1225
nov	-11.1235
spacecp	-11.1239
kudoentity	-11.1242
police	-11.1247
piano	-11.1248
hit	-11.1254
huawei	-11.1257
auf	-11.1261
patrick	-11.1264
lead	-11.1269
oid	-11.1277
allen	-11.1286
myb	-11.1286
laura	-11.1287
hentai	-11.1287
jam	-11.1296
roll	-11.1298
131	-11.1299
/23	-11.1303
writing	-11.1308
chintai	-11.1309
clinic	-11.1319
parfum	-11.1324
191	-11.1335
brake	-11.134
202	-11.1347
750	-11.1349
prefecture	-11.1355
107	-11.1362
places	-11.1366
but	-11.1366
kf	-11.1369
roblox	-11.1375
paint	-11.1385
elizabeth	-11.1393
carolina	-11.1398
ultimate	-11.1402
andre	-11.1404
replacement	-11.1407
atharol	-11.1408
dsbeachclub	-11.1408
brian	-11.1416
guitar	-11.1422
transmission	-11.1422
session	-11.1424
hunter	-11.1426
reading	-11.1428
forest	-11.1442
420	-11.1443
far	-11.1446
ocean	-11.1449
ity	-11.1462
memorial	-11.1463
tip	-11.1469
zoo	-11.1471
rental	-11.1472
things	-11.148
deck	-11.1481
katalog	-11.1481
gourmet	-11.1483
149	-11.1489
inches	-11.1492
score	-11.1499
alexander	-11.1503
orren	-11.1506
livingroom	-11.1507
catid	-11.1507
210	-11.1509
rod	-11.1509
canvas	-11.1523
tablet	-11.1526
kindle	-11.1529
900	-11.1535
boards	-11.1537
perfect	-11.1538
williams	-11.1538
italy	-11.1542
tin	-11.1546
upholstered	-11.156
wolf	-11.156
mir	-11.1562
sheet	-11.1566
null	-11.1567
156	-11.1568
device	-11.1574
tokopedia	-11.1574
bang	-11.1576
own	-11.1588
roman	-11.1605
bookmark	-11.1608
sap	-11.1609
miller	-11.1615
films	-11.1618
belt	-11.1618
donna	-11.162
rich	-11.1622
/100	-11.1623
trendytre	-11.1634
recherche	-11.1635
roy	-11.1636
technologies	-11.1636
zpid	-11.1637
171	-11.1638
bear	-11.164
gia	-11.1657
147	-11.1663
wei	-11.1665
she	-11.1666
2020	-11.1669
999	-11.167
catalogue	-11.167
pipe	-11.167
320	-11.1675
atlas	-11.1676
_0&	-11.1678
ribbon	-11.1683
researchgate	-11.1685
femme	-11.1692
jane	-11.1693
vpn	-11.1698
length	-11.1701
soccer	-11.1706
alp	-11.1708
hao	-11.171
babe	-11.1712
%94%84%	-11.1715
annuaire	-11.1721
twin	-11.1738
reverse	-11.1754
emplois	-11.1758
loworigin	-11.1762
014	-11.177
088	-11.177
501	-11.1773
=56	-11.1778
stuff	-11.178
brasil	-11.1784
try	-11.1807
8%82%	-11.1808
:%22	-11.1819
psychologytoday	-11.1841
sensor	-11.1841
sample	-11.1845
coach	-11.1845
steamcommunity	-11.1851
floral	-11.1852
java	-11.1861
ate	-11.1868
=100	-11.1869
theater	-11.1887
latitude	-11.1888
tweet	-11.1893
luis	-11.1894
142	-11.1896
vet	-11.19
=11&	-11.1903
%86%	-11.1905
158	-11.1906
flight	-11.1908
recipe	-11.1909
155	-11.1916
abstract	-11.1919
virtual	-11.192
151	-11.192
paulo	-11.1922
illustration	-11.1923
cpath	-11.1923
antique	-11.1926
barbara	-11.1932
hay	-11.1934
survey	-11.1936
chem	-11.1941
rfq	-11.195
barn	-11.1952
bookmaker	-11.1954
9%87%	-11.1958
pagesize	-11.1964
fans	-11.1967
virginia	-11.1968
chain	-11.1977
forex	-11.1978
nation	-11.1996
bigr	-11.2
adventure	-11.2006
lifestyle	-11.2007
naver	-11.2009
clean	-11.2015
coast	-11.2017
249	-11.2024
cleaner	-11.2027
spirit	-11.2037
hero	-11.2042
cost	-11.2043
jon	-11.2045
metric	-11.205
essay	-11.2052
ent	-11.2055
235	-11.2056
json	-11.2057
tor	-11.2058
mont	-11.2067
gforce	-11.2073
lace	-11.2075
webcam	-11.2083
168.	-11.2088
kinder	-11.2094
sim	-11.2094
manufacturers	-11.2095
255	-11.2096
too	-11.2101
jasmin	-11.2108
studios	-11.2127
francais	-11.2129
background	-11.2129
sonic	-11.2132
118	-11.2139
162	-11.2145
xiazai	-11.2146
shelf	-11.2154
rev	-11.2159
translation	-11.216
hzsmyc	-11.2165
145	-11.2166
135	-11.2166
gem	-11.2168
1168	-11.2169
jav	-11.2173
haber	-11.2174
gmc	-11.2175
trk	-11.2176
087	-11.2183
contributions	-11.2189
craigslist	-11.2192
healthcare	-11.2196
tabilist	-11.2213
cleaning	-11.2215
nicovideo	-11.2225
garcia	-11.2234
3%8	-11.2237
extattr	-11.2239
coop	-11.224
method	-11.2243
basket	-11.2245
aff	-11.2245
444	-11.2248
wan	-11.2258
birthday	-11.226
117	-11.2261
referer	-11.2262
-13-	-11.2265
slide	-11.2268
075	-11.2269
139	-11.227
%97%98%	-11.2274
ladies	-11.2291
206	-11.2299
ace	-11.2305
4%8	-11.2313
motors	-11.2317
isbn	-11.2318
dealer	-11.2319
ans	-11.232
247	-11.2324
denavigation	-11.2327
181	-11.2329
susan	-11.2331
bow	-11.2336
tur	-11.2341
electedex	-11.2342
195	-11.2342
attrset	-11.2342
kelly	-11.2342
nick	-11.2343
pvid	-11.2347
maintenance	-11.235
lesbian	-11.235
hip	-11.2352
ara	-11.2353
mill	-11.2353
tennis	-11.2362
soul	-11.2363
wow	-11.2368
cybo	-11.2368
arts	-11.2369
nbclsz	-11.2372
lipo	-11.2373
mult	-11.2374
random	-11.2383
poster	-11.2384
jun	-11.2386
mama	-11.2388
-2013-	-11.239
laser	-11.239
tony	-11.239
154	-11.239
144	-11.2391
157	-11.2393
018	-11.2394
016	-11.2396
sofas	-11.2399
%96%	-11.2404
ano	-11.2412
opel	-11.2413
grove	-11.2414
modell	-11.2421
creek	-11.2428
310	-11.2428
stein	-11.2438
makeup	-11.2443
flickr	-11.2448
3%83%89%	-11.2449
dem	-11.2459
canon	-11.2462
mujer	-11.2462
searcher	-11.2462
usados	-11.2466
:1	-11.247
chen	-11.2472
relevance	-11.2476
ation	-11.2477
federal	-11.2485
meta	-11.2501
192	-11.2506
studies	-11.2507
ish	-11.2509
att	-11.2512
policy	-11.2518
libro	-11.252
acid	-11.2525
wireless	-11.2529
+-+	-11.2532
lights	-11.2532
pricerange	-11.2535
cities	-11.2535
ques	-11.2545
brain	-11.2546
%82%	-11.2546
133	-11.255
1%26	-11.2559
integro	-11.2559
kar	-11.2561
porter	-11.2568
183	-11.2569
nih	-11.2569
exchange	-11.2573
egg	-11.2575
offset	-11.2583
mis	-11.2587
215	-11.2598
___	-11.2598
holland	-11.26
future	-11.2603
occasion	-11.2603
christopher	-11.2605
3%83%91%	-11.2609
pencil	-11.2611
sortby	-11.262
does	-11.2624
models	-11.2625
nach	-11.2631
manuel	-11.2634
185	-11.2634
911	-11.2639
send	-11.264
flights	-11.2645
around	-11.2646
tractor	-11.2647
typ	-11.2649
tex	-11.2649
wie	-11.2649
henry	-11.265
zero	-11.2651
zum	-11.2654
oliver	-11.2655
obuv	-11.2657
290	-11.2659
=16&	-11.266
cswitch	-11.2662
222	-11.2664
width	-11.2665
216	-11.2667
carros	-11.2669
odg	-11.267
124	-11.2673
182	-11.2678
bosch	-11.268
heavy	-11.2681
225	-11.2684
3%83%97%	-11.2693
019	-11.2696
modules	-11.2697
tra	-11.2698
204	-11.2701
lenovo	-11.2702
187	-11.2704
nam	-11.2709
navy	-11.271
184	-11.2713
funny	-11.2715
sara	-11.2721
cape	-11.2725
schwarz	-11.2727
russia	-11.2735
ber	-11.2736
rear	-11.2738
comic	-11.2741
291	-11.2744
bottle	-11.2751
hope	-11.2758
shoe	-11.276
-17-	-11.2761
kate	-11.2761
excel	-11.2762
airport	-11.2769
pants	-11.2771
ncid	-11.2771
sem	-11.2772
phd	-11.2772
miami	-11.2776
june	-11.2776
132	-11.2783
monthly	-11.2788
baitong	-11.2788
fol	-11.2789
staff	-11.2797
152	-11.2799
trim	-11.2801
auth	-11.281
blade	-11.281
colorado	-11.2811
normal	-11.2812
joven	-11.2814
ung	-11.2815
camping	-11.2815
speedwaymotors	-11.2815
widgettype	-11.2816
127	-11.2817
root	-11.2819
arte	-11.2825
xin	-11.2825
176	-11.2828
498	-11.283
tickets	-11.283
monitor	-11.2831
alfa	-11.2832
245	-11.2836
task	-11.2847
kid	-11.2849
into	-11.285
lar	-11.2851
mor	-11.2852
cylex	-11.2853
sta	-11.2859
365.	-11.2863
lounge	-11.2864
process	-11.2866
shared	-11.2867
kawasaki	-11.2871
submit	-11.2879
rom	-11.2892
020	-11.2896
fair	-11.2899
owner	-11.29
lina	-11.2904
hidden	-11.2907
3%87%	-11.2914
beijing	-11.2916
resume	-11.292
wave	-11.292
stars	-11.2926
freelancer	-11.2933
gym	-11.2934
=15&	-11.2938
firstname	-11.2939
lift	-11.2945
costa	-11.295
coloring	-11.2954
uploads	-11.2961
7%95%	-11.2963
montreal	-11.2967
dmovie	-11.2967
lid	-11.2977
208	-11.2983
cake	-11.2992
146	-11.3
fwrd	-11.3005
dubai	-11.3005
gaming	-11.301
better	-11.3019
165	-11.3019
biodiversity	-11.3019
genealogy	-11.302
221	-11.302
231	-11.3025
%94%	-11.3027
corporation	-11.303
tmall	-11.3043
dutch	-11.3047
173	-11.305
centro	-11.3051
kor	-11.3056
=30&	-11.3056
kingdom	-11.3057
9%82%	-11.3059
articulo	-11.3067
profil	-11.3068
features	-11.3069
cmp	-11.307
8%9	-11.3073
mia	-11.3074
-19-	-11.3075
dic	-11.3077
linux	-11.308
magazin	-11.3086
189	-11.3087
germany	-11.3089
expressrailtruth	-11.3094
bez	-11.3099
254	-11.3102
harley	-11.3105
grace	-11.3109
drop	-11.3112
=24	-11.3115
bon	-11.3115
=01000500000050	-11.3119
198	-11.3119
ext	-11.3123
223	-11.3125
nye	-11.3133
167	-11.3139
featured	-11.3141
169	-11.3142
leo	-11.3142
hong	-11.3143
carbon	-11.315
conaval	-11.3151
vertical	-11.3152
acc	-11.3152
matt	-11.3158
251	-11.317
jooble	-11.3186
186	-11.3187
imoveis	-11.3197
engineer	-11.32
kevin	-11.3202
pat	-11.3203
mah	-11.3205
grill	-11.3206
voice	-11.3208
tracking	-11.3211
qty	-11.3214
previous	-11.3219
164	-11.3222
graphic	-11.3222
yf	-11.3225
transfer	-11.3225
srchtxt	-11.323
148	-11.3232
years	-11.3236
tiso	-11.3238
apartment	-11.324
searchsubmit	-11.3242
walk	-11.3246
330	-11.3251
bbc	-11.3252
-40-	-11.3253
hom	-11.3254
vor	-11.3261
nord	-11.3262
270	-11.3262
british	-11.3265
071	-11.3267
prep	-11.3267
tovar	-11.3273
211	-11.3276
vista	-11.3279
forecast	-11.3289
songs	-11.3291
gender	-11.3294
espanol	-11.3298
jackson	-11.3298
dogs	-11.3299
777	-11.3311
festival	-11.3316
army	-11.3316
odamay	-11.3317
dao	-11.332
august	-11.332
lcd	-11.3322
159	-11.3323
leaf	-11.3325
ryan	-11.333
europa	-11.3335
456	-11.3338
1-%	-11.334
battle	-11.334
harbour	-11.3342
232	-11.3346
bing	-11.3355
visit	-11.3356
zalando	-11.3357
amzn	-11.3359
fund	-11.3364
feedback	-11.3364
280	-11.3366
chef	-11.3368
gang	-11.3371
than	-11.3372
palm	-11.3379
ami	-11.3383
import	-11.3387
phoenix	-11.339
hermanov	-11.339
vinyl	-11.3391
dayton	-11.3393
nsn	-11.3397
slim	-11.3401
3%5	-11.3401
categoryid	-11.3405
offsite	-11.3407
ceramic	-11.3408
=60	-11.3413
kay	-11.3416
trademe	-11.3419
kin	-11.342
foro	-11.3428
izap	-11.3429
accesorios	-11.3429
austin	-11.3431
%93%	-11.3435
navitime	-11.344
steven	-11.3442
trail	-11.3445
tam	-11.3447
415	-11.3448
peru	-11.3459
213	-11.3462
racer	-11.3463
233	-11.3467
lost	-11.3469
toronto	-11.3472
left	-11.348
fab	-11.3482
134	-11.3484
carlos	-11.3485
ranking	-11.3491
opuebla	-11.3492
karen	-11.3497
pieces	-11.3499
=36	-11.3499
_6%3	-11.3502
mania	-11.3504
meteo	-11.3504
explore	-11.351
137	-11.3513
179	-11.3515
fee	-11.3516
terra	-11.3531
francisco	-11.3534
nom	-11.3534
southern	-11.3535
kind	-11.3538
beyond	-11.3543
therapists	-11.3551
hobby	-11.3556
=25&	-11.3558
livejasmin	-11.3558
417	-11.3559
explorer	-11.3568
143	-11.3569
noir	-11.3569
188	-11.3574
265	-11.3584
verde	-11.3584
very	-11.3585
assistant	-11.359
middle	-11.3591
oodle	-11.3595
floryday	-11.36
vyrobce	-11.3612
226	-11.3614
cushion	-11.3616
rci	-11.362
197	-11.3622
jesus	-11.3622
norte	-11.3625
his	-11.3625
136	-11.3627
clips	-11.3627
079	-11.3629
scale	-11.3631
drama	-11.3633
dcat	-11.3636
411	-11.3636
sdjieshui	-11.3643
markt	-11.3643
calculator	-11.3644
hotsearch	-11.3649
630	-11.365
klein	-11.365
basketball	-11.365
yan	-11.3651
hal	-11.3652
rain	-11.3654
gmbh	-11.3658
253	-11.366
citroen	-11.3663
jennifer	-11.3671
arthritis	-11.3672
bestprice	-11.3672
histoire	-11.3672
youth	-11.3672
sears	-11.3676
161	-11.3681
177	-11.3681
_(	-11.3686
xls	-11.3688
seek	-11.3688
linguee	-11.369
nii	-11.3692
payments	-11.3693
_2_	-11.3694
178	-11.3702
unique	-11.3703
ohio	-11.3705
operations	-11.3708
walker	-11.3712
emma	-11.3713
315	-11.3714
andrea	-11.3715
worth	-11.3717
moi	-11.3718
ooo	-11.3719
pgn	-11.3723
georgia	-11.3726
kengat	-11.3726
saw	-11.3728
housing	-11.3729
hello	-11.3731
desde	-11.3735
cms	-11.3736
inside	-11.374
horn	-11.3744
oxford	-11.3744
=18	-11.3744
concept	-11.3745
vegas	-11.3751
227	-11.3757
chest	-11.3758
phonechecker	-11.3764
370	-11.3765
163	-11.3772
tal	-11.378
tlw	-11.3784
ald	-11.3785
=17	-11.3785
=35	-11.3796
252	-11.3798
zozo	-11.38
motion	-11.3806
robesonian	-11.3807
214	-11.3812
7266.	-11.3815
recommendation	-11.3816
ancestry	-11.3817
lix	-11.382
clothes	-11.3821
moore	-11.3821
439	-11.3828
ich	-11.3829
circle	-11.3832
bach	-11.3841
popup	-11.3842
ster	-11.385
rest	-11.385
199	-11.3851
nursing	-11.3852
089	-11.3855
wise	-11.3857
sha	-11.3858
redlink	-11.3859
194	-11.3867
balance	-11.3873
rep	-11.3873
using	-11.3877
hop	-11.3881
buzz	-11.3888
politics	-11.3891
dailymotion	-11.3892
pressure	-11.3898
tienda	-11.3901
119	-11.3903
boston	-11.3903
through	-11.3905
eagle	-11.3907
wattpad	-11.3909
guest	-11.391
256	-11.3911
biscuit	-11.3911
checkprice	-11.3914
vehiculos	-11.3916
burg	-11.3922
218	-11.3931
institute	-11.3935
stay	-11.3936
huaban	-11.3938
welt	-11.3941
hose	-11.3945
zoopla	-11.3955
3%83%96%	-11.3957
anthony	-11.3961
ceneo	-11.3962
junior	-11.3965
enwam	-11.3966
anderson	-11.3968
770	-11.3968
mercury	-11.3976
houston	-11.3976
academic	-11.3977
trust	-11.398
baike	-11.3981
wendang	-11.399
axn	-11.3991
daterange	-11.3995
paperback	-11.3997
sterling	-11.3999
cooking	-11.4004
/10/	-11.4009
bit	-11.4009
monte	-11.4014
naya	-11.4018
superstan	-11.4019
236	-11.4023
wide	-11.4023
lincoln	-11.4027
say	-11.4031
9%80%	-11.4036
detektywi	-11.4037
hant	-11.4038
mint	-11.404
dong	-11.4043
carl	-11.4046
234	-11.405
madrid	-11.4053
mercari	-11.4054
077	-11.4055
078	-11.4059
cuisine	-11.406
193	-11.406
228	-11.406
offers	-11.4062
bug	-11.4077
666	-11.4078
cycle	-11.4083
wines	-11.4084
tiger	-11.4098
therapy	-11.4103
dual	-11.4103
theatre	-11.4104
%20-%20	-11.4107
berry	-11.4109
tao	-11.4111
accuweather	-11.4113
confundido	-11.4114
karl	-11.4121
pagenum	-11.4123
heat	-11.4128
automatic	-11.4128
gpi	-11.4131
410	-11.4134
jptel	-11.4138
sku	-11.4138
medina	-11.4147
papers	-11.4147
cherry	-11.4154
238	-11.4156
264	-11.4157
sink	-11.4159
6%80%	-11.4162
rome	-11.4162
beds	-11.4163
1%87%	-11.4163
checkout	-11.4166
umeval	-11.4169
alias	-11.4179
bakusai	-11.4182
links	-11.4185
pearl	-11.4185
tipo	-11.4192
mlm	-11.4196
png	-11.4197
experience	-11.4197
strong	-11.4201
diagnosis	-11.4202
xxl	-11.4204
244	-11.4206
showtopic	-11.4207
rikunabi	-11.4208
trucks	-11.421
doll	-11.421
candy	-11.4218
monde	-11.4224
+%28	-11.4226
pets	-11.4226
healthy	-11.4227
arabic	-11.4228
dead	-11.4229
essential	-11.4235
director	-11.4236
memory	-11.4237
topics	-11.424
076	-11.4244
237	-11.4249
tagged	-11.4251
ruten	-11.4256
schedule	-11.4257
asus	-11.4258
diego	-11.4261
nail	-11.4264
ross	-11.4264
212	-11.4265
pagesjaunes	-11.427
mad	-11.4275
ireland	-11.4277
poli	-11.4279
mry	-11.4279
pafoundation	-11.4285
168/	-11.4287
tap	-11.4289
kleinanzeigen	-11.4293
preview	-11.4301
rick	-11.4302
budget	-11.4303
working	-11.4305
219	-11.4306
hyper	-11.4306
warehouse	-11.4311
hart	-11.4312
rise	-11.4313
380	-11.4318
502	-11.4318
bei	-11.4321
mei	-11.4323
postcount	-11.4324
szamok	-11.4324
209	-11.4325
telephone	-11.4326
cor	-11.4328
davis	-11.4335
074	-11.4336
bot	-11.4336
480	-11.4336
prof	-11.4336
5%82	-11.4345
empire	-11.4348
/123	-11.4348
glosbe	-11.435
oblast	-11.435
ppt	-11.4353
gracecommunity	-11.4354
tires	-11.4356
tracker	-11.4361
external	-11.4363
players	-11.4363
decoration	-11.4364
merdb	-11.4364
wordunscrambler	-11.4366
850	-11.4367
pmid	-11.4369
bella	-11.4374
rey	-11.4375
560	-11.4378
saudiarabia	-11.4378
ridge	-11.438
lauren	-11.4383
schools	-11.4386
angeles	-11.4387
veoh	-11.4389
geni	-11.439
duo	-11.4392
lawyer	-11.4402
silk	-11.4404
mehr	-11.4407
casad	-11.4408
corporate	-11.4411
239	-11.4412
arizona	-11.4422
%88%	-11.4423
roger	-11.4425
dad	-11.4427
filterbysta	-11.4431
edward	-11.4438
srp	-11.4443
196	-11.4444
460	-11.4446
dynamo	-11.4447
302	-11.445
plug	-11.4451
hombre	-11.4452
xingkong	-11.4459
watches	-11.4463
evo	-11.4466
andy	-11.4471
pendant	-11.4485
nfl	-11.4485
theory	-11.4486
nightstand	-11.4489
novo	-11.4491
crm	-11.4498
pillow	-11.4501
ctgid	-11.4503
izhufu	-11.4503
mate	-11.451
born	-11.4515
fucked	-11.4519
roma	-11.4528
edm	-11.4529
investment	-11.4534
client	-11.4534
webmd	-11.4536
ivy	-11.4541
julia	-11.4555
lewis	-11.4568
cartoon	-11.4572
510	-11.4572
jin	-11.4572
firma	-11.4574
gui	-11.4575
cdburner	-11.4576
touid	-11.4579
gene	-11.458
242	-11.4583
meter	-11.4587
etforpet	-11.4595
118.	-11.4595
myrxv	-11.4595
harry	-11.4597
turn	-11.4597
ted	-11.4598
electro	-11.4603
-2012-	-11.4604
bebe	-11.4607
biblio	-11.4612
aero	-11.4617
sakerhet	-11.4619
pharmacy	-11.4619
sul	-11.4621
academia	-11.4622
prince	-11.4625
storm	-11.463
224	-11.4633
production	-11.4633
peak	-11.464
ology	-11.4641
pole	-11.4649
550	-11.4655
away	-11.4658
hole	-11.466
blowjob	-11.466
publications	-11.4661
hide	-11.4661
think	-11.4665
vida	-11.4666
intel	-11.4666
close	-11.4673
bao	-11.4674
fer	-11.4676
gran	-11.4676
zur	-11.4678
granada	-11.4682
=13&	-11.4684
lattice	-11.4689
hood	-11.4691
marina	-11.4692
communities	-11.4692
jonathan	-11.4699
stat	-11.4705
hey	-11.4707
elle	-11.4713
ella	-11.4714
had	-11.4715
kent	-11.4721
248	-11.4722
hire	-11.4723
hardcore	-11.473
usacanada	-11.473
mother	-11.4732
2013.	-11.4735
shell	-11.4738
nurse	-11.4741
conference	-11.4747
530	-11.4747
rubber	-11.4749
http	-11.4752
amber	-11.4754
columbia	-11.4754
stick	-11.4757
%85%	-11.4757
bayern	-11.4757
svvko	-11.4758
zol	-11.4763
generator	-11.4764
notizie	-11.4767
docx	-11.4767
mla	-11.4768
couponcodes	-11.477
heritage	-11.4773
davidson	-11.4774
fuji	-11.4779
%99%	-11.4781
feb	-11.4791
military	-11.4792
=32	-11.4794
redbubble	-11.4798
chemistry	-11.4799
cia	-11.4802
societe	-11.4803
gan	-11.4806
241	-11.4809
fucking	-11.4812
217	-11.4812
waterproof	-11.4819
429	-11.482
-(	-11.4828
sud	-11.483
algerie	-11.4832
sticker	-11.4833
luz	-11.4835
meska	-11.4835
312	-11.4838
768	-11.4838
period	-11.4838
fahrrad	-11.4839
mot	-11.484
1688.	-11.4848
rat	-11.4848
oenvivo	-11.4853
rnd	-11.4863
jacques	-11.4863
lopez	-11.4863
258	-11.4868
aaa	-11.4868
gil	-11.4869
ani	-11.487
620	-11.4871
seattle	-11.4874
summoner	-11.4881
telefonu	-11.4888
boot	-11.4898
console	-11.4903
ally	-11.4907
charlotte	-11.4911
acode	-11.4913
catherine	-11.4915
kino	-11.4918
ware	-11.4936
ride	-11.4937
beige	-11.4939
tasti	-11.4941
slip	-11.4942
bailvmeat	-11.4944
export	-11.495
pacific	-11.4953
blanc	-11.4955
adressei	-11.4961
073	-11.4962
stadt	-11.4963
portfolio	-11.4963
voor	-11.4966
caravancamping	-11.4969
chu	-11.4969
loverio	-11.4974
kou	-11.4976
numbers	-11.4983
associates	-11.4984
aca	-11.4991
243	-11.4991
accessoires	-11.4994
5%88%	-11.4994
alt	-11.5001
pharma	-11.5002
miinto	-11.5003
wet	-11.5004
=28	-11.5009
issue	-11.5013
relevant	-11.5019
340	-11.502
arch	-11.5029
hydro	-11.5031
dest	-11.5034
parent	-11.5035
geneanet	-11.5035
pull	-11.5039
.163.	-11.504
greek	-11.5045
albert	-11.5045
northern	-11.5049
cancer	-11.5051
til	-11.5054
jpnumber	-11.5057
assets	-11.5058
rugs	-11.5058
svf	-11.506
secrets	-11.506
turkish	-11.5064
ola	-11.5066
coin	-11.507
%255	-11.5071
tail	-11.5071
hunt	-11.5072
idea	-11.5073
fpage	-11.5074
chtoza	-11.5077
rot	-11.5077
upper	-11.5078
contract	-11.5083
illinois	-11.5086
francois	-11.5086
teepublic	-11.5087
put	-11.5093
dish	-11.5103
roz	-11.5109
alice	-11.511
470	-11.5111
qld	-11.5114
260	-11.5114
rendering	-11.5118
229	-11.5125
hybrid	-11.5126
pornstar	-11.5128
cooper	-11.5131
jason	-11.5132
rel	-11.5145
quest	-11.5149
telefono	-11.5151
kanagawa	-11.5153
versus	-11.5153
canadian	-11.5154
405	-11.5161
pal	-11.5168
past	-11.5169
mov	-11.5171
practical	-11.5172
industries	-11.5173
peace	-11.5174
/106	-11.5176
ddd	-11.5178
bcfre	-11.5178
answ	-11.519
bali	-11.5194
tops	-11.5194
weekly	-11.5194
students	-11.5196
guia	-11.5201
indoor	-11.5205
organization	-11.5206
alamy	-11.5207
2018	-11.5211
trulia	-11.5214
8%93%	-11.5216
lutheran	-11.5216
printer	-11.5218
gif	-11.5223
vangsaigon	-11.5224
lnk	-11.5224
summary	-11.5244
568	-11.5245
widgeti	-11.5245
philippe	-11.5248
yang	-11.5249
cine	-11.525
classes	-11.5251
chrysler	-11.5252
apparel	-11.5256
campaign	-11.5258
autopec	-11.5259
baker	-11.5259
gary	-11.5263
princess	-11.5267
springs	-11.5268
remote	-11.5268
prom	-11.5272
serial	-11.5275
wing	-11.528
technical	-11.5282
/107	-11.5283
subaru	-11.529
1080	-11.529
philip	-11.5291
305	-11.5292
numberinfo	-11.5293
vyska	-11.5299
doors	-11.53
regular	-11.5304
half	-11.5306
emploi	-11.5307
cyclocross	-11.5308
tum	-11.5313
scribd	-11.5314
950	-11.5314
chrome	-11.5316
lawn	-11.532
/105	-11.5325
ralph	-11.5329
recliner	-11.5329
darby	-11.5331
263	-11.5333
kol	-11.5334
careers	-11.5335
firm	-11.5336
503	-11.5338
elitec	-11.5339
fmovies	-11.5342
telemovel	-11.5344
della	-11.5347
techniques	-11.5347
success	-11.5348
disc	-11.5351
problem	-11.5352
materials	-11.5353
ran	-11.5355
crazy	-11.5356
bernard	-11.5365
dallas	-11.5367
nline	-11.5367
3%81%9	-11.5368
independent	-11.537
couple	-11.5375
filtro	-11.5376
gurbet	-11.5377
hills	-11.5378
=48	-11.5381
246	-11.5381
rpc	-11.5381
without	-11.5383
pie	-11.5384
pvc	-11.5385
207	-11.5386
3%80%80%	-11.5389
303	-11.539
coat	-11.5394
architecture	-11.5395
tiny	-11.5396
lxjh	-11.5399
8%89%	-11.5403
hang	-11.5403
prix	-11.5406
ios	-11.5407
cao	-11.5414
tem	-11.5415
visual	-11.5416
quien	-11.5419
comfort	-11.542
het	-11.542
-150	-11.542
rvh	-11.5423
bluetooth	-11.5428
premier	-11.543
kruibeke	-11.543
polaris	-11.5431
sek	-11.5431
guns	-11.5433
salaries	-11.5434
abebooks	-11.5435
quiz	-11.5436
michigan	-11.5437
swiss	-11.5437
wmv	-11.5437
want	-11.5437
comics	-11.5445
000000	-11.5447
agro	-11.545
308	-11.5451
357	-11.5455
mug	-11.5456
oro	-11.5458
wars	-11.5458
418	-11.5459
aluminum	-11.546
ucs	-11.5461
wiley	-11.5461
304	-11.5463
mur	-11.5463
atlanta	-11.5466
korea	-11.5473
pov	-11.5477
dor	-11.5478
puzzle	-11.5479
505	-11.5479
319	-11.548
=34	-11.548
halloween	-11.5481
lst	-11.5482
hbwf	-11.5486
820	-11.5489
workout	-11.5492
identity	-11.5496
iask	-11.5497
bruce	-11.5497
ward	-11.55
reverso	-11.5501
stereo	-11.5503
fed	-11.5504
024	-11.5509
viviana	-11.5512
familymediation	-11.5512
ontario	-11.5513
fiona	-11.5514
six	-11.5516
888	-11.5516
findagrave	-11.552
elektro	-11.5521
europeanforum	-11.5525
030	-11.5526
username	-11.5528
cta	-11.5528
fdb	-11.5528
deere	-11.5533
mustang	-11.5535
beau	-11.5538
fruit	-11.5543
555	-11.5545
321	-11.5546
ting	-11.5555
nlm	-11.5558
540	-11.5559
installation	-11.5563
chaussures	-11.5573
everything	-11.5582
panasonic	-11.5583
arc	-11.5587
810	-11.5588
luna	-11.559
portuguese	-11.5591
tower	-11.5591
gram	-11.5593
civic	-11.5599
tar	-11.5607
weg	-11.5607
infection	-11.5609
060	-11.561
amy	-11.561
robin	-11.5611
430	-11.5614
nancy	-11.5616
nutrition	-11.5617
smugmug	-11.5618
liga	-11.5623
kyoto	-11.5626
journals	-11.563
indonesia	-11.5632
/120	-11.5632
vova	-11.5633
package	-11.5637
showuser	-11.5637
uhy	-11.5638
artists	-11.5642
580	-11.5643
528	-11.5643
hem	-11.5646
404	-11.565
021	-11.5651
mel	-11.5654
sig	-11.566
marco	-11.566
march	-11.5663
lejx	-11.5665
bolt	-11.5666
512	-11.5668
searchresults	-11.5673
loveseats	-11.5675
lejh	-11.5681
-500-	-11.5682
morgan	-11.5684
homme	-11.5686
christine	-11.5687
849	-11.5689
cad	-11.569
keep	-11.569
3%83%81%	-11.5693
quebec	-11.5695
tagid	-11.5696
411.	-11.5697
lxjx	-11.5697
mob	-11.5701
digikey	-11.5705
mundo	-11.5707
matheusc	-11.5708
forumdisplay	-11.5709
belle	-11.5709
alldatasheet	-11.5712
apply	-11.5712
-21-	-11.5714
minecraft	-11.5716
beck	-11.5718
guard	-11.5718
publisher	-11.5718
301	-11.5719
9+%	-11.572
preferredloca	-11.5728
/116	-11.5733
ugg	-11.5734
525	-11.5737
telnumber	-11.5741
bal	-11.5745
legend	-11.575
fusion	-11.5754
kong	-11.5755
5-%	-11.5766
rem	-11.577
accounting	-11.577
seven	-11.5772
jsadr	-11.5774
commons	-11.5779
419	-11.5782
engineers	-11.5783
adjustable	-11.5783
travesti	-11.5784
/115	-11.5785
scr	-11.5787
printed	-11.5791
swivel	-11.5793
vel	-11.5793
zar	-11.5794
259	-11.5796
empresas	-11.5797
sys	-11.5797
lion	-11.58
mission	-11.5802
matthew	-11.5802
=17&	-11.5808
actor	-11.5811
courses	-11.5812
zxj	-11.5812
mari	-11.5814
walter	-11.5815
ipad	-11.5822
param	-11.5824
improvement	-11.5831
salt	-11.5839
cases	-11.584
saison	-11.5843
rustic	-11.5844
castle	-11.5848
crime	-11.585
poker	-11.5852
vans	-11.5857
680	-11.5857
tingchina	-11.5857
440	-11.5859
402	-11.5862
610	-11.5862
tape	-11.5863
gar	-11.5865
072	-11.5867
=60&	-11.5871
alma	-11.5874
covers	-11.5874
1001	-11.5877
cole	-11.5878
patents	-11.5879
bull	-11.5883
bonus	-11.5883
musik	-11.5884
exblog	-11.5886
tout	-11.5886
dmm	-11.5889
applications	-11.589
seating	-11.5893
vendita	-11.5896
jeff	-11.5898
buyee	-11.5899
pref	-11.59
necklace	-11.5903
tsukumo	-11.5907
civil	-11.5908
=24&	-11.5916
brass	-11.5928
spider	-11.593
ready	-11.5931
=58	-11.5933
following	-11.5934
transfermarkt	-11.5936
ict	-11.5944
eat	-11.5946
followers	-11.5947
751	-11.5948
layout	-11.5948
noi	-11.5951
object	-11.5952
vino	-11.5954
699	-11.5958
nina	-11.5961
416	-11.5962
favorites	-11.5963
landscape	-11.5963
arthur	-11.5967
loop	-11.5967
nyc	-11.5967
maxi	-11.5968
decorative	-11.597
epi	-11.5971
actionnetwork	-11.5974
atc	-11.5974
toro	-11.5975
kal	-11.5976
vita	-11.5977
/110	-11.5977
spray	-11.5978
rrid	-11.5978
scope	-11.5979
-22-	-11.5979
686	-11.5983
patricia	-11.5983
wol	-11.5983
faucet	-11.5986
urun	-11.5987
hooksand	-11.5987
runner	-11.5989
cargo	-11.5992
european	-11.5993
updated	-11.5994
wbb	-11.5997
aviation	-11.5998
jsm	-11.6003
mine	-11.6003
posting	-11.6004
cube	-11.6005
jst	-11.6006
banner	-11.6007
tattoo	-11.6009
israel	-11.601
2016	-11.6012
7%89%	-11.6014
early	-11.6019
meyer	-11.602
llamo	-11.6021
edion	-11.6022
douglas	-11.6024
hgzzj	-11.6025
fotos	-11.6025
338	-11.6027
275	-11.6029
jar	-11.6032
contemporary	-11.6032
gets	-11.6033
286	-11.6035
croata	-11.6044
fkj	-11.6048
721	-11.6053
finduser	-11.6055
710	-11.6055
journey	-11.6056
cold	-11.6056
hatena	-11.6057
wiktionary	-11.6058
nor	-11.6058
specialist	-11.6059
hockey	-11.6059
960	-11.6061
hour	-11.6063
islands	-11.6068
remove	-11.6069
hacker	-11.6073
eve	-11.6075
szukaj	-11.6078
extras	-11.608
660	-11.608
bright	-11.6081
dames	-11.6084
292	-11.6085
028	-11.6088
etn	-11.6094
puma	-11.6096
suit	-11.6098
nine	-11.61
401	-11.6101
connection	-11.6101
boatsales	-11.6104
tub	-11.6104
classmates	-11.6104
iran	-11.6106
sharp	-11.6107
dave	-11.611
285	-11.611
opensubtitles	-11.6112
696	-11.6112
1985.	-11.6113
443	-11.6114
=19	-11.6116
tak	-11.6123
hon	-11.6123
charger	-11.6124
annunci	-11.6126
shopby	-11.6131
devicetype	-11.6136
grupo	-11.614
youporn	-11.6141
257	-11.6141
733	-11.6146
tier	-11.6147
=21	-11.6149
insomnia	-11.6149
779	-11.6155
__=	-11.6158
viewkey	-11.6159
ability	-11.6161
451	-11.6164
drink	-11.6164
9%87%8	-11.6168
patent	-11.617
buty	-11.6173
rare	-11.6175
fest	-11.6175
herren	-11.6176
salesvolume	-11.6176
printing	-11.6177
=23	-11.6178
april	-11.6181
philips	-11.6183
businessle	-11.6188
classics	-11.6193
vancouver	-11.6194
vimeo	-11.6199
lynn	-11.62
390	-11.62
wallet	-11.6201
=14&	-11.6204
564	-11.6204
025	-11.6213
dai	-11.6214
amazing	-11.6215
ariat	-11.6215
lego	-11.6222
shanghai	-11.6225
mip	-11.6227
369	-11.623
flip	-11.6231
=22	-11.6231
408	-11.6231
coaching	-11.6237
pax	-11.6237
venda	-11.6239
nad	-11.6239
xry	-11.6243
3%83%80%	-11.6245
crown	-11.6246
chocolate	-11.6247
copper	-11.6252
tdxnpyy	-11.6253
harris	-11.6253
616	-11.6255
outboard	-11.6259
424	-11.626
honey	-11.6261
296	-11.6267
mario	-11.6267
758	-11.6272
306	-11.6274
=1000	-11.6275
brayden	-11.6276
clark	-11.6278
640	-11.6278
ingxiang	-11.6279
kageadqw	-11.6279
classifieds	-11.6281
ranger	-11.6282
draw	-11.6284
271	-11.6285
cnbeta	-11.6286
push	-11.6287
workbook	-11.6288
756	-11.6289
834	-11.6297
houzz	-11.6298
genuine	-11.63
xxxl	-11.6301
592	-11.6302
foods	-11.6302
pig	-11.6303
deviceid	-11.6306
worthpoint	-11.6308
physics	-11.631
mao	-11.631
worthopedia	-11.631
notnow	-11.6312
winston	-11.6312
ktm	-11.6312
milk	-11.6316
tiu	-11.6317
giash	-11.6317
eyj	-11.6321
589	-11.6322
garofoli	-11.6322
testing	-11.6322
faith	-11.6323
kara	-11.6324
taiwan	-11.6327
input	-11.6329
471	-11.633
dianping	-11.6333
crafts	-11.6333
2019-	-11.6335
font	-11.6339
fandom	-11.6342
shin	-11.6346
=2?	-11.6347
ultime	-11.6348
570	-11.6349
318	-11.635
566	-11.6352
telnavi	-11.6356
figure	-11.6359
4%9	-11.6365
ark	-11.6369
/150	-11.637
%83	-11.639
valve	-11.6393
alle	-11.6394
808	-11.6396
parking	-11.6398
920	-11.6401
lip	-11.6401
261	-11.6402
polyester	-11.6402
emp	-11.6407
355	-11.641
transit	-11.6412
)/	-11.6412
between	-11.6413
050	-11.6413
biology	-11.6416
pak	-11.6417
sou	-11.6418
discussions	-11.6418
based	-11.642
arab	-11.642
mesh	-11.642
clipid	-11.6421
planning	-11.6422
458	-11.6424
terry	-11.6428
available	-11.6431
431	-11.6435
silicone	-11.6436
=47	-11.6437
republic	-11.6438
kon	-11.6441
ying	-11.6442
slovenian	-11.6444
298	-11.6446
bond	-11.6447
nicole	-11.6449
821	-11.645
apollo	-11.6453
pom	-11.6457
316	-11.6459
730	-11.6459
every	-11.6461
dun	-11.6461
375	-11.6462
howard	-11.6462
cdovl	-11.6463
casas	-11.6467
afghanistan	-11.6468
958	-11.6469
atv	-11.6473
rice	-11.6474
association	-11.6476
334	-11.6476
redfin	-11.6479
victor	-11.6481
bikes	-11.6485
311	-11.6491
980	-11.6492
gul	-11.6493
284	-11.6493
galerie	-11.6495
cbd	-11.65
468	-11.65
313	-11.6501
445	-11.6505
767	-11.6506
inner	-11.6507
jazz	-11.6508
szeds	-11.651
taxi	-11.651
commerce	-11.6511
newfound	-11.6512
840	-11.6514
022	-11.6515
wool	-11.6516
954	-11.6516
-2010-	-11.6518
enterprise	-11.6519
supplier	-11.6521
997	-11.6521
talent	-11.6522
gstatic	-11.6523
tis	-11.6526
476	-11.6527
ajr	-11.6528
336	-11.6531
digi	-11.6531
before	-11.6533
964	-11.6534
=57	-11.6535
)&	-11.6537
325	-11.6538
extreme	-11.654
=29	-11.654
_0_	-11.6541
gost	-11.6541
obituaries	-11.6542
690	-11.6544
dont	-11.6548
ning	-11.6554
hexagon	-11.6554
653	-11.6556
fpa	-11.6559
276	-11.656
translate	-11.6561
newspapers	-11.6562
findpost	-11.6564
%22%3	-11.6567
nut	-11.6576
proximity	-11.6577
regional	-11.6578
rip	-11.6581
arms	-11.6584
garten	-11.6584
=27	-11.6586
carpet	-11.6586
rentals	-11.6596
petite	-11.6599
543	-11.66
287	-11.66
auvergne	-11.6601
adv	-11.6602
/112	-11.6604
shopdetail	-11.6604
993	-11.6607
990	-11.6609
shed	-11.6609
vendor	-11.6611
martinez	-11.6615
9%84-%	-11.6616
/122	-11.6618
dynamic	-11.6619
453	-11.6621
heights	-11.6621
pag	-11.6623
880	-11.6627
jinrin	-11.6629
283	-11.663
jessica	-11.663
pennsylvania	-11.663
tiva	-11.6631
loft	-11.6634
homedetails	-11.6636
prf	-11.6638
10&	-11.6639
kdnet	-11.6641
289	-11.6645
rachel	-11.6646
expo	-11.6651
sneakers	-11.6653
developer	-11.6654
impact	-11.6657
490	-11.6658
tall	-11.6662
acer	-11.6663
986	-11.6665
671	-11.6665
361	-11.6667
signaler	-11.667
unitedkingdom	-11.6678
patch	-11.6679
summit	-11.6681
wifi	-11.6681
meet	-11.6683
assistir	-11.6684
eee	-11.6685
facts	-11.6693
lucky	-11.6693
refer	-11.6694
yard	-11.6697
tema	-11.6699
chanelbags	-11.6699
emag	-11.6699
huo	-11.67
earrings	-11.6702
shadow	-11.6703
=45	-11.6704
drivers	-11.6709
nan	-11.6709
numer	-11.6711
porsche	-11.6711
veiculos	-11.6712
=31	-11.6714
278	-11.6715
raj	-11.6721
351	-11.6721
=187&	-11.6722
weiss	-11.6726
flipkart	-11.6726
676	-11.6727
donald	-11.6727
826	-11.673
rap	-11.6732
-200-	-11.6735
marque	-11.6735
281	-11.6737
366	-11.6737
vzc	-11.6738
735	-11.6738
visa	-11.674
homemade	-11.674
ive	-11.6743
direction	-11.6745
found	-11.6745
745	-11.6747
567	-11.6749
revolution	-11.6751
hell	-11.6751
colors	-11.6752
bracelet	-11.6755
african	-11.6755
789	-11.6755
345	-11.6756
403	-11.6757
futbol	-11.6759
%87%	-11.676
temp	-11.6761
glen	-11.6761
-2011-	-11.6764
notice	-11.6764
anjuke	-11.6766
dnhys	-11.6774
545	-11.6774
hamilton	-11.6775
confidential	-11.6776
472	-11.6777
wen	-11.6778
lam	-11.6779
982	-11.678
bien	-11.6784
spain	-11.6785
entre	-11.6785
folding	-11.6787
trends	-11.6788
bbw	-11.679
247.	-11.6799
262	-11.6799
3%25	-11.68
suning	-11.68
lei	-11.68
wendy	-11.6802
lding	-11.6804
highlight	-11.6806
ras	-11.6807
sydney	-11.6812
livedoor	-11.6818
=38	-11.6818
cnpj	-11.6819
eine	-11.6819
graham	-11.682
viet	-11.682
644	-11.6822
azul	-11.6822
/111	-11.6826
claude	-11.6826
bild	-11.683
485	-11.6831
mask	-11.6835
quan	-11.6836
740	-11.6836
hindi	-11.684
egypt	-11.6843
finetuned	-11.6845
bowl	-11.6847
compatible	-11.6848
kobo	-11.6848
957	-11.6849
591	-11.685
=22&	-11.685
warm	-11.6851
277	-11.6852
internal	-11.6852
acessorios	-11.6852
collectif	-11.6853
issues	-11.6854
feet	-11.6855
869	-11.6855
035	-11.6861
288	-11.6863
comprar	-11.6863
pair	-11.6868
dochkisinochki	-11.6868
btc	-11.6871
contextual	-11.6875
ninja	-11.6876
doctors	-11.6877
carol	-11.6878
holidays	-11.6878
congres	-11.6878
422	-11.6883
475	-11.6884
615	-11.6884
794	-11.6886
refid	-11.6889
aichi	-11.6894
413	-11.6898
beaut	-11.6899
drozhi	-11.6909
fiche	-11.6911
268	-11.6912
blank	-11.6913
duty	-11.6913
kiss	-11.6914
454	-11.6916
297	-11.6918
chemical	-11.6918
ous	-11.6919
581	-11.6921
333	-11.6922
870	-11.6922
nutcase	-11.6922
silva	-11.6923
lis	-11.6927
coupe	-11.6927
bww	-11.6928
684	-11.6929
forumtopicpage	-11.6929
recent	-11.693
chic	-11.6932
naked	-11.6935
mass	-11.694
2019.	-11.694
trackas	-11.6941
269	-11.6946
configurable	-11.6946
754	-11.6951
bruno	-11.6951
brunette	-11.6953
279	-11.6954
parker	-11.6954
tupian	-11.6957
caso	-11.6959
socks	-11.696
vagas	-11.6966
353	-11.6968
sspagename	-11.6969
cher	-11.6971
their	-11.6971
reflux	-11.6971
965	-11.6973
hugo	-11.6973
rex	-11.6975
4%5	-11.6977
496	-11.6978
wales	-11.6979
miguel	-11.698
946	-11.6984
dresser	-11.6987
wal	-11.6995
8%87%	-11.6995
lyn	-11.6995
nums	-11.7001
shorts	-11.7003
vacuum	-11.7004
295	-11.7004
pickup	-11.7005
sophie	-11.7009
698	-11.701
636	-11.7016
jardin	-11.7018
function	-11.7019
-150-	-11.7021
helpyou	-11.7021
fac	-11.7021
=37	-11.7022
escorts	-11.7023
335	-11.7024
%20(	-11.7024
535	-11.7025
835	-11.7025
forward	-11.7026
889	-11.7027
514	-11.7028
571	-11.703
495	-11.703
flooring	-11.703
papa	-11.7033
544	-11.7034
kak	-11.7035
524	-11.7035
xing	-11.7036
tori	-11.7036
daum	-11.7037
cyber	-11.704
604	-11.7042
shoulder	-11.7043
282	-11.7044
969	-11.7046
ile	-11.7048
nur	-11.7052
045	-11.7053
portugal	-11.7053
liste	-11.7057
datasheet	-11.7058
lai	-11.7061
tina	-11.7062
ret	-11.7063
agencia	-11.7064
auc	-11.7067
948	-11.7069
och	-11.7069
399	-11.707
861	-11.7073
major	-11.7073
883	-11.7073
bur	-11.7076
452	-11.7076
875	-11.7077
cambridge	-11.7077
sogou	-11.7078
/------------	-11.7079
385	-11.7083
aria	-11.7085
artikelart	-11.7087
654	-11.709
040	-11.7091
brainly	-11.7095
796	-11.7096
branch	-11.7097
432	-11.7099
842	-11.71
sold	-11.7104
exterior	-11.7105
425	-11.7105
lex	-11.7106
465	-11.7106
tray	-11.7112
760	-11.7113
hokkaido	-11.7114
667	-11.7116
powder	-11.7119
621	-11.7119
tic	-11.7121
bazatelefono	-11.7121
lima	-11.7124
bedding	-11.7126
nij	-11.7131
tre	-11.7133
546	-11.7133
marketplace	-11.7135
597	-11.7136
rouge	-11.7138
988	-11.7139
attractions	-11.714
309	-11.7141
994	-11.7142
hasher	-11.7143
rush	-11.7143
pointof	-11.7143
aire	-11.7146
635	-11.715
fragment	-11.7151
rim	-11.7154
ncbi	-11.7154
5%95%8	-11.7155
373	-11.7157
cruz	-11.7157
pedro	-11.716
267	-11.716
bat	-11.7162
grant	-11.7164
oven	-11.7167
lng	-11.717
avi	-11.7172
arrest	-11.7173
mathematics	-11.7173
605	-11.7174
aliette	-11.7175
716	-11.7176
587	-11.718
jul	-11.718
boo	-11.718
srch	-11.7181
orig	-11.7182
technik	-11.7182
infinity	-11.7183
gro	-11.7183
animals	-11.7184
-300-	-11.7184
deluxe	-11.7188
thanks	-11.7188
414	-11.7188
cote	-11.719
collages	-11.7199
441	-11.72
late	-11.7201
julie	-11.7202
skills	-11.7202
rozmiar	-11.7204
slideshare	-11.7205
iwn	-11.7206
avant	-11.7207
=59	-11.7207
coup	-11.7208
/133	-11.7212
649	-11.7215
sunglasses	-11.7216
435	-11.7216
497	-11.7217
643	-11.7218
702	-11.7218
xiao	-11.7218
wash	-11.7218
347	-11.7222
vente	-11.7225
830	-11.7227
-36-	-11.7228
970	-11.7228
hui	-11.7228
brook	-11.7231
421	-11.7233
nia	-11.7237
phase	-11.7237
mara	-11.7239
294	-11.724
beat	-11.724
clinical	-11.724
996	-11.724
copy	-11.7242
962	-11.7243
331	-11.7245
inquiry	-11.725
675	-11.7253
%20%	-11.7255
938	-11.7255
464	-11.7256
504	-11.7256
273	-11.7257
/2018-	-11.7259
2000	-11.726
466	-11.7261
266	-11.7263
getting	-11.7266
description	-11.7268
economics	-11.7269
provider	-11.7271
summitracing	-11.7272
finish	-11.7273
317	-11.7273
688	-11.7275
immobilier	-11.7276
kunst	-11.728
766	-11.7285
boom	-11.7287
narrow	-11.7287
moving	-11.7287
521	-11.7287
principal	-11.729
hoodie	-11.7291
841	-11.7293
549	-11.7296
nverified	-11.7296
722	-11.7296
luc	-11.7297
771	-11.7298
religion	-11.7299
icefilms	-11.73
quot	-11.7305
506	-11.7305
okcaller	-11.7306
590	-11.7306
910	-11.731
otto	-11.7311
wish	-11.7311
unisex	-11.7311
mouse	-11.7314
problems	-11.7318
gukiqf	-11.7318
039	-11.7319
joint	-11.7319
bush	-11.732
558	-11.7321
736	-11.7322
there	-11.7322
risk	-11.7326
katzen	-11.7328
bone	-11.733
liu	-11.733
762	-11.7331
latin	-11.7332
775	-11.7334
emily	-11.7334
owe	-11.7336
bottom	-11.7338
buck	-11.734
taqueria	-11.734
542	-11.7343
ord	-11.7346
788	-11.7347
382	-11.7347
031	-11.7349
272	-11.735
vert	-11.7353
741	-11.7353
=33	-11.7355
516	-11.7355
343	-11.7357
vera	-11.7358
328	-11.7358
761	-11.7358
478	-11.7361
disease	-11.7361
752	-11.7363
645	-11.7363
hogar	-11.7365
274	-11.7367
3%81%84%	-11.7367
=23&	-11.737
448	-11.7371
672	-11.7372
starter	-11.7375
547	-11.7378
lens	-11.7379
899	-11.7379
bass	-11.738
dal	-11.7386
489	-11.7388
noticia	-11.739
=41	-11.739
bac	-11.739
bab	-11.7391
786	-11.7393
chkproductids	-11.7393
368	-11.7394
=26	-11.7394
307	-11.7395
708	-11.7397
853	-11.7398
642	-11.7398
473	-11.7403
608	-11.7403
codes	-11.7404
hypet	-11.7405
russell	-11.7405
773	-11.7406
alta	-11.7409
977	-11.7411
suites	-11.7413
wil	-11.7413
792	-11.7416
625	-11.7416
984	-11.7421
oogleusercontent	-11.7422
noumero	-11.7423
taille	-11.7423
406	-11.7424
038	-11.7428
886	-11.7429
ahn	-11.743
484	-11.7431
myspace	-11.7432
mein	-11.7433
457	-11.7434
080	-11.7434
827	-11.7436
selection	-11.7439
942	-11.7439
dean	-11.744
mais	-11.744
515	-11.7441
522	-11.7442
769	-11.7442
846	-11.7442
trainer	-11.7442
myheritage	-11.7446
fiber	-11.7447
opera	-11.7449
kits	-11.745
930	-11.7451
737	-11.7454
tdi	-11.7454
fdc	-11.7456
rejstrik	-11.7459
khan	-11.7461
838	-11.7462
phil	-11.7462
schematic	-11.7463
438	-11.7463
panda	-11.7465
348	-11.7467
chang	-11.7467
adams	-11.7475
hook	-11.7476
1%88%	-11.7476
-2005-	-11.7481
intent	-11.7481
heim	-11.7483
352	-11.7483
299	-11.7484
still	-11.7485
344	-11.7486
791	-11.7486
uma	-11.7487
dennis	-11.7489
462	-11.7491
tommy	-11.7492
728	-11.7494
omsurvey	-11.7495
farukel	-11.7496
owl	-11.7496
364	-11.7497
vietnam	-11.7498
cookbook	-11.7499
-250-	-11.7499
797	-11.75
746	-11.75
friseurmobil	-11.7501
denver	-11.7501
porto	-11.7502
634	-11.7505
656	-11.7507
947	-11.7511
759	-11.7511
concrete	-11.7512
bib	-11.7514
oaks	-11.7514
363	-11.7517
-90-	-11.752
836	-11.7523
eevanity	-11.7528
511	-11.7528
possible	-11.7529
409	-11.7532
nao	-11.7535
668	-11.7536
interaction	-11.7536
doo	-11.7541
nelson	-11.7541
lily	-11.7542
518	-11.7542
caroline	-11.7544
412	-11.7544
orderid	-11.7548
944	-11.7549
kam	-11.7549
graph	-11.7549
780	-11.755
catalogsearch	-11.755
-2008-	-11.755
-2007-	-11.7552
stackoverflow	-11.7554
428	-11.7556
691	-11.7557
zona	-11.7557
723	-11.7558
assembly	-11.7558
curtain	-11.7559
depot	-11.756
shemale	-11.7562
berger	-11.7566
icatalog	-11.7566
665	-11.7567
sandra	-11.7567
322	-11.7568
499	-11.757
-2000-	-11.7573
sobre	-11.7575
9%86-%	-11.7575
vincent	-11.7575
670	-11.7579
819	-11.7583
023	-11.7586
communication	-11.7587
729	-11.7588
731	-11.7589
346	-11.759
tenis	-11.7593
primary	-11.7595
601	-11.7596
ante	-11.7606
wolfgang	-11.7606
pace	-11.7608
rodriguez	-11.7611
kom	-11.7611
mason	-11.7613
483	-11.7613
watching	-11.7614
371	-11.7615
saga	-11.7616
860	-11.762
oral	-11.7621
ufc	-11.7625
password	-11.7627
=-99&	-11.7631
898	-11.7632
split	-11.7632
491	-11.7633
392	-11.7634
wallpapers	-11.7634
588	-11.7636
hollywood	-11.764
854	-11.7641
878	-11.7641
293	-11.7642
027	-11.7642
fshowuserreviews	-11.7643
calls	-11.7646
heroes	-11.7647
november	-11.7648
446	-11.7649
spb	-11.765
486	-11.7651
aksessuary	-11.7652
permanent	-11.7654
champion	-11.7654
hut	-11.7655
jia	-11.766
zer	-11.7661
554	-11.7662
685	-11.7663
thailand	-11.7665
transactionid	-11.7665
executive	-11.7667
lesson	-11.7667
871	-11.7668
874	-11.7669
teens	-11.7671
=49	-11.7679
cutting	-11.7679
spare	-11.768
example	-11.7682
711	-11.7685
753	-11.7686
998	-11.7687
vehicles	-11.7688
376	-11.7692
517	-11.7692
many	-11.7695
995	-11.7695
323	-11.7695
855	-11.7695
326	-11.7697
327	-11.7698
523	-11.7698
mak	-11.7702
ceiling	-11.7702
314	-11.7703
roupas	-11.7705
prop	-11.7708
immo	-11.7709
registry	-11.7711
kaufen	-11.7712
invest	-11.7713
oval	-11.7713
pra	-11.7714
pretty	-11.7715
765	-11.7715
482	-11.7717
844	-11.7718
805	-11.7718
trove	-11.7721
thompson	-11.7722
/130	-11.7722
francis	-11.7724
retirement	-11.7725
olamarket	-11.7725
license	-11.7726
378	-11.7726
427	-11.7727
yun	-11.7728
unknown	-11.7729
orientacion	-11.7729
milano	-11.773
brush	-11.7737
flagman	-11.7738
intl	-11.7743
539	-11.7744
526	-11.7746
776	-11.7747
eden	-11.7751
925	-11.7752
productions	-11.7754
cgxheq	-11.7756
merk	-11.7757
helen	-11.7758
367	-11.776
739	-11.7762
reebok	-11.7764
alto	-11.7764
534	-11.7767
xbox	-11.7767
shift	-11.7768
395	-11.7771
sole	-11.7772
509	-11.7773
glas	-11.7773
never	-11.7773
muscle	-11.7775
carsales	-11.7778
572	-11.778
bois	-11.7782
worldwide	-11.7782
810.	-11.7783
867	-11.7785
955	-11.7786
interview	-11.7788
rainbow	-11.7788
insta	-11.7788
adventures	-11.7789
fred	-11.7793
494	-11.7799
764	-11.78
798	-11.7805
573	-11.7805
790	-11.7805
nano	-11.7806
426	-11.7806
455	-11.7807
wein	-11.7809
651	-11.7811
823	-11.7816
/2017-	-11.7816
839	-11.7817
traditional	-11.7817
359	-11.7819
metrology	-11.7819
712	-11.7819
945	-11.782
lavoro	-11.7822
liquid	-11.7822
hen	-11.7823
902	-11.7824
090	-11.7824
817	-11.7833
pkt	-11.7834
ming	-11.7835
computers	-11.7835
char	-11.7838
743	-11.784
drum	-11.7841
647	-11.7843
583	-11.7843
hor	-11.7844
viewer	-11.7844
795	-11.7846
579	-11.7847
ashley	-11.7847
479	-11.7847
forever	-11.7848
inverse	-11.7848
vila	-11.7848
896	-11.785
492	-11.7851
him	-11.7851
zhenskaya	-11.7853
)-	-11.7854
neon	-11.7856
cronix	-11.7859
physical	-11.7859
contenttype	-11.7863
508	-11.7866
626	-11.7866
suv	-11.787
2011	-11.7875
mons	-11.7876
533	-11.7877
705	-11.7879
551	-11.788
481	-11.7885
ranch	-11.7885
options	-11.7887
volt	-11.7887
9%98%	-11.7889
ribalka	-11.7889
595	-11.7889
mystery	-11.7889
sectionals	-11.7891
lay	-11.7892
claire	-11.7893
ney	-11.7893
salehin	-11.7895
justice	-11.7897
449	-11.7899
mills	-11.7899
467	-11.7899
santos	-11.79
nic	-11.7901
561	-11.7901
384	-11.7901
seal	-11.7902
890	-11.7903
463	-11.7907
astro	-11.7909
wellness	-11.791
386	-11.7914
744	-11.7915
953	-11.7915
lingerie	-11.7917
358	-11.7918
tone	-11.7918
633	-11.7919
565	-11.792
rgn	-11.7921
brooklyn	-11.7921
ebony	-11.7922
881	-11.7923
michelle	-11.7924
885	-11.7925
681	-11.7929
pilot	-11.793
548	-11.7932
tous	-11.7937
2020&	-11.7937
726	-11.794
/132	-11.7941
531	-11.7941
morris	-11.7944
yellowbook	-11.7945
715	-11.7947
692	-11.7947
437	-11.7949
339	-11.795
role	-11.7954
oregon	-11.7956
exit	-11.7956
674	-11.7958
809	-11.7959
lord	-11.7959
719	-11.7959
1%9	-11.796
heather	-11.7964
singapore	-11.7965
negro	-11.7967
-250	-11.797
zapatos	-11.797
975	-11.7971
940	-11.7972
sanchez	-11.7974
poetry	-11.7976
perry	-11.7976
801	-11.7976
868	-11.7978
bou	-11.7982
974	-11.7984
recommend	-11.7986
717	-11.7988
593	-11.7989
961	-11.799
936	-11.7991
362	-11.7992
748	-11.7993
beginners	-11.7993
978	-11.7994
developers	-11.8
423	-11.8
hongdian	-11.8002
=42	-11.8003
447	-11.8005
produit	-11.8006
esf	-11.8006
division	-11.8007
562	-11.8008
cdc	-11.8009
libre	-11.801
519	-11.8012
354	-11.8013
knee	-11.8014
electronica	-11.8017
hampton	-11.8023
tron	-11.8024
sleeper	-11.8024
865	-11.8025
noel	-11.8025
=21&	-11.8026
residential	-11.8029
576	-11.803
989	-11.8034
815	-11.8034
623	-11.8035
vegan	-11.8039
669	-11.804
amsterdam	-11.8041
carmen	-11.8044
434	-11.8044
553	-11.8046
psychology	-11.8048
732	-11.8052
632	-11.8054
welcome	-11.8056
381	-11.8058
thebookr	-11.8059
yue	-11.8059
armchair	-11.806
829	-11.8062
australian	-11.8062
dispatch	-11.8062
oldid	-11.8063
673	-11.8064
nokia	-11.8065
bbq	-11.8065
communications	-11.8066
433	-11.8067
restoration	-11.8068
huge	-11.8069
,,/	-11.807
break	-11.8071
1%86%	-11.8071
mic	-11.8072
gol	-11.8072
0%25	-11.8073
469	-11.8074
lim	-11.8075
passion	-11.8076
musica	-11.8076
challenge	-11.8076
436	-11.8077
655	-11.8078
pianzi	-11.808
701	-11.8081
swing	-11.8083
reed	-11.8083
circuit	-11.8084
zhavqja	-11.8085
617	-11.8085
487	-11.8089
anglais	-11.809
weblio	-11.809
trump	-11.8091
349	-11.8093
hitta	-11.8094
887	-11.8095
logic	-11.8095
reserve	-11.8096
liberty	-11.8098
718	-11.8099
strap	-11.8099
971	-11.81
879	-11.81
gum	-11.81
584	-11.8101
=19&	-11.8102
477	-11.8103
published	-11.8103
globe	-11.8107
:%	-11.8114
599	-11.8114
apo	-11.8115
/126	-11.8118
594	-11.8118
opt	-11.812
959	-11.812
992	-11.8124
585	-11.8125
822	-11.8126
rene	-11.8128
greater	-11.8129
862	-11.8129
reality	-11.813
939	-11.8131
652	-11.8131
braun	-11.8133
categorie	-11.8134
ization	-11.8138
burn	-11.8139
-32-	-11.8142
ova	-11.8143
-2009-	-11.8151
837	-11.8153
skinny	-11.8155
689	-11.8155
popcorntime	-11.8157
boost	-11.8158
luxe	-11.8159
rand	-11.8161
henan	-11.8161
461	-11.8163
575	-11.8163
tistory	-11.8164
921	-11.8165
jen	-11.8166
mano	-11.8166
ameba	-11.8167
thi	-11.8171
613	-11.8172
duck	-11.8172
agua	-11.8174
-500	-11.8176
madison	-11.8177
isuzu	-11.8179
032	-11.8179
mba	-11.818
tristatewe	-11.8181
archiv	-11.8182
cookie	-11.8185
agri	-11.8185
gamer	-11.8185
ibm	-11.8186
tropical	-11.8186
811	-11.8187
taplet	-11.8187
diabetic	-11.8187
5%87%	-11.8187
rai	-11.819
xiaomi	-11.819
873	-11.8195
725	-11.8196
kudosbuttonv	-11.8197
706	-11.82
perez	-11.8201
owy	-11.8204
chiba	-11.8204
covid	-11.8207
000&	-11.8208
tales	-11.8208
341	-11.8208
683	-11.8214
csrf	-11.8216
927	-11.8217
collins	-11.8218
srtt	-11.8219
plants	-11.8219
912	-11.8221
gut	-11.8222
jobtype	-11.8223
nhn	-11.8224
expid	-11.8224
lexus	-11.8225
804	-11.8227
391	-11.8227
graphics	-11.8228
876	-11.8231
futurama	-11.8231
mebel	-11.8235
=39	-11.8236
051	-11.8237
encycolor	-11.824
507	-11.8241
-75-	-11.8244
scitech	-11.8245
clearance	-11.8246
haven	-11.8249
845	-11.8251
protective	-11.8251
romance	-11.8251
creation	-11.8252
816	-11.8253
008.	-11.8253
053	-11.8253
htc	-11.8254
641	-11.8255
qdjinshangbra	-11.8256
uno	-11.8258
747	-11.8258
dame	-11.8258
459	-11.8259
lodge	-11.826
claim	-11.8263
383	-11.8266
389	-11.8266
keiba	-11.8272
658	-11.8275
677	-11.8275
july	-11.8278
translated	-11.8278
hou	-11.8278
rob	-11.8281
vacancy	-11.8283
044	-11.8283
802	-11.8284
zoominfo	-11.8286
556	-11.8288
bahss	-11.8289
-23-	-11.8289
=1000&	-11.8291
8%81%	-11.8295
benjamin	-11.8297
roof	-11.8298
layer	-11.8298
894	-11.8298
915	-11.8301
aed	-11.8304
541	-11.8304
gsm	-11.8305
oda	-11.8305
7-%	-11.8309
wii	-11.8309
immobilien	-11.831
963	-11.831
/10-	-11.831
603	-11.8311
614	-11.8314
966	-11.8317
snap	-11.8318
swimming	-11.8319
892	-11.8319
cabinets	-11.8321
628	-11.8321
orlando	-11.8322
grow	-11.8322
574	-11.8323
697	-11.8324
lower	-11.8324
smile	-11.8326
icefilm	-11.8328
seam	-11.8329
806	-11.833
602	-11.8333
dirty	-11.8336
041	-11.8337
being	-11.8337
mansion	-11.8338
viva	-11.8338
095	-11.8339
aki	-11.834
xuebao	-11.834
hex	-11.8341
532	-11.8343
=40&	-11.8344
hayabusa	-11.8345
podcast	-11.8345
surf	-11.8346
omni	-11.8348
phonelookup	-11.8349
/103	-11.8349
vietnamese	-11.835
joshua	-11.8351
967	-11.8352
518.	-11.8358
891	-11.8359
bilder	-11.836
sneaker	-11.8361
749	-11.8361
wit	-11.8362
bil	-11.8363
subtitles	-11.8363
393	-11.8364
overview	-11.8364
clock	-11.8367
should	-11.8367
7%94%9	-11.8369
787	-11.8369
strip	-11.8369
048	-11.837
778	-11.8372
=99&	-11.8372
carpe	-11.8373
704	-11.8374
tender	-11.8375
mti	-11.8376
755	-11.838
398	-11.838
622	-11.838
906	-11.8381
036	-11.8382
513	-11.8383
627	-11.8388
manchester	-11.839
sushi	-11.8391
657	-11.8392
fcc	-11.8392
682	-11.8393
hyogo	-11.8394
kabel	-11.8395
606	-11.8398
552	-11.8398
3+%	-11.8399
882	-11.8401
943	-11.8403
397	-11.8404
070	-11.8404
italiano	-11.8404
alestateandhomes	-11.8405
sense	-11.8405
rdono	-11.8406
seq	-11.8406
1000.	-11.8407
895	-11.8408
sohu	-11.8408
algatec	-11.8408
purchaseorders	-11.8409
wer	-11.8409
852	-11.8409
612	-11.8409
637	-11.8409
6%89%8	-11.841
champions	-11.8411
heaven	-11.8411
cinco	-11.8414
haoxiao	-11.8415
traffic	-11.8418
_3_	-11.8418
transparent	-11.8418
horny	-11.842
pir	-11.8424
noquote	-11.8429
065	-11.843
727	-11.843
377	-11.8433
7%91%	-11.8434
586	-11.8436
stefan	-11.8439
968	-11.844
-1,	-11.8442
proof	-11.8443
908	-11.8448
527	-11.8451
=75&	-11.8453
youku	-11.8456
generation	-11.8457
557	-11.8457
celebrity	-11.846
fever	-11.846
friday	-11.8462
gonzalez	-11.8463
cure	-11.8466
529	-11.8471
guys	-11.8472
exact	-11.8472
caterpillar	-11.8472
/128	-11.8474
052	-11.8474
roller	-11.8474
639	-11.8475
brick	-11.8475
2014	-11.8475
611	-11.8476
356	-11.8476
825	-11.8476
ellen	-11.8476
prezzo	-11.8479
privacy	-11.848
388	-11.848
872	-11.848
ost	-11.8481
734	-11.8481
tbc	-11.8482
757	-11.8484
493	-11.8485
nel	-11.8486
butterbur	-11.849
972	-11.849
remont	-11.8492
titan	-11.8492
598	-11.8493
connector	-11.8494
659	-11.8495
newsplus	-11.8496
858	-11.8504
=-1&	-11.8505
-120	-11.8506
372	-11.8506
536	-11.8507
flo	-11.851
rpm	-11.8511
488	-11.8512
033	-11.8512
hoa	-11.8514
859	-11.8515
991	-11.8515
=55	-11.8517
essentials	-11.8518
lets	-11.8518
.58.	-11.852
paradise	-11.8523
ground	-11.8524
916	-11.8525
rei	-11.8527
026	-11.8528
melbourne	-11.8531
plumbing	-11.8532
clk	-11.8533
374	-11.8533
trek	-11.8533
viewfull	-11.8538
793	-11.8539
chile	-11.8539
third	-11.8539
918	-11.854
xlsx	-11.854
619	-11.854
jglobal	-11.8541
amor	-11.8542
trailers	-11.8544
decantalo	-11.8544
subscription	-11.8545
shark	-11.8546
foam	-11.855
857	-11.8553
justin	-11.8554
342	-11.8554
shield	-11.8558
609	-11.856
zhenshchinam	-11.8563
877	-11.8564
browser	-11.8567
941	-11.8567
934	-11.8568
levi	-11.8568
celulares	-11.8568
/2005-	-11.857
956	-11.8571
bridging	-11.8574
rings	-11.8574
nuevo	-11.8579
803	-11.858
596	-11.858
vest	-11.8582
976	-11.8583
onlinelibrary	-11.8584
velo	-11.8589
107.	-11.859
urk	-11.8591
884	-11.8591
828	-11.8591
831	-11.8592
ideal	-11.8593
editor	-11.8594
fight	-11.8594
/2015-	-11.8595
handmade	-11.8599
337	-11.86
935	-11.8603
trabajo	-11.8604
://111-	-11.8605
985	-11.8607
738	-11.8608
742	-11.8611
923	-11.8612
9%87-%	-11.8613
alain	-11.8615
oto	-11.8617
compact	-11.8618
709	-11.8619
examples	-11.862
dchild	-11.8621
obage	-11.8621
argentina	-11.8622
utazas	-11.8623
indonesian	-11.8623
394	-11.8624
-2006-	-11.8624
gabriel	-11.8625
column	-11.8625
/142	-11.8625
operation	-11.8625
idtype	-11.8628
ghost	-11.8633
100.	-11.8633
901	-11.8635
631	-11.8637
voyage	-11.864
ier	-11.8642
council	-11.8643
sure	-11.8643
=46	-11.8643
lawrence	-11.8644
814	-11.8644
537	-11.8645
walking	-11.8645
618	-11.8648
libros	-11.8649
historia	-11.8649
appartement	-11.8649
quinn	-11.8651
813	-11.8653
falls	-11.8653
knowledge	-11.8654
hua	-11.8654
todo	-11.866
714	-11.8663
917	-11.8664
latina	-11.8664
905	-11.8664
infobel	-11.8664
.222.	-11.8666
zapchasti	-11.8669
538	-11.867
1024	-11.8671
vat	-11.8671
fiction	-11.8674
ghz	-11.8675
ckey	-11.8676
techno	-11.8677
nat	-11.8677
687	-11.8677
/184	-11.8678
popcornfl	-11.8678
aba	-11.868
578	-11.8681
rac	-11.8682
694	-11.8682
kill	-11.8684
annonce	-11.8685
werk	-11.8687
818	-11.869
nifty	-11.869
cheaperthandirt	-11.8691
holz	-11.8696
npi	-11.8699
amo	-11.87
liz	-11.8701
tay	-11.8701
forge	-11.8702
hist	-11.8702
searching	-11.8703
logue	-11.8709
obzip	-11.8712
781	-11.8712
387	-11.8713
mesa	-11.8713
fff	-11.8722
662	-11.8723
cont	-11.8724
columbus	-11.8724
ndx	-11.8725
396	-11.8725
981	-11.8728
maya	-11.8729
masters	-11.873
ereuropa	-11.8731
donesp	-11.8732
678	-11.8733
sci	-11.8733
864	-11.8736
odziez	-11.8737
coursehero	-11.8737
reactions	-11.8737
=44	-11.8737
akci	-11.874
penguin	-11.8742
/117	-11.8742
tang	-11.8744
detroit	-11.8748
leben	-11.875
tmpl	-11.875
labs	-11.8751
vebin	-11.8754
soap	-11.8756
ium	-11.8758
724	-11.876
ical	-11.8761
/118	-11.8763
782	-11.8763
474	-11.8763
kart	-11.8764
rapid	-11.8764
909	-11.8766
oct	-11.8771
diana	-11.8771
chase	-11.8771
/2018/	-11.8771
042	-11.8772
bearing	-11.8772
kontakt	-11.8774
thing	-11.8778
turkey	-11.8781
eff	-11.8781
ava	-11.8785
advice	-11.8785
yteachers	-11.8785
teacherspa	-11.8787
drawing	-11.8787
hits	-11.8792
pecas	-11.8792
=48&	-11.8793
knight	-11.8793
tels	-11.8794
avis	-11.8795
tourism	-11.8797
vacation	-11.8799
dhjhy	-11.88
202.	-11.8802
799	-11.8803
galeria	-11.8803
bubble	-11.8805
chess	-11.8807
054	-11.8807
federated	-11.8807
kalender	-11.8807
evans	-11.8811
nba	-11.8814
dfw	-11.8814
costume	-11.8815
suppliers	-11.8816
adults	-11.8817
vishay	-11.882
/140	-11.8821
certified	-11.8822
variant	-11.8823
812	-11.8823
nome	-11.8823
producer	-11.8824
desi	-11.8828
034	-11.8828
713	-11.8828
nero	-11.8829
00&	-11.883
environmental	-11.883
607	-11.8831
::	-11.8833
prd	-11.8834
bikini	-11.8835
/2020/	-11.8839
whatsapp	-11.884
finger	-11.8841
dawn	-11.8844
047	-11.8845
+(	-11.8848
robot	-11.8849
7%84%	-11.885
cnki	-11.8852
vale	-11.8852
alarm	-11.8853
cricket	-11.8854
laurent	-11.8855
suspension	-11.886
679	-11.8863
847	-11.8866
866	-11.8867
/2006-	-11.8868
chiama	-11.8869
ear	-11.8869
rita	-11.8873
bohdali	-11.888
646	-11.8882
kaeltetechnik	-11.8883
933	-11.8884
bud	-11.8884
looking	-11.8886
adf	-11.8886
ang	-11.8887
cherokee	-11.8891
otvet	-11.8892
statistics	-11.8892
784	-11.8897
695	-11.8902
772	-11.8903
carter	-11.8904
2010	-11.8904
tran	-11.8907
weibo	-11.8909
indo	-11.8909
/134	-11.8911
/2004-	-11.8912
569	-11.8913
/240	-11.8913
pumps	-11.8914
029	-11.8914
rxg	-11.8915
664	-11.8916
political	-11.8917
ary	-11.8918
signal	-11.8919
meat	-11.892
/108	-11.8921
plain	-11.8922
/2020	-11.8925
mls	-11.8927
chateau	-11.8927
582	-11.8927
livingsets	-11.8928
audible	-11.8929
dajar	-11.893
caravan	-11.8931
voiture	-11.8933
suite	-11.8934
elegant	-11.8934
margaret	-11.8939
/162	-11.8939
/135	-11.8941
sante	-11.8942
accessory	-11.8942
campbell	-11.8942
deportes	-11.8943
fea	-11.8943
785	-11.8944
produkte	-11.8944
blanco	-11.8945
consultants	-11.8947
069	-11.8947
endo	-11.895
sexguide	-11.895
824	-11.8951
mira	-11.8951
/563	-11.8955
ahg	-11.8959
2012	-11.896
stephanie	-11.8961
trash	-11.8962
tmm	-11.8964
893	-11.8965
draft	-11.8966
2%80%9	-11.8969
exhaust	-11.8969
shen	-11.8969
denim	-11.8971
mymemory	-11.8971
relb	-11.8971
pai	-11.8973
midi	-11.8973
057	-11.8974
scooter	-11.8975
citation	-11.8977
055	-11.8978
maico	-11.8979
csp	-11.898
fourwalls	-11.8981
/180	-11.8981
pix	-11.8982
-26-	-11.8986
952	-11.8987
autoparts	-11.8988
rhg	-11.8989
897	-11.899
widget	-11.8994
stewart	-11.8995
_10	-11.8995
instrument	-11.8997
protector	-11.8999
bleu	-11.8999
timeline	-11.9
much	-11.9002
-2004-	-11.9003
zhi	-11.9004
jobsearch	-11.9005
athletic	-11.9011
jie	-11.9012
067	-11.9013
563	-11.9013
greg	-11.9014
--------------	-11.9014
musical	-11.9014
1200	-11.9015
926	-11.9016
062	-11.9017
advisor	-11.9017
6%88%	-11.9017
nte	-11.9019
fischer	-11.9019
precio	-11.9021
creahi	-11.9022
potter	-11.9023
987	-11.9023
kansas	-11.9027
ventilatoren	-11.9027
pulse	-11.9029
cdf	-11.9031
bscr	-11.9032
kel	-11.9033
reise	-11.9034
wax	-11.9035
weekend	-11.9035
638	-11.9036
healing	-11.9037
xtyxy	-11.9038
glasses	-11.9039
discovery	-11.904
numerology	-11.9041
043	-11.9041
lianjia	-11.9044
surgery	-11.9047
3%81%97%	-11.9048
00000	-11.9049
2015	-11.9049
economy	-11.905
grad	-11.9052
tell	-11.9052
routes	-11.9053
068	-11.9053
774	-11.9053
spieler	-11.9054
gap	-11.9055
steering	-11.9058
ancai	-11.906
693	-11.9061
hyouban	-11.9062
fetish	-11.9063
983	-11.9066
wig	-11.9066
schneider	-11.9066
sue	-11.9068
843	-11.9068
661	-11.9069
vent	-11.9071
literature	-11.9071
851	-11.9072
scientific	-11.9072
=18&	-11.9073
ama	-11.9079
863	-11.9082
istanbul	-11.9082
damska	-11.9084
pagenumber	-11.9085
703	-11.9088
birth	-11.9089
malaysia	-11.9089
toshiba	-11.9091
crop	-11.9092
integrated	-11.9094
dollar	-11.9097
-70-	-11.9104
opinion	-11.911
932	-11.911
hol	-11.9111
037	-11.9113
folk	-11.9115
shaw	-11.9117
livejupiter	-11.9117
jzb	-11.9119
utility	-11.912
slug	-11.9123
escape	-11.9123
winestyle	-11.9124
fef	-11.9124
bryan	-11.9125
namem	-11.9128
951	-11.9131
pere	-11.9135
elckey	-11.9136
cheapv	-11.9139
taketoki	-11.9139
vaneo	-11.9145
324	-11.9148
refine	-11.9152
klaus	-11.9152
=2020&	-11.9156
craig	-11.9157
hammer	-11.9158
ramblingroo	-11.916
833	-11.916
dha	-11.9162
2013	-11.9162
577	-11.9163
-80-	-11.9164
busty	-11.9166
fdf	-11.9169
pokemon	-11.917
056	-11.9174
979	-11.9175
ersatzteile	-11.918
brazil	-11.9182
903	-11.9187
cykel	-11.9187
rfc	-11.9188
superpages	-11.9192
wayne	-11.9192
skoda	-11.9193
914	-11.9195
growth	-11.9195
stanley	-11.9195
fdd	-11.9195
motos	-11.9198
prima	-11.9198
-125	-11.9199
mouth	-11.9201
philippines	-11.9202
sweatshirt	-11.9205
rhn	-11.9208
hours	-11.9208
/2017/	-11.9208
wald	-11.9211
disp	-11.9212
axg	-11.9214
098	-11.9217
planner	-11.9218
lyon	-11.9221
707	-11.9221
putlocker	-11.9222
feel	-11.9226
gordon	-11.9229
/102	-11.9231
evolution	-11.9235
jaguar	-11.9235
brelb	-11.9238
wright	-11.9238
sedan	-11.9239
appliances	-11.9239
miles	-11.9244
leisure	-11.9245
://123	-11.9245
salud	-11.9246
teaching	-11.9248
oscar	-11.9249
dictionnaire	-11.9249
coral	-11.925
063	-11.925
clap	-11.9251
tshirt	-11.9254
logan	-11.9259
856	-11.9261
tandem	-11.9262
329	-11.9263
blend	-11.9265
/2003-	-11.9266
verein	-11.9267
joan	-11.9267
5015	-11.9268
producto	-11.9268
nha	-11.9272
spark	-11.9272
tres	-11.9275
058	-11.9276
sanjinxm	-11.9277
919	-11.9278
alu	-11.9279
instruments	-11.9281
rebecca	-11.9282
stripe	-11.9288
848	-11.9291
funeral	-11.9291
astra	-11.9292
pioneer	-11.9292
iris	-11.9293
alliance	-11.9293
4-%	-11.9297
coupons	-11.9299
partners	-11.93
mio	-11.9304
velvet	-11.9305
lonely	-11.9306
mitfle	-11.9309
ole	-11.9309
extension	-11.9309
telecharger	-11.931
832	-11.9311
werner	-11.9312
indiana	-11.9312
knit	-11.9316
bistro	-11.9317
bodega	-11.932
091	-11.9322
973	-11.9326
ingles	-11.9328
profi	-11.9328
signature	-11.9328
galleries	-11.9328
dersconference	-11.9333
meeting	-11.9333
chamado	-11.9336
hbzoi	-11.9336
vue	-11.9338
targeturl	-11.9338
regionid	-11.9343
entreprise	-11.9345
error	-11.9347
athena	-11.9347
medi	-11.9348
neil	-11.9349
buyersguide	-11.9349
tovary	-11.9349
fleur	-11.9351
feld	-11.9354
=61	-11.9355
pagetype	-11.9356
keith	-11.9358
mainproduct	-11.9359
tes	-11.9361
uber	-11.9362
principles	-11.9364
disk	-11.9366
046	-11.9367
ddf	-11.9371
904	-11.9372
daughter	-11.9374
estado	-11.9374
-300	-11.9375
volike	-11.9376
ershoufang	-11.9377
=75	-11.9377
glami	-11.938
/2007-	-11.9383
lok	-11.9383
cep	-11.9387
8%80%	-11.9388
913	-11.9388
autumn	-11.9388
acura	-11.9392
stamp	-11.9392
tara	-11.9393
049	-11.9394
script	-11.9395
guki	-11.9398
061	-11.9399
928	-11.9399
tyres	-11.9401
/160	-11.9404
epic	-11.9404
recovery	-11.9405
-35-	-11.9406
alert	-11.9407
vse	-11.9407
agentg	-11.9409
hana	-11.9412
instituto	-11.9414
angela	-11.9414
creampie	-11.942
/149	-11.942
swim	-11.9422
escaped	-11.9424
serv	-11.9435
warren	-11.9435
xsw	-11.9435
standing	-11.9437
ari	-11.9438
morning	-11.9438
marble	-11.9438
wir	-11.944
cocid	-11.9442
eef	-11.9445
407	-11.9446
0+%	-11.9447
dana	-11.9447
marvel	-11.9447
rider	-11.9449
922	-11.9449
honor	-11.9449
tut	-11.945
channels	-11.945
moskva	-11.9451
minute	-11.9451
candle	-11.9456
giant	-11.9457
36%3	-11.9459
productdetail	-11.9461
knife	-11.9464
matrix	-11.9465
sunny	-11.9466
cre	-11.9466
adobe	-11.9466
obituary	-11.9469
/155	-11.9469
hoy	-11.9473
merchant	-11.9474
1%85%	-11.9478
toddler	-11.9478
dff	-11.9479
ruth	-11.9479
sai	-11.948
=54	-11.948
lawyers	-11.948
ika	-11.9482
mars	-11.9483
dreams	-11.9483
prek	-11.9486
vivo	-11.9486
dig	-11.9486
myhome	-11.9487
ute	-11.9493
speaker	-11.9493
amanda	-11.9495
pride	-11.9496
/109	-11.9497
closet	-11.9497
strategy	-11.9502
dash	-11.9505
droit	-11.9505
cadillac	-11.9506
faux	-11.9508
huis	-11.9509
937	-11.951
wav	-11.951
=43	-11.9511
929	-11.9512
femmes	-11.9516
mental	-11.9521
mkid	-11.9522
truth	-11.9523
rie	-11.9523
selling	-11.9524
bronze	-11.9524
owa	-11.9527
analytics	-11.9527
slot	-11.9529
verlag	-11.953
seasonal	-11.9534
warrior	-11.9534
protein	-11.9541
76%3	-11.9543
operator	-11.9544
enterprises	-11.9546
dentist	-11.9547
629	-11.955
produits	-11.9552
monkey	-11.9555
spreadshirt	-11.9559
loans	-11.9559
consumer	-11.9562
webhost	-11.9562
099	-11.9563
cultural	-11.9563
diario	-11.9567
379	-11.9567
nid	-11.9569
trader	-11.9573
oder	-11.9573
fcf	-11.9574
during	-11.9574
liv	-11.9581
ddc	-11.9581
ora	-11.9584
ura	-11.9589
ganji	-11.9593
kun	-11.9596
anzeige	-11.9602
663	-11.9604
gor	-11.9606
leer	-11.9606
wick	-11.9607
consult	-11.9608
awards	-11.9608
rxn	-11.9609
+3+	-11.9609
lik	-11.961
nsner	-11.9617
banking	-11.9618
gris	-11.9619
portrait	-11.9623
iowa	-11.9624
scoop	-11.9627
soup	-11.9629
kul	-11.963
-110	-11.9634
pixel	-11.9635
porta	-11.9635
converter	-11.9637
surface	-11.9641
marke	-11.9641
559	-11.9642
delhi	-11.9642
suffix	-11.9644
svg	-11.9646
cause	-11.9647
_19	-11.9647
preisvergleich	-11.9647
064	-11.9649
aeb	-11.965
behindthero	-11.965
desert	-11.9652
zbozi	-11.9656
mzg	-11.9657
otc	-11.9657
092	-11.9659
059	-11.966
organizer	-11.9666
:1&	-11.967
01&	-11.9672
sey	-11.9673
viagra	-11.9675
alquiler	-11.9676
discover	-11.9677
arctic	-11.9679
096	-11.9679
employment	-11.9681
instruction	-11.9682
filterlist	-11.9684
jak	-11.9684
tokenid	-11.9685
programme	-11.9687
dfd	-11.9692
chaturbate	-11.9693
%22&	-11.9693
grp	-11.9694
skirt	-11.9696
ancient	-11.9697
cfml	-11.9698
motorola	-11.9698
slut	-11.9698
/2002-	-11.9699
rite	-11.97
cfc	-11.9702
juventudea	-11.9702
cams	-11.9703
soundcloud	-11.9704
bronx	-11.9707
/179	-11.9708
reversible	-11.9709
fence	-11.9709
friendly	-11.9714
linkout	-11.9718
097	-11.9722
:0,	-11.9725
newspage	-11.9725
leader	-11.9729
wagon	-11.9732
redir	-11.9732
cfb	-11.9733
kur	-11.9734
hei	-11.9739
backpack	-11.9739
bdf	-11.974
swift	-11.9741
763	-11.9742
glo	-11.9743
alba	-11.9743
carview	-11.975
nylon	-11.9757
specialty	-11.9758
fcb	-11.9762
butler	-11.9762
crypto	-11.9764
msi	-11.9767
=52	-11.9767
peri	-11.9769
florence	-11.977
/178	-11.9773
blau	-11.9775
nicolas	-11.9777
bucket	-11.9778
holly	-11.9779
stud	-11.9779
choose	-11.9781
decisions	-11.9786
nansai	-11.9786
_11/	-11.9787
apedia	-11.9788
alter	-11.9788
consultant	-11.9789
vce	-11.979
olivier	-11.979
nap	-11.9792
breakfast	-11.9792
webshop	-11.9794
startdate	-11.9794
vom	-11.9795
fda	-11.98
949	-11.9802
approach	-11.9804
/113	-11.9805
bert	-11.9805
chinaref	-11.9811
jiaoyu	-11.9814
hydraulic	-11.9819
cer	-11.9819
bedrooms	-11.982
tuning	-11.9821
lia	-11.9822
mechanical	-11.9827
6%92%	-11.9827
mul	-11.9827
dasenlin	-11.9833
dfb	-11.9834
tvonline	-11.9839
richmond	-11.9839
783	-11.9842
bnm	-11.9844
graphs	-11.9847
myyp	-11.9849
fcd	-11.9849
xtcsid	-11.985
fisher	-11.9851
brief	-11.9852
basis	-11.9853
rules	-11.9857
palace	-11.9857
bom	-11.9858
residence	-11.986
imperial	-11.986
habbo	-11.9864
transportation	-11.9869
shock	-11.9871
ignition	-11.9871
metabo	-11.9871
schoenen	-11.9877
nanyang	-11.9881
sister	-11.9882
qua	-11.9882
-2002-	-11.9884
towel	-11.9885
066	-11.9887
weed	-11.9893
dreamstime	-11.9895
magnet	-11.9895
fig	-11.9896
meme	-11.99
cul	-11.9903
ota	-11.9903
fwd	-11.9905
fir	-11.9906
fake	-11.9908
eyny	-11.9908
norman	-11.9909
marktplaats	-11.9909
pia	-11.991
-28-	-11.9918
santo	-11.9921
give	-11.9923
mounted	-11.9924
texte	-11.9925
universe	-11.9925
cruise	-11.9931
=4294936603+4294	-11.9934
franklin	-11.9939
sector	-11.9942
funimation	-11.9943
astoria	-11.9945
888.	-11.9945
/2000-	-11.9946
ette	-11.9946
asap	-11.9948
tennessee	-11.9949
/136	-11.9951
boxes	-11.9953
nica	-11.9954
seed	-11.9963
remax	-11.9963
builders	-11.9964
nsc	-11.9966
contractors	-11.9966
grip	-11.9969
lime	-11.997
chemeng	-11.9972
fiesta	-11.9972
seite	-11.9973
wrap	-11.9976
/124	-11.9978
ini	-11.9978
/2001-	-11.9979
structure	-11.9979
stella	-11.9981
heater	-11.9987
smartphone	-11.9988
myaccount	-11.9988
cub	-11.9989
ici	-11.9991
=80	-11.9995
teach	-11.9995
tas	-11.9997
elena	-11.9998
hdtxg	-11.9998
hairy	-11.9999
howto	-12.0006
nico	-12.0008
temple	-12.0009
-45-	-12.0012
koi	-12.0012
pallet	-12.0013
/163	-12.0015
marche	-12.0015
kupit	-12.0016
scotland	-12.0022
/147	-12.0022
xue	-12.0023
heating	-12.0023
gio	-12.0023
iam	-12.0024
ndl	-12.0025
historical	-12.0029
jpy	-12.0035
jpn	-12.0035
lester	-12.0036
=58&	-12.004
funda	-12.0044
sommer	-12.0045
granny	-12.0046
ati	-12.0046
programming	-12.0046
ebern	-12.0047
sean	-12.0048
strom	-12.0056
corn	-12.0059
annie	-12.0061
tthepost	-12.0062
firstpas	-12.0062
epa	-12.0063
adrian	-12.0066
dur	-12.0067
coronavirus	-12.0069
marshall	-12.007
dimmi	-12.007
polar	-12.0073
ffind	-12.0074
ivan	-12.0078
bkcco	-12.0081
3%83%93%	-12.0081
illustrated	-12.0082
sweater	-12.0084
dba	-12.0084
charlton	-12.0085
ceo	-12.0089
toilet	-12.009
landing	-12.0095
popcorn	-12.0098
vir	-12.0099
melissa	-12.0101
adicao	-12.0101
000000000	-12.0104
dajie	-12.0104
hawaii	-12.0112
624	-12.0113
-2003-	-12.0113
bcr	-12.0116
irish	-12.0117
093	-12.0121
beiye	-12.0127
strategies	-12.0128
/188	-12.0131
elevation	-12.0134
nomegrup	-12.0136
rectangular	-12.0138
plat	-12.0145
ccc	-12.0149
enter	-12.0151
olive	-12.0151
/129	-12.0154
farmhouse	-12.0154
romeo	-12.0156
baba	-12.0157
yell	-12.0159
mte	-12.016
dumps	-12.0161
chance	-12.0162
loco	-12.0166
usr	-12.0167
scarpe	-12.0168
macro	-12.0168
som	-12.0169
rav	-12.0169
olp	-12.017
jeffrey	-12.0171
enddate	-12.0172
ify	-12.0172
fril	-12.0172
dcb	-12.0175
frauen	-12.0175
mistore	-12.0179
hunting	-12.018
mfg	-12.0181
tian	-12.0185
alabama	-12.0186
1011	-12.019
florist	-12.019
informatica	-12.0192
actress	-12.0194
zazzle	-12.0195
sciences	-12.0196
kenneth	-12.0198
elo	-12.0199
toner	-12.0199
ontributionspage	-12.02
dealers	-12.0202
directions	-12.0206
satin	-12.0206
fold	-12.0206
mtg	-12.0208
warranty	-12.0209
uomo	-12.0209
multiple	-12.0212
hora	-12.0213
abu	-12.0213
gutschein	-12.0213
thu	-12.0214
tong	-12.0214
samuel	-12.0216
zeit	-12.0217
froush	-12.0219
september	-12.0221
printthread	-12.0223
lie	-12.0228
cbf	-12.0228
buffalo	-12.0229
singer	-12.0235
/104	-12.0237
oscaguas	-12.0238
genesis	-12.024
asambleade	-12.0242
charm	-12.0243
enbanc	-12.0246
economic	-12.0246
attachments	-12.0248
mata	-12.0248
cedar	-12.025
-39-	-12.0251
vanities	-12.0252
eastern	-12.0253
trace	-12.0253
cena	-12.0254
buynow	-12.0255
931	-12.0255
fernandez	-12.0256
utm	-12.0257
diane	-12.0258
sklep	-12.0258
/2016-	-12.0263
forsale	-12.0264
tory	-12.0264
mori	-12.0265
siemens	-12.0265
optic	-12.0266
hawk	-12.0266
vbl	-12.0267
12&	-12.027
cara	-12.0274
overstock	-12.0275
meds	-12.0275
debut	-12.0276
byredo	-12.0278
nest	-12.028
teak	-12.0281
/2008-	-12.0284
len	-12.0285
anchor	-12.0285
rehab	-12.0287
hog	-12.0287
sala	-12.0289
westminster	-12.0289
cooler	-12.029
mud	-12.0291
faa	-12.0291
royalty	-12.0292
hold	-12.0293
vai	-12.0293
vag	-12.0296
terre	-12.0298
geek	-12.0299
=36&	-12.0299
nyy	-12.03
chk	-12.0302
birds	-12.0307
brooks	-12.031
aaron	-12.031
puerto	-12.0311
facial	-12.0311
advertising	-12.0314
garmin	-12.0315
complex	-12.0319
effect	-12.032
mysnu	-12.0321
/172	-12.0325
ven	-12.0327
2-%	-12.0327
fog	-12.033
bok	-12.0334
eritel	-12.0334
5000	-12.0337
/119	-12.034
ifeng	-12.0342
jacob	-12.0352
mitula	-12.0352
kanto	-12.0357
homework	-12.0366
lari	-12.0367
exclusive	-12.0367
setlang	-12.0368
genius	-12.0368
missyu	-12.0369
stickers	-12.0369
conversation	-12.037
hudson	-12.0371
ffa	-12.0373
/125	-12.0373
machinery	-12.0378
cea	-12.0378
luggage	-12.0379
wat	-12.0381
2018.	-12.0384
stra	-12.0384
aires	-12.0388
ffc	-12.0389
present	-12.0391
motorcycles	-12.0393
tyler	-12.0393
sandals	-12.0394
-1000-	-12.0399
selllikeitem	-12.0402
stress	-12.0402
807	-12.0402
cant	-12.0402
generic	-12.0404
filme	-12.0409
maat	-12.0413
cpu	-12.0418
steamboat	-12.0422
nebular	-12.0423
/156	-12.0424
syn	-12.0426
refinement	-12.0427
/183	-12.043
unter	-12.0431
porte	-12.0432
holt	-12.0433
cookpad	-12.0434
acp	-12.0437
lucy	-12.0438
avantgardeni	-12.0441
pasta	-12.0444
hotpepper	-12.0446
lmh	-12.0448
cion	-12.0449
cda	-12.0452
valid	-12.0453
gerd	-12.0455
nara	-12.0456
accord	-12.0456
screenshots	-12.0461
interactive	-12.0462
ricerca	-12.0463
signs	-12.0463
grau	-12.0466
levels	-12.0466
apartamento	-12.0468
roberto	-12.0469
jusbrasil	-12.0471
natur	-12.0472
thin	-12.0473
eda	-12.0474
modular	-12.0474
plast	-12.0477
rough	-12.0478
casting	-12.0478
oli	-12.0478
elisa	-12.048
perfume	-12.0481
drill	-12.0484
bicycle	-12.0486
bhg	-12.0486
sewing	-12.0487
couture	-12.0491
leonard	-12.0491
pontiac	-12.0492
manu	-12.0492
spy	-12.0493
formula	-12.0494
meal	-12.0499
newest	-12.0499
eli	-12.0501
rightmove	-12.0503
murray	-12.0504
please	-12.0504
nieznany	-12.0505
headboard	-12.0506
thermo	-12.0509
robinson	-12.0509
kami	-12.0511
opac	-12.0512
gratuit	-12.0513
esp	-12.0516
/145	-12.0516
094	-12.0517
mueller	-12.052
porntags	-12.0523
loader	-12.0525
/2019/	-12.0527
nyj	-12.053
lien	-12.0535
gracie	-12.0542
mou	-12.0543
voi	-12.0544
=26&	-12.0544
pap	-12.0546
lose	-12.0548
=32&	-12.0552
oki	-12.0556
scuola	-12.0557
dump	-12.0561
engagement	-12.0561
minutes	-12.0562
jou	-12.0563
machines	-12.0564
yeast	-12.0565
produkty	-12.0566
lessons	-12.0567
sectionid	-12.0568
deli	-12.0569
ziprecruiter	-12.0572
astmoney	-12.0576
intelligence	-12.0577
holy	-12.0579
positive	-12.0579
patterns	-12.0581
aluminium	-12.0581
fprovince	-12.0583
harvard	-12.0584
marriage	-12.0586
=80&	-12.0586
ntu	-12.059
mie	-12.0591
charge	-12.0591
/131	-12.0591
driving	-12.0592
fbf	-12.0592
cosplay	-12.0595
utah	-12.0597
/137	-12.0599
3%83%99%	-12.0603
ferrari	-12.0604
sang	-12.0607
tote	-12.0608
juegos	-12.0608
:1,	-12.0608
missouri	-12.0609
javier	-12.0609
xda	-12.0609
colorful	-12.0611
ufa	-12.0612
uol	-12.0618
cdb	-12.0618
eating	-12.0618
monica	-12.0619
itemlist	-12.0619
dfc	-12.062
alcott	-12.0621
discogs	-12.0623
=53	-12.0624
biritiba	-12.0624
weber	-12.0626
anniversary	-12.0627
-1-2-	-12.0627
chennai	-12.0627
catalogo	-12.0627
loupan	-12.063
thumb	-12.0632
chelsea	-12.0633
dakota	-12.0637
awesome	-12.0639
beads	-12.0642
tamil	-12.0645
critical	-12.0646
connections	-12.0647
aan	-12.0647
folder	-12.0648
/177	-12.0648
collectibles	-12.0649
zel	-12.0649
clay	-12.065
250-	-12.0652
20&	-12.0654
leagueof	-12.0654
trio	-12.0657
wetter	-12.0657
exercise	-12.0659
kraft	-12.0662
oni	-12.0669
rubrikk	-12.067
butterfly	-12.067
lloyd	-12.0671
/146	-12.0673
stuart	-12.0675
splar	-12.0676
iness	-12.068
924	-12.0681
presse	-12.0683
kings	-12.0684
crossword	-12.0689
childrens	-12.0689
/151	-12.0691
gateway	-12.0693
/121	-12.0694
varime	-12.0696
mtm	-12.0698
mta	-12.0699
vyy	-12.0699
nikon	-12.0703
fbb	-12.0703
cosmetics	-12.0706
bokafl	-12.0707
/152	-12.0708
anita	-12.0709
lemon	-12.0709
purpose	-12.071
troy	-12.0711
aurora	-12.0715
ueber	-12.0716
akunder	-12.0722
grabcad	-12.0723
editorial	-12.0723
/11/	-12.0725
/170	-12.0725
corporations	-12.0726
survival	-12.0729
heel	-12.0733
wcm	-12.0734
+2+	-12.0737
ori	-12.0739
hur	-12.0741
msk	-12.0741
dar	-12.0742
vcard	-12.0743
must	-12.0743
yuan	-12.0745
hun	-12.0745
jerry	-12.0746
relation	-12.0746
memo	-12.0749
1%84%	-12.0749
6%99%	-12.0752
enfants	-12.0753
mkt	-12.0754
qfang	-12.0758
lorintean	-12.0764
pons	-12.0765
fishbox	-12.0766
quad	-12.0768
transplante	-12.077
hannah	-12.077
150-	-12.0771
fap	-12.0771
aircraft	-12.0772
serve	-12.0776
highland	-12.0777
dadqw	-12.0777
luck	-12.0778
insight	-12.0778
tempo	-12.0778
dcf	-12.0779
2%84%	-12.0779
5%90%8	-12.078
cdd	-12.0782
tfe	-12.0783
/185	-12.0784
dars	-12.0784
hse	-12.0784
stretch	-12.0785
pinnedhotel	-12.0788
pony	-12.0788
pixta	-12.0788
fukuoka	-12.0789
kitty	-12.079
gesetze	-12.079
sunday	-12.0792
srule	-12.0793
gomez	-12.0795
minnesota	-12.0797
lucas	-12.0797
alternative	-12.0801
ffb	-12.0801
/187	-12.0802
defense	-12.0803
damskie	-12.0804
teile	-12.0805
gala	-12.0805
eea	-12.0806
eureka	-12.0807
_10/	-12.0807
rifle	-12.0808
vestidos	-12.0813
quartz	-12.0814
cylinder	-12.0815
cff	-12.0815
rab	-12.0816
angle	-12.0821
assessment	-12.0824
hebrew	-12.0825
productos	-12.0827
butt	-12.083
1100	-12.083
philosophy	-12.0832
ort	-12.0833
czech	-12.0835
venue	-12.0835
rico	-12.0835
plot	-12.0837
cir	-12.0838
ftp	-12.0838
emergency	-12.0838
hanging	-12.0839
even	-12.0842
shade	-12.0844
kap	-12.0844
и	-12.0844
niki	-12.0851
rule	-12.0852
cooling	-12.0853
cfd	-12.0855
sous	-12.0857
bbb	-12.0857
dfa	-12.0859
philadelphia	-12.0859
tamanho	-12.0859
redhead	-12.086
tingsa	-12.0862
terms	-12.0864
hari	-12.0864
ober	-12.0864
same	-12.0865
whirlpool	-12.0866
wrought	-12.0867
bulbs	-12.0867
triumph	-12.0868
router	-12.0869
psu	-12.0871
nearby	-12.0873
anum	-12.0874
deutsche	-12.0877
associate	-12.0885
magnetic	-12.0887
bauer	-12.0887
camper	-12.0887
nuwber	-12.0888
bir	-12.0889
athome	-12.0889
ffe	-12.0889
bitcoin	-12.089
regiao	-12.0891
spiel	-12.0897
tutorial	-12.0897
individual	-12.0897
fantastic	-12.0898
haynes	-12.0898
lil	-12.0899
lovely	-12.0901
listtag	-12.0905
flying	-12.0905
dag	-12.0909
ard	-12.091
cdl	-12.091
staging	-12.0911
investing	-12.0913
sebastian	-12.0913
cours	-12.0916
fei	-12.092
claudia	-12.092
ipaddress	-12.0922
criminal	-12.0924
jimmy	-12.0924
zipcode	-12.0924
barry	-12.0924
moe	-12.0925
feng	-12.0925
exo	-12.0928
chin	-12.0929
aef	-12.0929
cement	-12.093
mos	-12.0931
praxis	-12.0933
=101&	-12.0938
recettes	-12.0939
fae	-12.0939
moo	-12.094
kakaku	-12.094
noy	-12.0941
rutor	-12.0942
going	-12.0945
pel	-12.0948
/127	-12.095
bai	-12.095
snippet	-12.095
oso	-12.0954
-31-	-12.0955
mack	-12.0956
mkk	-12.0958
zoeken	-12.096
buick	-12.0961
guo	-12.0964
8%83%	-12.0965
lml	-12.0966
usces	-12.097
eventi	-12.097
valencia	-12.097
fec	-12.0971
salarytype	-12.0972
cord	-12.0972
bqg	-12.0973
built	-12.0974
6%94%	-12.0974
metallic	-12.0976
fernando	-12.0977
comparison	-12.0977
907	-12.0979
anh	-12.0983
ricular	-12.0983
multimedia	-12.0986
-2018	-12.0988
traduction	-12.0993
neuro	-12.0996
calgary	-12.1003
steam	-12.1003
jeux	-12.1005
8%99%	-12.1011
3000	-12.1012
maths	-12.1014
virgilio	-12.1021
9%99%	-12.1022
8%25	-12.1023
supreme	-12.1024
volzhanka	-12.1024
/2016/	-12.1024
lover	-12.1025
/114	-12.1027
allan	-12.1028
caps	-12.1029
murphy	-12.1032
yama	-12.1033
manufacturing	-12.1036
-2-0-	-12.1036
dept	-12.1036
sharon	-12.1041
robe	-12.1042
fotografie	-12.1045
saitama	-12.1045
mol	-12.1046
hpe	-12.105
tot	-12.1052
lust	-12.1052
initial	-12.1053
wenda	-12.1053
recruitment	-12.1055
quarter	-12.1056
-2019	-12.1056
111.	-12.1057
annual	-12.1061
leadership	-12.1062
jorge	-12.1062
won	-12.1063
vous	-12.1064
wisconsin	-12.1069
zou	-12.1069
quizlet	-12.1069
maryland	-12.1072
poke	-12.1073
-27-	-12.1074
suomi	-12.1075
christ	-12.1079
provincia	-12.1079
/158	-12.1082
raymond	-12.1082
branduid	-12.1085
nsf	-12.1086
/173	-12.1087
cycling	-12.1088
jiage	-12.1089
ische	-12.1091
jung	-12.1092
annu	-12.1093
dbid	-12.1094
cloth	-12.1099
raven	-12.11
isi	-12.1104
bij	-12.1104
lease	-12.1104
interiors	-12.1107
%20%26%20	-12.1112
navigation	-12.1114
cio	-12.1114
dora	-12.1116
bean	-12.1122
decal	-12.1124
pit	-12.1125
lte	-12.1127
voz	-12.1129
dildo	-12.113
jaw	-12.1133
biguz	-12.1136
cny	-12.1139
odi	-12.1144
noble	-12.1144
/2014-	-12.1146
itunes	-12.1148
various	-12.1151
crane	-12.1154
cef	-12.1154
petrol	-12.1154
fbc	-12.1156
ciudad	-12.1156
lov	-12.1157
hino	-12.1159
santiago	-12.116
alberto	-12.1162
/138	-12.1163
zso	-12.1164
savage	-12.1165
scout	-12.1165
distribution	-12.1169
linen	-12.1171
programs	-12.1174
mtc	-12.1175
rprs	-12.1175
asset	-12.1177
smoke	-12.1179
=28&	-12.118
trees	-12.118
montana	-12.118
milan	-12.1183
ris	-12.1184
dust	-12.1186
lap	-12.1188
=70	-12.1191
cluster	-12.1197
/153	-12.1198
raz	-12.1199
clustr	-12.1199
licht	-12.12
bras	-12.1201
loon	-12.1201
=72&	-12.1203
keto	-12.1207
replay	-12.1207
tampa	-12.1208
businesses	-12.1209
cave	-12.1211
stroke	-12.1214
gregory	-12.1216
hamburg	-12.1217
ebcoo	-12.122
acrylic	-12.122
preis	-12.1221
riding	-12.1221
_12	-12.1223
charlie	-12.1223
mtb	-12.1224
dominique	-12.1225
eokaz	-12.1228
metall	-12.1229
%22%20	-12.1229
nicholas	-12.1232
modal	-12.1234
nouvelle	-12.1235
crusher	-12.1236
themen	-12.1237
axis	-12.1239
rayon	-12.1239
uhlai	-12.1241
carrier	-12.1241
ratings	-12.1242
ntk	-12.1243
builder	-12.1245
buscar	-12.1248
silverado	-12.125
annonces	-12.125
zyjgp	-12.1252
fad	-12.1253
meeco	-12.1254
banana	-12.1254
pakistan	-12.1258
descargar	-12.1261
samtec	-12.1261
/139	-12.1261
jewellery	-12.1266
bdsm	-12.1268
frac	-12.1271
boobs	-12.1272
1500	-12.1272
hostel	-12.1272
ffd	-12.1274
discuss	-12.1278
wrangler	-12.1278
isabel	-12.1281
=81&	-12.1284
/2019-	-12.1284
quantity	-12.1285
volunteering	-12.1286
fairy	-12.1286
guid	-12.1287
mitchell	-12.1289
divine	-12.1295
arrow	-12.1297
mango	-12.1297
-48-	-12.1298
qry	-12.1298
logistics	-12.1298
offerup	-12.1299
owns	-12.1302
_13/	-12.1303
/2016	-12.1305
wonder	-12.1306
alfred	-12.1308
newspaperarchive	-12.1308
calvin	-12.1308
throw	-12.131
autotrader	-12.1311
curtains	-12.1311
letters	-12.1312
pullover	-12.1312
elixir	-12.1313
=27&	-12.1315
themovie	-12.1315
pornstars	-12.1315
=51	-12.1315
/2015	-12.1319
9%95%	-12.1319
luatgiaothong	-12.1319
flyer	-12.1322
watt	-12.1322
mafengwo	-12.1324
chamber	-12.1328
gaz	-12.1328
cromosoma	-12.1329
ruliweb	-12.1329
radar	-12.1332
/157	-12.1335
nta	-12.1338
gleez	-12.134
presentation	-12.1341
platinum	-12.1342
meaning	-12.1343
searchword	-12.1343
values	-12.1343
zon	-12.1344
loose	-12.1345
ata	-12.1346
007.	-12.1348
moovit	-12.1349
ilove	-12.1355
beth	-12.1356
itemcondition	-12.1361
benefits	-12.1364
pier	-12.1366
janet	-12.1366
paw	-12.1367
cuba	-12.1367
concert	-12.1369
professionals	-12.137
ingly	-12.1371
convertible	-12.1371
orbis	-12.1376
=99	-12.1378
-38-	-12.1378
thick	-12.1378
diff	-12.1379
3%83%88	-12.1383
turk	-12.1383
jeremy	-12.1384
xperia	-12.1385
zebra	-12.1388
essays	-12.1391
officer	-12.1394
install	-12.1396
uongbo	-12.1397
anos	-12.1397
drag	-12.1399
catholic	-12.1401
contentid	-12.1404
potential	-12.1404
jana	-12.1404
complet	-12.1406
pon	-12.1409
springer	-12.1409
estimate	-12.1411
continue	-12.1412
tale	-12.1414
3%83%94%	-12.1415
schmidt	-12.1416
eyes	-12.1423
degree	-12.1424
bristol	-12.1427
afe	-12.143
matches	-12.1431
polish	-12.1435
outdoors	-12.1441
/2012-	-12.1441
shine	-12.1442
/220	-12.1443
sexual	-12.1443
virgin	-12.1446
appform	-12.1446
roland	-12.1447
bride	-12.1447
ejo	-12.1449
mare	-12.145
zarafa	-12.1451
singh	-12.1453
stove	-12.1454
everyday	-12.1461
/101	-12.1466
collar	-12.1469
erotic	-12.147
iki	-12.1471
nya	-12.1472
afa	-12.1474
jackets	-12.1475
ino	-12.1475
inmuebles	-12.1476
ifg	-12.1478
roo	-12.1478
bridal	-12.1478
certification	-12.1478
joel	-12.1478
mere	-12.1479
101.	-12.1481
artworld	-12.1483
leigh	-12.1486
satellite	-12.1486
gao	-12.1487
selfridges	-12.1488
osagecounty	-12.1489
lich	-12.149
rbt	-12.149
ador	-12.1491
behind	-12.1493
etta	-12.1494
kultur	-12.1497
/2015/	-12.1499
shore	-12.1501
afc	-12.1502
juice	-12.1504
hasta	-12.1506
poland	-12.1509
=70&	-12.151
cfa	-12.1511
_4_	-12.1511
yumpu	-12.1512
cleveland	-12.1518
oracle	-12.1518
poshmark	-12.1519
dnb	-12.152
precision	-12.1521
sidebar	-12.1521
magatzem	-12.1522
minkara	-12.1523
cruiser	-12.1524
----------	-12.1526
anruf	-12.1526
.-2207520000../2	-12.1527
-2001-	-12.1527
rocket	-12.1528
muy	-12.1528
erik	-12.153
pho	-12.153
faf	-12.153
jenny	-12.153
&__	-12.1531
encyclopedia	-12.1532
reel	-12.1535
-2020	-12.1538
elektronika	-12.1538
subscribe	-12.1538
votre	-12.1542
imp	-12.1542
louise	-12.1544
2010.	-12.1544
nickel	-12.1546
babes	-12.1547
viviendas	-12.1548
desire	-12.1548
anton	-12.1549
investor	-12.155
duvet	-12.1551
hoi	-12.1551
cong	-12.1556
cumshot	-12.1557
fran	-12.1558
mosaic	-12.1559
cottage	-12.156
listen	-12.1563
lotto	-12.1564
fila	-12.1566
shah	-12.1569
fifa	-12.157
include	-12.1572
tou	-12.1573
manta	-12.1574
ywxidw	-12.1574
mortgage	-12.1576
pdt	-12.158
authentic	-12.1584
fluid	-12.1587
canal	-12.1587
jade	-12.1589
rabbit	-12.159
pam	-12.1591
campo	-12.1593
maysville	-12.1595
.-2207520000../1	-12.1596
together	-12.1597
cry	-12.1598
catering	-12.16
tine	-12.16
solder	-12.16
kei	-12.1601
rugby	-12.1601
zara	-12.1603
matte	-12.1605
roth	-12.1612
wfhejinguan	-12.1614
bikesale	-12.1615
writer	-12.1615
guideinfo	-12.1616
nak	-12.1618
func	-12.1621
herald	-12.1623
clutch	-12.1625
cheng	-12.1628
sunset	-12.1632
baixing	-12.1632
/164	-12.1633
=64	-12.1633
-01-	-12.1633
beli	-12.1635
gmt	-12.1638
henri	-12.1638
ovo	-12.1638
kir	-12.164
mrc	-12.1643
0%94%	-12.1645
neighbors	-12.1648
ccf	-12.1648
%95%9	-12.1652
arnold	-12.1652
listebook	-12.1653
guba	-12.1656
subcategory	-12.1656
gloves	-12.166
progress	-12.166
jvc	-12.1662
rol	-12.1663
mala	-12.1668
wealth	-12.1669
gulf	-12.1669
ery	-12.167
wel	-12.1673
hotelsnear	-12.1673
tterytradingpost	-12.1675
cflt	-12.1676
portland	-12.1683
yam	-12.1686
sql	-12.1687
omega	-12.1687
jig	-12.1688
ccb	-12.1689
frederic	-12.1689
=82&	-12.1689
kenkenn	-12.169
oku	-12.1691
/2014	-12.1691
1-_-	-12.1693
-120-	-12.1694
nepal	-12.1695
communityguide	-12.1696
gauge	-12.1696
agents	-12.1696
kumar	-12.1696
edgar	-12.1699
-400	-12.1701
csdn	-12.1702
gli	-12.1703
dune	-12.1704
kubota	-12.1704
eyjvcmrlc	-12.1705
kolor	-12.1705
musique	-12.1705
thenew	-12.1705
wade	-12.1706
yves	-12.1706
trial	-12.1706
isle	-12.1709
larry	-12.1709
christina	-12.1709
katu	-12.171
0002	-12.1711
starofservice	-12.1712
/190	-12.1716
flg	-12.1717
messages	-12.1717
semanticscholar	-12.1718
3%80%8	-12.1718
atelier	-12.1728
autor	-12.1729
hloubka	-12.173
emmaj	-12.1731
nana	-12.1732
zap	-12.1732
minh	-12.1736
nieuws	-12.1738
they	-12.1738
rebel	-12.174
bound	-12.1742
patiodining	-12.1742
bfirstname	-12.1744
ily	-12.1745
deer	-12.1746
/174	-12.1751
pepper	-12.1751
islam	-12.1753
yumep	-12.1754
ill	-12.1756
bern	-12.1757
yoo	-12.1758
viking	-12.1758
fav	-12.1758
tei	-12.1762
mister	-12.1764
inspection	-12.1766
bookcase	-12.1768
mun	-12.1771
/2013-	-12.1772
homepage	-12.1776
eos	-12.1777
3-%	-12.1778
zubehoer	-12.1781
footwear	-12.1783
lor	-12.1783
=29&	-12.1784
bangladesh	-12.1785
lori	-12.1786
xzy	-12.1787
bul	-12.1787
accommodation	-12.179
vapor	-12.1791
edc	-12.1795
16&	-12.1797
/171	-12.1797
payment	-12.1797
zaak	-12.1799
ell	-12.1799
shimano	-12.18
tui	-12.1803
marion	-12.1803
=51&	-12.1806
farbe	-12.1809
gestion	-12.1809
meg	-12.1809
wtf	-12.181
vil	-12.1811
epson	-12.1812
izle	-12.1812
neue	-12.1815
=300	-12.1818
ostreview	-12.1818
req	-12.1818
soy	-12.1819
xcode	-12.1819
themes	-12.1819
xian	-12.182
offerte	-12.182
wee	-12.1821
/181	-12.1821
=72	-12.1823
devil	-12.1824
/182	-12.1826
worker	-12.1827
/154	-12.1827
television	-12.1828
hel	-12.1834
bekleidung	-12.1835
ronald	-12.1836
userreview	-12.1837
-125-	-12.1841
yourself	-12.1844
fungal	-12.1845
hyperion	-12.1846
ways	-12.1847
sahibinden	-12.1848
nay	-12.1849
bros	-12.1849
fgk	-12.1853
dub	-12.1854
postcode	-12.1854
ubalt	-12.1856
kategorie	-12.1856
clipart	-12.1859
methods	-12.1861
cua	-12.1864
bureau	-12.1874
/189	-12.1875
amphenol	-12.1879
artificial	-12.1879
0%91%	-12.188
rated	-12.1881
evil	-12.1882
waste	-12.1883
rica	-12.1885
vox	-12.1886
polska	-12.1889
lastpost	-12.1894
/193	-12.1896
interracial	-12.1898
=10000	-12.1905
gou	-12.1907
woo	-12.1909
ddr	-12.1909
keyboard	-12.1912
goal	-12.1913
atm	-12.1917
carlo	-12.1918
xome	-12.1921
drugs	-12.1923
15697-1	-12.1923
pestcontrol	-12.1924
eed	-12.1924
czesci	-12.1926
paz	-12.1928
/166	-12.1928
automation	-12.1931
manage	-12.1933
virus	-12.1934
phillips	-12.1934
anatomy	-12.1935
mattress	-12.1936
rally	-12.1937
geschichte	-12.1937
personalized	-12.1938
ruby	-12.1939
penny	-12.1939
jos	-12.1939
burning	-12.1939
crunchba	-12.1942
parents	-12.1944
=73&	-12.1948
umc	-12.1948
triple	-12.1948
catawiki	-12.1949
cheese	-12.1951
lipcoin	-12.1951
gtx	-12.1953
travaux	-12.1954
million	-12.1956
buddy	-12.1957
asics	-12.1959
quora	-12.1962
temporary	-12.1964
steps	-12.1966
aura	-12.1966
#!/	-12.1967
hanoi	-12.1969
mus	-12.197
=77&	-12.1971
gfdt	-12.1972
weebly	-12.1977
kentucky	-12.1978
essen	-12.1979
constru	-12.1983
till	-12.1983
dial	-12.1989
reef	-12.1989
profit	-12.1989
continental	-12.1991
innovation	-12.1992
feat	-12.1993
surprise	-12.1996
whole	-12.1998
president	-12.2
kurs	-12.2001
aishudi	-12.2002
/148	-12.2003
command	-12.2011
edf	-12.2011
nails	-12.2012
zak	-12.2013
cent	-12.2013
264-	-12.2015
osa	-12.2019
johnny	-12.2019
/143	-12.202
referral	-12.202
=120	-12.2022
father	-12.2024
wed	-12.2026
15_	-12.2028
kana	-12.2028
chapman	-12.203
memories	-12.2034
stil	-12.2037
january	-12.2038
nescafe	-12.2041
advance	-12.2042
credenciales	-12.2043
phim	-12.2044
zhen	-12.2044
harvey	-12.2045
professor	-12.2046
viz	-12.205
lara	-12.2053
psycho	-12.2055
jetta	-12.2055
alloy	-12.2056
evening	-12.2056
distancia	-12.2057
bauboard	-12.2061
silotype	-12.2062
while	-12.2065
glitter	-12.2065
stern	-12.2066
lokre	-12.2068
jeu	-12.2068
halo	-12.2069
maple	-12.2069
scan	-12.207
-101-	-12.2071
frei	-12.2071
denis	-12.2072
rak	-12.2074
=31&	-12.2077
-1080	-12.208
ikea	-12.2082
=55&	-12.2087
valle	-12.2088
oka	-12.2088
.360	-12.2089
fbd	-12.209
vacatures	-12.2096
rag	-12.2096
highlife	-12.2097
elisabeth	-12.2098
ubbthreads	-12.2102
/165	-12.2103
gur	-12.2105
concepts	-12.2105
skip	-12.2107
sant	-12.2111
october	-12.2111
cci	-12.2112
grain	-12.2114
amg	-12.2117
muz	-12.2118
threesome	-12.2118
gbp	-12.2119
wai	-12.2121
oaqeadqw	-12.2125
converse	-12.2127
servis	-12.2127
paula	-12.2128
nar	-12.2131
abb	-12.2132
grass	-12.2133
_12/	-12.2134
hands	-12.2134
linear	-12.2135
moviecinema	-12.2136
latino	-12.2138
mcode	-12.2139
-2014.	-12.2143
bfd	-12.2144
contra	-12.2145
hjcz	-12.2146
parka	-12.2148
/2014/	-12.2149
elementary	-12.2153
-2018/	-12.2153
-400-	-12.2155
ira	-12.2159
livejournal	-12.216
nhl	-12.216
mcolombia	-12.2161
uwe	-12.2162
koop	-12.2163
again	-12.2164
xia	-12.2164
analyst	-12.2164
luke	-12.2165
/175	-12.2165
casio	-12.2166
corolla	-12.2167
expsc	-12.2168
response	-12.2168
tia	-12.2169
ista	-12.217
marken	-12.2171
9%85-%	-12.2171
axe	-12.2172
bailey	-12.2173
lung	-12.2174
tti	-12.2177
cntry	-12.2182
mdf	-12.2186
=78	-12.2187
crack	-12.2188
mum	-12.2189
holm	-12.2189
chaise	-12.2189
pzd	-12.2192
safari	-12.2193
cisco	-12.2194
wert	-12.2196
punto	-12.2197
erin	-12.2198
efa	-12.22
contribute	-12.2203
onderdelen	-12.2205
dcc	-12.2205
jetpix	-12.2207
=78&	-12.2208
punk	-12.2209
gsn	-12.2209
alpes	-12.2217
pixiv	-12.2219
filtre	-12.222
reset	-12.2222
7%90%	-12.2223
dian	-12.2225
kreis	-12.2225
cbc	-12.2225
outouj	-12.2227
2%9	-12.2227
lyst	-12.2231
aeg	-12.2232
xxxtube	-12.2232
condo	-12.2232
ident	-12.2234
ably	-12.2235
daf	-12.2235
gerard	-12.2235
stem	-12.2235
burger	-12.2238
/215	-12.2244
float	-12.2246
ove	-12.2247
whats	-12.2249
roi	-12.225
huoche	-12.2251
challege	-12.2252
sum	-12.2254
lak	-12.2254
nti	-12.2255
cheep	-12.2256
another	-12.2256
investors	-12.2257
bundle	-12.226
gall	-12.2261
dessert	-12.2262
merken	-12.2262
taw	-12.2263
pablo	-12.2265
skull	-12.2268
ntt	-12.2269
=53&	-12.2273
suggest	-12.2273
slice	-12.2275
tiffany	-12.2282
badge	-12.2282
zhu	-12.2285
which	-12.2285
avia	-12.2288
quiaappel	-12.2288
itis	-12.229
heels	-12.2292
panama	-12.2293
shir	-12.2294
15&	-12.2296
lookfor	-12.2297
foster	-12.2297
hale	-12.2297
chick	-12.2298
9%81%8	-12.2299
blockspam	-12.2301
ddb	-12.2302
ahmed	-12.2302
legs	-12.2302
komatsu	-12.2304
0001	-12.2306
gina	-12.2306
qaak	-12.2309
zed	-12.231
cosmetic	-12.2312
wasser	-12.2312
bakery	-12.2313
availability	-12.2313
oklahoma	-12.2315
nicht	-12.2316
/186	-12.2316
,,	-12.2316
matome	-12.2319
iya	-12.232
?___	-12.2321
becker	-12.2322
duration	-12.2329
lightbox	-12.2331
kaskus	-12.2332
dome	-12.2333
hiro	-12.2334
bungalow	-12.2334
7395	-12.2335
symbol	-12.2338
collect	-12.2338
nintendo	-12.2338
rig	-12.234
armani	-12.2341
fanfiction	-12.2342
daddy	-12.2342
lotus	-12.2344
dak	-12.2345
efe	-12.2346
cjb	-12.2348
qaaz	-12.2349
gon	-12.2351
connectivity	-12.2353
nevada	-12.2358
extended	-12.2361
award	-12.2364
zan	-12.2365
bshouban	-12.2365
chuwe	-12.2367
goes	-12.2368
swinfs	-12.2369
humor	-12.2375
collective	-12.2377
lana	-12.2379
zhihu	-12.2379
fussball	-12.2382
tik	-12.2382
dressers	-12.2384
cambio	-12.2385
strand	-12.2386
geometric	-12.2387
atlantic	-12.2388
reblog	-12.2388
bog	-12.2389
boattrader	-12.239
jidiao	-12.2395
called	-12.2397
2005	-12.2399
ntm	-12.24
agoda	-12.24
moscow	-12.2401
а	-12.2403
ivory	-12.2403
22&	-12.2403
removal	-12.2407
apks	-12.2408
tumbex	-12.2409
fyi	-12.2409
lmnvbs	-12.2411
welding	-12.2412
rosen	-12.2412
reno	-12.2413
/176	-12.2414
nordt	-12.2414
personnel	-12.2414
zig	-12.2417
laguna	-12.2422
alphabet	-12.2423
maru	-12.2424
leder	-12.2425
consultancy	-12.2425
kawa	-12.2425
compilation	-12.2426
.192.	-12.2426
diving	-12.2427
lotrisone	-12.2428
mumbai	-12.2431
flora	-12.2432
wikimedia	-12.2434
=45&	-12.2434
ody	-12.2435
releases	-12.2435
koy	-12.2439
nathan	-12.2439
understanding	-12.244
kil	-12.244
jour	-12.244
eventos	-12.2441
5%99%	-12.2443
franz	-12.2443
bunk	-12.2445
bak	-12.2446
_5_	-12.2447
sok	-12.2448
burton	-12.2448
ale	-12.245
michelin	-12.245
nite	-12.245
twist	-12.2451
ccd	-12.2455
empleo	-12.2457
banks	-12.2458
pmc	-12.2458
tul	-12.2458
voy	-12.2461
simply	-12.2461
henderson	-12.2463
superior	-12.2465
kali	-12.2466
drom	-12.2466
temps	-12.247
niu	-12.2472
playing	-12.2476
sheets	-12.2477
%22%2	-12.2478
kingston	-12.2478
bff	-12.248
zoe	-12.248
uta	-12.2483
labor	-12.2485
shou	-12.2487
blazer	-12.2487
grocery	-12.2492
cuc	-12.2495
joblisting	-12.2495
lovers	-12.2498
bulletin	-12.2499
recommended	-12.2499
creations	-12.2501
sendmessage	-12.2506
pornmd	-12.2507
fach	-12.2511
oti	-12.2511
automobile	-12.2511
passe	-12.2513
fba	-12.2513
administration	-12.2515
-720	-12.2516
tsi	-12.2519
/13/	-12.2521
jsa	-12.2521
vehicleid	-12.2524
engel	-12.2534
psy	-12.2535
insider	-12.2538
waist	-12.2543
kurt	-12.2544
2008	-12.2544
laundry	-12.2546
1800	-12.2547
ecco	-12.2548
oficial	-12.2549
done	-12.2549
climate	-12.2549
=~	-12.255
attorney	-12.255
bcf	-12.2554
xem	-12.2554
jamie	-12.2559
18&	-12.2559
13&	-12.256
kum	-12.2561
skill	-12.2563
cultura	-12.2564
checkmate	-12.2566
cali	-12.257
massachusetts	-12.2571
kiev	-12.2576
=79&	-12.2579
kala	-12.258
filing	-12.258
arkansas	-12.258
deborah	-12.258
vdinfo	-12.258
momab	-12.2583
ruiz	-12.2583
300-	-12.2584
janeiro	-12.2585
.444.	-12.2585
bumper	-12.2585
maj	-12.2587
tight	-12.259
relax	-12.2594
zug	-12.2595
cookieid	-12.2597
sconosciuto	-12.2598
trovaprezzi	-12.2599
monroe	-12.2601
dfe	-12.2604
mixed	-12.2605
apr	-12.2605
kennedy	-12.2605
angebote	-12.2607
bruegelmann	-12.261
loi	-12.261
esta	-12.2612
yong	-12.2612
species	-12.2612
harrison	-12.2612
environment	-12.2614
tun	-12.2615
unicorn	-12.2616
aerospace	-12.2616
/2011-	-12.2618
nty	-12.2619
trainers	-12.262
nora	-12.262
=63&	-12.2621
mouser	-12.2621
aoxiangzdh	-12.2623
/214	-12.2624
countdown	-12.2626
violet	-12.2628
cgsjx	-12.2632
python	-12.2634
cinematographie	-12.2635
kinpan	-12.2636
=90&	-12.2637
mty	-12.2638
mrs	-12.2638
fleet	-12.2638
poradna	-12.264
zag	-12.2641
laboratory	-12.2642
gilbert	-12.2644
ubb	-12.2646
9%96%	-12.2648
atoz	-12.2649
newyork	-12.2651
/2018	-12.2653
dino	-12.2653
lama	-12.2654
maurice	-12.2654
ngo	-12.2655
srv	-12.2655
mut	-12.2656
flores	-12.2656
hernandez	-12.2657
ohne	-12.2657
calories	-12.266
penis	-12.2661
washer	-12.2662
lui	-12.2662
teresa	-12.2665
screw	-12.2677
felix	-12.2678
mora	-12.2682
btn	-12.2682
effects	-12.2687
rattan	-12.2689
servicio	-12.2689
relations	-12.2691
rocks	-12.2692
others	-12.2693
rural	-12.2694
banoo	-12.2697
prefectures	-12.27
ashx	-12.2701
marcus	-12.2701
alexandra	-12.2704
cabin	-12.2705
recht	-12.2706
rabota	-12.2706
holding	-12.2707
ong	-12.271
once	-12.2711
/2009-	-12.2711
/168	-12.2711
amazonaws	-12.2712
yao	-12.2714
schutz	-12.2715
bracket	-12.2716
herbert	-12.2716
oma	-12.2717
arrival	-12.2718
nordic	-12.2723
=34&	-12.2724
rar	-12.2725
maine	-12.2726
threadid	-12.2729
gangbang	-12.2729
socialsecurity	-12.2729
pascal	-12.2732
lecture	-12.2732
zaaz	-12.2734
breeder	-12.2735
atom	-12.2736
hoe	-12.274
ppo	-12.274
iqiyi	-12.2741
wells	-12.2741
voter	-12.2743
naj	-12.2747
=38&	-12.2748
/1999-	-12.2748
reis	-12.2749
chap	-12.2751
hara	-12.2752
achat	-12.2755
=90	-12.2758
blob	-12.2759
juergen	-12.2761
fireplace	-12.2761
ceb	-12.2762
sketch	-12.2763
regal	-12.2763
plugin	-12.2764
roofing	-12.2766
hisense	-12.277
darty	-12.2776
timetable	-12.2777
aib	-12.2779
competition	-12.278
crochet	-12.2782
katie	-12.2782
bloom	-12.2783
dim	-12.2785
jiu	-12.2786
=49&	-12.2786
pil	-12.2789
kobe	-12.279
bdc	-12.2791
polymer	-12.2791
attraction	-12.2791
pays	-12.2792
repuestos	-12.2792
opf	-12.2792
nonce	-12.2793
mjq	-12.2795
shooting	-12.2796
bro	-12.2798
watson	-12.2799
fonds	-12.2799
wizard	-12.2803
cerca	-12.2805
yer	-12.2806
shina	-12.2806
fucks	-12.2806
dinner	-12.2807
karin	-12.2808
due	-12.2809
dae	-12.281
flats	-12.2811
dip	-12.2812
modelo	-12.2814
distrito	-12.2815
remix	-12.2815
vitamin	-12.2816
bchbdyagdadayfy	-12.2818
diaz	-12.282
marta	-12.2821
reportcomment	-12.2822
insert	-12.2824
wix	-12.2826
pok	-12.2827
rum	-12.2828
bfc	-12.283
114.	-12.283
pratique	-12.2831
shan	-12.2832
capacity	-12.2834
vit	-12.2835
allison	-12.2836
papier	-12.2839
rearrange	-12.2839
-2019/	-12.284
aab	-12.2841
newsletter	-12.2842
-29-	-12.2845
turner	-12.2845
rok	-12.2848
getlastpost	-12.2849
dorothy	-12.2851
senmall	-12.2852
famous	-12.2853
lazada	-12.2854
tent	-12.2857
native	-12.2857
etc	-12.2857
rea	-12.286
mani	-12.2861
mji	-12.2863
bookfinder	-12.2864
luv	-12.2865
lines	-12.2866
=35&	-12.2867
/159	-12.2868
webike	-12.2868
-34-	-12.2868
toolid	-12.2874
taking	-12.2874
opencorporat	-12.2876
tinklepad	-12.2879
dcd	-12.2881
/192	-12.2882
yorkshire	-12.2883
dastelefonbuch	-12.2883
marin	-12.2888
absolute	-12.289
rafael	-12.289
=61&	-12.2891
sync	-12.2891
yamareco	-12.2891
rou	-12.2894
grab	-12.2898
apunter	-12.2901
cocktail	-12.2902
vega	-12.2903
trap	-12.291
timesleader	-12.2914
fixed	-12.2915
mtq	-12.2916
jer	-12.2917
11&	-12.2918
eeb	-12.2919
ktozvoni	-12.292
cookies	-12.2921
nous	-12.2921
pregnancy	-12.2924
elephant	-12.2927
gis	-12.2928
tat	-12.2929
jasap	-12.2929
efd	-12.293
/210	-12.293
dent	-12.2931
slow	-12.2931
campid	-12.2933
gifs	-12.2934
thor	-12.2934
glow	-12.2938
е	-12.2938
intro	-12.2939
cvip	-12.2943
gill	-12.2943
bong	-12.2945
thepeople	-12.2946
sexoffender	-12.2951
/216	-12.2952
/2013	-12.2954
winkel	-12.2954
definition	-12.2954
berner	-12.2954
lbr	-12.2955
frost	-12.2956
reaction	-12.2957
gazette	-12.2958
formation	-12.2958
cem	-12.296
fcomment	-12.296
vestido	-12.2963
thermal	-12.2968
wand	-12.2969
editwidget	-12.297
josh	-12.2976
cert	-12.2978
cbb	-12.2978
embroidery	-12.2979
displaytype	-12.2981
seafood	-12.2981
ozeex	-12.2983
wamba	-12.2985
dyn	-12.2985
ando	-12.2986
anuncios	-12.2986
=42&	-12.2986
sistema	-12.2989
fermart	-12.2993
rainmeter	-12.2995
canyon	-12.2995
2002	-12.2998
bradley	-12.2998
animation	-12.2998
gir	-12.2999
outside	-12.2999
bamboo	-12.2999
taste	-12.2999
silber	-12.3003
propertyid	-12.3008
chutovky	-12.3009
jinchut	-12.3009
mjy	-12.3009
dna	-12.3012
subid	-12.3015
tianya	-12.3015
cocina	-12.3017
tutors	-12.3017
curtis	-12.3018
chez	-12.3019
nou	-12.3019
scenery	-12.3019
dang	-12.3024
passat	-12.3027
keen	-12.3031
rtl	-12.3033
gcw	-12.3033
suumo	-12.3034
nudevista	-12.3037
phonenumber	-12.3038
bqf	-12.3038
mtk	-12.3039
enjoy	-12.3042
czvv	-12.3043
cfe	-12.3045
/167	-12.3048
hotelflight	-12.3051
-72-	-12.3052
cutestat	-12.3053
harbor	-12.3053
kwdlst	-12.3055
wiz	-12.3057
2%82%	-12.3057
rez	-12.3058
intra	-12.306
iapms	-12.3062
carte	-12.3064
gard	-12.3068
batman	-12.3073
december	-12.3075
truyen	-12.3076
each	-12.3077
livres	-12.3079
mean	-12.3079
packages	-12.3081
acres	-12.3081
blouse	-12.3083
alternatives	-12.3084
vaz	-12.3085
nox	-12.3088
dublin	-12.3088
pcode	-12.3089
bury	-12.3089
dorf	-12.309
veneto	-12.309
4%99	-12.309
perm	-12.3091
sweden	-12.3091
368.	-12.3096
jai	-12.3096
ddns	-12.3099
proxy	-12.3099
highway	-12.3102
/253	-12.3102
chuck	-12.3103
chomikuj	-12.3107
xinwang	-12.3113
patient	-12.3114
leri	-12.3115
dafiti	-12.3116
shouji	-12.312
haut	-12.3121
haute	-12.3122
myfitnesspal	-12.3122
sectionalset	-12.3122
5%86%85%	-12.3124
adapt	-12.3124
lean	-12.3125
forklift	-12.3126
umerosdetelefono	-12.3128
pik	-12.3131
--80	-12.3133
sellable	-12.3133
alexa	-12.3137
instance	-12.3138
sail	-12.3138
5%90%88%	-12.3139
modales	-12.3139
different	-12.3141
frell	-12.3144
xoo	-12.3146
iceberg	-12.3147
baltimore	-12.3148
aee	-12.3148
fill	-12.3149
jyw	-12.3149
technician	-12.3155
hoo	-12.3155
sight	-12.3156
chloe	-12.3157
wzfzl	-12.3157
crest	-12.3158
bunny	-12.3158
hitachi	-12.316
nacional	-12.3161
blz	-12.3161
packaging	-12.3165
agnes	-12.3168
provence	-12.3168
adi	-12.3169
artwizz	-12.3169
crimsonli	-12.317
fate	-12.3172
kick	-12.3174
gua	-12.3175
iuid	-12.3176
mockup	-12.3177
woodbrass	-12.3178
gtm	-12.3179
=67&	-12.3182
relay	-12.3183
/2013/	-12.3184
awrlby	-12.3189
xcar	-12.319
sharing	-12.3191
venezuela	-12.3192
alexis	-12.3192
meetup	-12.3193
ign	-12.3196
europepmc	-12.3196
finn	-12.3196
rescue	-12.3196
=2020	-12.3196
wjh	-12.3197
underwear	-12.3198
fundamentals	-12.3199
articleid	-12.32
hnjy	-12.32
/206	-12.3201
excavator	-12.3203
fax	-12.3204
pao	-12.3204
nanocable	-12.3205
fern	-12.3205
spam	-12.3206
efb	-12.3209
rpg	-12.3209
cameron	-12.3214
dummies	-12.3214
joyce	-12.3215
zam	-12.3217
timothy	-12.3219
ferguson	-12.3221
gamespot	-12.3221
couleur	-12.3224
gloria	-12.3228
roberts	-12.3229
lamps	-12.3229
mina	-12.3229
sally	-12.3229
klub	-12.323
14&	-12.3233
edd	-12.3237
napa	-12.3237
mhz	-12.3238
camo	-12.324
thanh	-12.3241
yak	-12.3242
mile	-12.3244
factor	-12.3246
glory	-12.3249
would	-12.3251
oxy	-12.3254
paomo	-12.3255
vectorid	-12.3256
filmes	-12.3259
autres	-12.3261
guess	-12.3262
chord	-12.3263
bun	-12.3264
afd	-12.3264
=62	-12.3265
uso	-12.3267
sofia	-12.3267
ramon	-12.3268
devices	-12.3272
=2019&	-12.3272
lantern	-12.3272
umbrella	-12.3273
grave	-12.3274
scratch	-12.3275
/2017	-12.3277
diva	-12.328
nstockphoto	-12.3281
worldwayelec	-12.3281
moss	-12.3283
coding	-12.3283
resin	-12.3284
naughty	-12.3285
alaska	-12.3285
=69&	-12.3285
dela	-12.3286
classroom	-12.3288
segunda	-12.3291
%90	-12.3291
frontier	-12.3292
beddrawerdresser	-12.3292
pond	-12.3297
=68&	-12.33
plane	-12.3302
-350-	-12.3305
profileid	-12.3306
armour	-12.3306
martha	-12.3307
cohen	-12.3309
killer	-12.331
underground	-12.331
herramientas	-12.3313
writers	-12.3313
hypo	-12.3315
mjg	-12.3318
nose	-12.3319
plymouth	-12.332
rah	-12.3322
ongfz	-12.3328
champagne	-12.333
lawsuits	-12.3331
-2017	-12.3335
appliance	-12.3336
harmony	-12.3338
captain	-12.3341
muc	-12.3342
bts	-12.3343
nouveau	-12.3343
quer	-12.3345
7%85%	-12.3347
/144	-12.3347
yarn	-12.3352
duke	-12.3353
=62&	-12.3354
matic	-12.3354
tiere	-12.3356
prodotti	-12.3356
kenya	-12.3357
shaft	-12.3357
sep	-12.3358
dra	-12.3359
mexican	-12.3359
camaro	-12.336
charts	-12.3362
viral	-12.3363
isabelle	-12.3366
jnm	-12.3367
ltda	-12.3367
/169	-12.3369
attack	-12.337
hak	-12.3371
vinbet	-12.3372
gross	-12.3373
kaw	-12.3374
ket	-12.3382
nda	-12.3382
scamadviser	-12.3383
hoc	-12.3385
pearson	-12.3385
/254	-12.3386
tama	-12.3386
katy	-12.3387
urw	-12.3388
mzy	-12.3388
betty	-12.3389
primo	-12.3391
riviera	-12.3392
-1500-	-12.3393
amd	-12.3393
pups	-12.3393
mura	-12.3393
buyer	-12.3394
peifer	-12.3394
attach	-12.3394
guild	-12.3396
-2017/	-12.3397
fully	-12.3397
gamefaqs	-12.3398
9%80%9	-12.3399
dou	-12.34
moor	-12.3405
searchtext	-12.3406
elmkylmkz	-12.3406
tera	-12.3407
/205	-12.3408
ankle	-12.3408
23&	-12.3409
allo	-12.3409
mex	-12.3409
saturn	-12.3413
clan	-12.3413
/978	-12.3414
tow	-12.3414
elk	-12.3417
painted	-12.3418
lager	-12.3418
ure	-12.3419
ynn	-12.3422
broken	-12.3424
ote	-12.3424
ore	-12.3425
brett	-12.3427
ttpp	-12.3427
poll	-12.3428
/209	-12.343
exe	-12.3434
diameter	-12.3434
letras	-12.3435
lena	-12.3437
spm	-12.3439
bfa	-12.344
aea	-12.344
corona	-12.3441
sendtofriend	-12.3443
chp	-12.3447
blanket	-12.3448
/203	-12.3449
blake	-12.3456
kot	-12.3458
harper	-12.3463
jill	-12.3464
acenim	-12.3466
odds	-12.3467
household	-12.3468
gives	-12.3473
campz	-12.3473
otu	-12.3474
touring	-12.3475
newton	-12.348
disco	-12.348
headlight	-12.3481
schule	-12.3482
inst	-12.3482
johannes	-12.3486
employer	-12.3492
samurai	-12.3493
flor	-12.3493
nguyen	-12.3494
/212	-12.3495
dani	-12.3495
fleece	-12.3496
=000	-12.3499
pension	-12.3501
zdg	-12.3508
outline	-12.351
/195	-12.3512
mzi	-12.3512
springfield	-12.3513
ihr	-12.3513
satofull	-12.3513
5%91%	-12.3514
pdp	-12.3515
colin	-12.3517
chmlm	-12.3518
elastic	-12.3519
riverside	-12.352
%80-%	-12.3522
conversion	-12.3523
geographic	-12.3528
reid	-12.353
kita	-12.353
wagner	-12.3532
fulltime	-12.3533
kirk	-12.3534
odd	-12.3534
dover	-12.3535
nagar	-12.3535
zhang	-12.3535
phy	-12.3536
mzq	-12.3542
ili	-12.3543
damske	-12.3543
barbie	-12.3546
encore	-12.3546
kazan	-12.3547
mercer	-12.3548
sabra	-12.3549
maz	-12.355
tucson	-12.3553
playfull	-12.3555
lev	-12.3558
2%80%	-12.3558
peel	-12.3559
splash	-12.356
daisy	-12.356
/2010-	-12.356
blok	-12.3561
=46&	-12.3562
fou	-12.357
doma	-12.3574
blind	-12.3574
eemigrant	-12.3575
couch	-12.3579
dung	-12.3585
customid	-12.3586
relief	-12.3586
hardcover	-12.3589
rek	-12.359
kota	-12.3593
vodplay	-12.3594
radiator	-12.3597
legends	-12.3597
mineral	-12.3598
accounts	-12.36
pret	-12.36
ludwig	-12.3602
-600-	-12.3604
subcat	-12.3604
350-	-12.3604
markus	-12.3606
bangkok	-12.3607
vers	-12.3608
6%98%	-12.3615
slave	-12.3617
huaquan	-12.3618
impression	-12.3619
coordinate	-12.3622
cite	-12.3624
mjc	-12.3625
points	-12.3625
handy	-12.3626
elli	-12.3626
gnx	-12.3627
/2012/	-12.3628
perth	-12.3628
thinking	-12.3628
dtfuzbr	-12.3632
ados	-12.3633
_1__	-12.3633
arama	-12.3635
really	-12.3635
familia	-12.3635
nachrichten	-12.3638
/208	-12.3639
chief	-12.3639
jew	-12.364
sapo	-12.3641
wings	-12.3642
erie	-12.3642
mytrees	-12.3644
multicolor	-12.3645
1_%	-12.3646
output	-12.3646
castro	-12.3647
lavender	-12.3647
corsa	-12.3648
marymount	-12.3648
handel	-12.3648
efc	-12.365
batteries	-12.3652
searchtype	-12.3653
kazino	-12.3656
masturbation	-12.3657
nursery	-12.3658
birch	-12.3658
libri	-12.3659
hansen	-12.3659
ique	-12.3661
fay	-12.3664
jur	-12.3664
hdmi	-12.3665
mort	-12.3665
koch	-12.3668
vik	-12.367
nji	-12.3673
/207	-12.3673
yuki	-12.3674
%29/	-12.3675
gai	-12.3676
hotfrog	-12.3677
7%81%	-12.3677
=39&	-12.3679
nek	-12.368
aoerge	-12.3681
haar	-12.3682
adultwebmaster	-12.3684
treat	-12.3686
_14	-12.3688
ulrich	-12.3688
fender	-12.3691
vinted	-12.3692
hifi	-12.3692
setup	-12.3693
cba	-12.3693
xiachufang	-12.3693
_13	-12.3694
02&	-12.3695
egy	-12.3695
bcfrcoag	-12.3696
dasoertliche	-12.3696
ean	-12.3697
/223	-12.3697
%97	-12.3698
torres	-12.3698
trx	-12.3699
emerald	-12.3701
kyo	-12.3703
fce	-12.3705
restaurante	-12.3706
attribute	-12.3708
worldcat	-12.3712
guerre	-12.3712
wag	-12.3714
19&	-12.3714
apex	-12.3717
hoteles	-12.3719
bootlin	-12.372
kathy	-12.3721
michele	-12.3723
easter	-12.3725
ped	-12.3726
rogers	-12.373
classical	-12.373
few	-12.3734
msu	-12.3734
furniturestore	-12.3735
tutor	-12.3736
jem	-12.3737
vez	-12.3741
aws	-12.3742
mig	-12.3743
tactical	-12.3743
income	-12.3748
pow	-12.375
hoch	-12.3751
frederick	-12.3753
ppc	-12.3754
einfach	-12.3762
judith	-12.3764
facility	-12.3765
mente	-12.3765
antoine	-12.3765
convert	-12.3766
politik	-12.3766
dina	-12.3767
programm	-12.377
bum	-12.3772
southside	-12.3772
horror	-12.3774
bowling	-12.3775
idol	-12.3777
kenworth	-12.3777
retweet	-12.3779
porch	-12.378
rca	-12.378
stad	-12.3781
alien	-12.3782
isa	-12.3783
dach	-12.3783
=41&	-12.3784
haw	-12.3784
/191	-12.3789
earn	-12.3789
framed	-12.3789
breast	-12.379
barstools	-12.3793
=500	-12.3796
socket	-12.3798
vice	-12.3798
dst	-12.3799
rykzn	-12.3799
alberta	-12.38
megan	-12.3804
judy	-12.3805
owen	-12.3805
ndi	-12.3806
/15/	-12.3807
laptops	-12.3809
30&	-12.3809
projekt	-12.3811
fruugo	-12.3811
skyscraper	-12.3812
doing	-12.3812
interest	-12.3814
lifetime	-12.3815
reversecanada	-12.3816
flu	-12.3816
temperature	-12.3825
ottawa	-12.3826
lucia	-12.3826
4000	-12.3826
videodetails	-12.3828
entity	-12.3828
10000	-12.3828
ostravice	-12.383
stks	-12.3831
fam	-12.3834
worldway	-12.3835
prayer	-12.3837
sho	-12.3837
giize	-12.3839
canton	-12.3841
comedy	-12.3842
rebound	-12.3843
cue	-12.3844
-02-	-12.3846
kok	-12.3847
sigma	-12.3847
tracy	-12.3848
booth	-12.3849
curry	-12.3852
-42-	-12.3852
affecting	-12.3853
25%26	-12.3855
gant	-12.3856
dove	-12.3857
todd	-12.3857
=33&	-12.3858
autodesk	-12.3859
contest	-12.3862
speakers	-12.3863
nex	-12.3864
turismo	-12.3866
dda	-12.3866
petra	-12.3866
scroll	-12.3867
dym	-12.3869
graduate	-12.3869
mood	-12.3869
christophe	-12.3872
-55-	-12.3876
emilia	-12.3877
bdd	-12.3878
criteria	-12.388
highlights	-12.3881
servicios	-12.3882
viewall	-12.3884
gry	-12.3887
getonline	-12.3888
elements	-12.3888
none	-12.389
afb	-12.3892
cristina	-12.3893
rates	-12.3895
bead	-12.3895
katherine	-12.3896
bauhaus	-12.3897
jual	-12.3898
louisiana	-12.3903
zhangjie	-12.3903
pisos	-12.3906
psbooks	-12.3906
hobbies	-12.3909
ivo	-12.3909
simpson	-12.391
relationship	-12.391
prm	-12.3911
windsor	-12.3913
/222	-12.3914
grosse	-12.3914
etiketten	-12.3915
8+%	-12.3915
drew	-12.3916
jbbs	-12.3918
penn	-12.3918
zomato	-12.3919
butter	-12.392
zzz	-12.3924
-2?	-12.3928
1002	-12.3928
dewittrealestate	-12.3931
says	-12.3932
17&	-12.3933
mold	-12.3937
movement	-12.3938
masa	-12.394
aztlan	-12.3941
:2	-12.3941
afy	-12.3941
asi	-12.3941
nowe	-12.3947
%89	-12.3948
oscsid	-12.3948
lian	-12.3949
=63	-12.3949
kari	-12.395
pdx	-12.3951
kem	-12.3953
danny	-12.3954
faire	-12.3955
directorio	-12.3957
odlsl	-12.3958
broker	-12.396
ory	-12.396
laurel	-12.3961
sunrise	-12.3961
mesto	-12.3963
eight	-12.3963
centrum	-12.3963
clara	-12.3964
gouv	-12.3965
austria	-12.3965
shdlk	-12.3966
mey	-12.3967
nuret	-12.3968
flexible	-12.3969
tiktok	-12.397
5925024	-12.3972
staples	-12.3972
savings	-12.3975
flame	-12.3975
pete	-12.3977
fel	-12.3978
agriculture	-12.3978
rtysc	-12.3979
lava	-12.398
ric	-12.398
coastal	-12.3982
wort	-12.3983
shelves	-12.3983
stack	-12.3983
romantic	-12.3984
-2015.	-12.3984
pavilion	-12.3985
=43&	-12.3988
franco	-12.3988
glenn	-12.3989
alcohol	-12.3991
causes	-12.3994
interface	-12.3995
jokes	-12.3996
mdm	-12.3996
ecf	-12.3997
spice	-12.3997
luca	-12.3998
kompass	-12.3999
billy	-12.3999
minor	-12.4
navigator	-12.4002
brothers	-12.4002
frankfurt	-12.4004
durch	-12.4005
filt	-12.4007
jakarta	-12.4007
analyse	-12.4008
curr	-12.4009
huateng	-12.4014
always	-12.4015
older	-12.4017
wanted	-12.4018
jungle	-12.4018
/2020-	-12.4021
=65	-12.4023
belleza	-12.4024
alpine	-12.4025
circular	-12.4028
charity	-12.4031
ducati	-12.4032
amz	-12.4034
kata	-12.4036
nju	-12.4036
mower	-12.4037
samara	-12.4037
gsx	-12.4043
/219	-12.4044
vul	-12.4048
eniawa	-12.405
olivia	-12.405
uhr	-12.405
=84	-12.4052
billing	-12.4055
bairro	-12.4055
spotify	-12.4056
ego	-12.4057
wisdom	-12.4059
baum	-12.406
bare	-12.4061
mzk	-12.4061
mje	-12.4061
izer	-12.4062
6%95%	-12.4062
conversor	-12.4062
aaf	-12.4062
compressor	-12.4063
ono	-12.4065
closedsearch	-12.4065
plt	-12.4066
sexe	-12.4069
jyxrlz	-12.4069
gates	-12.4071
rencontre	-12.4073
fuq	-12.4074
2009	-12.4075
karaoke	-12.4075
kleding	-12.4077
melanie	-12.4077
3%83%88+%	-12.408
matter	-12.408
witch	-12.4083
/161	-12.4088
vanessa	-12.4088
liner	-12.4091
riley	-12.4094
julian	-12.4094
thoughts	-12.4096
jing	-12.4101
gcc	-12.4101
something	-12.4102
hud	-12.4103
ngtree	-12.4104
shannon	-12.4104
mzm	-12.4105
zhaopin	-12.4106
whotwi	-12.4107
ccionesyreformas	-12.411
masapi	-12.4117
newproducts	-12.4119
zenlib	-12.412
jcb	-12.412
nachrichtenfoto	-12.412
moebel	-12.4121
kwd	-12.4122
/202	-12.4124
ignore	-12.4129
bfb	-12.413
sheng	-12.413
=7?	-12.4131
taka	-12.4132
vac	-12.4132
praca	-12.4133
casasbahia	-12.4136
pcauto	-12.4138
cht	-12.4142
daewoo	-12.4143
sexo	-12.4145
karta	-12.4145
these	-12.4145
cccc	-12.4146
/300	-12.4148
fkeywords	-12.4148
reliable	-12.4149
inyeast	-12.4149
nashville	-12.4149
frozen	-12.415
dil	-12.415
sans	-12.4154
citta	-12.4155
univer	-12.4156
xlt	-12.4156
infantil	-12.4157
aim	-12.4159
alerts	-12.416
firearms	-12.4161
alone	-12.4163
horst	-12.4163
englisch	-12.4164
nje	-12.4165
rectangle	-12.4165
vito	-12.4165
liverpool	-12.4165
rama	-12.4166
placement	-12.4166
bathtub	-12.4166
circuits	-12.4166
accountant	-12.4166
rhone	-12.4166
infinite	-12.4166
beam	-12.4166
snack	-12.417
tiles	-12.4173
0603	-12.4173
norton	-12.4175
kane	-12.4176
infiniti	-12.4177
curl	-12.4181
sage	-12.4185
tro	-12.4185
cdiscount	-12.4186
baden	-12.4186
/281	-12.4186
telecom	-12.4188
mapa	-12.4188
gep	-12.4189
downhot	-12.419
mobileaction	-12.4191
svet	-12.4192
seesaa	-12.4193
porcelain	-12.4193
resistant	-12.4195
jbl	-12.4196
revision	-12.4196
prestige	-12.4198
seks	-12.4202
preto	-12.4204
hvac	-12.4205
=98	-12.4205
kadin	-12.4206
dama	-12.4207
loo	-12.4207
galiza	-12.4208
hayes	-12.4208
lots	-12.4211
bookdetails	-12.4211
eep	-12.4211
25&	-12.4212
seldon	-12.4212
sville	-12.4216
created	-12.4218
become	-12.4218
historic	-12.4219
dbf	-12.4221
friedrich	-12.4221
premiere	-12.4222
1010	-12.4225
jamaica	-12.4226
fragrance	-12.4226
1206	-12.4227
lom	-12.423
bdb	-12.4232
phrase	-12.4233
physician	-12.4236
dura	-12.4236
cityof	-12.4238
gam	-12.4239
%25252	-12.424
sity	-12.4243
compass	-12.4247
moj	-12.4247
ilan	-12.4248
fits	-12.4249
ance	-12.425
kathleen	-12.4251
marcel	-12.4251
capri	-12.4253
mona	-12.4253
ecrqg	-12.4254
estates	-12.4256
raja	-12.4257
213.	-12.4259
pdv	-12.4262
config	-12.4262
cummins	-12.4263
mariefleur	-12.4263
-1999-	-12.4264
chrono	-12.4264
subproduct	-12.4265
shenzhen	-12.4266
poverty	-12.4269
dily	-12.427
statuses	-12.4271
/235	-12.4273
githi	-12.4273
granite	-12.4275
voir	-12.4276
hibbett	-12.4276
ndash	-12.4277
-600	-12.4279
buffet	-12.4281
henk	-12.4282
accessori	-12.4282
krasnodar	-12.4282
mana	-12.4285
seeds	-12.4285
cuy	-12.4286
shanghaiguanggao	-12.4289
condos	-12.4289
klas	-12.429
zhong	-12.4296
zfp	-12.4301
dahl	-12.4301
plush	-12.4304
protagonist	-12.4305
thunder	-12.4306
mali	-12.4306
kow	-12.4306
randy	-12.4307
/213	-12.4314
hbm	-12.4314
hilton	-12.4314
scheme	-12.4315
analog	-12.4316
brad	-12.4317
romania	-12.4318
educational	-12.4318
brandon	-12.4319
doyle	-12.4319
processing	-12.432
mjm	-12.4321
axel	-12.4321
dieter	-12.4321
yskin	-12.4325
likaris	-12.4327
instructions	-12.4328
demi	-12.4329
georges	-12.4331
oclc	-12.4331
drain	-12.4332
stamps	-12.4333
lum	-12.4334
falcon	-12.4335
debt	-12.4336
-3-4-	-12.4336
illust	-12.4339
zhan	-12.4342
vga	-12.4347
%25255	-12.4347
subway	-12.4347
loire	-12.4348
dol	-12.4349
dmd	-12.4355
mjk	-12.4355
rehold	-12.4357
autoteile	-12.4358
joachim	-12.4359
shitaraba	-12.4362
cage	-12.4363
nojs	-12.4365
actu	-12.4366
quilt	-12.4366
orgasm	-12.4367
sleeping	-12.437
arcade	-12.437
fdocs	-12.437
foundry	-12.4373
univ	-12.4373
teeth	-12.4375
addictionrehab	-12.4375
naszemiasto	-12.4375
countries	-12.4375
gros	-12.4377
filepdf	-12.4382
edmonton	-12.4382
tsu	-12.4382
=37&	-12.4384
oty	-12.4385
welfare	-12.4385
marker	-12.4385
tore	-12.4385
renovation	-12.4386
meister	-12.4388
ricardo	-12.4389
/30-	-12.4389
muslim	-12.4393
ulm	-12.4394
assist	-12.4395
tyre	-12.4395
danielle	-12.4396
mechanics	-12.4396
gig	-12.4398
villas	-12.44
josef	-12.44
triangle	-12.4405
uncategorized	-12.4408
/1998-	-12.4408
mzu	-12.4409
bcfte	-12.4411
catch	-12.4415
1003	-12.4415
awrlb	-12.4415
funeralhome	-12.4416
johann	-12.4417
chiamando	-12.4418
surgical	-12.442
locator	-12.442
cobra	-12.442
ije	-12.4424
inspiration	-12.4424
roku	-12.4425
haz	-12.4426
yeni	-12.4426
puppy	-12.4426
ntq	-12.4427
tion	-12.4429
hipaa	-12.4432
1005	-12.4432
firmy	-12.4435
ukraine	-12.4441
qvc	-12.4441
=150	-12.4443
imo	-12.4443
pham	-12.4443
rae	-12.4444
porntube	-12.4445
qidian	-12.4445
athlete	-12.4446
computacion	-12.4446
cutter	-12.4448
lic	-12.4449
klasse	-12.4451
ige	-12.4452
lazio	-12.4454
durham	-12.4455
mju	-12.4456
kova	-12.4456
=59&	-12.4456
mcms	-12.4458
mila	-12.446
-1000	-12.446
/248	-12.4461
gyo	-12.4463
dsc	-12.4465
exams	-12.447
icd	-12.4473
ufo	-12.4478
valentine	-12.4479
rage	-12.4479
2012.	-12.448
crash	-12.4481
meer	-12.4481
lindsay	-12.4482
dll	-12.4484
quy	-12.4485
playa	-12.4487
vbforum	-12.4488
sabine	-12.449
playstation	-12.4492
quantum	-12.4495
pest	-12.4495
lje	-12.4499
xact	-12.4499
chalet	-12.4499
nah	-12.45
generazione	-12.4501
zjx	-12.4502
/204	-12.4504
willow	-12.4506
clerk	-12.4508
baja	-12.4508
skaya	-12.451
swan	-12.4515
birmingham	-12.4518
stadium	-12.4519
debate	-12.4521
gauteng	-12.4522
manhattan	-12.4522
famille	-12.4527
kut	-12.4528
kop	-12.4529
flot	-12.4531
1602	-12.4531
spartoo	-12.4532
=47&	-12.4532
pamela	-12.4533
=2000	-12.4533
-1-4-	-12.4533
jewel	-12.4534
powerball	-12.4534
murder	-12.4536
/221	-12.4536
aso	-12.4538
strike	-12.454
rao	-12.4545
awv	-12.4546
changing	-12.4549
gastro	-12.455
lhsxl	-12.455
_10_	-12.4552
+5+	-12.4554
undefined	-12.4555
tune	-12.4559
/260	-12.456
geometry	-12.456
technique	-12.4561
mommy	-12.4561
lance	-12.4562
semiconductor	-12.4563
leggings	-12.4566
arlo	-12.4572
personaldetail	-12.4572
qilcj	-12.4572
categorii	-12.4572
nigeria	-12.4574
abd	-12.4577
elan	-12.4577
piu	-12.4578
/225	-12.458
helene	-12.4581
lawsuit	-12.4582
websites	-12.4584
yat	-12.4585
boxer	-12.4592
thong	-12.4594
uslugi	-12.4596
bitch	-12.46
swimwear	-12.46
puebla	-12.4601
pill	-12.4602
were	-12.4602
qanda	-12.4602
knob	-12.4604
alumni	-12.4605
moviesfilms	-12.4605
dock	-12.4606
/2006	-12.4607
lever	-12.4607
offre	-12.4608
hurt	-12.4608
nove	-12.461
lebanon	-12.461
nikki	-12.461
molly	-12.4613
wissen	-12.4616
valerie	-12.4617
dynamics	-12.4618
puppies	-12.4619
bianco	-12.4619
corvette	-12.4621
brazilian	-12.4621
sleeveless	-12.4622
bravo	-12.4622
utmi	-12.4623
onlogin	-12.4623
nogo	-12.4623
/2012	-12.4625
fresno	-12.4627
0011	-12.4627
lies	-12.4628
8%88%	-12.4633
didier	-12.4634
feebee	-12.4639
ima	-12.464
cursos	-12.4642
thomson	-12.4644
este	-12.4645
sut	-12.4646
pedal	-12.4649
shakespeare	-12.465
rgb	-12.465
5%81%	-12.465
nai	-12.4651
sorting	-12.4652
jsj	-12.4652
exercises	-12.4652
greatest	-12.4655
nederland	-12.4655
companion	-12.4656
frog	-12.4657
ventures	-12.4658
ndy	-12.4659
frames	-12.466
/217	-12.4661
3=2&	-12.4661
threaded	-12.4663
0805	-12.4664
zee	-12.4665
fancy	-12.4667
heinz	-12.4668
fragen	-12.4668
ndg	-12.4668
pflege	-12.4669
homefacts	-12.4669
bulk	-12.467
alexandre	-12.467
rumah	-12.4672
crawford	-12.4674
_6_	-12.4675
о	-12.4678
pndt	-12.4679
dlja	-12.4679
linea	-12.468
zest	-12.4681
prodotto	-12.4681
-%28	-12.4682
pou	-12.4683
lola	-12.4685
xyyxcaaaaa	-12.4685
jewish	-12.4686
zine	-12.4686
gardens	-12.4686
obj	-12.4687
includes	-12.4688
okinawa	-12.4688
yar	-12.469
amour	-12.469
vig	-12.4696
taj	-12.4699
neufi	-12.4699
fal	-12.47
greece	-12.4701
uva	-12.4701
acf	-12.4702
naples	-12.4703
odu	-12.4703
tucarro	-12.4705
vej	-12.4707
medication	-12.4709
stools	-12.4711
zte	-12.4715
informacion	-12.4716
oriental	-12.4716
industrie	-12.4721
/218	-12.4721
iptv	-12.4723
gerhard	-12.4723
kyu	-12.4724
25705	-12.4726
miz	-12.4727
eugene	-12.4727
upgrade	-12.4728
guazi	-12.4729
=114&	-12.473
sick	-12.4731
400-	-12.4734
nueva	-12.4736
vessel	-12.4737
girlfriend	-12.4739
rst	-12.4739
holdings	-12.4747
lez	-12.4747
peg	-12.4748
lastposter	-12.4751
mdl	-12.4752
exc	-12.4756
uncle	-12.4757
ttt	-12.4758
decorations	-12.4758
outlook	-12.4758
glocal	-12.4761
victory	-12.4762
nyi	-12.4764
spiegel	-12.4764
bend	-12.4766
collector	-12.4766
ilgasco	-12.4767
finding	-12.4767
salomon	-12.4768
%29&	-12.4769
8%97%	-12.477
karte	-12.477
kgx	-12.4772
hunde	-12.4773
ofourown	-12.4773
/292	-12.4775
=68	-12.4776
strength	-12.4779
curso	-12.478
talle	-12.478
hytrin	-12.4781
/201	-12.4782
thribe	-12.4782
mimi	-12.4784
cuz	-12.4786
homo	-12.4788
lig	-12.4791
enu	-12.4792
.)))	-12.4794
lazy	-12.4795
rib	-12.4795
europages	-12.4796
reach	-12.4796
=83	-12.4797
bite	-12.4797
kindergarten	-12.4798
mkv	-12.4799
forvo	-12.4799
juga	-12.4802
reisen	-12.4803
coeur	-12.4803
chanpin	-12.4804
primer	-12.4805
rudolph	-12.4806
napoli	-12.4806
blast	-12.4808
horizon	-12.481
bukken	-12.4811
kanshu	-12.4811
usage	-12.4812
bey	-12.4814
7266_2	-12.4819
ogo	-12.4824
texture	-12.4825
mem	-12.4827
mepo	-12.4828
selectedcategory	-12.4829
bomb	-12.4831
spelling	-12.4833
0633.	-12.4833
chester	-12.4835
tireshop	-12.4841
26&	-12.4841
adn	-12.4844
shiny	-12.4846
violation	-12.4846
sunshine	-12.4848
gucci	-12.4849
hung	-12.4849
mujeres	-12.4849
hilfe	-12.4849
pills	-12.485
9%99%90%	-12.4852
bclle	-12.4853
bangalore	-12.4857
flush	-12.4857
tac	-12.4857
breeze	-12.4858
kiwi	-12.4859
slots	-12.4862
chassis	-12.4863
opening	-12.4864
orel	-12.4864
odq	-12.4865
suzanne	-12.4866
icep	-12.4866
aug	-12.4868
zxxk	-12.4868
irene	-12.487
improve	-12.4871
sauna	-12.4872
biography	-12.4873
202006/	-12.4874
hats	-12.4876
okskottlxl	-12.4877
milwaukee	-12.4877
average	-12.4882
tyw	-12.4882
ative	-12.4884
lund	-12.4884
lug	-12.4884
mzc	-12.4885
backup	-12.4886
foreign	-12.4886
champ	-12.4887
speech	-12.4888
silo	-12.4889
leslie	-12.4889
bullet	-12.4893
moveis	-12.4894
-2000	-12.4895
antiques	-12.4896
hag	-12.4897
-2016/	-12.4897
2007	-12.4899
mze	-12.4899
thought	-12.49
fdocuments	-12.49
kleider	-12.4901
protect	-12.4901
viamichelin	-12.4905
herman	-12.4906
alternator	-12.4908
wah	-12.4908
traduzione	-12.4909
tnaflix	-12.4909
aipiao	-12.491
sandy	-12.4911
feeder	-12.4911
lili	-12.4912
kuai	-12.4913
drake	-12.4914
notre	-12.4914
------	-12.4914
aquarium	-12.4915
lack	-12.4916
-2019.	-12.4925
inteligente	-12.4926
202007/	-12.4927
inverter	-12.4928
ornament	-12.4928
bodies	-12.493
filmy	-12.493
chy	-12.4932
_2230581	-12.4933
basorat	-12.4933
dwaaqbaj	-12.4933
seznam	-12.4935
0%90%	-12.4936
brisbane	-12.4937
euw	-12.4938
=69	-12.4939
prh	-12.494
paydar	-12.4941
gong	-12.4941
advantage	-12.4942
bennett	-12.4942
pac	-12.4943
/194	-12.4944
basics	-12.4945
odm	-12.4949
-140	-12.4952
nrw	-12.4954
seminar	-12.4955
woven	-12.4955
cec	-12.4956
iji	-12.4956
ines	-12.4958
tejimo	-12.4958
lamb	-12.4959
/293	-12.496
hodges	-12.4961
vacances	-12.4963
_8_	-12.4966
blvd	-12.4966
8848.	-12.4968
conlife	-12.497
gmarconi	-12.497
dieu	-12.4972
peipus	-12.4972
rno	-12.4973
angels	-12.4978
andcli	-12.498
oasis	-12.498
mist	-12.4981
baza	-12.4982
tula	-12.4983
jes	-12.4983
could	-12.4986
hilfiger	-12.4986
kristoba	-12.4988
nchjj	-12.4988
kerry	-12.4988
dat	-12.4989
trang	-12.4989
espana	-12.4989
taxonomy	-12.4989
marcaregistrada	-12.4993
vacancies	-12.4996
bizrate	-12.4997
tir	-12.4997
goodman	-12.4998
boa	-12.5
punta	-12.5
ipee	-12.5001
7%88%	-12.5003
ا	-12.5003
=115&	-12.5006
/270	-12.5007
creme	-12.5007
bda	-12.501
/18-	-12.501
gerald	-12.5011
evaluation	-12.5013
stitch	-12.5014
hum	-12.5014
caravans	-12.5015
hiking	-12.5016
dwvar	-12.5017
acupuncture	-12.5018
entreprises	-12.5018
orleans	-12.5019
milmaria	-12.5019
hate	-12.5025
vital	-12.5027
dinh	-12.5028
antenna	-12.5028
svt	-12.5029
rolf	-12.5029
offerid	-12.503
eclipse	-12.5033
itchendiningsets	-12.5039
ntc	-12.5042
indusm	-12.5042
erotik	-12.5044
6%96%87%	-12.5046
dryer	-12.5046
akb	-12.5049
upholstery	-12.5049
halter	-12.5053
nhan	-12.5053
digest	-12.5053
mobilenumber	-12.5054
kho	-12.5055
fineartamerica	-12.5057
hexagonmi	-12.5057
uniform	-12.5059
vase	-12.506
eyjpz	-12.5063
tribute	-12.5065
salad	-12.5067
herbal	-12.5068
jacksonville	-12.5068
kaiser	-12.507
0100	-12.5073
chandelier	-12.5077
coleman	-12.508
holden	-12.5081
ots	-12.5081
3%80%90%	-12.5081
ladder	-12.5082
cordoba	-12.5084
fact	-12.5084
groesse	-12.5085
uit	-12.509
noise	-12.509
/12-	-12.5091
disorders	-12.5091
tte	-12.5092
bml	-12.5092
castelfranco	-12.5092
tfp	-12.5094
silicon	-12.5094
/239	-12.5094
budapest	-12.5096
begin	-12.5096
wot	-12.5098
preparation	-12.5098
tig	-12.5099
liter	-12.51
zapatillas	-12.5103
rolling	-12.5103
mrt	-12.5105
freight	-12.5107
domestic	-12.5109
dji	-12.5109
bari	-12.511
mittel	-12.511
quanzhouh	-12.5111
zia	-12.5112
pant	-12.5113
caribbean	-12.5113
jesse	-12.5115
bondage	-12.5116
igrushki	-12.5117
getnewpost	-12.5118
sew	-12.5119
lewen	-12.5122
candida	-12.5123
7266_1	-12.5124
kab	-12.5124
playlists	-12.5125
arbor	-12.5127
coats	-12.5128
twister	-12.5129
palmer	-12.5129
vladimir	-12.5129
been	-12.513
bold	-12.5131
mdg	-12.5131
paso	-12.5133
chinashoes	-12.5134
pittsburgh	-12.5136
privateeye	-12.5137
arbeit	-12.5137
hwy	-12.5138
hollow	-12.5138
tlz	-12.5138
/211	-12.514
lmkz	-12.5141
footer	-12.5142
barber	-12.5143
spencer	-12.5146
suck	-12.5147
=96	-12.5147
experiences	-12.5147
oui	-12.5148
camry	-12.5149
opp	-12.5149
mapion	-12.515
lgeo	-12.515
spares	-12.5151
actual	-12.5151
esprit	-12.5152
employee	-12.5153
sunbrella	-12.5154
grammar	-12.5154
spiritual	-12.5154
obi	-12.5154
runners	-12.5155
hospitals	-12.5156
alles	-12.5157
solr	-12.5158
baron	-12.516
durf	-12.516
ndq	-12.5161
homesforsale	-12.5162
tpu	-12.5164
bordeaux	-12.5165
construccion	-12.5165
pirate	-12.5168
5%90%	-12.5169
blow	-12.5169
suede	-12.517
jacqueline	-12.5171
hmo	-12.5173
nej	-12.5175
kha	-12.5176
praktijk	-12.5178
bodybuilding	-12.5178
=96&	-12.5179
venus	-12.518
compound	-12.5181
professionnel	-12.5182
sankt	-12.5183
crossing	-12.5184
veg	-12.5184
pian	-12.5185
tribe	-12.5186
aga	-12.5187
dancing	-12.5187
vari	-12.5188
1-4	-12.5188
gmarket	-12.5189
bvid	-12.519
replies	-12.519
aroma	-12.5193
myers	-12.5194
taro	-12.5194
zappos	-12.5197
ipcsa	-12.5203
2006	-12.5206
ello	-12.5206
=74	-12.5208
energie	-12.5211
empre	-12.5213
nio	-12.5215
nja	-12.5215
torre	-12.5215
cial	-12.5219
coil	-12.5219
/289	-12.5219
teatro	-12.522
latlon	-12.5221
~;	-12.5221
ricambi	-12.5222
0006	-12.5222
waw	-12.5224
ott	-12.5225
/196	-12.5226
enfant	-12.5227
1031%2	-12.5228
6%84%9	-12.5228
montgomery	-12.5228
thierry	-12.5228
hir	-12.5229
/001	-12.5229
marques	-12.523
rciniegas	-12.5232
therapie	-12.5232
7%89%88%	-12.5233
/2011/	-12.5235
cel	-12.5235
newspaper	-12.5235
lick	-12.5235
-800-	-12.5235
cie	-12.5236
odyssey	-12.5236
9%87%91%	-12.5237
jnv	-12.5237
-2014	-12.5237
otros	-12.524
1031	-12.5241
moonshot	-12.5243
6%81%	-12.5244
glide	-12.5247
hyo	-12.5247
zem	-12.5249
wid	-12.5251
hupu	-12.5255
6-4	-12.5258
ssl	-12.5258
reason	-12.526
albeiroa	-12.5261
grainger	-12.5261
dolce	-12.5263
xavier	-12.5264
numara	-12.5265
milton	-12.5266
/2011	-12.5268
boi	-12.5269
thriller	-12.527
acute	-12.5273
iuzi	-12.5276
gods	-12.5277
sauce	-12.5277
fear	-12.5277
regina	-12.5277
ballet	-12.5278
toledo	-12.5282
pei	-12.5283
tug	-12.5283
electron	-12.5284
tien	-12.5285
baking	-12.5288
gemini	-12.5291
roots	-12.5291
cyl	-12.5292
tzw	-12.5293
chien	-12.5295
2004	-12.5295
bazaar	-12.5297
toni	-12.5297
istic	-12.5298
zuo	-12.5299
reprint	-12.5299
/283	-12.5301
leaves	-12.5302
qna	-12.5303
netflix	-12.5304
combat	-12.5305
belly	-12.5306
nsk	-12.5306
momo	-12.5307
february	-12.531
poe	-12.531
bord	-12.5312
survivor	-12.5315
tiempo	-12.5318
aging	-12.5322
kimbun	-12.5322
restaurantsnear	-12.5323
hiring	-12.5325
above	-12.5325
pentru	-12.5326
revista	-12.5327
druck	-12.5327
-03-	-12.5328
dien	-12.5329
husband	-12.533
magnum	-12.533
reco	-12.5331
dyna	-12.5331
qing	-12.5332
picnic	-12.5333
rocker	-12.5335
pena	-12.5335
queensland	-12.5335
-360-	-12.5336
cellar	-12.5336
nal	-12.5337
cemetery	-12.5337
maroc	-12.5337
spoon	-12.5338
42949	-12.5339
signed	-12.5339
nummer	-12.5339
wallace	-12.5342
ykt	-12.5342
dab	-12.5345
zwart	-12.5345
tetra	-12.5348
luo	-12.5352
simo	-12.5353
nhk	-12.5355
beast	-12.5355
ximalaya	-12.5355
needs	-12.5355
striped	-12.5356
=880	-12.5356
disotto	-12.5357
88152.	-12.5357
puzzles	-12.5357
nok	-12.5357
blanca	-12.5359
messenger	-12.5359
addiction	-12.5362
imovel	-12.5364
stephan	-12.5365
=44&	-12.5365
orosite	-12.5365
4-4	-12.5367
wien	-12.5367
ftbank	-12.5368
zealand	-12.5368
herr	-12.5369
awabi	-12.5369
nyke	-12.537
detay	-12.5371
coque	-12.5371
sucking	-12.5374
njc	-12.5374
2567	-12.5376
simone	-12.5377
matthias	-12.5377
clzg	-12.538
reclaimed	-12.5381
pines	-12.5383
hommes	-12.5384
zyyxcaaaaa	-12.5391
etui	-12.5391
yxj	-12.5392
llo	-12.5394
mmo	-12.5395
stands	-12.5399
filtr	-12.5402
poems	-12.5403
panorama	-12.5403
chanel	-12.5406
rosario	-12.5407
buecher	-12.5407
patiofurniture	-12.5407
thesaurus	-12.5408
nig	-12.5411
jal	-12.5413
obyavlenie	-12.5414
avm	-12.5414
prowrestling	-12.5417
laurence	-12.5419
sti	-12.542
2019/	-12.5421
marktplatz	-12.5421
rising	-12.5421
/285	-12.5422
tuin	-12.5422
depth	-12.5424
aralgeri	-12.5426
lao	-12.5434
rotary	-12.5435
-2/?	-12.5436
zhengzhou	-12.5436
politica	-12.5436
nianbao	-12.5436
kamera	-12.5436
preflo	-12.5437
3-4	-12.5437
onecare	-12.5439
venture	-12.5441
punch	-12.5441
mlv	-12.5446
rossi	-12.5451
esurv	-12.5452
heath	-12.5455
eyeglasses	-12.5455
chou	-12.5456
prace	-12.5457
ctvnews	-12.5458
gain	-12.5458
corps	-12.5459
/2/?	-12.546
skie	-12.5461
noresult	-12.5464
ovy	-12.5464
thumbnail	-12.5467
dialog	-12.5468
strategic	-12.5468
clinton	-12.5468
/244	-12.5468
codigo	-12.5469
twenty	-12.547
delicious	-12.5471
bsas	-12.5471
anuncio	-12.5478
mats	-12.5482
jyyxcaaaaa	-12.5483
erotica	-12.5483
lore	-12.5484
harvest	-12.5485
jugem	-12.5485
nip	-12.5485
cartridge	-12.5486
1999	-12.5486
edcshop	-12.5488
1006	-12.5489
tho	-12.5489
bamp	-12.549
tricks	-12.5491
8%96%	-12.5491
teams	-12.5494
koh	-12.5494
torino	-12.5494
traders	-12.5499
abf	-12.55
nerd	-12.5501
nem	-12.5504
quo	-12.5505
azione	-12.5505
/100-	-12.5507
mondo	-12.5507
firstlcd	-12.5508
gardening	-12.5509
hughes	-12.5509
posters	-12.5509
pasteru	-12.551
lstrange	-12.551
border	-12.5511
moreno	-12.5513
namepost	-12.5513
deux	-12.5513
_14/	-12.5515
0003	-12.5516
hap	-12.5517
/197	-12.5517
detalle	-12.5517
manhua	-12.5518
showforum	-12.5518
psn	-12.5518
paid	-12.5518
tees	-12.5519
buff	-12.5519
classified	-12.552
drone	-12.552
fountain	-12.5521
natalie	-12.5522
1004	-12.5522
optical	-12.5522
/198	-12.5523
deezer	-12.5523
georg	-12.5525
scarf	-12.5526
000001	-12.5528
xidank	-12.5529
closed	-12.5529
=2019	-12.553
idealo	-12.553
fille	-12.553
-1998-	-12.553
8-4	-12.5533
chia	-12.5535
alo	-12.5537
dirt	-12.5537
tyyxcaaaaa	-12.5539
conrad	-12.5539
immigration	-12.5542
ramos	-12.5543
placeid	-12.5543
pexels	-12.5544
-115	-12.5546
spread	-12.5548
prada	-12.555
fyyxcaaaaa	-12.5551
4%85	-12.5551
9001	-12.5552
heren	-12.5553
bbf	-12.5553
courier	-12.5555
belgium	-12.5558
urn	-12.556
/259	-12.556
intermediate	-12.5562
mopar	-12.5562
timber	-12.5563
vyyxcaaaaa	-12.5563
sten	-12.5567
nlyxjjac	-12.557
/1997-	-12.5571
realtytr	-12.5574
moment	-12.5575
having	-12.5577
vape	-12.5577
blitz	-12.5577
nathalie	-12.5577
reduction	-12.5577
zxr	-12.5578
supra	-12.5578
takes	-12.558
norway	-12.5581
6%96%99%	-12.5581
calm	-12.5581
tranny	-12.5582
peninsula	-12.5582
fotografia	-12.5583
teil	-12.5584
infant	-12.5584
stackexchange	-12.5584
jntuce	-12.5585
=67	-12.5585
leica	-12.5586
iva	-12.5587
njg	-12.5587
opal	-12.5587
vuy	-12.5587
salvador	-12.5588
britain	-12.5588
ikefont	-12.5588
busy	-12.5589
strasse	-12.5592
lob	-12.5592
orient	-12.5593
procedure	-12.5593
clarke	-12.5594
jag	-12.5595
ible	-12.5595
liepin	-12.5596
vernon	-12.5597
?__	-12.5597
jerome	-12.5597
rgh	-12.5599
mich	-12.5599
intake	-12.5601
durable	-12.5603
-2016	-12.5605
cri	-12.561
launch	-12.5612
emichael	-12.5613
bier	-12.5613
remember	-12.5615
palma	-12.5615
forumid	-12.5616
twitch	-12.5617
rrm	-12.5617
farmacia	-12.5617
hgfrp	-12.5619
prt	-12.5619
/277	-12.5621
pornvideo	-12.5621
herz	-12.5622
roxy	-12.5626
pul	-12.5626
-220	-12.5627
plum	-12.5628
faria	-12.563
cosme	-12.5631
akita	-12.5632
/275	-12.5632
mow	-12.5633
rkt	-12.5633
coll	-12.5642
cove	-12.5643
-2015	-12.5643
keller	-12.5644
rosie	-12.5644
dolls	-12.5644
jani	-12.5645
ndm	-12.5645
hanna	-12.5647
-2016.	-12.5648
ellbali	-12.5648
hoff	-12.5648
autohome	-12.565
informer	-12.565
planter	-12.5652
charter	-12.5656
chandler	-12.5657
daa	-12.5659
patriot	-12.5659
opti	-12.5659
viper	-12.566
hyyxcaaaaa	-12.5663
updates	-12.5663
linastudio	-12.5663
sei	-12.5665
chaos	-12.5665
statement	-12.5666
moz	-12.5667
otk	-12.5668
actors	-12.5669
blk	-12.5671
expedition	-12.5672
jake	-12.5675
denise	-12.568
natura	-12.5681
jjwxc	-12.5682
unblocked	-12.5683
jakada	-12.5685
qqxiongji	-12.5686
joi	-12.5686
ordcapital	-12.5688
imagine	-12.5688
exai	-12.5689
phan	-12.5689
jsessionid	-12.569
rvw	-12.569
hiroshima	-12.5692
breaking	-12.5693
3104	-12.5693
coins	-12.5697
ula	-12.5698
machi	-12.5698
downtown	-12.5699
pee	-12.5704
aka	-12.5705
sportswear	-12.5706
imi	-12.5708
gdn	-12.5708
tuscany	-12.5711
athletics	-12.5711
haq	-12.5712
hbgcioij	-12.5712
dhh	-12.5713
wake	-12.5715
tio	-12.5716
leads	-12.5716
dokument	-12.5716
alicia	-12.5718
raleigh	-12.5718
forceone	-12.5718
pianoservice	-12.5719
3%82%93%	-12.5721
mercado	-12.5722
999.	-12.5722
alm	-12.5724
jaime	-12.5724
knights	-12.5726
vocabulary	-12.5727
wendoc	-12.5728
turf	-12.5729
netshoes	-12.573
%86	-12.573
nino	-12.5731
natal	-12.5731
makemodel	-12.5732
ast	-12.5733
kitap	-12.5733
enschede	-12.5737
companieshouse	-12.5737
kao	-12.5739
lila	-12.574
facets	-12.574
hama	-12.5741
ibis	-12.5742
photographer	-12.5743
joanna	-12.5743
diebuch	-12.5743
connectors	-12.5746
plates	-12.5746
0_%	-12.5747
monday	-12.5748
cro	-12.5749
commission	-12.5749
untuk	-12.5751
units	-12.5753
8%94%	-12.5753
higher	-12.5754
/303	-12.5755
zack	-12.5756
-2018.	-12.5757
biqu	-12.5758
piper	-12.5758
worm	-12.5758
mdq	-12.5759
creating	-12.576
=429495932	-12.5761
lips	-12.5766
megabrain	-12.5767
tmp	-12.5767
jeanne	-12.5768
beton	-12.5768
eelzone	-12.577
ernst	-12.5771
chrom	-12.5771
0007	-12.5771
njk	-12.5771
maisperto	-12.5773
acion	-12.5775
mickey	-12.5776
zimmer	-12.5776
backurl	-12.5776
davies	-12.5776
fried	-12.5776
cynthia	-12.5776
lottery	-12.5777
mop	-12.5777
6+4294936342	-12.5778
vina	-12.5779
byyxcaaaaa	-12.578
ucu	-12.5782
cameras	-12.5783
eduardo	-12.5784
graf	-12.5784
qaaaabaaaaaf	-12.5784
schaefer	-12.5785
trucking	-12.5786
%20%28	-12.5786
yon	-12.5787
0%84-%	-12.5789
thehungryear	-12.5792
udn	-12.5793
passport	-12.5794
chel	-12.5795
elm	-12.5795
rant	-12.5795
carolyn	-12.5795
л	-12.5796
с	-12.5796
hippo	-12.5797
gore	-12.5797
angelo	-12.5798
abraham	-12.5801
bett	-12.5804
affitto	-12.5805
dine	-12.5805
gloss	-12.5805
verona	-12.5806
nutri	-12.5807
dashboard	-12.581
ortho	-12.5812
jasmine	-12.5813
swallow	-12.5814
tuo	-12.5815
manor	-12.5816
headphones	-12.5816
trent	-12.5816
seamless	-12.5818
anyone	-12.5819
doug	-12.5819
giovanni	-12.5823
recording	-12.5824
viola	-12.5825
osu	-12.5826
solver	-12.5826
gdz	-12.5827
systemdesign	-12.5829
diagnostic	-12.583
_15	-12.583
prairie	-12.583
husqvarna	-12.5834
hardy	-12.5834
encarnacion	-12.5838
kraj	-12.5839
geld	-12.584
rust	-12.5842
boe	-12.5843
aspire	-12.5843
sharer	-12.5844
comune	-12.5846
vatera	-12.5846
kamp	-12.5849
operating	-12.585
experts	-12.5851
auntie	-12.5855
nuit	-12.5862
pkey	-12.5863
einer	-12.5863
nhat	-12.5865
pastebin	-12.5865
/231	-12.5865
revised	-12.5865
tasche	-12.5865
2000.	-12.5866
zek	-12.5866
sty	-12.5866
mutual	-12.5866
mojo	-12.5867
ryyxcaaaaa	-12.5873
nyyxcaaaaa	-12.5875
crisis	-12.5876
alla	-12.5877
remodel	-12.5877
uci	-12.5877
sari	-12.5878
srvg	-12.5878
yuu	-12.5879
conditioning	-12.5881
6000	-12.5882
clo	-12.5882
cahier	-12.5883
molise	-12.5885
bearings	-12.5886
buckle	-12.5886
certificate	-12.5887
kyle	-12.5891
ovi	-12.5892
=81	-12.5892
phonebook	-12.5892
komplekt	-12.5892
lombardia	-12.5893
bread	-12.5896
peach	-12.5896
fry	-12.5897
saude	-12.5898
eyelink	-12.5898
babycenter	-12.5898
worthy	-12.59
oijkv	-12.5901
/261	-12.5902
nei	-12.5902
=87	-12.5906
5%93%	-12.5909
ucy	-12.5909
apache	-12.5909
especial	-12.5912
variation	-12.5913
dushu	-12.5914
fulltext	-12.5916
queens	-12.5917
reynolds	-12.5917
pii	-12.592
00%3	-12.592
newport	-12.5921
alison	-12.5922
dias	-12.5922
anywayanyday	-12.5923
samantha	-12.5923
dum	-12.5926
gearbest	-12.5926
sinfotech	-12.5929
boyfriend	-12.5929
pala	-12.5931
kah	-12.5931
nexus	-12.5933
miranda	-12.5934
recipient	-12.5934
connecticut	-12.5934
eaton	-12.5935
=66	-12.5936
cindy	-12.5936
emmanuel	-12.5937
thy	-12.5937
vogue	-12.594
plata	-12.594
/246	-12.5941
miracle	-12.5942
/262	-12.5943
1030	-12.5944
publish	-12.5945
arlington	-12.5946
lorenzo	-12.5948
forte	-12.5949
shane	-12.595
belo	-12.5952
tok	-12.5952
lange	-12.5954
collaboration	-12.5954
vio	-12.5954
renee	-12.5955
/230	-12.5955
xsj	-12.5957
talla	-12.5957
huang	-12.5958
wildlife	-12.5959
mash	-12.5961
enrique	-12.5961
bongacams	-12.5961
duc	-12.5963
moy	-12.5963
transition	-12.5963
cougar	-12.5965
veaction	-12.5966
libraries	-12.5966
holmes	-12.597
marathon	-12.597
leopard	-12.597
tate	-12.5972
edwards	-12.5972
inglese	-12.5975
treasure	-12.5976
njq	-12.5978
settings	-12.5978
cakes	-12.5979
oakley	-12.5983
freshline	-12.5984
vii	-12.5985
pyyxcaaaaa	-12.5985
mayo	-12.5985
24&	-12.5986
contre	-12.5986
archi	-12.5986
township	-12.5989
wikiloc	-12.5989
calle	-12.599
kry	-12.599
effective	-12.5992
onlinestore	-12.5992
xiang	-12.5994
schwartz	-12.5996
ise	-12.5997
kmart	-12.5998
compose	-12.5999
dyyxcaaaaa	-12.6
cannon	-12.6
tantor	-12.6
otm	-12.6
2003	-12.6001
fossil	-12.6002
usedcar	-12.6003
benches	-12.6004
newegg	-12.6004
phi	-12.6004
bvb	-12.6006
wyn	-12.6009
toolbar	-12.6009
lax	-12.601
spip	-12.6011
beverly	-12.6011
ral	-12.6014
/251	-12.6016
jug	-12.6017
washing	-12.6017
/255	-12.6018
teh	-12.6019
facing	-12.6019
-44-	-12.602
prescription	-12.602
iot	-12.602
uli	-12.6021
preschool	-12.6021
ryu	-12.6022
squad	-12.6025
lvl	-12.6025
wey	-12.6026
mez	-12.6026
ichi	-12.6027
lcj	-12.6027
5%85%8	-12.6027
terminal	-12.6029
dtl	-12.6029
/252	-12.6031
compra	-12.6031
gat	-12.6031
roses	-12.6032
vou	-12.6033
sofaliving	-12.6034
rgerinnen	-12.6034
radioblenden	-12.6035
kelley	-12.6035
notifications	-12.6036
lyyxcaaaaa	-12.6037
ladybugs	-12.6037
meine	-12.6037
affiliate	-12.6037
axle	-12.6038
specifikace	-12.6039
orion	-12.6041
anak	-12.6041
nate	-12.6042
everly	-12.6042
yachts	-12.6043
decision	-12.6045
dhvizs	-12.6048
vvt	-12.6048
smoking	-12.6049
comercio	-12.6049
85%3	-12.605
autism	-12.605
applied	-12.6051
=52&	-12.6051
wilhelm	-12.6051
1600	-12.6051
njy	-12.6052
kors	-12.6052
harriet	-12.6053
awd	-12.6055
777.	-12.6056
tear	-12.6056
nuo	-12.6057
prezi	-12.6058
%29+	-12.6059
_7_	-12.6059
maternity	-12.6059
rosso	-12.606
moderne	-12.606
nsp	-12.6061
junction	-12.6063
derivacao	-12.6067
imf	-12.607
hersteller	-12.607
aktuell	-12.6071
percent	-12.6073
cowboy	-12.6074
ized	-12.6074
foxtel	-12.6076
infra	-12.6077
7-4	-12.6077
mypage	-12.6077
02_	-12.6078
hdtv	-12.6078
travis	-12.608
divorce	-12.608
cui	-12.6082
-37-	-12.6083
0010	-12.6083
obl	-12.6083
barra	-12.6088
sotu	-12.6092
envio	-12.6095
-2015/	-12.6097
maha	-12.6097
traduccion	-12.6097
hurst	-12.6098
oke	-12.6098
rainer	-12.6099
beginner	-12.61
olga	-12.6102
geography	-12.6102
otg	-12.6102
asahi	-12.6102
3%81%95%	-12.6102
physio	-12.6103
newhouse	-12.6103
9%89%	-12.6105
gti	-12.6105
wong	-12.6106
conf	-12.6108
trick	-12.6108
9004	-12.6108
chihuahuamin	-12.611
booster	-12.611
/250	-12.6111
perkins	-12.6113
mentor	-12.6115
ncg	-12.6116
fuelman	-12.6116
arquivo	-12.6118
kohler	-12.6118
behavior	-12.6119
tradition	-12.6119
added	-12.6119
.11467.	-12.612
artwork	-12.6121
matras	-12.6122
topps	-12.6122
yymcc	-12.6124
tisch	-12.6124
esarah	-12.6126
-700-	-12.6127
00005	-12.6127
dvp	-12.6129
gone	-12.613
zio	-12.613
3%81%99%	-12.613
carry	-12.613
ginger	-12.613
32&	-12.6131
niz	-12.6131
tango	-12.6131
pio	-12.6131
cham	-12.6134
chips	-12.6135
otterbox	-12.6135
3%81%82%	-12.6135
titanium	-12.6138
foil	-12.6138
vero	-12.6139
spamfilter	-12.6141
sheep	-12.6142
peinture	-12.6142
iku	-12.6143
allrightre	-12.6144
refrigerator	-12.6144
vault	-12.6144
handjob	-12.6146
=66&	-12.6148
faro	-12.6149
harold	-12.615
liebe	-12.615
shepherd	-12.615
preco	-12.6151
gadget	-12.6151
-110-	-12.6152
dio	-12.6152
whisky	-12.6153
buenos	-12.6153
kfz	-12.6158
habitat	-12.6159
loading	-12.6159
todos	-12.6161
asty	-12.6162
=73	-12.6162
backyard	-12.6164
lcy	-12.6166
0101	-12.6172
reporter	-12.6174
luft	-12.6177
-105	-12.6177
dieselo	-12.6179
speak	-12.6179
dmn	-12.618
odk	-12.618
armor	-12.6181
nwt	-12.6181
penta	-12.6182
mirrors	-12.6182
agt	-12.6182
gibson	-12.6182
meu	-12.6183
emu	-12.6183
dispenser	-12.6183
ica	-12.6184
meets	-12.6186
pont	-12.6187
sofaschair	-12.6187
karten	-12.6187
=64&	-12.6188
zik	-12.6188
iro	-12.6191
scottish	-12.6191
pubmed	-12.6192
adler	-12.6194
srxx	-12.6195
kaz	-12.6195
.6903.	-12.6195
01:	-12.6196
vogel	-12.6199
boden	-12.6199
vara	-12.6199
=92	-12.62
ndr	-12.62
lut	-12.6201
vay	-12.6201
smportal	-12.6202
motorrad	-12.6203
terrain	-12.6204
tha	-12.6204
5%93%81%	-12.6204
comercial	-12.6205
ristorante	-12.6205
empty	-12.6205
taipei	-12.6205
ishare	-12.6206
dist	-12.6208
rath	-12.6209
tkn	-12.6209
voj	-12.6211
-128	-12.6212
thedog	-12.6212
+1+	-12.6212
iicomm	-12.6214
fmkorea	-12.6216
chkcompanyids	-12.6217
oxygen	-12.6219
salvage	-12.6222
/237	-12.6223
lyric	-12.6223
warner	-12.6223
scripts	-12.6226
dice	-12.6226
livros	-12.6228
dlk	-12.6229
divers	-12.6231
missing	-12.6231
mayer	-12.6232
silhouette	-12.6233
bogota	-12.6234
kanaler	-12.6235
_0_0_0_1_	-12.6235
audrey	-12.6237
1990	-12.6239
ose	-12.6241
=71	-12.6241
calzado	-12.6242
niy	-12.6244
revenue	-12.6246
abbey	-12.6246
funk	-12.6247
lada	-12.6247
1995	-12.6248
=77	-12.6248
jum	-12.6252
genie	-12.6253
sergio	-12.6253
duncan	-12.6255
abi	-12.6255
mdy	-12.6256
/256	-12.6258
/274	-12.6258
hampshire	-12.6261
sweat	-12.6261
eria	-12.6263
flare	-12.6263
zim	-12.6264
kang	-12.6264
walt	-12.6264
tacoma	-12.6265
123/	-12.6267
soleil	-12.6268
kkk	-12.627
dix	-12.627
ciel	-12.6271
params	-12.6273
thb	-12.6273
gag	-12.6273
spiele	-12.6275
yah	-12.6275
celeb	-12.6276
boca	-12.6276
installments	-12.6277
2016/	-12.6279
yeti	-12.6279
hourly	-12.628
bala	-12.628
rog	-12.6281
counseling	-12.6281
03&	-12.6283
anni	-12.6284
libero	-12.6286
turtle	-12.6286
7%92%	-12.6287
khi	-12.6288
architect	-12.6288
oakland	-12.629
yaaaabaaaaaf	-12.6291
mijn	-12.6291
cgalaxy	-12.6293
scrap	-12.6295
klo	-12.6296
=56&	-12.6296
hull	-12.6296
firmen	-12.6297
shizuoka	-12.6297
acao	-12.6297
sia	-12.6299
cliff	-12.6301
msdn	-12.6301
latex	-12.6301
collectors	-12.6302
tcm	-12.6302
bmj	-12.6303
fritz	-12.6303
mixer	-12.6303
guichet	-12.6305
vdocument	-12.6305
cpanel	-12.6305
cuidado	-12.6305
serge	-12.6307
essex	-12.6307
waig	-12.6307
otq	-12.6308
moose	-12.6308
yum	-12.631
yeq	-12.6311
+6+	-12.6312
snake	-12.6312
fanpop	-12.6312
telegraph	-12.6315
indiatimes	-12.6316
hatchback	-12.6317
amore	-12.6319
/199	-12.6319
formal	-12.632
zheng	-12.632
/323	-12.6321
fifth	-12.6321
indy	-12.6323
-180	-12.6325
msr	-12.6325
feather	-12.6326
wsj	-12.6327
frwd	-12.6328
plumber	-12.6329
maxpreps	-12.6329
/282	-12.633
wrg	-12.633
rojo	-12.633
athlon	-12.6332
inzpzgvvx	-12.6333
francaise	-12.6333
peterson	-12.6334
offering	-12.6336
motorsport	-12.6337
bsyxls	-12.6338
rights	-12.6338
teva	-12.634
sophia	-12.6341
nota	-12.6342
brighton	-12.6343
disable	-12.6346
camel	-12.6346
nzq	-12.6347
fcw	-12.6348
autoplay	-12.635
jefferson	-12.635
essence	-12.6352
nim	-12.6353
stark	-12.6355
recliners	-12.6355
toko	-12.6355
=111	-12.6356
dandruff	-12.6357
7.123	-12.6358
prze	-12.6359
ucoz	-12.6359
nika	-12.6361
sym	-12.6362
/279	-12.6362
fond	-12.6362
spiral	-12.6363
persian	-12.6363
ced	-12.6366
else	-12.6369
chemicals	-12.6369
isaac	-12.6371
jobid	-12.6371
/1996-	-12.6373
-160	-12.6373
textile	-12.6373
kris	-12.6373
dichvuseowebto	-12.6373
tinh	-12.6374
buying	-12.6374
beetle	-12.6376
sporting	-12.6377
audit	-12.6377
fail	-12.6377
guan	-12.6377
nix	-12.6377
bilibili	-12.6377
classification	-12.6378
rang	-12.6378
stockholm	-12.6381
moms	-12.6381
ligne	-12.6381
5%84%	-12.6382
remedies	-12.6382
mechanic	-12.6386
wowma	-12.6386
publishers	-12.6386
trinity	-12.6387
monika	-12.6387
christoph	-12.6388
=101	-12.6389
corporationwiki	-12.639
qiu	-12.6392
/245	-12.6392
nang	-12.6393
=89	-12.6393
nreviews	-12.6394
animaux	-12.6394
receiver	-12.6395
booty	-12.6398
utan	-12.6399
mots	-12.64
bahia	-12.6402
rocky	-12.6403
prc	-12.6404
mcc	-12.6405
uae	-12.6405
nonprofit	-12.6405
3%89	-12.6406
lun	-12.6408
/228	-12.6408
studentproject	-12.641
qtaoq	-12.641
freeads	-12.641
hjh	-12.6411
toi	-12.6412
colored	-12.6412
pune	-12.6412
ding	-12.6412
baptist	-12.6412
completo	-12.6413
idaho	-12.6414
minas	-12.6414
depression	-12.6416
crowd	-12.6416
glider	-12.6416
phantom	-12.6419
2-4	-12.6419
slr	-12.6422
personer	-12.6423
=76	-12.6423
startup	-12.6424
pep	-12.6424
pale	-12.6426
italien	-12.6428
midnight	-12.6436
attributes	-12.6438
sphere	-12.6439
wirtschaft	-12.6439
agen	-12.644
/2010/	-12.6442
pbz	-12.6442
groupid	-12.6442
freizeit	-12.6442
derek	-12.6443
sextube	-12.6443
criticism	-12.6443
controls	-12.6444
karma	-12.6445
cialis	-12.6446
fbdc	-12.6447
prevention	-12.6447
bouw	-12.6449
unt	-12.6452
2+%	-12.6454
levy	-12.6454
muebles	-12.6454
kola	-12.6456
plaid	-12.6456
kev	-12.6456
5%86%	-12.646
rhino	-12.646
/232	-12.646
poisk	-12.646
logout	-12.6461
ghi	-12.6462
gue	-12.6464
omar	-12.6464
newsid	-12.6465
douglass	-12.6465
rochester	-12.6467
=85	-12.6467
poco	-12.6468
winning	-12.6472
/236	-12.6478
krem	-12.6479
editors	-12.648
koz	-12.648
aaaa	-12.6483
spots	-12.6486
simulator	-12.6489
svtplay	-12.6489
frances	-12.6489
lions	-12.6491
patrol	-12.6491
2015.	-12.6493
=54&	-12.6494
secondary	-12.6496
anno	-12.6496
worship	-12.6497
tablets	-12.6499
reform	-12.6499
umi	-12.65
newpm	-12.6501
debbie	-12.6502
growing	-12.6502
nzu	-12.6503
uaaaabaaaaaf	-12.6503
cgid	-12.6504
republicof	-12.6504
mach	-12.6505
gardner	-12.6505
briggs	-12.6505
wikidata	-12.6506
shaped	-12.6506
kimberly	-12.6509
2014/	-12.6509
tata	-12.6512
owo	-12.6512
enberg	-12.6514
feminino	-12.6515
herb	-12.6515
rsquo	-12.6516
pizzeria	-12.6516
religious	-12.6519
5%25	-12.6519
antibar	-12.6519
montoit	-12.652
fon	-12.652
serving	-12.6523
/267	-12.6524
afomag	-12.6525
andres	-12.6525
grund	-12.6527
/15-	-12.6527
uspto	-12.6528
quattro	-12.6529
=82	-12.653
dmv	-12.6531
zui	-12.6531
teddy	-12.6533
=104	-12.6534
fiches	-12.6535
injury	-12.6536
/276	-12.6538
ghana	-12.6538
speedway	-12.6539
sacred	-12.654
idnes	-12.6543
jennerw	-12.6544
1300	-12.6545
ulica	-12.6546
logno	-12.6547
5%92%8	-12.6548
married	-12.6549
ksu	-12.655
crosscall	-12.6551
lancer	-12.6552
40&	-12.6552
actualites	-12.6552
cguioij	-12.6553
lofter	-12.6553
6%93%	-12.6559
zhou	-12.6561
ndu	-12.6561
omg	-12.6561
babies	-12.6563
aktiv	-12.6564
jumia	-12.6566
magento	-12.6567
gasket	-12.6567
fortune	-12.657
osi	-12.6571
tutto	-12.6573
bia	-12.6573
handbuch	-12.6574
cycles	-12.6574
lublin	-12.6575
yet	-12.6575
ecole	-12.6576
wishes	-12.6578
oyo	-12.6579
bliss	-12.6579
gsp	-12.658
trademark	-12.6583
harga	-12.6583
concours	-12.6584
breaker	-12.6586
adsab	-12.6587
engines	-12.6587
libreria	-12.6588
fait	-12.6589
nym	-12.659
tyl	-12.659
ossetia	-12.659
adulttoys	-12.659
cesar	-12.6591
massey	-12.6592
koko	-12.6594
5%88%86%	-12.6597
giro	-12.6599
27&	-12.6601
klima	-12.6601
preston	-12.6602
nzy	-12.6602
popa	-12.6607
warszawa	-12.6607
pseudo	-12.6607
philipp	-12.6608
tecnologia	-12.661
tuan	-12.661
/273	-12.6611
odc	-12.6611
1985_1	-12.6612
gora	-12.6612
feu	-12.6613
giving	-12.6614
showcase	-12.6614
vem	-12.6614
bears	-12.6614
=3?	-12.6615
rostov	-12.6617
attachmentid	-12.6617
francoise	-12.6618
murah	-12.6621
rash	-12.6621
hali	-12.6624
=88&	-12.6625
ctrip	-12.6626
wijkteams	-12.6627
luce	-12.6628
zwchy	-12.6629
vampire	-12.6629
schuh	-12.6631
brun	-12.6632
9077	-12.6632
8231	-12.6633
whl	-12.6633
macbook	-12.6634
gospel	-12.6638
hau	-12.6638
joo	-12.6639
yuedu	-12.664
designers	-12.664
ipo	-12.664
cola	-12.6642
ernest	-12.6644
throat	-12.6644
ooying	-12.6644
prefix	-12.6644
shpock	-12.6644
ipod	-12.6645
stalker	-12.6645
paco	-12.6647
anzeigen	-12.6647
tah	-12.6647
both	-12.6648
eddie	-12.6648
-5000	-12.6648
motori	-12.6649
anja	-12.6651
celine	-12.6651
wagen	-12.6652
mississippi	-12.6652
noj	-12.6653
-65-	-12.6653
hugh	-12.6655
modeling	-12.6655
textbook	-12.6655
%83%8	-12.6656
cathy	-12.6656
bernd	-12.6656
ibiza	-12.6657
inspired	-12.6658
sitio	-12.6658
smooth	-12.6659
etti	-12.6659
makers	-12.6659
+3235536	-12.666
/280	-12.666
voltage	-12.6661
jada	-12.6661
marsh	-12.6665
oaaaabaaaaaf	-12.6665
indigo	-12.6666
-925-	-12.6667
repo	-12.6667
malta	-12.6668
cables	-12.6669
brigitte	-12.6669
merrychristmas	-12.6669
clare	-12.667
robo	-12.6671
/229	-12.6672
traktor	-12.6673
typeid	-12.6674
00004	-12.6674
.-2207520000../3	-12.6674
ydw	-12.6674
sham	-12.6675
editing	-12.6676
rix	-12.6678
honeywell	-12.6678
conditioner	-12.6679
siecle	-12.6679
pagename	-12.668
ooopu	-12.668
steak	-12.6681
iveco	-12.6681
scores	-12.6682
600-	-12.6684
=84&	-12.6685
sonia	-12.6688
bianca	-12.6688
abnehmen	-12.669
committee	-12.6691
lancaster	-12.6691
poor	-12.6692
guidance	-12.6695
aku	-12.6695
xuan	-12.6697
turquoise	-12.6698
nadia	-12.6698
setting	-12.6699
freak	-12.6701
xiu	-12.6702
.060	-12.6703
niche	-12.6703
dich	-12.6705
broad	-12.6705
mik	-12.6705
trousers	-12.6706
sims	-12.6706
/297	-12.6707
guangzhou	-12.6707
ijo	-12.6708
figures	-12.6708
suits	-12.6708
hermann	-12.6709
maaaabaaaaaf	-12.671
sata	-12.6711
goose	-12.6711
-1997-	-12.6712
northwest	-12.6714
teo	-12.6714
wrestling	-12.6715
/233	-12.6715
silvia	-12.6715
caracas	-12.6717
lambert	-12.6718
zion	-12.672
hiv	-12.6722
oneday	-12.6722
oky	-12.6722
clinica	-12.6724
resumes	-12.6726
bits	-12.6727
schnell	-12.6728
nil	-12.673
manila	-12.6733
mdc	-12.6734
3%83%84%	-12.6735
tributes	-12.6736
medic	-12.6737
sylvie	-12.6737
travail	-12.6737
ural	-12.6738
readers	-12.6739
yangon	-12.6739
18320	-12.6741
memphis	-12.6744
bentley	-12.6744
elektronik	-12.6746
hezi	-12.6746
fittings	-12.6746
6%80	-12.6747
36&	-12.6747
mua	-12.6748
0100/	-12.6748
ties	-12.6749
uml	-12.6751
globo	-12.6754
charging	-12.6754
jtid	-12.6755
thema	-12.6756
siteid	-12.6757
1400	-12.6757
yzf	-12.6757
starting	-12.6759
walnut	-12.676
seoul	-12.676
oko	-12.676
disorder	-12.6761
alvarez	-12.6761
ruta	-12.6762
pepperse	-12.6763
fujico	-12.6763
calendario	-12.6764
checker	-12.6765
8%85%	-12.6765
malaga	-12.6766
2105	-12.6767
mau	-12.6769
7%93%	-12.6769
gruppe	-12.6769
lek	-12.6769
mayor	-12.677
agile	-12.677
-130	-12.6773
2018-	-12.6776
nhs	-12.6776
ethics	-12.6776
vaw	-12.6777
itxassou	-12.6778
leipzig	-12.6778
=1?	-12.6778
nun	-12.6779
craftsman	-12.6781
charleston	-12.6783
beef	-12.6784
curren	-12.6784
uck	-12.6789
dye	-12.679
farfetch	-12.6792
jens	-12.6792
/241	-12.6793
wheeler	-12.6795
yunqi	-12.6795
redmi	-12.6795
polis	-12.6797
/10000	-12.6798
sacramento	-12.6799
/269	-12.6799
rosecliff	-12.6799
blanche	-12.6799
logged	-12.6801
soda	-12.6802
kzw	-12.6803
kamen	-12.6803
itemtype	-12.6803
vakoil	-12.6808
posterboard	-12.6809
dhdgnox	-12.6809
meditation	-12.681
kinky	-12.681
/243	-12.6812
spur	-12.6813
dvr	-12.6813
boxing	-12.6816
airlines	-12.6817
johnston	-12.6818
sthiji	-12.6821
jumbo	-12.6822
dveri	-12.6825
riz	-12.6825
/226	-12.6825
yol	-12.6827
zeitung	-12.6828
06&	-12.6828
attorneys	-12.6829
telefone	-12.683
memes	-12.683
dow	-12.6833
sussex	-12.6833
ugc	-12.6837
yaw	-12.6837
pry	-12.6838
izi	-12.6839
twpro	-12.684
6%95%99%	-12.684
mapquest	-12.6841
czy	-12.6844
cancel	-12.6847
=86	-12.6848
zhao	-12.6848
spiff	-12.6848
verse	-12.685
nejlepsic	-12.6851
jardim	-12.6852
=02&	-12.6852
bottles	-12.6852
isinnlyxjjaf	-12.6854
naka	-12.6855
carroll	-12.6856
muse	-12.6857
seiten	-12.6859
debug	-12.6859
parttime	-12.686
nacht	-12.6861
gama	-12.6862
trunk	-12.6862
muzhskaya	-12.6863
kleine	-12.6863
marino	-12.6864
zione	-12.6864
7%86%	-12.6865
npr	-12.6872
aut	-12.6873
-240	-12.6873
hcm	-12.6874
livingroomsets	-12.6876
standards	-12.6876
cari	-12.6879
hanse	-12.6884
iwme	-12.6884
2018/	-12.6884
pug	-12.6885
styling	-12.6885
dts	-12.6885
corrigan	-12.6886
alte	-12.6887
inline	-12.6887
yen	-12.6891
9%96%80%	-12.6891
=102	-12.6892
andover	-12.6892
ichacha	-12.6896
merry	-12.6899
raum	-12.69
yxrpb	-12.69
cincinnati	-12.6901
udhi	-12.6901
=83&	-12.6903
gogo	-12.6905
lexington	-12.6905
macys	-12.6906
produtos	-12.6909
casey	-12.6909
aunt	-12.6909
serra	-12.6911
fighter	-12.6912
difference	-12.6913
mja	-12.6915
blackberry	-12.6915
aldo	-12.6916
matters	-12.6916
heli	-12.6916
iheart	-12.6917
letra	-12.6917
follower	-12.6918
-1-6-	-12.6919
empleos	-12.692
saab	-12.6921
guidelines	-12.6923
unblock	-12.6923
sburg	-12.6924
tourist	-12.6925
pez	-12.6926
lop	-12.6933
elliott	-12.6934
plumbers	-12.6934
shopper	-12.6935
ibu	-12.6936
yka	-12.6937
rvs	-12.6938
branco	-12.694
bazos	-12.694
mbursky	-12.6942
akara	-12.6943
zipper	-12.6943
ollygal	-12.6945
montadora	-12.6946
tey	-12.6947
shades	-12.6948
shein	-12.6948
yacht	-12.6952
busqueda	-12.6952
handbags	-12.6952
raiz	-12.6953
etre	-12.6954
zyw	-12.6955
monaco	-12.6955
chino	-12.6955
clair	-12.6958
azur	-12.6958
6031%2	-12.6958
hdd	-12.696
wrx	-12.696
vender	-12.6963
hype	-12.6965
princeton	-12.6966
adresse	-12.6967
wok	-12.6967
gaaaabaaaaaf	-12.6969
qpid	-12.6969
waaaabaaaaaf	-12.697
latavola	-12.6971
yzy	-12.6971
pana	-12.6972
hetero	-12.6972
nexturl	-12.6973
folie	-12.6978
boiler	-12.698
chung	-12.6981
flt	-12.6983
psi	-12.6984
ofertas	-12.6986
tomas	-12.6987
parish	-12.6988
kaplan	-12.6988
househunter	-12.6989
outer	-12.699
literary	-12.6991
chapel	-12.6992
reo	-12.6993
gale	-12.6995
intporn	-12.6996
utu	-12.6998
188.	-12.7
yoko	-12.7001
proto	-12.7001
camionetas	-12.7002
2500	-12.7002
vzl	-12.7002
mock	-12.7006
1998	-12.7007
0102	-12.7007
malibu	-12.7008
lier	-12.701
elf	-12.701
nez	-12.7013
soon	-12.7014
postal	-12.7015
textiles	-12.7016
dare	-12.7017
voyeur	-12.7017
wank	-12.7018
servicos	-12.7019
csv	-12.702
vier	-12.702
fotosearch	-12.7021
fare	-12.7023
aji	-12.7024
vyz	-12.7027
classe	-12.7028
jian	-12.7029
mza	-12.7029
examination	-12.7029
physiology	-12.7029
2103	-12.703
julio	-12.7032
holidaycheck	-12.7033
emr	-12.7033
roche	-12.7034
demon	-12.7035
loch	-12.7038
nagano	-12.7038
igo	-12.7038
staffing	-12.7041
schul	-12.7041
inform	-12.7041
outfit	-12.7043
boro	-12.7044
venice	-12.7044
supplement	-12.7044
/1995-	-12.7045
xie	-12.7049
kaaaabaaaaaf	-12.7049
=79	-12.7051
=93	-12.7051
kod	-12.7053
kategori	-12.7055
payday	-12.7055
adhesive	-12.7056
usado	-12.7056
brenda	-12.7057
dunes	-12.7059
census	-12.7061
offres	-12.7062
ved	-12.7063
9_%	-12.7063
outerwear	-12.7064
fnac	-12.7065
=%22	-12.7068
jelly	-12.7069
hier	-12.7069
9-4	-12.707
curve	-12.707
8253	-12.707
keskustelu	-12.7073
comprehensive	-12.7073
markham	-12.7073
inox	-12.7073
shang	-12.7076
locks	-12.7077
moc	-12.7078
brew	-12.7079
munich	-12.708
jahr	-12.7082
daniela	-12.7083
=607	-12.7083
carson	-12.7085
freeman	-12.7085
0%80%	-12.7087
trois	-12.7087
=74&	-12.709
%2526	-12.709
guitars	-12.709
chong	-12.709
agu	-12.7091
novosti	-12.7092
webster	-12.7094
exec	-12.7094
novosibirsk	-12.7094
wenxue	-12.7094
sisters	-12.7095
devon	-12.7096
powell	-12.7096
williston	-12.7099
vuz	-12.7099
jacobs	-12.7099
/265	-12.7099
gib	-12.7103
ucp	-12.7104
frau	-12.7105
esequestrian	-12.7105
%86%92%	-12.7107
czyuetao	-12.7108
kitchendining	-12.7108
youla	-12.7108
foros	-12.711
opportunity	-12.7113
4%83	-12.7113
hatenablog	-12.7114
pouch	-12.7114
vids	-12.7114
tuc	-12.7116
uti	-12.7118
vine	-12.7119
pageno	-12.712
plugins	-12.7121
silent	-12.7122
50&	-12.7122
pkg	-12.7124
paolo	-12.7124
80&	-12.7124
rape	-12.7126
carr	-12.7129
immobiliare	-12.7129
ksw	-12.713
medio	-12.7131
crescent	-12.7133
ochnia	-12.7133
lub	-12.7135
т	-12.7135
/10001	-12.7136
leonardo	-12.7137
infoas	-12.7138
youtubers	-12.7138
avendano	-12.7138
sino	-12.714
joom	-12.7142
tpr	-12.7142
francesco	-12.7143
asso	-12.7143
utes	-12.7146
iju	-12.7147
inven	-12.7148
leave	-12.7149
excellent	-12.715
jackie	-12.715
souko	-12.715
tomo	-12.715
chun	-12.7151
fourth	-12.7151
babyanimalgifs	-12.7151
njm	-12.7152
railway	-12.7156
5200.	-12.7158
timing	-12.7158
ggn	-12.716
meier	-12.7161
tura	-12.7164
moviles	-12.7165
/50-	-12.7165
gyn	-12.7167
mantel	-12.7168
bring	-12.7168
shoot	-12.7168
esy	-12.7169
projector	-12.7169
rund	-12.7171
departure	-12.7171
drinking	-12.7172
haobo	-12.7176
=76&	-12.7177
lanka	-12.7179
felt	-12.7179
yesi	-12.718
backgroundcheck	-12.7182
schuster	-12.7182
vak	-12.7183
4917	-12.7183
/242	-12.7184
lacoste	-12.7184
nekrologi	-12.7186
veterinary	-12.7187
classid	-12.7188
suburban	-12.7188
ngu	-12.7188
flood	-12.7188
tubes	-12.7191
liche	-12.7191
hoop	-12.7191
kaya	-12.7193
unternehmen	-12.7194
naruto	-12.7194
tcg	-12.7195
fut	-12.7196
salem	-12.7197
burke	-12.7198
hagen	-12.7199
3%82%89%	-12.72
21&	-12.72
compression	-12.7201
lexi	-12.7202
lagazzettadel	-12.7204
upon	-12.7205
esther	-12.7205
/224	-12.7207
8191	-12.7208
kost	-12.7208
paginebianche	-12.7208
syndrome	-12.721
jensen	-12.7212
colt	-12.7212
anchavailability	-12.7213
manfred	-12.7214
8%93	-12.7216
ingresos	-12.7217
crow	-12.7218
melo	-12.7218
bedford	-12.7219
thermostat	-12.7219
pronounce	-12.7221
corte	-12.7221
binding	-12.7222
chronic	-12.7223
within	-12.7225
businessdetails	-12.7227
grup	-12.7231
functional	-12.7231
floating	-12.7232
msc	-12.7233
backlink	-12.7233
nori	-12.7233
nzi	-12.7234
paleo	-12.7236
burns	-12.7236
yzw	-12.7237
heb	-12.7242
balloon	-12.7242
airydress	-12.7243
xincailiao	-12.7243
=65&	-12.7245
jiehangwesh	-12.7248
autodoc	-12.7249
paypal	-12.7249
camino	-12.7249
/249	-12.725
patreon	-12.7252
1700	-12.7253
carp	-12.7254
/258	-12.7254
hurricane	-12.7255
camisetas	-12.7257
patterson	-12.7257
zufang	-12.7259
mypm	-12.726
charters	-12.7261
manatelugu	-12.7261
meskie	-12.7263
fame	-12.7263
helmet	-12.7265
ulscen	-12.7268
arangua	-12.7269
dirk	-12.727
sinnamon	-12.727
ejw	-12.7272
showcomment	-12.7273
phat	-12.7276
networking	-12.7276
terrace	-12.7277
oster	-12.7279
fairfield	-12.728
meri	-12.728
avtomobili	-12.7282
pregnant	-12.7283
gilles	-12.7284
helena	-12.7285
stain	-12.7285
fork	-12.7285
64?	-12.7285
kew	-12.7286
tmk	-12.7286
oboi	-12.7287
vendre	-12.7288
reservation	-12.7289
ficha	-12.729
cala	-12.7291
inmobiliaria	-12.7291
9%88-%	-12.7291
%2527	-12.7291
ltq	-12.7293
edmiracle	-12.7293
mnt	-12.7293
dxjspw	-12.7293
biblioteca	-12.7295
boho	-12.7296
_12_	-12.7296
delle	-12.73
networks	-12.73
wayfair	-12.7305
charcoal	-12.7305
133.	-12.7309
administrator	-12.731
=87&	-12.7311
zff	-12.7312
2015/	-12.7313
mcdonald	-12.7315
bark	-12.7315
concord	-12.7315
ysk	-12.7316
1210	-12.7318
9000	-12.7318
plasma	-12.732
guandang	-12.7323
72&	-12.7323
vbw	-12.7324
gorod	-12.7324
-04-	-12.7327
chash	-12.733
aspen	-12.733
evelyn	-12.7331
patron	-12.7332
pci	-12.7333
sportsman	-12.7333
jenkins	-12.7334
blumen	-12.7336
quin	-12.7337
piaus	-12.7338
dixon	-12.7339
ange	-12.734
simplyhired	-12.7341
2001	-12.7341
noah	-12.7342
xhcd	-12.7344
mnewsplus	-12.7345
insights	-12.7345
-2013.	-12.7345
lafayette	-12.7347
ndc	-12.7348
+++	-12.7349
polka	-12.735
tit	-12.7351
lart	-12.7351
usdm	-12.7354
capitolhill	-12.7354
5-4	-12.7358
elsa	-12.7362
chesterfield	-12.7362
hdi	-12.7362
wxw	-12.7363
0004	-12.7365
ndo	-12.7365
captcha	-12.7366
footage	-12.7369
hearing	-12.737
primus	-12.737
medico	-12.7371
zuowen	-12.7372
combined	-12.7372
wikizero	-12.7372
/234	-12.7372
isla	-12.7374
brittany	-12.7374
motel	-12.7375
saving	-12.7376
eleconomista	-12.7377
resistance	-12.7381
braindumps	-12.7381
yaku	-12.7382
drei	-12.7382
ending	-12.7386
9.5	-12.7386
logininput	-12.7386
1985_	-12.7388
destiny	-12.7388
personen	-12.7389
sublanguage	-12.739
multiselect	-12.7391
vince	-12.7392
jue	-12.7393
novi	-12.7393
bonnie	-12.7393
reyes	-12.7394
=57&	-12.7394
representative	-12.7394
99&	-12.7396
organizations	-12.7396
ecuador	-12.7396
tny	-12.7396
/238	-12.7397
yoshi	-12.7401
tooth	-12.7401
tet	-12.7403
prov	-12.7403
=8632&	-12.7403
eisen	-12.7403
cram	-12.7403
hsz	-12.7405
lowe	-12.7406
showposts	-12.7407
nitro	-12.7408
susanne	-12.7408
mfc	-12.7409
=89&	-12.741
hsg	-12.7412
gic	-12.7414
dante	-12.7414
onthe	-12.7415
recorded	-12.7416
lett	-12.7417
replyto	-12.7419
reich	-12.7421
bola	-12.7421
investments	-12.7422
khabar	-12.7423
6%98%8	-12.7425
huf	-12.7426
jimenez	-12.7426
apa	-12.7428
bora	-12.7429
livro	-12.7429
xpg	-12.7429
/2010	-12.743
mianfei	-12.7431
digit	-12.7433
antennen	-12.7433
artisan	-12.7433
islamic	-12.7433
perspective	-12.7434
taschen	-12.7435
yucatan	-12.7435
panther	-12.7435
/263	-12.7436
ausgabe	-12.7437
saft	-12.7437
chronicles	-12.7438
sinks	-12.7439
hod	-12.744
apkpure	-12.7441
economia	-12.7441
[...]
