<unk>	0
<s>	0
</s>	0
<cls>	0
<sep>	0
<pad>	0
<mask>	0
<eod>	0
<eop>	0
.	0
(	0
)	0
"	0
-	0
–	0
£	0
€	0
▁	-2.12678
▁the	-3.24477
,	-3.25078
▁of	-3.91315
▁and	-3.95722
▁to	-3.97428
s	-3.97594
▁a	-4.14918
▁in	-4.22996
'	-4.65356
▁is	-5.00166
▁for	-5.00621
▁that	-5.03997
▁was	-5.19301
▁on	-5.21006
▁The	-5.27478
▁with	-5.30232
▁as	-5.51192
▁I	-5.55859
▁it	-5.57594
▁by	-5.62664
▁at	-5.66253
▁be	-5.68925
▁from	-5.71261
▁are	-5.75287
▁said	-5.78369
▁he	-5.8006
▁you	-5.81257
▁his	-5.84626
t	-5.88046
▁have	-5.9037
▁an	-5.98926
▁or	-6.04531
▁not	-6.05961
▁has	-6.12908
▁this	-6.1607
▁will	-6.22001
▁had	-6.27898
▁were	-6.29494
ing	-6.30478
▁but	-6.34286
▁their	-6.39393
▁which	-6.39831
:	-6.40639
▁who	-6.4178
▁her	-6.42663
▁they	-6.44195
▁can	-6.46777
▁one	-6.48553
d	-6.49898
▁In	-6.50574
ed	-6.50774
▁He	-6.57107
▁more	-6.57277
▁all	-6.57977
▁been	-6.58233
▁your	-6.59679
▁would	-6.63687
▁about	-6.6429
▁up	-6.65106
▁also	-6.65355
▁out	-6.65987
▁A	-6.67294
▁we	-6.69177
▁its	-6.73393
?	-6.74384
S	-6.75445
▁It	-6.77719
▁she	-6.8057
▁other	-6.82966
▁two	-6.83753
re	-6.84237
▁first	-6.84891
▁when	-6.85428
▁into	-6.87081
▁time	-6.87224
e	-6.88168
▁my	-6.882
▁over	-6.9117
I	-6.91293
;	-6.91895
m	-6.91986
▁after	-6.92989
▁than	-6.96227
a	-6.96301
▁so	-6.99906
▁him	-7.02516
▁people	-7.02885
▁there	-7.05333
▁some	-7.08026
▁them	-7.08065
▁if	-7.0908
▁new	-7.0914
▁me	-7.09242
ly	-7.10532
▁do	-7.11491
▁what	-7.13627
▁only	-7.13935
▁like	-7.13946
▁no	-7.14074
y	-7.14673
er	-7.17239
▁year	-7.18465
▁our	-7.2074
▁could	-7.23025
▁This	-7.24629
▁years	-7.24838
▁any	-7.24899
▁just	-7.25704
▁back	-7.3377
▁most	-7.33872
▁U	-7.34622
▁last	-7.36145
▁But	-7.36671
▁where	-7.40903
▁may	-7.40932
▁get	-7.41463
▁before	-7.41513
▁through	-7.41693
!	-7.42006
▁then	-7.42941
th	-7.45751
▁three	-7.45818
▁made	-7.46196
▁percent	-7.46656
▁many	-7.468
▁well	-7.48238
▁make	-7.4869
▁now	-7.48933
▁government	-7.49166
▁She	-7.51981
▁such	-7.52293
▁because	-7.52428
i	-7.53792
▁down	-7.54345
The	-7.54376
in	-7.5468
▁work	-7.54701
o	-7.54843
▁1	-7.55942
▁against	-7.56097
▁New	-7.56261
▁2	-7.56756
▁how	-7.58151
▁between	-7.58277
▁way	-7.59118
▁being	-7.61338
▁use	-7.62421
’	-7.62455
▁these	-7.64328
/	-7.64368
▁under	-7.65239
▁We	-7.6618
▁should	-7.66205
▁while	-7.67554
▁very	-7.67839
▁million	-7.68094
1	-7.68371
▁know	-7.68474
▁even	-7.68802
▁off	-7.69213
▁much	-7.71019
▁used	-7.71031
n	-7.71906
▁during	-7.73594
▁take	-7.73674
▁If	-7.73981
2	-7.7465
▁world	-7.74919
▁those	-7.75113
▁United	-7.75329
▁part	-7.75569
ve	-7.75626
▁did	-7.76122
▁day	-7.7662
▁home	-7.7705
▁here	-7.77683
▁still	-7.77933
▁good	-7.78021
▁since	-7.78337
▁see	-7.78904
▁3	-7.79002
▁around	-7.79424
▁They	-7.80175
▁You	-7.82032
es	-7.82129
▁right	-7.83633
▁state	-7.8398
▁second	-7.84216
▁long	-7.84372
▁both	-7.84393
▁including	-7.84714
▁And	-7.84912
▁want	-7.85655
▁us	-7.85849
al	-7.86121
r	-7.86192
▁need	-7.86408
ll	-7.87017
▁go	-7.87516
5	-7.8825
or	-7.88643
▁same	-7.89103
▁don	-7.90182
▁“	-7.90337
▁help	-7.90587
▁going	-7.90998
▁own	-7.91018
▁_	-7.91461
▁company	-7.92622
▁high	-7.92775
▁As	-7.92834
▁information	-7.92844
▁team	-7.93494
▁each	-7.94041
▁think	-7.94121
3	-7.9472
▁country	-7.95227
▁life	-7.96278
We	-7.96281
▁four	-7.97164
▁There	-7.97323
▁end	-7.98223
▁On	-7.99345
▁10	-8.00114
▁American	-8.00196
▁number	-8.012
▁next	-8.01414
▁another	-8.01631
A	-8.02097
▁For	-8.02291
▁say	-8.02572
man	-8.02754
▁place	-8.03157
▁States	-8.03741
▁best	-8.03898
on	-8.04441
en	-8.04494
▁found	-8.05309
▁group	-8.05524
▁set	-8.05869
▁told	-8.05906
▁until	-8.07136
▁week	-8.07565
to	-8.08001
an	-8.08327
▁left	-8.09912
▁business	-8.10687
4	-8.10816
▁later	-8.10863
k	-8.11248
▁4	-8.11271
▁too	-8.11508
ers	-8.11646
▁called	-8.11809
▁must	-8.12386
▁family	-8.12606
▁few	-8.12706
▁game	-8.13553
▁US	-8.13761
▁system	-8.14262
▁find	-8.14578
0	-8.14837
▁come	-8.15596
▁public	-8.16161
▁won	-8.16438
▁season	-8.16544
▁6	-8.16831
▁city	-8.17642
▁without	-8.17685
▁never	-8.18117
▁took	-8.18217
It	-8.1856
▁area	-8.19128
▁head	-8.19684
▁again	-8.19785
▁little	-8.20078
▁several	-8.20419
year	-8.20771
▁At	-8.21096
▁school	-8.21248
▁five	-8.22186
g	-8.22187
▁every	-8.23192
▁came	-8.23436
▁China	-8.2452
▁local	-8.25515
▁name	-8.25844
the	-8.25846
▁5	-8.25914
▁days	-8.25925
▁away	-8.25938
▁support	-8.26099
▁top	-8.26355
▁When	-8.26402
▁great	-8.2657
▁York	-8.26718
▁didn	-8.2697
▁University	-8.2739
▁small	-8.28234
▁former	-8.28632
▁known	-8.29048
▁early	-8.29364
▁After	-8.30024
▁de	-8.30229
▁B	-8.30491
C	-8.30497
▁To	-8.30787
▁free	-8.30931
▁man	-8.31453
▁might	-8.31901
▁President	-8.31962
▁His	-8.32078
▁C	-8.32114
▁put	-8.32387
▁different	-8.32541
▁water	-8.32797
▁South	-8.3291
▁site	-8.32915
▁No	-8.33083
▁billion	-8.33482
▁look	-8.33533
▁World	-8.3361
▁members	-8.33713
▁children	-8.34106
6	-8.3444
▁really	-8.34647
▁market	-8.34868
▁got	-8.34902
▁So	-8.34924
▁D	-8.3529
▁service	-8.36125
▁says	-8.36176
▁power	-8.36196
▁show	-8.3636
▁better	-8.36645
N	-8.3689
▁play	-8.3697
▁held	-8.37146
▁money	-8.37157
▁That	-8.37337
▁does	-8.37518
▁something	-8.37543
▁National	-8.37548
▁officials	-8.37548
▁E	-8.37711
▁case	-8.38583
▁within	-8.39592
▁police	-8.39867
▁side	-8.40147
▁program	-8.40542
l	-8.40601
c	-8.4086
▁military	-8.412
▁give	-8.41715
▁Friday	-8.41963
▁hand	-8.42341
▁order	-8.42489
▁war	-8.42506
▁Tuesday	-8.42528
7	-8.42775
▁20	-8.42929
▁president	-8.4293
▁Monday	-8.42979
▁using	-8.43009
▁15	-8.43249
▁major	-8.43618
▁Wednesday	-8.43921
8	-8.44238
able	-8.44743
▁available	-8.44872
▁went	-8.45091
▁Thursday	-8.45322
▁least	-8.45641
▁night	-8.45947
▁large	-8.46168
▁third	-8.46219
▁All	-8.46225
▁P	-8.46455
▁past	-8.47201
▁points	-8.47329
▁car	-8.47491
▁months	-8.4751
▁important	-8.47527
▁become	-8.47649
▁began	-8.47694
▁became	-8.47721
▁six	-8.47842
▁following	-8.48106
▁things	-8.48138
”	-8.48219
▁John	-8.4835
h	-8.48359
▁full	-8.4843
▁along	-8.48478
▁women	-8.48565
▁political	-8.48656
▁M	-8.49369
us	-8.50005
▁men	-8.50063
D	-8.50241
▁line	-8.50401
▁report	-8.50721
▁far	-8.50849
▁12	-8.51207
▁un	-8.51586
▁face	-8.52229
▁point	-8.5236
▁7	-8.52467
▁always	-8.52701
▁already	-8.52962
▁May	-8.53159
▁include	-8.53269
▁T	-8.53443
▁law	-8.53556
▁month	-8.53865
▁open	-8.53932
▁lot	-8.54068
▁keep	-8.54107
▁One	-8.54236
▁often	-8.54367
▁State	-8.54486
▁national	-8.54694
▁international	-8.54937
▁making	-8.55312
▁asked	-8.55378
and	-8.5538
▁provide	-8.55647
old	-8.56144
▁run	-8.56305
▁among	-8.56408
▁O	-8.56408
▁thought	-8.56681
p	-8.56937
▁per	-8.57112
▁countries	-8.57203
▁North	-8.57309
▁health	-8.57862
▁half	-8.57919
▁enough	-8.57977
▁G	-8.58078
▁body	-8.58228
▁change	-8.58328
▁An	-8.58351
▁series	-8.58388
▁added	-8.58504
▁companies	-8.58655
▁though	-8.5869
▁process	-8.58886
▁students	-8.58969
▁start	-8.59404
▁film	-8.59445
x	-8.59534
▁security	-8.59564
▁late	-8.59582
▁services	-8.59909
▁With	-8.60381
▁close	-8.60437
▁control	-8.60659
▁However	-8.60795
▁course	-8.60798
You	-8.60977
▁near	-8.60998
▁house	-8.61072
▁working	-8.61589
▁R	-8.61627
▁17	-8.62053
▁final	-8.62295
▁Sunday	-8.62976
▁less	-8.6312
▁March	-8.63181
no	-8.63207
▁party	-8.63215
9	-8.63222
▁having	-8.63467
▁meeting	-8.63476
▁plan	-8.63498
▁today	-8.63941
▁office	-8.64049
▁official	-8.64415
▁once	-8.64458
▁possible	-8.64571
up	-8.64602
▁hard	-8.64694
▁18	-8.64799
▁given	-8.64932
▁development	-8.65099
▁16	-8.65241
▁started	-8.65408
▁11	-8.65445
▁played	-8.65495
b	-8.65555
▁House	-8.65573
▁City	-8.65594
▁together	-8.65634
▁sure	-8.65656
▁death	-8.65748
▁across	-8.65854
▁based	-8.66008
▁Minister	-8.66622
▁dollars	-8.66658
▁F	-8.66785
▁care	-8.66791
▁room	-8.67083
▁win	-8.67368
▁book	-8.67505
▁June	-8.67652
▁St	-8.67994
▁real	-8.68059
▁ago	-8.68232
▁data	-8.68314
▁released	-8.68386
le	-8.68443
el	-8.68698
▁economic	-8.68826
▁old	-8.68827
▁killed	-8.68991
▁big	-8.69289
▁form	-8.69342
K	-8.69364
▁times	-8.69377
▁others	-8.69727
▁community	-8.69757
▁building	-8.69772
▁8	-8.69826
▁due	-8.69829
▁W	-8.69846
▁30	-8.69891
▁ever	-8.69991
▁news	-8.70064
▁call	-8.70074
▁whether	-8.70112
▁according	-8.7028
▁reported	-8.70353
▁able	-8.70535
▁member	-8.70632
z	-8.70897
▁thing	-8.71063
▁non	-8.71066
ic	-8.71317
▁research	-8.71623
▁expected	-8.71682
▁British	-8.71864
▁online	-8.71989
▁European	-8.72062
▁air	-8.72187
▁April	-8.7245
▁love	-8.72471
▁level	-8.72619
▁seen	-8.72625
▁feel	-8.72643
▁eyes	-8.72685
▁am	-8.72808
▁single	-8.7285
▁music	-8.73219
▁taken	-8.73563
▁short	-8.73594
▁K	-8.73666
▁lead	-8.7372
▁July	-8.74058
ton	-8.7407
▁N	-8.74124
▁move	-8.74138
▁general	-8.74408
▁lost	-8.74533
▁Saturday	-8.74588
▁behind	-8.74594
▁town	-8.74906
▁West	-8.75207
▁J	-8.75252
▁main	-8.75336
▁done	-8.75486
▁looking	-8.75576
is	-8.75621
▁saying	-8.75868
▁These	-8.75886
▁court	-8.76139
▁human	-8.76163
▁By	-8.76282
▁received	-8.76529
na	-8.76529
▁record	-8.76588
▁low	-8.7808
▁Some	-8.78427
▁person	-8.78524
▁Washington	-8.78627
▁wanted	-8.78685
▁current	-8.78768
▁front	-8.78967
▁Iraq	-8.7898
▁oil	-8.79194
▁further	-8.79611
▁What	-8.79802
▁January	-8.80056
▁why	-8.80059
▁games	-8.80133
▁14	-8.80243
▁history	-8.80299
▁almost	-8.80394
▁pay	-8.81003
ar	-8.81118
▁let	-8.81184
▁trying	-8.8131
de	-8.81317
▁War	-8.81551
▁September	-8.81809
▁future	-8.81993
▁industry	-8.82039
▁job	-8.82145
▁food	-8.8222
at	-8.82234
▁hours	-8.82318
▁deal	-8.82332
▁interest	-8.82624
▁My	-8.82682
▁special	-8.83319
▁live	-8.83398
▁however	-8.8341
▁Bush	-8.83418
▁French	-8.83597
▁taking	-8.8361
▁financial	-8.83662
st	-8.83914
▁America	-8.8392
▁minutes	-8.84016
▁return	-8.84366
▁period	-8.84496
▁recent	-8.84502
▁hit	-8.84727
▁13	-8.84735
▁San	-8.84778
▁fact	-8.85134
▁list	-8.85143
▁died	-8.85213
▁Al	-8.85492
▁total	-8.85743
▁region	-8.85882
▁foreign	-8.85914
▁yet	-8.8593
▁experience	-8.86025
▁L	-8.8631
T	-8.86387
▁Co	-8.86434
u	-8.86531
ma	-8.86911
▁problem	-8.86921
▁decision	-8.8693
▁9	-8.87108
▁October	-8.87154
▁himself	-8.87258
ne	-8.87258
▁father	-8.87288
it	-8.87378
▁offer	-8.8751
▁issue	-8.8752
son	-8.87617
▁young	-8.87764
▁County	-8.8785
▁gave	-8.88172
▁believe	-8.88281
ist	-8.88337
▁products	-8.8834
▁age	-8.88756
ness	-8.88893
▁International	-8.8898
▁role	-8.89052
▁December	-8.89142
▁outside	-8.89157
▁saw	-8.89188
▁project	-8.8929
▁led	-8.89304
▁capital	-8.89473
▁areas	-8.89543
▁doing	-8.89575
▁leader	-8.89594
M	-8.89619
▁Chinese	-8.89867
w	-8.89896
E	-8.89979
▁School	-8.90024
▁light	-8.90038
B	-8.90118
▁statement	-8.90298
▁0	-8.90465
▁post	-8.90488
▁Israel	-8.90496
▁God	-8.90656
▁November	-8.90665
▁issues	-8.90862
time	-8.90968
▁August	-8.91032
▁problems	-8.91427
▁announced	-8.9158
▁black	-8.91602
▁turned	-8.92038
as	-8.92073
▁kind	-8.92188
▁try	-8.92441
▁campaign	-8.92812
based	-8.93356
▁example	-8.93476
▁moved	-8.93665
▁looked	-8.93673
▁cost	-8.93697
co	-8.93697
f	-8.93879
▁getting	-8.9391
▁rate	-8.93937
▁either	-8.93937
▁result	-8.93961
▁Her	-8.94093
▁price	-8.9419
land	-8.94432
▁anything	-8.94501
▁means	-8.94723
▁H	-8.95095
▁visit	-8.95275
▁credit	-8.95367
▁chief	-8.95386
▁policy	-8.95419
▁strong	-8.95533
▁included	-8.95638
▁personal	-8.96189
▁position	-8.96193
▁Re	-8.96268
▁forces	-8.96282
▁earlier	-8.96342
▁groups	-8.96348
▁France	-8.96457
▁event	-8.96464
▁While	-8.96558
▁director	-8.96572
▁population	-8.9676
▁trade	-8.96815
ta	-8.96875
▁access	-8.96875
G	-8.97072
▁weeks	-8.97479
▁leave	-8.97558
com	-8.97587
▁study	-8.97738
▁heart	-8.97855
▁tell	-8.97943
▁Department	-8.98008
▁fire	-8.98099
▁attack	-8.9822
▁share	-8.98303
P	-8.98378
day	-8.98427
▁built	-8.98591
▁meet	-8.99025
▁Japan	-8.99205
ity	-8.99498
▁field	-8.9955
▁increase	-8.99703
▁De	-8.99888
ation	-8.99968
▁likely	-9.00121
te	-9.00144
▁rights	-9.00319
▁story	-9.00502
▁cut	-9.00518
▁force	-9.0053
ia	-9.00542
▁career	-9.00611
led	-9.0075
▁leaders	-9.00767
▁peace	-9.00773
▁above	-9.00783
▁continue	-9.00814
ch	-9.00963
▁Council	-9.01127
▁media	-9.01134
▁needed	-9.01374
▁clear	-9.01501
▁key	-9.01621
▁players	-9.01655
▁needs	-9.0174
▁whose	-9.01741
▁social	-9.01872
▁sent	-9.01929
▁located	-9.02167
▁25	-9.02234
▁seven	-9.02355
▁training	-9.02558
▁soon	-9.02569
▁February	-9.02613
▁private	-9.0278
▁nothing	-9.02827
ling	-9.02987
▁various	-9.03105
▁turn	-9.03179
▁action	-9.03242
▁London	-9.03267
▁design	-9.0335
▁named	-9.0338
▁woman	-9.03418
line	-9.03517
19	-9.03905
▁higher	-9.03942
▁white	-9.04084
▁album	-9.0428
▁federal	-9.04447
▁sales	-9.04561
▁election	-9.04622
▁knew	-9.04697
▁mind	-9.04897
▁economy	-9.04922
▁results	-9.04956
▁living	-9.05095
▁felt	-9.05208
▁read	-9.05313
▁stop	-9.05351
▁co	-9.05403
▁mother	-9.05488
less	-9.05529
▁worked	-9.05595
▁coming	-9.0563
▁East	-9.0573
▁Center	-9.05779
▁India	-9.06109
▁wasn	-9.06164
▁Do	-9.06412
ra	-9.06498
▁Cup	-9.06539
▁100	-9.06591
▁prices	-9.06768
ry	-9.06833
▁production	-9.06968
▁page	-9.07178
F	-9.07266
▁California	-9.074
▁growth	-9.07533
▁create	-9.07589
▁plans	-9.0769
He	-9.07796
▁hands	-9.07829
▁match	-9.0807
▁doesn	-9.08118
▁whole	-9.08253
▁station	-9.08298
▁present	-9.08417
▁hold	-9.08599
▁tax	-9.08661
▁energy	-9.08813
▁makes	-9.08829
▁child	-9.09039
▁addition	-9.09062
▁fell	-9.09079
▁round	-9.09108
la	-9.09114
▁below	-9.0919
▁eight	-9.09365
▁rather	-9.0943
▁German	-9.09499
▁troops	-9.09566
R	-9.09596
H	-9.09659
▁idea	-9.09695
▁center	-9.09903
▁Europe	-9.10116
▁race	-9.10158
▁inside	-9.10363
▁common	-9.10734
▁ground	-9.10741
▁quality	-9.10816
▁land	-9.10933
ian	-9.1102
▁probably	-9.11023
▁someone	-9.11197
▁door	-9.11393
▁space	-9.11493
ment	-9.11527
▁Bank	-9.11775
▁staff	-9.11875
▁television	-9.11935
▁question	-9.12028
▁video	-9.12097
▁leading	-9.12132
▁nearly	-9.12189
▁English	-9.122
▁club	-9.12231
▁involved	-9.12241
▁served	-9.12401
▁published	-9.1253
il	-9.12781
▁lower	-9.1308
▁rest	-9.13093
▁average	-9.13127
▁education	-9.13162
▁morning	-9.13239
▁spokesman	-9.13273
▁comes	-9.13332
▁allow	-9.13486
▁forward	-9.13509
This	-9.13667
▁technology	-9.13819
▁50	-9.13908
▁provided	-9.13918
▁talks	-9.13958
▁opened	-9.14052
▁matter	-9.14069
▁Dr	-9.14124
▁computer	-9.14277
▁Russia	-9.14341
▁performance	-9.14403
▁24	-9.14483
▁White	-9.14508
▁League	-9.14682
▁running	-9.14704
▁created	-9.14715
▁player	-9.14824
▁original	-9.1484
▁similar	-9.14856
▁everything	-9.14859
▁anti	-9.14927
▁Union	-9.14956
▁test	-9.15088
▁goal	-9.153
Y	-9.15307
▁hope	-9.15321
▁shot	-9.15448
▁road	-9.15487
▁During	-9.15492
▁especially	-9.15571
▁largest	-9.15572
▁p	-9.15574
▁range	-9.15677
▁playing	-9.15764
▁closed	-9.16014
▁release	-9.16059
▁bad	-9.16063
ism	-9.16128
ie	-9.16131
▁England	-9.16136
▁continued	-9.16156
▁product	-9.16219
▁David	-9.16246
▁easy	-9.16259
▁pre	-9.16618
▁considered	-9.16652
▁Israeli	-9.16654
▁brought	-9.16732
ion	-9.16733
▁reached	-9.16766
▁bring	-9.16787
10	-9.16801
▁Australia	-9.16864
▁Russian	-9.16937
▁son	-9.16944
W	-9.16952
ley	-9.16997
▁decided	-9.17026
▁wife	-9.17115
▁buy	-9.17219
▁Party	-9.17308
▁programs	-9.17357
▁La	-9.17547
▁upon	-9.17736
▁title	-9.17772
▁cannot	-9.17774
▁required	-9.17816
What	-9.17928
▁agreement	-9.17973
age	-9.18097
ty	-9.18398
▁phone	-9.18473
▁George	-9.18499
▁view	-9.185
ro	-9.18614
▁search	-9.18614
▁management	-9.18683
J	-9.18727
▁popular	-9.18741
▁value	-9.18876
▁toward	-9.18988
et	-9.19059
▁reason	-9.19068
▁actually	-9.19104
▁longer	-9.19195
▁century	-9.1935
▁Germany	-9.19525
▁Now	-9.19555
▁tried	-9.19576
▁website	-9.19593
▁stock	-9.19634
▁friends	-9.19642
▁rose	-9.19723
▁Clinton	-9.19841
▁words	-9.19865
▁insurance	-9.19872
▁conference	-9.19894
▁complete	-9.19895
18	-9.20082
da	-9.20166
▁north	-9.2021
▁bank	-9.20305
▁band	-9.20334
▁web	-9.20433
▁General	-9.20513
casino	-9.2055
▁vote	-9.20794
▁Then	-9.21155
▁medical	-9.21192
▁works	-9.2125
se	-9.21302
▁situation	-9.21491
▁V	-9.2201
▁voice	-9.22073
▁minister	-9.22171
▁events	-9.22182
▁certain	-9.2223
▁19	-9.22291
▁professional	-9.22436
▁questions	-9.22683
▁blood	-9.23077
▁met	-9.23082
▁talk	-9.23114
▁states	-9.23233
▁board	-9.23308
▁type	-9.23336
▁themselves	-9.23463
L	-9.23478
▁version	-9.23513
ka	-9.23546
▁workers	-9.23558
▁Street	-9.23576
▁usually	-9.23743
▁Court	-9.23855
▁risk	-9.23946
▁south	-9.23949
▁administration	-9.24056
▁includes	-9.24095
▁recently	-9.24161
▁nation	-9.24183
▁currently	-9.24239
▁Internet	-9.24241
▁legal	-9.24389
▁itself	-9.24393
▁contact	-9.24405
▁cases	-9.24452
▁software	-9.24466
▁loss	-9.245
▁followed	-9.24638
▁returned	-9.24648
▁written	-9.24653
▁central	-9.24718
▁designed	-9.24808
▁amount	-9.25087
▁property	-9.2513
ur	-9.25199
▁quickly	-9.25213
ine	-9.253
▁moment	-9.25356
▁miles	-9.25489
▁From	-9.25799
▁Most	-9.25799
▁efforts	-9.25913
▁class	-9.26032
▁attacks	-9.26033
▁2010	-9.26085
▁stay	-9.2628
do	-9.26344
▁self	-9.26471
▁bit	-9.26499
▁although	-9.26695
▁21	-9.2684
▁changes	-9.27059
▁previous	-9.27076
▁fall	-9.27139
▁village	-9.27179
me	-9.27194
▁individual	-9.2726
▁network	-9.27546
▁features	-9.27598
▁art	-9.27645
▁Association	-9.27908
▁born	-9.27968
▁Park	-9.28111
▁Canada	-9.28195
▁College	-9.28206
▁African	-9.28209
▁According	-9.28344
▁agency	-9.28439
▁step	-9.2852
▁cause	-9.2866
▁Many	-9.28817
▁else	-9.28976
www	-9.29118
O	-9.29183
▁reports	-9.29239
▁feet	-9.29392
▁terms	-9.29645
▁Africa	-9.29686
▁understand	-9.29772
one	-9.29834
▁nuclear	-9.29922
rs	-9.2995
▁40	-9.29955
▁chance	-9.29963
ad	-9.30008
▁senior	-9.30027
▁Congress	-9.3003
There	-9.30507
ir	-9.30691
▁account	-9.30809
▁&	-9.30875
▁allowed	-9.30953
▁mean	-9.31025
men	-9.31157
▁dead	-9.31159
▁Palestinian	-9.31268
▁instead	-9.31269
▁2008	-9.31376
▁address	-9.3139
▁difficult	-9.31486
▁heard	-9.31563
▁How	-9.31679
▁systems	-9.31759
▁natural	-9.32055
▁Or	-9.3212
ce	-9.32293
▁word	-9.32554
▁Group	-9.32586
▁term	-9.3259
V	-9.32597
▁wrote	-9.32629
▁appeared	-9.32673
▁signed	-9.3271
▁Our	-9.32921
▁Since	-9.32983
▁summer	-9.3307
▁throughout	-9.33183
▁global	-9.33265
▁church	-9.33287
▁coach	-9.33387
▁TV	-9.3341
▁More	-9.33435
▁evidence	-9.33505
be	-9.33686
▁date	-9.33695
ter	-9.33705
▁base	-9.33728
▁song	-9.33756
▁Mr	-9.33761
▁hair	-9.33797
▁River	-9.33813
by	-9.33947
▁ahead	-9.33967
▁lives	-9.3401
ate	-9.34036
of	-9.3406
▁shows	-9.34109
▁red	-9.34223
▁offers	-9.3456
▁simply	-9.34683
▁James	-9.34683
▁activities	-9.34715
▁Japanese	-9.34735
▁provides	-9.34911
▁Although	-9.34951
▁agreed	-9.34953
▁parents	-9.35005
▁check	-9.35034
▁district	-9.35084
▁2011	-9.35093
▁pressure	-9.35106
▁learn	-9.35159
▁follow	-9.35215
▁sense	-9.3535
go	-9.35387
▁spent	-9.35394
If	-9.35453
▁student	-9.35491
▁ask	-9.35507
▁Michael	-9.35523
▁fight	-9.35616
▁effort	-9.35668
▁Korea	-9.36012
▁response	-9.36028
ni	-9.36109
▁established	-9.36115
am	-9.36229
▁paper	-9.36275
▁quarter	-9.3644
▁conditions	-9.36493
ting	-9.36547
ri	-9.36674
▁couldn	-9.36806
▁quite	-9.36878
ge	-9.36884
▁drug	-9.36905
▁Paul	-9.36928
▁rates	-9.36999
▁practice	-9.37053
um	-9.37056
▁wide	-9.37144
▁species	-9.37162
▁Not	-9.37281
▁anyone	-9.37327
▁receive	-9.37358
▁size	-9.37371
▁attention	-9.37427
▁potential	-9.37438
▁Web	-9.37445
▁authorities	-9.37493
▁fourth	-9.37529
▁sound	-9.37679
▁treatment	-9.37701
▁Texas	-9.37866
ized	-9.37875
▁described	-9.37908
▁true	-9.37985
▁success	-9.38043
▁developed	-9.38057
v	-9.38131
▁friend	-9.38156
▁Inc	-9.38187
ke	-9.38198
▁sign	-9.38218
▁ready	-9.38336
bo	-9.38365
▁organization	-9.38375
▁specific	-9.38428
▁Iran	-9.38555
▁radio	-9.38581
▁language	-9.38584
▁particular	-9.38598
▁sold	-9.38968
In	-9.3903
▁Prime	-9.39337
▁Service	-9.39374
born	-9.39385
▁finished	-9.39512
▁everyone	-9.39531
▁victory	-9.39591
▁entire	-9.39847
▁High	-9.39897
▁army	-9.3998
▁gas	-9.40187
▁investment	-9.40298
li	-9.40336
▁couple	-9.40615
▁source	-9.40619
▁King	-9.40634
▁immediately	-9.40648
▁cover	-9.40711
un	-9.4082
▁opening	-9.41064
▁build	-9.41073
▁2006	-9.41131
▁additional	-9.41172
▁stage	-9.41175
▁material	-9.41284
▁Committee	-9.41371
▁track	-9.41382
▁II	-9.41469
▁joined	-9.41521
▁Me	-9.41555
▁Red	-9.41562
est	-9.41567
▁beginning	-9.41656
ally	-9.41714
▁Indian	-9.41727
out	-9.41808
▁please	-9.41923
▁increased	-9.41991
▁pro	-9.42115
▁effect	-9.42175
▁content	-9.42183
▁reach	-9.42229
▁football	-9.42281
▁families	-9.42293
▁latest	-9.42628
▁costs	-9.42651
▁Be	-9.42699
▁Australian	-9.42838
But	-9.42886
▁offered	-9.42929
▁al	-9.4294
▁opposition	-9.43226
▁contract	-9.43363
der	-9.43412
▁First	-9.43567
▁construction	-9.43666
▁Le	-9.43729
▁seems	-9.43734
▁focus	-9.43742
▁necessary	-9.43753
▁gold	-9.4376
▁2009	-9.43766
▁soldiers	-9.43789
▁produced	-9.43796
▁Two	-9.43808
▁2012	-9.43839
▁details	-9.43871
▁remain	-9.4397
▁teams	-9.44084
j	-9.44086
▁travel	-9.44149
▁executive	-9.44324
▁changed	-9.44365
▁add	-9.44467
▁press	-9.44483
▁takes	-9.4458
▁parts	-9.44599
▁drive	-9.44704
▁table	-9.44718
▁bill	-9.44736
▁schools	-9.44786
▁2007	-9.44806
No	-9.44854
nd	-9.44901
▁District	-9.45183
▁floor	-9.4522
They	-9.45335
▁subject	-9.45555
▁22	-9.45864
▁southern	-9.45999
▁charge	-9.4607
▁showed	-9.4609
▁firm	-9.46109
▁defense	-9.4611
▁kept	-9.4629
▁Man	-9.46441
▁model	-9.46476
▁card	-9.46501
▁giving	-9.4657
▁books	-9.46582
ca	-9.46608
?”	-9.46724
▁ended	-9.46766
▁nine	-9.4689
▁violence	-9.46914
▁helped	-9.47064
▁El	-9.47091
▁shares	-9.47118
▁operations	-9.47204
▁elections	-9.47306
▁2000	-9.47441
ner	-9.47449
▁growing	-9.47522
▁mid	-9.47575
▁annual	-9.47671
▁loan	-9.47987
▁daily	-9.48008
▁serious	-9.48345
▁Britain	-9.48387
▁fast	-9.48429
▁break	-9.48628
▁Robert	-9.48685
▁Los	-9.48706
▁simple	-9.48795
▁Even	-9.48852
per	-9.4908
off	-9.49137
▁paid	-9.49172
▁arms	-9.49328
▁related	-9.49447
▁significant	-9.49503
▁college	-9.49594
▁income	-9.49645
▁$1	-9.49758
▁modern	-9.49769
▁finally	-9.49866
▁sometimes	-9.49868
for	-9.49878
▁failed	-9.50094
▁parties	-9.50134
▁section	-9.50154
▁Con	-9.50159
▁hear	-9.50186
▁weapons	-9.50265
▁raised	-9.50295
▁customers	-9.50303
▁Air	-9.50463
▁style	-9.50482
▁opportunity	-9.5055
▁seemed	-9.50691
12	-9.50832
▁budget	-9.51012
▁review	-9.51069
▁Li	-9.5107
▁passed	-9.51072
▁Your	-9.51124
▁trial	-9.51162
▁Republican	-9.51224
▁X	-9.51406
▁sites	-9.51513
ish	-9.51556
▁brother	-9.51582
▁Central	-9.51629
▁send	-9.51716
ak	-9.5176
▁wrong	-9.51773
▁alone	-9.51892
▁Obama	-9.51976
▁rules	-9.52114
ted	-9.5219
▁manager	-9.5221
▁interview	-9.52396
▁23	-9.52456
▁News	-9.52671
▁ways	-9.52704
▁sea	-9.52707
▁Army	-9.52741
▁begin	-9.52765
▁Security	-9.52912
▁moving	-9.52926
den	-9.52928
▁condition	-9.52999
00	-9.53009
▁deep	-9.53019
▁daughter	-9.5307
▁Please	-9.53076
▁movie	-9.53157
▁despite	-9.53167
▁stand	-9.53187
▁movement	-9.53189
▁levels	-9.53261
▁successful	-9.53288
he	-9.53351
▁writing	-9.53472
That	-9.53556
▁caused	-9.5362
▁Florida	-9.53755
▁aid	-9.53782
ant	-9.5388
▁safety	-9.53887
▁particularly	-9.53941
▁article	-9.53943
ster	-9.5398
ary	-9.53992
▁file	-9.54004
▁standard	-9.54148
▁Church	-9.54207
▁Mar	-9.54299
▁cash	-9.54355
▁ensure	-9.5437
▁crisis	-9.54387
▁Democratic	-9.54441
▁Mo	-9.54577
20	-9.5464
▁hospital	-9.54676
▁thousands	-9.54712
▁Pakistan	-9.54801
ga	-9.54805
50	-9.54935
field	-9.54946
▁sub	-9.55032
▁regular	-9.55119
▁UN	-9.55184
▁beat	-9.55283
▁Go	-9.55412
▁scored	-9.55445
▁majority	-9.55459
▁commercial	-9.55498
▁improve	-9.55558
▁competition	-9.55606
▁equipment	-9.55698
▁Senate	-9.5575
▁northern	-9.5575
▁application	-9.55777
▁demand	-9.55935
▁border	-9.55966
▁gone	-9.56004
term	-9.56107
▁remains	-9.56204
▁resources	-9.56315
▁pass	-9.56446
▁disease	-9.56508
▁independent	-9.56511
ya	-9.56527
im	-9.56574
▁Institute	-9.56675
▁married	-9.56709
▁remained	-9.56768
▁island	-9.56818
mo	-9.56843
30	-9.56922
▁message	-9.56936
▁relationship	-9.56957
▁forced	-9.57003
id	-9.57075
▁fighting	-9.57075
▁limited	-9.5721
▁charges	-9.57229
▁William	-9.57499
▁traditional	-9.576
ex	-9.57628
ko	-9.57727
▁pretty	-9.57737
▁directly	-9.57811
▁Mexico	-9.57848
▁leaving	-9.5787
sa	-9.57909
ies	-9.57984
▁27	-9.57989
▁store	-9.58009
▁2004	-9.58068
▁runs	-9.58103
▁2005	-9.58129
▁huge	-9.58132
▁1,	-9.58216
▁choice	-9.58316
15	-9.58319
▁sell	-9.58411
▁consider	-9.58493
▁happened	-9.58513
▁projects	-9.58544
▁Western	-9.58619
di	-9.58676
ol	-9.58716
▁shall	-9.58746
17	-9.589
▁entry	-9.59037
▁Other	-9.59053
▁EU	-9.59096
▁newspaper	-9.59105
▁environment	-9.59106
▁save	-9.59119
▁middle	-9.59204
▁protect	-9.59325
▁green	-9.59407
▁starting	-9.59472
▁character	-9.59479
▁answer	-9.59525
▁winning	-9.59577
11	-9.59603
▁myself	-9.59638
▁tour	-9.59653
▁net	-9.59687
▁jobs	-9.59739
way	-9.59779
▁Also	-9.59787
▁approach	-9.59801
▁responsible	-9.59856
lin	-9.59927
▁biggest	-9.59972
▁knowledge	-9.60083
▁poor	-9.60206
▁26	-9.60275
—	-9.60377
▁ability	-9.60618
▁Car	-9.60657
▁act	-9.60666
▁skin	-9.60791
▁image	-9.60815
▁goes	-9.60896
▁Kong	-9.61086
▁heavy	-9.61126
▁direct	-9.61239
▁patients	-9.61258
▁completed	-9.61277
▁letter	-9.61301
▁fun	-9.61317
▁choose	-9.61413
▁Hong	-9.61415
os	-9.61478
▁28	-9.61558
▁Of	-9.6161
▁wants	-9.61682
▁dark	-9.61744
U	-9.6208
▁placed	-9.62143
▁Iraqi	-9.62303
▁People	-9.6233
▁Pro	-9.62379
▁impact	-9.62381
▁figure	-9.62495
▁Commission	-9.62632
▁extra	-9.62642
▁seem	-9.62697
pe	-9.62704
▁unit	-9.62877
▁fine	-9.62889
▁pain	-9.62895
▁league	-9.62921
▁Secretary	-9.62924
▁compared	-9.62935
▁Bill	-9.62938
va	-9.62963
▁basis	-9.63046
▁Angeles	-9.63051
▁isn	-9.63112
▁Times	-9.63135
we	-9.63152
▁worth	-9.63235
ive	-9.63245
▁hot	-9.63331
ler	-9.63392
16	-9.63437
▁Don	-9.63452
▁towards	-9.63496
▁Asia	-9.63514
▁Taiwan	-9.63667
▁serve	-9.63808
▁rule	-9.63885
▁girl	-9.63978
▁employees	-9.63985
▁trip	-9.64015
ful	-9.64066
25	-9.64136
▁double	-9.64388
▁Day	-9.64412
▁happy	-9.64442
▁users	-9.64464
▁calls	-9.64559
▁operation	-9.64618
,”	-9.64646
▁develop	-9.64714
▁watch	-9.64718
▁whom	-9.64804
▁Mark	-9.64824
▁Black	-9.6484
▁straight	-9.65028
▁remember	-9.65067
▁sale	-9.65079
mail	-9.65141
▁weight	-9.65149
▁husband	-9.65205
▁color	-9.65261
▁60	-9.65344
▁Act	-9.65441
▁Just	-9.65452
ba	-9.65472
▁casino	-9.6548
▁Americans	-9.65487
▁hotel	-9.65497
▁east	-9.65523
▁via	-9.65529
And	-9.65581
▁plant	-9.65716
▁cross	-9.65719
▁believed	-9.65756
▁Italian	-9.65792
ja	-9.65872
▁positive	-9.65872
▁lines	-9.65953
▁Peter	-9.65986
▁ball	-9.66023
▁markets	-9.66031
▁easily	-9.66147
▁funds	-9.66168
▁highest	-9.66185
▁ran	-9.66226
▁index	-9.66265
ha	-9.66298
▁prevent	-9.66426
▁Hall	-9.66559
▁goals	-9.66593
▁Both	-9.66701
▁Foreign	-9.6678
▁arrived	-9.66833
▁hour	-9.66851
▁Thomas	-9.66925
▁join	-9.66943
▁officer	-9.66959
▁sources	-9.67056
▁effective	-9.67104
▁variety	-9.67149
▁Health	-9.67171
▁adding	-9.672
ti	-9.67206
▁attempt	-9.67455
▁investors	-9.67529
▁numbers	-9.67532
▁2003	-9.676
▁avoid	-9.6767
▁safe	-9.67864
▁mission	-9.67898
▁blue	-9.67901
▁Press	-9.67912
▁Smith	-9.68071
▁dollar	-9.68095
▁collection	-9.68246
▁degree	-9.68416
▁committee	-9.68442
▁dropped	-9.68492
▁damage	-9.68572
▁nature	-9.68589
▁providing	-9.68626
▁noted	-9.68633
▁trading	-9.68918
amp	-9.68927
▁Christian	-9.6894
ah	-9.68999
▁relations	-9.69009
▁perfect	-9.69191
▁email	-9.69194
▁eventually	-9.69299
▁carried	-9.69332
▁comment	-9.69405
▁Another	-9.69503
▁Bay	-9.69508
▁Italy	-9.6954
▁code	-9.69662
ham	-9.69672
▁eye	-9.69677
ous	-9.69886
▁Di	-9.69944
▁sides	-9.69959
▁residents	-9.69982
▁thinking	-9.70087
▁sports	-9.70129
▁1990	-9.70182
▁civil	-9.70218
▁benefits	-9.70232
▁exchange	-9.70352
▁elected	-9.70427
▁battle	-9.70491
▁loans	-9.70613
▁overall	-9.70779
▁link	-9.70826
▁separate	-9.70891
▁wouldn	-9.70951
▁department	-9.70978
▁appear	-9.70978
▁rise	-9.71038
▁regional	-9.7107
▁Paris	-9.71082
▁listed	-9.71227
▁accused	-9.71284
▁issued	-9.71356
▁planned	-9.71397
▁investigation	-9.71433
13	-9.71656
▁Bar	-9.71858
▁request	-9.71962
▁powerful	-9.71986
▁expect	-9.72049
▁presidential	-9.72146
▁generally	-9.72148
▁west	-9.72286
ana	-9.72293
▁shown	-9.7237
▁location	-9.72404
▁protection	-9.72415
▁completely	-9.72597
▁beyond	-9.72599
▁holding	-9.72665
▁text	-9.7273
▁wall	-9.72845
▁2002	-9.72971
▁weekend	-9.72975
▁province	-9.73027
▁Chicago	-9.73043
▁street	-9.73056
▁allows	-9.73097
▁debt	-9.73168
▁science	-9.73173
▁active	-9.732
▁require	-9.73224
▁chairman	-9.73242
▁arrested	-9.73454
▁walk	-9.73497
▁stopped	-9.73524
▁stood	-9.73567
▁religious	-9.73588
▁spending	-9.736
▁planning	-9.73604
▁2001	-9.73623
▁unique	-9.73673
▁mouth	-9.7375
▁speed	-9.73763
▁proposed	-9.73898
▁pulled	-9.73916
Z	-9.73984
▁studies	-9.74051
▁greater	-9.7408
▁Board	-9.7409
▁Brown	-9.74225
ance	-9.74376
▁highly	-9.74489
▁normal	-9.74522
▁talking	-9.74657
▁items	-9.74663
▁officers	-9.7467
▁star	-9.74676
▁rock	-9.74713
ul	-9.74717
▁scheduled	-9.74721
▁culture	-9.74782
▁ten	-9.74833
▁activity	-9.74899
▁ship	-9.74973
▁feeling	-9.74981
▁yourself	-9.75026
▁Afghanistan	-9.75046
▁Canadian	-9.75054
▁onto	-9.75056
▁bar	-9.75065
▁box	-9.75073
ov	-9.7512
▁Asian	-9.75149
▁businesses	-9.75342
▁etc	-9.7535
▁society	-9.75357
▁Nations	-9.75387
ey	-9.75443
▁purchase	-9.75651
▁fuel	-9.75657
▁fear	-9.75691
▁reduce	-9.75711
▁mostly	-9.75834
ization	-9.75841
▁physical	-9.75878
▁produce	-9.75938
▁happen	-9.75971
▁lack	-9.76038
▁primary	-9.76122
▁Open	-9.76134
wa	-9.76257
▁Richard	-9.76325
pa	-9.7635
▁prime	-9.76412
▁Jan	-9.76417
▁recorded	-9.76458
▁cars	-9.76472
▁Su	-9.76586
▁Research	-9.76756
sh	-9.76757
▁older	-9.76777
▁prison	-9.76784
min	-9.76927
wood	-9.77009
▁Boston	-9.77079
▁claimed	-9.77188
▁individuals	-9.77276
▁reading	-9.77368
▁cancer	-9.77525
▁beautiful	-9.77533
▁gives	-9.77568
▁fully	-9.77583
▁formed	-9.77647
▁cities	-9.77651
▁Can	-9.77655
▁bed	-9.77742
▁status	-9.77782
▁Last	-9.77922
▁claim	-9.77945
▁measures	-9.78006
▁feature	-9.78022
▁arm	-9.78024
▁Spanish	-9.78086
▁Police	-9.78123
▁Lee	-9.78197
▁effects	-9.78283
con	-9.78476
▁launched	-9.7856
▁Under	-9.78564
▁Martin	-9.78632
▁Island	-9.78758
▁UK	-9.78793
▁larger	-9.78894
▁purpose	-9.78901
▁Corp	-9.78936
▁write	-9.78996
▁29	-9.79013
▁seat	-9.79133
▁tournament	-9.79155
14	-9.79158
▁author	-9.79171
mar	-9.79215
▁complex	-9.79282
▁Lake	-9.79318
▁killing	-9.79348
▁Office	-9.79366
▁Ben	-9.79385
▁kids	-9.79411
▁benefit	-9.7953
io	-9.79613
▁Company	-9.79635
les	-9.79705
▁reporters	-9.79731
▁banks	-9.79804
▁organizations	-9.79809
▁dis	-9.79977
que	-9.80005
ard	-9.80014
▁claims	-9.80195
▁looks	-9.80207
▁learning	-9.80284
▁camp	-9.80322
▁minute	-9.80389
▁piece	-9.80398
▁Ar	-9.80513
▁homes	-9.80532
▁estate	-9.80624
▁Club	-9.80673
▁drop	-9.80684
ent	-9.80838
▁1998	-9.8085
▁1980	-9.80867
▁concern	-9.80937
▁spread	-9.80973
ship	-9.80976
em	-9.81006
▁progress	-9.81019
▁injured	-9.81127
▁marketing	-9.81169
▁Green	-9.81198
▁spring	-9.8123
▁places	-9.81326
her	-9.81338
▁finish	-9.81357
▁Bo	-9.81393
▁skills	-9.81474
▁carry	-9.8155
▁posted	-9.81551
▁domestic	-9.81574
▁Tom	-9.81581
lo	-9.81623
▁user	-9.81668
▁names	-9.81745
▁Federal	-9.8178
ina	-9.81851
▁fans	-9.82052
▁joint	-9.82065
end	-9.8212
rd	-9.82129
▁solution	-9.82314
▁becoming	-9.82346
X	-9.82392
lan	-9.82423
net	-9.82435
side	-9.82508
▁materials	-9.82578
▁score	-9.82594
▁cold	-9.82606
▁pick	-9.82647
ville	-9.82662
▁basic	-9.82731
▁Islamic	-9.82872
▁approved	-9.82911
▁perhaps	-9.82922
port	-9.82981
▁Republic	-9.82988
▁options	-9.83107
▁structure	-9.83202
▁interested	-9.83242
▁traffic	-9.83246
▁Spain	-9.83274
▁Here	-9.83599
▁session	-9.83615
▁click	-9.83686
if	-9.83691
▁Charles	-9.83691
▁auto	-9.837
▁Great	-9.83859
▁sector	-9.84007
▁sort	-9.84018
▁Ma	-9.84073
like	-9.84147
▁types	-9.84173
▁covered	-9.84315
▁Division	-9.84347
▁fund	-9.84349
▁Ministry	-9.84482
▁caught	-9.84657
▁Once	-9.84707
▁Government	-9.84812
op	-9.84852
▁Each	-9.84862
▁Royal	-9.85137
▁stories	-9.85159
▁target	-9.85249
▁spend	-9.85366
▁supply	-9.85414
▁picture	-9.85448
▁cell	-9.85449
▁Their	-9.85519
▁vehicle	-9.8558
▁hurt	-9.85643
▁enjoy	-9.85651
▁comments	-9.85706
▁records	-9.85801
▁responsibility	-9.85812
▁31	-9.85837
▁ordered	-9.85898
▁baby	-9.85911
▁Jones	-9.85926
▁Because	-9.85991
▁entered	-9.86008
▁boy	-9.86014
▁ex	-9.8609
▁Sam	-9.86196
▁1999	-9.86308
▁aircraft	-9.86325
▁laws	-9.86386
▁managed	-9.86397
▁discuss	-9.8642
▁Art	-9.86423
▁developing	-9.86514
▁concerns	-9.86665
▁engine	-9.86717
ver	-9.86762
▁option	-9.86765
ut	-9.86781
▁charged	-9.86855
▁heat	-9.8687
▁accept	-9.86879
▁associated	-9.86901
▁Lord	-9.86908
▁Hill	-9.86959
▁wish	-9.8698
US	-9.87101
▁respect	-9.8711
▁1996	-9.87133
▁previously	-9.87138
▁mass	-9.87214
▁operating	-9.87221
▁Road	-9.8724
ji	-9.87319
▁Lu	-9.87376
▁waiting	-9.87397
▁scene	-9.87416
▁exactly	-9.87462
▁guy	-9.87506
▁candidate	-9.87541
▁presented	-9.87595
▁Middle	-9.87602
▁note	-9.87694
▁speak	-9.87695
▁leadership	-9.87711
▁lived	-9.87804
▁units	-9.87822
tra	-9.87829
▁meant	-9.87898
▁multi	-9.87951
▁appointed	-9.8804
▁hundreds	-9.88115
▁quick	-9.88126
▁appears	-9.88127
za	-9.88132
▁bottom	-9.88158
back	-9.8818
▁Law	-9.8823
▁www	-9.88262
▁Zealand	-9.88268
▁host	-9.88364
▁conflict	-9.88414
▁presence	-9.88433
▁evening	-9.88463
▁broke	-9.88556
▁performed	-9.88719
▁seeking	-9.88806
▁Society	-9.88821
▁wait	-9.88835
▁Ka	-9.88914
▁multiple	-9.88942
▁figures	-9.88986
▁division	-9.88999
▁direction	-9.89117
▁Grand	-9.89163
▁200	-9.89217
▁En	-9.89263
▁train	-9.89276
ang	-9.89283
ating	-9.89338
▁speech	-9.8943
▁window	-9.89574
▁applications	-9.89576
▁spot	-9.8961
▁determine	-9.89623
king	-9.89633
▁critical	-9.89635
▁remaining	-9.89639
▁owner	-9.89676
▁surface	-9.89691
dy	-9.89714
40	-9.89723
▁champion	-9.89726
▁introduced	-9.89742
house	-9.89793
▁truth	-9.89994
ney	-9.90001
▁steps	-9.90025
▁Ho	-9.9008
so	-9.90311
▁Sea	-9.9037
car	-9.90387
▁policies	-9.90417
▁Se	-9.9043
▁nice	-9.90487
▁river	-9.9051
▁Olympic	-9.90513
▁female	-9.90542
▁Beijing	-9.90577
▁prepared	-9.9059
▁union	-9.9066
▁estimated	-9.90696
▁filed	-9.90737
▁facilities	-9.90772
▁ruling	-9.90813
▁buildings	-9.90904
▁reasons	-9.9091
▁prior	-9.90929
▁flight	-9.90934
▁Home	-9.90981
▁mine	-9.90983
▁founded	-9.91006
▁Mac	-9.91026
ated	-9.9105
▁lose	-9.9109
▁difference	-9.91102
▁herself	-9.9112
▁experts	-9.91126
▁agree	-9.91127
▁Z	-9.91173
▁gain	-9.91189
▁offering	-9.91255
▁standards	-9.9128
▁documents	-9.91326
▁square	-9.91355
▁draw	-9.91362
▁park	-9.91384
▁challenge	-9.91388
▁Sen	-9.9145
▁debut	-9.91547
▁enter	-9.91558
▁machine	-9.91611
tic	-9.91732
▁magazine	-9.91732
▁advantage	-9.9176
▁Jewish	-9.91896
▁links	-9.91916
▁judge	-9.91991
▁initial	-9.92195
▁clean	-9.92221
▁con	-9.92243
▁walked	-9.92246
▁calling	-9.92307
▁refused	-9.92315
ier	-9.92334
▁Arab	-9.9237
▁raise	-9.92392
ring	-9.92444
▁threat	-9.92487
ran	-9.92501
▁setting	-9.92605
▁nations	-9.92667
ny	-9.92708
kin	-9.92808
ping	-9.92816
▁sat	-9.92885
▁maybe	-9.92997
▁distance	-9.93172
▁Democrats	-9.93211
▁existing	-9.93221
▁ideas	-9.93342
au	-9.9341
run	-9.93519
▁songs	-9.93542
▁smaller	-9.93583
▁understanding	-9.93587
▁Super	-9.93639
▁fresh	-9.93649
▁method	-9.93734
▁sun	-9.93743
▁standing	-9.93748
▁NATO	-9.9375
ek	-9.93768
▁afternoon	-9.93788
▁suggested	-9.93788
▁expressed	-9.93804
▁appropriate	-9.93815
▁Sa	-9.93863
▁analysis	-9.93911
▁vice	-9.93925
▁Jack	-9.93996
▁crime	-9.94032
▁thus	-9.94052
▁Before	-9.94077
▁Q	-9.94142
▁spoke	-9.94167
▁injury	-9.94197
▁weather	-9.94259
▁cast	-9.9428
mer	-9.94303
▁contains	-9.94351
▁Mary	-9.94359
▁strike	-9.94453
▁Korean	-9.94534
▁kill	-9.94648
▁twice	-9.94758
▁Na	-9.94823
▁influence	-9.94892
▁35	-9.94953
▁concerned	-9.94954
▁confirmed	-9.9496
▁slow	-9.94994
▁certainly	-9.95054
▁Post	-9.95126
▁customer	-9.95202
▁airport	-9.95226
ck	-9.95238
▁Lo	-9.95239
▁Ireland	-9.95326
▁sex	-9.95331
▁command	-9.95361
▁cooperation	-9.95442
▁Over	-9.95509
▁grow	-9.95524
▁drugs	-9.95576
▁function	-9.95657
▁doctor	-9.95694
▁maintain	-9.95709
all	-9.95738
▁1997	-9.95861
▁Games	-9.95938
▁1994	-9.95987
▁partner	-9.96043
▁parliament	-9.96059
▁nearby	-9.96061
▁Sun	-9.96109
▁Johnson	-9.96142
▁fish	-9.9621
red	-9.96241
▁Despite	-9.96253
▁western	-9.96327
▁intended	-9.96356
my	-9.96535
▁strategy	-9.96547
▁requirements	-9.96553
▁bought	-9.96591
▁hearing	-9.96617
▁replaced	-9.96679
▁slightly	-9.96768
▁Muslim	-9.96836
▁digital	-9.96904
free	-9.97015
over	-9.97016
So	-9.97034
▁sister	-9.97097
ize	-9.972
▁attended	-9.97286
▁plays	-9.97292
▁Men	-9.97348
24	-9.97366
▁grew	-9.97511
▁Williams	-9.97573
▁serving	-9.97579
▁clients	-9.97603
ker	-9.97643
▁1995	-9.97693
▁decide	-9.97723
▁crowd	-9.97729
fi	-9.97817
ber	-9.9785
▁warned	-9.97851
▁screen	-9.97867
▁trust	-9.97925
95	-9.98033
▁creating	-9.98166
▁inter	-9.98326
▁forms	-9.9839
▁Atlanta	-9.98395
▁award	-9.98432
▁reform	-9.98445
bar	-9.9847
▁victims	-9.98491
▁missing	-9.98538
▁strength	-9.98598
▁except	-9.98617
▁touch	-9.98741
▁selected	-9.98817
▁sleep	-9.98886
▁apply	-9.99049
▁famous	-9.99076
▁fifth	-9.99078
▁dog	-9.99087
▁telephone	-9.99191
▁council	-9.99276
▁Why	-9.99353
▁glass	-9.99535
▁yen	-9.99537
ci	-9.99595
▁appearance	-9.99626
▁Wall	-9.99649
well	-9.9965
▁gets	-9.99664
▁cool	-9.99716
My	-9.99754
▁lawyer	-9.99787
▁‘	-9.99802
▁Award	-9.9983
▁seek	-9.99833
▁cents	-9.99883
21	-9.99892
▁industrial	-9.99979
▁images	-10.0006
ists	-10.0008
▁measure	-10.0015
lu	-10.0023
▁Soviet	-10.0026
▁formula	-10.0037
▁capacity	-10.0038
▁Free	-10.005
▁emergency	-10.0051
▁debate	-10.0052
▁driving	-10.0056
▁Pre	-10.0059
▁decades	-10.0068
▁housing	-10.0068
▁vehicles	-10.0072
▁uses	-10.0075
▁directed	-10.0081
▁Public	-10.0087
▁voters	-10.0088
▁Development	-10.0093
▁fit	-10.0093
▁stated	-10.0096
board	-10.0096
▁helping	-10.011
▁supported	-10.0112
▁Mike	-10.0112
▁losing	-10.0113
▁Catholic	-10.0115
▁profit	-10.0115
ise	-10.0129
▁candidates	-10.0133
▁originally	-10.0134
▁bid	-10.0148
ze	-10.0148
▁survey	-10.015
▁showing	-10.0151
mi	-10.0151
▁Du	-10.0157
▁brain	-10.016
▁technical	-10.016
▁corporate	-10.0162
▁c	-10.0164
▁learned	-10.0165
▁About	-10.0166
▁plane	-10.0173
▁winner	-10.0175
▁Virginia	-10.0178
▁numerous	-10.0185
▁ministry	-10.0192
▁plants	-10.0195
▁agencies	-10.0201
ial	-10.0207
sen	-10.0207
▁opportunities	-10.0218
▁committed	-10.022
▁gun	-10.022
▁advanced	-10.0224
▁Roman	-10.0232
▁pages	-10.0233
po	-10.024
▁corner	-10.0241
br	-10.0247
▁edge	-10.0249
ger	-10.0249
▁coast	-10.0256
▁1970	-10.0257
▁trouble	-10.026
▁Services	-10.0266
▁fair	-10.0267
ford	-10.0268
ft	-10.0269
▁clearly	-10.0276
▁tools	-10.0284
▁Force	-10.0284
▁stocks	-10.0285
▁display	-10.0289
▁communities	-10.0291
▁Business	-10.0292
▁Like	-10.0293
▁nor	-10.0293
ten	-10.0296
not	-10.0299
uk	-10.03
town	-10.0303
can	-10.0315
▁proposal	-10.0319
▁removed	-10.0319
▁increasing	-10.032
▁murder	-10.0326
▁connection	-10.0336
▁meaning	-10.0337
▁identified	-10.034
▁bus	-10.0347
▁Pacific	-10.0352
▁document	-10.0352
▁winter	-10.0368
▁driver	-10.0384
▁environmental	-10.0388
▁Education	-10.039
▁Greek	-10.0394
▁Justice	-10.04
cha	-10.0402
long	-10.0402
ru	-10.0409
▁therefore	-10.0413
▁county	-10.042
casinos	-10.0427
▁70	-10.0427
chi	-10.043
▁stuff	-10.0431
gen	-10.0436
▁selling	-10.0438
▁professor	-10.044
▁32	-10.0446
▁block	-10.0453
▁files	-10.0457
▁casinos	-10.0467
▁brand	-10.0467
▁eastern	-10.0469
▁Per	-10.0478
▁Three	-10.048
▁memory	-10.048
▁university	-10.0496
▁owned	-10.05
60	-10.0505
▁freedom	-10.0507
▁tough	-10.051
▁favorite	-10.0514
▁wind	-10.052
▁criminal	-10.0522
but	-10.0522
▁citizens	-10.0526
▁ban	-10.0528
▁watching	-10.0539
▁actions	-10.0546
▁bodies	-10.0548
▁discovered	-10.055
▁rebels	-10.0552
▁secret	-10.0553
▁allowing	-10.0556
▁centre	-10.0559
▁houses	-10.0559
▁500	-10.056
▁interests	-10.0562
▁feed	-10.0566
▁80	-10.0568
▁authority	-10.0573
▁continues	-10.058
▁interesting	-10.0586
▁transfer	-10.0589
▁warm	-10.0594
▁unless	-10.0607
ab	-10.0617
ee	-10.0619
▁Chi	-10.0621
▁Francisco	-10.0624
▁negotiations	-10.0624
▁seconds	-10.0625
▁matches	-10.0628
▁Henry	-10.0634
▁Turkey	-10.0646
75	-10.0649
▁quoted	-10.0654
▁marriage	-10.0656
▁finding	-10.0667
▁consumer	-10.0674
q	-10.0677
▁Conference	-10.0677
▁internet	-10.0678
▁audience	-10.0703
▁artist	-10.0704
▁Big	-10.0708
▁advice	-10.0709
▁bomb	-10.0716
▁Only	-10.0723
▁la	-10.0725
▁crew	-10.0726
▁accepted	-10.0731
▁length	-10.0738
▁mobile	-10.0741
▁route	-10.0743
▁assistance	-10.075
▁confidence	-10.0751
▁Microsoft	-10.0752
▁closer	-10.0754
▁smile	-10.0756
▁foot	-10.0756
▁suffered	-10.0767
▁conducted	-10.078
poker	-10.0792
▁launch	-10.0796
▁denied	-10.0802
▁guys	-10.081
▁illegal	-10.0812
▁2014	-10.0812
▁intelligence	-10.0824
▁Har	-10.0836
▁Tu	-10.0836
▁download	-10.0839
▁birth	-10.0842
▁package	-10.0843
▁labor	-10.0845
▁incident	-10.0849
▁advance	-10.0859
▁characters	-10.0866
▁failure	-10.0872
▁eat	-10.0873
ite	-10.088
▁balance	-10.0886
ung	-10.089
▁cultural	-10.0897
▁summit	-10.0905
▁commission	-10.0905
▁2013	-10.0907
▁writer	-10.0908
▁politics	-10.091
▁Christmas	-10.091
▁settlement	-10.0912
▁Valley	-10.0916
▁mainly	-10.0942
▁ice	-10.0942
She	-10.0943
tro	-10.0967
▁seeing	-10.0968
▁photo	-10.0972
▁fellow	-10.0976
▁resolution	-10.098
▁cards	-10.0983
&	-10.0991
▁girls	-10.0991
▁haven	-10.0999
▁awarded	-10.0999
▁governor	-10.1007
▁Ha	-10.1009
▁gained	-10.1011
▁requires	-10.1015
▁Christ	-10.102
▁doubt	-10.102
▁Jo	-10.1027
▁Museum	-10.1028
ki	-10.1044
▁Carolina	-10.1045
▁academic	-10.1047
▁tree	-10.1051
▁approximately	-10.1053
▁armed	-10.1055
je	-10.1061
ong	-10.1067
▁mortgage	-10.1067
▁Georgia	-10.1068
▁sit	-10.1072
▁Long	-10.1074
ron	-10.1076
▁largely	-10.1082
▁earned	-10.1083
ray	-10.1085
Re	-10.1086
▁attend	-10.1091
▁45	-10.1096
▁methods	-10.1099
▁metal	-10.1105
▁leg	-10.1107
▁panel	-10.1113
▁delivery	-10.1115
point	-10.1116
▁promote	-10.1117
▁declined	-10.1125
▁otherwise	-10.1137
▁funding	-10.114
izing	-10.1143
▁task	-10.1148
▁silver	-10.1149
▁Hu	-10.115
▁Music	-10.1151
hi	-10.1154
For	-10.1157
▁Gaza	-10.1157
▁patient	-10.1158
▁secure	-10.1167
▁occurred	-10.1171
▁notice	-10.1177
▁push	-10.1178
▁soft	-10.118
▁Well	-10.1186
▁legislation	-10.1188
▁determined	-10.1191
▁attorney	-10.1198
jo	-10.12
vi	-10.1209
▁extended	-10.121
▁worst	-10.1213
▁keeping	-10.1214
▁featured	-10.122
▁shooting	-10.122
▁alternative	-10.1228
▁coverage	-10.1231
▁analysts	-10.1233
▁novel	-10.1238
▁path	-10.124
▁2015	-10.1245
▁Meanwhile	-10.1259
▁animals	-10.1263
▁counter	-10.1264
▁selection	-10.1266
ence	-10.1268
▁Dan	-10.1271
▁Dec	-10.1279
▁owners	-10.1287
▁filled	-10.1288
▁Foundation	-10.129
▁sitting	-10.1296
▁fill	-10.1299
▁reduced	-10.1299
▁flat	-10.13
don	-10.1303
▁Science	-10.1306
▁widely	-10.1309
▁shop	-10.1319
▁models	-10.132
▁Information	-10.1322
▁rich	-10.1323
▁seats	-10.1332
▁native	-10.1332
▁agent	-10.1339
▁declared	-10.1342
▁Championship	-10.1343
▁handle	-10.1349
▁easier	-10.1349
▁whatever	-10.1354
low	-10.1354
▁institutions	-10.1355
▁secretary	-10.136
▁90	-10.1363
▁Van	-10.1364
▁coalition	-10.137
han	-10.1371
▁justice	-10.1374
▁rising	-10.1376
▁regarding	-10.1389
▁mark	-10.139
▁views	-10.14
▁appeal	-10.1409
▁Today	-10.1421
▁`	-10.1426
▁decade	-10.1427
▁super	-10.1428
ho	-10.143
▁rain	-10.1435
▁Bob	-10.1436
▁Scott	-10.1443
▁Frank	-10.1454
▁Northern	-10.1456
▁broken	-10.1459
▁focused	-10.1462
▁elements	-10.1463
▁ethnic	-10.1464
▁Director	-10.1484
▁Southern	-10.1487
ology	-10.1488
▁opinion	-10.1493
▁exercise	-10.1502
▁hadn	-10.1504
▁combined	-10.1508
▁Year	-10.1509
▁Supreme	-10.1511
▁fired	-10.1515
▁Academy	-10.1517
▁teaching	-10.1518
Do	-10.1519
▁testing	-10.1519
▁Those	-10.1527
▁approval	-10.1529
▁wine	-10.1532
▁trees	-10.1534
▁wounded	-10.1545
our	-10.1548
▁Tour	-10.1548
▁Jim	-10.1556
vo	-10.1558
▁visitors	-10.156
▁Star	-10.1561
▁territory	-10.1562
▁headed	-10.1566
▁knows	-10.1567
99	-10.1569
war	-10.1569
▁boat	-10.157
▁positions	-10.1574
▁Women	-10.1574
▁Among	-10.1574
▁Journal	-10.1583
▁relief	-10.1593
▁carrying	-10.1596
▁films	-10.16
▁Social	-10.1615
▁tests	-10.1616
▁solid	-10.162
▁putting	-10.162
▁cells	-10.1622
▁Old	-10.1622
▁1992	-10.1624
▁remove	-10.1627
▁Te	-10.1628
▁equal	-10.1645
▁excellent	-10.1647
▁breath	-10.1648
▁Brazil	-10.165
▁pull	-10.1651
▁extremely	-10.1651
▁Joseph	-10.1658
▁gift	-10.166
month	-10.1661
▁hopes	-10.1667
▁v	-10.1675
head	-10.1677
When	-10.1681
▁dance	-10.1684
▁male	-10.1691
▁1960	-10.1693
▁aware	-10.1697
80	-10.1709
▁pair	-10.1709
American	-10.1717
bi	-10.1722
_	-10.1728
▁$3	-10.1731
▁die	-10.1731
▁Joe	-10.1731
▁artists	-10.1733
▁achieve	-10.1733
▁yards	-10.1739
▁editor	-10.1744
▁kilometers	-10.1749
▁shoulder	-10.175
pi	-10.175
▁Chief	-10.1751
▁defeat	-10.1753
▁Best	-10.1756
▁actual	-10.1759
▁sought	-10.1764
▁com	-10.1772
▁climate	-10.1774
▁shared	-10.1776
▁1993	-10.1778
▁Exchange	-10.1779
gar	-10.1783
ez	-10.1795
fer	-10.1796
28	-10.1801
▁Singapore	-10.1804
▁Jesus	-10.1807
▁buying	-10.181
▁Republicans	-10.1811
▁finance	-10.1814
hu	-10.1815
▁useful	-10.1817
▁Ko	-10.1818
27	-10.1819
▁Ali	-10.1822
▁reality	-10.1825
▁becomes	-10.1826
▁Louis	-10.1831
▁Si	-10.1832
▁perform	-10.1834
▁Y	-10.1835
▁affected	-10.1836
▁device	-10.184
▁dry	-10.1846
▁aimed	-10.1851
▁speaking	-10.1856
▁payment	-10.1861
▁picked	-10.1868
▁blog	-10.1874
▁accident	-10.1877
▁Life	-10.1879
70	-10.1883
▁experienced	-10.1889
▁Palestinians	-10.189
35	-10.1891
▁shape	-10.1893
▁watched	-10.1903
▁snow	-10.1903
▁pounds	-10.1909
▁Earth	-10.1914
▁stations	-10.1915
▁pieces	-10.1915
▁Moscow	-10.1919
ju	-10.192
▁guide	-10.193
▁Still	-10.1934
▁streets	-10.1938
▁Stock	-10.1945
sch	-10.1947
▁truck	-10.195
bit	-10.1959
▁Good	-10.1968
▁teacher	-10.1976
▁worldwide	-10.1985
▁unable	-10.1986
▁Olympics	-10.1989
▁surprise	-10.1992
▁Am	-10.1992
▁leaves	-10.1993
▁immediate	-10.1994
23	-10.1996
▁suit	-10.2002
▁classes	-10.2005
▁registered	-10.2007
wing	-10.2007
▁Jackson	-10.2009
▁theory	-10.2015
fa	-10.2017
▁Baghdad	-10.2017
29	-10.2027
▁master	-10.2028
▁copy	-10.203
▁plus	-10.2033
▁Will	-10.2042
▁missed	-10.2046
▁tool	-10.2047
mm	-10.2049
▁Chris	-10.205
▁f	-10.205
▁Trade	-10.2056
▁signs	-10.2057
▁Instead	-10.2061
▁Let	-10.2069
▁minor	-10.2079
▁limit	-10.2086
▁studio	-10.2092
Yes	-10.2094
▁revenue	-10.2098
▁1991	-10.2099
▁sexual	-10.2107
▁episode	-10.2109
▁relatively	-10.2109
ino	-10.2112
▁electronic	-10.2118
▁conduct	-10.2121
▁retired	-10.2124
▁stars	-10.2128
▁distribution	-10.2129
▁discussion	-10.213
▁Sept	-10.213
▁represented	-10.2136
tu	-10.2136
▁internal	-10.2141
▁Windows	-10.2145
▁faith	-10.2152
qui	-10.216
▁assistant	-10.216
▁stores	-10.2167
▁asking	-10.2169
ward	-10.2181
▁arrest	-10.2187
▁facility	-10.2188
▁kitchen	-10.2193
si	-10.2195
▁neck	-10.2199
class	-10.22
ball	-10.2201
▁Land	-10.2207
▁animal	-10.2208
▁Ta	-10.221
▁Defense	-10.221
▁votes	-10.2214
ani	-10.2214
▁Steve	-10.2216
▁chest	-10.222
▁coffee	-10.2221
▁massive	-10.2224
▁CD	-10.2227
▁slowly	-10.2229
▁accounts	-10.2233
▁supposed	-10.225
▁articles	-10.2258
▁2016	-10.2261
▁struck	-10.2264
▁suicide	-10.2271
▁generation	-10.2272
▁lay	-10.2275
▁Un	-10.2276
▁Irish	-10.2277
▁decisions	-10.2277
▁championship	-10.2282
▁orders	-10.229
▁draft	-10.23
▁healthy	-10.2303
22	-10.2307
wan	-10.2307
▁port	-10.2316
▁urged	-10.2318
▁correct	-10.2321
▁Coast	-10.2335
▁steel	-10.2343
▁holiday	-10.2346
▁hundred	-10.2366
▁taxes	-10.2377
▁possibly	-10.238
▁Agency	-10.2383
▁turning	-10.2392
▁advertising	-10.2395
▁willing	-10.2402
▁mentioned	-10.2404
ator	-10.2407
▁consumers	-10.2408
▁wild	-10.241
▁Ad	-10.2411
▁pushed	-10.2429
▁defeated	-10.2429
▁loved	-10.243
yard	-10.2435
▁chair	-10.2435
▁select	-10.2436
▁Management	-10.2436
▁dangerous	-10.2441
▁protest	-10.2443
▁supporters	-10.245
▁euro	-10.2454
▁Kim	-10.2459
zi	-10.2459
▁telling	-10.2466
▁Tokyo	-10.2468
▁losses	-10.2468
▁Dutch	-10.2471
▁Beach	-10.2474
▁giant	-10.2477
▁replace	-10.2477
▁creation	-10.248
▁Jersey	-10.2484
AMP	-10.2486
90	-10.249
ow	-10.2495
▁agents	-10.2504
▁Ra	-10.2506
▁Ver	-10.2508
ative	-10.2511
▁importance	-10.2512
▁destroyed	-10.2512
▁Daniel	-10.2514
▁terrorist	-10.2514
ide	-10.2516
▁applied	-10.2516
▁ancient	-10.252
foot	-10.2528
▁poker	-10.2528
▁rare	-10.2532
To	-10.2534
▁Mc	-10.2544
▁guard	-10.2545
▁horse	-10.2545
▁Ca	-10.255
ice	-10.2554
▁volume	-10.2559
room	-10.256
▁concept	-10.2562
▁Google	-10.2563
▁earth	-10.2563
▁format	-10.2564
45	-10.2564
▁Its	-10.2566
▁upper	-10.2567
che	-10.2572
▁Ni	-10.2574
▁recovery	-10.2575
▁assets	-10.2577
▁motion	-10.2578
▁catch	-10.2578
▁Human	-10.2588
down	-10.259
▁factors	-10.2595
▁Following	-10.2596
How	-10.2604
▁negative	-10.2608
▁values	-10.2608
▁teachers	-10.2612
▁Ohio	-10.2619
▁musical	-10.2625
▁dream	-10.2629
▁Second	-10.2629
▁Latin	-10.2633
▁manner	-10.2636
▁Water	-10.2637
▁worse	-10.264
▁library	-10.2642
▁respond	-10.265
▁Da	-10.2652
▁brief	-10.2654
ac	-10.2656
▁studied	-10.266
26	-10.2661
▁walking	-10.2662
▁Use	-10.2669
▁fields	-10.267
▁background	-10.2677
▁improved	-10.2682
▁vision	-10.2684
▁Love	-10.2689
use	-10.2705
▁Gar	-10.2712
▁maximum	-10.2712
▁possibility	-10.2714
ik	-10.2717
▁shut	-10.2718
▁organized	-10.272
▁Program	-10.2726
▁recognized	-10.2726
▁Egypt	-10.2737
▁farm	-10.2737
gu	-10.2738
▁essential	-10.2739
pur	-10.2741
▁bond	-10.2742
▁headquarters	-10.2742
▁flow	-10.2744
▁camera	-10.2746
▁Blue	-10.2752
▁sport	-10.2762
▁Ford	-10.2764
▁pictures	-10.2765
▁holds	-10.2765
▁Time	-10.2765
▁begins	-10.2767
▁currency	-10.2767
▁Taliban	-10.277
ig	-10.277
▁core	-10.2774
▁Vietnam	-10.278
▁storm	-10.2783
▁broadcast	-10.2787
▁pop	-10.2788
▁$2	-10.2788
▁client	-10.2795
din	-10.28
▁earnings	-10.2802
▁wedding	-10.2806
law	-10.2811
Oh	-10.2813
▁behavior	-10.2814
▁bringing	-10.2815
Q	-10.2815
▁meetings	-10.2819
▁rejected	-10.2823
▁dedicated	-10.2824
▁Cross	-10.2827
▁schedule	-10.2827
▁fan	-10.2834
▁historical	-10.2835
▁communication	-10.2839
▁ceremony	-10.2842
▁combat	-10.2842
▁refer	-10.2844
▁alleged	-10.2847
▁regime	-10.2849
▁zone	-10.285
▁See	-10.2858
▁captain	-10.286
▁revealed	-10.2866
▁Rock	-10.2868
more	-10.2868
ara	-10.2882
▁Pa	-10.2885
▁apparently	-10.2889
▁deputy	-10.289
▁scientific	-10.2891
▁dinner	-10.2894
▁Ba	-10.2901
ium	-10.2902
▁Sir	-10.2905
▁facing	-10.291
▁visited	-10.2912
ever	-10.2915
see	-10.2918
▁platform	-10.292
▁fashion	-10.2921
▁linked	-10.2926
▁analyst	-10.2941
▁stone	-10.2942
▁contributed	-10.2942
▁typically	-10.2944
▁explain	-10.295
▁practices	-10.295
▁independence	-10.2957
▁starts	-10.2959
▁Ten	-10.2965
▁reference	-10.2968
▁Power	-10.297
▁shopping	-10.2973
▁broad	-10.2974
▁initially	-10.2974
▁Gulf	-10.2976
▁Parliament	-10.2979
▁split	-10.298
▁km	-10.2983
▁chosen	-10.2984
▁Pan	-10.2985
▁contain	-10.2987
▁Gold	-10.2994
▁Young	-10.2997
▁wearing	-10.2999
▁Ki	-10.3001
▁represent	-10.3003
▁changing	-10.3005
▁admitted	-10.3009
ud	-10.3011
▁decline	-10.3012
▁marked	-10.3013
▁Fa	-10.3025
▁warning	-10.3025
hour	-10.3032
▁Ke	-10.304
▁surgery	-10.3041
ability	-10.3042
▁grand	-10.305
▁proper	-10.3052
▁receiving	-10.3057
▁welcome	-10.3061
sk	-10.3061
▁closely	-10.3062
▁mountain	-10.3064
▁notes	-10.3064
▁Are	-10.3071
▁Jordan	-10.3073
▁realize	-10.3077
▁guess	-10.3081
▁Click	-10.3086
▁wear	-10.3086
▁adopted	-10.3086
water	-10.309
▁participate	-10.31
ven	-10.3101
▁transport	-10.3103
▁terrorism	-10.3103
gi	-10.3104
▁Top	-10.3119
pro	-10.3119
▁33	-10.3128
tor	-10.3131
▁increasingly	-10.3135
▁Davis	-10.3144
▁bridge	-10.3147
▁supplies	-10.3149
La	-10.3151
>	-10.3152
gan	-10.3155
▁bag	-10.3161
▁Ro	-10.3164
▁expensive	-10.3169
online	-10.318
▁Ku	-10.318
]	-10.3188
▁Gen	-10.3189
▁Hospital	-10.3197
▁Eastern	-10.3197
▁Sha	-10.3205
▁Michigan	-10.3206
wi	-10.3211
ible	-10.3214
▁referred	-10.3215
▁button	-10.3215
▁opposed	-10.3215
▁acting	-10.3221
▁treated	-10.3225
▁AFP	-10.3225
▁Several	-10.3226
▁restaurant	-10.3236
As	-10.3243
▁youth	-10.3246
▁pool	-10.3263
ning	-10.3266
▁combination	-10.3275
▁suggest	-10.3278
▁familiar	-10.3282
level	-10.3288
▁delivered	-10.3291
▁none	-10.3292
▁rural	-10.3293
▁Fund	-10.3296
▁younger	-10.3303
▁poll	-10.3304
▁commitment	-10.3307
▁Real	-10.3312
▁abuse	-10.3317
▁suspected	-10.3319
su	-10.3322
EC	-10.3322
▁occur	-10.3331
▁goods	-10.3331
ure	-10.3334
▁affect	-10.3336
ities	-10.3344
▁PC	-10.3345
▁Indonesia	-10.3352
▁identify	-10.3356
▁pointed	-10.3359
▁rooms	-10.336
▁print	-10.3362
▁Test	-10.3363
▁Four	-10.3364
van	-10.3366
▁object	-10.3367
▁doctors	-10.3368
bet	-10.3374
▁militants	-10.3375
▁surrounding	-10.3377
▁300	-10.3379
let	-10.338
▁quiet	-10.338
berg	-10.3387
42	-10.3389
▁promised	-10.3392
▁purposes	-10.3396
▁legs	-10.3398
▁partners	-10.34
▁fly	-10.3401
▁Team	-10.3402
▁USA	-10.3403
▁solutions	-10.3407
▁Pennsylvania	-10.3408
▁properties	-10.3408
▁expert	-10.3414
▁Ne	-10.3428
▁aren	-10.3428
▁Vi	-10.343
▁Navy	-10.3432
▁semi	-10.3438
▁Saudi	-10.344
▁expression	-10.3447
ren	-10.3454
▁historic	-10.3454
▁Matt	-10.3457
▁wonderful	-10.3458
32	-10.3458
which	-10.3459
▁category	-10.3463
▁permanent	-10.3463
▁mixed	-10.3465
▁Though	-10.3469
▁apartment	-10.3477
5%	-10.3482
▁36	-10.3483
▁cuts	-10.3485
▁photos	-10.3488
▁comfortable	-10.3492
▁Mexican	-10.3493
▁worry	-10.3496
▁Bi	-10.3499
▁crimes	-10.3503
star	-10.3504
▁Special	-10.3518
▁Com	-10.3525
▁devices	-10.3529
▁captured	-10.3529
▁amid	-10.353
▁rival	-10.3532
with	-10.3533
▁channel	-10.3537
▁Yet	-10.3538
▁techniques	-10.3542
▁fingers	-10.3543
▁pace	-10.356
▁Every	-10.3565
▁explained	-10.3565
▁personnel	-10.3567
▁helps	-10.3568
All	-10.3568
▁baseball	-10.3568
▁Assembly	-10.357
▁falling	-10.3571
era	-10.3572
▁ties	-10.3576
▁formal	-10.3578
▁fat	-10.3579
▁escape	-10.358
du	-10.3584
▁faced	-10.3589
▁chain	-10.3594
ries	-10.3598
▁injuries	-10.3598
ised	-10.3604
▁conservative	-10.3606
▁percentage	-10.3606
▁Jean	-10.3609
▁truly	-10.3612
sky	-10.3613
▁lips	-10.3615
▁deliver	-10.3618
▁65	-10.3619
48	-10.362
▁Associated	-10.3622
air	-10.3623
▁Poland	-10.3624
▁manage	-10.3633
▁medicine	-10.3637
▁wood	-10.3637
▁heads	-10.3638
▁continuing	-10.3641
win	-10.3641
▁desire	-10.3642
ap	-10.3647
▁frequently	-10.3651
▁courses	-10.3654
sha	-10.3655
▁Province	-10.3665
▁reviews	-10.3668
▁favor	-10.3668
uh	-10.367
▁Fox	-10.3671
▁Fort	-10.3671
ane	-10.3677
▁Mi	-10.3682
▁Va	-10.3684
▁penalty	-10.3704
▁sets	-10.3704
▁offices	-10.3709
▁minimum	-10.3709
▁producer	-10.371
▁educational	-10.3713
36	-10.3717
har	-10.3723
▁ruled	-10.3724
▁realized	-10.3724
▁tight	-10.373
▁ending	-10.3731
▁threatened	-10.3737
▁purchased	-10.3737
▁Medical	-10.3741
▁considering	-10.3744
▁fee	-10.3747
▁Show	-10.375
▁Network	-10.3753
▁heavily	-10.3754
▁Net	-10.3761
stone	-10.3763
▁Tony	-10.377
▁suddenly	-10.3777
▁campus	-10.3778
▁divided	-10.378
▁sharp	-10.3786
▁drink	-10.3791
rate	-10.3797
▁2017	-10.3801
▁factor	-10.3802
▁king	-10.3803
pre	-10.3806
▁sweet	-10.3809
▁map	-10.381
▁wave	-10.382
▁assist	-10.3821
row	-10.3822
▁ideal	-10.3833
▁honor	-10.3836
▁discussed	-10.3839
related	-10.3841
form	-10.3841
44	-10.3843
▁drawn	-10.3844
▁paying	-10.3847
▁Any	-10.385
▁windows	-10.3852
▁commander	-10.3855
▁Later	-10.3857
tin	-10.3864
▁vs	-10.3865
▁passengers	-10.3868
▁Call	-10.387
oc	-10.3873
▁primarily	-10.3877
▁lawyers	-10.3882
▁contrast	-10.3884
par	-10.3886
TV	-10.3888
▁jump	-10.3891
ini	-10.3892
▁definitely	-10.3894
08	-10.3894
▁Houston	-10.3895
▁greatest	-10.3897
▁storage	-10.3898
▁Arts	-10.3902
▁output	-10.3908
▁scale	-10.3913
▁Inter	-10.3916
▁beach	-10.392
▁prove	-10.3924
▁Turkish	-10.3924
▁Kingdom	-10.3926
▁Festival	-10.3928
▁walls	-10.3928
▁taught	-10.3929
▁happens	-10.393
▁Ja	-10.393
▁stepped	-10.3933
▁forest	-10.3934
▁Radio	-10.3934
▁Za	-10.3935
▁severe	-10.3935
ot	-10.3938
▁Order	-10.3938
▁fees	-10.394
▁boost	-10.3941
▁Thailand	-10.3943
▁medium	-10.3946
▁ride	-10.395
▁criticism	-10.3951
ita	-10.3952
▁edition	-10.3953
▁Col	-10.3954
▁returning	-10.3969
ura	-10.3973
▁Series	-10.3978
▁waste	-10.3984
▁Iranian	-10.3984
▁expansion	-10.3985
▁34	-10.3985
▁Port	-10.3995
▁spirit	-10.3997
▁Energy	-10.3997
▁Mrs	-10.3998
▁employment	-10.4
▁connected	-10.4001
▁inflation	-10.401
▁railway	-10.4012
▁instance	-10.4013
art	-10.4018
▁attacked	-10.4019
▁boys	-10.402
▁ships	-10.4021
▁Jr	-10.4023
49	-10.4024
▁exist	-10.4025
▁supporting	-10.4025
▁Tri	-10.4026
▁server	-10.403
▁brown	-10.4036
▁Arizona	-10.4037
▁seriously	-10.4046
▁granted	-10.4046
▁fought	-10.4047
▁ministers	-10.4052
▁voted	-10.4057
▁membership	-10.4058
▁letters	-10.4061
cur	-10.4063
▁passing	-10.4065
▁Maybe	-10.407
vin	-10.4075
▁Po	-10.408
▁chemical	-10.408
▁Community	-10.4083
▁involving	-10.4083
▁Far	-10.4085
▁Sri	-10.4089
▁association	-10.4089
▁faces	-10.4092
▁Hamas	-10.4095
55	-10.4098
ery	-10.4101
▁thanks	-10.4104
De	-10.4105
euro	-10.4106
▁leads	-10.4109
▁visiting	-10.4113
▁rescue	-10.4113
▁payments	-10.4115
dis	-10.4117
▁alive	-10.4122
▁Massachusetts	-10.4123
▁entirely	-10.4124
▁faster	-10.4131
▁basketball	-10.4132
▁rebel	-10.4133
▁license	-10.4141
▁Ban	-10.4142
▁fixed	-10.4146
▁Project	-10.415
▁recommended	-10.4153
▁twenty	-10.4153
▁roof	-10.4159
ding	-10.416
▁Football	-10.4163
34	-10.417
▁neighborhood	-10.417
▁expand	-10.4174
▁reaction	-10.4178
▁yellow	-10.418
bu	-10.4181
▁closing	-10.4182
▁ones	-10.4187
▁count	-10.4188
ou	-10.4191
▁Town	-10.4203
▁1950	-10.4204
▁Who	-10.4204
▁establish	-10.4208
38	-10.4219
mon	-10.4226
▁portion	-10.4233
▁Technology	-10.4234
▁challenges	-10.4235
▁Swiss	-10.4239
▁plastic	-10.4239
▁offensive	-10.4242
ng	-10.4246
▁x	-10.4249
ably	-10.425
▁laid	-10.4251
▁Airport	-10.4253
▁lies	-10.4253
▁THE	-10.4255
ok	-10.4269
▁narrow	-10.4272
▁impossible	-10.4274
▁grown	-10.4274
▁Organization	-10.4275
▁classic	-10.4278
tan	-10.4283
cu	-10.4283
▁Prince	-10.4286
Well	-10.4287
▁database	-10.4296
▁Tim	-10.4297
47	-10.4302
ky	-10.4303
▁$5	-10.4305
▁tracks	-10.4309
▁Apple	-10.4311
▁causes	-10.4311
▁Columbia	-10.4312
▁affairs	-10.4313
mp	-10.4313
▁Up	-10.4316
▁newly	-10.4325
ture	-10.4326
▁signal	-10.4329
▁recording	-10.433
▁Par	-10.4333
▁suffering	-10.4334
▁researchers	-10.4336
▁movies	-10.434
▁sixth	-10.4342
book	-10.4345
▁Afghan	-10.4347
▁obtained	-10.4351
work	-10.4352
▁circumstances	-10.4353
▁sending	-10.4364
▁Saint	-10.4365
▁meters	-10.4366
▁extensive	-10.437
▁Administration	-10.4375
▁row	-10.4375
▁ring	-10.4384
▁Sch	-10.4388
39	-10.439
hr	-10.4391
3,	-10.4393
Ma	-10.4393
state	-10.4398
▁urban	-10.4408
▁retirement	-10.4418
called	-10.4419
▁weak	-10.4424
▁Bur	-10.4425
▁stands	-10.4427
▁Summer	-10.4442
cher	-10.4451
Don	-10.4452
▁monthly	-10.4454
▁hoped	-10.4457
▁dozen	-10.4457
▁Lebanon	-10.4457
▁conversation	-10.446
▁representative	-10.4463
▁scientists	-10.4467
▁neither	-10.4468
ble	-10.4469
▁museum	-10.4474
▁usual	-10.4478
▁cap	-10.4483
▁competitive	-10.4485
▁differences	-10.4491
▁turns	-10.4492
▁prepare	-10.4493
▁singer	-10.4495
▁clothes	-10.4505
▁regions	-10.4514
hand	-10.4515
▁Colorado	-10.4517
gy	-10.4517
▁Jose	-10.452
▁sight	-10.452
▁surprised	-10.4531
▁hall	-10.4532
▁settled	-10.4533
▁apart	-10.4533
▁announcement	-10.4533
▁cable	-10.4536
▁Out	-10.4537
tz	-10.4538
▁Major	-10.4544
▁wonder	-10.4548
▁covers	-10.4549
Why	-10.4554
▁Pe	-10.4558
▁detailed	-10.4559
▁Rome	-10.457
▁hoping	-10.4571
▁permission	-10.4573
▁tend	-10.4574
37	-10.4578
▁Gi	-10.4582
▁reaching	-10.4582
▁obtain	-10.4586
▁guilty	-10.4592
▁medal	-10.4595
▁indicated	-10.4596
▁mayor	-10.4601
▁Miami	-10.4602
▁struggle	-10.4604
▁phase	-10.4606
▁Ken	-10.4612
▁Stephen	-10.4612
▁Queen	-10.4614
▁cup	-10.4617
ix	-10.4618
▁relevant	-10.4623
▁dress	-10.4624
▁Take	-10.463
▁encourage	-10.463
▁publication	-10.4634
▁adult	-10.4637
▁cheap	-10.464
▁Santa	-10.4642
▁tells	-10.4655
▁identity	-10.4656
▁Bre	-10.4656
▁Game	-10.4658
▁era	-10.4664
▁firms	-10.4667
NA	-10.467
▁Make	-10.4671
▁item	-10.4672
02	-10.4681
▁shook	-10.4681
▁specifically	-10.4683
mal	-10.4691
▁follows	-10.4692
▁System	-10.4694
val	-10.4695
▁flying	-10.4698
▁knowing	-10.4705
▁thick	-10.4709
▁golf	-10.4715
▁grant	-10.4724
▁diet	-10.4725
▁causing	-10.4726
▁administrative	-10.4728
31	-10.4729
▁friendly	-10.473
▁computers	-10.4732
▁Hotel	-10.4733
mus	-10.4734
game	-10.4735
▁degrees	-10.4746
ns	-10.475
ano	-10.4753
▁Vice	-10.4764
ware	-10.4764
▁throw	-10.477
▁hell	-10.4775
▁jail	-10.4776
▁empty	-10.4779
ski	-10.4783
▁religion	-10.4787
▁sounds	-10.4788
▁duty	-10.4789
ions	-10.4789
▁37	-10.4804
▁invited	-10.4817
▁foundation	-10.4818
▁represents	-10.4819
▁Cha	-10.4819
▁promise	-10.4821
▁acquired	-10.4824
▁Kansas	-10.4825
▁tied	-10.4825
▁Index	-10.4827
▁retail	-10.4832
▁serves	-10.4841
▁Book	-10.4842
01	-10.4843
▁programme	-10.4844
▁races	-10.4845
▁$4	-10.4849
▁tiny	-10.4855
▁amazing	-10.4858
ram	-10.4859
▁miss	-10.4864
▁Andrew	-10.4864
▁Centre	-10.4865
▁branch	-10.4867
▁Oct	-10.487
yl	-10.4871
▁1989	-10.4872
▁smiled	-10.4873
▁critics	-10.4874
▁mis	-10.4876
ps	-10.4879
▁garden	-10.4883
▁operated	-10.4884
▁48	-10.4885
cer	-10.4886
▁compete	-10.4889
▁officially	-10.4889
▁Taylor	-10.4893
▁Ray	-10.4893
▁soil	-10.4893
▁millions	-10.4894
▁motor	-10.4895
▁mental	-10.4897
istic	-10.49
▁functions	-10.49
▁Wales	-10.4901
life	-10.4901
▁drama	-10.4901
round	-10.4901
▁infrastructure	-10.4903
▁taste	-10.4903
▁shortly	-10.4907
▁demands	-10.491
05	-10.491
▁Philadelphia	-10.4913
▁achieved	-10.4913
mas	-10.4914
ming	-10.4922
cho	-10.4924
▁2010,	-10.4924
making	-10.4926
▁civilians	-10.4927
▁pattern	-10.4942
▁attempts	-10.4945
▁latter	-10.4946
shi	-10.4947
▁Part	-10.4948
▁Saddam	-10.4948
▁pilot	-10.4952
04	-10.4952
ach	-10.4952
▁comprehensive	-10.4955
Mo	-10.4956
▁Miller	-10.4966
▁2008,	-10.4969
07	-10.4977
98	-10.4978
▁inches	-10.4979
▁believes	-10.4983
▁consists	-10.4986
tain	-10.4986
▁drew	-10.4992
▁regulations	-10.5003
▁Alex	-10.5012
▁matters	-10.5015
▁stress	-10.5018
▁label	-10.5018
▁context	-10.5024
▁rear	-10.5024
▁contained	-10.5025
▁soul	-10.5025
▁carefully	-10.5026
▁flu	-10.5032
eh	-10.5033
Le	-10.5035
▁electric	-10.504
▁mention	-10.5042
▁Media	-10.5044
▁guest	-10.5044
▁error	-10.505
▁squad	-10.5052
▁powers	-10.5053
▁prominent	-10.5053
▁rally	-10.5053
▁defined	-10.5056
▁operate	-10.5056
▁fruit	-10.506
▁Alexander	-10.5063
ku	-10.5064
▁forget	-10.5068
▁Nov	-10.5081
▁democracy	-10.5088
mann	-10.5089
ev	-10.5089
cal	-10.5095
pt	-10.5096
65	-10.5096
▁chart	-10.5097
ification	-10.5102
▁Edward	-10.5102
aw	-10.5103
▁Bra	-10.5106
▁Such	-10.5109
▁participants	-10.511
▁effectively	-10.5112
▁sanctions	-10.5113
▁Bu	-10.5114
▁38	-10.5118
▁engineering	-10.5118
ola	-10.5118
▁400	-10.5119
▁vast	-10.5119
▁Jerusalem	-10.5123
▁nodded	-10.5128
▁employee	-10.5136
▁cutting	-10.5137
▁representatives	-10.5138
▁1,000	-10.5139
▁principal	-10.514
▁Get	-10.514
▁locations	-10.5141
now	-10.5145
▁Note	-10.5147
▁crash	-10.515
▁journey	-10.5151
▁interior	-10.5151
play	-10.5152
▁sentence	-10.5158
▁capable	-10.5164
▁bombing	-10.5167
▁Simon	-10.5172
▁sick	-10.5172
▁installed	-10.5174
▁acts	-10.5175
▁Kar	-10.5179
ett	-10.5181
▁diplomatic	-10.5185
▁calm	-10.5195
09	-10.5198
act	-10.5199
▁tradition	-10.5203
▁Line	-10.5205
sp	-10.5205
▁Sydney	-10.5211
▁Kosovo	-10.5212
▁remote	-10.5215
▁symptoms	-10.5216
▁temperature	-10.5222
▁enemy	-10.5232
▁spokeswoman	-10.5238
▁manufacturing	-10.5242
▁sugar	-10.5245
▁sorry	-10.5248
▁stayed	-10.5253
right	-10.5257
▁Rep	-10.5259
▁mix	-10.526
▁Cor	-10.526
▁flag	-10.526
▁scoring	-10.5263
▁Scotland	-10.5265
ius	-10.5265
▁graduate	-10.5265
Al	-10.5268
▁resulting	-10.5268
▁hole	-10.5268
▁Civil	-10.527
▁Mon	-10.5271
▁2009,	-10.5273
▁Bell	-10.5273
▁Ya	-10.528
▁strongly	-10.528
▁aspects	-10.5289
ula	-10.529
▁expectations	-10.5292
▁dispute	-10.5293
ep	-10.5295
▁yesterday	-10.5298
▁overseas	-10.5299
▁par	-10.5308
▁2018	-10.5311
▁van	-10.5314
mit	-10.5324
▁Little	-10.5325
bra	-10.5325
▁collected	-10.5328
▁actor	-10.533
▁smooth	-10.533
▁worried	-10.5332
▁lots	-10.5332
▁Film	-10.5334
▁iron	-10.534
▁Sweden	-10.5341
▁DVD	-10.5346
▁Illinois	-10.5346
▁Pat	-10.5347
minute	-10.5355
46	-10.5357
▁meat	-10.5359
▁anywhere	-10.536
▁census	-10.5364
▁audio	-10.5373
▁fishing	-10.5376
▁Reserve	-10.5376
▁argued	-10.5379
▁capture	-10.538
under	-10.538
▁BC	-10.538
▁farmers	-10.5382
▁Online	-10.5382
ette	-10.5389
▁guarantee	-10.5389
▁successfully	-10.5398
▁busy	-10.5408
▁shots	-10.5409
▁Ltd	-10.541
Ha	-10.5415
light	-10.5419
▁machines	-10.5426
▁Greece	-10.5428
▁papers	-10.5429
rich	-10.5436
fire	-10.5443
zo	-10.5444
tar	-10.5446
▁voting	-10.5446
▁creative	-10.5451
▁alliance	-10.5455
▁corruption	-10.5455
▁treat	-10.5457
ari	-10.5457
high	-10.5461
yn	-10.5461
▁bright	-10.5462
▁concert	-10.5466
▁theme	-10.547
▁Governor	-10.5472
▁Library	-10.5481
known	-10.5483
▁deaths	-10.5487
▁drawing	-10.5493
▁controlled	-10.5498
▁prefer	-10.5501
▁pan	-10.5503
▁Bosnia	-10.5503
▁Wood	-10.5505
33	-10.5507
▁lunch	-10.5509
▁assault	-10.551
▁regularly	-10.5516
▁entertainment	-10.5521
67	-10.5523
▁grade	-10.5526
▁trained	-10.5528
▁expanded	-10.5532
▁shift	-10.5533
member	-10.5533
▁salt	-10.5535
▁communications	-10.5537
▁doors	-10.5542
style	-10.5542
▁shipping	-10.5544
▁aside	-10.5546
▁Ed	-10.5551
▁messages	-10.5554
▁tie	-10.5555
▁Jews	-10.5558
▁Rose	-10.556
▁reputation	-10.5561
cy	-10.5562
▁assigned	-10.5568
▁Hollywood	-10.5569
▁Corporation	-10.5569
▁stake	-10.5575
97	-10.5578
▁poverty	-10.5581
▁Eric	-10.5582
med	-10.5582
▁Bureau	-10.5588
▁danger	-10.5589
▁networks	-10.5593
ned	-10.5596
▁governments	-10.5596
▁tea	-10.56
▁plenty	-10.5603
▁resource	-10.5611
ks	-10.5612
▁adults	-10.5612
▁gathered	-10.5615
▁Premier	-10.5622
▁Syria	-10.5622
▁titles	-10.5627
▁bigger	-10.5628
ons	-10.5628
▁Nick	-10.5634
▁2007,	-10.5636
▁automatically	-10.5638
om	-10.5638
▁arrival	-10.5639
▁implementation	-10.5639
▁opposite	-10.5645
▁smoke	-10.5648
▁List	-10.5648
▁Serb	-10.5649
ological	-10.565
▁Toronto	-10.5653
▁micro	-10.5655
ay	-10.5656
AP	-10.5657
▁submit	-10.5658
▁moves	-10.5663
▁Malaysia	-10.5664
fe	-10.5669
▁Brian	-10.5669
▁listen	-10.5672
▁proved	-10.5675
▁Light	-10.5675
▁Bridge	-10.5679
▁normally	-10.5684
▁spiritual	-10.5689
▁seasons	-10.5702
▁unknown	-10.5702
▁stability	-10.5705
▁entrance	-10.5712
▁downtown	-10.5715
▁Ru	-10.5719
des	-10.5724
▁suspect	-10.5724
▁Executive	-10.5726
▁custom	-10.5728
▁Hi	-10.5728
▁Back	-10.5733
▁Wilson	-10.5734
card	-10.5737
▁Ms	-10.5738
▁resistance	-10.5741
▁wake	-10.5745
▁earn	-10.575
ros	-10.5757
▁Avenue	-10.577
▁abroad	-10.5773
03	-10.5773
nes	-10.5775
▁weekly	-10.5776
▁afford	-10.5777
▁44	-10.5778
ties	-10.578
▁cabinet	-10.5781
64	-10.5784
06	-10.5786
▁Shi	-10.5787
av	-10.5788
▁2011,	-10.579
▁thoughts	-10.579
▁dlrs	-10.5795
▁Records	-10.5796
▁buried	-10.5802
ph	-10.5806
▁Netherlands	-10.5821
▁Yes	-10.5824
▁Lewis	-10.5824
▁prisoners	-10.5826
▁consecutive	-10.5832
▁increases	-10.5836
▁polls	-10.5839
▁noticed	-10.5841
CC	-10.5843
Our	-10.5845
▁hits	-10.5847
▁tons	-10.5852
▁150	-10.5852
▁significantly	-10.5854
▁Mel	-10.5859
▁obvious	-10.586
ants	-10.5861
▁register	-10.5861
▁comfort	-10.5864
▁disaster	-10.5864
▁resort	-10.5865
▁Kennedy	-10.5875
96	-10.5877
▁42	-10.5878
▁Atlantic	-10.5879
▁detail	-10.588
▁parent	-10.588
▁Arafat	-10.5885
▁2006,	-10.5887
▁electricity	-10.5889
▁returns	-10.5894
▁procedures	-10.5896
▁Feb	-10.5897
fin	-10.5898
▁transferred	-10.5898
▁eating	-10.5901
▁processes	-10.5901
56	-10.5906
▁profits	-10.5908
▁knee	-10.5909
▁marks	-10.5909
▁drove	-10.5909
▁Ze	-10.592
Ro	-10.592
▁deals	-10.592
▁maintained	-10.5921
▁qualified	-10.5924
▁beauty	-10.5936
▁Mal	-10.5938
▁chose	-10.5948
▁deficit	-10.5952
ub	-10.5953
▁lifted	-10.5955
▁begun	-10.5956
lon	-10.5957
Yeah	-10.5958
nt	-10.5962
▁contest	-10.5965
▁recognize	-10.5968
eg	-10.5971
▁repair	-10.5981
▁civilian	-10.5982
66	-10.5989
▁protests	-10.5992
▁maintenance	-10.5995
▁Czech	-10.5995
▁thin	-10.5995
▁dealing	-10.5996
800	-10.6004
▁threw	-10.6004
▁establishment	-10.6009
▁collect	-10.6011
▁clubs	-10.6011
▁1988	-10.6012
▁existence	-10.6015
▁resulted	-10.6017
ical	-10.6017
▁Minnesota	-10.6018
▁household	-10.6022
41	-10.6022
▁improvement	-10.6023
▁[	-10.6024
sur	-10.603
▁Professor	-10.6031
ight	-10.6032
▁Head	-10.6032
▁ends	-10.6033
▁bear	-10.6036
▁terror	-10.6037
▁damaged	-10.6038
▁enforcement	-10.604
▁afraid	-10.6041
ris	-10.6042
▁Carl	-10.6043
▁Berlin	-10.6047
▁respectively	-10.6053
cent	-10.6054
▁suspended	-10.6064
▁strategic	-10.608
▁enjoyed	-10.608
▁partnership	-10.6083
$1	-10.6086
▁Field	-10.6088
▁raising	-10.6089
▁Adam	-10.6095
▁parking	-10.6096
▁ongoing	-10.6098
▁replied	-10.6099
▁sand	-10.6101
▁Fire	-10.6103
▁stable	-10.6103
▁stronger	-10.6105
▁destruction	-10.6106
▁hate	-10.611
▁flights	-10.6116
▁talked	-10.6121
▁insisted	-10.6123
▁anniversary	-10.6124
▁objects	-10.6126
▁properly	-10.6127
▁promotion	-10.6132
▁Maria	-10.6134
▁fiscal	-10.6137
▁ease	-10.6137
▁Argentina	-10.614
▁victim	-10.6141
ken	-10.6142
▁Seattle	-10.6143
▁dialogue	-10.6146
▁1/2	-10.6153
▁brothers	-10.6154
▁ill	-10.6159
▁Howard	-10.6162
▁Affairs	-10.6167
▁Bowl	-10.6167
▁mail	-10.6168
▁replacement	-10.6171
▁statements	-10.6171
some	-10.6174
▁drivers	-10.618
▁tips	-10.618
▁transportation	-10.6181
▁Dar	-10.6181
▁anyway	-10.619
▁lawmakers	-10.6191
lock	-10.6196
▁totally	-10.6196
▁convicted	-10.6196
▁Where	-10.6197
▁exports	-10.6199
▁Yu	-10.6202
▁49	-10.6209
nu	-10.6212
43	-10.6216
▁processing	-10.6219
▁gains	-10.6222
▁painting	-10.6223
las	-10.6231
▁Er	-10.6231
▁Diego	-10.6231
▁practical	-10.6234
lar	-10.6238
▁technologies	-10.6248
▁demanded	-10.625
▁copies	-10.6252
▁Dis	-10.6255
▁Detroit	-10.6255
▁refugees	-10.6256
▁teeth	-10.6258
ments	-10.6258
ye	-10.6262
85	-10.6265
▁banking	-10.6265
57	-10.6269
set	-10.6271
58	-10.6272
▁frame	-10.6275
▁vacation	-10.6277
▁absolutely	-10.6279
▁prize	-10.628
▁Jeff	-10.6283
▁trend	-10.6286
▁commonly	-10.6288
tes	-10.6291
ella	-10.6292
lic	-10.6292
▁awards	-10.6298
▁transition	-10.6299
▁stadium	-10.63
▁alongside	-10.6308
▁guests	-10.631
▁Thus	-10.6312
▁dogs	-10.6314
fu	-10.6317
tel	-10.6319
▁ultimately	-10.6324
▁journalists	-10.6328
▁persons	-10.6329
▁colors	-10.6333
▁thousand	-10.6334
key	-10.6336
▁featuring	-10.6338
owned	-10.634
▁reporting	-10.6342
▁racing	-10.6349
eu	-10.6353
▁47	-10.6355
▁saved	-10.6358
ging	-10.6358
▁Elizabeth	-10.6361
▁engaged	-10.6368
▁Labor	-10.6371
ue	-10.6373
▁confident	-10.6375
▁indeed	-10.6376
▁element	-10.6386
▁Cox	-10.6387
▁valuable	-10.6387
▁forum	-10.6388
lay	-10.6388
▁Miss	-10.6389
▁protected	-10.6391
▁Mountain	-10.6392
ick	-10.6396
place	-10.6406
▁flowers	-10.6406
▁Mount	-10.6411
▁seed	-10.6411
▁writers	-10.6414
Star	-10.6415
▁virus	-10.6426
▁typical	-10.6429
▁Egyptian	-10.6434
ell	-10.6434
▁proud	-10.6436
▁festival	-10.6436
▁gay	-10.6439
▁professionals	-10.6439
▁Ber	-10.644
▁Sports	-10.6441
ada	-10.6443
▁tomorrow	-10.6444
▁Rights	-10.6445
▁Switzerland	-10.6445
▁aim	-10.645
▁blow	-10.6451
▁Cuba	-10.6452
▁privacy	-10.6452
▁birds	-10.6452
▁reflect	-10.6454
▁components	-10.6454
://	-10.6456
mes	-10.6457
▁recognition	-10.6457
▁desk	-10.646
▁Ge	-10.646
▁Abu	-10.6461
59	-10.6464
▁Station	-10.6464
53	-10.6471
▁Chairman	-10.6472
▁satellite	-10.6479
▁blast	-10.6486
▁versions	-10.6486
▁Bosnian	-10.649
▁alcohol	-10.6491
▁milk	-10.6494
that	-10.6498
▁Read	-10.6505
yo	-10.6505
▁Ex	-10.6506
▁Ty	-10.6507
▁yes	-10.6509
▁Dallas	-10.651
▁survive	-10.6515
▁Financial	-10.6515
▁limits	-10.652
▁composed	-10.6525
SE	-10.6529
▁kick	-10.6535
bed	-10.6539
gue	-10.654
▁towns	-10.6541
ena	-10.6544
▁2005,	-10.6544
▁extent	-10.6549
▁Creek	-10.6551
▁Kevin	-10.6551
▁literature	-10.6552
▁resume	-10.6556
put	-10.6556
86	-10.6559
▁tickets	-10.656
▁passenger	-10.656
▁III	-10.6561
▁height	-10.6563
▁McCain	-10.6564
▁concluded	-10.6568
▁sky	-10.657
▁weren	-10.6572
▁lake	-10.6576
ile	-10.6577
▁crucial	-10.6577
▁Nu	-10.6581
▁exit	-10.6585
▁Food	-10.6598
dia	-10.66
▁contributions	-10.66
▁Economic	-10.66
▁Wi	-10.6601
ory	-10.6605
▁principles	-10.6609
qua	-10.6613
▁brings	-10.6613
▁roads	-10.6618
▁covering	-10.662
▁politicians	-10.6621
▁formation	-10.6624
▁Ju	-10.6628
IC	-10.6629
▁Master	-10.6631
▁somewhat	-10.6632
▁Have	-10.6634
▁informed	-10.6636
▁bonds	-10.6637
▁guns	-10.6642
▁Finally	-10.6642
▁joining	-10.6642
▁contracts	-10.6643
▁Area	-10.6644
▁nose	-10.6645
▁unusual	-10.6645
▁residence	-10.6648
▁Philippines	-10.6649
▁risks	-10.6652
▁behalf	-10.6652
▁violent	-10.6653
▁evil	-10.6658
▁courts	-10.666
▁bird	-10.6661
▁Ryan	-10.6664
▁Cal	-10.6664
89	-10.6665
▁reduction	-10.6666
6,	-10.6666
▁Add	-10.6667
▁experiences	-10.6668
ations	-10.6669
▁recommend	-10.6669
▁airline	-10.6671
▁minority	-10.6673
52	-10.6676
▁export	-10.6677
▁false	-10.6679
▁chances	-10.668
▁roll	-10.6681
▁guitar	-10.6685
▁Stadium	-10.6686
▁centers	-10.6688
gate	-10.6688
▁Judge	-10.669
▁di	-10.6691
▁heading	-10.6692
▁rating	-10.6695
ea	-10.6696
▁faculty	-10.6697
Co	-10.67
▁Communist	-10.6703
100	-10.6704
▁allegations	-10.6704
▁accord	-10.6709
▁factory	-10.6709
St	-10.6711
cor	-10.6713
▁responses	-10.6715
ED	-10.6717
▁venture	-10.6718
ped	-10.6721
▁Family	-10.6722
▁relationships	-10.6723
▁carbon	-10.6727
▁tonight	-10.6727
▁Ga	-10.673
▁temporary	-10.6731
die	-10.6731
▁Point	-10.6735
▁arts	-10.6738
Be	-10.674
ified	-10.6745
▁ear	-10.6748
▁Authority	-10.6753
▁overnight	-10.6753
▁happening	-10.6754
top	-10.6758
del	-10.676
▁Gu	-10.6761
▁submitted	-10.6764
fully	-10.6768
▁sharing	-10.6773
part	-10.6778
▁Fed	-10.678
▁innings	-10.678
▁attempted	-10.6782
▁ticket	-10.6784
▁39	-10.6784
▁inspired	-10.679
oh	-10.6791
▁representing	-10.6793
▁angry	-10.6798
▁containing	-10.6799
▁criticized	-10.6799
▁battery	-10.6804
▁ambassador	-10.6808
ria	-10.681
▁jury	-10.6812
▁lowest	-10.6813
▁executives	-10.6814
▁shoes	-10.6815
▁Mass	-10.6817
▁participation	-10.682
▁repeated	-10.6822
▁Patrick	-10.6824
▁allies	-10.6828
▁plot	-10.6828
▁handed	-10.6832
▁mom	-10.6834
▁liberal	-10.6837
▁requested	-10.6838
▁argument	-10.6843
▁Rob	-10.6844
▁clinical	-10.685
sta	-10.686
▁imagine	-10.6865
pp	-10.6866
▁monitoring	-10.6866
rin	-10.6866
▁hired	-10.687
ip	-10.6877
▁discussions	-10.6878
▁involvement	-10.6879
▁beating	-10.6884
▁Ci	-10.6885
▁menu	-10.6891
▁Thai	-10.6891
uri	-10.6894
▁paint	-10.6896
▁driven	-10.6897
▁entering	-10.6897
▁rail	-10.6901
▁Plan	-10.6903
▁Pi	-10.6904
▁ocean	-10.6905
▁agenda	-10.6907
ero	-10.6908
ple	-10.6909
▁Children	-10.6913
▁enable	-10.6916
▁humans	-10.692
▁ourselves	-10.6921
▁Nor	-10.6921
▁Ocean	-10.6923
▁landscape	-10.6926
▁seventh	-10.6929
▁delegation	-10.6929
▁fears	-10.693
▁entitled	-10.6931
▁signing	-10.6934
▁invasion	-10.6935
Not	-10.6944
▁Championships	-10.6946
▁depending	-10.6946
▁Del	-10.6948
▁Aug	-10.6952
▁Check	-10.6953
▁http	-10.6955
63	-10.6963
▁barely	-10.6964
▁responded	-10.6965
▁describe	-10.6966
▁external	-10.6967
▁contemporary	-10.6967
▁extreme	-10.6968
py	-10.6969
▁procedure	-10.6972
▁Review	-10.6973
▁soccer	-10.6974
▁highway	-10.6978
▁75	-10.6978
▁savings	-10.6984
▁thank	-10.6984
▁topic	-10.699
69	-10.6991
▁rapidly	-10.6993
▁soldier	-10.6994
▁Chapter	-10.7004
76	-10.7008
▁assessment	-10.701
▁sample	-10.7013
ens	-10.7016
54	-10.7018
▁attached	-10.7022
▁Stone	-10.7022
▁pet	-10.7022
▁defend	-10.7032
▁targets	-10.7036
▁constitution	-10.7037
▁repeatedly	-10.7045
▁FBI	-10.7045
▁strange	-10.7052
▁Gore	-10.7053
▁producing	-10.7053
▁lift	-10.7059
▁Site	-10.7062
▁readers	-10.7064
▁rapid	-10.7064
▁teach	-10.7065
5,000	-10.7068
▁suggests	-10.7073
▁monitor	-10.7074
▁registration	-10.7078
▁kinds	-10.7081
▁NFL	-10.7087
▁finger	-10.7087
ama	-10.7088
An	-10.7092
▁stomach	-10.7094
1%	-10.7094
▁emotional	-10.7095
▁exposure	-10.7096
FL	-10.7096
▁Han	-10.7099
▁constructed	-10.7102
▁throat	-10.7106
kar	-10.7111
▁delay	-10.7112
▁bin	-10.7114
▁provider	-10.7114
▁AP	-10.7115
▁elsewhere	-10.7116
▁acknowledged	-10.7117
87	-10.7123
▁explosion	-10.7128
3%	-10.7128
▁cent	-10.713
▁concrete	-10.7132
▁extend	-10.7139
▁breaking	-10.7141
▁Khan	-10.7141
▁noise	-10.7142
oon	-10.7142
▁defensive	-10.7143
tch	-10.7144
▁Students	-10.7145
tion	-10.7147
▁fraud	-10.715
▁55	-10.7156
▁extension	-10.7165
▁4,	-10.7167
▁anger	-10.7168
▁arrive	-10.7169
▁enhance	-10.7172
▁Fla	-10.7172
▁du	-10.7175
▁Studies	-10.7175
▁2012,	-10.7177
▁programming	-10.718
▁profile	-10.7181
ef	-10.7184
▁survived	-10.7184
▁bonus	-10.7185
box	-10.7186
▁Battle	-10.7187
▁Pakistani	-10.7192
▁smart	-10.7192
▁64	-10.7193
ace	-10.7194
pin	-10.7205
78	-10.7206
▁fundamental	-10.7206
▁2000,	-10.7207
▁History	-10.7209
▁employed	-10.7217
▁reforms	-10.7219
▁peak	-10.7221
▁Global	-10.7221
▁constant	-10.7221
▁euros	-10.7222
▁jumped	-10.7223
new	-10.7232
▁CEO	-10.7233
▁dozens	-10.7234
▁2004,	-10.7237
2%	-10.7238
▁41	-10.7238
▁unemployment	-10.7239
non	-10.7239
▁Awards	-10.724
▁Control	-10.724
▁atmosphere	-10.7241
83	-10.7245
▁websites	-10.7246
▁seized	-10.7251
▁answers	-10.7252
ets	-10.7257
▁accurate	-10.7264
▁hasn	-10.7265
▁cited	-10.7265
▁Allen	-10.7266
ious	-10.7267
▁Ti	-10.7268
▁shock	-10.7272
88	-10.7273
▁Local	-10.7277
▁contribute	-10.7278
▁Morgan	-10.7278
▁Report	-10.728
lot	-10.7281
▁newspapers	-10.7284
▁equivalent	-10.7285
Me	-10.7289
**	-10.7289
▁moderate	-10.729
range	-10.7292
▁gathering	-10.7293
▁clothing	-10.7294
▁visual	-10.7296
▁handling	-10.7297
▁plain	-10.7299
▁43	-10.7301
len	-10.7306
▁initiative	-10.7308
▁founder	-10.7309
▁tested	-10.731
TE	-10.7311
▁1986	-10.7313
quarter	-10.7313
▁fallen	-10.7313
▁searching	-10.7314
▁silence	-10.7318
cus	-10.7321
▁Camp	-10.7323
▁missile	-10.7324
▁Dow	-10.7325
bin	-10.7327
▁Sar	-10.733
▁bills	-10.7331
▁improving	-10.7332
▁engines	-10.7333
▁1987	-10.7339
92	-10.7345
▁Ph	-10.7347
▁Jason	-10.735
▁Five	-10.735
▁Chen	-10.7362
▁Earlier	-10.7371
▁tall	-10.7375
▁blamed	-10.7377
▁Daily	-10.7377
week	-10.7379
72	-10.7379
▁collapse	-10.738
▁statistics	-10.7381
▁Polish	-10.7381
▁somewhere	-10.7382
▁protein	-10.7382
68	-10.7384
ag	-10.7387
dan	-10.7387
▁wing	-10.7387
51	-10.7389
▁cycle	-10.7394
▁IT	-10.7395
cro	-10.7396
▁vital	-10.74
▁talent	-10.7402
▁moments	-10.7406
▁relative	-10.7407
▁graduated	-10.7407
▁subsequently	-10.7412
▁origin	-10.7415
▁Holy	-10.7416
▁browser	-10.7417
▁strategies	-10.7418
▁pushing	-10.742
94	-10.7421
▁bio	-10.7425
▁End	-10.7425
bel	-10.7427
▁switch	-10.7428
▁Ve	-10.7433
mat	-10.7435
▁preparing	-10.7436
▁Oh	-10.7436
▁forecast	-10.7437
▁RSS	-10.7437
than	-10.7443
▁feels	-10.7443
you	-10.7444
▁passes	-10.7445
▁SA	-10.7446
▁therapy	-10.7447
▁sensitive	-10.7449
▁ranked	-10.7449
af	-10.7451
TA	-10.7452
bon	-10.7453
▁Hussein	-10.7455
▁publicly	-10.7455
▁pot	-10.7456
▁acid	-10.7457
▁gap	-10.7457
▁confirm	-10.7458
▁grass	-10.7461
▁cat	-10.7461
▁Blair	-10.7463
▁roles	-10.7467
▁coal	-10.7468
▁Muslims	-10.7468
▁promoted	-10.747
▁reasonable	-10.7473
fish	-10.7479
bound	-10.7482
▁Federation	-10.7487
▁colleagues	-10.7488
▁categories	-10.7495
nie	-10.7498
▁implement	-10.75
▁scheme	-10.7503
▁Fair	-10.7504
▁backed	-10.7506
▁Grant	-10.7508
▁dating	-10.7509
ins	-10.7509
▁architecture	-10.7509
▁Ham	-10.7514
▁industries	-10.7515
▁Shanghai	-10.7518
▁fewer	-10.7521
▁Che	-10.7521
▁banned	-10.7523
▁hosted	-10.7527
pan	-10.7527
▁encouraged	-10.7531
ati	-10.7533
▁examples	-10.7533
▁wealth	-10.7533
▁Val	-10.7536
▁pitch	-10.7537
▁description	-10.7539
▁managing	-10.7541
▁drinking	-10.7547
▁column	-10.7547
▁treaty	-10.7547
▁gaze	-10.7547
▁Antonio	-10.7548
▁Las	-10.7555
▁distributed	-10.7557
▁answered	-10.7558
▁tone	-10.756
▁Victoria	-10.756
▁topics	-10.7561
▁restaurants	-10.7568
▁institution	-10.7569
mor	-10.7575
▁blame	-10.7575
▁Mor	-10.7575
▁stick	-10.7577
▁struggling	-10.7577
▁abandoned	-10.7578
ese	-10.7582
▁agricultural	-10.7582
▁update	-10.7584
▁languages	-10.7584
▁equity	-10.7584
tter	-10.7584
▁Harry	-10.7586
▁outstanding	-10.7586
▁interface	-10.7595
▁Thanks	-10.7596
▁BBC	-10.7598
▁Ri	-10.7599
▁updated	-10.76
▁tank	-10.7602
bank	-10.7602
▁introduction	-10.7603
isation	-10.7605
▁46	-10.7605
▁wins	-10.7606
▁Mu	-10.7607
▁villages	-10.7609
bro	-10.761
▁breast	-10.7613
vis	-10.7613
▁politician	-10.7617
▁referring	-10.7619
OR	-10.7621
▁estimates	-10.7621
▁deadline	-10.7622
▁exact	-10.7623
▁fled	-10.7625
▁efficient	-10.7631
illa	-10.7631
▁tape	-10.7645
▁junior	-10.7645
▁mistake	-10.7646
▁hidden	-10.7647
meter	-10.7652
▁emerged	-10.7652
▁briefly	-10.7653
▁designs	-10.7655
▁fairly	-10.7659
▁deeply	-10.7662
▁manufacturers	-10.7665
century	-10.767
▁anymore	-10.767
▁Ukraine	-10.7677
▁Mayor	-10.768
▁unlikely	-10.7682
▁moral	-10.7682
▁occupied	-10.7682
bury	-10.7687
▁resolve	-10.7691
hy	-10.7692
▁observed	-10.7693
▁instructions	-10.7694
84	-10.7696
▁fighters	-10.7705
▁peaceful	-10.7706
▁GM	-10.771
▁chapter	-10.7715
▁eligible	-10.772
are	-10.7723
▁lights	-10.7723
tur	-10.7724
▁withdrawal	-10.7725
▁presentation	-10.7729
▁performing	-10.7734
▁magic	-10.7735
▁liked	-10.7736
▁birthday	-10.7739
Let	-10.7742
▁string	-10.7744
tech	-10.7745
Now	-10.7746
▁suffer	-10.7749
ash	-10.7756
▁reserve	-10.7757
▁threats	-10.7757
AA	-10.7762
▁participated	-10.7765
▁bound	-10.7768
▁planet	-10.7771
▁intense	-10.7773
▁traded	-10.7773
▁immigration	-10.7773
▁Austria	-10.7775
▁reducing	-10.7775
▁1984	-10.7776
▁immigrants	-10.7777
▁indicate	-10.7777
▁Theatre	-10.7778
ade	-10.778
▁principle	-10.7781
▁cricket	-10.7785
▁Ball	-10.7785
▁solve	-10.7785
made	-10.7786
▁Empire	-10.7787
▁hide	-10.7787
SU	-10.7791
Con	-10.7792
tri	-10.7797
▁witness	-10.7797
62	-10.7797
One	-10.7797
▁veteran	-10.7798
▁2003,	-10.7799
▁Nigeria	-10.7802
▁secondary	-10.7805
▁Sal	-10.7807
▁Ron	-10.7809
▁Next	-10.781
▁feelings	-10.781
od	-10.7813
▁script	-10.7817
▁kid	-10.7819
▁understood	-10.782
▁providers	-10.7821
▁crude	-10.7822
▁Brazilian	-10.7827
▁engineer	-10.7828
▁Phil	-10.7828
▁express	-10.783
▁stream	-10.7835
▁Attorney	-10.7835
▁explore	-10.7835
mont	-10.7839
▁upset	-10.784
▁trail	-10.784
▁Mer	-10.7841
▁attract	-10.7842
▁muscle	-10.7843
▁$6	-10.7846
▁grounds	-10.7851
▁okay	-10.7857
ica	-10.7859
▁dates	-10.786
79	-10.7861
▁pleased	-10.7867
she	-10.787
▁1930	-10.7872
▁pleasure	-10.7878
credit	-10.788
▁writes	-10.7882
idae	-10.7884
▁Perhaps	-10.7884
▁regard	-10.7884
▁households	-10.7884
▁Min	-10.7884
▁blind	-10.7886
▁2001,	-10.7887
pal	-10.7889
▁Finance	-10.789
▁domain	-10.7893
▁parliamentary	-10.7897
▁compensation	-10.7897
▁steam	-10.79
▁Work	-10.7901
▁Space	-10.7903
▁Swedish	-10.7905
▁rent	-10.791
▁auction	-10.7911
▁GMT	-10.7916
▁assembly	-10.7917
▁Tan	-10.7917
▁Square	-10.792
▁Rev	-10.792
▁dismissed	-10.7922
▁5,	-10.7923
▁tries	-10.7923
LE	-10.7926
pic	-10.7929
hn	-10.7929
▁centuries	-10.7931
▁Was	-10.7933
▁pursue	-10.7933
▁landing	-10.7935
▁royal	-10.7936
▁opponents	-10.7937
▁coat	-10.794
▁Iowa	-10.7942
▁cloud	-10.7942
▁districts	-10.7944
▁Manchester	-10.7944
▁hotels	-10.7946
▁defence	-10.7947
▁tired	-10.7948
93	-10.7949
mark	-10.7953
mu	-10.7954
▁Jay	-10.7954
including	-10.7955
ff	-10.7955
▁expenses	-10.7958
▁merely	-10.7959
▁solo	-10.796
▁Cook	-10.7961
▁appointment	-10.7964
▁Clark	-10.7966
power	-10.7967
▁circuit	-10.7967
▁mode	-10.7968
burg	-10.7968
▁Trust	-10.7968
▁Live	-10.7969
▁Tar	-10.7969
AL	-10.797
▁Bat	-10.7971
▁Design	-10.7976
gin	-10.7977
▁oldest	-10.7981
▁Shiite	-10.7984
▁obviously	-10.7986
▁flash	-10.7988
▁careful	-10.7989
▁theater	-10.7991
▁suspects	-10.7993
▁bankruptcy	-10.7994
▁priority	-10.7994
▁bathroom	-10.7998
list	-10.8006
ians	-10.8008
▁plate	-10.8014
Ra	-10.8017
▁Mag	-10.8019
▁Key	-10.802
▁Islam	-10.802
▁Alan	-10.802
▁restrictions	-10.802
▁Fe	-10.8021
▁controversial	-10.8024
▁Bro	-10.803
▁harm	-10.8036
san	-10.8046
▁grabbed	-10.8047
ich	-10.8047
▁bowl	-10.8048
▁Standard	-10.8051
dar	-10.8051
ther	-10.8056
ida	-10.8058
▁Palm	-10.8058
▁reportedly	-10.806
!”	-10.806
sey	-10.8062
▁1967	-10.8067
61	-10.807
▁occurs	-10.8071
▁prosecutors	-10.8071
▁harder	-10.8073
▁destroy	-10.8078
▁52	-10.8078
▁exposed	-10.8078
▁Building	-10.8079
▁technique	-10.8082
▁Milan	-10.8089
▁Vo	-10.8095
tal	-10.8097
▁virtually	-10.8098
▁subsequent	-10.8104
200	-10.8104
▁alert	-10.8105
▁yuan	-10.8108
At	-10.8108
▁Anderson	-10.811
▁11,	-10.8112
▁scores	-10.8114
▁targeted	-10.8115
▁Madrid	-10.8116
ING	-10.8117
▁exhibition	-10.812
iz	-10.812
▁consequences	-10.812
▁pack	-10.8121
MA	-10.8121
▁perspective	-10.8121
▁managers	-10.8122
6%	-10.8123
▁Forest	-10.8125
bal	-10.8126
▁absence	-10.8126
▁Democrat	-10.8128
▁Fu	-10.8128
▁Policy	-10.8128
▁choices	-10.8131
▁activists	-10.8132
▁Night	-10.8132
7%	-10.8133
sion	-10.814
▁strip	-10.8143
▁Data	-10.8149
▁mile	-10.8151
▁Max	-10.8152
▁HIV	-10.8152
▁trans	-10.8155
▁routine	-10.8156
page	-10.8158
bs	-10.8159
▁Lady	-10.8165
▁Son	-10.8167
▁widespread	-10.8168
▁clock	-10.817
▁journalist	-10.8171
▁displayed	-10.8171
▁substantial	-10.8172
far	-10.8172
▁radical	-10.8172
4%	-10.8173
▁posts	-10.8174
eb	-10.8179
poli	-10.8182
▁cream	-10.8185
▁Price	-10.8188
▁Silver	-10.8189
pping	-10.819
▁tip	-10.8192
▁beside	-10.8195
▁Marine	-10.8195
az	-10.8197
▁Dean	-10.8198
▁Without	-10.8199
▁Bal	-10.8202
▁investments	-10.8204
ked	-10.8205
▁roughly	-10.8206
▁Railway	-10.8207
▁franchise	-10.8208
▁intellectual	-10.8211
▁Cu	-10.8213
▁gotten	-10.8216
▁Manhattan	-10.8218
▁everybody	-10.8219
▁residential	-10.8223
▁controls	-10.8223
▁allegedly	-10.8226
▁shirt	-10.8227
▁exciting	-10.8227
▁Mad	-10.8227
ira	-10.8227
dom	-10.8228
▁lists	-10.8228
Go	-10.8229
DA	-10.8229
▁pocket	-10.8234
▁apparent	-10.8235
▁Pen	-10.8238
New	-10.8239
▁crossed	-10.8239
▁comedy	-10.824
▁discover	-10.8242
81	-10.8246
74	-10.8253
▁judges	-10.8256
BA	-10.8257
▁remarks	-10.826
▁settle	-10.8262
▁Sky	-10.8264
▁occupation	-10.8267
▁crazy	-10.8271
▁fleet	-10.8273
▁furniture	-10.8273
nan	-10.8273
view	-10.8275
▁surrounded	-10.8278
82	-10.8281
▁fail	-10.8281
▁def	-10.8282
▁outcome	-10.8284
▁proposals	-10.8285
▁Has	-10.8288
0%	-10.8288
▁personally	-10.829
sized	-10.8291
8%	-10.8294
inch	-10.8297
ala	-10.8299
▁attending	-10.8302
▁hire	-10.8316
▁Scottish	-10.8319
▁guidelines	-10.8323
▁proof	-10.8326
▁Disney	-10.8327
▁nationwide	-10.8329
▁Market	-10.8335
▁Duke	-10.8337
▁imposed	-10.8339
▁failing	-10.8344
▁supports	-10.8346
▁visible	-10.8347
▁tears	-10.8347
yan	-10.8349
▁yield	-10.8352
▁beneath	-10.8352
▁hitting	-10.8352
▁tourists	-10.8353
▁fix	-10.8356
▁duties	-10.8357
▁frequent	-10.8362
▁appearances	-10.8367
ched	-10.8368
▁Oregon	-10.8371
rat	-10.8373
▁traveling	-10.8381
gh	-10.8381
cat	-10.8381
▁stretch	-10.8382
hal	-10.8383
ME	-10.8386
▁laughed	-10.8387
▁1985	-10.8389
▁imp	-10.8395
▁belief	-10.8396
▁Deputy	-10.8401
▁OF	-10.8402
Bo	-10.8408
▁Wisconsin	-10.8414
▁shops	-10.8416
▁symbol	-10.8417
▁1940	-10.8419
▁amounts	-10.8421
▁1:	-10.8423
▁blocks	-10.8424
▁convention	-10.8427
▁lie	-10.8431
CE	-10.8432
▁Maryland	-10.8434
▁Place	-10.8434
▁investigators	-10.8437
▁Cabinet	-10.8438
about	-10.8443
▁Bible	-10.8444
▁Treasury	-10.8445
▁Ross	-10.8445
ches	-10.8447
▁merger	-10.8447
▁Pu	-10.8447
▁earthquake	-10.8449
▁sentenced	-10.8449
▁input	-10.8449
▁provincial	-10.8451
▁discount	-10.8452
▁Through	-10.8463
▁designated	-10.8464
▁sessions	-10.8464
▁structures	-10.8468
▁Norway	-10.8472
▁dramatic	-10.8476
▁Using	-10.8477
ction	-10.8477
▁accompanied	-10.8478
▁Euro	-10.8479
▁Golden	-10.848
▁Kan	-10.8482
▁tennis	-10.8484
▁Six	-10.8485
ric	-10.8485
ib	-10.8486
▁Guard	-10.8487
elle	-10.849
▁Capital	-10.849
ire	-10.8491
▁Rio	-10.8494
▁performances	-10.8496
▁sons	-10.8497
▁lawsuit	-10.8497
▁hospitals	-10.8497
▁Securities	-10.85
▁Wa	-10.8501
cra	-10.8501
▁financing	-10.8501
▁Ab	-10.8502
▁Down	-10.8509
▁Did	-10.8514
▁converted	-10.8515
▁speaker	-10.852
▁winners	-10.8526
▁videos	-10.8527
▁temple	-10.8528
▁bedroom	-10.8532
▁contribution	-10.8534
▁cook	-10.8536
▁estimate	-10.8538
bat	-10.8539
▁consideration	-10.8539
▁tower	-10.8543
▁ownership	-10.8544
▁attractive	-10.8544
▁mutual	-10.855
▁hang	-10.8552
▁municipality	-10.8553
▁generate	-10.8553
▁Wal	-10.8554
ux	-10.8554
▁default	-10.8557
▁athletes	-10.8558
▁Senior	-10.8561
▁sufficient	-10.8561
▁witnesses	-10.8563
▁crossing	-10.8568
▁printed	-10.8568
ban	-10.857
▁Carter	-10.8571
▁helpful	-10.8571
▁Ram	-10.8571
▁steady	-10.858
scale	-10.8582
▁mountains	-10.8585
▁Ann	-10.8586
4,	-10.8592
▁gear	-10.8595
▁Sometimes	-10.8604
▁solar	-10.8608
▁Missouri	-10.8609
election	-10.8609
▁Sub	-10.861
▁Cape	-10.8611
▁wheel	-10.8614
▁rolled	-10.8618
▁designer	-10.8618
▁pure	-10.8621
mate	-10.8622
▁10,000	-10.8624
til	-10.8626
▁burning	-10.8626
world	-10.8626
9%	-10.8627
▁patterns	-10.8633
▁laugh	-10.8633
▁eighth	-10.8634
▁illness	-10.8638
▁consistent	-10.8639
bri	-10.864
▁shoot	-10.8642
▁journal	-10.8644
▁Bishop	-10.8645
▁Kenya	-10.8647
Pro	-10.8652
▁Juan	-10.8654
una	-10.8656
▁findings	-10.8657
▁load	-10.8658
▁potentially	-10.8662
▁gross	-10.8663
300	-10.867
▁Right	-10.8671
▁Indiana	-10.8678
▁scenes	-10.868
▁finishing	-10.868
ters	-10.8682
=	-10.8684
▁Sharon	-10.8686
▁preparation	-10.8688
▁Whether	-10.8691
▁Cat	-10.8692
▁stuck	-10.8693
▁democratic	-10.8697
▁intervention	-10.8699
▁Class	-10.87
▁relatives	-10.8702
73	-10.8703
▁framework	-10.8704
▁mm	-10.8704
ew	-10.8709
▁install	-10.8713
▁scandal	-10.8714
▁Country	-10.8715
▁weapon	-10.8716
▁reliable	-10.8716
▁succeed	-10.8717
▁studying	-10.8718
▁Serbs	-10.8721
▁Bel	-10.8728
▁Therefore	-10.873
▁collaboration	-10.8731
▁celebrate	-10.8733
77	-10.8734
ching	-10.8737
▁virtual	-10.8737
▁Captain	-10.8742
▁attitude	-10.8748
▁suitable	-10.875
▁flew	-10.8752
Are	-10.8753
hard	-10.8757
▁dealers	-10.8759
▁Islands	-10.8759
▁Ash	-10.8763
▁mood	-10.8765
▁appreciate	-10.8767
▁Peace	-10.8769
▁judgment	-10.8772
ata	-10.8779
▁51	-10.878
▁consumption	-10.8782
▁generated	-10.8783
▁lady	-10.8785
▁loose	-10.8788
wide	-10.8789
▁Dave	-10.8794
nation	-10.8796
▁liquid	-10.8802
▁detained	-10.8803
gal	-10.8805
▁authors	-10.8806
▁tail	-10.8806
▁falls	-10.8807
▁visits	-10.881
ack	-10.8812
▁2014,	-10.8813
▁spin	-10.8814
▁stared	-10.8815
▁Auto	-10.8816
▁1982	-10.8818
▁tourism	-10.8822
▁execution	-10.8827
oo	-10.8833
▁involves	-10.8841
▁fault	-10.8841
▁1920	-10.8844
▁legislative	-10.8844
▁awareness	-10.8845
▁horses	-10.8846
▁Mur	-10.8848
ole	-10.8848
▁recession	-10.8849
▁provision	-10.885
▁ca	-10.8851
▁Harvard	-10.8859
▁Austin	-10.8861
▁recover	-10.8862
IA	-10.8864
▁necessarily	-10.8865
▁shoulders	-10.8866
▁Corps	-10.8867
str	-10.887
▁popularity	-10.8874
▁constitutional	-10.8877
▁impressive	-10.8877
▁promoting	-10.8883
who	-10.8883
▁concerning	-10.8887
▁Serbia	-10.8888
▁hardware	-10.8896
ct	-10.8897
ston	-10.8898
▁connect	-10.8898
▁Indonesian	-10.8899
▁ads	-10.8902
bur	-10.8905
▁Tor	-10.8906
avi	-10.8906
▁guards	-10.8907
ign	-10.8908
▁Winter	-10.8908
▁burned	-10.8918
▁Pri	-10.8919
▁anonymity	-10.8919
pay	-10.8922
▁departure	-10.8926
▁Convention	-10.8926
ene	-10.8926
IT	-10.893
▁luxury	-10.8932
71	-10.8933
▁Anti	-10.8934
▁Gordon	-10.8937
bert	-10.8938
▁Register	-10.8942
▁sections	-10.8943
▁convinced	-10.8943
▁describes	-10.8945
▁investigate	-10.8948
▁kiss	-10.8948
cap	-10.8948
▁restore	-10.895
TC	-10.8963
iv	-10.8963
▁Lanka	-10.8966
▁1979	-10.897
▁integrated	-10.8972
▁hip	-10.8972
▁1983	-10.8973
▁Arabia	-10.8974
▁abortion	-10.8975
▁valley	-10.8976
▁inner	-10.8976
▁regarded	-10.8977
▁pulling	-10.8979
▁objective	-10.8979
▁app	-10.898
▁Credit	-10.8983
▁resident	-10.8983
▁recovered	-10.8984
▁predicted	-10.8985
▁component	-10.8985
▁Bad	-10.8987
cast	-10.8987
▁2013,	-10.899
▁Lin	-10.8992
▁1969	-10.8994
▁rank	-10.8996
▁stressed	-10.8996
▁universities	-10.9
▁gifts	-10.9
west	-10.9
▁producers	-10.9008
▁golden	-10.9008
▁Tennessee	-10.9015
▁b	-10.9016
▁circle	-10.9016
▁assume	-10.9017
▁aggressive	-10.9022
los	-10.9022
▁wooden	-10.9024
▁silent	-10.9024
▁Find	-10.9026
real	-10.9028
▁greatly	-10.9031
General	-10.9031
▁waters	-10.9035
iya	-10.9037
▁genetic	-10.9039
▁NBA	-10.9045
▁worker	-10.9047
▁churches	-10.905
▁Having	-10.9051
lie	-10.9053
▁agreements	-10.9057
▁Moore	-10.9057
▁passage	-10.9058
▁excited	-10.9058
▁rarely	-10.9059
▁AIDS	-10.9062
▁luck	-10.9062
▁argue	-10.9066
▁bottle	-10.9066
▁forever	-10.9068
▁halt	-10.9069
▁annually	-10.9071
▁manufacturer	-10.9076
▁definition	-10.9077
▁rough	-10.908
dra	-10.908
▁reserves	-10.9081
▁upcoming	-10.9082
▁Win	-10.9084
▁Anthony	-10.9085
▁DNA	-10.9089
ob	-10.9094
▁Orleans	-10.9094
var	-10.9099
▁logo	-10.91
▁2015,	-10.9101
und	-10.9102
mb	-10.9104
care	-10.9105
▁glad	-10.9106
▁coup	-10.9108
▁remembered	-10.9108
▁compound	-10.9114
▁landed	-10.9117
▁ordinary	-10.9118
▁Facebook	-10.9118
▁recalled	-10.9119
▁Rick	-10.9121
▁situations	-10.9125
ec	-10.913
▁1971	-10.9134
▁reporter	-10.9135
▁Ontario	-10.9136
▁shake	-10.9137
▁subjects	-10.9139
GA	-10.9143
▁viewed	-10.9146
vent	-10.9147
▁Systems	-10.915
▁opera	-10.9152
▁Arthur	-10.9154
▁Philip	-10.9156
unt	-10.9158
▁eliminate	-10.916
▁Highway	-10.916
▁Commissioner	-10.9161
▁Gary	-10.9162
eng	-10.9165
▁2002,	-10.9166
nch	-10.917
▁Father	-10.9171
▁diseases	-10.9173
▁presidency	-10.9175
▁Thank	-10.9176
dal	-10.9176
lee	-10.9181
▁Powell	-10.9183
aka	-10.9184
▁Had	-10.9184
▁Spring	-10.9186
▁nervous	-10.9189
▁repeat	-10.9192
▁Tro	-10.9193
▁Matthew	-10.92
ath	-10.92
vegas	-10.9202
▁$7	-10.9203
▁pressed	-10.9205
burn	-10.9207
▁errors	-10.9208
▁philosophy	-10.9211
▁comparison	-10.9211
▁boss	-10.9213
▁Search	-10.9218
▁infection	-10.922
▁uniform	-10.9221
▁Channel	-10.9221
▁sudden	-10.9223
▁competed	-10.9223
▁welfare	-10.9226
▁waited	-10.9228
▁Ste	-10.9232
fla	-10.9233
▁mining	-10.9234
▁benchmark	-10.9238
mile	-10.924
▁constantly	-10.9241
▁installation	-10.9242
▁directory	-10.9248
▁Harris	-10.9249
▁notable	-10.925
▁Prize	-10.925
▁Belgium	-10.9251
▁marine	-10.9252
▁Way	-10.9256
▁Sudan	-10.926
▁defending	-10.926
▁finds	-10.9264
▁Rice	-10.9265
▁Oklahoma	-10.9267
get	-10.9268
▁rocket	-10.9268
▁Walter	-10.927
▁testimony	-10.9271
▁desert	-10.9272
▁tourist	-10.9272
▁Wang	-10.9274
▁demanding	-10.9274
IN	-10.9275
▁asks	-10.9275
▁passion	-10.9276
▁Cleveland	-10.9278
▁lucky	-10.9279
▁preferred	-10.9279
▁ABC	-10.928
▁mainland	-10.9281
▁nomination	-10.9281
▁publishing	-10.9282
▁flood	-10.9282
▁agriculture	-10.9282
▁listening	-10.9283
▁breakfast	-10.9285
party	-10.9292
▁sad	-10.9293
▁females	-10.9293
▁qualify	-10.9296
▁Kelly	-10.9297
▁planes	-10.9297
▁conclusion	-10.93
▁enormous	-10.9302
▁accounting	-10.9303
▁engage	-10.9303
▁sole	-10.9304
▁8,	-10.9304
▁singles	-10.9305
fra	-10.9306
▁Front	-10.9306
▁Christopher	-10.9306
▁Garden	-10.9308
ser	-10.9321
market	-10.9321
▁exception	-10.9322
AS	-10.9324
▁emerging	-10.9325
▁leather	-10.9325
▁Band	-10.9328
▁bronze	-10.9332
Qaida	-10.9334
▁requests	-10.9336
▁smell	-10.9339
▁Greg	-10.9342
▁slip	-10.9346
gg	-10.935
▁hardly	-10.935
▁Care	-10.9351
▁bone	-10.9351
▁revolution	-10.9352
▁Section	-10.9355
ova	-10.9359
ei	-10.936
mel	-10.936
▁resigned	-10.9365
rid	-10.9365
hon	-10.9366
▁tongue	-10.9366
▁Bor	-10.9369
▁efficiency	-10.937
▁Tre	-10.9372
▁assumed	-10.9374
rie	-10.9375
▁succeeded	-10.9377
▁strengthen	-10.9377
▁singing	-10.9378
▁perfectly	-10.9378
▁Besides	-10.9382
▁chicken	-10.9383
▁depends	-10.9383
▁Denver	-10.9386
▁colour	-10.9386
▁Zimbabwe	-10.9392
▁beer	-10.9392
▁stages	-10.9393
gel	-10.9396
▁destination	-10.9397
▁Due	-10.9398
▁Sarah	-10.9399
▁Gov	-10.9399
▁emphasis	-10.9399
▁trains	-10.9405
▁diverse	-10.9406
MC	-10.9407
▁northwest	-10.9407
table	-10.941
▁camps	-10.9414
▁collective	-10.9419
▁rush	-10.942
▁Kerry	-10.9423
▁neighboring	-10.9424
▁Pra	-10.9425
▁Woods	-10.9433
RO	-10.9433
▁streak	-10.9434
▁premier	-10.9437
▁organisation	-10.9438
▁exclusive	-10.9439
▁dad	-10.9442
▁considerable	-10.9444
▁MP	-10.9445
▁prescription	-10.9445
$	-10.9449
▁accessible	-10.945
▁mini	-10.9453
▁depth	-10.9458
▁occasion	-10.9459
▁deck	-10.9463
▁posting	-10.9463
▁funny	-10.9465
▁keeps	-10.9467
▁locked	-10.9471
▁120	-10.9471
▁quit	-10.9475
▁Alliance	-10.9479
▁7,	-10.948
mic	-10.9483
▁transmission	-10.9484
ES	-10.949
▁situated	-10.9491
profit	-10.9491
▁intention	-10.9493
▁Anna	-10.9493
▁parish	-10.9495
▁Je	-10.9497
▁bags	-10.9497
▁carrier	-10.9497
▁Farm	-10.9504
▁ratio	-10.9505
▁zero	-10.9505
91	-10.9505
ali	-10.9506
▁Cap	-10.9509
▁wore	-10.9511
▁invest	-10.9514
▁Manager	-10.9516
▁Wu	-10.9523
▁para	-10.9524
▁Carlos	-10.9524
Just	-10.9527
▁slipped	-10.9527
▁Third	-10.9528
rum	-10.9533
Pa	-10.9535
▁Play	-10.9536
▁vary	-10.954
rant	-10.954
▁swing	-10.954
▁communist	-10.9543
▁Code	-10.9544
On	-10.9544
▁Regional	-10.9554
▁hosting	-10.9554
club	-10.9555
▁photographs	-10.9556
▁terrorists	-10.9558
▁protesters	-10.9561
uc	-10.9561
▁electrical	-10.957
ado	-10.9571
▁channels	-10.9572
ult	-10.9576
RA	-10.9576
▁aspect	-10.9578
▁Hal	-10.958
▁maker	-10.9581
▁Set	-10.9584
▁praised	-10.9584
▁racial	-10.9586
▁=	-10.9588
pu	-10.9591
▁Main	-10.9597
▁evaluation	-10.9601
▁Roger	-10.9603
▁islands	-10.9609
▁badly	-10.9612
▁bi	-10.9613
▁Hot	-10.9613
cul	-10.9614
▁Story	-10.9616
▁portfolio	-10.9619
▁shouldn	-10.962
▁facts	-10.962
tier	-10.9622
zer	-10.9626
chan	-10.9627
ika	-10.9627
▁Dick	-10.963
SA	-10.9631
▁listing	-10.9634
▁mirror	-10.9635
▁nominated	-10.9636
▁lying	-10.9638
▁holes	-10.964
▁ballot	-10.9641
▁complaints	-10.9641
▁expertise	-10.9641
▁Former	-10.9644
LA	-10.9644
maker	-10.9647
▁helicopter	-10.9649
▁Croatia	-10.9649
ox	-10.965
▁organic	-10.9651
▁Colombia	-10.9655
▁expects	-10.9655
▁bars	-10.9657
▁proven	-10.9657
▁password	-10.966
▁54	-10.9662
▁Commerce	-10.9666
▁copyright	-10.9675
▁outdoor	-10.9676
▁rice	-10.9682
▁calendar	-10.9682
▁Prior	-10.9683
rick	-10.9683
▁swimming	-10.9687
PA	-10.9687
▁compromise	-10.9688
▁humanitarian	-10.9689
▁fate	-10.9691
▁Card	-10.9691
▁innocent	-10.9692
▁Pentagon	-10.9696
▁dust	-10.9697
▁exists	-10.9698
▁interviews	-10.97
▁rental	-10.9702
▁Cuban	-10.9704
ual	-10.9708
▁staying	-10.971
ral	-10.9713
▁actress	-10.9713
▁ski	-10.9715
▁spoken	-10.972
bb	-10.9722
DS	-10.9733
Man	-10.974
▁deadly	-10.9747
▁Strip	-10.9748
▁twin	-10.975
▁translation	-10.9753
▁Memorial	-10.9755
▁Vegas	-10.9756
▁examination	-10.9756
aff	-10.9759
▁corn	-10.976
▁median	-10.976
▁1975	-10.9765
▁movements	-10.9767
▁Hand	-10.9767
▁1964	-10.9771
▁sheet	-10.9771
▁republic	-10.9775
▁overcome	-10.9776
▁maintaining	-10.9777
▁burst	-10.9778
ai	-10.978
▁everywhere	-10.978
▁funeral	-10.9781
▁Fi	-10.9783
▁requirement	-10.9784
Ba	-10.9785
▁Gra	-10.9788
▁Yo	-10.9788
kan	-10.9793
▁parallel	-10.9795
▁equipped	-10.9795
▁childhood	-10.9796
▁Portugal	-10.9797
▁terminal	-10.9798
▁cooking	-10.9799
▁cease	-10.9801
▁congressional	-10.9802
▁mess	-10.9803
▁dominated	-10.9804
▁recommendations	-10.9804
▁forth	-10.9805
▁Sta	-10.9806
dic	-10.9807
▁Tel	-10.9809
half	-10.9812
▁somehow	-10.9813
▁riding	-10.9817
▁Kat	-10.9818
▁TO	-10.9818
▁pink	-10.9826
▁AT	-10.9827
▁Sp	-10.9832
▁trim	-10.9837
qu	-10.9837
▁reception	-10.984
▁meets	-10.9841
▁touched	-10.9843
▁genus	-10.9843
▁del	-10.9845
▁kingdom	-10.9845
struct	-10.9848
▁lap	-10.9849
▁Ser	-10.985
tle	-10.985
dale	-10.9852
▁acquisition	-10.9854
▁foods	-10.9855
▁deployed	-10.9855
▁raid	-10.9857
▁addressed	-10.9857
▁offense	-10.9858
ened	-10.9859
▁root	-10.9862
▁brick	-10.9864
▁letting	-10.9865
▁Es	-10.9866
▁partly	-10.9872
sco	-10.9876
fri	-10.9879
▁Liberal	-10.9883
▁claiming	-10.9887
▁cleared	-10.9887
▁hill	-10.9889
zy	-10.9889
▁Guide	-10.989
▁53	-10.9892
▁Region	-10.9892
▁employers	-10.9892
▁complicated	-10.9895
▁Wil	-10.9896
▁Susan	-10.9898
▁lit	-10.9899
▁Caribbean	-10.99
▁blocked	-10.9903
east	-10.9906
▁Travel	-10.9906
HA	-10.9907
▁impression	-10.9907
▁meal	-10.9911
▁log	-10.9911
▁strikes	-10.9915
stra	-10.9916
▁Unlike	-10.9919
▁jet	-10.9923
▁hanging	-10.9924
▁packed	-10.9929
▁theatre	-10.993
▁Sel	-10.9931
▁admit	-10.9931
▁provisions	-10.9932
chu	-10.9933
hold	-10.9934
lia	-10.9936
▁Born	-10.9937
ID	-10.9945
ER	-10.9947
▁Phoenix	-10.9947
▁Kentucky	-10.9949
IP	-10.9951
▁climb	-10.9952
▁Dun	-10.9957
▁loud	-10.9959
sec	-10.9962
▁involve	-10.9965
▁deposit	-10.9965
▁cheese	-10.9966
▁Myanmar	-10.9968
▁2016,	-10.9969
▁possession	-10.9972
500	-10.9973
▁counsel	-10.9974
▁56	-10.9982
▁citing	-10.9984
kh	-10.9985
▁Route	-10.9985
▁superior	-10.9989
▁outbreak	-10.999
▁Lincoln	-10.9994
▁Trans	-11.0002
▁instant	-11.0008
▁aged	-11.0014
▁coastal	-11.0015
▁conventional	-11.0015
▁memories	-11.0019
▁ninth	-11.0019
▁Nelson	-11.0019
▁pit	-11.002
▁Douglas	-11.0022
▁dressed	-11.0023
▁Command	-11.0026
sim	-11.0026
▁Motor	-11.0032
▁capabilities	-11.0033
any	-11.0036
▁sword	-11.0037
▁opponent	-11.0037
▁discovery	-11.0038
▁automatic	-11.0039
▁prospect	-11.0039
▁NBC	-11.0043
▁criteria	-11.0043
▁eggs	-11.0045
▁burden	-11.0046
▁barrel	-11.0046
▁implemented	-11.0048
▁joy	-11.0048
take	-11.0052
▁Angel	-11.0054
OS	-11.0056
▁buyers	-11.0057
▁Stewart	-11.0058
▁1965	-11.0059
▁ceiling	-11.006
▁Pet	-11.0061
▁orange	-11.0062
▁painted	-11.0062
▁bilateral	-11.0065
▁emissions	-11.0066
▁associate	-11.0067
▁approached	-11.0067
▁thrown	-11.0068
▁gray	-11.0069
▁Ger	-11.007
▁predict	-11.007
▁Albert	-11.0071
▁1972	-11.0076
▁embassy	-11.0077
▁pm	-11.0077
person	-11.008
▁exam	-11.0082
▁volunteers	-11.0085
▁custody	-11.0089
People	-11.009
ima	-11.0091
▁Until	-11.0097
▁bread	-11.0097
▁backing	-11.0101
▁Para	-11.0102
000	-11.0107
▁preserve	-11.0114
These	-11.0114
▁Tra	-11.0115
aki	-11.0115
▁folks	-11.0119
▁9,	-11.0122
aire	-11.0124
eo	-11.0127
▁invitation	-11.0128
▁Connecticut	-11.0133
▁valid	-11.0136
▁Hard	-11.0138
from	-11.0138
ans	-11.0142
▁difficulties	-11.0144
▁Computer	-11.015
▁prompted	-11.0152
▁boats	-11.0154
▁militant	-11.0157
▁volunteer	-11.0158
▁trucks	-11.0158
▁permit	-11.0161
▁Abbas	-11.0167
▁Hamilton	-11.0172
▁loyal	-11.0174
▁tension	-11.0177
▁Walker	-11.0178
sis	-11.0178
▁Jane	-11.0179
▁saving	-11.018
▁1974	-11.0181
▁biological	-11.0182
▁champions	-11.0183
▁dynamic	-11.0186
▁neighbors	-11.0191
▁Engineering	-11.0194
▁occasionally	-11.0196
▁Anne	-11.0197
▁Communications	-11.0197
hood	-11.0199
▁Constitution	-11.0206
▁Hart	-11.0207
▁difficulty	-11.0208
▁mill	-11.021
ele	-11.021
insurance	-11.0215
▁episodes	-11.0217
▁formally	-11.0219
▁comic	-11.022
▁pregnant	-11.0221
▁northeast	-11.0223
ora	-11.0227
dollar	-11.0228
Who	-11.0229
▁Jon	-11.0232
tti	-11.0232
▁Tech	-11.0234
▁classified	-11.0235
▁sequence	-11.0236
bridge	-11.0237
▁Heart	-11.024
▁margin	-11.0241
▁stored	-11.0244
▁1976	-11.0246
▁stupid	-11.0251
▁winds	-11.0252
▁successor	-11.0254
▁wrapped	-11.0254
rated	-11.0256
▁Andy	-11.0256
▁depression	-11.0259
▁branches	-11.026
nit	-11.0264
▁regardless	-11.0267
▁Tamil	-11.0267
▁convert	-11.0269
▁struggled	-11.027
▁lessons	-11.027
▁completion	-11.028
▁Alabama	-11.0285
▁reader	-11.0285
▁Village	-11.0286
▁shell	-11.0288
pm	-11.0292
▁cargo	-11.0293
align	-11.0293
▁participating	-11.0295
▁Bangladesh	-11.0296
▁cruise	-11.0297
▁tackle	-11.0298
ular	-11.0298
▁$10	-11.03
▁hosts	-11.0303
▁1966	-11.0304
▁lifestyle	-11.0308
▁prayer	-11.0309
▁layer	-11.031
▁authorized	-11.0312
▁Medicine	-11.032
ste	-11.0324
▁challenging	-11.0325
▁800	-11.0326
▁quarterback	-11.0327
▁acres	-11.0327
▁random	-11.0328
▁Military	-11.0333
▁ranging	-11.0333
▁personality	-11.0333
▁array	-11.0334
▁climbed	-11.0335
iti	-11.0336
type	-11.0338
▁Airlines	-11.034
▁reverse	-11.0341
FA	-11.0344
▁competing	-11.0345
▁crack	-11.0345
lum	-11.0346
▁tropical	-11.0346
log	-11.0349
ington	-11.0353
ators	-11.0353
ily	-11.0361
▁traveled	-11.0363
▁disappeared	-11.0364
ami	-11.0364
▁integration	-11.0365
▁questioned	-11.0366
▁tasks	-11.0367
▁investigating	-11.0367
▁operates	-11.0368
▁directors	-11.0368
▁gather	-11.037
▁Unfortunately	-11.0372
▁Thompson	-11.0372
tern	-11.0373
▁securities	-11.0375
▁resignation	-11.0379
▁intent	-11.0382
400	-11.0386
▁Boy	-11.0388
▁shower	-11.0388
band	-11.0389
▁belt	-11.0391
▁suspension	-11.0395
▁Putin	-11.0396
sal	-11.0397
▁innovative	-11.0397
▁roots	-11.04
▁Champions	-11.0401
▁Page	-11.0402
▁Ahmed	-11.0403
▁explanation	-11.0405
▁Mississippi	-11.0407
xi	-11.0411
▁Lebanese	-11.0415
season	-11.0416
▁Oil	-11.0417
▁specialist	-11.0419
▁dreams	-11.0419
▁smoking	-11.042
CP	-11.0421
▁Baltimore	-11.0423
▁regulation	-11.0424
▁referendum	-11.0428
▁Sh	-11.0428
RC	-11.0429
▁100%	-11.043
▁trillion	-11.0433
▁Early	-11.0436
AC	-11.0437
▁Pope	-11.0437
even	-11.0437
ON	-11.0439
▁controversy	-11.044
▁titled	-11.044
▁decrease	-11.0441
▁lifetime	-11.0442
▁ignored	-11.0443
▁complaint	-11.0445
pri	-11.0445
most	-11.0447
▁pledged	-11.0449
▁complained	-11.0452
▁Seven	-11.0452
▁wireless	-11.0453
▁Yugoslavia	-11.0453
▁boxes	-11.0454
▁sharply	-11.0456
▁Sur	-11.0459
▁Mohammed	-11.046
▁Melbourne	-11.046
▁petition	-11.046
▁moon	-11.0461
▁2,000	-11.0461
lis	-11.0462
▁honest	-11.0465
▁casualties	-11.0465
▁documentary	-11.0467
▁rivals	-11.0468
▁Cole	-11.047
▁removal	-11.047
RI	-11.0471
ening	-11.0473
zu	-11.0474
▁fence	-11.0476
▁mad	-11.0476
▁raw	-11.048
▁guidance	-11.048
▁specified	-11.0483
ase	-11.0492
▁1978	-11.0495
▁reveal	-11.0496
▁1999,	-11.0502
▁Sciences	-11.0508
▁Louisiana	-11.0508
▁Pittsburgh	-11.0516
▁mixture	-11.0516
MP	-11.0517
▁Bruce	-11.0518
▁Temple	-11.0524
ography	-11.0524
▁Oxford	-11.0526
▁tobacco	-11.0526
master	-11.0526
▁72	-11.0528
▁Gre	-11.0531
▁ratings	-11.0533
▁density	-11.0534
city	-11.0534
SM	-11.0536
▁qualifying	-11.0536
▁Non	-11.0537
▁priest	-11.0538
▁equally	-11.0543
▁Small	-11.0544
▁affordable	-11.0545
yr	-11.0545
▁mo	-11.0545
▁Alaska	-11.0547
▁depend	-11.055
km	-11.0553
▁Sand	-11.0555
▁tear	-11.056
▁aboard	-11.056
stein	-11.0561
▁cleaning	-11.0565
wo	-11.0566
▁2017,	-11.0567
▁meanwhile	-11.0567
▁Cho	-11.0568
▁lab	-11.0569
▁hockey	-11.0574
▁chat	-11.0575
▁Den	-11.0576
▁Cur	-11.0579
▁improvements	-11.0582
▁rounds	-11.0585
▁southwest	-11.0586
▁forcing	-11.0587
▁1981	-11.0588
▁shareholders	-11.0589
▁phones	-11.059
▁wet	-11.0591
▁prosecutor	-11.0595
tru	-11.0597
ug	-11.06
▁electoral	-11.06
▁Castle	-11.0602
▁Denmark	-11.0605
▁conversion	-11.0605
▁Keep	-11.0606
nia	-11.0606
▁salary	-11.0608
▁striker	-11.0608
▁consent	-11.061
nce	-11.0611
▁gender	-11.0618
▁Mother	-11.062
▁Sim	-11.0622
▁pride	-11.0623
▁Rangers	-11.0625
▁250	-11.0626
▁HP	-11.0626
ert	-11.0627
▁attracted	-11.0627
▁ranks	-11.0629
▁palace	-11.0631
▁manual	-11.0631
▁Norwegian	-11.0633
gra	-11.0637
wer	-11.0638
▁powder	-11.0638
▁whispered	-11.0638
▁males	-11.0642
▁Labour	-11.0647
ving	-11.0647
acy	-11.0647
▁castle	-11.0649
▁cameras	-11.0649
AM	-11.0654
▁Express	-11.066
▁approaches	-11.0662
action	-11.0662
▁Graham	-11.0665
▁delayed	-11.0669
▁Natural	-11.0669
▁connections	-11.0671
▁borders	-11.0671
▁Bla	-11.0673
▁wire	-11.0673
ising	-11.0674
▁Support	-11.0676
▁Watch	-11.0676
▁charity	-11.068
▁gradually	-11.0682
▁CIA	-11.0683
▁unions	-11.0686
▁Word	-11.0688
press	-11.0688
600	-11.0689
▁Warner	-11.0689
▁trials	-11.069
▁editorial	-11.0691
▁commit	-11.0692
▁Mill	-11.0693
▁whenever	-11.0695
▁welcomed	-11.0696
▁View	-11.0697
▁CBS	-11.0698
▁Yankees	-11.0701
▁bull	-11.0702
ua	-11.0702
▁separated	-11.0702
cle	-11.0703
▁Ter	-11.0705
▁Barack	-11.0706
▁ultimate	-11.0706
▁addresses	-11.0706
▁actors	-11.0709
▁shadow	-11.0713
▁fur	-11.0716
▁secured	-11.0717
lor	-11.072
▁bases	-11.0721
▁announce	-11.0722
<	-11.0724
▁1962	-11.0728
uni	-11.0728
▁Between	-11.0729
▁Cre	-11.0733
▁broader	-11.0738
▁Hindu	-11.0742
Ta	-11.0742
uch	-11.0744
▁Environmental	-11.0746
▁aims	-11.0746
▁breathing	-11.0748
▁Mas	-11.0748
▁57	-11.0749
▁relation	-11.075
▁1968	-11.0756
▁24,	-11.0757
▁grip	-11.0757
▁Within	-11.0757
▁Gro	-11.0759
▁Much	-11.0759
▁satisfied	-11.076
▁compare	-11.076
▁introduce	-11.0765
had	-11.0767
▁universe	-11.0767
cker	-11.0771
▁wanting	-11.0771
▁expanding	-11.0771
▁$	-11.0773
will	-11.0773
8,000	-11.0774
yer	-11.0778
▁burn	-11.078
oz	-11.0781
▁glanced	-11.0784
▁Oscar	-11.0784
▁Francis	-11.0784
Can	-11.0786
Mi	-11.0792
▁firing	-11.0792
▁mechanism	-11.0792
▁protecting	-11.0796
▁Look	-11.0797
▁Stanley	-11.0802
▁arranged	-11.0804
dent	-11.0804
▁hunting	-11.0805
try	-11.0809
▁unlike	-11.0813
▁jurisdiction	-11.0815
▁Interior	-11.0817
rod	-11.0818
cept	-11.0823
▁utility	-11.0825
▁Morris	-11.0827
▁leaned	-11.0827
▁terrible	-11.083
TS	-11.083
▁demonstrated	-11.0832
cash	-11.0836
NS	-11.0838
Car	-11.0841
Okay	-11.0847
kov	-11.0847
▁toll	-11.0849
▁explains	-11.085
▁Final	-11.085
▁odd	-11.0851
▁Which	-11.0852
▁metres	-11.0855
▁punishment	-11.0857
▁31,	-11.0866
▁Officer	-11.0866
bre	-11.0867
ao	-11.0867
▁physician	-11.0869
▁instruments	-11.0873
nis	-11.0873
▁cake	-11.0876
▁IBM	-11.0877
▁chamber	-11.0877
EN	-11.0878
▁citizen	-11.0879
rah	-11.0881
▁withdraw	-11.0882
▁58	-11.0883
▁Singh	-11.0883
boy	-11.0886
▁Robinson	-11.0886
▁Senator	-11.0886
▁vulnerable	-11.0888
speed	-11.0891
▁guaranteed	-11.0894
▁waves	-11.0896
ering	-11.0899
MB	-11.09
▁experiment	-11.0901
▁Luc	-11.0902
▁Utah	-11.0906
▁spots	-11.0907
▁Andre	-11.0907
pl	-11.0908
▁gang	-11.0908
▁operator	-11.091
▁developers	-11.0912
boo	-11.0914
▁inquiry	-11.0919
▁adopt	-11.0922
▁celebrated	-11.0925
fo	-11.0928
▁cry	-11.0929
▁Bus	-11.093
▁formerly	-11.0932
▁laptop	-11.0933
pper	-11.0934
▁sounded	-11.0936
sive	-11.0937
▁Sound	-11.0938
▁shield	-11.0938
▁Cambridge	-11.0938
▁friendship	-11.0944
▁Shah	-11.0948
▁essentially	-11.0949
▁employer	-11.0949
OC	-11.0949
vy	-11.095
▁underground	-11.0951
▁Athens	-11.0954
▁Ce	-11.0959
▁1963	-11.0961
▁Child	-11.0962
Good	-11.0967
away	-11.0968
▁regret	-11.0969
▁Bio	-11.0969
▁deeper	-11.097
PC	-11.0972
▁refers	-11.0974
▁Staff	-11.0975
▁paintings	-11.0976
▁Larry	-11.0977
▁interpretation	-11.098
▁Bon	-11.0982
▁recall	-11.0982
▁quietly	-11.0982
▁Philippine	-11.0982
BC	-11.0983
▁hero	-11.0983
▁filing	-11.0985
org	-11.0987
elli	-11.099
▁Ye	-11.0991
UC	-11.0992
▁1973	-11.0992
nar	-11.0993
▁dying	-11.0996
▁retain	-11.1
▁1998,	-11.1
▁wondered	-11.1
▁Fred	-11.1002
▁revenues	-11.1003
▁bands	-11.1004
▁blend	-11.1008
▁fabric	-11.1009
▁samples	-11.1011
▁distinct	-11.1013
char	-11.1015
▁consultant	-11.1015
▁checked	-11.1017
▁1995,	-11.1017
only	-11.1017
▁adds	-11.102
▁Campbell	-11.102
▁thirty	-11.1025
▁ages	-11.1029
▁modest	-11.103
▁adviser	-11.1031
▁1996,	-11.1042
▁demonstrate	-11.1046
arch	-11.1047
▁Insurance	-11.1048
▁tunnel	-11.105
▁tables	-11.1051
▁Roll	-11.1051
▁Junior	-11.1052
▁Villa	-11.1052
▁Em	-11.1055
▁skill	-11.1056
cin	-11.1057
rock	-11.1057
▁Portuguese	-11.1057
▁twelve	-11.1057
▁Des	-11.106
▁slide	-11.1062
▁arrangements	-11.1062
lig	-11.1064
▁municipal	-11.1064
▁Pass	-11.1064
eth	-11.1066
▁vessel	-11.1067
▁excess	-11.1069
▁FC	-11.107
▁$8	-11.1073
▁Mun	-11.1074
▁Sunni	-11.1076
▁till	-11.1077
▁coaches	-11.1077
▁executed	-11.1078
▁imports	-11.1078
▁Russell	-11.1079
grade	-11.108
▁nobody	-11.108
ale	-11.108
▁slid	-11.1081
▁southeast	-11.1081
Ho	-11.1084
▁founding	-11.1086
▁1948	-11.1087
▁Industry	-11.1087
▁Television	-11.1087
▁Sox	-11.1092
two	-11.1095
tho	-11.1098
keeper	-11.1101
▁transaction	-11.1102
mir	-11.1104
oma	-11.1107
Com	-11.1108
▁Qui	-11.1111
read	-11.1112
▁hat	-11.1112
▁adventure	-11.1113
▁Officials	-11.1115
▁disk	-11.1122
▁Kal	-11.1126
▁styles	-11.1126
▁fax	-11.1127
▁hung	-11.1129
▁bra	-11.1134
▁carries	-11.1135
test	-11.1135
▁violation	-11.1135
▁collapsed	-11.1136
▁Ol	-11.1139
▁premium	-11.1141
▁1977	-11.1146
▁somebody	-11.1147
▁beaten	-11.1148
▁chocolate	-11.1149
▁$9	-11.1153
ax	-11.1154
▁crashed	-11.1154
▁certified	-11.1157
▁permitted	-11.1158
▁Chan	-11.1161
▁bench	-11.1164
▁choosing	-11.1165
▁basically	-11.1165
met	-11.1167
▁NO	-11.1168
▁balls	-11.1169
name	-11.117
▁renamed	-11.1171
▁viewers	-11.1172
▁optional	-11.1173
▁Action	-11.1174
▁Rad	-11.1174
rian	-11.1174
▁Java	-11.1177
front	-11.1177
worth	-11.118
▁Video	-11.118
▁18,	-11.1183
▁focusing	-11.1184
million	-11.1187
winning	-11.1188
▁bay	-11.1188
▁stem	-11.1189
▁Tehran	-11.1189
▁tanks	-11.1191
▁22,	-11.1201
▁Ian	-11.1204
oid	-11.1204
▁arrangement	-11.1205
▁Christians	-11.1205
▁bulk	-11.1206
▁probe	-11.121
ration	-11.122
▁characteristics	-11.1224
enberg	-11.1224
cri	-11.1224
▁import	-11.1224
oriented	-11.1226
▁Syrian	-11.123
▁tender	-11.1234
▁Baker	-11.1234
▁harsh	-11.1234
▁bombs	-11.1235
▁Classic	-11.1236
▁Full	-11.1241
▁acquire	-11.1243
▁championships	-11.1243
▁66	-11.1243
▁Hor	-11.1248
aj	-11.1249
▁Ly	-11.125
▁wider	-11.125
▁fiction	-11.1258
▁anybody	-11.1261
▁scope	-11.1261
hole	-11.1261
▁darkness	-11.1266
▁restored	-11.1268
▁communicate	-11.1272
▁beef	-11.1274
such	-11.1275
▁lighting	-11.1276
▁seal	-11.128
▁derived	-11.1281
▁Netanyahu	-11.1282
▁Costa	-11.1284
after	-11.1286
dle	-11.1286
▁Ch	-11.1289
▁traders	-11.1292
▁hook	-11.1293
▁representation	-11.1296
▁Venezuela	-11.1299
was	-11.13
▁vessels	-11.13
ona	-11.1302
▁feedback	-11.1303
▁21,	-11.1303
▁Additionally	-11.1303
▁Donald	-11.1304
▁slot	-11.1305
lam	-11.1305
▁elite	-11.1306
▁striking	-11.1307
▁NCAA	-11.1307
▁sustainable	-11.1308
just	-11.131
▁shelter	-11.1311
▁180	-11.1314
▁Week	-11.1314
▁urge	-11.1315
ute	-11.132
vel	-11.1321
▁isolated	-11.1324
▁tune	-11.1325
▁bombings	-11.1326
▁30,	-11.1327
cc	-11.1328
spect	-11.133
▁grave	-11.1331
▁sleeping	-11.1334
▁Southeast	-11.1334
▁sectors	-11.1336
SL	-11.1337
▁governing	-11.1338
▁Representatives	-11.1338
tis	-11.1338
▁tissue	-11.134
▁preliminary	-11.134
jan	-11.1341
▁pale	-11.1343
▁Kashmir	-11.1346
ante	-11.1346
▁availability	-11.1348
EA	-11.135
▁modified	-11.1351
▁confused	-11.1351
ock	-11.1353
▁breed	-11.1354
▁detention	-11.1354
▁ob	-11.1355
hen	-11.1355
▁prosecution	-11.1359
▁Come	-11.1365
▁Samuel	-11.1365
▁bat	-11.1365
very	-11.1367
▁lock	-11.1371
▁mandate	-11.1371
ded	-11.1373
▁Software	-11.1373
▁routes	-11.1373
▁Delhi	-11.1373
▁indicates	-11.1374
▁Liverpool	-11.1374
▁counties	-11.1374
▁pension	-11.1374
▁Romania	-11.1376
▁Digital	-11.1377
▁Upon	-11.1381
▁Magazine	-11.1381
▁bath	-11.1382
▁enterprise	-11.1382
▁ingredients	-11.1383
▁Hispanic	-11.1384
vol	-11.1384
imp	-11.1385
▁Mission	-11.1391
▁600	-11.1399
ean	-11.14
▁Charlie	-11.1406
▁throwing	-11.1408
▁disappointed	-11.1408
▁Revolution	-11.1411
▁rely	-11.1413
▁sees	-11.1413
aries	-11.1415
▁Age	-11.1415
▁couples	-11.1417
▁reflected	-11.1419
gram	-11.1421
▁Moon	-11.1422
▁provinces	-11.1424
IL	-11.1425
▁concentration	-11.1428
▁devoted	-11.143
▁Mat	-11.1431
pel	-11.1433
▁adapt	-11.1433
▁deployment	-11.1435
▁Sony	-11.1443
▁missiles	-11.1445
gun	-11.1447
▁Protection	-11.1448
▁attempting	-11.1449
och	-11.1449
▁suggestions	-11.145
▁Agreement	-11.145
ition	-11.1451
▁Sil	-11.1453
▁periods	-11.1453
▁influenced	-11.1454
ore	-11.1457
▁celebration	-11.1459
▁28,	-11.1459
▁disorder	-11.1459
▁speculation	-11.1467
▁sweat	-11.1471
▁pepper	-11.1473
▁acted	-11.1474
▁expense	-11.1476
▁Professional	-11.1477
ces	-11.1477
Or	-11.1478
EL	-11.1479
7,000	-11.1481
▁commissioner	-11.1483
▁Historic	-11.1485
▁crystal	-11.1486
EX	-11.1487
▁sum	-11.149
▁Song	-11.1497
aya	-11.1498
▁100,000	-11.1506
▁1961	-11.1508
▁Movement	-11.1509
▁crown	-11.1509
▁elderly	-11.1511
▁fantastic	-11.1512
▁romantic	-11.1512
▁Steven	-11.1513
▁Oak	-11.1516
night	-11.1517
check	-11.152
bus	-11.152
▁honour	-11.152
▁trends	-11.1526
▁Forum	-11.1527
ST	-11.1531
▁classical	-11.1531
▁Others	-11.1531
▁ho	-11.1537
▁Yeltsin	-11.1537
▁*	-11.1539
▁horror	-11.1543
site	-11.1544
rag	-11.1547
bul	-11.1549
▁Gor	-11.1553
▁chip	-11.1553
▁Serbian	-11.1554
▁Boeing	-11.1554
cip	-11.1557
▁span	-11.1558
also	-11.1561
▁bike	-11.1564
▁Toyota	-11.1565
▁Murray	-11.1566
▁Members	-11.1566
Where	-11.1567
▁literary	-11.1568
▁proportion	-11.1568
▁Jacob	-11.157
▁Simpson	-11.1571
▁encounter	-11.1575
nic	-11.1576
▁inform	-11.1578
lit	-11.1579
▁Ag	-11.1581
▁trips	-11.1582
▁62	-11.1583
▁worship	-11.1587
▁Hills	-11.1587
▁sustained	-11.1588
▁nursing	-11.159
DP	-11.1592
▁Ren	-11.1595
▁Wayne	-11.1597
▁Independent	-11.1598
▁temperatures	-11.16
▁recipe	-11.1604
▁Member	-11.1604
▁dining	-11.1605
▁licensed	-11.161
▁declaration	-11.161
▁produces	-11.1612
▁ignore	-11.1615
▁Gun	-11.1621
▁1997,	-11.1621
▁Safety	-11.1622
▁Pop	-11.1622
▁Barcelona	-11.1624
▁enemies	-11.1624
▁disabled	-11.1625
▁Cam	-11.1625
sson	-11.1626
▁operational	-11.1626
iff	-11.1629
▁pen	-11.1633
anda	-11.1633
▁substance	-11.1634
ska	-11.164
▁Run	-11.164
▁promises	-11.1641
▁Spirit	-11.1642
▁Commonwealth	-11.1647
▁notably	-11.1648
▁jazz	-11.1648
oli	-11.1648
▁sponsored	-11.1649
gon	-11.1651
▁Stra	-11.1654
▁1944	-11.1655
▁transactions	-11.166
▁poly	-11.166
▁fastest	-11.1663
▁1947	-11.1664
▁Karl	-11.1664
▁purchasing	-11.1664
MS	-11.1664
piece	-11.1664
ain	-11.1667
▁approve	-11.1669
▁settings	-11.167
▁grants	-11.1671
▁23,	-11.1673
▁departments	-11.1673
▁march	-11.1676
▁Jerry	-11.1676
▁composition	-11.1677
itch	-11.1678
▁escaped	-11.1681
▁memorial	-11.1681
▁Montreal	-11.1681
▁1994,	-11.1686
tation	-11.1687
▁instrument	-11.1687
▁Adams	-11.1694
▁unclear	-11.1695
▁condemned	-11.1696
▁developments	-11.1696
▁graphics	-11.1697
▁IN	-11.1697
▁placing	-11.1698
gam	-11.1698
▁piano	-11.1708
▁Forces	-11.1708
▁vowed	-11.171
▁chips	-11.1716
▁CA	-11.1719
AN	-11.1719
▁Charlotte	-11.1725
hor	-11.1726
▁Ros	-11.1726
▁economist	-11.1726
▁packages	-11.1727
▁Room	-11.1727
▁mistakes	-11.1727
▁ranking	-11.1728
▁Indians	-11.1728
▁spell	-11.1728
▁stolen	-11.1729
gro	-11.1732
▁rid	-11.1734
og	-11.1735
▁sentiment	-11.1735
▁pa	-11.1736
▁Native	-11.1738
▁comply	-11.1739
▁ears	-11.1741
▁prospects	-11.1742
▁campaigns	-11.1743
▁Hunter	-11.1744
▁renewed	-11.1746
▁assured	-11.1747
▁albums	-11.1747
▁wound	-11.1748
▁lyrics	-11.1749
▁liability	-11.1751
▁PA	-11.1752
tus	-11.1752
▁musicians	-11.1756
weight	-11.1756
post	-11.1757
▁rushed	-11.1758
▁frequency	-11.1758
▁wondering	-11.1759
▁CO	-11.1759
▁hiding	-11.176
▁lease	-11.1761
▁13,	-11.1761
▁publisher	-11.1762
▁define	-11.1764
▁charter	-11.1766
▁evolution	-11.1767
cut	-11.177
▁Sto	-11.1772
▁playoff	-11.1777
▁credits	-11.178
BS	-11.1782
▁notion	-11.1783
▁Dole	-11.1785
ered	-11.1785
▁Nazi	-11.1787
horn	-11.1789
▁angle	-11.1789
▁conservation	-11.1789
▁gene	-11.179
▁juice	-11.179
▁DC	-11.179
▁advised	-11.1791
▁Vol	-11.1792
▁breaks	-11.1794
ify	-11.1795
pot	-11.1796
▁fluid	-11.18
▁wage	-11.1801
aging	-11.1801
▁Puerto	-11.1802
▁opinions	-11.1803
▁Metro	-11.1808
SP	-11.1808
▁affair	-11.1808
▁absolute	-11.1809
▁respective	-11.181
▁knife	-11.1814
▁survival	-11.1816
mod	-11.182
▁1945	-11.182
▁NASA	-11.1824
▁Wright	-11.1828
▁Peru	-11.183
▁divorce	-11.1836
▁Fri	-11.1836
PO	-11.1837
uck	-11.1837
screen	-11.1842
▁publications	-11.1843
El	-11.1844
pound	-11.1844
▁kicked	-11.1845
▁tremendous	-11.1845
▁engagement	-11.1846
bla	-11.1846
▁Training	-11.1847
▁brilliant	-11.1848
▁19,	-11.1854
▁rolling	-11.186
wind	-11.1861
▁Hampshire	-11.1862
▁Milosevic	-11.1862
▁printing	-11.1863
▁venue	-11.1864
▁flesh	-11.1865
▁Gil	-11.1866
▁accommodate	-11.1871
ovic	-11.1878
▁27,	-11.1878
▁Benjamin	-11.188
▁Lawrence	-11.188
bor	-11.188
wick	-11.188
▁unchanged	-11.1883
een	-11.1884
▁delegates	-11.1884
story	-11.1886
▁poetry	-11.1886
▁interim	-11.1888
▁architect	-11.1889
▁hike	-11.1892
cell	-11.1892
DC	-11.1894
▁consensus	-11.1894
▁Laden	-11.1895
▁requiring	-11.1897
▁craft	-11.1898
face	-11.19
▁Soon	-11.19
▁Chu	-11.1902
▁Dad	-11.1902
▁holy	-11.1902
▁Barry	-11.1903
▁exhibit	-11.1904
▁alarm	-11.1904
▁desired	-11.1905
ridge	-11.1907
▁Sy	-11.1907
▁naturally	-11.191
ump	-11.191
ela	-11.1911
hit	-11.1912
▁chronic	-11.1912
▁threatening	-11.1913
▁belonging	-11.1914
▁tap	-11.1914
sia	-11.1915
▁2018,	-11.1918
ged	-11.192
▁tensions	-11.192
▁egg	-11.1921
▁Gas	-11.1922
phone	-11.1922
▁Mid	-11.1923
▁occasions	-11.1923
oni	-11.1928
▁Palace	-11.193
Fi	-11.1933
▁Mil	-11.1933
roll	-11.1938
home	-11.1942
▁59	-11.1943
▁checks	-11.1943
▁brands	-11.1944
▁Indeed	-11.1944
▁bass	-11.1944
▁institute	-11.1944
berry	-11.1945
▁handful	-11.1949
▁steep	-11.195
date	-11.195
matic	-11.1951
nee	-11.1952
its	-11.1955
▁Dor	-11.1955
▁convince	-11.1961
SF	-11.1961
▁eliminated	-11.1964
▁Chile	-11.1964
▁Ana	-11.1966
▁envoy	-11.1967
▁clashes	-11.1967
via	-11.1971
▁po	-11.1972
▁retreat	-11.1972
▁heritage	-11.1973
ison	-11.1973
▁Hy	-11.1975
▁confusion	-11.1976
▁Barbara	-11.1977
▁Kuwait	-11.1977
▁1959	-11.1978
▁forming	-11.1981
▁Low	-11.1981
▁backup	-11.1982
▁Austrian	-11.1982
held	-11.1983
hill	-11.1984
▁substitute	-11.1984
▁Nothing	-11.1987
yu	-11.1987
▁12,	-11.1987
▁laboratory	-11.1991
▁Fer	-11.1992
ulation	-11.1992
▁Tax	-11.1992
school	-11.1993
▁reply	-11.1995
▁creates	-11.1997
controlled	-11.2
With	-11.2001
vers	-11.2002
▁Finland	-11.2003
▁Os	-11.2004
▁Drug	-11.2004
▁Again	-11.2006
eau	-11.2008
▁26,	-11.2008
backed	-11.2009
▁Giants	-11.201
▁slight	-11.2011
▁Round	-11.2011
▁Roy	-11.2012
▁survivors	-11.2014
has	-11.202
▁scrap	-11.2022
▁14,	-11.2022
▁lesson	-11.2023
▁Abdul	-11.2025
ill	-11.2025
uff	-11.2031
ree	-11.2033
▁Store	-11.204
▁sacrifice	-11.2041
▁warrant	-11.2049
▁Bri	-11.2052
▁everyday	-11.2053
SC	-11.2057
▁troubled	-11.206
▁medication	-11.2062
LP	-11.2064
▁1942	-11.2065
▁examine	-11.2067
▁triple	-11.2068
▁god	-11.207
▁bold	-11.2071
▁educated	-11.2072
pers	-11.2073
▁dropping	-11.2075
▁segment	-11.2076
▁legitimate	-11.2077
four	-11.2078
▁encouraging	-11.2079
▁Chang	-11.2079
▁Marshall	-11.2085
Li	-11.2085
▁competitors	-11.2085
inter	-11.2093
▁AND	-11.2093
ache	-11.2093
▁Orange	-11.2095
▁cotton	-11.2098
▁crop	-11.2099
tile	-11.2103
▁flexible	-11.2103
▁Chavez	-11.2106
▁excuse	-11.2106
▁Mom	-11.2108
▁Jonathan	-11.2109
▁psychological	-11.2109
IM	-11.2109
▁classroom	-11.2109
mag	-11.2111
▁gently	-11.2113
▁extraordinary	-11.2115
▁butter	-11.2115
▁directions	-11.2116
five	-11.2119
GE	-11.2124
▁Cyprus	-11.2124
$2	-11.2125
▁funded	-11.2129
▁certification	-11.213
▁assess	-11.2131
tha	-11.2132
▁dealer	-11.2134
▁Dog	-11.2135
Constitution	-11.2136
seat	-11.2136
▁incorporated	-11.2138
how	-11.2141
▁Kin	-11.2144
pun	-11.2145
▁Hezbollah	-11.2148
▁disc	-11.215
▁shit	-11.2155
seeded	-11.2156
▁Hope	-11.2156
▁Industrial	-11.2157
▁dump	-11.2159
CI	-11.216
▁legend	-11.2163
▁bitter	-11.2165
▁FA	-11.2165
▁reviewed	-11.2165
▁knocked	-11.2167
Qaeda	-11.2168
▁bunch	-11.2171
zz	-11.2173
EE	-11.2174
▁Grace	-11.2181
Of	-11.2182
lift	-11.2183
Bu	-11.2183
▁29,	-11.2184
▁actively	-11.2188
▁Jimmy	-11.2194
▁Youth	-11.2195
▁expecting	-11.2196
ses	-11.2197
RE	-11.2198
PP	-11.22
▁starring	-11.2201
▁negotiate	-11.2201
▁stroke	-11.2203
Br	-11.2204
▁panic	-11.2204
▁1956	-11.2207
▁accuracy	-11.221
▁measured	-11.2211
▁relating	-11.2211
▁63	-11.2211
▁boards	-11.2213
▁senator	-11.2214
▁foster	-11.2214
OL	-11.2216
▁establishing	-11.2219
▁wrist	-11.222
▁pipeline	-11.2221
+	-11.2222
▁Rod	-11.2223
▁hub	-11.2225
▁artistic	-11.2227
▁Bear	-11.2228
▁Delta	-11.2228
▁Ur	-11.2228
▁Rat	-11.2233
▁fitness	-11.2233
▁shifted	-11.2234
▁longest	-11.2235
▁Does	-11.2236
gent	-11.2236
DR	-11.2241
▁INC	-11.2241
▁Edwards	-11.2242
▁Billy	-11.2243
▁fighter	-11.2244
▁Warren	-11.2244
▁barrels	-11.2247
▁arguments	-11.2247
▁tele	-11.225
▁replacing	-11.2253
▁scholars	-11.2253
ident	-11.2254
▁Gray	-11.2254
▁maps	-11.2255
▁mono	-11.2255
▁mosque	-11.2256
▁appearing	-11.2257
▁Brad	-11.2258
CL	-11.2259
▁grab	-11.2262
▁observers	-11.2262
eva	-11.2263
lies	-11.2264
▁Contact	-11.2265
Then	-11.2265
UN	-11.2266
▁frozen	-11.2272
atory	-11.2277
▁Nar	-11.2279
▁elaborate	-11.228
▁gallery	-11.2283
link	-11.2284
▁1941	-11.2285
▁accordance	-11.2287
▁infected	-11.229
leg	-11.2291
▁attributed	-11.2292
▁swept	-11.2292
▁Brand	-11.2293
▁Abdullah	-11.2295
▁Resources	-11.2295
hol	-11.2296
▁GOP	-11.2296
mine	-11.2297
▁Medicare	-11.2298
▁Perry	-11.2299
▁Mitchell	-11.2301
▁arch	-11.2302
ET	-11.2303
▁Hawaii	-11.2304
▁legislature	-11.2304
ui	-11.2305
gold	-11.2306
▁boot	-11.2307
vert	-11.2309
▁beam	-11.2313
▁Craig	-11.2315
word	-11.2315
▁eager	-11.2318
▁signals	-11.2319
▁heaven	-11.2319
▁remarkable	-11.232
▁knees	-11.232
▁discrimination	-11.2322
▁corporations	-11.2323
sville	-11.2323
▁critic	-11.2325
▁mounted	-11.2326
▁operators	-11.2327
▁Bru	-11.2327
▁updates	-11.2328
▁Buck	-11.2329
▁Access	-11.2329
▁shore	-11.2329
▁asset	-11.2329
▁pollution	-11.2331
uring	-11.2333
▁trick	-11.2333
▁OK	-11.2333
▁Carr	-11.2334
▁quote	-11.2334
▁OS	-11.2336
▁Unit	-11.2339
▁Earl	-11.2339
Mar	-11.2339
▁resolved	-11.234
▁filling	-11.2341
rt	-11.2342
▁compliance	-11.2347
▁usage	-11.235
rus	-11.2352
▁Entertainment	-11.2352
▁queen	-11.2355
▁Tampa	-11.2356
▁bite	-11.2356
▁Brothers	-11.2357
▁diplomats	-11.2361
▁boom	-11.2362
his	-11.2369
▁strict	-11.237
▁administrator	-11.2371
▁Danish	-11.2373
▁Vancouver	-11.2374
▁wealthy	-11.2374
▁configuration	-11.238
shire	-11.238
▁Mont	-11.238
|	-11.2386
▁facilitate	-11.2386
▁Wolf	-11.2387
spir	-11.2387
▁unity	-11.2388
▁Brooklyn	-11.2389
▁exercises	-11.239
▁adequate	-11.2391
▁nurse	-11.2391
▁upgrade	-11.2391
▁lands	-11.2393
quality	-11.24
responsibilities	-11.2404
▁predecessor	-11.2404
Lo	-11.2406
lands	-11.2407
▁1949	-11.241
bas	-11.241
▁pin	-11.2412
▁NY	-11.2412
ila	-11.2413
Your	-11.2418
▁lip	-11.2418
PS	-11.242
▁Cro	-11.2424
▁Dennis	-11.2426
▁Israelis	-11.2428
▁pregnancy	-11.2432
▁Tower	-11.2432
▁strain	-11.2433
▁1958	-11.2434
▁Quebec	-11.2435
▁$100	-11.2435
▁worn	-11.2435
▁Arm	-11.2437
▁dose	-11.244
▁bow	-11.2443
▁reign	-11.2443
▁jewelry	-11.2445
▁flower	-11.2447
▁palm	-11.2447
▁Marc	-11.2447
▁Cold	-11.2449
sburg	-11.2452
▁info	-11.2457
▁Mir	-11.2461
▁Plus	-11.2462
▁suggesting	-11.2465
▁coaching	-11.2466
▁daughters	-11.2468
▁Sales	-11.2468
▁Change	-11.2472
▁Coach	-11.2474
ency	-11.2474
▁promising	-11.2475
NC	-11.2477
rry	-11.2478
▁pound	-11.2479
▁Currently	-11.248
▁OPTIONAL	-11.2481
▁sin	-11.2482
rac	-11.2482
this	-11.2484
tie	-11.2485
▁bloody	-11.2486
▁Twitter	-11.2487
▁incidents	-11.2489
▁defender	-11.249
▁adjacent	-11.2491
▁checking	-11.2494
tam	-11.2494
▁gasoline	-11.2497
▁Wild	-11.2498
tive	-11.2498
▁presents	-11.2498
▁rep	-11.2501
▁cave	-11.2502
▁regulatory	-11.2502
▁1946	-11.2502
nut	-11.2503
▁folk	-11.2509
▁Luis	-11.251
ille	-11.2511
▁Mai	-11.2513
vor	-11.2513
where	-11.2515
rn	-11.2517
▁muscles	-11.2519
AB	-11.252
▁territories	-11.2521
▁revised	-11.2522
▁handled	-11.2524
▁Arkansas	-11.2525
good	-11.2525
▁speakers	-11.2529
▁dual	-11.2531
▁Remember	-11.2531
there	-11.2532
▁Ak	-11.2535
lou	-11.2536
▁staring	-11.2537
▁IP	-11.2538
▁rocks	-11.254
▁wings	-11.2542
stic	-11.2542
Po	-11.2547
▁patent	-11.2548
▁inspection	-11.255
shan	-11.255
▁feared	-11.2551
▁reaches	-11.2551
▁Hurricane	-11.2552
kel	-11.2554
▁basket	-11.2559
▁Maine	-11.256
▁arriving	-11.2562
▁aired	-11.2562
▁missions	-11.2564
▁detect	-11.2564
▁emerge	-11.2564
ule	-11.2566
▁inspiration	-11.2567
pra	-11.2567
tr	-11.2569
track	-11.2575
▁publish	-11.2576
▁transit	-11.2577
▁influential	-11.258
▁sauce	-11.2581
▁violations	-11.2581
NE	-11.2583
boat	-11.2583
▁2:	-11.2584
▁continent	-11.2588
ben	-11.2589
▁stops	-11.2591
▁literally	-11.2592
▁Char	-11.2592
▁Along	-11.2595
▁railroad	-11.2596
▁Hell	-11.2597
▁patrol	-11.2598
pass	-11.2599
▁hurricane	-11.2599
▁dancing	-11.26
▁impose	-11.26
▁loop	-11.2603
▁engineers	-11.2603
▁chemicals	-11.2606
▁painful	-11.2608
▁temporarily	-11.2609
▁Total	-11.2613
▁trigger	-11.2617
▁gaining	-11.2617
▁vegetables	-11.2617
▁deny	-11.2618
ically	-11.2619
▁Zi	-11.262
nal	-11.2622
▁Asked	-11.2623
▁mall	-11.2623
▁hyper	-11.2626
ester	-11.2626
▁acknowledge	-11.2631
▁Spa	-11.2633
▁Emperor	-11.2634
▁subscription	-11.2634
▁neuro	-11.2634
kes	-11.2635
▁seeds	-11.2641
!!	-11.2644
▁achievement	-11.2645
▁earliest	-11.2649
▁dam	-11.265
cia	-11.265
verse	-11.265
▁defended	-11.265
▁pilots	-11.2652
▁naval	-11.2653
▁Dream	-11.2653
▁judicial	-11.2654
itis	-11.2658
rr	-11.266
▁68	-11.2661
▁Ukrainian	-11.2662
▁economies	-11.2662
▁counts	-11.2662
MT	-11.2665
▁im	-11.2667
▁cabin	-11.2669
▁viewing	-11.2669
▁shed	-11.2672
Fa	-11.2672
▁adoption	-11.2674
▁17,	-11.2674
▁Gui	-11.2675
2000	-11.2676
▁cooperate	-11.2677
▁Base	-11.2679
▁Vienna	-11.2681
▁Try	-11.2681
▁emotions	-11.2682
▁Socialist	-11.2683
▁3,000	-11.2684
▁Fame	-11.2685
▁Amazon	-11.269
▁dirt	-11.2691
▁focuses	-11.2692
▁Sean	-11.2692
▁forgotten	-11.2692
▁tribal	-11.2694
▁15,	-11.2699
OT	-11.27
▁praise	-11.2701
▁photography	-11.2706
▁MA	-11.2709
▁consulting	-11.2712
▁interaction	-11.2713
▁Gene	-11.2714
▁Content	-11.2715
▁dominant	-11.2719
▁scared	-11.2719
▁iPhone	-11.2722
▁deemed	-11.2725
▁cattle	-11.2725
▁healthcare	-11.2728
▁25,	-11.273
looking	-11.2735
▁Investment	-11.2741
▁202	-11.2741
may	-11.2743
▁amongst	-11.2743
TH	-11.2744
▁Shu	-11.275
▁<	-11.275
▁attorneys	-11.2753
▁interactive	-11.2753
▁Stan	-11.2753
▁Assistant	-11.2753
dor	-11.2754
▁Gill	-11.2755
▁Portland	-11.2757
▁dependent	-11.2757
▁transform	-11.2758
lly	-11.276
▁initiatives	-11.2761
LO	-11.2762
trans	-11.2762
▁Snow	-11.2763
▁mainstream	-11.2764
AR	-11.2767
▁Mus	-11.2767
▁damn	-11.2768
arm	-11.2768
▁satisfaction	-11.2772
▁momentum	-11.2776
▁picking	-11.2778
▁Bernard	-11.2779
▁Lar	-11.2783
▁Pin	-11.2783
▁hunt	-11.2784
▁pledge	-11.2787
▁innovation	-11.2789
▁earning	-11.2792
▁Shin	-11.2794
▁Model	-11.2795
▁Monte	-11.2796
rating	-11.2796
▁Norman	-11.2796
▁closest	-11.2798
▁determination	-11.2798
▁cord	-11.2798
▁Relations	-11.2799
mond	-11.2799
Hey	-11.28
▁rubber	-11.2804
general	-11.2805
iness	-11.2806
▁lasted	-11.2806
▁integrity	-11.2811
▁holidays	-11.2813
ava	-11.2814
▁Au	-11.2814
▁exploded	-11.2816
▁indoor	-11.2817
▁Modern	-11.2819
vid	-11.2823
▁inhabitants	-11.2823
▁Article	-11.2825
▁1957	-11.2825
▁85	-11.2826
▁garage	-11.2827
▁clinic	-11.2829
▁contacts	-11.2833
▁stance	-11.2835
▁Brussels	-11.2836
▁16,	-11.2838
▁Tiger	-11.2839
▁Gan	-11.2839
▁proceed	-11.284
▁waist	-11.284
late	-11.2843
▁enterprises	-11.2844
▁incredible	-11.2845
▁Everyone	-11.2845
load	-11.2845
bol	-11.2847
▁tag	-11.2849
AT	-11.2852
▁gate	-11.2853
▁VI	-11.2858
▁Hungary	-11.2858
▁concepts	-11.2858
▁tours	-11.286
▁impressed	-11.2861
▁mechanical	-11.2863
▁generations	-11.2867
ote	-11.287
▁Ran	-11.287
ites	-11.2871
size	-11.2872
▁Lan	-11.2873
▁uncle	-11.2874
cht	-11.2877
pet	-11.2878
▁poet	-11.2878
▁universal	-11.2878
CM	-11.2884
▁magazines	-11.2885
Maybe	-11.289
▁Liu	-11.289
▁thinks	-11.289
▁Wei	-11.2894
▁closure	-11.2895
CA	-11.2895
▁Sol	-11.2897
dr	-11.2901
sel	-11.2904
▁ST	-11.2904
▁Start	-11.2905
▁Kings	-11.2905
▁bearing	-11.291
▁existed	-11.2911
▁playoffs	-11.2911
▁Agriculture	-11.2913
▁identification	-11.2913
▁motorcycle	-11.2913
▁veterans	-11.2917
▁Franklin	-11.2919
▁Nan	-11.2919
tric	-11.292
▁investigations	-11.292
▁pressing	-11.2922
▁Should	-11.2924
▁Haiti	-11.2925
ori	-11.2925
ates	-11.2925
▁profession	-11.2925
▁prevention	-11.2925
▁appeals	-11.2925
▁Township	-11.2927
▁damages	-11.2929
▁mild	-11.293
▁CAN	-11.293
▁tracking	-11.2931
▁Fall	-11.2932
▁diversity	-11.2933
Some	-11.2933
lent	-11.2936
Un	-11.2938
▁1939	-11.2938
white	-11.2942
▁Victor	-11.2942
▁forests	-11.2943
▁odds	-11.2943
▁Luke	-11.2944
▁diplomat	-11.2944
CD	-11.2944
▁Terry	-11.2944
▁acceptable	-11.2945
▁convenient	-11.2947
▁restricted	-11.2951
▁Would	-11.2952
▁Vladimir	-11.2952
▁loaded	-11.2953
▁versus	-11.2955
ement	-11.2957
lac	-11.2961
▁belong	-11.2962
▁App	-11.2963
adi	-11.2966
700	-11.2966
HS	-11.2966
▁divisions	-11.2967
▁alien	-11.297
▁sophisticated	-11.2971
▁Wen	-11.2971
▁rugby	-11.2975
▁stairs	-11.2975
▁Nepal	-11.2975
▁outlook	-11.2976
▁workshop	-11.2976
▁cousin	-11.2981
▁76	-11.2984
▁midfielder	-11.2985
▁Az	-11.2985
▁counterpart	-11.2987
▁supplied	-11.2989
▁diabetes	-11.2994
▁trap	-11.2994
une	-11.2998
▁AC	-11.3004
lim	-11.3004
▁Reform	-11.3005
▁Chelsea	-11.3007
▁Belgian	-11.3007
ear	-11.3008
▁turnover	-11.3008
▁applying	-11.301
final	-11.301
handed	-11.3014
▁militia	-11.3015
▁minds	-11.3015
▁makers	-11.302
▁challenged	-11.3025
▁cart	-11.3025
▁discipline	-11.3026
PT	-11.3028
▁continuous	-11.3028
▁instantly	-11.3028
▁crops	-11.303
tte	-11.3031
vision	-11.3032
▁Margaret	-11.3033
▁Penn	-11.3033
stock	-11.3034
▁torture	-11.3035
▁Sara	-11.3035
▁plug	-11.3039
▁67	-11.3039
ih	-11.3043
▁Consumer	-11.3046
▁resign	-11.3047
rous	-11.3047
▁dear	-11.305
▁newsletter	-11.305
▁Hen	-11.3053
▁spare	-11.3053
▁Il	-11.3053
wed	-11.3054
AH	-11.3058
▁fake	-11.306
▁contents	-11.3061
▁releases	-11.3061
▁Speaking	-11.3062
▁radiation	-11.3062
▁SP	-11.3064
ass	-11.3065
▁generic	-11.3066
▁airlines	-11.3067
▁1953	-11.3071
esh	-11.3074
#	-11.3074
▁LA	-11.3075
hom	-11.3077
sar	-11.3079
▁arena	-11.308
▁tube	-11.3084
▁Seoul	-11.3086
%	-11.3086
ending	-11.3087
▁jaw	-11.3087
uz	-11.3087
▁Moreover	-11.3089
▁lending	-11.309
▁drag	-11.309
▁Being	-11.3092
▁Help	-11.3094
Je	-11.3095
▁tens	-11.3095
▁grace	-11.3096
▁Tigers	-11.3097
▁meals	-11.3099
▁Learn	-11.3101
lla	-11.3103
▁audit	-11.3105
▁Salt	-11.3105
▁marking	-11.3109
▁activist	-11.3109
▁collections	-11.3111
▁Doctor	-11.3111
▁Rich	-11.3112
▁consisted	-11.3113
▁carpet	-11.3114
▁rape	-11.3116
▁Step	-11.3118
▁completing	-11.3118
▁pile	-11.3118
▁61	-11.3119
pla	-11.312
▁Form	-11.312
▁reject	-11.3124
▁Ny	-11.3124
▁safely	-11.3125
▁Gla	-11.3126
▁Evans	-11.3126
tta	-11.3127
▁Ob	-11.3137
casinowww	-11.3139
iri	-11.3142
▁retained	-11.3143
▁Kent	-11.3145
▁teen	-11.3147
▁NOT	-11.3148
▁instruction	-11.315
▁gambling	-11.315
▁combine	-11.3154
▁Lang	-11.3154
▁surge	-11.3156
pha	-11.3156
bad	-11.3157
largest	-11.3164
▁minimal	-11.3165
▁phrase	-11.3166
▁1955	-11.3167
▁Lou	-11.3169
▁anxiety	-11.3171
live	-11.3173
▁stating	-11.3174
gre	-11.3174
▁Census	-11.3177
▁graphic	-11.3178
ffer	-11.3182
▁peer	-11.3182
▁Kha	-11.3185
▁Linux	-11.3185
▁Colin	-11.3186
▁frustration	-11.3187
▁Fo	-11.3188
▁Kam	-11.3189
cam	-11.3195
▁commissioned	-11.3198
▁figured	-11.3198
▁touchdown	-11.3198
▁screening	-11.32
▁enabled	-11.32
▁Queensland	-11.3202
▁Madison	-11.3203
▁MS	-11.3203
▁physically	-11.3207
▁accomplished	-11.3208
▁Annan	-11.3209
▁Kit	-11.321
▁Ward	-11.3212
nc	-11.3212
Free	-11.3212
acre	-11.3213
▁politically	-11.3214
▁patch	-11.3221
▁significance	-11.3221
ager	-11.3224
▁nest	-11.3225
▁foul	-11.3231
▁parks	-11.3232
▁pending	-11.3232
▁Buy	-11.3233
▁donations	-11.3236
▁certificate	-11.3237
▁spectacular	-11.3237
▁drives	-11.3238
▁da	-11.3239
▁donated	-11.3241
▁applicable	-11.3244
▁proceedings	-11.3244
▁wildlife	-11.3245
▁amendment	-11.3251
gas	-11.3252
▁Todd	-11.3252
▁consistently	-11.3254
▁organisations	-11.3254
▁Broadway	-11.3259
▁oxygen	-11.3261
▁Leon	-11.3262
▁surprising	-11.3262
▁Hay	-11.3262
▁1954	-11.3263
▁reserved	-11.3264
ello	-11.3264
▁laser	-11.3265
▁desperate	-11.3266
▁Further	-11.3267
hoo	-11.3267
▁keyboard	-11.3268
▁stopping	-11.3269
bot	-11.3269
shirt	-11.3271
▁Cooper	-11.3271
▁knock	-11.3276
▁1943	-11.3276
▁Pla	-11.3277
▁Geneva	-11.3277
▁grain	-11.3279
▁timing	-11.3279
▁Too	-11.3279
▁lovely	-11.3281
ried	-11.3281
▁Iron	-11.3284
▁Hat	-11.3287
▁labour	-11.3288
2,000	-11.3288
▁listings	-11.3289
▁Dia	-11.3291
▁Gallery	-11.3291
▁declare	-11.3292
Ac	-11.3294
▁traditionally	-11.3296
▁negotiating	-11.3303
▁conducting	-11.3303
▁unexpected	-11.3304
▁fed	-11.3304
sie	-11.3304
BI	-11.3305
▁subsidiary	-11.3307
CO	-11.3309
▁attacking	-11.331
RT	-11.3311
▁confirmation	-11.3313
AU	-11.3318
▁Him	-11.332
▁healing	-11.332
friendly	-11.3321
▁Looking	-11.3323
ls	-11.3323
▁bones	-11.3324
▁Xinhua	-11.3325
best	-11.3325
▁insurgents	-11.3327
▁boundaries	-11.3328
▁Student	-11.3329
rel	-11.3331
mble	-11.3337
▁investor	-11.3338
▁sizes	-11.3341
▁colonial	-11.3343
▁dish	-11.3345
▁treatments	-11.3345
▁refugee	-11.3346
▁mystery	-11.3348
phy	-11.3348
▁Crown	-11.3349
▁demonstration	-11.3349
▁Parker	-11.335
▁20,	-11.335
▁Kurdish	-11.3351
dit	-11.3351
▁objectives	-11.3354
▁Liberation	-11.3354
▁Lane	-11.3356
▁shocked	-11.3358
▁shuttle	-11.3361
▁pointing	-11.3363
▁Electric	-11.3364
▁reconstruction	-11.3365
▁favourite	-11.3366
▁resist	-11.3368
gle	-11.337
▁Sign	-11.3372
▁excessive	-11.3374
▁hybrid	-11.3378
▁grid	-11.3379
▁longtime	-11.3379
▁signature	-11.3383
▁copper	-11.3383
shot	-11.3385
ways	-11.3385
share	-11.3386
▁Wind	-11.3387
▁layout	-11.3387
▁refuse	-11.339
▁fierce	-11.339
BO	-11.3391
EP	-11.3392
▁functional	-11.3393
▁flows	-11.3395
▁weird	-11.3396
▁Never	-11.3396
▁organ	-11.3397
▁humanity	-11.3398
▁Political	-11.3398
▁sink	-11.3401
▁ghost	-11.3405
▁inspectors	-11.3407
▁landmark	-11.3407
▁surrender	-11.341
▁charts	-11.3421
▁surplus	-11.3422
▁icon	-11.3423
▁Say	-11.3424
▁bail	-11.3425
▁Masters	-11.3425
▁babies	-11.3429
nik	-11.343
cing	-11.3432
▁Johnny	-11.3434
See	-11.3435
▁conviction	-11.3436
▁Th	-11.3438
▁pricing	-11.3439
▁distant	-11.3439
▁underlying	-11.3442
hur	-11.3444
▁codes	-11.3444
hum	-11.3445
ago	-11.3445
▁1952	-11.3448
▁warming	-11.3449
ien	-11.3452
▁makeup	-11.3452
▁tribute	-11.3452
▁girlfriend	-11.3453
▁1993,	-11.3456
▁payday	-11.3457
▁receiver	-11.3461
mbo	-11.3462
▁Congo	-11.3462
▁kilometres	-11.3464
▁Prix	-11.3466
LT	-11.3468
▁mouse	-11.3469
▁organize	-11.3471
▁settlements	-11.3472
▁Sierra	-11.3473
rim	-11.3475
▁Robin	-11.3476
▁AM	-11.3476
wen	-11.3478
▁thumb	-11.348
▁victories	-11.348
IF	-11.3483
▁enjoying	-11.3485
▁conflicts	-11.3487
▁documentation	-11.3491
▁admission	-11.3491
▁Everything	-11.3491
▁discussing	-11.3492
▁Based	-11.3494
▁puts	-11.3494
eli	-11.3496
▁hiring	-11.3499
lick	-11.35
▁Justin	-11.3502
RS	-11.3502
▁acceptance	-11.3503
chen	-11.3503
▁flexibility	-11.3507
▁ensuring	-11.3507
▁Kate	-11.3508
stead	-11.3509
▁specialized	-11.3509
▁Micro	-11.3511
▁tri	-11.3511
▁trapped	-11.3511
▁wishes	-11.3516
▁surveillance	-11.3517
▁solely	-11.352
▁parade	-11.3525
▁colleges	-11.3526
cum	-11.3527
ae	-11.3527
▁foreigners	-11.3528
ied	-11.3529
ides	-11.3532
▁Hol	-11.3533
▁vocal	-11.3533
▁wrap	-11.3533
▁consisting	-11.3534
▁SO	-11.3535
▁Freedom	-11.3535
▁indication	-11.3536
▁experimental	-11.354
▁Mediterranean	-11.3541
▁respected	-11.3542
▁fifteen	-11.3545
▁Flash	-11.3547
roy	-11.3549
▁Fra	-11.3549
▁Golf	-11.3551
olo	-11.3552
▁adjust	-11.3553
▁vampire	-11.3561
▁Zo	-11.3561
ups	-11.3567
▁Kra	-11.3569
▁artificial	-11.3569
▁correctly	-11.357
▁Mobile	-11.357
▁sisters	-11.3571
▁dealt	-11.3573
▁killer	-11.3575
ras	-11.3581
▁Nevada	-11.3583
▁Analysts	-11.3583
ili	-11.3584
▁wisdom	-11.3586
▁5,000	-11.3586
▁attendance	-11.3588
▁tribunal	-11.3589
▁Capitol	-11.3589
HR	-11.359
▁electronics	-11.3591
▁Wy	-11.3593
▁identical	-11.3594
▁surely	-11.3595
▁cheaper	-11.3595
▁displays	-11.3598
▁internationally	-11.3598
makers	-11.3598
▁outfit	-11.3599
▁verdict	-11.36
▁nonprofit	-11.3602
▁Iraqis	-11.3603
▁tactics	-11.3606
▁heating	-11.3613
▁edited	-11.3615
▁Collins	-11.3617
sum	-11.3617
▁stones	-11.3619
▁Fan	-11.3619
▁___	-11.3622
Ka	-11.3623
▁treasure	-11.3623
▁Select	-11.3628
what	-11.3629
▁Short	-11.3632
▁glance	-11.3633
▁humor	-11.3633
shaped	-11.3634
▁sparked	-11.3636
ii	-11.3637
▁pants	-11.3637
eta	-11.3637
▁assassination	-11.3638
▁describing	-11.3638
▁wages	-11.3639
▁Mars	-11.3639
▁enables	-11.364
▁convenience	-11.3641
court	-11.3642
nam	-11.3644
wall	-11.3645
ister	-11.3651
▁gentle	-11.3652
say	-11.3653
chy	-11.3654
▁ought	-11.3654
usa	-11.3654
▁township	-11.3656
rio	-11.3656
▁Opera	-11.3657
▁von	-11.3658
▁Sin	-11.3659
▁prevented	-11.3663
web	-11.3664
▁Speaker	-11.3665
▁ankle	-11.3666
▁reflects	-11.3666
▁yard	-11.3667
step	-11.3669
▁curb	-11.367
▁bureau	-11.367
▁steal	-11.3671
▁sir	-11.3672
els	-11.3672
eri	-11.3673
▁medals	-11.3673
▁removing	-11.3673
▁Bird	-11.3673
▁69	-11.3674
▁settlers	-11.3677
▁accommodation	-11.3681
building	-11.3682
pul	-11.3683
▁credited	-11.3685
▁scientist	-11.3686
▁Dublin	-11.3688
▁Buffalo	-11.369
▁pursuit	-11.369
▁manufactured	-11.369
mun	-11.3691
▁Roberts	-11.3692
▁Rodriguez	-11.3695
▁buses	-11.3696
▁dock	-11.3697
▁amateur	-11.3697
▁carriers	-11.3702
▁curriculum	-11.3704
dlrs	-11.3704
▁Bobby	-11.3711
▁Treaty	-11.3711
▁drinks	-11.3711
mber	-11.3716
▁networking	-11.372
▁Gates	-11.372
▁Ambassador	-11.3721
▁withdrew	-11.3721
▁examined	-11.3722
▁Transportation	-11.3722
AF	-11.3723
▁Zu	-11.3726
▁tab	-11.373
▁fever	-11.3731
▁Bond	-11.3733
onic	-11.3734
uf	-11.3735
▁Side	-11.3735
▁Embassy	-11.3735
▁alternate	-11.3735
▁partial	-11.3737
▁Yugoslav	-11.3738
▁concentrate	-11.3738
▁developer	-11.3738
▁Ven	-11.3738
▁Trail	-11.374
▁Taipei	-11.3742
▁firmly	-11.3742
▁jacket	-11.3745
▁restoration	-11.3749
▁smiling	-11.3749
▁NHL	-11.3751
▁prince	-11.3752
▁Personal	-11.3752
▁composer	-11.3753
▁footballer	-11.3753
▁invested	-11.3755
▁partially	-11.3757
▁overwhelming	-11.3757
▁followers	-11.3759
▁SE	-11.3762
▁distribute	-11.3762
▁lineup	-11.3764
▁orbit	-11.3767
▁Guy	-11.3769
▁snapped	-11.377
▁Gal	-11.3771
▁runner	-11.3772
cess	-11.3774
▁Albanian	-11.3776
▁Glen	-11.3779
▁midnight	-11.3782
▁mud	-11.3783
▁villa	-11.3785
aunt	-11.3786
tas	-11.3787
▁filter	-11.379
▁orchestra	-11.3791
anna	-11.3794
▁cure	-11.3794
active	-11.3797
▁Brigade	-11.3798
▁Ji	-11.3799
▁73	-11.38
▁balanced	-11.3803
max	-11.3804
▁cancel	-11.3806
▁plea	-11.3807
▁references	-11.3808
▁Pur	-11.3808
▁sighed	-11.381
awa	-11.3812
▁Dark	-11.3818
yne	-11.3819
▁Furthermore	-11.382
▁mature	-11.3824
▁mines	-11.3825
▁Very	-11.3829
▁Drive	-11.3829
▁pump	-11.383
▁Bou	-11.3831
▁shame	-11.3832
▁wise	-11.3834
▁favour	-11.3836
▁matching	-11.3836
▁relax	-11.3842
▁advise	-11.3842
▁NT	-11.3843
▁sits	-11.3844
space	-11.3847
▁exploration	-11.3848
▁bare	-11.3848
▁freed	-11.3849
▁Photo	-11.3849
▁merged	-11.3854
▁Given	-11.3854
▁shrugged	-11.3855
▁marry	-11.3855
▁shouted	-11.3856
PL	-11.3856
duct	-11.3857
▁translated	-11.3863
OH	-11.3863
Vi	-11.3863
▁questioning	-11.3863
▁quake	-11.3863
▁Player	-11.3865
Ja	-11.3868
▁bullet	-11.3873
woman	-11.3873
▁Pay	-11.3875
EM	-11.3877
▁inning	-11.3879
▁serial	-11.388
▁genuine	-11.3882
▁fatal	-11.3882
▁locally	-11.3887
plo	-11.3889
▁Uganda	-11.3891
▁themes	-11.3893
MO	-11.3897
sex	-11.3899
▁exclusively	-11.39
▁divide	-11.3903
▁Estate	-11.3909
ines	-11.3909
▁collecting	-11.391
ved	-11.3919
Na	-11.392
▁bother	-11.3922
▁whilst	-11.3926
▁Chase	-11.3935
▁tribes	-11.3935
▁cow	-11.394
ced	-11.3941
▁Death	-11.3942
▁kit	-11.3945
▁Tam	-11.3945
▁affiliate	-11.3946
▁boots	-11.3948
▁71	-11.3949
Look	-11.3951
elected	-11.3955
▁monetary	-11.3962
▁urging	-11.3962
▁Direct	-11.3963
▁evaluate	-11.3967
nate	-11.3967
▁lowered	-11.3968
▁Beau	-11.397
ivity	-11.3972
▁expedition	-11.3976
▁arrange	-11.3979
50,000	-11.3979
▁Around	-11.398
▁capability	-11.398
host	-11.3983
▁Cra	-11.3985
▁habitat	-11.3988
Time	-11.3988
lip	-11.3994
nk	-11.3997
▁inventory	-11.4
▁chill	-11.4003
▁math	-11.4004
▁manufacture	-11.4006
▁rivers	-11.4006
▁boycott	-11.4009
▁mentor	-11.401
▁Mason	-11.4012
▁react	-11.4012
▁exile	-11.4012
▁whereas	-11.4015
▁reminded	-11.4017
▁spy	-11.4018
▁Maj	-11.4018
▁variable	-11.402
▁supplement	-11.402
heim	-11.4021
▁walks	-11.4021
nge	-11.4024
hai	-11.4025
mmer	-11.4028
▁Twenty	-11.4028
▁Intel	-11.403
▁pleasant	-11.403
vari	-11.403
▁Protestant	-11.4031
▁Shop	-11.4032
▁HERE	-11.4032
▁advocates	-11.4033
▁Baptist	-11.4034
▁Blake	-11.4035
▁curious	-11.4036
▁Orthodox	-11.4038
▁charm	-11.404
▁Beth	-11.404
▁78	-11.4042
▁suburb	-11.4042
▁preventing	-11.4043
▁Calif	-11.4043
▁Baseball	-11.4045
▁precious	-11.4045
▁Cy	-11.4046
▁spray	-11.4048
mis	-11.4048
Qu	-11.4048
oe	-11.405
▁Mah	-11.4053
▁visa	-11.4054
▁tragedy	-11.4055
▁rated	-11.4055
▁reward	-11.4056
▁adapted	-11.4056
▁Ay	-11.4058
▁businessman	-11.406
▁kissed	-11.4062
▁edit	-11.4062
▁Buddhist	-11.4062
▁abilities	-11.4062
▁immune	-11.4062
▁1951	-11.4064
▁elegant	-11.4066
TR	-11.4067
▁historian	-11.4067
▁insight	-11.4071
▁Whit	-11.4074
▁Knight	-11.4074
order	-11.408
PR	-11.4083
▁surname	-11.4084
zen	-11.4085
▁perceived	-11.4086
▁assists	-11.4086
▁Tha	-11.4087
lah	-11.4087
▁radar	-11.4088
▁quotes	-11.4088
▁disability	-11.4089
▁Frederick	-11.409
▁artillery	-11.4091
▁applies	-11.4091
▁Comp	-11.4093
▁accidents	-11.4094
▁gesture	-11.4094
▁technological	-11.4095
▁Jake	-11.4096
▁behaviour	-11.4098
▁specify	-11.4098
▁compact	-11.4099
*	-11.41
▁bacteria	-11.41
CT	-11.4101
▁legacy	-11.4103
▁invite	-11.4104
phe	-11.4108
▁95	-11.4109
int	-11.4115
▁trails	-11.4116
▁scan	-11.4116
ome	-11.4117
▁leak	-11.4118
cca	-11.412
▁stunning	-11.412
▁opens	-11.4123
▁feeding	-11.4123
▁structural	-11.4124
▁consult	-11.4124
nor	-11.4127
▁generous	-11.4128
▁aviation	-11.4131
▁cheek	-11.4132
▁Lower	-11.4132
▁grey	-11.4133
show	-11.4135
rash	-11.4135
lag	-11.4136
▁Kon	-11.4136
▁dramatically	-11.4136
▁transformation	-11.4136
▁coordinator	-11.4138
▁seeks	-11.4139
▁trailer	-11.414
SB	-11.414
▁accomplish	-11.414
▁obligation	-11.4141
▁pitcher	-11.4142
▁buyer	-11.4143
etta	-11.4144
▁simultaneously	-11.4146
▁alter	-11.4146
finals	-11.4148
▁massacre	-11.415
▁Kas	-11.4151
Gu	-11.4151
pen	-11.4151
▁Somalia	-11.4153
▁rope	-11.4154
lation	-11.4156
▁$20	-11.4156
▁rebounds	-11.4161
▁diamond	-11.4161
▁locate	-11.4164
nn	-11.4167
CB	-11.4169
rit	-11.417
▁outer	-11.4172
▁tenure	-11.4173
▁rap	-11.4176
▁Tell	-11.4177
rou	-11.4178
num	-11.4179
▁grandfather	-11.4184
▁Put	-11.4185
▁Turner	-11.4185
▁ID	-11.4186
▁trace	-11.4189
▁Nicholas	-11.4189
▁Limited	-11.419
▁relay	-11.4193
▁IV	-11.4193
▁effectiveness	-11.4197
▁disputed	-11.4198
lov	-11.4199
6,000	-11.4199
▁servers	-11.42
▁Universal	-11.4202
▁awesome	-11.4204
▁Future	-11.4205
▁Casino	-11.4206
▁Rain	-11.4206
▁catalog	-11.4206
OO	-11.4208
▁Med	-11.4211
▁Garcia	-11.4212
▁neighbor	-11.4212
▁disputes	-11.4214
▁triggered	-11.4214
▁interviewed	-11.4215
main	-11.4215
▁Murphy	-11.4215
▁populations	-11.4217
4,000	-11.4218
▁whisper	-11.4219
vir	-11.422
▁Kor	-11.4221
government	-11.4222
▁shorter	-11.4226
bingo	-11.4226
▁unprecedented	-11.4226
▁Var	-11.4228
▁blew	-11.423
aba	-11.423
▁athletic	-11.4231
▁entity	-11.4234
▁contributing	-11.4237
▁Princess	-11.424
▁avoided	-11.4241
▁None	-11.4242
▁corporation	-11.4243
▁belonged	-11.4243
▁Eight	-11.4244
▁uranium	-11.4245
▁beliefs	-11.4246
▁AD	-11.425
eur	-11.4253
ld	-11.4253
osis	-11.4257
▁helicopters	-11.426
▁extract	-11.4262
▁finals	-11.4262
▁penalties	-11.4263
▁dawn	-11.4264
▁Ring	-11.4265
▁enhanced	-11.4268
▁imported	-11.4268
▁Poor	-11.427
▁Op	-11.4271
AD	-11.4277
▁suppose	-11.4277
▁Reg	-11.428
▁Der	-11.428
▁condo	-11.4285
FI	-11.4286
Because	-11.4287
▁Dance	-11.429
▁Nancy	-11.4291
▁embrace	-11.4292
▁Heritage	-11.4292
▁FDA	-11.4293
▁Common	-11.4293
▁Guinea	-11.4296
▁viagra	-11.4297
anti	-11.4299
▁resumed	-11.4303
▁broker	-11.4303
stage	-11.4303
▁possibilities	-11.4304
they	-11.4304
▁scenario	-11.4306
▁Conservative	-11.4306
▁footage	-11.4308
Jo	-11.431
lier	-11.4311
▁clicking	-11.4313
▁entries	-11.4319
▁nights	-11.432
▁advances	-11.4321
▁Vatican	-11.4322
▁Neither	-11.4323
▁Chamber	-11.4324
▁Regiment	-11.4326
▁Number	-11.4326
▁pleaded	-11.4327
arian	-11.4327
dai	-11.4327
▁Type	-11.4328
▁anticipated	-11.433
mouth	-11.433
ids	-11.433
▁snap	-11.4331
▁Table	-11.4331
▁Blood	-11.4334
chin	-11.4334
▁surgeon	-11.4334
Come	-11.4336
zh	-11.4336
CF	-11.4337
▁FIFA	-11.4337
▁ranch	-11.434
▁Malaysian	-11.434
RM	-11.4343
▁youngest	-11.4344
lad	-11.4346
▁dirty	-11.4346
▁keen	-11.4347
feld	-11.4347
▁gut	-11.4349
▁hostage	-11.4352
▁occasional	-11.4354
▁77	-11.4355
▁initiated	-11.4356
cost	-11.4358
▁soap	-11.4358
service	-11.4359
▁Birmingham	-11.4359
▁Cincinnati	-11.4359
▁globe	-11.4362
lat	-11.4365
ook	-11.4366
language	-11.4366
▁Oakland	-11.4372
GB	-11.4373
▁suits	-11.4375
▁Muhammad	-11.4378
▁PM	-11.4385
▁staged	-11.4386
▁platforms	-11.4389
▁Season	-11.4389
▁Name	-11.439
▁Imp	-11.439
tting	-11.439
▁delivering	-11.439
▁differ	-11.4394
▁rhythm	-11.4395
▁liver	-11.4398
▁Jacques	-11.4398
▁1900	-11.4399
▁dip	-11.4399
En	-11.4401
▁retire	-11.4402
▁sheep	-11.4404
▁trackback	-11.4405
▁deserve	-11.4405
▁Jun	-11.4406
▁twist	-11.4407
▁undergraduate	-11.4409
▁Turn	-11.4411
▁convoy	-11.4412
▁scholarship	-11.4413
exp	-11.4413
▁decent	-11.4414
buy	-11.4414
▁legally	-11.4414
▁lenders	-11.4417
▁1918	-11.4419
▁Magic	-11.4419
▁Ted	-11.4421
▁corresponding	-11.4421
cious	-11.4423
▁futures	-11.4423
▁Joint	-11.443
▁Zone	-11.443
▁arguing	-11.443
aga	-11.4431
coming	-11.4431
▁accessories	-11.4431
▁shaking	-11.4431
▁quarters	-11.4433
▁Argentine	-11.4434
▁Croatian	-11.4434
▁IMF	-11.4436
▁Pete	-11.4438
▁retailers	-11.4439
core	-11.4439
▁Something	-11.444
▁projected	-11.444
▁experiments	-11.4441
▁Technical	-11.4441
ique	-11.4448
▁suppliers	-11.4448
▁Bag	-11.4448
▁Hunt	-11.445
CU	-11.4454
▁Workers	-11.4455
▁contacted	-11.4455
▁poem	-11.4455
thro	-11.4457
▁Survey	-11.446
▁disclosure	-11.446
▁desktop	-11.4461
▁designers	-11.4461
inger	-11.4462
▁Castro	-11.4462
▁Rachel	-11.4464
▁painter	-11.4465
▁statue	-11.4466
▁bug	-11.4466
▁advisor	-11.4466
▁Intelligence	-11.4468
logy	-11.4469
▁cloth	-11.4469
evo	-11.4469
▁silk	-11.4469
grand	-11.4471
▁advantages	-11.4471
base	-11.4472
▁20,000	-11.4475
▁wash	-11.4475
▁Musharraf	-11.4475
▁distinction	-11.4477
▁barrier	-11.4477
▁intensity	-11.4479
aria	-11.448
bang	-11.4481
▁appealed	-11.4481
▁highlight	-11.4483
▁pipe	-11.4486
▁uncertainty	-11.4488
CH	-11.4489
▁Vincent	-11.4491
▁Cairo	-11.4491
ose	-11.4492
▁Annual	-11.4494
▁fool	-11.4495
▁hills	-11.4497
▁Mari	-11.4498
▁opt	-11.4499
slots	-11.4499
miss	-11.45
▁chairs	-11.45
▁spaces	-11.45
iva	-11.4501
▁tribe	-11.4502
ahl	-11.4503
▁Commander	-11.4505
▁Aaron	-11.4506
▁Ridge	-11.4507
▁Theater	-11.4515
▁Laura	-11.4516
ith	-11.4516
▁Want	-11.4516
▁flavor	-11.4516
▁contend	-11.4517
▁toilet	-11.4518
▁punch	-11.4521
▁remainder	-11.4523
▁Metropolitan	-11.4524
▁widow	-11.4524
▁investing	-11.4525
▁fantasy	-11.4525
▁explosives	-11.4525
▁dragon	-11.4529
▁realistic	-11.4529
bay	-11.4529
▁lifting	-11.4531
Sha	-11.4534
▁module	-11.4535
▁offset	-11.4536
▁traditions	-11.4536
▁debts	-11.4537
▁Jam	-11.4537
▁nowhere	-11.454
▁observation	-11.4542
▁freeze	-11.4545
▁bloc	-11.4546
▁oral	-11.4549
Did	-11.4549
▁musician	-11.4552
▁Ker	-11.4554
NO	-11.4554
hl	-11.4554
▁indicating	-11.4555
▁Kay	-11.4555
▁regiment	-11.4555
▁Steel	-11.4557
cid	-11.4557
▁Cas	-11.4557
▁Century	-11.4559
▁rookie	-11.4559
▁wh	-11.4559
▁thread	-11.4561
PD	-11.4561
▁bent	-11.4561
▁Kabul	-11.4563
▁Ever	-11.4563
▁shipped	-11.4564
▁Rather	-11.4565
▁belongs	-11.4567
▁severely	-11.4571
▁1992,	-11.4572
SO	-11.4577
▁robust	-11.4577
ject	-11.4578
▁Helen	-11.4579
lyn	-11.4579
▁cre	-11.4582
TP	-11.4582
rk	-11.4584
▁Stanford	-11.4586
▁counted	-11.4587
Ex	-11.4587
▁grasp	-11.4589
utter	-11.4591
▁oppose	-11.4597
▁Keith	-11.4599
▁loving	-11.46
▁sovereignty	-11.4601
▁110	-11.4602
▁Lind	-11.4602
GO	-11.4603
▁Jiang	-11.4606
hara	-11.4607
▁veto	-11.4607
▁exchanges	-11.4607
▁advocate	-11.4609
▁Raj	-11.461
ough	-11.461
▁clan	-11.4611
▁observe	-11.4611
▁Marie	-11.4612
cru	-11.4612
$3	-11.4612
▁se	-11.4613
▁wholesale	-11.4613
▁SC	-11.4615
▁motivation	-11.4616
pat	-11.4616
▁fortune	-11.4617
▁colony	-11.4618
▁Race	-11.4624
▁deposits	-11.4624
fold	-11.4627
▁gonna	-11.4627
▁obligations	-11.4628
▁sweep	-11.4632
▁connecting	-11.4633
▁Thi	-11.4635
agh	-11.4635
▁toxic	-11.4635
▁Dam	-11.4636
lets	-11.4637
▁triumph	-11.4638
tics	-11.4638
▁rifle	-11.464
▁Late	-11.4641
▁Tur	-11.4643
▁Nobel	-11.4644
▁demonstrations	-11.4644
▁referee	-11.4645
path	-11.4646
▁wheat	-11.4646
▁74	-11.4648
gna	-11.465
▁killings	-11.465
▁delicate	-11.465
▁Marketing	-11.465
ars	-11.465
trip	-11.4654
▁elbow	-11.4654
▁lean	-11.4655
▁consciousness	-11.4655
▁Nat	-11.4656
▁Server	-11.4658
▁Box	-11.4658
▁Bull	-11.4659
After	-11.4659
▁homeless	-11.4661
▁mysterious	-11.4662
▁Money	-11.4663
▁Ronald	-11.4664
fly	-11.4665
▁Yi	-11.4667
▁purchases	-11.4668
ois	-11.4668
▁controlling	-11.4671
aid	-11.4671
taking	-11.4672
emi	-11.4674
▁Reagan	-11.4675
Da	-11.4677
▁Dead	-11.468
▁united	-11.4682
▁inch	-11.4683
▁accepting	-11.4683
▁Pick	-11.4683
▁receives	-11.4684
▁Nine	-11.4684
▁Munich	-11.4685
▁mere	-11.4686
▁Made	-11.4686
▁Eve	-11.4686
tum	-11.4686
▁Globe	-11.4688
▁recipes	-11.4693
▁des	-11.4693
▁Mul	-11.4695
▁rings	-11.47
▁Vietnamese	-11.4701
▁bet	-11.4704
Thank	-11.4704
▁Hans	-11.4704
▁Need	-11.4707
▁worries	-11.4708
▁elect	-11.4708
▁Meeting	-11.4709
ico	-11.4709
rite	-11.471
▁Lieutenant	-11.4712
▁deciding	-11.4712
▁Eddie	-11.4712
imi	-11.4713
▁Shar	-11.4714
▁pole	-11.4714
▁drill	-11.4715
▁conspiracy	-11.4715
Billboard	-11.4719
▁Cambodia	-11.4719
▁cookies	-11.4719
▁fe	-11.472
▁telecommunicati	-11.472
▁farming	-11.4721
▁nod	-11.4721
osa	-11.4722
▁thereby	-11.4723
▁tale	-11.4725
fall	-11.4726
▁francs	-11.4726
▁weakness	-11.4727
▁empire	-11.4727
▁Rico	-11.4729
▁reflection	-11.4732
road	-11.4733
▁Lt	-11.4734
▁Nevertheless	-11.4735
PI	-11.4736
▁privately	-11.4737
▁clash	-11.474
▁Nigerian	-11.4745
▁affecting	-11.4746
blo	-11.4747
▁relaxed	-11.4747
▁Jamie	-11.4748
▁1938	-11.475
▁chaos	-11.4751
▁Vel	-11.4752
▁enforce	-11.4754
▁gunmen	-11.4754
▁1991,	-11.4755
ude	-11.4757
▁grim	-11.4758
▁planted	-11.4759
iel	-11.4761
▁voices	-11.4762
▁laughing	-11.4763
▁scattered	-11.4764
▁Hungarian	-11.4767
▁photographer	-11.4769
▁Belgrade	-11.477
▁1936	-11.4773
▁Description	-11.4774
▁lined	-11.4775
shore	-11.4778
▁productivity	-11.4778
▁Yang	-11.4779
▁afterwards	-11.4779
ender	-11.478
▁farms	-11.4783
ific	-11.4786
▁neutral	-11.4787
▁theft	-11.4787
▁pitched	-11.4789
▁pope	-11.4789
▁Medal	-11.4793
income	-11.4794
▁woods	-11.4796
UP	-11.4797
vie	-11.4799
▁Study	-11.4803
▁sealed	-11.4803
▁Orlando	-11.4808
zar	-11.481
▁recommendation	-11.4811
selling	-11.4817
cad	-11.4819
nell	-11.4819
ages	-11.482
▁spotted	-11.482
▁Construction	-11.4821
▁seemingly	-11.4821
▁modify	-11.4822
▁gauge	-11.4824
hay	-11.4825
▁Virgin	-11.4827
▁binding	-11.4828
▁sake	-11.4828
China	-11.4829
▁noble	-11.483
thy	-11.483
lf	-11.483
▁grin	-11.4831
▁Leader	-11.4832
elect	-11.4837
digit	-11.4837
▁accusations	-11.4837
uv	-11.4837
ech	-11.484
itt	-11.4843
▁spreading	-11.4843
▁dwell	-11.4844
gor	-11.4844
▁sheets	-11.4846
3,000	-11.4846
igan	-11.4847
▁jeans	-11.4848
▁accent	-11.4848
▁$50	-11.4849
▁goalkeeper	-11.4849
▁navigation	-11.4851
▁guerrillas	-11.4852
▁Bin	-11.4853
sol	-11.4855
▁merchant	-11.4857
▁Private	-11.4857
▁Chechnya	-11.4859
▁aides	-11.486
raw	-11.4861
▁Springs	-11.4861
▁aide	-11.4861
pir	-11.4864
▁Yan	-11.4865
▁clay	-11.4866
▁optimistic	-11.487
STORY	-11.4871
WA	-11.4872
▁leaf	-11.4872
▁customs	-11.4874
▁blank	-11.4877
ush	-11.488
▁economists	-11.488
ges	-11.4882
sai	-11.4882
▁refund	-11.4884
gs	-11.4884
▁intelligent	-11.4887
▁Fat	-11.4888
▁photograph	-11.489
▁indigenous	-11.489
▁heir	-11.4894
▁cried	-11.4895
▁Fur	-11.4897
▁Course	-11.4901
▁Mountains	-11.4901
▁assignment	-11.4901
▁Fish	-11.4903
▁Newspapers	-11.4903
bach	-11.4903
▁Worth	-11.4905
▁tense	-11.4907
illo	-11.4909
ML	-11.4912
▁Arsenal	-11.4914
▁extending	-11.4914
▁logic	-11.4916
▁Northwest	-11.4917
▁launching	-11.4918
group	-11.4918
▁grows	-11.4921
▁mold	-11.4921
CR	-11.4922
▁doubled	-11.4924
▁Gabriel	-11.4924
▁excitement	-11.4926
▁characterized	-11.4928
▁Dakota	-11.493
▁CNN	-11.4932
▁1937	-11.4933
▁counting	-11.4934
▁END	-11.4935
▁Lakers	-11.4936
▁wished	-11.4939
▁bishop	-11.4941
odor	-11.4941
▁Zhang	-11.4942
▁risen	-11.4943
▁folder	-11.4944
▁owns	-11.4948
▁explosive	-11.4948
▁Planning	-11.495
▁emotion	-11.495
▁RE	-11.4954
ural	-11.4954
▁plates	-11.4954
▁novels	-11.4955
dell	-11.4957
▁takeover	-11.4958
▁fiber	-11.4961
human	-11.4962
▁surviving	-11.4965
▁crowded	-11.4966
▁Large	-11.4966
▁exploit	-11.4969
ancy	-11.4969
▁Chrysler	-11.4973
scu	-11.4975
▁glasses	-11.4977
gri	-11.4984
▁Chad	-11.4985
▁phenomenon	-11.4985
▁separation	-11.4985
▁Scha	-11.4987
▁Vin	-11.4988
▁flee	-11.499
▁et	-11.499
▁myth	-11.4991
SD	-11.4991
▁Nature	-11.4991
▁Sho	-11.4992
▁feat	-11.4994
▁caution	-11.4994
▁hungry	-11.4999
▁Barr	-11.5001
▁Bulgaria	-11.5003
▁complain	-11.5003
▁precise	-11.5005
▁Visit	-11.5011
▁SEC	-11.5014
▁Urban	-11.5018
▁spur	-11.5019
▁Lisa	-11.502
▁joke	-11.5021
▁workplace	-11.5021
iest	-11.5023
▁battles	-11.5024
▁disclose	-11.5026
▁Books	-11.5031
▁prisoner	-11.5032
Mr	-11.5033
▁fifty	-11.5033
▁prop	-11.5033
▁consultation	-11.5035
Am	-11.5038
▁Pol	-11.5039
▁specialists	-11.504
▁speaks	-11.5045
▁canceled	-11.5046
▁PDF	-11.5046
zon	-11.505
▁volumes	-11.5051
door	-11.5057
▁protocol	-11.5058
▁motivated	-11.5059
▁Ry	-11.5059
▁Culture	-11.5061
▁Track	-11.5066
▁Persian	-11.5067
BR	-11.5067
▁Pearl	-11.5069
abad	-11.507
▁McG	-11.5076
rri	-11.5082
▁tub	-11.5084
▁BA	-11.5086
brand	-11.5091
▁anchor	-11.5091
▁Nation	-11.5093
▁softly	-11.5094
aught	-11.5095
lk	-11.5096
▁Jennifer	-11.5097
▁batteries	-11.5097
▁Danny	-11.5099
MR	-11.5101
▁separately	-11.5102
WE	-11.5104
▁distinguished	-11.5104
▁Latino	-11.5105
▁Josh	-11.5109
pit	-11.5109
▁Ivan	-11.5111
▁stiff	-11.5113
▁Libya	-11.5114
jack	-11.5115
▁absorb	-11.5118
▁keys	-11.5119
case	-11.512
▁Working	-11.5121
▁Hockey	-11.5121
strong	-11.5122
▁Mau	-11.5124
▁composite	-11.5125
▁Almost	-11.5127
tail	-11.5127
▁epi	-11.5131
▁arrests	-11.5134
fusion	-11.5136
▁genre	-11.5137
▁diagnosis	-11.5137
▁commentary	-11.5137
May	-11.5139
▁testified	-11.5139
▁approaching	-11.5139
▁Welcome	-11.5141
vas	-11.5141
▁construct	-11.5141
▁crackdown	-11.5141
▁Bradley	-11.5142
▁Secret	-11.5144
900	-11.5145
gli	-11.5145
▁Cameron	-11.5145
▁arise	-11.5145
▁panels	-11.5146
▁lung	-11.5147
▁lightly	-11.515
first	-11.5151
▁physics	-11.5151
▁Ok	-11.5151
lton	-11.5153
▁Bangkok	-11.5153
▁Horse	-11.5155
▁corrupt	-11.5156
▁pray	-11.5157
▁Hillary	-11.5157
▁Whatever	-11.5159
▁Dubai	-11.5161
▁oven	-11.5166
▁sang	-11.5167
▁dated	-11.5168
▁donors	-11.5168
pes	-11.5171
▁secrets	-11.5172
▁basement	-11.5176
▁loves	-11.5176
print	-11.5177
▁Nebraska	-11.5177
▁wars	-11.5178
cla	-11.5178
▁adaptation	-11.5178
▁demon	-11.5179
▁strongest	-11.518
▁manuscript	-11.5189
▁sank	-11.5191
money	-11.5192
pac	-11.5193
▁flooding	-11.5194
MORE	-11.5194
▁dive	-11.5195
▁thrust	-11.5196
▁ports	-11.5199
uro	-11.5202
▁dishes	-11.5203
▁rebound	-11.5205
▁Share	-11.5206
▁intersection	-11.5207
self	-11.5209
▁decides	-11.521
▁climbing	-11.5212
wheel	-11.5213
▁skilled	-11.5217
▁Collection	-11.5218
dow	-11.5218
three	-11.5219
▁addressing	-11.5221
▁lobby	-11.5222
▁maintains	-11.5224
sign	-11.5225
thirds	-11.5226
▁Lucas	-11.5229
▁Heat	-11.523
▁anonymous	-11.523
▁diameter	-11.523
▁Mohammad	-11.5234
▁Tournament	-11.5239
▁freely	-11.5239
▁taxi	-11.5242
▁Circuit	-11.5242
▁brush	-11.5243
▁narrative	-11.5246
▁1000	-11.5247
ctu	-11.5249
FC	-11.525
▁beneficial	-11.525
▁Qatar	-11.5251
▁travelers	-11.5252
▁Works	-11.5252
▁apartments	-11.5253
▁uncertain	-11.5254
TO	-11.5254
▁corridor	-11.5254
▁libraries	-11.5254
Sa	-11.5258
▁habit	-11.5259
▁explaining	-11.5259
▁container	-11.5259
comb	-11.5261
▁Hudson	-11.5262
▁Chechen	-11.5263
▁1917	-11.5263
▁Language	-11.5265
▁Jefferson	-11.5267
▁recipient	-11.5267
hir	-11.5268
▁ballots	-11.5268
hop	-11.527
▁informal	-11.5274
dec	-11.5274
jackpot	-11.5275
▁spill	-11.5278
▁murdered	-11.5279
▁exceed	-11.5282
outs	-11.5284
aver	-11.5284
▁faint	-11.5285
▁cats	-11.5285
▁crying	-11.5287
▁suggestion	-11.5287
ics	-11.5288
dine	-11.5289
▁assure	-11.529
▁Yahoo	-11.5291
being	-11.5291
Connor	-11.5292
▁clip	-11.5292
Di	-11.5293
▁implementing	-11.5294
▁Eventually	-11.5295
ient	-11.5296
▁leap	-11.5297
▁Mis	-11.5297
awn	-11.5298
▁pharmaceutical	-11.5299
▁Eli	-11.5299
haz	-11.5305
bell	-11.5305
▁recordings	-11.5307
▁switched	-11.5307
ense	-11.5309
▁lo	-11.5309
▁insist	-11.5312
stat	-11.5313
▁vaccine	-11.5313
▁implications	-11.5313
DE	-11.5315
▁Wo	-11.5315
▁treating	-11.5316
▁demo	-11.5316
▁Talk	-11.532
HO	-11.532
▁grateful	-11.5321
shing	-11.5321
flow	-11.5322
▁factories	-11.5323
▁sing	-11.5323
▁700	-11.5323
▁warehouse	-11.5328
▁honey	-11.5329
▁hostile	-11.5329
▁Paper	-11.5329
▁hence	-11.533
▁lecture	-11.5331
cen	-11.5333
▁Alice	-11.5334
▁Map	-11.5334
▁Arabic	-11.5336
craft	-11.5339
▁boyfriend	-11.534
hin	-11.5341
dog	-11.5342
▁scream	-11.5344
▁evident	-11.5344
▁companion	-11.5344
▁Bab	-11.5344
▁Ice	-11.5346
▁Cash	-11.5348
▁Eu	-11.5349
▁prohibited	-11.535
▁spouse	-11.5352
▁summary	-11.5352
▁Arena	-11.5353
▁Chair	-11.5353
have	-11.5353
▁Michel	-11.5354
▁ordering	-11.5354
Even	-11.5355
auto	-11.5356
oy	-11.5356
PE	-11.5357
ici	-11.5358
▁revenge	-11.5361
▁compiled	-11.5362
▁Colonel	-11.5363
▁courage	-11.5363
▁wounds	-11.5369
▁Think	-11.5372
ifying	-11.5377
▁Richmond	-11.5377
▁nerve	-11.5377
dio	-11.5379
▁talented	-11.5381
▁Naval	-11.5382
60,000	-11.5388
▁zones	-11.5389
▁hunger	-11.5391
▁persuade	-11.5391
▁sentences	-11.5393
▁confrontation	-11.5395
▁boundary	-11.5395
▁Motors	-11.5397
▁cinema	-11.5397
▁ultra	-11.5397
▁assisted	-11.5398
▁Reed	-11.5398
TER	-11.54
▁nearest	-11.5401
▁interact	-11.5401
▁Defence	-11.5402
▁organizing	-11.5402
▁Chirac	-11.5403
Ch	-11.5404
▁fulfill	-11.5406
▁federation	-11.5406
▁Falls	-11.5407
▁possess	-11.5409
cott	-11.5409
▁workshops	-11.5413
▁Hang	-11.5413
▁grandmother	-11.5415
▁cult	-11.5415
▁affiliated	-11.5415
▁Montana	-11.5416
rent	-11.5417
▁Carol	-11.5421
▁Dragon	-11.5422
▁Sport	-11.5423
sub	-11.5425
▁achieving	-11.5427
▁Cri	-11.5428
▁convey	-11.5429
script	-11.543
race	-11.5431
▁absent	-11.5434
▁disappear	-11.5435
▁searched	-11.5435
cio	-11.5436
lea	-11.5436
▁Fine	-11.5437
▁distinguish	-11.5437
▁wheels	-11.5437
uma	-11.5438
▁sponsor	-11.5439
▁architectural	-11.5439
green	-11.544
▁institutional	-11.5443
▁happiness	-11.5443
ema	-11.5445
▁Mail	-11.5446
Mart	-11.5447
▁Tele	-11.5448
▁lasting	-11.5448
HL	-11.5451
▁Tibet	-11.5452
BL	-11.5454
▁Res	-11.5455
▁targeting	-11.5455
profile	-11.5456
▁erupted	-11.5456
second	-11.5456
▁hopefully	-11.5457
▁Honda	-11.5457
▁Kur	-11.5459
▁Fisher	-11.5459
ALL	-11.546
mah	-11.5462
mad	-11.5463
▁instructor	-11.5466
▁progressive	-11.5468
▁artwork	-11.547
▁tick	-11.547
sley	-11.547
▁Tang	-11.5471
▁subtle	-11.5472
DB	-11.5472
▁psycho	-11.5473
▁audiences	-11.5473
▁bum	-11.5474
▁limitations	-11.5476
▁Armstrong	-11.5477
▁kidnapping	-11.5477
▁precisely	-11.5477
▁mask	-11.548
Get	-11.548
▁User	-11.5482
▁guided	-11.5484
EST	-11.5484
▁peacekeeping	-11.5486
▁HD	-11.5486
▁Ask	-11.5488
▁Oliver	-11.5488
▁neo	-11.5488
▁urgent	-11.549
▁Julian	-11.549
▁82	-11.549
▁layers	-11.5492
itive	-11.5492
▁creatures	-11.5493
▁Tai	-11.5493
▁regulators	-11.5494
▁diagnosed	-11.5495
▁cement	-11.5496
hua	-11.5497
rine	-11.55
▁naked	-11.5503
▁analyze	-11.5503
▁Racing	-11.5505
▁suite	-11.5506
▁Upper	-11.5506
▁safeguard	-11.5506
▁conversations	-11.5509
▁chase	-11.551
▁syndrome	-11.551
▁harvest	-11.551
▁drunk	-11.551
▁visitor	-11.5512
▁editing	-11.5512
eno	-11.5513
▁pursuing	-11.5514
▁concentrated	-11.5515
wal	-11.5516
▁ethics	-11.5518
°	-11.5518
▁buzz	-11.5518
▁witnessed	-11.5521
▁EP	-11.5524
▁Off	-11.5525
▁Website	-11.5528
▁bomber	-11.5529
▁suspicion	-11.553
▁Jar	-11.5531
▁incumbent	-11.5531
idi	-11.5531
hawk	-11.5532
▁cluster	-11.5533
oph	-11.5533
▁Left	-11.5535
pol	-11.5537
▁1933	-11.5538
▁Peninsula	-11.5539
▁imagination	-11.5539
mission	-11.554
▁throne	-11.554
▁Len	-11.554
▁thy	-11.5544
sil	-11.5544
▁Multi	-11.5546
▁genes	-11.5547
▁finest	-11.555
LD	-11.5553
▁circles	-11.5554
stan	-11.5555
▁Stri	-11.5556
▁exceptional	-11.5557
▁Print	-11.5559
▁creator	-11.5559
▁distinctive	-11.5564
nick	-11.5564
▁columns	-11.5564
▁protective	-11.5564
▁Poll	-11.5567
▁Sab	-11.5568
▁costly	-11.5569
liter	-11.557
loy	-11.557
▁ambitious	-11.5573
hall	-11.5573
wy	-11.5574
▁Cancer	-11.5574
ander	-11.5579
bil	-11.558
▁Ralph	-11.5581
▁spectrum	-11.5581
▁fires	-11.5583
hat	-11.5583
gging	-11.5583
▁Neil	-11.5583
hem	-11.5583
thi	-11.5584
9,000	-11.5585
▁acute	-11.5586
▁console	-11.5587
▁drafted	-11.5591
▁Operation	-11.5591
▁Dur	-11.5593
ART	-11.5594
▁clouds	-11.5594
▁gardens	-11.5595
tun	-11.5596
▁animation	-11.5598
▁Rural	-11.5601
▁polling	-11.5602
▁Gonzalez	-11.5602
tia	-11.5606
VA	-11.5611
▁balloon	-11.5612
▁grades	-11.5614
▁dental	-11.5616
▁kidnapped	-11.5619
▁drum	-11.562
▁doubles	-11.562
▁Product	-11.5621
▁Case	-11.5621
▁Learning	-11.5621
▁comp	-11.5622
▁reveals	-11.5622
▁Imperial	-11.5623
▁Legislature	-11.5623
▁computing	-11.5623
▁engaging	-11.5623
IE	-11.5625
▁delays	-11.5625
▁violated	-11.5629
▁differently	-11.5629
▁mph	-11.5631
oper	-11.5634
▁dig	-11.5635
▁UEFA	-11.5636
▁theories	-11.5636
▁duration	-11.5636
open	-11.5637
▁pact	-11.5638
▁Flight	-11.5638
▁fails	-11.5642
phon	-11.5642
bee	-11.5643
▁strictly	-11.5644
▁Double	-11.5646
▁Pad	-11.5647
▁Dy	-11.5647
▁reluctant	-11.5649
▁SS	-11.5649
▁stretched	-11.565
▁independently	-11.565
▁WASHINGTON	-11.5653
▁detective	-11.5654
▁Armed	-11.5654
▁texture	-11.5654
tered	-11.566
IR	-11.566
▁reactions	-11.566
▁hydro	-11.5663
Mu	-11.5664
▁quantity	-11.5666
▁secular	-11.5666
▁Cast	-11.567
▁skirt	-11.567
ICE	-11.567
▁shoe	-11.5671
▁breach	-11.5673
▁vendors	-11.5676
▁Anton	-11.5677
▁Tin	-11.5678
▁elevation	-11.5678
▁drought	-11.5678
FT	-11.568
▁Throughout	-11.568
direct	-11.5681
▁calculated	-11.5681
▁curve	-11.5682
▁Ecuador	-11.5683
▁doctrine	-11.5683
▁mortar	-11.5683
PM	-11.5683
▁decree	-11.5684
ref	-11.5685
God	-11.5688
standing	-11.5691
vil	-11.5691
▁rational	-11.5692
version	-11.5693
▁FM	-11.5694
▁Transport	-11.5695
▁Darfur	-11.5696
quin	-11.5696
▁creature	-11.5696
▁celebrity	-11.57
▁fame	-11.5701
▁Tommy	-11.5702
SH	-11.5705
▁touching	-11.5706
▁rotation	-11.5708
▁Jakarta	-11.5708
▁prestigious	-11.5708
▁bubble	-11.5708
▁contrary	-11.5708
▁Dale	-11.5708
spin	-11.571
▁Quick	-11.5711
▁Ari	-11.5711
▁briefing	-11.5711
▁disappointment	-11.5713
hang	-11.5714
ologist	-11.5714
hip	-11.5715
▁trafficking	-11.5715
▁nationalist	-11.5717
▁vertical	-11.5717
▁essay	-11.5718
fal	-11.5721
▁Authorities	-11.5721
▁unrest	-11.5721
▁cigarette	-11.5722
▁Girl	-11.5722
issue	-11.5728
erson	-11.5731
minded	-11.5734
▁Tibetan	-11.5739
▁verify	-11.5739
▁Plant	-11.5739
1,000	-11.574
lau	-11.5742
▁abstract	-11.5742
▁openly	-11.5742
▁Lab	-11.5743
▁1919	-11.5744
▁hostages	-11.5744
▁PS	-11.5747
▁varied	-11.5749
▁Advanced	-11.5749
▁congregation	-11.5751
▁Beat	-11.5752
▁Emma	-11.5753
▁moth	-11.5756
uda	-11.5756
▁considers	-11.5757
▁transformed	-11.5758
▁sporting	-11.5759
▁Lopez	-11.5759
▁preserved	-11.5761
▁Hughes	-11.5763
▁statute	-11.5764
▁intend	-11.5764
▁Manila	-11.5766
▁perception	-11.5767
▁disorders	-11.5768
deal	-11.5769
serv	-11.5769
▁Qa	-11.577
▁101	-11.5771
▁130	-11.5771
▁fo	-11.5773
driver	-11.5776
▁contractors	-11.5776
▁asleep	-11.5776
▁faithful	-11.5777
zel	-11.5778
▁paused	-11.5778
▁adjusted	-11.578
▁animated	-11.5781
▁Duncan	-11.5782
▁Chancellor	-11.5783
▁thoroughly	-11.5784
▁DO	-11.5785
▁DJ	-11.5785
▁couch	-11.5785
▁Tea	-11.5788
▁olive	-11.5788
▁pr	-11.5788
▁Animal	-11.5789
LC	-11.5792
▁Schools	-11.5792
▁Lloyd	-11.5794
jun	-11.5794
▁Milwaukee	-11.5795
▁shade	-11.58
▁tire	-11.58
▁mock	-11.5802
▁Color	-11.5804
▁elementary	-11.5804
eye	-11.5806
▁Dev	-11.5806
ido	-11.5809
DF	-11.581
lane	-11.5811
▁Nasdaq	-11.5811
▁fossil	-11.5811
▁toys	-11.5811
▁affects	-11.5813
▁devastating	-11.5815
wn	-11.5818
▁neighborhoods	-11.5819
▁mount	-11.5821
▁rack	-11.5822
▁constituency	-11.5824
▁1914	-11.5827
▁RBI	-11.5827
force	-11.5832
▁stack	-11.5833
▁Jin	-11.5835
▁medications	-11.5837
▁manages	-11.5838
dem	-11.5842
▁valued	-11.5843
▁Rwanda	-11.5844
▁disclosed	-11.5849
ption	-11.5849
fat	-11.585
sten	-11.5851
▁96	-11.5853
▁eleven	-11.5853
▁portrait	-11.5853
▁Enter	-11.5856
▁mortgages	-11.5857
▁slave	-11.5858
▁decorated	-11.5858
▁Terms	-11.5858
team	-11.586
mil	-11.586
▁revision	-11.586
▁99	-11.5862
ffe	-11.5863
hid	-11.5863
▁debris	-11.5863
▁1935	-11.5863
loo	-11.5867
block	-11.5867
▁roster	-11.5869
▁organizers	-11.5872
▁nominee	-11.5875
quest	-11.5876
▁honored	-11.5877
▁duck	-11.5878
▁Horn	-11.588
▁Stars	-11.5881
▁stare	-11.5885
▁placement	-11.589
then	-11.5892
▁Hai	-11.5893
▁abandon	-11.5894
▁ferry	-11.5894
▁Lynch	-11.5895
▁Environment	-11.5895
▁Doug	-11.5896
▁Palestine	-11.5897
▁offshore	-11.5898
▁kidney	-11.5898
▁pose	-11.59
▁GDP	-11.5901
writing	-11.5901
▁$12	-11.5902
fre	-11.5902
break	-11.5904
nel	-11.5904
▁Statistics	-11.5906
▁coins	-11.5907
▁cultures	-11.5909
▁mounting	-11.5909
▁Pyongyang	-11.591
John	-11.591
third	-11.5911
▁IRA	-11.5913
▁meaningful	-11.5915
By	-11.5917
sea	-11.5918
▁mathematics	-11.5919
▁lender	-11.5922
▁processed	-11.5922
▁suburban	-11.5923
UR	-11.5924
▁incentives	-11.5924
▁booking	-11.5926
▁spark	-11.5929
▁Machine	-11.5929
▁broadcasting	-11.593
▁Orchestra	-11.5932
▁Kara	-11.5932
ito	-11.5933
▁supervision	-11.5933
▁Bun	-11.5935
▁Christianity	-11.5936
▁suspicious	-11.5936
pec	-11.5937
▁Martinez	-11.5939
▁quest	-11.594
tine	-11.594
South	-11.5942
▁bears	-11.5944
▁ha	-11.5944
ees	-11.5945
brow	-11.5949
wel	-11.595
▁scent	-11.5951
▁Harrison	-11.5952
BB	-11.5952
iki	-11.5954
▁Fernando	-11.5954
▁timber	-11.5954
▁Arnold	-11.5955
▁Friends	-11.5955
▁Fellow	-11.5958
▁MO	-11.5959
▁frustrated	-11.596
present	-11.5962
▁Baby	-11.5963
▁Infantry	-11.5963
▁1929	-11.5963
▁Boris	-11.5963
▁shortage	-11.5964
▁1,500	-11.5964
graph	-11.5966
▁investigated	-11.5967
▁blocking	-11.5968
▁sigh	-11.5968
▁MD	-11.5969
▁mg	-11.597
▁medieval	-11.5971
▁Welsh	-11.5971
▁Mak	-11.5972
▁Acc	-11.5972
▁anxious	-11.5972
▁premiere	-11.5975
smith	-11.5976
▁Pot	-11.5977
▁classification	-11.5979
▁enthusiasm	-11.598
▁Download	-11.5981
bag	-11.5982
▁trademark	-11.5985
▁1910	-11.5985
plus	-11.5986
▁noting	-11.5987
ault	-11.5988
▁intensive	-11.599
▁fruits	-11.5991
▁raids	-11.5992
writer	-11.5992
pon	-11.5993
▁physicians	-11.5998
▁Stein	-11.6001
▁chin	-11.6001
▁circulation	-11.6002
▁barriers	-11.6004
▁endless	-11.6006
clo	-11.6007
brook	-11.6009
▁HTML	-11.6011
▁freight	-11.6011
▁Stuart	-11.6011
ato	-11.6015
▁slammed	-11.6015
watch	-11.6017
▁delicious	-11.602
▁cope	-11.602
▁350	-11.6023
▁Pierre	-11.6023
▁Amy	-11.6024
▁FOR	-11.6026
▁functionality	-11.6026
dian	-11.6028
oke	-11.603
lt	-11.6031
▁Clear	-11.6035
▁runners	-11.6035
▁tightly	-11.6039
▁NEW	-11.6041
▁Phillips	-11.6042
▁Qu	-11.6042
OP	-11.6044
▁$25	-11.6045
mination	-11.6045
▁Cruz	-11.6049
▁graduation	-11.605
▁owe	-11.6051
rise	-11.6051
▁competitions	-11.6054
▁restructuring	-11.6055
▁Mets	-11.6057
Ar	-11.6057
▁donation	-11.6058
▁reminder	-11.6058
cylinder	-11.6059
▁Cad	-11.6062
pine	-11.6062
aged	-11.6063
▁Adobe	-11.6064
▁highlighted	-11.6064
▁Met	-11.6065
▁guides	-11.6065
▁Together	-11.6069
▁researcher	-11.607
llo	-11.6071
▁homeland	-11.6071
▁appreciation	-11.6072
ured	-11.6073
▁Storm	-11.6077
mill	-11.6078
▁88	-11.6079
▁nationally	-11.608
▁productive	-11.6081
▁YouTube	-11.6081
▁disabilities	-11.6081
▁Est	-11.6082
▁Kil	-11.6083
▁lets	-11.6083
rec	-11.6084
▁Honor	-11.6084
UL	-11.6085
▁Cohen	-11.6088
▁intimate	-11.609
▁Dodgers	-11.6091
▁DE	-11.6092
▁priests	-11.6092
▁jam	-11.6098
▁Tree	-11.6098
▁casual	-11.6099
▁transplant	-11.6099
▁trash	-11.6099
▁sorts	-11.6099
▁Reid	-11.61
▁favorable	-11.6102
▁coin	-11.6103
▁determining	-11.6104
▁Inside	-11.6106
peak	-11.6106
▁mac	-11.6107
▁ladies	-11.6109
▁profitable	-11.611
▁fraction	-11.6113
▁cheer	-11.6114
▁dial	-11.6114
▁exploring	-11.6117
▁citizenship	-11.6118
▁forty	-11.6118
eff	-11.6119
▁dim	-11.612
▁commented	-11.612
TF	-11.6121
▁Germans	-11.6122
▁noon	-11.6123
▁magnitude	-11.6123
▁showcase	-11.6124
▁Legal	-11.6125
▁Legislative	-11.6126
▁enrolled	-11.6126
▁Watson	-11.6126
▁mineral	-11.6127
▁hated	-11.6129
▁reconciliation	-11.613
▁Romanian	-11.613
zan	-11.6132
▁teaches	-11.6133
nny	-11.6133
▁canal	-11.6136
▁Karen	-11.6138
▁Edinburgh	-11.6139
▁voluntary	-11.6139
lli	-11.6143
roid	-11.6143
▁glory	-11.6144
▁rein	-11.6146
fil	-11.6148
▁blessing	-11.615
▁cemetery	-11.6152
Cl	-11.6153
text	-11.6154
▁infections	-11.6156
▁evolved	-11.6156
▁bargain	-11.6157
▁beds	-11.6158
▁Math	-11.6158
▁Linda	-11.6159
▁Mand	-11.616
▁sweeping	-11.6161
ssel	-11.6161
asse	-11.6162
him	-11.6163
▁considerably	-11.6164
▁teammate	-11.6165
▁besides	-11.6165
▁renovation	-11.6166
▁renowned	-11.6166
▁entities	-11.6166
▁linking	-11.6171
▁Def	-11.6173
▁Cer	-11.6175
▁breakthrough	-11.6175
▁supplier	-11.6175
▁Sor	-11.6179
▁pioneer	-11.6182
ended	-11.6183
▁indictment	-11.6184
vic	-11.6184
conf	-11.6186
▁Count	-11.6187
▁troop	-11.6187
EU	-11.619
▁gym	-11.619
▁utilize	-11.6191
▁identifying	-11.6191
▁Ethiopia	-11.6195
▁jersey	-11.6197
grat	-11.6197
business	-11.62
▁Deep	-11.6202
itude	-11.6202
uka	-11.6203
▁aggregate	-11.6205
nas	-11.6206
▁plunged	-11.6206
▁Islamist	-11.6206
▁listened	-11.6207
▁encountered	-11.6207
▁Nearly	-11.6207
Ga	-11.6209
▁demonstrators	-11.621
▁1/4	-11.6212
▁Kai	-11.6215
▁defeating	-11.6216
▁Bol	-11.6221
▁insists	-11.6222
▁puzzle	-11.6222
▁1934	-11.6223
▁unto	-11.6223
▁Alfred	-11.6224
▁Cricket	-11.6224
▁fitted	-11.6228
▁fr	-11.6229
▁Rogers	-11.623
EF	-11.6231
▁1928	-11.6233
▁Columbus	-11.6233
▁supervisor	-11.6234
Neal	-11.6234
▁instrumental	-11.6235
▁organised	-11.6236
▁suspend	-11.6236
Ca	-11.6237
kind	-11.6238
▁rushing	-11.6243
▁bolt	-11.6244
▁consist	-11.6245
▁Victorian	-11.6245
▁Bas	-11.6247
▁conscious	-11.6251
▁Image	-11.6251
FM	-11.6251
▁Sat	-11.6257
ingham	-11.6257
ake	-11.6257
▁unveiled	-11.6257
AV	-11.6258
▁bolster	-11.626
▁permits	-11.6261
PG	-11.6262
▁Manuel	-11.6264
▁portrayed	-11.6265
▁FREE	-11.6266
▁semester	-11.6269
▁Challenge	-11.6269
▁Ship	-11.6271
▁AS	-11.6273
▁Join	-11.6273
▁sooner	-11.6273
▁Georgian	-11.6275
Net	-11.6276
▁achievements	-11.6277
eck	-11.6278
▁awful	-11.6279
▁permanently	-11.628
▁Mine	-11.6282
▁unfair	-11.6285
tone	-11.6286
▁edges	-11.6291
▁Rugby	-11.6291
▁displaced	-11.6292
▁matched	-11.6293
fit	-11.6294
▁screw	-11.6295
▁Amendment	-11.6296
▁Half	-11.6297
▁habits	-11.63
▁parameters	-11.63
▁Abraham	-11.63
▁credibility	-11.6305
▁Adrian	-11.6306
▁Clean	-11.6307
▁Pal	-11.6308
specific	-11.6309
▁pause	-11.6309
▁minimize	-11.631
▁chemistry	-11.631
▁Ah	-11.6312
▁Kirk	-11.6313
▁opposing	-11.6314
▁Vermont	-11.6315
▁Studio	-11.6315
▁MI	-11.6316
▁Colombian	-11.6317
▁complement	-11.6318
▁highlights	-11.6319
▁cooperative	-11.632
▁Cooperation	-11.6321
shed	-11.6322
▁labels	-11.6323
▁conjunction	-11.6323
▁flowing	-11.6324
▁Spe	-11.6324
▁setup	-11.6325
▁drops	-11.6326
▁detainees	-11.6326
▁160	-11.6327
▁disappointing	-11.6327
ern	-11.6328
▁promotional	-11.6329
▁attraction	-11.633
▁Tru	-11.6336
NZ	-11.6336
▁practically	-11.6336
▁jumping	-11.6336
▁Lau	-11.6339
cel	-11.634
▁McDonald	-11.6341
▁trusted	-11.6343
▁breeding	-11.6344
▁warnings	-11.6344
▁Inn	-11.6344
▁priorities	-11.6348
bble	-11.6349
wise	-11.635
▁Marines	-11.6351
▁Got	-11.6353
▁breathe	-11.6354
▁declining	-11.6355
▁Ski	-11.6358
▁bicycle	-11.6359
▁Marcus	-11.636
▁navy	-11.6364
▁submission	-11.6365
stud	-11.6366
▁Save	-11.6368
▁Harbor	-11.6372
stick	-11.6373
▁administered	-11.6375
▁uncomfortable	-11.6378
▁sacred	-11.6378
glo	-11.6378
▁brutal	-11.6382
▁Azerbaijan	-11.6382
▁duo	-11.6383
▁soup	-11.6384
▁airports	-11.6385
▁glow	-11.6387
▁jointly	-11.6387
▁drain	-11.6388
RNA	-11.6391
▁overhead	-11.6392
gov	-11.6395
▁poorly	-11.6395
Hu	-11.6395
▁dragged	-11.6396
sino	-11.6396
▁ethical	-11.6397
▁Berg	-11.6397
▁overtime	-11.6399
▁spite	-11.6399
position	-11.64
cas	-11.64
▁Amsterdam	-11.64
▁recruit	-11.6401
▁graph	-11.6402
▁satisfy	-11.6403
national	-11.6404
nova	-11.6405
▁subsidies	-11.6405
▁Fleet	-11.6406
▁Wells	-11.6406
▁Ruth	-11.6408
▁refusing	-11.641
▁sensation	-11.6412
wash	-11.6412
▁Petersburg	-11.6415
▁awaiting	-11.6416
▁shy	-11.6417
▁Grade	-11.6418
▁harbor	-11.6419
▁purple	-11.6419
store	-11.6419
▁subscribe	-11.6423
▁em	-11.6423
▁bell	-11.6424
▁Foster	-11.6424
▁Shortly	-11.6425
rest	-11.6425
flu	-11.6426
▁assembled	-11.6426
▁Gay	-11.6427
▁blade	-11.6428
tors	-11.6429
pped	-11.643
financing	-11.6435
▁tomb	-11.6435
mos	-11.6436
▁economics	-11.6436
app	-11.6438
frame	-11.6439
etti	-11.644
▁sponsors	-11.6443
▁chains	-11.6446
▁portal	-11.6447
▁Holland	-11.6447
▁Ottawa	-11.6451
▁shallow	-11.6454
▁Bart	-11.6455
pr	-11.6459
▁hearts	-11.6459
tom	-11.646
▁flour	-11.646
powered	-11.6461
▁$15	-11.6462
walk	-11.6464
▁releasing	-11.6464
▁beaches	-11.6467
▁Maha	-11.6467
▁spine	-11.6467
tens	-11.6468
▁concerts	-11.6469
▁Ahmad	-11.6469
▁travelling	-11.6471
▁Julia	-11.6472
hot	-11.6472
▁factions	-11.6473
▁detected	-11.6473
▁mandatory	-11.6474
col	-11.6475
▁slowed	-11.6477
issa	-11.6478
▁contested	-11.648
rak	-11.6482
▁guarantees	-11.6482
code	-11.6483
▁squadron	-11.6484
▁Smart	-11.6484
▁Emily	-11.6485
▁mechanisms	-11.6486
▁Pack	-11.6486
▁3:	-11.6488
▁Burns	-11.6489
emia	-11.649
hoe	-11.6493
▁84	-11.6493
source	-11.6495
▁Gul	-11.6495
used	-11.6496
▁Canal	-11.6497
tag	-11.6497
▁purse	-11.6498
control	-11.6499
▁brave	-11.6502
▁Branch	-11.6502
duc	-11.6502
mut	-11.6502
▁farmer	-11.6503
▁machinery	-11.6503
▁Athletic	-11.6504
▁variations	-11.6506
▁bottles	-11.6509
▁advisory	-11.6511
assi	-11.6511
▁monitors	-11.6513
▁wickets	-11.6515
▁regain	-11.6515
▁measuring	-11.6515
nah	-11.6515
▁Baron	-11.6516
ann	-11.6516
zing	-11.6518
▁hint	-11.6518
▁flames	-11.6525
▁currencies	-11.6529
▁archive	-11.6533
▁steadily	-11.6534
▁doubts	-11.6534
▁Wide	-11.6534
▁screens	-11.6536
▁alike	-11.6537
▁autonomy	-11.6538
▁floating	-11.6539
mid	-11.6543
▁Kir	-11.6543
▁Coalition	-11.6543
▁rebellion	-11.6543
▁Wallace	-11.6544
ound	-11.6545
▁injection	-11.6546
▁Mario	-11.6546
▁dominate	-11.6546
▁starter	-11.6547
190	-11.6547
▁mob	-11.6548
▁employ	-11.6552
▁commanders	-11.6552
▁announcing	-11.6552
▁Greater	-11.6553
▁Cut	-11.6556
▁rode	-11.6557
▁Voice	-11.6558
▁illegally	-11.6559
▁Boys	-11.6564
▁environments	-11.6565
▁remind	-11.6566
▁Leo	-11.6567
LS	-11.6569
▁50%	-11.657
▁Sad	-11.657
▁Job	-11.6571
▁collision	-11.6575
dies	-11.6579
▁1932	-11.658
▁obtaining	-11.658
▁Campaign	-11.658
▁clearing	-11.6581
ske	-11.6582
▁surprisingly	-11.6582
▁criminals	-11.6584
enko	-11.6587
kha	-11.6587
▁descent	-11.6588
fast	-11.6589
▁Romney	-11.659
▁helmet	-11.659
▁riders	-11.659
sense	-11.659
▁Nas	-11.659
▁Indies	-11.6591
▁counterparts	-11.6592
▁riot	-11.6592
▁Cheney	-11.6592
PH	-11.6593
▁scholar	-11.6594
▁searches	-11.6594
▁Franco	-11.6598
West	-11.6598
▁upload	-11.6598
▁nutrition	-11.6602
▁Sarajevo	-11.6603
▁surveys	-11.6604
▁soundtrack	-11.6605
▁guilt	-11.6605
lash	-11.6605
map	-11.6606
▁Cemetery	-11.6608
▁experiencing	-11.6608
▁seminar	-11.661
black	-11.6611
▁separatist	-11.6612
▁stimulate	-11.6613
▁argues	-11.6613
GS	-11.6614
▁cancelled	-11.6614
shoot	-11.6617
▁endorsed	-11.6623
stop	-11.6624
tax	-11.6626
▁1990,	-11.6626
umi	-11.6627
▁Derby	-11.6628
▁legendary	-11.6628
bie	-11.6628
▁magnetic	-11.6629
▁gods	-11.6629
▁pickup	-11.6631
▁greenhouse	-11.6631
▁Mind	-11.6632
750	-11.6633
▁authentic	-11.6633
product	-11.6634
otic	-11.6635
▁trunk	-11.6636
▁psychology	-11.6636
▁rebuild	-11.6638
TT	-11.6639
▁URL	-11.664
▁altogether	-11.6641
▁mat	-11.6641
dri	-11.6642
anta	-11.6642
▁diesel	-11.6643
▁Sau	-11.6645
▁Frankfurt	-11.6645
Any	-11.6646
soft	-11.6649
▁Give	-11.665
▁Quality	-11.665
▁lawn	-11.665
▁Kol	-11.6651
iah	-11.6654
wear	-11.6654
▁Border	-11.6655
▁Ground	-11.6658
▁maneuver	-11.6659
▁textile	-11.6661
▁endorsement	-11.6662
▁chef	-11.6666
▁Cell	-11.6666
▁header	-11.6667
▁tournaments	-11.6673
Ti	-11.6673
people	-11.6674
▁Sao	-11.6674
drive	-11.6675
dimensional	-11.6675
▁pulse	-11.6678
▁Dal	-11.6679
▁Could	-11.6681
▁colon	-11.6682
▁Cover	-11.6682
▁prayers	-11.6682
▁spam	-11.6682
▁Pine	-11.6682
▁Mall	-11.6683
sell	-11.6686
▁Often	-11.6686
dice	-11.6689
▁favored	-11.669
▁Record	-11.6691
▁altered	-11.6695
▁trainer	-11.6697
▁nurses	-11.6697
▁proceeds	-11.6698
Bar	-11.6699
▁Logan	-11.67
onia	-11.67
▁uprising	-11.6702
▁correspondent	-11.6703
▁sail	-11.6705
▁True	-11.6706
▁decreased	-11.6706
▁Train	-11.6707
six	-11.6708
▁cas	-11.6708
▁compatible	-11.671
▁genocide	-11.6711
▁programmes	-11.6711
▁cubic	-11.6711
LY	-11.6713
▁recovering	-11.6718
▁30,000	-11.6719
aq	-11.672
▁nightmare	-11.6721
▁Summit	-11.6721
dome	-11.6722
▁apple	-11.6722
▁Dell	-11.6723
▁tattoo	-11.6725
▁torn	-11.6727
▁Self	-11.6728
▁ousted	-11.6729
▁infant	-11.673
▁interrupted	-11.6733
▁consolidation	-11.6735
▁Living	-11.6735
quer	-11.6737
▁Cultural	-11.6739
▁invention	-11.6742
▁Russians	-11.6742
▁140	-11.6743
left	-11.6744
▁peacekeepers	-11.6744
▁calories	-11.6745
▁formats	-11.6747
generation	-11.6747
2010	-11.6747
▁Hebrew	-11.6748
▁Oracle	-11.6749
▁Sher	-11.675
▁tee	-11.675
▁SEO	-11.6751
▁valve	-11.6751
▁workout	-11.6751
wl	-11.6751
▁lens	-11.6751
itz	-11.6752
▁responding	-11.6753
▁Additional	-11.6755
▁Level	-11.6756
sho	-11.6759
▁Source	-11.6762
▁Berkeley	-11.6763
▁romance	-11.6763
▁1924	-11.6764
▁hometown	-11.6766
▁repairs	-11.6766
▁Representative	-11.677
▁Link	-11.6775
▁graduating	-11.6777
▁Liberty	-11.6777
▁insurgency	-11.6778
▁oh	-11.678
TION	-11.6781
▁Shan	-11.6781
ttle	-11.6783
▁envelope	-11.6783
▁Row	-11.6784
▁exterior	-11.6787
▁clerk	-11.6787
▁Ant	-11.6788
▁Chart	-11.6791
logical	-11.6791
▁Bern	-11.6793
▁Consider	-11.6794
▁Silva	-11.6795
▁gaming	-11.6796
▁forehead	-11.6797
media	-11.6797
▁flags	-11.6798
▁surveyed	-11.6798
▁200,000	-11.68
▁orientation	-11.6801
[	-11.6802
▁venues	-11.6802
▁preparations	-11.6803
▁floors	-11.6804
▁sack	-11.6805
▁FOLLOWS	-11.6806
▁qualities	-11.6806
▁cab	-11.6807
▁Clo	-11.6812
▁Reading	-11.6814
▁lieutenant	-11.6815
▁underneath	-11.6815
▁poured	-11.6818
gru	-11.6818
▁Omar	-11.682
oul	-11.682
got	-11.682
Sc	-11.6823
speaking	-11.6824
mol	-11.6825
lev	-11.6828
▁negotiated	-11.6829
▁athlete	-11.6831
morph	-11.6832
BU	-11.6834
cons	-11.6837
▁constitute	-11.6838
▁integrate	-11.6838
fort	-11.6838
▁decisive	-11.6839
▁texts	-11.6839
▁stimulus	-11.6844
▁Hun	-11.6844
▁diving	-11.6846
▁lion	-11.6848
Really	-11.6848
▁legislators	-11.6849
own	-11.6849
bun	-11.6851
ground	-11.6852
▁slower	-11.6853
enter	-11.6855
▁Rosa	-11.6857
ops	-11.6857
▁agrees	-11.6858
▁inclusion	-11.6858
▁variation	-11.6858
▁Nashville	-11.6858
▁substantially	-11.6859
▁transmitted	-11.6859
▁namely	-11.6863
▁incredibly	-11.6868
reg	-11.6869
▁Mix	-11.6871
billion	-11.6872
▁ceasefire	-11.6873
▁Girls	-11.6873
▁Places	-11.6876
▁mothers	-11.6878
▁interfere	-11.6879
▁revolutionary	-11.6879
▁starred	-11.6881
▁imperial	-11.6882
▁Hawk	-11.6883
▁Block	-11.6885
▁applicants	-11.6887
▁loyalty	-11.6889
▁Angels	-11.689
▁rehabilitation	-11.6892
▁Stefan	-11.6892
▁Resort	-11.6892
▁cute	-11.6893
▁Know	-11.6893
▁Lyon	-11.6895
fair	-11.6899
▁battalion	-11.6901
▁cafe	-11.6902
▁lighter	-11.6903
▁Mohamed	-11.6906
▁terrain	-11.6906
▁Flu	-11.6907
▁lemon	-11.6909
ame	-11.691
▁twisted	-11.6911
▁testify	-11.6911
▁Panama	-11.6912
nov	-11.6912
suit	-11.6915
▁refusal	-11.6916
▁siege	-11.6916
▁instances	-11.6916
▁salad	-11.6916
itter	-11.6917
▁pockets	-11.6918
songwriter	-11.692
grad	-11.692
▁pairs	-11.6922
▁heated	-11.6923
▁rescued	-11.6923
▁Mol	-11.6924
▁hopeful	-11.6924
▁publicity	-11.6925
▁ammunition	-11.6925
▁Cathedral	-11.6925
UM	-11.6925
▁Diamond	-11.6925
▁Editor	-11.6925
▁portable	-11.6927
▁Kh	-11.6927
▁Fast	-11.6928
▁Chuck	-11.6929
▁strive	-11.6931
▁avoiding	-11.6931
▁Author	-11.6933
▁tends	-11.6934
▁charging	-11.6934
▁inevitable	-11.6935
fest	-11.6936
▁betting	-11.6938
▁Nathan	-11.6938
UT	-11.6939
▁associations	-11.6939
▁Finnish	-11.694
jar	-11.6942
▁voter	-11.6944
▁CH	-11.6944
▁sued	-11.6944
dam	-11.6945
▁BP	-11.6946
▁AG	-11.695
▁stamp	-11.6952
▁NC	-11.6955
▁inmates	-11.6956
▁contractor	-11.6957
moo	-11.6959
▁Commercial	-11.6959
cit	-11.696
▁documented	-11.696
▁Ottoman	-11.6961
▁attain	-11.6961
▁83	-11.6961
▁notification	-11.6963
▁commerce	-11.6963
▁recognised	-11.6964
▁doll	-11.6965
▁thorough	-11.6965
▁Fle	-11.6965
fan	-11.6966
bru	-11.6967
▁clause	-11.6969
▁strengthening	-11.697
▁topped	-11.697
▁interpret	-11.6972
cos	-11.6972
▁asylum	-11.6973
▁senators	-11.6974
turn	-11.6977
▁Shaw	-11.6979
ENT	-11.6979
FP	-11.6982
▁societies	-11.6983
▁accusing	-11.6983
▁slim	-11.6984
lessly	-11.6986
▁runway	-11.6987
mie	-11.6989
eer	-11.6991
▁flip	-11.6992
▁Wimbledon	-11.6993
▁Below	-11.6993
rov	-11.6993
pod	-11.6997
▁Newcastle	-11.6998
▁aluminum	-11.6998
▁mentally	-11.6998
aro	-11.7002
▁waved	-11.7004
▁willingness	-11.7004
▁PGA	-11.7004
▁hol	-11.7006
▁tide	-11.7007
Te	-11.7007
eyed	-11.7009
Ne	-11.7009
▁realm	-11.7012
tant	-11.7013
teen	-11.7018
▁hallway	-11.7018
▁passionate	-11.7019
ovich	-11.702
▁defendants	-11.7021
MI	-11.7021
▁bore	-11.7022
▁boil	-11.7023
▁hearings	-11.7023
▁commune	-11.7023
▁foreclosure	-11.7027
▁Armenian	-11.7027
ambi	-11.7029
▁washing	-11.703
▁Mini	-11.7032
▁1989,	-11.7035
▁Somali	-11.7037
▁sustain	-11.7037
▁Xi	-11.7037
square	-11.7039
▁Fin	-11.7041
▁freak	-11.7041
▁insert	-11.7044
zzle	-11.7046
▁washed	-11.7046
▁Holiday	-11.7046
▁Hassan	-11.7047
pier	-11.7048
dict	-11.7048
ere	-11.7048
kilometer	-11.7049
mur	-11.7049
▁commanded	-11.7049
▁Jeremy	-11.7051
▁patience	-11.7051
▁cm	-11.7054
▁Squadron	-11.7056
angle	-11.7058
▁buttons	-11.7058
▁Monetary	-11.7061
▁skull	-11.7061
▁Cass	-11.7061
OW	-11.7063
▁Overall	-11.7064
risk	-11.7064
▁Bryant	-11.7065
plane	-11.7065
CS	-11.7066
▁Broadcasting	-11.7067
▁Things	-11.7068
▁powered	-11.7069
▁beans	-11.707
kins	-11.7071
rad	-11.7071
▁prosperity	-11.7071
▁evacuated	-11.7072
nz	-11.7072
▁committees	-11.7073
▁fits	-11.7073
▁1922	-11.7076
▁Mae	-11.7077
uous	-11.7079
length	-11.708
▁pastor	-11.7081
▁stepping	-11.7081
▁Metal	-11.7082
train	-11.7085
▁varieties	-11.7085
safe	-11.7086
▁fist	-11.7086
▁Rah	-11.7089
▁1927	-11.7095
cate	-11.7096
▁batting	-11.7097
▁caps	-11.7097
▁sells	-11.7097
▁sore	-11.7098
▁Movie	-11.7101
▁Jazz	-11.7101
▁teammates	-11.7103
▁Cost	-11.7103
▁simulation	-11.7105
▁Catherine	-11.711
▁Pala	-11.7114
start	-11.7115
▁logical	-11.7119
▁Lei	-11.712
orn	-11.712
Please	-11.712
loss	-11.712
▁atomic	-11.7121
▁Gran	-11.7122
▁Crime	-11.7124
▁dried	-11.7124
ws	-11.7127
ave	-11.7127
▁AL	-11.7129
▁flame	-11.7129
ctor	-11.713
▁Belarus	-11.7131
▁Uni	-11.7132
hel	-11.7133
▁turmoil	-11.7134
▁bleeding	-11.7134
▁lover	-11.7135
▁poster	-11.7138
flor	-11.7139
lines	-11.7139
▁Morocco	-11.7139
▁Delaware	-11.7139
▁migration	-11.7139
▁stir	-11.7141
▁monster	-11.7142
▁cyber	-11.7146
DD	-11.7146
ranked	-11.7147
▁79	-11.7148
mort	-11.7149
eman	-11.7149
▁Kun	-11.7154
▁processor	-11.7155
cou	-11.7155
ggle	-11.7158
▁elevator	-11.7159
▁casting	-11.7159
▁sneak	-11.7161
▁northeastern	-11.7164
▁defendant	-11.7165
girl	-11.7165
▁Studios	-11.7167
▁outcomes	-11.7169
▁angel	-11.7169
▁addiction	-11.7171
▁comeback	-11.7172
▁Glo	-11.7173
▁inaugural	-11.7174
▁4,000	-11.7178
radi	-11.7178
▁lesser	-11.7178
▁Edition	-11.7179
Bi	-11.718
vac	-11.718
▁81	-11.7181
▁login	-11.7182
▁Diana	-11.7182
▁enabling	-11.7183
▁slump	-11.7184
▁meta	-11.7188
▁ridiculous	-11.7188
▁Basketball	-11.7189
▁policemen	-11.7189
▁Grey	-11.7189
▁Charter	-11.719
therapist	-11.7191
▁Cloud	-11.7193
▁Cypriot	-11.7193
▁Gingrich	-11.7193
MU	-11.7194
▁readily	-11.7196
▁cr	-11.72
yi	-11.72
firm	-11.7201
▁draws	-11.7202
▁mansion	-11.7203
▁automobile	-11.7203
▁Return	-11.7203
ibility	-11.7203
▁pub	-11.7209
▁Jesse	-11.7211
▁Butler	-11.7211
▁characteristic	-11.7212
▁Morning	-11.7214
▁1912	-11.7215
Hi	-11.7216
▁arrives	-11.7217
▁symbols	-11.7218
▁Rush	-11.7218
▁Brooks	-11.7222
▁Individual	-11.7223
▁virtue	-11.7223
▁miracle	-11.7223
▁reiterated	-11.7226
rance	-11.7226
Art	-11.7226
▁Fun	-11.7227
▁1931	-11.7227
▁glimpse	-11.7228
▁Investors	-11.7228
stro	-11.723
anga	-11.7231
▁graduates	-11.7231
vant	-11.7233
▁discretion	-11.7233
▁Cla	-11.7234
▁banner	-11.7234
guard	-11.7235
▁raises	-11.7237
ounce	-11.7237
▁awkward	-11.7238
▁Originally	-11.7239
▁86	-11.7239
▁1921	-11.7239
▁relieved	-11.724
▁bridges	-11.7241
▁WTO	-11.7243
▁salaries	-11.7243
▁newest	-11.7245
▁importantly	-11.7245
gui	-11.7246
▁appreciated	-11.7247
▁undergo	-11.7247
Pe	-11.725
▁screaming	-11.725
▁Walt	-11.7251
▁proteins	-11.7253
▁Casey	-11.7254
Everybody	-11.7254
▁faction	-11.7258
▁rockets	-11.7259
▁debuted	-11.7259
▁servants	-11.7261
▁Sco	-11.7262
▁voiced	-11.7264
▁Owen	-11.7265
▁SH	-11.7268
▁PR	-11.7271
▁supermarket	-11.7274
duction	-11.7275
▁1916	-11.7277
▁oak	-11.7277
▁Nova	-11.7278
▁columnist	-11.7283
interest	-11.7283
holders	-11.7284
▁Jets	-11.7287
▁Richardson	-11.7287
mini	-11.7287
▁Pedro	-11.7289
▁elevated	-11.7291
▁confront	-11.7292
▁cage	-11.7293
pho	-11.73
▁Explorer	-11.7305
▁sailing	-11.7307
▁tutorial	-11.7308
▁outlets	-11.7309
▁MATERIAL	-11.7311
player	-11.7314
▁subscribers	-11.7314
▁detection	-11.7315
oxy	-11.7315
▁Range	-11.7316
▁marijuana	-11.7318
▁Weather	-11.7318
▁Nixon	-11.7318
▁lawsuits	-11.7318
▁cautious	-11.7319
▁massage	-11.7321
▁Enterprise	-11.7321
▁98	-11.7322
▁volatile	-11.7323
▁Indianapolis	-11.7323
▁Sacramento	-11.7323
▁observations	-11.7324
▁hedge	-11.7324
▁emphasize	-11.7325
▁warranty	-11.7326
▁Ibrahim	-11.7328
▁pistol	-11.7328
▁alternatives	-11.7328
raj	-11.733
▁cleric	-11.7333
▁Tal	-11.7333
TM	-11.7335
▁collar	-11.7335
▁Less	-11.7335
▁justify	-11.7337
▁wherever	-11.7337
NI	-11.7337
▁Sebastian	-11.7338
ality	-11.7339
▁Alberta	-11.734
▁advocacy	-11.7343
▁appoint	-11.7343
▁Aid	-11.7344
IV	-11.7346
▁automated	-11.7346
storm	-11.7346
▁Figure	-11.7346
▁Cru	-11.7346
▁cocaine	-11.7348
▁Disease	-11.7348
▁escort	-11.7348
Cha	-11.735
addy	-11.735
▁canvas	-11.735
▁altitude	-11.735
sti	-11.7351
▁50,000	-11.7351
▁Against	-11.7351
▁ritual	-11.7352
▁Sai	-11.7353
▁Bennett	-11.7353
▁counseling	-11.7356
▁fitting	-11.7362
palace	-11.7362
▁Goldman	-11.7363
▁guitarist	-11.7364
▁Hitler	-11.7364
▁cups	-11.7367
▁comparable	-11.7368
550	-11.7372
▁outlined	-11.7372
▁Criminal	-11.7373
▁Yale	-11.7374
gger	-11.7374
wire	-11.7377
▁consequence	-11.7378
▁peninsula	-11.7378
▁Clarke	-11.7378
▁eventual	-11.7383
▁Lay	-11.7383
▁unre	-11.7383
▁Aviation	-11.7384
▁inherited	-11.7384
▁safer	-11.7384
▁generating	-11.7385
▁crowds	-11.7387
▁governance	-11.7388
▁pond	-11.7389
Ah	-11.739
▁extends	-11.7394
▁Vas	-11.7395
Hello	-11.7395
azi	-11.7397
▁epidemic	-11.7398
▁regulate	-11.7398
▁Wor	-11.7399
▁slaves	-11.7399
▁blanket	-11.7399
▁coll	-11.74
through	-11.7401
▁arrow	-11.7403
▁Mugabe	-11.7408
▁swim	-11.7411
▁appealing	-11.7412
comp	-11.7416
▁Jen	-11.7416
▁Champion	-11.7416
▁offerings	-11.7417
▁rub	-11.7422
▁Election	-11.7424
▁Derek	-11.7424
▁lately	-11.7428
▁Airways	-11.743
▁commitments	-11.743
From	-11.7433
▁wolf	-11.7433
▁Kenneth	-11.7433
▁Karzai	-11.7433
ifies	-11.7434
▁jungle	-11.7434
▁Raymond	-11.7434
▁spike	-11.7434
▁dressing	-11.7435
▁villagers	-11.7435
▁interactions	-11.7435
▁ramp	-11.7436
▁Products	-11.7436
▁delight	-11.744
▁elder	-11.7441
ogen	-11.7442
lang	-11.7444
▁Slovakia	-11.7445
▁Formula	-11.7446
▁carved	-11.7447
▁teens	-11.7447
▁bonuses	-11.7448
▁swap	-11.7452
▁varying	-11.7453
▁Performance	-11.7454
▁sometime	-11.7459
▁bust	-11.7459
rh	-11.7461
gr	-11.7461
▁corners	-11.7461
▁Corn	-11.7462
▁magical	-11.7463
dging	-11.7464
▁essence	-11.7464
▁Thousands	-11.7464
▁damaging	-11.7464
His	-11.7464
ought	-11.7465
▁nail	-11.7466
▁mega	-11.7466
▁Guest	-11.7466
▁compilation	-11.7469
▁unnecessary	-11.7469
▁discharge	-11.747
▁marched	-11.747
▁blogs	-11.7471
▁warn	-11.7471
▁historically	-11.7472
▁sculpture	-11.7476
▁vocals	-11.7476
▁filmed	-11.7476
crypt	-11.7479
▁Mubarak	-11.7479
▁autumn	-11.7479
mates	-11.7479
gur	-11.7481
▁conclude	-11.7481
▁shaped	-11.7481
▁stronghold	-11.7482
▁divine	-11.7486
▁Close	-11.7486
▁Monica	-11.7487
▁Roth	-11.7488
going	-11.7488
▁tent	-11.7488
▁Property	-11.7489
2011	-11.749
ONE	-11.749
▁font	-11.7491
▁Roma	-11.7491
▁Gau	-11.7491
▁touring	-11.7492
pad	-11.7495
ologists	-11.7495
▁Quarter	-11.7495
▁threaten	-11.7496
flex	-11.7501
MG	-11.7504
▁porch	-11.7505
vey	-11.7505
stroke	-11.7505
▁heels	-11.7508
▁editors	-11.7509
▁grill	-11.7513
▁intentions	-11.7514
cz	-11.7518
color	-11.7519
▁shadows	-11.752
▁aging	-11.7524
▁Holocaust	-11.7525
▁Clay	-11.7525
▁marble	-11.7525
anne	-11.7527
yle	-11.7528
▁woke	-11.7529
▁specialty	-11.7529
▁opener	-11.753
▁Glasgow	-11.753
▁Cool	-11.753
▁reflecting	-11.7539
▁isolation	-11.754
eon	-11.7541
▁Bryan	-11.7541
ished	-11.7543
▁Celtic	-11.7543
▁Kel	-11.7544
other	-11.7545
▁Battalion	-11.7545
▁relate	-11.7546
▁Patriots	-11.7547
▁crap	-11.7549
▁particles	-11.7551
▁Slam	-11.7551
KO	-11.7551
▁Years	-11.7553
dding	-11.7553
▁Diet	-11.7554
▁lord	-11.7555
NL	-11.7556
▁Leonard	-11.7557
▁presenting	-11.7559
▁recruiting	-11.7561
▁lengthy	-11.7563
izer	-11.7564
▁taxpayers	-11.7567
▁ruin	-11.7568
▁tossed	-11.7568
▁125	-11.7569
▁tech	-11.7569
ucci	-11.757
headed	-11.7571
rier	-11.7574
▁poems	-11.7574
▁spiral	-11.7575
bow	-11.7576
NP	-11.7576
cross	-11.758
ying	-11.758
▁Sche	-11.7581
▁harmful	-11.7582
▁Cher	-11.7583
owner	-11.7583
▁rumors	-11.7584
▁Grove	-11.7587
▁Emergency	-11.7592
▁Revenue	-11.7592
▁dubbed	-11.7597
▁Housing	-11.7597
root	-11.7601
▁shrine	-11.7602
▁Fatah	-11.7603
▁Zen	-11.7603
uli	-11.7604
▁Guardian	-11.7604
▁gates	-11.7604
▁pad	-11.7605
▁pursued	-11.7605
▁Lions	-11.7606
▁$500	-11.7607
pos	-11.7607
ode	-11.761
gla	-11.7612
▁1923	-11.7612
▁Sullivan	-11.7613
runner	-11.7614
▁holder	-11.7614
▁stationed	-11.7617
▁Dominican	-11.7617
▁Rou	-11.7619
▁extensively	-11.7622
▁coordinate	-11.7623
ink	-11.7625
▁Agent	-11.7627
▁Nicolas	-11.7627
▁selecting	-11.7628
▁Kids	-11.7629
▁withdrawn	-11.7632
▁Spencer	-11.7633
▁seasonal	-11.7634
▁Update	-11.7635
bou	-11.7639
▁tonnes	-11.7641
▁portions	-11.7641
ference	-11.7642
▁guerrilla	-11.7643
arily	-11.7645
▁Title	-11.7645
▁Dai	-11.7645
Here	-11.7646
system	-11.7646
▁hypo	-11.7646
▁Eagles	-11.7646
ost	-11.7651
▁Cowboys	-11.7653
▁1925	-11.7658
▁southeastern	-11.7659
▁donor	-11.7661
▁scare	-11.7662
▁Bali	-11.7662
▁Jamaica	-11.7663
▁rallied	-11.7664
▁Critics	-11.7664
▁colored	-11.7666
▁Fourth	-11.7668
▁Bass	-11.7668
Today	-11.7669
▁Ghana	-11.767
▁surgical	-11.7671
▁ugly	-11.7671
▁Beck	-11.7672
▁horrible	-11.7674
▁postponed	-11.7675
▁CS	-11.7675
▁predominantly	-11.7676
▁Scho	-11.7677
▁Zhu	-11.7681
▁Claire	-11.7682
2009	-11.7683
▁prospective	-11.7683
hee	-11.7684
lian	-11.7686
▁surged	-11.7688
games	-11.7689
▁catching	-11.769
ect	-11.769
▁Revolutionary	-11.7691
World	-11.7692
▁fl	-11.7693
VI	-11.7693
MD	-11.7695
▁tragic	-11.7695
▁renew	-11.7695
▁PhD	-11.7697
▁Les	-11.7698
▁Montgomery	-11.77
▁Privacy	-11.77
lucky	-11.7702
888	-11.7702
ichi	-11.7706
FO	-11.7708
▁pitching	-11.7709
▁packaging	-11.7711
▁coordination	-11.7711
▁undermine	-11.7714
GC	-11.7715
▁paragraph	-11.7716
▁Bil	-11.7716
▁License	-11.7716
Pacific	-11.7717
nine	-11.7721
▁Sarkozy	-11.7721
▁Cow	-11.7723
ario	-11.7723
▁HK	-11.7723
▁Easter	-11.7726
▁revealing	-11.7728
▁superb	-11.7728
last	-11.773
▁Companies	-11.7731
▁prompt	-11.7732
▁cliff	-11.7732
▁streams	-11.7734
ø	-11.7734
▁functioning	-11.7734
USA	-11.7735
▁yields	-11.7735
▁Pel	-11.7736
▁Glass	-11.7736
▁flown	-11.7736
▁territorial	-11.7737
▁practiced	-11.7738
▁Adv	-11.7738
▁rage	-11.7739
▁creativity	-11.7742
▁Cle	-11.7743
▁Kill	-11.7743
IX	-11.7743
stand	-11.7744
para	-11.7748
▁Graduate	-11.7748
finance	-11.7749
▁marketplace	-11.7749
▁unsuccessful	-11.7749
▁statistical	-11.775
zhou	-11.775
bbing	-11.7751
▁Finn	-11.7752
▁persistent	-11.7753
▁hammer	-11.7753
▁mate	-11.7755
▁parked	-11.7756
▁Yasser	-11.7758
▁gorgeous	-11.7758
lib	-11.7759
rina	-11.776
▁Glenn	-11.7763
▁truce	-11.7763
▁ripped	-11.7763
wig	-11.7765
▁conferences	-11.7765
clu	-11.7765
▁Pictures	-11.7766
▁suited	-11.7767
▁implant	-11.7768
▁Brent	-11.7769
▁refuge	-11.7769
▁overhaul	-11.7771
▁breakdown	-11.7771
beat	-11.7772
▁revival	-11.7773
lessness	-11.7773
▁Commons	-11.7773
▁pie	-11.7775
▁payroll	-11.7776
▁mailing	-11.7776
▁BE	-11.7778
▁introducing	-11.7778
▁Players	-11.7779
hah	-11.7783
heads	-11.7784
▁whistle	-11.7784
▁tires	-11.7785
LL	-11.7785
plant	-11.7787
borough	-11.7787
▁forecasts	-11.7789
Th	-11.779
fee	-11.7792
▁Past	-11.7792
ROM	-11.7793
▁iPod	-11.7794
chor	-11.7794
▁Osama	-11.7795
▁rip	-11.7796
DO	-11.7796
▁suburbs	-11.7798
▁sliding	-11.7798
▁teenager	-11.7799
hil	-11.7799
because	-11.78
▁commands	-11.78
▁intact	-11.7801
▁jailed	-11.7801
▁worthy	-11.7802
uce	-11.7804
▁spun	-11.7804
▁bombers	-11.7804
▁nephew	-11.7805
▁cancellation	-11.7805
▁beast	-11.7806
lb	-11.7806
uba	-11.7806
▁10%	-11.7809
▁sprint	-11.781
pea	-11.7811
HC	-11.7816
▁honors	-11.7818
▁imagined	-11.7818
▁Wildlife	-11.7821
▁Gregory	-11.7821
cade	-11.7821
▁yeah	-11.7822
hitter	-11.7822
▁Anyone	-11.7824
▁Wing	-11.7825
NET	-11.7825
▁leverage	-11.7825
▁designing	-11.7826
▁interference	-11.7826
▁por	-11.7827
▁Standing	-11.7828
▁Kyle	-11.7828
▁prototype	-11.7831
▁1915	-11.7831
▁burial	-11.7831
▁Qua	-11.7832
def	-11.7833
phan	-11.7834
_1	-11.7835
▁Mahmoud	-11.7836
▁disposal	-11.7836
▁zoo	-11.7837
▁ASEAN	-11.7838
FF	-11.784
2008	-11.7841
▁fragile	-11.7842
Ad	-11.7842
▁Results	-11.7842
▁inspections	-11.7847
linger	-11.785
▁Sure	-11.7851
▁Gilbert	-11.7852
▁batch	-11.7854
abi	-11.7855
▁Official	-11.7856
▁Mut	-11.7856
▁Od	-11.7859
▁Budget	-11.7863
▁stall	-11.7864
fect	-11.7864
▁occurring	-11.7865
▁knot	-11.7865
▁notified	-11.7865
▁belly	-11.7866
▁Filed	-11.7868
▁caring	-11.7868
▁Hundreds	-11.7868
▁licenses	-11.7868
▁cellular	-11.7869
zzo	-11.7869
▁obstacles	-11.787
rol	-11.7871
AW	-11.7871
▁fond	-11.7871
security	-11.7872
▁attractions	-11.7875
too	-11.7876
▁1926	-11.7878
atic	-11.7881
▁Riley	-11.7881
▁drilling	-11.7882
▁exchanged	-11.7883
▁bachelor	-11.7884
▁Filipino	-11.7884
▁Anyway	-11.7884
country	-11.7885
▁shifting	-11.7889
▁Oz	-11.789
▁sketch	-11.789
▁chapel	-11.7891
▁laughter	-11.7892
▁Independence	-11.7894
▁pillow	-11.7895
▁width	-11.7895
▁adverse	-11.7897
Most	-11.79
▁congress	-11.7902
▁electro	-11.7903
▁Joan	-11.7906
BT	-11.7906
▁warfare	-11.7906
▁crushed	-11.7907
▁Bristol	-11.791
▁junk	-11.7911
▁destinations	-11.7912
BE	-11.7913
tem	-11.7914
▁delete	-11.7916
▁supporter	-11.7916
▁Hugh	-11.792
▁Railroad	-11.7921
▁Laboratory	-11.7921
dro	-11.7923
▁jets	-11.7923
▁spirits	-11.7927
▁rounded	-11.793
▁Brook	-11.793
▁Bachelor	-11.7932
▁aftermath	-11.7932
▁Macedonia	-11.7936
▁SR	-11.7936
▁transparent	-11.7937
NY	-11.7937
▁trio	-11.7938
▁affection	-11.7939
borne	-11.7939
▁barred	-11.7941
▁Higher	-11.7941
yes	-11.7942
▁segments	-11.7942
▁marathon	-11.7942
bl	-11.7945
cil	-11.7945
▁hug	-11.7945
▁immigrant	-11.7946
▁Broad	-11.7946
▁travels	-11.7947
big	-11.7948
▁Bulgarian	-11.7951
▁Hit	-11.7951
Tra	-11.7952
▁bark	-11.7953
▁calculator	-11.7953
▁believing	-11.7953
▁borrowing	-11.7953
gers	-11.7957
▁iPad	-11.7958
▁neighbouring	-11.796
▁desperately	-11.7961
▁bride	-11.7961
▁wiped	-11.7961
▁allied	-11.7962
▁Kos	-11.7965
Emp	-11.7965
▁Kid	-11.7966
axis	-11.7968
▁successive	-11.7968
▁Sanchez	-11.7969
▁slept	-11.7969
cover	-11.7969
▁enrich	-11.7969
▁File	-11.7971
▁colorful	-11.7974
arra	-11.7974
▁Complete	-11.7974
▁delighted	-11.7975
tree	-11.7976
▁incorporate	-11.7977
▁Trophy	-11.798
▁fold	-11.798
count	-11.7984
▁broadcaster	-11.7985
▁89	-11.7987
▁measurement	-11.7987
▁Blues	-11.7987
▁complexity	-11.7989
▁turnout	-11.799
▁Sharp	-11.799
sided	-11.7993
▁Practice	-11.7996
tim	-11.7996
▁destroying	-11.7996
ym	-11.7997
▁Tanzania	-11.8
▁shaft	-11.8001
fon	-11.8002
▁colleague	-11.8002
▁87	-11.8002
tron	-11.8004
▁housed	-11.8006
▁arc	-11.8006
▁litigation	-11.8006
dler	-11.8007
▁administrators	-11.8007
▁Ky	-11.8011
▁tsunami	-11.8012
▁vacuum	-11.8012
▁folded	-11.8013
rob	-11.8013
hart	-11.8014
▁journalism	-11.8014
▁shapes	-11.8016
▁Rai	-11.8017
▁Av	-11.8018
ugh	-11.8019
fur	-11.8023
grove	-11.8023
yang	-11.8023
▁peaked	-11.8025
▁Palmer	-11.8026
ecu	-11.8026
▁geo	-11.8028
▁Path	-11.8036
▁undertaken	-11.8037
ald	-11.8038
▁basin	-11.8039
maid	-11.8041
OK	-11.8041
founder	-11.8041
▁Average	-11.8044
▁spa	-11.8045
hab	-11.8046
▁Located	-11.8049
▁navigate	-11.8049
▁medicines	-11.8051
vit	-11.8051
ress	-11.8051
▁pills	-11.8051
▁Basic	-11.8053
Right	-11.8056
iling	-11.8057
▁succession	-11.8058
▁quarterly	-11.806
▁horizontal	-11.8061
COM	-11.8062
FS	-11.8063
▁cooling	-11.8064
▁sequel	-11.8066
▁Pit	-11.8066
▁Julie	-11.8068
▁reviewing	-11.8068
Fe	-11.8068
▁merchandise	-11.8071
cl	-11.8071
ional	-11.8072
▁thereafter	-11.8073
▁weaker	-11.8074
▁hatch	-11.8075
▁clever	-11.8076
▁Jeffrey	-11.8077
mount	-11.8079
erman	-11.808
▁cons	-11.8081
allow	-11.8084
vine	-11.8087
▁Sheikh	-11.8087
▁Eco	-11.8089
gged	-11.809
▁suck	-11.809
▁convincing	-11.8092
▁cooked	-11.8093
gard	-11.8097
▁complications	-11.8098
▁Pie	-11.8098
▁influences	-11.8099
ranking	-11.81
▁Easy	-11.8101
som	-11.8101
▁torch	-11.8101
▁specifications	-11.8102
▁horizon	-11.8102
RP	-11.8103
▁Miguel	-11.8103
▁inspire	-11.8103
▁Cons	-11.8104
▁upward	-11.8104
▁scam	-11.8106
▁Arabs	-11.8107
▁Fre	-11.8108
▁fatigue	-11.8109
▁emphasized	-11.8109
▁Pac	-11.811
▁Benedict	-11.811
Will	-11.811
▁ligne	-11.8112
▁bypass	-11.8113
▁rider	-11.8116
▁Create	-11.8117
▁variables	-11.8119
sponsored	-11.8119
▁Mercedes	-11.812
▁freshman	-11.8125
▁stunned	-11.8125
watt	-11.8126
▁fictional	-11.8127
president	-11.8128
▁Stevens	-11.8128
▁dare	-11.813
▁Mills	-11.813
2004	-11.8132
Har	-11.8132
▁Tyler	-11.8132
▁reservation	-11.8134
▁originated	-11.8134
▁insult	-11.8134
tical	-11.8134
▁tapes	-11.8135
▁utilities	-11.8136
FR	-11.8136
▁fare	-11.8136
proof	-11.8137
▁eased	-11.8139
▁performers	-11.814
central	-11.814
DL	-11.814
ential	-11.814
▁dense	-11.8141
liner	-11.8142
▁Current	-11.8144
80,000	-11.8145
▁Customer	-11.8145
rug	-11.8149
▁passport	-11.815
uted	-11.8151
osh	-11.8152
▁preservation	-11.8152
▁Sudanese	-11.8153
▁Paulo	-11.8154
▁laying	-11.8156
▁Algeria	-11.8157
▁disagree	-11.8158
▁subway	-11.816
▁intake	-11.816
▁sexually	-11.8161
lene	-11.8161
▁pupils	-11.8162
▁civilization	-11.8162
Au	-11.8163
▁Mao	-11.8163
▁premises	-11.8164
▁Congressional	-11.8164
▁Gift	-11.8165
mul	-11.8167
▁booth	-11.8167
kovic	-11.8167
▁dimensions	-11.8168
▁supreme	-11.8168
▁strategist	-11.8168
▁scratch	-11.8169
▁NI	-11.817
▁cheeks	-11.817
▁Saints	-11.8172
equi	-11.8173
▁emperor	-11.8174
cali	-11.8175
▁Industries	-11.8175
▁cleaner	-11.8178
raising	-11.8179
▁Simply	-11.8179
▁Organisation	-11.818
▁Lynn	-11.818
▁monument	-11.8181
1990	-11.8181
▁Michelle	-11.8182
▁consumed	-11.8182
North	-11.8182
▁verbal	-11.8183
▁regards	-11.8183
▁specially	-11.8184
▁homeowners	-11.8184
▁rankings	-11.8187
▁cop	-11.8187
▁rises	-11.8188
lai	-11.8188
uter	-11.8189
▁$30	-11.8191
rey	-11.8193
▁bout	-11.8194
▁blaze	-11.8195
▁excellence	-11.8196
▁meantime	-11.8196
▁clue	-11.8198
oka	-11.8198
▁Seth	-11.8198
▁posed	-11.8199
▁weakened	-11.8201
ingly	-11.8206
▁attach	-11.8209
▁Soccer	-11.8212
▁Starr	-11.8212
▁greeted	-11.8215
▁Someone	-11.8218
▁confidential	-11.8218
lio	-11.8218
Su	-11.8218
▁pill	-11.8219
▁Marx	-11.822
using	-11.8221
▁Bach	-11.8224
▁Adult	-11.8224
▁compelling	-11.8229
▁reservations	-11.8231
▁endangered	-11.8231
rot	-11.8232
▁presentations	-11.8234
▁Leeds	-11.8234
▁embargo	-11.8234
lik	-11.8234
▁extremists	-11.8234
▁Bloomberg	-11.8234
▁accounted	-11.8237
ND	-11.8239
▁cheat	-11.8239
▁studios	-11.8239
▁grief	-11.824
mina	-11.824
▁tougher	-11.8241
▁advancing	-11.8242
▁designation	-11.8242
▁preference	-11.8242
OD	-11.8243
built	-11.8243
2006	-11.8246
▁LLC	-11.8247
▁Yemen	-11.8249
ete	-11.825
▁Writing	-11.8251
strom	-11.8251
dol	-11.8255
▁Roosevelt	-11.8256
2007	-11.8256
driven	-11.8256
▁centered	-11.8257
2001	-11.8258
pas	-11.826
▁grocery	-11.8261
▁steering	-11.8262
▁chunk	-11.8262
bing	-11.8262
▁assign	-11.8262
▁shells	-11.8263
kat	-11.8264
wr	-11.8264
▁licensing	-11.8267
▁qualifier	-11.8267
▁reliability	-11.8267
▁Bengal	-11.8269
▁Fen	-11.827
▁celebrations	-11.8272
▁cholesterol	-11.8272
cis	-11.8273
▁antique	-11.8274
▁planting	-11.8274
ERS	-11.8274
▁renewable	-11.8275
▁Potter	-11.8275
▁sexy	-11.8276
rai	-11.8277
▁prey	-11.8278
OB	-11.8278
▁Bran	-11.8278
SR	-11.8278
▁beloved	-11.8278
▁cigarettes	-11.8282
rone	-11.8283
▁Yellow	-11.8283
▁Idaho	-11.8284
▁15,000	-11.8285
kers	-11.8285
odo	-11.8285
▁Than	-11.8286
▁Anglo	-11.8286
▁schemes	-11.8286
▁raced	-11.8287
▁Stop	-11.8288
▁downturn	-11.8289
▁underway	-11.8289
▁cottage	-11.829
operative	-11.8293
▁Ai	-11.8294
▁moisture	-11.8295
hui	-11.8298
▁1913	-11.83
chel	-11.83
▁invented	-11.8301
▁Hus	-11.8301
▁floods	-11.8302
▁flooded	-11.8303
▁biology	-11.8304
▁towers	-11.8307
ctic	-11.8309
written	-11.8309
RF	-11.8311
▁linear	-11.8313
▁Taking	-11.8313
▁Hon	-11.8315
▁surfaces	-11.8315
▁seller	-11.8316
aly	-11.8316
▁overview	-11.8316
▁Bud	-11.8317
▁Bee	-11.832
▁Starting	-11.832
▁shine	-11.8322
▁Faculty	-11.8322
inda	-11.8323
▁Swan	-11.8323
▁organs	-11.8323
▁sends	-11.8326
iko	-11.8326
ias	-11.8326
▁dictator	-11.8327
▁stabilize	-11.8328
▁farther	-11.8328
▁integral	-11.8329
END	-11.8329
▁careers	-11.833
▁browse	-11.833
▁continuously	-11.8331
▁brokerage	-11.8331
▁barn	-11.8331
▁sc	-11.8332
rl	-11.8333
▁celebrating	-11.8333
▁Ethan	-11.8335
rap	-11.8336
▁financially	-11.8337
NG	-11.8337
come	-11.8338
SV	-11.8341
▁varies	-11.8341
achi	-11.8341
lateral	-11.8342
▁Dodge	-11.8344
▁publishers	-11.8344
▁wagon	-11.8345
▁recruited	-11.8346
▁minorities	-11.8346
LM	-11.8348
▁origins	-11.8349
▁Cardinals	-11.8349
▁Geo	-11.835
▁afterward	-11.835
▁Face	-11.835
▁WA	-11.8352
[...]
