<unk>	0
<s>	0
</s>	0
-	-2.4108
/	-2.60278
.	-2.65538
://	-3.46249
▁https	-3.53559
_	-3.55076
=	-3.81725
www	-4.04877
com	-4.05337
&	-4.36818
s	-4.9266
0	-4.96648
2	-5.00359
1	-5.02133
a	-5.03373
?	-5.10833
3	-5.13184
9	-5.19595
e	-5.23746
4	-5.25397
c	-5.34654
5	-5.36002
8	-5.39639
6	-5.40378
7	-5.45987
d	-5.46176
b	-5.52995
de	-5.55696
html	-5.65098
gclid	-5.68442
v	-5.72175
utm	-5.76768
g	-5.80565
en	-5.82302
f	-5.86547
▁	-5.8872
p	-5.88917
i	-5.9256
bwe	-6.05798
m	-6.088
id	-6.1062
co	-6.1207
o	-6.14776
in	-6.17884
t	-6.19136
=&	-6.22613
org	-6.26003
q	-6.26054
r	-6.27228
▁http	-6.28672
es	-6.28793
x	-6.29023
/?	-6.31978
y	-6.32724
+	-6.38397
google	-6.41306
n	-6.44167
k	-6.44484
l	-6.45916
u	-6.54026
to	-6.57675
it	-6.58362
cj	-6.59946
w	-6.60255
net	-6.61864
pdf	-6.62282
fr	-6.66455
:	-6.72286
wcb	-6.73298
watch	-6.76045
nl	-6.77738
br	-6.78065
ch	-6.78428
the	-6.7914
youtube	-6.8036
ds	-6.80759
z	-6.81859
h	-6.8317
j	-6.84412
source	-6.85741
search	-6.92439
wiki	-6.92887
and	-6.93543
jp	-6.93552
aw	-6.97559
uk	-6.99704
au	-7.00787
of	-7.00883
campaign	-7.01922
la	-7.0293
ca	-7.03116
php	-7.04003
pl	-7.04399
no	-7.10819
kcqia	-7.11134
medium	-7.11778
us	-7.15667
se	-7.19506
be	-7.20495
wikipedia	-7.22005
tr	-7.22607
is	-7.23604
|	-7.25799
eaiaiqobchmi	-7.26311
content	-7.28442
news	-7.3177
ad	-7.322
gclsrc	-7.33564
blog	-7.34592
tw	-7.34737
do	-7.38052
on	-7.38537
th	-7.4057
ac	-7.41552
for	-7.46927
at	-7.47008
ar	-7.473
=1&	-7.47521
vn	-7.48174
pt	-7.5008
go	-7.53828
gov	-7.53895
index	-7.55773
an	-7.56221
matt	-7.56545
product	-7.56933
ru	-7.57915
cjwkcaia	-7.58872
na	-7.59288
kwd	-7.59828
my	-7.62142
kr	-7.63461
,	-7.65259
hl	-7.65664
mx	-7.66299
cpc	-7.68103
edu	-7.69779
facebook	-7.70313
as	-7.72731
sa	-7.73073
article	-7.75833
tv	-7.76062
hsa	-7.76154
da	-7.76233
el	-7.7627
pd	-7.76512
al	-7.77184
amazon	-7.79283
za	-7.79634
term	-7.79831
how	-7.8089
questions	-7.8399
fi	-7.84107
ro	-7.84203
https	-7.84746
web	-7.85039
zh	-7.85756
er	-7.864
dk	-7.868
htm	-7.87469
info	-7.88067
tag	-7.88495
all	-7.8862
sem	-7.88943
online	-7.90013
video	-7.90404
or	-7.91614
le	-7.91773
wp	-7.92051
ie	-7.92464
ref	-7.93641
me	-7.93662
un	-7.9373
dp	-7.94671
cid	-7.96408
view	-7.96549
ja	-7.96709
pro	-7.96962
products	-7.97637
cz	-7.99463
di	-8.01221
shop	-8.01364
re	-8.01964
page	-8.03768
qavd	-8.04414
login	-8.04529
cl	-8.05552
aspx	-8.05708
home	-8.05733
brand	-8.05811
sl	-8.05933
download	-8.06776
10	-8.09354
cc	-8.09774
et	-8.10082
ko	-8.11088
pla	-8.11384
forum	-8.11701
il	-8.1247
type	-8.12615
si	-8.13109
microsoft	-8.13127
ealw	-8.13454
%2	-8.14585
ed	-8.16018
ph	-8.1967
mt	-8.1978
hu	-8.19959
pc	-8.21161
gb	-8.21395
by	-8.22786
support	-8.23652
ec	-8.23813
eu	-8.24075
fd	-8.24164
kw	-8.2449
new	-8.2484
gr	-8.25133
nz	-8.25209
15	-8.25263
df	-8.2585
live	-8.2647
io	-8.26681
24	-8.27372
li	-8.28317
detail	-8.2861
=1	-8.28734
with	-8.30299
pe	-8.30398
so	-8.32526
af	-8.3336
ps	-8.34374
ne	-8.34686
du	-8.35174
te	-8.3533
ta	-8.35448
20	-8.35924
vi	-8.36691
post	-8.36931
wa	-8.36978
stackoverflow	-8.37053
up	-8.3725
ap	-8.37451
free	-8.37915
true	-8.38341
sk	-8.3886
device	-8.39862
question	-8.40383
app	-8.40485
ce	-8.4065
pa	-8.40987
ma	-8.41794
articles	-8.41865
ae	-8.42175
em	-8.42266
code	-8.42389
files	-8.42425
tu	-8.42606
;	-8.43335
ly	-8.43482
keyword	-8.43612
25	-8.43913
docs	-8.43996
st	-8.44209
19	-8.44924
ve	-8.45027
18	-8.45042
12	-8.45521
store	-8.45543
data	-8.45975
ct	-8.46199
ba	-8.46392
cn	-8.46439
01	-8.46708
os	-8.47024
=0&	-8.4741
mi	-8.4746
ai	-8.48025
network	-8.48262
cm	-8.48727
29	-8.49065
reddit	-8.49386
aid	-8.49569
11	-8.49958
file	-8.49964
ef	-8.50076
)	-8.5015
21	-8.50275
13	-8.51023
windows	-8.51599
para	-8.51812
src	-8.51866
14	-8.52018
su	-8.52322
07	-8.52498
bo	-8.52693
from	-8.53141
comments	-8.53188
hk	-8.53272
adwords	-8.5343
hp	-8.53596
ab	-8.53921
ws	-8.54228
ka	-8.54425
va	-8.54471
top	-8.55248
cq	-8.5588
site	-8.56202
sc	-8.56839
ag	-8.56936
ir	-8.56969
best	-8.57055
hvqmt	-8.57216
hvdev	-8.57219
hvadid	-8.57286
hvnetw	-8.57394
hvrand	-8.57618
hvpone	-8.57923
hvptwo	-8.57923
hvpos	-8.57925
what	-8.5815
lp	-8.58355
mm	-8.58501
fa	-8.58527
category	-8.58898
ver	-8.58988
rl	-8.59169
30	-8.59529
hvtargid	-8.59552
55	-8.59606
man	-8.59607
ms	-8.59612
hvlocphy	-8.59708
hvlocint	-8.60023
hvdvcmdl	-8.60251
list	-8.60377
que	-8.60666
16	-8.60961
ao	-8.62734
vs	-8.62985
vd	-8.63044
lt	-8.63758
08	-8.64093
00	-8.64645
auto	-8.64677
business	-8.64842
dc	-8.65922
uploads	-8.66383
con	-8.66619
ua	-8.66824
ing	-8.68225
ni	-8.68554
del	-8.69181
aiv	-8.70238
gl	-8.70384
media	-8.70445
09	-8.70495
hd	-8.7075
17	-8.71438
cd	-8.71689
doc	-8.72231
hoc	-8.72297
ga	-8.74516
im	-8.75354
you	-8.75568
url	-8.75756
brainly	-8.76127
nu	-8.76205
group	-8.76321
lang	-8.76421
help	-8.76606
linkedin	-8.76975
^	-8.77412
ke	-8.77609
service	-8.77898
cs	-8.78089
board	-8.78396
game	-8.78533
guide	-8.79123
health	-8.79331
topic	-8.79467
fl	-8.79564
sp	-8.79622
mp	-8.79663
city	-8.8027
rs	-8.80649
28	-8.80999
one	-8.81021
hr	-8.81958
nw	-8.81963
db	-8.82229
ppc	-8.82351
twitter	-8.82353
wt	-8.83756
ti	-8.83816
22	-8.83914
dr	-8.84016
fc	-8.84066
item	-8.84181
47	-8.8434
sg	-8.84684
43	-8.84817
fe	-8.84881
car	-8.84897
test	-8.84968
ee	-8.85396
50	-8.85771
bd	-8.86124
02	-8.86343
naver	-8.86397
bg	-8.86583
company	-8.87093
ki	-8.87414
gi	-8.87587
ge	-8.8759
world	-8.8764
can	-8.8771
04	-8.87758
05	-8.8787
je	-8.87977
van	-8.88463
ip	-8.88531
per	-8.88633
78	-8.88956
am	-8.89234
document	-8.89529
ff	-8.89556
69	-8.8966
are	-8.90101
sites	-8.90107
49	-8.90316
cb	-8.9034
og	-8.90763
bi	-8.9085
tech	-8.912
03	-8.91202
loc	-8.91295
cat	-8.9135
les	-8.91446
ng	-8.91471
bb	-8.91475
sv	-8.92306
pr	-8.92707
60	-8.92839
portal	-8.93504
book	-8.93578
!	-8.93598
covid	-8.93618
27	-8.93806
aa	-8.94017
26	-8.94172
bc	-8.94279
he	-8.94428
mo	-8.94652
um	-8.94668
op	-8.95003
about	-8.95421
32	-8.95501
aud	-8.9565
06	-8.95775
get	-8.95779
key	-8.96205
45	-8.96253
99	-8.96335
76	-8.96418
ml	-8.96582
books	-8.96825
94	-8.96879
ha	-8.97105
office	-8.97163
ex	-8.97664
8&	-8.97693
pk	-8.98102
ic	-8.9825
dan	-8.98438
creative	-8.98624
english	-8.99185
text	-8.99212
53	-8.99303
ra	-8.99589
38	-8.99851
ji	-8.99876
details	-9.00018
ww	-9.00061
23	-9.00079
hotel	-9.00209
answers	-9.00226
!!	-9.00482
om	-9.00657
tt	-9.00876
hi	-9.00992
out	-9.01133
~	-9.01193
pages	-9.01233
default	-9.01257
we	-9.01652
-2-	-9.01671
hydadcr	-9.01701
lo	-9.01736
instagram	-9.01755
ou	-9.02012
sig	-9.02251
lw	-9.0248
57	-9.02496
64	-9.0261
your	-9.02783
31	-9.0288
po	-9.02941
gs	-9.031
35	-9.03103
asp	-9.03291
services	-9.03353
39	-9.03617
name	-9.03717
blogspot	-9.03841
85	-9.03874
play	-9.03978
san	-9.04075
med	-9.04211
life	-9.04679
-1-	-9.04792
videos	-9.0498
qa	-9.05239
-10-	-9.05272
59	-9.05285
art	-9.05485
oi	-9.05778
shopping	-9.05817
js	-9.06074
link	-9.06429
wl	-9.0658
eb	-9.06655
46	-9.06855
ii	-9.06866
dm	-9.06898
scholar	-9.06902
dsa	-9.07171
cf	-9.07176
ea	-9.07197
adgrpid	-9.07199
sport	-9.07504
pi	-9.07516
film	-9.07689
if	-9.07962
34	-9.07974
gn	-9.08092
48	-9.08167
ved	-9.08507
mobile	-9.08544
40	-9.08771
und	-9.08797
rch	-9.08889
matchtype	-9.08922
not	-9.08955
ci	-9.08972
black	-9.09027
tl	-9.09298
93	-9.09444
forums	-9.09579
word	-9.09715
series	-9.09723
44	-9.09859
fandom	-9.09945
fw	-9.09994
gg	-9.10035
los	-9.10104
plus	-9.1013
bf	-9.10466
qx	-9.10618
[	-9.10653
qo	-9.10712
community	-9.10848
36	-9.11144
58	-9.1156
campaignid	-9.11913
sub	-9.11916
%3	-9.12097
37	-9.12861
88	-9.13058
target	-9.1308
cu	-9.13513
show	-9.13513
core	-9.13857
ia	-9.14017
gc	-9.1408
cw	-9.14119
66	-9.14179
lu	-9.14403
sex	-9.14473
jobs	-9.15001
movie	-9.15077
public	-9.15118
utf	-9.15149
games	-9.15192
cam	-9.15529
ya	-9.15542
92	-9.15705
posts	-9.1588
79	-9.15924
fb	-9.1635
form	-9.16766
=2&	-9.17011
ho	-9.17158
mc	-9.17433
av	-9.17634
review	-9.18117
set	-9.18662
42	-9.18903
70	-9.19165
68	-9.19295
user	-9.19673
github	-9.19948
80	-9.19961
_(	-9.20274
54	-9.20433
cr	-9.20507
smart	-9.20568
41	-9.20641
client	-9.2112
33	-9.21272
nb	-9.21403
ei	-9.21407
65	-9.21904
lg	-9.2229
serp	-9.224
pg	-9.22432
56	-9.23403
yi	-9.23462
98	-9.2348
digital	-9.23543
ri	-9.23644
mg	-9.2387
des	-9.24014
75	-9.24058
time	-9.24131
ku	-9.24222
90	-9.24227
-2021-	-9.24236
qiv	-9.24381
adgroupid	-9.24584
ny	-9.24746
dd	-9.24767
oh	-9.24899
kcqjw	-9.25006
keywords	-9.25135
ty	-9.25311
full	-9.25331
51	-9.2543
air	-9.25519
gob	-9.25621
89	-9.25638
96	-9.25969
ky	-9.2608
rx	-9.2619
sh	-9.26218
52	-9.26381
td	-9.26488
kid	-9.26518
porn	-9.26812
bbs	-9.26925
95	-9.27256
der	-9.27277
threads	-9.2732
system	-9.27359
ts	-9.27649
power	-9.2787
oq	-9.27915
bank	-9.27945
signin	-9.28109
rd	-9.28319
24.	-9.28853
samsung	-9.28924
hc	-9.29355
jm	-9.29398
77	-9.29462
find	-9.29675
#	-9.29774
documents	-9.3004
97	-9.30263
job	-9.30347
tistory	-9.3075
74	-9.31449
club	-9.31499
gp	-9.31603
read	-9.31764
agid	-9.31836
day	-9.31873
lv	-9.32107
ui	-9.32402
ban	-9.32539
84	-9.32752
67	-9.32835
86	-9.33022
wo	-9.33105
wr	-9.33526
apps	-9.33789
line	-9.33871
aff	-9.34295
87	-9.34539
yahoo	-9.34641
open	-9.35028
exact	-9.35275
hf	-9.35948
son	-9.35956
km	-9.35969
jb	-9.36141
story	-9.3616
61	-9.36164
software	-9.36187
general	-9.36319
land	-9.37004
aps	-9.37176
yn	-9.37336
mu	-9.37888
model	-9.38004
ok	-9.38048
law	-9.38074
ssl	-9.38164
red	-9.38184
locale	-9.38369
chi	-9.38573
az	-9.38847
super	-9.38903
channel	-9.38964
las	-9.39113
box	-9.39126
ebay	-9.39199
sea	-9.39345
star	-9.39399
apple	-9.39564
dev	-9.39721
redirect	-9.39996
global	-9.40234
oy	-9.4028
%	-9.40499
school	-9.40569
placement	-9.40575
android	-9.40671
63	-9.4099
vis	-9.41245
srf	-9.41348
mbi	-9.41679
api	-9.4198
82	-9.42052
uni	-9.42226
science	-9.42337
gen	-9.42389
bl	-9.42492
dl	-9.42546
81	-9.42756
social	-9.43005
xc	-9.43622
sale	-9.43746
hoi	-9.44015
gt	-9.44109
state	-9.44165
sr	-9.44188
bar	-9.44345
py	-9.44347
work	-9.44432
ut	-9.44433
por	-9.44786
ur	-9.45188
sm	-9.45232
psc	-9.45275
local	-9.454
xxx	-9.45478
tn	-9.45525
max	-9.45534
qk	-9.4607
ek	-9.46142
cg	-9.4617
xvideos	-9.46279
73	-9.46347
cards	-9.46405
food	-9.46716
ht	-9.47
72	-9.4705
management	-9.47086
62	-9.47347
main	-9.47385
uri	-9.47411
83	-9.4797
pre	-9.48276
use	-9.48602
design	-9.48659
jo	-9.48666
mk	-9.48675
kg	-9.48882
shopee	-9.49051
intl	-9.49167
profile	-9.49211
1.0&	-9.49325
outlook	-9.49394
cmp	-9.49492
market	-9.49506
pm	-9.49522
faq	-9.49557
-21&	-9.49618
title	-9.4966
hm	-9.49733
71	-9.4975
ul	-9.49752
quora	-9.5009
zx	-9.501
wi	-9.50123
ev	-9.50196
biz	-9.50423
using	-9.50593
music	-9.51086
original	-9.51099
house	-9.51276
jg	-9.51368
-3-	-9.51372
owa	-9.51393
=13&	-9.51451
iz	-9.51494
mode	-9.51569
zu	-9.51642
nt	-9.51684
care	-9.51699
cp	-9.51754
bu	-9.52075
plan	-9.52131
ze	-9.525
table	-9.52601
pin	-9.52664
ik	-9.52779
nih	-9.53042
property	-9.5328
ocr	-9.53532
movies	-9.5356
dq	-9.53602
flash	-9.5381
rver	-9.53897
asc	-9.53935
91	-9.53948
wreply	-9.53985
fp	-9.54068
travel	-9.54165
center	-9.54437
mail	-9.54653
tp	-9.54667
dictionary	-9.54755
sw	-9.55012
server	-9.55244
paid	-9.55413
kwcid	-9.55476
tool	-9.55923
rpsnv	-9.56032
over	-9.56171
wordpress	-9.56316
language	-9.56395
india	-9.56699
ak	-9.56717
match	-9.56753
pinterest	-9.56925
xnxx	-9.57161
pid	-9.57245
ah	-9.57343
bio	-9.57523
position	-9.57815
bn	-9.57834
lat	-9.58098
status	-9.58529
reviews	-9.5856
noticias	-9.58751
mit	-9.58774
ns	-9.58941
resources	-9.59008
acc	-9.59103
tc	-9.59251
buy	-9.5954
bing	-9.59706
big	-9.59731
card	-9.59792
nc	-9.59809
mod	-9.59865
led	-9.59908
error	-9.60008
ask	-9.60127
tai	-9.6016
entry	-9.60388
pq	-9.60622
targetid	-9.60639
contact	-9.60687
cua	-9.60852
ler	-9.61186
people	-9.61266
auth	-9.61275
ter	-9.61312
cloud	-9.61342
cho	-9.61421
tips	-9.6162
project	-9.61658
eg	-9.61767
chapter	-9.6184
fm	-9.62218
md	-9.6226
wy	-9.625
class	-9.62626
account	-9.62707
men	-9.62737
false	-9.62824
adredir	-9.62845
die	-9.62919
library	-9.63082
study	-9.63234
researchgate	-9.63476
gu	-9.63578
uc	-9.63691
=3&	-9.64364
why	-9.64423
hot	-9.64436
jsp	-9.64441
education	-9.64541
start	-9.64618
manual	-9.64627
kb	-9.64728
adgroup	-9.64894
organic	-9.65368
sur	-9.65651
python	-9.65715
price	-9.66014
ju	-9.66197
512	-9.66527
cv	-9.66648
solutions	-9.66688
action	-9.66773
ads	-9.67043
excel	-9.67047
response	-9.67214
nlm	-9.67223
tools	-9.67289
params	-9.67511
tin	-9.67602
location	-9.67694
kc	-9.67906
pos	-9.67912
aod	-9.67913
tm	-9.67937
win	-9.68085
drive	-9.68414
nm	-9.68501
country	-9.68624
met	-9.68669
doi	-9.68676
real	-9.68817
publication	-9.68843
porno	-9.69016
rh	-9.69145
od	-9.69204
tb	-9.69265
vol	-9.69265
booking	-9.69298
mr	-9.69502
ft	-9.69768
desktop	-9.69958
information	-9.70203
master	-9.70345
sports	-9.70471
menu	-9.70503
lab	-9.70589
nd	-9.70632
ry	-9.70653
qu	-9.70671
ls	-9.70703
▁|	-9.70712
ncbi	-9.70821
mat	-9.71018
lk	-9.7102
cy	-9.71056
tags	-9.71108
sn	-9.71145
park	-9.71543
way	-9.71576
dy	-9.71734
fo	-9.71751
segment	-9.7194
bp	-9.72122
tz	-9.72191
our	-9.72231
bt	-9.72245
may	-9.72607
una	-9.72849
landing	-9.72895
np	-9.73027
oo	-9.7311
wh	-9.73297
-5-	-9.7337
mini	-9.73379
report	-9.73398
iphone	-9.73495
-19-	-9.73531
postview	-9.73533
pornhub	-9.73538
multi	-9.73645
iq	-9.73718
▁+	-9.73842
res	-9.73903
par	-9.74148
geo	-9.74166
tab	-9.7425
kan	-9.74311
ot	-9.74329
*	-9.74404
fu	-9.74563
yu	-9.74743
internet	-9.74748
int	-9.74777
accounts	-9.74888
mar	-9.75003
ks	-9.75115
zo	-9.75182
ggl	-9.75259
fs	-9.75271
ext	-9.7531
pmc	-9.75423
her	-9.75431
tgt	-9.75624
pu	-9.75732
mon	-9.75754
map	-9.76017
aclk	-9.76387
goog	-9.764
yo	-9.76443
ep	-9.76511
love	-9.76597
non	-9.76655
thread	-9.76669
qz	-9.76681
vu	-9.76739
gia	-9.76776
tch	-9.76856
adurl	-9.77033
asid	-9.77069
vo	-9.77123
mb	-9.77126
googleadservices	-9.77145
water	-9.7727
cau	-9.77335
nam	-9.77363
das	-9.77473
xx	-9.77544
pagead	-9.77589
click	-9.77773
vr	-9.77774
that	-9.77854
label	-9.7823
adid	-9.78354
team	-9.78372
gaming	-9.78442
tri	-9.78682
-10	-9.78704
ix	-9.78823
stock	-9.78891
ohost	-9.79062
rt	-9.79111
(	-9.79197
case	-9.79585
mn	-9.79594
adposition	-9.79599
linkcode	-9.79666
sch	-9.79826
den	-9.79876
images	-9.79958
qc	-9.80053
logno	-9.80525
365	-9.80533
dt	-9.80559
version	-9.80633
blogid	-9.81088
gas	-9.81209
mv	-9.81305
audio	-9.81432
xe	-9.81475
cgi	-9.81634
token	-9.81717
collections	-9.8191
dob	-9.82019
quizlet	-9.82055
research	-9.82146
dos	-9.82291
zi	-9.82515
hotels	-9.82661
direct	-9.82692
tx	-9.82762
rev	-9.82845
archives	-9.82932
uo	-9.83056
wd	-9.83237
part	-9.83256
journal	-9.83305
cars	-9.83309
anti	-9.83496
lc	-9.83501
kh	-9.83539
mas	-9.83628
como	-9.83753
radio	-9.83777
tax	-9.83818
mbhaqeiwa	-9.83861
dung	-9.83907
bhdfarisa	-9.83909
360	-9.84181
trong	-9.8423
downloads	-9.84293
bhdtarisa	-9.84438
ez	-9.84655
answer	-9.84702
kit	-9.84709
eng	-9.84828
control	-9.84923
first	-9.85005
rc	-9.8505
old	-9.85453
partner	-9.85483
uy	-9.85495
learning	-9.85605
vz	-9.85648
france	-9.85721
international	-9.85792
pp	-9.8588
now	-9.86043
xl	-9.8613
tid	-9.86165
casa	-9.86165
ist	-9.86186
catalog	-9.86253
grp	-9.86305
studio	-9.86382
soft	-9.86403
nn	-9.86547
personal	-9.86557
age	-9.86562
mac	-9.86761
kz	-9.86943
motor	-9.86977
","	-9.87042
galaxy	-9.87078
hub	-9.87212
fy	-9.87221
iv	-9.87329
och	-9.87386
custom	-9.87455
date	-9.87626
ck	-9.87677
arisao	-9.87841
ss	-9.88013
more	-9.88013
oz	-9.88211
learn	-9.88312
program	-9.88381
scribd	-9.88437
sky	-9.88563
hy	-9.88684
wld	-9.88906
green	-9.89026
dia	-9.89059
dong	-9.89088
math	-9.89167
aj	-9.89248
handle	-9.89369
ej	-9.89495
'	-9.89605
ow	-9.89756
bol	-9.8981
dj	-9.89861
edge	-9.90034
-4-	-9.90189
lm	-9.902
rm	-9.90312
number	-9.90393
hs	-9.90539
bai	-9.90676
rj	-9.90698
433	-9.90841
▁de	-9.90855
blue	-9.90884
check	-9.90908
high	-9.90957
family	-9.91012
imbhaueiwa	-9.91056
white	-9.91136
who	-9.91237
tan	-9.9126
bitstream	-9.9148
parts	-9.915
bs	-9.9158
pour	-9.91585
long	-9.91642
base	-9.91729
sid	-9.9179
ال	-9.9199
torrent	-9.92113
intel	-9.92372
iarisa	-9.92374
when	-9.92407
anime	-9.92642
song	-9.92675
goo	-9.9273
ram	-9.9275
adjust	-9.92792
security	-9.92835
kqavd	-9.92885
cjwkcaiah	-9.92887
order	-9.93052
qq	-9.93098
redir	-9.93385
ski	-9.93468
001	-9.93632
qs	-9.93647
ov	-9.93662
ten	-9.93693
=7.0.673	-9.94333
room	-9.94406
continue	-9.94476
course	-9.94571
connect	-9.94587
has	-9.94745
mh	-9.94815
rb	-9.94827
photos	-9.95067
rio	-9.95082
make	-9.9513
image	-9.95134
dz	-9.95347
update	-9.95347
itm	-9.95376
tube	-9.95601
sdt	-9.95648
java	-9.95654
bh	-9.95716
canada	-9.95763
ig	-9.95812
000	-9.95842
ux	-9.9598
hz	-9.96109
-12-	-9.96263
inter	-9.96362
gqavd	-9.96427
qqavd	-9.96526
sql	-9.96571
ol	-9.96629
tripadvisor	-9.96637
cobrandid	-9.96666
nr	-9.96694
mqavd	-9.96719
yqavd	-9.9676
dell	-9.96835
uarisa	-9.96994
after	-9.97042
kcqiaq	-9.97187
vk	-9.97216
resource	-9.97286
vw	-9.97328
cong	-9.97427
100	-9.97428
tg	-9.97557
access	-9.97573
sy	-9.97591
7.0&	-9.97631
create	-9.97635
cbcxt	-9.97671
bhdoarisaf	-9.97735
rpscsrfstate	-9.97826
ud	-9.97879
subdomain	-9.97884
=292841&	-9.97897
flname	-9.97948
ton	-9.97978
pan	-9.98109
laptop	-9.98238
hq	-9.98287
light	-9.98468
issues	-9.98469
photo	-9.98506
next	-9.98582
=90015	-9.98919
uz	-9.9892
coronavirus	-9.99169
log	-9.992
money	-9.99341
gay	-9.99477
marketing	-9.99537
change	-9.99602
history	-9.99637
sema	-9.99692
kt	-9.99786
viet	-9.99843
gh	-9.99915
ob	-9.99948
gm	-10.0014
good	-10.0015
cqavd	-10.0019
display	-10.0022
sort	-10.0031
year	-10.0034
lar	-10.0036
finance	-10.0049
kl	-10.0056
sb	-10.006
fx	-10.0076
topics	-10.0083
han	-10.0085
cms	-10.0095
rp	-10.0101
httpsredirect	-10.0102
point	-10.011
866	-10.0111
prod	-10.0118
extra	-10.012
value	-10.0126
]=	-10.0134
eur	-10.0144
-20&	-10.0145
kcqiay	-10.0152
bk	-10.0158
zw	-10.0182
cao	-10.0184
bus	-10.0192
dw	-10.0195
hn	-10.0204
usa	-10.0204
courses	-10.0212
min	-10.0212
two	-10.0215
tel	-10.0215
lan	-10.0216
mag	-10.0217
mercadolibre	-10.0218
uqavd	-10.0224
pw	-10.0229
size	-10.0234
bhcgarisa	-10.0259
medical	-10.0267
does	-10.027
cjwkcaiav	-10.0274
national	-10.029
nh	-10.0302
ym	-10.0318
bv	-10.0329
tk	-10.0354
-12	-10.0355
ys	-10.0364
fix	-10.038
ln	-10.04
cap	-10.0403
query	-10.0403
paper	-10.0413
zm	-10.0421
cjwkcajwz	-10.0434
event	-10.0448
season	-10.0458
zz	-10.0482
admin	-10.0488
was	-10.0493
vy	-10.0496
param	-10.0506
emquery	-10.0526
sun	-10.0535
referrer	-10.0537
ser	-10.0556
area	-10.0576
xa	-10.0585
bqeiwa	-10.0586
color	-10.0597
mot	-10.0599
translate	-10.0602
ers	-10.0605
off	-10.0611
pb	-10.0613
browse	-10.0617
-11-	-10.0626
openid	-10.0627
email	-10.0636
pub	-10.0645
pay	-10.066
kids	-10.0661
scholart	-10.0667
none	-10.0673
thi	-10.0673
today	-10.0674
kk	-10.0674
quiz	-10.0679
che	-10.0685
%20	-10.069
oc	-10.069
thai	-10.0695
une	-10.0701
back	-10.0705
physical	-10.0717
wiv	-10.074
hb	-10.0747
lh	-10.0763
bw	-10.0772
tra	-10.0779
lb	-10.0788
zy	-10.079
have	-10.0807
tarea	-10.0811
port	-10.0811
twsrc	-10.0823
adobe	-10.0835
wqavd	-10.0836
asia	-10.084
als	-10.0843
nk	-10.0848
neg	-10.0848
branded	-10.0849
usb	-10.085
-2022-	-10.0855
twgr	-10.0861
twcamp	-10.0869
restaurant	-10.0878
training	-10.0879
ug	-10.0888
var	-10.0894
wx	-10.0899
qt	-10.0899
ung	-10.0911
pf	-10.0918
guides	-10.0927
hw	-10.0931
tap	-10.0935
west	-10.0956
other	-10.0969
eqavd	-10.0969
dam	-10.0975
sqavd	-10.0982
centre	-10.0984
-11	-10.099
oqavd	-10.0994
press	-10.0994
scope	-10.1004
print	-10.1012
baidu	-10.102
nj	-10.1027
episode	-10.1033
sci	-10.1045
chat	-10.1053
euro	-10.106
の	-10.1067
pet	-10.1075
http	-10.1094
roc	-10.1097
ey	-10.1104
collection	-10.1106
add	-10.1107
het	-10.1107
merchant	-10.1122
ld	-10.1129
ye	-10.1129
pop	-10.1155
wu	-10.1158
/?&	-10.116
easy	-10.1163
qr	-10.1165
computer	-10.1167
manga	-10.1169
region	-10.117
googhydr	-10.1176
hh	-10.1178
bm	-10.1182
srch	-10.1183
pack	-10.1184
women	-10.1194
any	-10.1207
bbc	-10.121
bad	-10.1218
wg	-10.1222
central	-10.1222
xhamster	-10.1224
archive	-10.1226
place	-10.1227
kp	-10.1232
request	-10.127
kwid	-10.1281
fun	-10.1293
uu	-10.1295
legal	-10.1304
-2021	-10.1306
premium	-10.1308
ll	-10.1313
node	-10.1313
author	-10.1325
domain	-10.133
fh	-10.1331
ij	-10.1355
filter	-10.1363
qm	-10.1375
sap	-10.1384
wm	-10.1391
rn	-10.1397
final	-10.1402
interest	-10.142
zg	-10.1421
iqavd	-10.1422
string	-10.1423
tim	-10.143
tier	-10.1439
generic	-10.1446
و	-10.146
amp	-10.1462
tf	-10.1474
ley	-10.1475
mid	-10.1479
between	-10.1484
artikel	-10.1484
ax	-10.1487
lib	-10.1488
produto	-10.1503
magazine	-10.1538
||	-10.1541
jr	-10.1541
hay	-10.1547
boc	-10.1552
this	-10.156
king	-10.1561
style	-10.1567
gold	-10.1581
sz	-10.1582
jw	-10.1586
01.	-10.1586
war	-10.159
zone	-10.1594
aqavd	-10.1599
=1;	-10.1615
cjwkcaiat	-10.1625
knowledge	-10.1629
promo	-10.1637
sol	-10.1652
wiz	-10.1663
xyz	-10.1674
ford	-10.1676
uw	-10.1692
mw	-10.1698
partition	-10.1704
tar	-10.1706
mkt	-10.1721
via	-10.1738
gv	-10.1746
edition	-10.1753
feed	-10.1754
upload	-10.1757
dis	-10.1759
christmas	-10.176
ox	-10.1762
south	-10.1767
jc	-10.1776
currency	-10.1778
gk	-10.1786
rf	-10.1786
wb	-10.179
sim	-10.1795
1:	-10.1801
assets	-10.1807
lr	-10.1826
xp	-10.1828
fuer	-10.1831
girl	-10.1838
rr	-10.1841
bao	-10.1846
china	-10.1848
gall	-10.1848
football	-10.1863
track	-10.1866
-2021/	-10.1868
technology	-10.1881
blogs	-10.1902
kar	-10.1906
21&	-10.1913
platform	-10.1937
slideshare	-10.1937
mall	-10.1942
cx	-10.1943
phone	-10.1946
cach	-10.1948
viewtopic	-10.196
uj	-10.1963
gq	-10.1968
gw	-10.1968
tor	-10.1978
baby	-10.2
8%	-10.2009
bay	-10.2013
fall	-10.2025
spa	-10.2032
yt	-10.2034
/2021/	-10.2037
est	-10.2045
sku	-10.2049
student	-10.206
space	-10.2061
culture	-10.2065
nsw	-10.2087
-10573980&	-10.2089
dg	-10.2091
dec	-10.2091
vem	-10.2094
will	-10.2097
performance	-10.2104
serie	-10.2111
energy	-10.2114
rq	-10.2124
pass	-10.2125
voor	-10.2132
pn	-10.2136
noticia	-10.2141
ub	-10.2142
eh	-10.2144
xi	-10.2153
131	-10.2157
storage	-10.2159
mmc	-10.2165
phan	-10.2169
eq	-10.2172
share	-10.2172
oj	-10.2179
fil	-10.2189
531	-10.2194
player	-10.2222
ue	-10.2231
only	-10.2232
vic	-10.2238
lam	-10.2249
xu	-10.2266
lf	-10.2266
context	-10.2282
qealw	-10.2285
jk	-10.2296
bit	-10.2303
ham	-10.2328
fn	-10.233
xo	-10.2335
don	-10.2338
chrome	-10.2339
psk	-10.2343
uv	-10.235
build	-10.235
dh	-10.2354
dien	-10.236
-20-	-10.2367
pol	-10.2381
hoa	-10.2385
events	-10.2392
australia	-10.2392
vl	-10.2407
articulo	-10.2412
jealw	-10.2413
stream	-10.2426
xealw	-10.2436
kn	-10.2447
mer	-10.2459
123	-10.2461
dir	-10.2462
weather	-10.2463
rent	-10.2475
sec	-10.2481
dn	-10.2487
kd	-10.2491
vealw	-10.2496
+-+	-10.2508
switch	-10.2516
express	-10.2524
fire	-10.2524
zealw	-10.2525
namu	-10.2528
/~	-10.2529
har	-10.2533
bj	-10.2538
daily	-10.2546
lenovo	-10.2557
europa	-10.256
mexico	-10.2563
maps	-10.2563
jd	-10.2565
wealw	-10.2569
hg	-10.2575
unit	-10.2582
latest	-10.2594
rk	-10.2596
yealw	-10.2598
lyrics	-10.2602
gealw	-10.2604
gratis	-10.2606
uealw	-10.2613
kealw	-10.2615
cac	-10.2625
healw	-10.2633
website	-10.264
sd	-10.2645
wk	-10.265
nao	-10.2651
val	-10.2652
bealw	-10.2658
rw	-10.2662
sao	-10.2668
fealw	-10.2668
egi	-10.2671
sta	-10.2673
run	-10.2678
mlb	-10.268
note	-10.2682
able	-10.2682
abc	-10.2682
css	-10.2687
ken	-10.2693
cafe	-10.2699
tealw	-10.2714
act	-10.2718
hj	-10.2719
ber	-10.272
electric	-10.2731
mealw	-10.2732
driver	-10.2736
gy	-10.2741
application	-10.2741
anh	-10.2745
uh	-10.2745
vt	-10.2764
college	-10.2767
uq	-10.2778
scielo	-10.2821
iu	-10.2837
moto	-10.2837
listing	-10.284
publications	-10.2848
kai	-10.2855
nealw	-10.2863
bang	-10.2864
lealw	-10.2884
iw	-10.2887
tec	-10.2888
pealw	-10.2897
til	-10.2897
txt	-10.2903
cealw	-10.2905
iealw	-10.2922
bau	-10.2926
stackexchange	-10.2931
recipes	-10.2937
gx	-10.2942
micro	-10.2949
returnurl	-10.2949
field	-10.2951
pas	-10.2961
ring	-10.2963
ew	-10.2963
dvd	-10.2966
know	-10.2966
tele	-10.2972
oe	-10.2976
lazada	-10.2978
variant	-10.2988
down	-10.2989
mz	-10.299
xoc	-10.2993
examples	-10.3007
mf	-10.3009
abs	-10.3021
oealw	-10.3024
nie	-10.3031
moi	-10.3038
azure	-10.3041
1000	-10.3047
realw	-10.305
zf	-10.3051
convert	-10.3052
mq	-10.3058
engineering	-10.3069
jav	-10.3071
-15-	-10.3075
rg	-10.3075
dai	-10.3076
low	-10.308
wood	-10.3089
newtab	-10.3101
directory	-10.3104
lz	-10.3105
asus	-10.3111
0%	-10.3127
pcrid	-10.3131
dealw	-10.3142
wn	-10.3142
wc	-10.3143
von	-10.3145
gamer	-10.3147
person	-10.3157
manager	-10.3168
wj	-10.3176
tj	-10.3181
thu	-10.3184
fan	-10.3191
rz	-10.3197
ay	-10.32
origin	-10.32
dv	-10.3212
standard	-10.3217
zarisa	-10.3223
wf	-10.3231
chu	-10.3237
yw	-10.3268
2:	-10.3273
canva	-10.3274
zt	-10.3275
dcinside	-10.329
pz	-10.3292
hang	-10.332
categories	-10.3324
trade	-10.3324
lj	-10.3326
vm	-10.3327
pure	-10.3328
rv	-10.3329
mega	-10.3332
body	-10.3332
xt	-10.3338
dap	-10.334
academy	-10.3343
]	-10.3347
groups	-10.3352
bin	-10.3363
voi	-10.3369
ner	-10.3379
kni	-10.3399
wq	-10.3401
realestate	-10.3403
entertainment	-10.3408
kj	-10.3409
exam	-10.3411
uf	-10.3414
row	-10.3414
num	-10.3415
-2020-	-10.342
development	-10.3425
tinh	-10.3427
special	-10.3429
▁(	-10.3432
pj	-10.344
ger	-10.3442
script	-10.3449
oauth	-10.3454
edit	-10.3457
beauty	-10.3458
pto	-10.3458
virtual	-10.3463
paris	-10.3475
used	-10.3477
systems	-10.3487
eealw	-10.3489
which	-10.3489
sobre	-10.3496
its	-10.3512
call	-10.3516
qi	-10.3517
hai	-10.3524
accessories	-10.3531
path	-10.3533
ptt	-10.3534
mix	-10.3535
comment	-10.3544
px	-10.356
install	-10.3561
bmw	-10.3564
europe	-10.3585
yl	-10.3588
zl	-10.3591
tam	-10.3598
sealw	-10.3599
sys	-10.3604
ville	-10.3627
journals	-10.3631
reference	-10.3634
just	-10.3635
bag	-10.3639
analysis	-10.3643
imdb	-10.3645
iso	-10.3649
compare	-10.3649
indeed	-10.3655
xy	-10.3655
sso	-10.3658
times	-10.367
/10-	-10.3676
trans	-10.3677
wz	-10.3679
reg	-10.3692
hard	-10.3694
kzknbhd	-10.3698
yk	-10.3706
vb	-10.3727
lx	-10.3743
but	-10.3743
dog	-10.3744
conversion	-10.3757
aealw	-10.3767
xm	-10.3776
qui	-10.3779
forms	-10.3788
zn	-10.3791
bq	-10.3805
kq	-10.3806
nas	-10.3812
dx	-10.3825
grand	-10.3833
dkm	-10.3856
gf	-10.3858
lq	-10.3861
bz	-10.3865
talk	-10.3871
produkt	-10.3871
vf	-10.3872
last	-10.3885
nx	-10.3885
unemjzvf	-10.3889
jj	-10.389
insurance	-10.3902
safety	-10.3903
fq	-10.3904
camp	-10.3907
mundo	-10.3917
pod	-10.3919
nv	-10.392
under	-10.3922
minecraft	-10.3925
corona	-10.3935
nos	-10.3944
sequence	-10.3948
olx	-10.3949
monitor	-10.3949
machine	-10.3952
release	-10.3957
ih	-10.3961
road	-10.3963
eo	-10.3966
shi	-10.3972
university	-10.3975
simple	-10.3978
aq	-10.3979
mark	-10.3986
arisakx	-10.3999
mbhdn	-10.4004
cre	-10.4008
ib	-10.4023
oa	-10.4026
recipe	-10.4027
lista	-10.4028
/@	-10.4029
step	-10.4037
qiknbh	-10.4044
ieiwau	-10.4045
yy	-10.4063
}&	-10.4065
sales	-10.4069
fk	-10.4089
basic	-10.4097
side	-10.4108
common	-10.411
like	-10.4115
level	-10.4126
toyota	-10.4126
column	-10.4132
bhapeiwa	-10.4134
gd	-10.4137
tek	-10.4145
results	-10.4146
oim	-10.4146
most	-10.4147
foto	-10.415
ots	-10.4169
jan	-10.4173
poi	-10.4186
ana	-10.4191
sin	-10.4192
ifg	-10.4196
sam	-10.4197
jl	-10.4213
jt	-10.4216
rock	-10.4218
netflix	-10.4223
working	-10.4224
ini	-10.4228
xh	-10.4229
kv	-10.4254
let	-10.4258
north	-10.4261
ice	-10.4275
pubmed	-10.4292
jn	-10.4295
eaayasaaegl	-10.4296
difference	-10.4297
bhameiwa	-10.4307
-100	-10.4322
msn	-10.4323
aliexpress	-10.4325
classic	-10.4332
hand	-10.4351
noi	-10.4352
zr	-10.4354
zs	-10.4361
eaayasaaegj	-10.4363
fast	-10.4365
pri	-10.4372
tas	-10.4377
cara	-10.4381
ة	-10.4386
sha	-10.4401
fj	-10.4414
aivg	-10.4416
hop	-10.4426
nq	-10.4431
jh	-10.4447
izle	-10.445
kfz	-10.4451
models	-10.4451
tour	-10.4454
={	-10.4457
ios	-10.446
drivers	-10.4461
eaayasaaegi	-10.447
single	-10.4472
tuc	-10.4474
policy	-10.4486
sj	-10.4492
=5&	-10.4495
nhat	-10.4511
xr	-10.4522
kmbhazeiwas	-10.4526
renbhayeiwafggkp	-10.4536
streaming	-10.4537
career	-10.4547
mj	-10.4549
cdn	-10.4554
vg	-10.4557
solution	-10.4565
steel	-10.4565
sie	-10.4567
companies	-10.4572
ada	-10.4573
vid	-10.4575
fit	-10.459
aivi	-10.4597
select	-10.4601
golf	-10.4601
vip	-10.4607
gws	-10.4613
devicemodel	-10.4613
mai	-10.4616
material	-10.4619
rakuten	-10.4631
wv	-10.4632
dct	-10.4637
far	-10.465
ray	-10.4655
ql	-10.4657
ltd	-10.4667
jak	-10.4673
wall	-10.4673
bot	-10.4675
col	-10.4679
yang	-10.4686
jy	-10.4687
salud	-10.4694
bhbteiwa	-10.4694
pen	-10.4696
-100-	-10.4702
ahr	-10.4703
ali	-10.4706
yr	-10.4713
mom	-10.4724
offer	-10.4726
keep	-10.4726
vat	-10.4731
active	-10.4731
screen	-10.4735
camera	-10.4736
zj	-10.4738
related	-10.4744
500	-10.475
tugas	-10.475
sqo	-10.4753
fz	-10.4754
ych	-10.4756
credit	-10.4757
nonce	-10.4761
njuj	-10.4763
tarefa	-10.4771
kim	-10.4774
fbtn	-10.4779
linux	-10.4784
kor	-10.4789
rdn	-10.4792
gj	-10.4794
nike	-10.4798
living	-10.4802
sound	-10.4803
sqom	-10.4803
mbhc	-10.4809
street	-10.4812
japan	-10.4817
bhcvarisa	-10.4819
cambridge	-10.4823
dom	-10.4842
dat	-10.4845
bike	-10.4846
need	-10.4847
building	-10.4851
static	-10.4854
kcqiatj	-10.4855
tq	-10.4856
aivb	-10.4864
head	-10.4867
lifestyle	-10.4867
247.	-10.4869
bil	-10.4889
garden	-10.4897
where	-10.4897
nf	-10.4899
zq	-10.49
nya	-10.4917
trk	-10.4917
locations	-10.492
zc	-10.4922
passive	-10.493
berg	-10.4931
ultra	-10.4932
qw	-10.4941
force	-10.4944
face	-10.4946
speed	-10.4952
cmpid	-10.4955
fg	-10.4956
pantip	-10.4971
hv	-10.4974
qn	-10.4974
xd	-10.4995
hx	-10.5003
qh	-10.5004
bynbh	-10.5008
sf	-10.5008
nova	-10.5011
mlbhb	-10.5015
notes	-10.5016
aivh	-10.5022
yp	-10.5025
works	-10.5029
historia	-10.5031
kx	-10.5045
teen	-10.5047
homework	-10.5049
function	-10.5049
xs	-10.5052
qua	-10.5059
sciencedirect	-10.5068
end	-10.5071
adword	-10.5071
gz	-10.5072
apply	-10.5073
vh	-10.5073
into	-10.5079
wie	-10.5081
oil	-10.5093
stories	-10.5109
items	-10.511
ged	-10.5111
cjwkcajwq	-10.5113
feature	-10.5114
nha	-10.5116
zk	-10.5117
module	-10.5124
itemid	-10.5124
bel	-10.5132
feeditemid	-10.514
sante	-10.5145
xrr	-10.5145
total	-10.5146
gnwe	-10.515
bhbceiwa	-10.5151
ocid	-10.516
yh	-10.5168
guia	-10.5171
database	-10.5178
eaayasaaegk	-10.5182
bhbieiwa	-10.5182
qp	-10.5183
developer	-10.5186
tree	-10.519
aus	-10.5204
tbh	-10.5224
bab	-10.5224
aivc	-10.524
zd	-10.5243
logo	-10.5246
vp	-10.5248
qj	-10.5249
mal	-10.526
gel	-10.5278
impact	-10.5284
nieuws	-10.5296
م	-10.5315
hospital	-10.5317
xti	-10.532
xjspbh	-10.5328
eiwaeo	-10.5329
toppr	-10.5331
qb	-10.5333
ska	-10.5335
ant	-10.5336
solar	-10.534
advice	-10.535
khr	-10.5351
wireless	-10.5359
rvgi	-10.536
kitchen	-10.5365
zen	-10.5369
lpg	-10.5374
metal	-10.5377
overview	-10.5379
cjwkcaiaz	-10.539
tur	-10.5397
projects	-10.5398
mil	-10.5411
bhaleiwa	-10.5413
-30-	-10.5414
quan	-10.5424
town	-10.5435
nugnbhc	-10.5442
careers	-10.5442
khi	-10.5445
electronics	-10.5455
qy	-10.5458
qd	-10.5462
vod	-10.5462
dor	-10.5467
zp	-10.5476
jq	-10.5479
sony	-10.5485
mods	-10.5488
gallery	-10.5498
hat	-10.55
mens	-10.5501
girls	-10.5505
qgnbhd	-10.5509
gmb	-10.5525
xiaomi	-10.5542
inc	-10.5545
safe	-10.5548
ssd	-10.5551
than	-10.5558
xw	-10.556
united	-10.558
boy	-10.559
yz	-10.5591
current	-10.5594
tutorial	-10.5608
eco	-10.5613
sign	-10.5613
ano	-10.5614
kon	-10.5616
yc	-10.5617
rate	-10.5632
london	-10.5634
umfuz	-10.564
rliyh	-10.5643
tsvyk	-10.5644
fashion	-10.5645
ppccp	-10.565
italia	-10.5651
-13-	-10.5679
station	-10.568
yf	-10.5682
2021	-10.5683
espanol	-10.5686
professional	-10.5689
zhihu	-10.5691
vpn	-10.5692
nav	-10.5696
lfqobh	-10.5697
mis	-10.5703
aeeiwa	-10.5703
artist	-10.5703
vsobhc	-10.5707
indonesia	-10.5713
schools	-10.5714
ombhcuarisailndv	-10.5716
industry	-10.5717
brasil	-10.5721
karisag	-10.5722
kcqjww	-10.573
sag	-10.5744
cjwkcaiap	-10.5744
yq	-10.5745
codes	-10.5753
cum	-10.5754
capital	-10.5756
tokyo	-10.5757
arisaj	-10.5757
neo	-10.5768
result	-10.5772
weanbh	-10.5781
101	-10.5782
format	-10.5785
docx	-10.5801
homes	-10.5805
zoom	-10.5806
jz	-10.5807
vc	-10.5821
ria	-10.5825
customer	-10.5827
arisapp	-10.5827
pbhdv	-10.5828
aivd	-10.5837
xbox	-10.5837
xz	-10.5838
kcqiak	-10.5848
bien	-10.5849
cell	-10.5857
yj	-10.5865
mercadolivre	-10.5867
lcp	-10.5867
002	-10.5871
vida	-10.5893
showthread	-10.5897
auf	-10.5904
vor	-10.5905
cross	-10.5907
africa	-10.592
tren	-10.592
pupk	-10.5925
cal	-10.5926
less	-10.5927
expert	-10.5931
tip	-10.5937
mtd	-10.5945
metro	-10.5946
ب	-10.5954
olbhc	-10.5955
wifi	-10.5956
flow	-10.5957
silent	-10.5966
discussions	-10.597
nik	-10.5972
process	-10.5973
gate	-10.5978
ker	-10.5984
xk	-10.5993
@	-10.602
bed	-10.6024
ion	-10.6026
flights	-10.6033
chegg	-10.6033
korea	-10.6034
pv	-10.6034
qld	-10.6041
phim	-10.606
khong	-10.6064
hybrid	-10.6068
well	-10.6075
era	-10.6077
pixnet	-10.6082
obhdmarisa	-10.6086
null	-10.6087
font	-10.6097
300	-10.6098
see	-10.6105
enc	-10.6106
qg	-10.6112
wobhcwarisaaihne	-10.6112
cancer	-10.6125
]=&	-10.6134
elle	-10.6134
league	-10.6137
eaiaiqobchmih	-10.6138
sq	-10.6144
xj	-10.6149
xq	-10.6153
xv	-10.6154
anal	-10.6155
thong	-10.6157
xg	-10.6158
allegro	-10.6167
vision	-10.6173
fly	-10.6173
qf	-10.6177
amd	-10.6177
haus	-10.6182
gun	-10.6182
arisad	-10.6185
obhdq	-10.6188
prime	-10.6197
fitness	-10.6201
jx	-10.6204
cjwkcajwi	-10.6205
listado	-10.6208
stores	-10.6211
-2019-	-10.6217
should	-10.6218
cache	-10.6238
japanese	-10.6256
aceid	-10.6263
tracking	-10.6264
250	-10.6272
aan	-10.6275
xf	-10.6277
deals	-10.6281
的	-10.6285
raspbhd	-10.6294
jf	-10.6301
definition	-10.6301
types	-10.6301
party	-10.6322
method	-10.6334
yx	-10.6335
javascript	-10.6338
uma	-10.6342
templates	-10.6343
kcqjwlomlbh	-10.6343
charisagi	-10.6344
aivw	-10.6344
aive	-10.6354
mann	-10.6355
range	-10.636
record	-10.6367
guru	-10.638
private	-10.6385
john	-10.6391
img	-10.6392
problem	-10.6409
human	-10.6412
template	-10.6413
xn	-10.6415
lop	-10.6417
moon	-10.6418
disney	-10.6423
ling	-10.6438
marca	-10.6443
kf	-10.6443
small	-10.6452
arisag	-10.6457
ich	-10.6459
civil	-10.6472
saint	-10.6477
mercedes	-10.6477
_781	-10.6505
ros	-10.652
ship	-10.653
nhan	-10.653
zb	-10.6537
consumer	-10.6543
try	-10.6544
authorize	-10.6553
eaiaiqobchmik	-10.656
qobhc	-10.6565
eaiaiqobchmio	-10.6567
bat	-10.6574
skin	-10.6576
sat	-10.6576
ent	-10.6579
route	-10.659
dau	-10.6593
section	-10.6594
-14-	-10.6598
self	-10.6602
zip	-10.6603
object	-10.6605
canon	-10.661
banking	-10.6616
bhaxeiwa	-10.6616
-50-	-10.6617
tro	-10.6618
pokemon	-10.6622
cas	-10.6623
maker	-10.6623
america	-10.6624
practice	-10.663
-(	-10.663
teams	-10.6631
200	-10.6636
iy	-10.6637
thanh	-10.6646
calendar	-10.6654
dinh	-10.666
spring	-10.6661
questoes	-10.6662
students	-10.6662
cjwkcajwo	-10.6667
winter	-10.6669
lari	-10.6672
ile	-10.6676
engine	-10.6683
aux	-10.6683
eiwa	-10.6686
ه	-10.6687
ita	-10.6687
ultimate	-10.6695
pic	-10.6709
aivj	-10.6716
ado	-10.6722
lid	-10.6749
icm	-10.6756
complete	-10.6767
brands	-10.6768
corporate	-10.6768
xb	-10.6768
bcz	-10.6792
loi	-10.6805
embhcparisaazfxz	-10.6808
eaiaiqobchmin	-10.6811
lex	-10.6811
lite	-10.6816
natural	-10.683
bx	-10.683
made	-10.6831
transfer	-10.6833
fwfp	-10.6837
tracker	-10.6849
fin	-10.685
bac	-10.686
beee	-10.6873
aqs	-10.6873
honda	-10.6877
gch	-10.6882
young	-10.6892
mos	-10.6893
academia	-10.6894
huong	-10.6898
bhctarisa	-10.69
synbhapeiwaldbel	-10.6901
etsy	-10.6902
crack	-10.6904
dynamic	-10.6911
eaiaiqobchmiy	-10.6914
doctor	-10.6919
=20	-10.6922
alle	-10.6925
thuc	-10.6926
visit	-10.6931
societe	-10.6937
dict	-10.6943
vj	-10.6945
contents	-10.6945
there	-10.6946
dot	-10.6953
coursehero	-10.6953
zv	-10.6969
น	-10.6969
servicelogin	-10.6971
eye	-10.6974
week	-10.6976
vq	-10.6986
door	-10.6988
block	-10.6992
eaiaiqobchmiw	-10.6994
naenbhc	-10.6994
eaiaiqobchmiq	-10.7001
features	-10.701
industrial	-10.7022
uol	-10.7023
ben	-10.7028
meta	-10.7032
eaiaiqobchmij	-10.7034
option	-10.7035
adpos	-10.7038
ani	-10.704
revista	-10.7042
hair	-10.7044
cow	-10.7045
kcqiaw	-10.7047
oracle	-10.7048
qv	-10.705
restaurants	-10.7067
ball	-10.7069
walmart	-10.7084
pgrid	-10.7088
exchange	-10.7091
multiple	-10.7099
calculator	-10.7101
eaayaiaaegj	-10.7105
mkcid	-10.7107
oferta	-10.7107
session	-10.7112
cia	-10.7115
kontakt	-10.7115
mobi	-10.7115
chm	-10.7132
eaiaiqobchmix	-10.7137
wow	-10.7138
pii	-10.7144
east	-10.7147
empresas	-10.7156
short	-10.7166
ت	-10.717
jv	-10.7172
reverso	-10.7174
tes	-10.7182
official	-10.7182
omp	-10.7183
sx	-10.719
prd	-10.7192
transport	-10.7193
secure	-10.7194
mkevt	-10.7197
front	-10.7198
maison	-10.7215
load	-10.7237
hon	-10.724
yg	-10.7246
lot	-10.725
pvml	-10.725
lon	-10.7258
cjwkcaiak	-10.7259
eaiaiqobchmiu	-10.7269
caase	-10.727
nic	-10.7272
obhbyeiwahr	-10.7272
cor	-10.7291
friday	-10.7301
caaseuro	-10.7308
entre	-10.7308
stop	-10.7308
financial	-10.7309
gan	-10.7313
aivf	-10.7315
hmombh	-10.732
bhdrarisa	-10.7323
dharisa	-10.7323
csdn	-10.733
eaiaiqobchmim	-10.7335
issue	-10.734
sel	-10.7346
users	-10.7349
goods	-10.7349
quick	-10.7353
beach	-10.7362
nanbhd	-10.7363
varisae	-10.7363
adw	-10.7365
spec	-10.737
iii	-10.7372
00000	-10.7377
francais	-10.7378
ace	-10.7381
ikuobh	-10.7387
chem	-10.74
ม	-10.7406
eaayaiaaegl	-10.7411
gouv	-10.7412
lit	-10.7416
repository	-10.7418
aivk	-10.7418
120	-10.7421
eaayaiaaegk	-10.7436
ica	-10.7445
children	-10.7448
dest	-10.745
tema	-10.745
cost	-10.7458
construction	-10.7463
letter	-10.7465
110	-10.7465
aivy	-10.7474
mkrid	-10.7483
cultura	-10.7484
yd	-10.7487
eaiaiqobchmit	-10.7492
rad	-10.7501
vietjack	-10.7501
vx	-10.7501
1=&	-10.7502
guitar	-10.7514
rec	-10.7518
spbhb	-10.7522
american	-10.7526
pedia	-10.7527
farm	-10.7534
programs	-10.7538
ras	-10.7539
stat	-10.754
eaiaiqobchmil	-10.754
128	-10.7541
cjwkcajw	-10.7544
dubai	-10.7552
printer	-10.7556
chiebukuro	-10.7556
cpu	-10.7557
이	-10.7561
slid	-10.7572
eaiaiqobchmiz	-10.7573
take	-10.7576
his	-10.7579
jqkk	-10.758
qe	-10.758
ero	-10.7583
jet	-10.7587
fv	-10.759
cad	-10.7594
gift	-10.7616
hinh	-10.7617
corp	-10.7627
pot	-10.7631
leri	-10.7634
bluetooth	-10.764
indian	-10.7645
kmpbh	-10.7645
大	-10.7662
enbhcaarisafdvti	-10.7663
she	-10.7664
nov	-10.7666
eaiaiqobchmiv	-10.767
limit	-10.7677
ingles	-10.7682
aivl	-10.7682
equipment	-10.7682
economia	-10.7689
royal	-10.7694
discussion	-10.77
oqobhbmeiwasgelm	-10.7702
hardware	-10.771
things	-10.7715
ket	-10.7716
lee	-10.7729
bir	-10.7739
▁for	-10.7746
acfu	-10.775
neu	-10.7754
government	-10.7758
bij	-10.7759
ouobha	-10.7759
ikea	-10.776
ting	-10.7765
tweet	-10.7774
empresa	-10.7782
adg	-10.779
furniture	-10.779
stone	-10.7795
ukm	-10.78
cast	-10.7801
gear	-10.7802
lik	-10.7805
ning	-10.7809
physics	-10.7811
laptops	-10.7813
hero	-10.7823
din	-10.7824
ppt	-10.783
tickets	-10.7837
cobhc	-10.7837
clinic	-10.7838
eaiaiqobchmip	-10.7839
411	-10.7847
ozcfkw	-10.7847
cgdnd	-10.7849
ark	-10.7856
673	-10.7858
steam	-10.7859
chan	-10.7866
cfm	-10.7869
cinema	-10.787
outdoor	-10.7886
3.0&	-10.7886
workspace	-10.7887
lei	-10.7888
focus	-10.7891
bhcnarisa	-10.7902
dans	-10.7905
flight	-10.7912
nia	-10.7924
without	-10.793
adult	-10.7932
drama	-10.7937
eaiaiqobchmir	-10.7939
kat	-10.7942
cool	-10.7942
ideas	-10.7947
=6.7.664	-10.7948
hydraamazon	-10.795
plac	-10.7953
gran	-10.7958
planet	-10.7965
eaiaiqobchmii	-10.7975
bhaheiwaj	-10.7977
kom	-10.7979
alibaba	-10.7984
sai	-10.7987
pra	-10.799
editor	-10.7993
battery	-10.7995
ste	-10.7998
spanish	-10.8005
kia	-10.8005
flex	-10.8015
asi	-10.8022
night	-10.8026
pur	-10.8037
ment	-10.8044
password	-10.806
kcqjwt	-10.8067
cup	-10.8075
register	-10.8076
sample	-10.8076
_1_	-10.8079
ה	-10.8079
eaiaiqobchmig	-10.8082
139	-10.8083
tre	-10.8084
yb	-10.8089
panel	-10.809
aiva	-10.8093
popular	-10.8095
bible	-10.8102
toan	-10.8103
wat	-10.8106
return	-10.8107
yv	-10.8111
shoes	-10.8113
ici	-10.8113
tac	-10.8139
react	-10.8142
testing	-10.8143
eaayaiaaegi	-10.8145
nature	-10.8148
programming	-10.8151
court	-10.8153
right	-10.8158
rose	-10.816
diy	-10.8161
rom	-10.8163
ynbhdiarisadtgrz	-10.8164
child	-10.8166
cjwkcaiar	-10.8166
lin	-10.8168
checkda	-10.8169
gta	-10.817
visa	-10.817
future	-10.8171
steamcommunity	-10.8172
chn	-10.8173
tikwd	-10.8183
french	-10.8191
mature	-10.8194
madrid	-10.8207
solo	-10.8209
�	-10.821
zero	-10.8213
staff	-10.8219
400	-10.8223
join	-10.8228
inch	-10.8233
pad	-10.8235
fer	-10.824
usp	-10.824
-16	-10.8255
003	-10.8257
cion	-10.8262
papers	-10.8269
singapore	-10.8271
cable	-10.8271
cjwkcaias	-10.8272
bsn	-10.8273
chart	-10.8274
articleview	-10.8277
人	-10.828
trial	-10.8295
chinese	-10.83
bra	-10.8311
trip	-10.8324
mais	-10.8336
apk	-10.8336
mah	-10.8343
villa	-10.8365
host	-10.8378
150	-10.8378
great	-10.8382
hal	-10.8382
explore	-10.8383
bon	-10.8387
happy	-10.8387
consent	-10.8387
gar	-10.8391
900	-10.8392
tex	-10.8392
save	-10.8395
ส	-10.8419
huawei	-10.8419
element	-10.8422
aivx	-10.8423
ron	-10.8453
gal	-10.8455
fen	-10.8461
aws	-10.8467
centro	-10.8467
nvidia	-10.8469
visual	-10.8474
album	-10.8477
zfun	-10.8477
vet	-10.8477
tom	-10.8485
ticket	-10.8492
dang	-10.8493
في	-10.8504
navi	-10.8513
ara	-10.8519
seq	-10.8524
sho	-10.8537
servicios	-10.8538
mus	-10.8538
tal	-10.8541
/2020/	-10.8544
chile	-10.8551
kak	-10.8555
nhs	-10.8555
vbb	-10.8563
dark	-10.8566
qjwrjombhc	-10.8571
dal	-10.8574
audi	-10.8579
fox	-10.8584
maria	-10.8605
aivz	-10.8611
attachment	-10.8613
스	-10.8616
▁online	-10.8617
nen	-10.8617
sclient	-10.8618
package	-10.8619
command	-10.8622
bmm	-10.863
uae	-10.8632
notebook	-10.8638
cine	-10.8639
thailand	-10.8645
cover	-10.8648
bet	-10.8655
att	-10.8659
problems	-10.8661
ス	-10.8663
sul	-10.8665
properties	-10.8668
01&	-10.8671
googshop	-10.8672
sheet	-10.868
tay	-10.8682
enterprise	-10.8682
geral	-10.8685
273572&	-10.8686
produkte	-10.8689
sang	-10.8689
ans	-10.8691
fund	-10.8692
interview	-10.8692
quest	-10.8704
mono	-10.8706
ل	-10.8706
catalogue	-10.8717
xzvx	-10.8718
reports	-10.8719
aivq	-10.8729
hit	-10.873
band	-10.8731
kin	-10.8732
trang	-10.8734
genius	-10.8741
cant	-10.8743
haber	-10.8745
train	-10.8745
eaiaiqobchmis	-10.8746
airport	-10.8748
paidsearch	-10.8749
deal	-10.876
bhageiwa	-10.8766
0000	-10.8767
pham	-10.8772
protection	-10.8773
shin	-10.8779
drug	-10.8786
dream	-10.8804
meet	-10.8805
dar	-10.881
2020	-10.8813
supply	-10.8813
yes	-10.8813
sau	-10.8822
mbhd	-10.8823
lesson	-10.8825
een	-10.8833
serial	-10.8834
idxno	-10.8835
magic	-10.8835
iflsig	-10.8835
deutsch	-10.8838
tak	-10.884
finder	-10.8842
nord	-10.8843
remote	-10.8847
nui	-10.8852
bal	-10.8853
linguee	-10.8855
dgnbhameiwawxgcu	-10.8855
fanswers	-10.886
libro	-10.8869
450	-10.887
trading	-10.8872
cut	-10.8874
technical	-10.8882
nacional	-10.8889
santa	-10.8897
writing	-10.8897
little	-10.8917
god	-10.8924
dailymotion	-10.8927
-16-	-10.8935
mate	-10.8936
getting	-10.8937
hill	-10.8942
dich	-10.8948
ran	-10.8952
sync	-10.8959
pal	-10.8961
benz	-10.8963
rest	-10.8967
arts	-10.8969
wkynbhbfeiwa	-10.8973
exe	-10.8973
desc	-10.8983
nqlp	-10.8992
ي	-10.8993
hindi	-10.9
terminal	-10.9001
send	-10.9012
pool	-10.9014
770	-10.9017
bosch	-10.9019
essay	-10.9019
lock	-10.9021
tests	-10.9024
bis	-10.9026
firma	-10.9031
better	-10.9033
zoo	-10.9051
xml	-10.9052
agent	-10.9059
adidas	-10.906
bhdbarisa	-10.9063
quality	-10.9064
fur	-10.9064
address	-10.9071
ی	-10.9082
eaayayaaegl	-10.9084
arisair	-10.9085
statistics	-10.9086
fforum	-10.9093
seo	-10.9093
latam	-10.9097
days	-10.9107
nice	-10.9109
mol	-10.9109
productos	-10.9112
som	-10.9112
acq	-10.9124
coffee	-10.9129
orange	-10.913
conditions	-10.9132
tion	-10.9133
fuck	-10.9133
jpg	-10.9135
nang	-10.9135
estate	-10.9136
ก	-10.9137
based	-10.9148
%26	-10.9152
dual	-10.9155
bei	-10.9155
eaayayaaegi	-10.9157
bjeiwa	-10.916
mem	-10.916
lai	-10.9161
lol	-10.9163
opn	-10.9167
offers	-10.9173
task	-10.9174
digi	-10.9175
completesign	-10.9179
zrwobh	-10.918
eaayayaaegk	-10.9185
mor	-10.9189
é	-10.919
hall	-10.919
write	-10.919
massage	-10.9192
activity	-10.9201
pkw	-10.9212
academic	-10.9213
rspbhbaeiwaulsdu	-10.9223
mass	-10.9225
tablet	-10.9233
plans	-10.9241
owe	-10.9244
look	-10.9245
silver	-10.9259
aivt	-10.926
mobil	-10.9261
720	-10.9265
004	-10.9273
mind	-10.9276
lego	-10.9281
modern	-10.9286
ways	-10.9289
vie	-10.9295
square	-10.9302
sum	-10.9304
tao	-10.9306
tieng	-10.9307
bid	-10.9312
eaayayaaegj	-10.9319
mau	-10.932
profil	-10.9324
luc	-10.933
eta	-10.9333
campus	-10.9335
viewer	-10.9335
double	-10.9338
epar	-10.9343
vin	-10.9345
aivs	-10.9346
hans	-10.9354
mrfv	-10.9367
anna	-10.9375
kinh	-10.9384
apa	-10.9391
paul	-10.9402
】	-10.9407
ات	-10.9414
sinh	-10.9417
sach	-10.9423
producto	-10.9423
iewobh	-10.9428
quy	-10.9429
novel	-10.9433
cyarisan	-10.9434
commercial	-10.9436
ante	-10.9438
ster	-10.944
controller	-10.9446
heart	-10.9448
plcmnt	-10.9449
256	-10.9451
ity	-10.9454
zcobhd	-10.9457
-18-	-10.9457
mgallery	-10.9459
risk	-10.9462
leg	-10.9462
gestion	-10.9466
alt	-10.9468
amz	-10.9471
repositorio	-10.9471
count	-10.9471
copy	-10.9473
exp	-10.9479
recept	-10.9485
mart	-10.9486
wine	-10.9494
emea	-10.95
tea	-10.9501
wife	-10.9515
trace	-10.952
documentos	-10.9522
mlm	-10.9529
▁of	-10.9539
hoe	-10.9539
medi	-10.954
repair	-10.954
chinh	-10.954
141	-10.9547
touch	-10.9551
poli	-10.9555
chemistry	-10.9557
bur	-10.9557
plant	-10.9568
remove	-10.9572
blob	-10.9574
rep	-10.9574
bhbbeiwa	-10.9577
kou	-10.958
avec	-10.9582
david	-10.9588
vv	-10.96
▁and	-10.9608
laser	-10.9609
quote	-10.9609
extension	-10.9611
epyw	-10.9613
235	-10.9626
inven	-10.9627
ate	-10.9632
str	-10.964
tyutm	-10.9644
lap	-10.9644
sistema	-10.9648
dic	-10.9653
trinh	-10.9654
tang	-10.9657
benefits	-10.9659
ル	-10.967
cjwkcaial	-10.967
kinder	-10.9671
manuals	-10.9673
ever	-10.968
island	-10.9685
zum	-10.9688
apac	-10.9689
darisa	-10.969
ret	-10.9691
wqcobhc	-10.9692
tabs	-10.9692
len	-10.9693
hash	-10.9694
bee	-10.9702
gui	-10.9704
surface	-10.9707
gem	-10.9709
cmpgn	-10.9715
kiem	-10.9717
oct	-10.972
gmail	-10.9723
traffic	-10.9724
planning	-10.9724
ren	-10.9729
police	-10.9734
grade	-10.9738
cyber	-10.9739
womens	-10.9742
clothing	-10.9742
roz	-10.9758
ups	-10.9762
deep	-10.9763
baike	-10.9763
wind	-10.9764
aivr	-10.9766
tutorials	-10.9773
fish	-10.9775
0001	-10.9776
member	-10.9781
cursos	-10.9782
message	-10.9785
duoc	-10.9786
holiday	-10.9791
sti	-10.9798
animal	-10.98
stand	-10.9801
125	-10.9805
normal	-10.9807
sharepoint	-10.9808
cha	-10.9813
nguyen	-10.9816
기	-10.982
liste	-10.982
put	-10.9822
oogleusercontent	-10.9826
three	-10.9832
vivo	-10.9837
pmt	-10.9849
nguoi	-10.985
nude	-10.985
dao	-10.9859
▁to	-10.9868
della	-10.9868
truyen	-10.9869
folder	-10.9869
sna	-10.987
second	-10.9871
140	-10.9884
-32	-10.9893
tienda	-10.9898
ngu	-10.9902
whatsapp	-10.9914
chip	-10.9916
ية	-10.9923
trust	-10.9928
162	-10.9929
qivi	-10.9933
pie	-10.9935
quotes	-10.9943
tien	-10.995
experience	-10.995
bas	-10.9953
values	-10.9958
larisah	-10.9965
peru	-10.9966
tum	-10.9967
nlkh	-10.9967
qvanbh	-10.9971
craft	-10.9978
welcome	-10.9979
minh	-10.9985
factory	-10.9986
teaching	-10.9991
whats	-10.9997
kcqiat	-11.0006
films	-11.0016
eva	-11.0019
following	-11.0022
rooms	-11.0022
german	-11.0024
11.	-11.0035
-25-	-11.0036
ass	-11.004
meteo	-11.004
jeek	-11.0043
mpp	-11.0046
import	-11.0047
alpha	-11.005
export	-11.0052
kur	-11.0056
external	-11.006
ama	-11.0074
lzg	-11.0078
spot	-11.0082
geforce	-11.0085
werk	-11.0088
773	-11.0095
asset	-11.0095
ahukewi	-11.0096
delivery	-11.0107
giao	-11.0109
insights	-11.011
2019	-11.0115
reading	-11.0115
array	-11.0116
bhbpeiwa	-11.0119
ami	-11.0124
mir	-11.013
philips	-11.0133
activities	-11.014
ale	-11.0142
2015	-11.0144
arte	-11.0153
▁~	-11.0158
preview	-11.0158
hentai	-11.0159
isallowed	-11.0166
beta	-11.0173
ueber	-11.0173
years	-11.0177
always	-11.0182
asian	-11.0186
kal	-11.0187
running	-11.0187
colombia	-11.019
ahukewj	-11.019
gazaaq	-11.0192
mia	-11.0197
zalando	-11.0199
earth	-11.0202
png	-11.0202
americanas	-11.0203
gam	-11.0208
ation	-11.0209
woman	-11.0209
zmgnbh	-11.0212
ebook	-11.0213
presentation	-11.023
vita	-11.0231
globo	-11.0235
tot	-11.0236
autos	-11.0238
exlaz	-11.0238
root	-11.0239
hem	-11.0247
some	-11.0258
vietnam	-11.0258
clean	-11.026
sou	-11.0261
docplayer	-11.0264
nhung	-11.0267
qivb	-11.0284
wild	-11.0292
moe	-11.03
union	-11.03
trendyol	-11.0301
phrase	-11.0303
ibm	-11.0304
boot	-11.0305
tong	-11.0311
bkws	-11.0315
007	-11.0316
365.	-11.0317
genshin	-11.0324
wps	-11.0333
terms	-11.0343
graphics	-11.0346
glass	-11.0349
four	-11.0352
uid	-11.0356
nach	-11.0359
limited	-11.036
crypto	-11.0361
roma	-11.0363
camping	-11.0365
searchresults	-11.037
inside	-11.0376
here	-11.0376
lux	-11.0377
mua	-11.0381
powerpoint	-11.0381
truck	-11.0388
sexy	-11.039
mad	-11.0399
ang	-11.04
pelicula	-11.0401
dra	-11.0403
=1000	-11.0408
lich	-11.0411
ted	-11.0417
mouse	-11.0417
huis	-11.0419
volume	-11.0427
saude	-11.0429
evergreen	-11.0432
dates	-11.0433
jul	-11.0442
giai	-11.0444
tis	-11.0446
dla	-11.0448
ari	-11.0449
concursos	-11.0454
epson	-11.0456
anos	-11.0457
inn	-11.0459
converter	-11.046
volkswagen	-11.0462
trabajo	-11.0466
resort	-11.0469
norover	-11.0475
rlsatarget	-11.0476
・	-11.048
24&	-11.0492
grammar	-11.0493
setup	-11.0498
vien	-11.05
filme	-11.0504
broad	-11.0505
mont	-11.0505
08-21&	-11.0508
nintendo	-11.0508
words	-11.051
politics	-11.0511
educacion	-11.0513
theme	-11.0515
qid	-11.0518
phat	-11.0524
recovery	-11.053
recettes	-11.0532
names	-11.0536
devices	-11.054
unity	-11.054
shein	-11.0547
ies	-11.0553
2018	-11.0554
different	-11.0554
codigo	-11.0556
-128	-11.0559
rog	-11.0567
_150050845_51	-11.0574
places	-11.0576
playstation	-11.0576
esta	-11.058
aaa	-11.0581
pizza	-11.0581
abcid	-11.0581
plt	-11.059
-24-	-11.0592
dental	-11.0593
cpa	-11.0605
cfd	-11.0606
stars	-11.0612
grupo	-11.0616
syn	-11.0624
todo	-11.0626
005	-11.0632
bridge	-11.0638
ipad	-11.064
giga	-11.0644
ais	-11.0647
advanced	-11.0648
sua	-11.0651
redirected	-11.0654
2=&	-11.0655
qivg	-11.0655
example	-11.0656
imo	-11.0656
imp	-11.0657
epi	-11.0658
fileadmin	-11.0658
marine	-11.0667
gym	-11.0671
medicine	-11.0687
katalog	-11.069
joy	-11.0696
istanbul	-11.0708
accounting	-11.0712
phi	-11.0717
tron	-11.0726
spotify	-11.0729
nba	-11.0731
button	-11.0744
jun	-11.0749
mediamarkt	-11.0751
smartphone	-11.0755
materials	-11.0757
cpp	-11.0762
ful	-11.0764
mel	-11.0766
ein	-11.0768
fiche	-11.077
ค	-11.0776
ovd	-11.0784
chuyen	-11.0786
nation	-11.0788
▁in	-11.079
martin	-11.079
sell	-11.0795
bilibili	-11.0799
mania	-11.0809
many	-11.081
kind	-11.0812
gra	-11.0814
golden	-11.0815
duong	-11.0819
registration	-11.082
ف	-11.0826
с	-11.083
س	-11.083
affiliate	-11.0832
550	-11.0835
say	-11.0838
-2022	-11.0839
ssc	-11.0843
perfect	-11.0847
의	-11.0853
vch	-11.0855
destination	-11.0868
snow	-11.0869
yan	-11.0873
wan	-11.0877
magazin	-11.0877
memory	-11.0881
daum	-11.0881
resume	-11.0881
-2018-	-11.0881
suche	-11.0889
-10/	-11.089
cash	-11.0911
county	-11.0916
_00_	-11.0922
리	-11.0926
refer	-11.093
eee	-11.0931
grid	-11.0944
uit	-11.0945
stats	-11.0949
bill	-11.0949
pros	-11.0949
aivu	-11.0951
canvapro	-11.0951
portable	-11.0955
char	-11.0958
zmg	-11.0959
64_1	-11.0961
scan	-11.0964
pagina	-11.0969
cvid	-11.0972
490	-11.0973
window	-11.0979
astro	-11.0983
york	-11.0986
stable	-11.0991
-2020	-11.1002
racing	-11.1005
nye	-11.1015
111	-11.1016
2000	-11.1023
_1:	-11.1034
opinion	-11.1038
introduction	-11.1039
retail	-11.1055
khoahoc	-11.1058
":"	-11.1062
gang	-11.1067
ghz	-11.1068
poly	-11.1068
venta	-11.1069
rich	-11.1082
gateway	-11.109
voice	-11.109
clickid	-11.109
148	-11.1092
got	-11.1097
songs	-11.1106
googleads	-11.1106
kas	-11.1106
weg	-11.1107
vel	-11.1109
msi	-11.1109
nan	-11.1113
berlin	-11.112
на	-11.1121
ン	-11.1122
من	-11.1123
secret	-11.1129
sal	-11.1137
korean	-11.1143
800	-11.1147
worth	-11.1147
.123	-11.1148
cisco	-11.1151
cdc	-11.1152
fonts	-11.1153
dragon	-11.1158
kol	-11.116
ista	-11.1164
600	-11.1164
pak	-11.1169
jack	-11.1169
adb	-11.1172
jam	-11.1173
indir	-11.1175
seller	-11.1175
252	-11.1176
miss	-11.1177
society	-11.1178
jar	-11.1178
-40	-11.1179
phap	-11.1182
,+	-11.1184
teacher	-11.1185
aivm	-11.1195
126	-11.12
arm	-11.1206
dotnet	-11.1207
mejores	-11.1207
frame	-11.1208
ware	-11.1208
obi	-11.1209
through	-11.121
till	-11.1215
nghe	-11.1223
cours	-11.1229
energie	-11.1234
cases	-11.1245
markt	-11.125
bez	-11.125
universal	-11.1251
ece	-11.1251
ア	-11.1252
rdr	-11.1253
juegos	-11.1254
hepsiburada	-11.1255
sas	-11.1256
applications	-11.1257
/2021/03/	-11.1261
own	-11.1261
64_2	-11.1262
aria	-11.1262
shu	-11.1266
_2_	-11.1268
input	-11.127
в	-11.1271
tic	-11.1271
portugal	-11.1272
qivj	-11.1272
mak	-11.1274
ong	-11.1275
570	-11.1277
acid	-11.1282
owy	-11.1288
jin	-11.1288
carbon	-11.1288
blu	-11.1295
ink	-11.1296
chords	-11.1299
skills	-11.13
investing	-11.131
figure	-11.1311
howto	-11.1316
771	-11.1317
softonic	-11.1318
bfd	-11.132
cher	-11.1324
reader	-11.1329
chung	-11.1335
este	-11.1336
zer	-11.1338
tem	-11.1339
rules	-11.1339
ا	-11.1341
lake	-11.1343
rtx	-11.1348
arab	-11.1348
invest	-11.1349
sinif	-11.1354
boss	-11.1354
cer	-11.1358
agro	-11.1359
dig	-11.1362
futbol	-11.1362
novo	-11.1368
]&	-11.1374
-22&	-11.1388
ntp	-11.1389
mur	-11.1392
autodesk	-11.14
tus	-11.1411
000000	-11.1412
aivv	-11.1413
qivd	-11.1414
five	-11.1415
ris	-11.142
iron	-11.142
electrical	-11.1422
vaccine	-11.1422
173	-11.1425
nat	-11.1428
qivc	-11.1429
nutrition	-11.1439
ura	-11.144
64_0	-11.1441
installation	-11.1445
__._	-11.1447
gps	-11.1452
cjwkcaian	-11.1452
documentation	-11.1458
economy	-11.1459
772	-11.1464
777	-11.1466
nhn	-11.1467
=[	-11.1471
toys	-11.1472
การ	-11.1474
dieu	-11.1476
tie	-11.1476
3%	-11.1478
shows	-11.1479
=1001	-11.1483
cep	-11.1486
production	-11.1487
duc	-11.149
foot	-11.1494
229	-11.1494
crea	-11.1495
wire	-11.1497
slide	-11.1498
-19/	-11.1499
profiles	-11.1499
browser	-11.1506
nedir	-11.1512
gtx	-11.1514
elektro	-11.1518
aaf	-11.1523
elite	-11.1524
rat	-11.1532
meter	-11.1536
formula	-11.1547
hong	-11.155
descargar	-11.1551
think	-11.1553
evo	-11.1558
letras	-11.156
dchcsewi	-11.1564
cnn	-11.1564
michael	-11.1566
fresh	-11.1566
truong	-11.1568
robot	-11.1568
hieu	-11.1568
▁search	-11.1571
ism	-11.1571
buch	-11.1572
64_3	-11.1575
busca	-11.1575
vao	-11.158
found	-11.1588
death	-11.1594
nuoc	-11.1596
lia	-11.1597
2010	-11.1599
esp	-11.1603
options	-11.1604
지	-11.1605
photoshop	-11.1609
phong	-11.161
homepage	-11.1614
disk	-11.1616
kino	-11.1621
cio	-11.1624
ele	-11.1627
james	-11.1627
pat	-11.1628
nte	-11.1629
male	-11.163
raw	-11.1635
tiktok	-11.1642
112	-11.1646
trend	-11.1647
idx	-11.1647
monster	-11.1653
mental	-11.1657
luz	-11.1663
lim	-11.1666
updates	-11.1667
guce	-11.1668
roblox	-11.1671
salary	-11.1678
keyboard	-11.1681
-300	-11.1692
discover	-11.1692
mba	-11.1695
hant	-11.1697
304	-11.1708
sar	-11.1713
sciences	-11.1713
produits	-11.1714
kknews	-11.1716
translation	-11.1717
|&	-11.172
grande	-11.1723
sos	-11.1724
rezepte	-11.1727
aqua	-11.1742
=1007	-11.1744
-60-	-11.1754
district	-11.1758
modules	-11.1759
dvc	-11.1767
hint	-11.1768
iva	-11.1781
terra	-11.1783
พ	-11.1786
acer	-11.1789
generator	-11.179
137	-11.1792
race	-11.1802
rsa	-11.1805
vos	-11.1813
/2021/06/	-11.1818
750	-11.1818
lis	-11.1822
strategy	-11.1823
wmc	-11.1826
proxy	-11.1827
rod	-11.1827
subject	-11.183
schedule	-11.1831
163	-11.1832
component	-11.1834
tank	-11.1835
arquivo	-11.1838
clear	-11.1844
sensor	-11.1845
nay	-11.1852
politik	-11.1856
ด	-11.1865
ora	-11.1868
ielts	-11.187
environment	-11.1873
rum	-11.1876
tran	-11.1877
ova	-11.1883
aparat	-11.1883
cai	-11.1884
3000	-11.1892
river	-11.1893
raz	-11.1895
philippines	-11.1898
wil	-11.1902
sharp	-11.1906
hyundai	-11.1908
labs	-11.1909
-2022/	-11.1911
loop	-11.1913
190	-11.1913
guy	-11.1916
mei	-11.1921
milf	-11.1921
lmcobhc	-11.1926
router	-11.1929
nissan	-11.1936
320	-11.1945
malaysia	-11.1946
anne	-11.1946
lieu	-11.1948
lay	-11.1954
/2021/04/	-11.1963
/2021/07/	-11.1966
fwindows	-11.1968
toy	-11.1972
11&	-11.1973
garage	-11.1977
=10	-11.1977
british	-11.1979
chain	-11.1984
sep	-11.1986
liga	-11.1991
tat	-11.1992
numbers	-11.1995
urn	-11.1997
bolum	-11.2001
enter	-11.2007
rus	-11.2008
univ	-11.2009
abb	-11.201
-50	-11.2012
blood	-11.2015
listings	-11.2016
tennis	-11.2016
releases	-11.2018
opc	-11.202
▁brand	-11.2023
vintage	-11.2025
lighting	-11.2025
treatment	-11.2029
102	-11.2029
trends	-11.2029
libros	-11.2031
stack	-11.2031
agoda	-11.2035
marketplace	-11.204
中	-11.204
nonbrand	-11.2041
same	-11.2047
ranking	-11.205
د	-11.2053
urban	-11.2055
=4&	-11.2062
facts	-11.2063
spm	-11.2063
บ	-11.2065
188	-11.2072
/2019/	-11.2072
2014	-11.2074
2011	-11.2075
studies	-11.2084
liv	-11.2089
boutique	-11.2093
outlet	-11.2095
srl	-11.2102
ว	-11.2102
challenge	-11.2102
arduino	-11.2108
2008	-11.2114
banco	-11.2115
loan	-11.2118
nano	-11.2119
catalogo	-11.2123
prices	-11.2124
ffd	-11.2134
wave	-11.2138
qivk	-11.2144
134	-11.2149
ovo	-11.2155
tipo	-11.2156
autocad	-11.2159
grey	-11.2167
connection	-11.2169
adv	-11.217
tia	-11.217
用	-11.217
theory	-11.217
much	-11.2172
254	-11.2177
recht	-11.2178
graph	-11.2181
-17-	-11.2181
summary	-11.2187
ping	-11.2187
2016	-11.2188
lead	-11.2191
simulator	-11.2191
247	-11.2202
/2021/05/	-11.2202
gor	-11.2205
201	-11.2205
selected	-11.2206
-40-	-11.2207
사	-11.2208
powershell	-11.221
bocr	-11.2211
curso	-11.2212
pussy	-11.2212
stage	-11.2216
nsf	-11.2218
move	-11.2221
年	-11.2223
▁profile	-11.2225
bor	-11.2229
welt	-11.2235
mul	-11.2238
/2021	-11.224
205	-11.2241
healthcare	-11.2241
-2020/	-11.2247
인	-11.2248
cuisine	-11.2248
packages	-11.2252
aero	-11.2255
nfl	-11.2256
159	-11.2256
bach	-11.2258
lou	-11.2259
mari	-11.2263
177	-11.2266
jus	-11.2267
diem	-11.2271
premier	-11.2278
deutschland	-11.2278
sok	-11.2282
biblioteca	-11.2282
microsoftonline	-11.2288
hoy	-11.2292
adults	-11.2293
produkter	-11.2295
vehicle	-11.23
large	-11.2304
mysql	-11.2306
vector	-11.2317
roll	-11.2324
turkce	-11.2327
ن	-11.233
institute	-11.2339
portfolio	-11.2351
internal	-11.2353
communication	-11.2358
fat	-11.237
dchcsewj	-11.2374
springer	-11.2376
kzw	-11.238
gad	-11.2382
cur	-11.2383
aire	-11.2388
steampowered	-11.239
coop	-11.2394
kata	-11.24
hyper	-11.2404
effects	-11.2404
intro	-11.2408
ian	-11.2409
settings	-11.2413
nor	-11.2418
sei	-11.2421
muc	-11.2423
ismo	-11.2426
meaning	-11.2426
prof	-11.2433
bhadeiwa	-11.2438
another	-11.2438
uns	-11.244
guid	-11.2441
kay	-11.2445
coin	-11.2451
tui	-11.2451
bell	-11.2451
typ	-11.2455
255	-11.2458
114	-11.2461
106	-11.2463
mean	-11.2465
=1009	-11.2465
wise	-11.247
england	-11.2472
agua	-11.2476
zione	-11.2479
phu	-11.2481
provider	-11.2482
2017	-11.2482
一	-11.2486
174	-11.2491
nghiem	-11.2492
127	-11.2498
146	-11.2501
/2021/01/	-11.2504
boe	-11.2504
trung	-11.2505
council	-11.251
spankbang	-11.2516
180	-11.2517
programme	-11.2518
renault	-11.252
polo	-11.2522
220	-11.2526
)&	-11.253
village	-11.253
czy	-11.2532
kho	-11.2533
sia	-11.2538
2012	-11.2541
jsessionid	-11.2542
contra	-11.2542
stadt	-11.2547
supplies	-11.255
temporada	-11.2552
sma	-11.2554
casas	-11.2558
components	-11.2559
iwar	-11.2559
udn	-11.256
links	-11.256
specs	-11.256
tecnologia	-11.2562
dead	-11.2562
2022	-11.2563
ive	-11.2566
capitulo	-11.2567
avis	-11.2572
105	-11.2581
brown	-11.2587
role	-11.2588
analytics	-11.2595
gifts	-11.2606
qivh	-11.2607
/2020/12/	-11.261
oto	-11.2611
zhuanlan	-11.2614
webcam	-11.2614
healthy	-11.2615
rank	-11.2621
ias	-11.2631
electro	-11.2631
新	-11.2636
province	-11.2638
past	-11.2638
-22-	-11.264
soc	-11.264
biet	-11.2641
pag	-11.2645
pho	-11.2651
privat	-11.2654
203	-11.2659
govt	-11.2661
heat	-11.2661
sah	-11.2663
qive	-11.2664
turk	-11.2664
esl	-11.2666
fig	-11.2667
cie	-11.2669
apo	-11.2671
notice	-11.2677
swiss	-11.2677
mkwid	-11.2679
700	-11.2681
bro	-11.2686
sourceid	-11.2691
too	-11.2692
moda	-11.2693
markets	-11.2695
gio	-11.2697
1080	-11.2697
qiva	-11.2698
ontario	-11.2701
museum	-11.2705
dfd	-11.271
hello	-11.2711
ó	-11.2711
quebec	-11.2713
justice	-11.2718
spider	-11.2718
peter	-11.2724
voz	-11.2724
eat	-11.2728
pharma	-11.2731
mama	-11.274
brother	-11.2744
adgp	-11.2745
udemy	-11.2746
rei	-11.2747
due	-11.2748
atc	-11.2752
categoria	-11.2754
boards	-11.2761
loja	-11.2776
pubs	-11.2777
geeksforgeeks	-11.2779
danh	-11.2783
fab	-11.2786
reset	-11.2791
"	-11.2791
cannot	-11.2797
kien	-11.2797
gry	-11.2799
rand	-11.2808
%25	-11.2809
bok	-11.281
sector	-11.2814
ش	-11.2814
western	-11.2818
ndo	-11.2818
lesbian	-11.2824
lek	-11.2827
iki	-11.283
sms	-11.2838
lists	-11.2841
251	-11.2842
mount	-11.2847
-2017-	-11.2847
118	-11.285
-2016-	-11.2856
unk	-11.2857
partners	-11.2857
い	-11.2859
در	-11.2862
brain	-11.2862
gmv	-11.2863
exa	-11.2865
bug	-11.2868
six	-11.2869
pref	-11.287
rie	-11.2871
eamyasaaegk	-11.2872
leo	-11.2873
eamyasaaegi	-11.2873
clip	-11.2874
dvm	-11.2883
eve	-11.2899
=1008	-11.2903
foundation	-11.291
italiano	-11.291
dio	-11.2911
payment	-11.2912
siemens	-11.2912
ป	-11.2914
2013	-11.2921
burg	-11.2928
rot	-11.2929
006	-11.2929
に	-11.293
í	-11.2931
kun	-11.2933
kul	-11.2937
qivy	-11.2937
angel	-11.2938
assessment	-11.2938
yvd	-11.2939
certificate	-11.294
arttext	-11.2944
drugs	-11.2947
airbnb	-11.2948
tokopedia	-11.2949
delta	-11.2949
crm	-11.295
bos	-11.295
their	-11.2951
agri	-11.2953
sweet	-11.2957
-21-	-11.2957
amateur	-11.2962
wiw	-11.2962
immo	-11.2969
ori	-11.2969
bun	-11.2973
gaz	-11.2976
kultur	-11.2976
before	-11.2978
hien	-11.2978
early	-11.2978
mathworks	-11.2982
vendita	-11.2984
eamyasaaegj	-11.2984
salon	-11.2985
quoc	-11.2987
eli	-11.2989
aya	-11.2992
/2021/08/	-11.2994
immobilier	-11.2996
/2018	-11.3001
ekonomi	-11.3001
aba	-11.3005
costa	-11.3005
stein	-11.3006
authentication	-11.3009
109	-11.301
horizon	-11.3011
adapter	-11.3016
forecast	-11.3017
advnlg	-11.3017
bak	-11.3018
jean	-11.3018
agenda	-11.3024
cip	-11.3025
flat	-11.3029
mine	-11.303
ع	-11.3031
ave	-11.3032
scale	-11.3035
350	-11.3035
housing	-11.3039
2009	-11.3041
signature	-11.3043
diseases	-11.3043
stan	-11.3046
cuz	-11.3052
rail	-11.3053
informacion	-11.3059
и	-11.306
fbclid	-11.3063
121	-11.3065
functions	-11.3065
servlet	-11.3066
oral	-11.307
fee	-11.3073
tich	-11.3074
atlas	-11.308
jvd	-11.3081
eamyasaaegl	-11.3082
budget	-11.3084
quizizz	-11.3087
gpu	-11.3092
258	-11.3092
khu	-11.3093
tumblr	-11.3094
sydney	-11.3097
xvd	-11.3099
자	-11.3104
175	-11.3109
statement	-11.3116
ubuntu	-11.3116
=30	-11.3118
dont	-11.3121
shell	-11.3121
370	-11.313
sus	-11.3131
با	-11.3131
xem	-11.3132
sri	-11.3138
memo	-11.3139
heim	-11.3146
/2021/02/	-11.3147
ness	-11.3149
character	-11.3158
tubes	-11.3159
records	-11.3161
usd	-11.3164
acion	-11.3174
faqs	-11.3174
pressure	-11.3176
formation	-11.3182
▁shopping	-11.3189
kel	-11.3191
cima	-11.3192
nar	-11.3196
arch	-11.3199
/2020/11/	-11.3201
structure	-11.3208
legends	-11.3209
branch	-11.321
harry	-11.3212
desk	-11.3212
gaw	-11.3214
drop	-11.322
117	-11.3228
=1294343&	-11.3233
parking	-11.3234
matrix	-11.3234
geek	-11.3235
hack	-11.3236
oma	-11.3237
ore	-11.3239
][	-11.324
manage	-11.3246
513	-11.325
members	-11.3252
educacao	-11.3259
forest	-11.3259
kyo	-11.326
978	-11.3264
temp	-11.3265
gap	-11.3267
160	-11.3272
gre	-11.3274
efd	-11.3275
effect	-11.3276
dry	-11.3279
vvd	-11.328
dag	-11.328
rule	-11.3286
qivf	-11.3288
=10&	-11.3289
fair	-11.3291
elements	-11.3291
alwayson	-11.3297
afd	-11.3298
310	-11.3298
機	-11.3298
dress	-11.3306
206	-11.3307
backup	-11.3307
/2020/10/	-11.3314
score	-11.3316
子	-11.3318
technik	-11.3318
kara	-11.3321
wondershare	-11.333
gram	-11.333
hasem	-11.3332
phuong	-11.3332
rai	-11.3334
rou	-11.3334
making	-11.3335
turn	-11.3337
split	-11.3337
standards	-11.3339
console	-11.334
raj	-11.3342
seg	-11.3344
zur	-11.3348
comprar	-11.3355
victoria	-11.3358
208	-11.3359
diet	-11.3362
115	-11.3362
month	-11.3366
battle	-11.3366
lady	-11.3367
argentina	-11.3374
disneyplus	-11.3377
req	-11.3377
success	-11.3377
identity	-11.3379
dynamics	-11.3381
machines	-11.3384
maths	-11.3387
arabic	-11.3389
november	-11.3389
boots	-11.3395
discord	-11.3396
balance	-11.3397
guest	-11.3397
rem	-11.3399
summer	-11.3403
279	-11.3406
ati	-11.3407
demo	-11.3411
ika	-11.3414
ntu	-11.3421
gai	-11.3421
saml	-11.3424
smith	-11.3424
qvd	-11.3426
friends	-11.3426
indiatimes	-11.3428
dll	-11.3434
floor	-11.3435
470	-11.344
etcc	-11.3441
icon	-11.3448
mijn	-11.345
dalam	-11.3454
ola	-11.3458
thesaurus	-11.3459
koop	-11.3461
while	-11.3463
zvd	-11.3464
srp	-11.3467
recursos	-11.3468
paginas	-11.3469
ما	-11.3476
wix	-11.3477
2001	-11.3478
시	-11.348
202	-11.3482
ble	-11.3484
fsk	-11.3486
thuong	-11.3489
pvc	-11.3489
nvd	-11.3489
rin	-11.3489
▁txt	-11.349
가	-11.3494
tempo	-11.3499
fans	-11.3501
climate	-11.3501
choice	-11.3502
wear	-11.3503
zfd	-11.3505
barcelona	-11.3506
elo	-11.351
plaza	-11.3511
cate	-11.3511
arena	-11.3513
git	-11.3516
kabel	-11.3518
135	-11.3523
=21	-11.3523
rates	-11.3526
bqobh	-11.3529
upgrade	-11.3532
promotion	-11.3536
sip	-11.3538
ische	-11.3538
leroymerlin	-11.3539
gol	-11.3541
dlya	-11.3542
/100	-11.3542
numero	-11.3545
ง	-11.3547
aneiwa	-11.3551
playlist	-11.3551
nederland	-11.3556
discuss	-11.3556
fed	-11.3556
sezon	-11.3558
feb	-11.3563
paulo	-11.3564
primary	-11.3567
mic	-11.3567
rain	-11.3571
7%	-11.3574
kong	-11.3575
ق	-11.3579
mob	-11.3583
states	-11.3584
/2021/11/	-11.3587
datos	-11.3588
dmm	-11.3592
pil	-11.3596
investment	-11.3599
otto	-11.36
firmware	-11.3601
department	-11.3605
2003	-11.3614
生	-11.3615
oss	-11.3615
wikihow	-11.3622
comune	-11.3625
smartphones	-11.3629
fifa	-11.363
phones	-11.3634
pia	-11.3635
rol	-11.3636
bvd	-11.3637
nom	-11.3639
wer	-11.364
mes	-11.3643
commerce	-11.3644
189	-11.3644
sis	-11.3647
emploi	-11.3647
aol	-11.3653
jay	-11.3653
present	-11.3653
nur	-11.3656
hunter	-11.3658
him	-11.3659
hilfe	-11.3661
agency	-11.3662
arc	-11.3664
wheel	-11.3667
duo	-11.3672
solid	-11.3675
lcd	-11.3676
ium	-11.3684
nasil	-11.3693
nlid	-11.3695
had	-11.3696
gli	-11.3696
prezi	-11.3699
smb	-11.3701
discount	-11.3703
femme	-11.3705
小	-11.371
cda	-11.3717
bikes	-11.3719
glassdoor	-11.372
politica	-11.3721
hvd	-11.3725
zorg	-11.3726
rise	-11.3727
mang	-11.3727
during	-11.3728
ptaid	-11.3728
australian	-11.3728
passeidireto	-11.3736
vmware	-11.3743
actualites	-11.3748
sko	-11.375
pump	-11.3751
json	-11.3755
sara	-11.3761
vai	-11.3761
thomas	-11.3762
fulltext	-11.3762
mch	-11.3765
retro	-11.3772
points	-11.3775
motors	-11.3778
kvd	-11.3781
produtos	-11.3789
/2020/03/	-11.3795
citations	-11.3799
133	-11.3801
hanh	-11.3805
nel	-11.3806
ima	-11.381
-500	-11.3812
wvd	-11.3821
wiktionary	-11.3823
yamaha	-11.3824
ocean	-11.3824
dac	-11.3826
modelo	-11.3827
piano	-11.3829
nes	-11.383
grammarly	-11.3832
wet	-11.3833
130	-11.3834
coupon	-11.3835
piece	-11.3836
weight	-11.3837
chef	-11.384
framework	-11.3841
を	-11.3843
bul	-11.385
oem	-11.3856
gmbh	-11.3857
264	-11.3858
jfd	-11.3859
disease	-11.3862
uber	-11.3863
horse	-11.387
rgb	-11.3874
129	-11.3875
ava	-11.3876
ح	-11.3877
mvd	-11.3882
storm	-11.3887
jose	-11.3888
warehouse	-11.3888
210	-11.3889
biology	-11.3891
passage	-11.3891
bia	-11.3893
104	-11.3895
cnt	-11.3901
ย	-11.3902
286	-11.3902
sir	-11.3903
gioi	-11.3906
personas	-11.3906
sop	-11.3912
lecture	-11.3913
fisica	-11.3918
123.	-11.3919
cana	-11.3921
ella	-11.3922
kos	-11.3922
acao	-11.3924
pain	-11.3931
acquisition	-11.3933
-2021.	-11.3934
gue	-11.394
/2021/10/	-11.3942
sud	-11.3942
consulta	-11.3945
seek	-11.3946
rtb	-11.3947
duty	-11.3949
fal	-11.3952
xfd	-11.3952
alta	-11.3953
/2020/04/	-11.3958
fuel	-11.396
$	-11.396
diamond	-11.3967
suc	-11.3967
nkw	-11.3977
-2019	-11.3979
!2	-11.3982
patient	-11.3983
ash	-11.3987
yama	-11.3992
008	-11.3999
uno	-11.4001
dns	-11.4006
qfd	-11.4007
leon	-11.4007
mente	-11.4008
bih	-11.401
kap	-11.401
リ	-11.4012
wei	-11.4016
konu	-11.4017
channels	-11.402
دانلود	-11.4022
sets	-11.4023
=1010	-11.4023
twitch	-11.4024
laws	-11.4025
panasonic	-11.4026
tori	-11.4027
ת	-11.4029
wissen	-11.4029
cvd	-11.4031
fvd	-11.4031
div	-11.4033
mktyp	-11.4034
cycle	-11.4035
888	-11.4035
regional	-11.4037
158	-11.4038
still	-11.4038
logic	-11.4041
architecture	-11.4042
cpd	-11.4043
exercise	-11.4044
rim	-11.4046
hire	-11.4046
near	-11.4048
ize	-11.4049
regular	-11.405
906	-11.405
pchome	-11.4054
yoga	-11.4056
developers	-11.4056
natur	-11.4056
suite	-11.4065
wang	-11.4069
paint	-11.407
vaccination	-11.4073
pics	-11.4074
204	-11.4078
ske	-11.4078
168	-11.4079
390	-11.408
ons	-11.4082
kingdom	-11.4085
pvd	-11.4087
centrum	-11.4087
creativeid	-11.4093
257	-11.4096
wedding	-11.4096
240	-11.4097
nuevo	-11.4097
rap	-11.4098
tho	-11.4098
rak	-11.4099
knc	-11.4101
flutter	-11.4102
lig	-11.4104
native	-11.4106
ción	-11.4107
650	-11.4111
faculty	-11.4112
distribution	-11.4113
010	-11.4117
want	-11.4119
=1006	-11.4119
jes	-11.4121
lima	-11.4121
stocks	-11.4122
plastic	-11.4122
rar	-11.4123
forbes	-11.4135
/2018/	-11.4139
articulos	-11.4139
pac	-11.414
todas	-11.4143
arti	-11.4145
tru	-11.4145
kei	-11.4155
logitech	-11.4156
tik	-11.4157
qivw	-11.4158
assistant	-11.4161
ador	-11.4162
-365-	-11.4165
frage	-11.4166
230	-11.4169
т	-11.4173
sina	-11.4177
350205_	-11.418
2010350205::12:1	-11.4181
motion	-11.4183
players	-11.4189
cock	-11.419
gvd	-11.419
::	-11.4192
every	-11.4192
parent	-11.4192
prix	-11.4195
vue	-11.4197
urun	-11.4198
joe	-11.4201
countries	-11.4201
dashboard	-11.4202
ips	-11.4209
mkw	-11.4211
vba	-11.4211
chap	-11.4214
diario	-11.4215
xay	-11.4217
vas	-11.422
grad	-11.4223
kart	-11.4225
branding	-11.4229
apartments	-11.4231
259	-11.4232
144	-11.4233
berita	-11.4234
zee	-11.4234
lights	-11.4235
wir	-11.4236
cook	-11.4243
guidelines	-11.4248
367	-11.425
lost	-11.4251
cbc	-11.4252
luat	-11.4252
tours	-11.4253
り	-11.4255
hou	-11.4258
cuc	-11.4263
lines	-11.4265
replacement	-11.4268
vfd	-11.4273
/2019	-11.4273
zona	-11.4277
-200	-11.4277
campid	-11.4283
perf	-11.4287
265	-11.429
stay	-11.4291
22&	-11.4292
dur	-11.4294
2007	-11.4296
ign	-11.43
tamil	-11.4304
ets	-11.4305
trac	-11.4315
pada	-11.4315
ngay	-11.4318
lexikon	-11.432
themen	-11.4321
/2020/05/	-11.4322
crid	-11.4324
launch	-11.4331
nghiep	-11.4334
187	-11.4335
classroom	-11.4338
coast	-11.4344
▁bkws	-11.4345
tet	-11.4346
taiwan	-11.4351
spor	-11.4354
gid	-11.4354
decor	-11.4364
301	-11.4364
chen	-11.4372
hol	-11.4374
bild	-11.4376
eaqyasabegl	-11.4377
037	-11.4379
robert	-11.4384
contract	-11.4387
sharing	-11.4388
hart	-11.4388
googleshopping	-11.439
zhidao	-11.4393
/2020/09/	-11.4394
telefon	-11.4398
bou	-11.4402
instant	-11.4407
hfd	-11.4408
appliances	-11.4414
mun	-11.4414
rosa	-11.4416
valley	-11.4419
138	-11.4423
hoidap	-11.4429
ator	-11.4431
=1366&	-11.4434
checkout	-11.4435
pink	-11.4435
ata	-11.4439
musica	-11.4442
holidays	-11.4446
ddr	-11.445
dak	-11.4452
merchantid	-11.4453
guard	-11.4454
wfd	-11.4455
alla	-11.4457
shared	-11.4457
wal	-11.4458
basics	-11.4461
moj	-11.4461
410	-11.4468
wih	-11.4469
อ	-11.447
khoa	-11.4472
tsu	-11.4473
jeux	-11.4478
strom	-11.448
institucional	-11.4481
senior	-11.4481
sans	-11.4483
medicina	-11.4484
oak	-11.4497
auction	-11.4497
amor	-11.4498
nota	-11.4498
could	-11.4501
fantasy	-11.4501
electronic	-11.4505
lidl	-11.4508
bud	-11.4512
magazineluiza	-11.4512
cooking	-11.4516
eaqyasabegi	-11.4517
generation	-11.4518
ghost	-11.4518
clid	-11.4523
sil	-11.4524
slow	-11.4525
aka	-11.453
phase	-11.453
airlines	-11.4533
330	-11.4533
108	-11.4538
gsm	-11.4539
angular	-11.4544
luong	-11.4546
pixel	-11.4549
uso	-11.4552
yellow	-11.4557
wolf	-11.4557
ary	-11.4562
chicken	-11.4564
carte	-11.4566
bond	-11.4567
growth	-11.457
tabelog	-11.4572
abt	-11.4573
occ	-11.4573
hor	-11.4574
379	-11.4575
-2019/	-11.4579
mask	-11.4582
delete	-11.4583
automation	-11.4584
eaqyasabegk	-11.4585
fine	-11.4589
tipos	-11.4589
ready	-11.4594
studocu	-11.4599
/2020/06/	-11.4602
rome	-11.4604
zpd	-11.4605
barn	-11.4607
opera	-11.4607
egg	-11.4607
sten	-11.4608
charge	-11.461
yfd	-11.4611
zapmeta	-11.4614
diesel	-11.4617
gut	-11.4617
119	-11.4617
omicron	-11.4618
christian	-11.4618
referral	-11.4622
mex	-11.4624
ahw	-11.4627
vrnc	-11.4627
actualidad	-11.4627
license	-11.4629
rae	-11.463
must	-11.4632
roman	-11.4636
delhi	-11.4637
qna	-11.4637
emp	-11.4641
zna	-11.4644
random	-11.4649
uvd	-11.465
lic	-11.465
lamp	-11.4654
142	-11.4655
530	-11.4655
eaqyasabegj	-11.4656
docker	-11.4657
xocr	-11.4662
nta	-11.4667
sac	-11.4671
ute	-11.4679
peugeot	-11.4681
ล	-11.4682
pharmacy	-11.4685
▁free	-11.4692
computers	-11.4694
qivl	-11.4694
marque	-11.4694
push	-11.4704
energia	-11.4707
rig	-11.4707
crossword	-11.4707
ー	-11.4708
}	-11.4709
publisher	-11.4711
hobby	-11.4712
vente	-11.4713
cricket	-11.4725
ofertas	-11.4726
と	-11.4727
ige	-11.4731
tire	-11.4732
ร	-11.4732
enable	-11.4739
prima	-11.4744
kfd	-11.4745
foods	-11.4746
talent	-11.4747
container	-11.4748
eau	-11.4752
580	-11.4754
insert	-11.4758
abu	-11.4759
299	-11.4762
://123	-11.4762
ต	-11.4763
interior	-11.4765
daniel	-11.4766
147	-11.4768
cons	-11.4768
ivo	-11.4769
chia	-11.4772
annual	-11.4774
codegrepper	-11.4776
520	-11.4777
dol	-11.4777
rea	-11.478
kha	-11.478
background	-11.4786
homedepot	-11.4787
dna	-11.4792
qivx	-11.48
virus	-11.4802
ท	-11.4803
iot	-11.4804
therapy	-11.4806
done	-11.4806
cul	-11.4806
ка	-11.4808
hacer	-11.4812
211	-11.4812
round	-11.4812
webster	-11.4814
д	-11.4817
ota	-11.4819
layout	-11.482
nica	-11.4821
={"	-11.4822
fotos	-11.4824
texto	-11.4825
5000	-11.4828
292	-11.4828
recherche	-11.4828
technologies	-11.4831
bitcoin	-11.4831
highlighted	-11.4834
survey	-11.4834
fac	-11.4836
/2021/12/	-11.4838
srt	-11.4841
%252	-11.4842
mfd	-11.4842
1100	-11.4844
dba	-11.4845
attachments	-11.4847
meeting	-11.4851
alma	-11.4851
mirror	-11.4851
verde	-11.4852
ช	-11.4854
pcr	-11.4859
escort	-11.4861
porto	-11.4862
vehicles	-11.4865
lor	-11.4867
curriculum	-11.4872
internacional	-11.4876
pix	-11.4884
choose	-11.4886
todos	-11.4888
ann	-11.4888
tables	-11.4888
roi	-11.49
medica	-11.49
kam	-11.4904
ryzen	-11.4904
cung	-11.4906
-500-	-11.4906
mission	-11.4907
started	-11.4911
ard	-11.4911
accessoires	-11.4911
chemical	-11.4914
ahu	-11.4921
113	-11.4921
gian	-11.4924
hel	-11.4924
ost	-11.4928
tiet	-11.4929
det	-11.493
898	-11.4932
드	-11.4932
seat	-11.4934
nis	-11.4936
aldi	-11.4938
yeu	-11.4944
pole	-11.4949
649	-11.4951
pulse	-11.4952
182	-11.4955
ciencia	-11.4957
boys	-11.4957
ando	-11.4963
hof	-11.4966
328	-11.4966
tuong	-11.497
description	-11.497
vir	-11.4973
cel	-11.4975
wch	-11.4975
income	-11.4982
к	-11.4983
ngan	-11.4986
pec	-11.4987
rvd	-11.4997
ان	-11.5
bom	-11.5001
residential	-11.501
wfc	-11.5012
inicio	-11.5012
qivq	-11.502
sing	-11.5025
left	-11.5029
ders	-11.5029
高	-11.5032
tipps	-11.5036
toronto	-11.5037
gfd	-11.5043
concept	-11.5043
ל	-11.5045
saber	-11.5049
peliculas	-11.5053
mata	-11.5053
iran	-11.5054
cities	-11.5056
patch	-11.5057
marvel	-11.5061
248	-11.5065
kaufen	-11.5067
cream	-11.5067
distance	-11.5069
potter	-11.5069
crime	-11.507
binh	-11.5073
walk	-11.5075
不	-11.508
rapid	-11.5082
amento	-11.5083
selection	-11.5086
gon	-11.5086
340	-11.5088
ipo	-11.5091
abstract	-11.5094
ify	-11.5095
gis	-11.5095
170	-11.5096
theguardian	-11.5104
servicos	-11.5106
253	-11.5108
viva	-11.5108
mov	-11.5109
linea	-11.511
dari	-11.5111
jbx	-11.5113
fbrnd	-11.5118
spo	-11.5118
172	-11.5118
revistas	-11.5119
nursing	-11.5119
161	-11.513
lens	-11.5134
alfa	-11.5137
sitelink	-11.514
plot	-11.514
hos	-11.5141
xpd	-11.5141
glo	-11.5142
goodreads	-11.5143
plc	-11.5144
-19959388920&	-11.5144
cold	-11.5147
printers	-11.5149
sims	-11.5149
238	-11.5152
qpd	-11.5154
each	-11.5158
archivos	-11.5159
grill	-11.516
850	-11.5162
themes	-11.5164
hey	-11.5165
zeit	-11.5165
1||	-11.5166
ney	-11.5166
hus	-11.5168
requirements	-11.5172
characters	-11.5174
rdc	-11.5175
dance	-11.5175
nga	-11.5176
084	-11.5178
weblio	-11.518
510	-11.5182
549	-11.5184
espana	-11.5186
mein	-11.5187
aar	-11.5195
-1080	-11.5198
disable	-11.5202
009	-11.5204
legacy	-11.5204
church	-11.5208
hide	-11.5208
jordan	-11.5209
lms	-11.5212
bbb	-11.5212
zar	-11.5213
wobhdrarisanymno	-11.5214
popup	-11.5216
ahv	-11.5218
103	-11.5219
acrobat	-11.5219
à	-11.522
dun	-11.522
[0]=	-11.5223
380	-11.5224
116	-11.5225
major	-11.5229
manchester	-11.523
fort	-11.5237
sleep	-11.524
rel	-11.5243
derecho	-11.5244
/2020/08/	-11.5246
female	-11.5246
ict	-11.5247
ette	-11.5247
=7&	-11.5249
loai	-11.525
bouw	-11.525
560	-11.525
fra	-11.5251
-365/	-11.5254
156	-11.5255
oka	-11.5255
cea	-11.5262
designer	-11.5263
vergleich	-11.5265
methods	-11.5272
mtm	-11.5272
=,&	-11.5273
bib	-11.5279
counter	-11.528
195	-11.5283
truc	-11.5284
bird	-11.529
analisis	-11.5292
fnac	-11.5292
germany	-11.5292
152	-11.5295
kings	-11.53
jardin	-11.5301
lvd	-11.5303
mother	-11.5304
mou	-11.5304
kurs	-11.5308
messenger	-11.5312
siln	-11.5313
milano	-11.5315
actu	-11.5315
567	-11.5318
idea	-11.5322
annuaire	-11.5323
attribute	-11.5325
1001	-11.5326
texas	-11.5326
rip	-11.5326
gads	-11.5327
faz	-11.5327
386	-11.5327
uta	-11.5327
=2211&	-11.5328
trgt	-11.5328
sahibinden	-11.5332
ere	-11.5335
beat	-11.5336
hur	-11.5336
cheap	-11.5336
thuat	-11.5338
-200-	-11.5342
biw	-11.5344
553	-11.5345
aki	-11.5355
indo	-11.5356
gmc	-11.5358
전	-11.536
mitsubishi	-11.5364
4000	-11.5365
inst	-11.5366
999	-11.5369
would	-11.5372
categorie	-11.5377
nid	-11.5379
svd	-11.5381
neuro	-11.5383
psy	-11.5386
comparison	-11.5386
hut	-11.5387
上	-11.5389
/2020	-11.5389
ysmesp	-11.5391
197	-11.5392
eaayasabegi	-11.5393
close	-11.5395
seguridad	-11.5396
qivr	-11.5398
267	-11.5399
nfd	-11.5399
gender	-11.54
turbo	-11.5402
249	-11.5403
izito	-11.5404
stra	-11.5406
ratgeber	-11.5406
calculate	-11.5407
iste	-11.5409
đ	-11.5409
297	-11.5412
1200	-11.5413
09-21&	-11.5415
jon	-11.5415
gene	-11.5418
desi	-11.5418
mut	-11.5419
tourism	-11.5419
signal	-11.5421
eaayasabegk	-11.5422
gao	-11.5422
lostark	-11.5423
classes	-11.5424
wcm	-11.5424
dengan	-11.5428
glas	-11.543
jstor	-11.5431
cab	-11.5432
pipe	-11.5433
275	-11.5435
messages	-11.5436
hell	-11.5437
canal	-11.5438
steps	-11.544
645	-11.5441
hosting	-11.5443
!8	-11.5444
vale	-11.5444
mountain	-11.5445
guidance	-11.5454
3600	-11.546
datasheet	-11.5461
eyj	-11.5461
313	-11.5461
grow	-11.5469
eaayasabegj	-11.5471
107	-11.5472
tul	-11.5474
december	-11.5476
nicht	-11.5477
britannica	-11.548
!!!	-11.5481
sense	-11.5483
tower	-11.5485
flag	-11.5485
280	-11.5489
masters	-11.5489
transfermarkt	-11.5491
boat	-11.5491
る	-11.5496
pfd	-11.5504
nyheter	-11.5505
10&	-11.5507
banner	-11.5507
suzuki	-11.5513
jim	-11.5516
thang	-11.5516
checkin	-11.5517
ficha	-11.5522
_7_	-11.5522
unam	-11.5526
eaayasabegl	-11.553
rah	-11.5533
weebly	-11.5536
bog	-11.5537
firm	-11.5538
stor	-11.5539
bagceae	-11.5539
emag	-11.5543
rental	-11.5547
9780	-11.5551
meb	-11.5552
estado	-11.5555
monde	-11.5559
157	-11.5564
shipping	-11.5564
variable	-11.5565
failed	-11.5571
ahx	-11.5572
904	-11.5576
pdp	-11.5576
configuration	-11.5583
sche	-11.5584
90&	-11.5584
주	-11.5586
fks	-11.5587
laravel	-11.559
drf	-11.5591
federal	-11.5593
immobilien	-11.5596
2030	-11.5599
nhu	-11.5601
hdmi	-11.561
credito	-11.5611
ufd	-11.5611
hashtag	-11.5611
mercado	-11.5615
gil	-11.5616
pricing	-11.5626
rice	-11.5631
fel	-11.5632
sheets	-11.5632
uact	-11.5632
な	-11.5633
std	-11.5633
rnd	-11.5635
mam	-11.5637
078	-11.5638
primevideo	-11.5638
expand	-11.5639
artigos	-11.564
employee	-11.5643
kitap	-11.5645
bonus	-11.5655
nueva	-11.5656
/104	-11.5659
460	-11.5661
flu	-11.5661
programas	-11.5664
wellness	-11.5672
145	-11.5675
preguntas	-11.5675
servizi	-11.5677
164	-11.5678
268	-11.5679
festival	-11.5683
:|	-11.5685
480	-11.5686
pension	-11.5687
tfd	-11.5688
angebote	-11.569
ב	-11.5694
트	-11.5695
dnb	-11.5699
egypt	-11.57
juan	-11.5703
أ	-11.5703
で	-11.5707
untuk	-11.5708
epic	-11.571
cmd	-11.5711
very	-11.5714
available	-11.5716
literature	-11.5722
cont	-11.5723
vest	-11.5725
086	-11.5727
islam	-11.5729
logout	-11.5729
mla	-11.5729
260	-11.573
draw	-11.5732
realtor	-11.5732
lfd	-11.5733
xtor	-11.5736
moc	-11.5736
マ	-11.5737
extreme	-11.5738
ceo	-11.5738
paypal	-11.5738
slim	-11.574
":{"	-11.5747
lets	-11.5749
peri	-11.575
tablets	-11.5754
diablo	-11.5756
nem	-11.5758
praxis	-11.576
vpd	-11.5762
1999	-11.5766
qivt	-11.5767
parte	-11.5769
jos	-11.577
679	-11.5771
italy	-11.5772
1998	-11.5773
ninja	-11.5774
canvas	-11.5774
fach	-11.5786
wetter	-11.5787
mcq	-11.579
comic	-11.5794
、	-11.5796
llc	-11.5798
kpd	-11.5799
liquid	-11.5802
callback	-11.5802
rid	-11.5803
339	-11.5803
protocol	-11.5804
adp	-11.5804
mec	-11.5806
ypd	-11.5807
bags	-11.5808
076	-11.5808
melbourne	-11.5811
zillow	-11.5813
circuit	-11.5815
webstore	-11.5816
stick	-11.5817
kir	-11.5818
psychology	-11.582
kem	-11.5829
boost	-11.5831
カ	-11.5832
ier	-11.5832
132	-11.5834
crystal	-11.5834
isi	-11.5835
pcs	-11.5836
285	-11.5838
parents	-11.5838
programa	-11.5838
they	-11.584
dou	-11.5841
bts	-11.5842
idealo	-11.5843
thoi	-11.5844
being	-11.5848
м	-11.585
kakaku	-11.5855
lift	-11.5859
revision	-11.5861
291	-11.5869
even	-11.587
122	-11.587
important	-11.587
uhd	-11.5874
understanding	-11.5875
dim	-11.5875
kalender	-11.5878
msg	-11.588
celebrity	-11.5883
diabetes	-11.5887
bob	-11.5887
oro	-11.5895
sup	-11.5898
independent	-11.5899
coach	-11.5905
granny	-11.5907
gpd	-11.5909
monte	-11.5911
124	-11.5912
hogar	-11.5912
operations	-11.592
lavoro	-11.5921
ireland	-11.5924
▁en	-11.5924
champions	-11.5924
veh	-11.5924
ห	-11.5926
protein	-11.5926
mach	-11.5927
223	-11.5934
ptid	-11.5934
italian	-11.5936
processor	-11.5937
vez	-11.5938
hom	-11.5939
zim	-11.5939
jbl	-11.5942
egybest	-11.5943
pes	-11.5944
brd	-11.5944
bunnings	-11.5945
alu	-11.5948
mario	-11.5949
12&	-11.5952
ride	-11.5952
079	-11.5954
ish	-11.5954
maintenance	-11.5955
pick	-11.5956
/2020/07/	-11.5956
mira	-11.5959
hcm	-11.5959
":	-11.596
says	-11.5964
sik	-11.5964
ك	-11.5969
dre	-11.5969
albag	-11.5973
privacy	-11.5973
sala	-11.5974
psp	-11.5975
eda	-11.5977
-120	-11.5979
acnt	-11.598
departments	-11.598
cape	-11.5981
fpd	-11.5983
hip	-11.5983
keys	-11.5985
semi	-11.5986
/2017/	-11.5986
136	-11.5993
pou	-11.5995
qivz	-11.5999
630	-11.6004
295	-11.6005
▁the	-11.6006
lng	-11.6011
marie	-11.6011
haz	-11.6014
▁id	-11.6015
wol	-11.6016
soccer	-11.6018
anglais	-11.602
leadership	-11.6023
papa	-11.6024
albcp	-11.6026
jusbrasil	-11.6029
toc	-11.6034
licht	-11.6037
elpais	-11.6042
libre	-11.6044
setting	-11.6045
holz	-11.6046
lie	-11.6048
queen	-11.6049
topicdetail	-11.6051
beautiful	-11.6054
albch	-11.6054
ure	-11.6058
sistemas	-11.6062
subid	-11.6063
scene	-11.6063
spray	-11.6066
prodotti	-11.6066
merriam	-11.6068
notmobile	-11.6073
egy	-11.6075
wiley	-11.6077
hana	-11.6077
mary	-11.6078
ها	-11.6078
정	-11.6085
unique	-11.6088
lum	-11.609
352	-11.6091
nap	-11.6093
fcc	-11.6094
produit	-11.6095
schule	-11.6106
azione	-11.6106
ego	-11.6107
314	-11.6108
adventure	-11.6115
222	-11.6115
lotto	-11.6116
209	-11.6118
winkel	-11.6119
noel	-11.6128
blocks	-11.613
ivd	-11.6131
pir	-11.6131
division	-11.6132
ados	-11.6134
bow	-11.6136
154	-11.6143
vista	-11.6152
nrw	-11.6153
149	-11.6154
cay	-11.6156
=1005	-11.6157
kompas	-11.6158
waste	-11.6161
tres	-11.6162
tha	-11.6164
美	-11.6167
298	-11.6168
filename	-11.6169
dokument	-11.6173
行	-11.6173
industries	-11.6174
8000	-11.6175
457	-11.6178
yts	-11.6179
contoh	-11.6181
nft	-11.6186
zet	-11.6187
rica	-11.6188
administration	-11.6192
catch	-11.6193
sexo	-11.6198
1015	-11.6201
59&	-11.6201
rico	-11.6201
tee	-11.6204
dad	-11.6205
559	-11.6206
cake	-11.6209
307	-11.6209
nine	-11.6213
certification	-11.6216
vodafone	-11.6216
545	-11.6216
achat	-11.6218
employment	-11.622
saudi	-11.622
sklep	-11.622
explorer	-11.6222
dogs	-11.6226
378	-11.6228
million	-11.623
egitim	-11.623
bim	-11.623
مترجم	-11.6231
cleaning	-11.6231
gul	-11.6234
00-000000000000&	-11.6234
pon	-11.6236
zia	-11.6238
stad	-11.6239
funds	-11.624
/2020/02/	-11.624
bayern	-11.624
mazda	-11.624
wholesale	-11.6242
mujer	-11.6242
hari	-11.6242
305	-11.6243
420	-11.6245
turkiye	-11.6246
227	-11.6247
missing	-11.6248
/103	-11.625
msdn	-11.6251
430	-11.6255
lien	-11.6255
premiere	-11.6255
inventory	-11.6255
/2021-	-11.6256
384	-11.6256
pha	-11.6258
flip	-11.6262
dyn	-11.6262
radar	-11.6263
ove	-11.6263
mae	-11.6265
vaccines	-11.6267
carta	-11.6268
faire	-11.627
ili	-11.6271
suv	-11.6272
horn	-11.6274
handel	-11.6276
specific	-11.6279
soy	-11.6282
healthline	-11.6283
drink	-11.6284
rok	-11.6286
exercicios	-11.6291
596	-11.6292
kum	-11.6293
quot	-11.6296
369	-11.6297
episodes	-11.6298
userid	-11.6302
pflege	-11.6303
893	-11.6306
088	-11.6307
eric	-11.6307
-150	-11.6309
440	-11.631
shot	-11.6312
아	-11.6315
iya	-11.6315
yeni	-11.6317
voce	-11.6318
nex	-11.6322
=9000	-11.6324
̇	-11.6326
schutz	-11.6327
143	-11.6327
ftp	-11.6329
chocolate	-11.6329
organization	-11.6329
tiaud	-11.6331
spark	-11.6331
producten	-11.6335
diva	-11.6335
googlesem	-11.6336
plate	-11.6339
tau	-11.634
carrefour	-11.6342
rfd	-11.6343
florida	-11.6343
junior	-11.6344
198	-11.6346
beste	-11.6348
イ	-11.6348
nho	-11.6353
icc	-11.6353
plugin	-11.6356
ilo	-11.6356
mio	-11.6358
loss	-11.6359
市	-11.6361
cbse	-11.6362
porta	-11.6362
456	-11.6363
245	-11.6364
nej	-11.6367
booster	-11.6368
trademark	-11.6369
dining	-11.637
locphys	-11.637
wars	-11.6371
/2021/09/	-11.6372
piu	-11.6376
break	-11.6379
naked	-11.6379
074	-11.638
albagn	-11.6386
498	-11.6388
brief	-11.6388
eksisozluk	-11.6388
mining	-11.6391
doctors	-11.6392
á	-11.6393
clinical	-11.6394
cek	-11.6396
disp	-11.6396
qatar	-11.6399
lane	-11.6399
obs	-11.6399
lok	-11.6401
possible	-11.6402
lst	-11.6405
tham	-11.6406
099	-11.6412
法	-11.6414
russian	-11.6415
011	-11.6417
fact	-11.6417
540	-11.642
2002	-11.642
army	-11.6421
bull	-11.6423
repo	-11.6425
ole	-11.6426
/#	-11.6426
redmi	-11.6428
audit	-11.643
-1000	-11.6431
nachrichten	-11.6433
kategori	-11.6435
2021.	-11.6436
لل	-11.6436
adgrp	-11.6438
hir	-11.6439
stuff	-11.6439
ideal	-11.644
insight	-11.6444
explained	-11.6446
마	-11.6454
evd	-11.6456
uuid	-11.6459
investor	-11.646
attractions	-11.646
salt	-11.646
alto	-11.6462
latino	-11.6467
droit	-11.6472
sme	-11.6476
fid	-11.6479
319	-11.6481
slnk	-11.6483
qivs	-11.6484
001&	-11.6485
479	-11.6486
013	-11.6488
innovation	-11.649
3-4	-11.6491
rights	-11.6491
heavy	-11.6495
khan	-11.6496
я	-11.6497
middle	-11.6497
rack	-11.6497
npd	-11.6497
avd	-11.6502
swift	-11.6505
algebra	-11.6509
387	-11.6511
googleloc	-11.6513
ops	-11.6517
leather	-11.6517
016	-11.6517
creation	-11.6519
everything	-11.6519
fon	-11.6519
tesis	-11.6521
{	-11.6524
ort	-11.6525
upd	-11.6527
economics	-11.6528
buscappc	-11.6536
prompt	-11.6536
clnk	-11.6538
kli	-11.6538
output	-11.6539
nut	-11.6547
hlrd	-11.6549
halo	-11.6551
pul	-11.6552
ober	-11.6552
lak	-11.6555
buzz	-11.6555
conv	-11.6556
dizi	-11.6558
pres	-11.656
151	-11.656
mvc	-11.6561
bath	-11.6566
ک	-11.6567
carros	-11.6568
cbd	-11.6568
1011	-11.6572
rex	-11.6572
gsn	-11.6575
666	-11.6575
pilot	-11.6576
ج	-11.658
395	-11.6582
luis	-11.6582
elsevier	-11.6582
trainer	-11.6583
vox	-11.6583
226	-11.6583
389	-11.6584
-01-	-11.6588
plants	-11.6591
entreprise	-11.6596
lte	-11.6597
naj	-11.6601
品	-11.6601
pdfcoffee	-11.6602
jst	-11.6603
george	-11.6604
ngo	-11.6606
poe	-11.6607
0002	-11.6607
器	-11.6608
valorant	-11.6609
，	-11.661
actor	-11.6611
194	-11.6614
claims	-11.6615
tvd	-11.6617
hydro	-11.6619
nda	-11.6619
709	-11.662
claro	-11.6622
comics	-11.6627
/113	-11.6628
ization	-11.6637
retargeting	-11.6638
etc	-11.6639
marco	-11.6639
agi	-11.664
adgr	-11.6644
votre	-11.6645
farma	-11.6646
chien	-11.6649
pli	-11.6652
frank	-11.6652
335	-11.6653
soal	-11.6653
ique	-11.6654
siteid	-11.6655
phil	-11.6655
ק	-11.6655
ieren	-11.6657
mty	-11.6659
kawa	-11.6659
dating	-11.666
789	-11.666
around	-11.6662
083	-11.6662
nclid	-11.6662
webcache	-11.6662
handbook	-11.6664
cri	-11.6665
1996	-11.6665
manuel	-11.6665
gog	-11.6666
465	-11.6666
153	-11.6667
cert	-11.6668
tou	-11.6671
wordreference	-11.6671
1800	-11.6671
pai	-11.6671
mek	-11.6672
builder	-11.6673
1990	-11.6675
soul	-11.6679
425	-11.6679
areas	-11.6679
sistem	-11.668
qivu	-11.668
mano	-11.6681
ifd	-11.6682
meu	-11.6682
turkey	-11.6689
quimica	-11.6691
178	-11.6692
length	-11.6692
-720	-11.6696
legend	-11.6698
ligne	-11.6701
mechanical	-11.6702
qconcursos	-11.6703
555	-11.6703
ott	-11.6705
else	-11.6706
pit	-11.6707
로	-11.6708
제	-11.671
referer	-11.6711
alex	-11.6718
236	-11.6719
coding	-11.6719
psu	-11.672
arca	-11.672
msc	-11.6721
166	-11.6722
cali	-11.6725
foreign	-11.6726
flipkart	-11.6727
reise	-11.6729
ics	-11.6729
hak	-11.6729
mtctp	-11.6732
filmes	-11.6732
fiat	-11.6732
jesus	-11.6734
naya	-11.6735
jou	-11.6736
fishing	-11.6737
lov	-11.6742
garten	-11.6743
oli	-11.675
beer	-11.6751
deutsche	-11.6751
9000	-11.6752
echo	-11.6754
albbt	-11.6758
6-1	-11.6758
linear	-11.6765
어	-11.6766
▁[	-11.6767
away	-11.6768
481	-11.6769
607	-11.6769
basketball	-11.6771
correct	-11.6773
hours	-11.6773
creating	-11.6774
nak	-11.6775
xxl	-11.6777
日	-11.6779
alarm	-11.6779
economic	-11.678
integration	-11.678
kits	-11.678
exo	-11.6783
zak	-11.6784
glossary	-11.6785
kil	-11.6786
television	-11.679
yandex	-11.6793
oda	-11.6793
cham	-11.6798
pets	-11.6798
aktuell	-11.6799
tieu	-11.6799
insider	-11.6799
dick	-11.6808
kov	-11.6808
ntwrk	-11.6808
prep	-11.6809
blade	-11.681
tecnica	-11.6811
recette	-11.6812
353	-11.6812
rtl	-11.6813
2006	-11.6816
boom	-11.6816
crlp	-11.6817
corporation	-11.6823
erp	-11.6828
deploy	-11.6829
水	-11.6831
ira	-11.6832
nin	-11.6838
019	-11.6841
stainless	-11.6841
=61	-11.6842
מ	-11.6842
1-4	-11.6844
alert	-11.6845
telecharger	-11.6846
theo	-11.6848
foro	-11.6848
444	-11.685
wivg	-11.6852
bord	-11.6853
eaaybcaaegl	-11.6854
911	-11.6855
formato	-11.6856
が	-11.6859
dil	-11.6861
الم	-11.6862
shirt	-11.6863
zel	-11.6864
shield	-11.6866
iris	-11.6869
picture	-11.6872
-2015-	-11.6872
1!1	-11.6872
pieces	-11.6873
give	-11.6874
028	-11.6875
occasion	-11.6875
factor	-11.6877
jas	-11.6878
eaaybcaaegi	-11.6883
osa	-11.6884
電	-11.6886
590	-11.6886
discovery	-11.6893
hen	-11.6896
01_	-11.6896
poki	-11.6896
oficial	-11.6898
660	-11.6899
demand	-11.6901
ที่	-11.6901
automotive	-11.6905
admission	-11.6905
mtchtyp	-11.6908
수	-11.691
medio	-11.691
א	-11.6915
launcher	-11.6916
cart	-11.6917
spain	-11.6918
negro	-11.6921
,;	-11.6921
gumtree	-11.6922
catid	-11.6923
dvcmdl	-11.6923
intrst	-11.6924
unter	-11.6924
vers	-11.6926
qivm	-11.6927
768	-11.6927
402	-11.6927
165	-11.693
birthday	-11.693
手	-11.6932
568	-11.6937
eck	-11.6937
vous	-11.6937
tera	-11.6938
fditm	-11.6939
dspace	-11.6939
pel	-11.694
circle	-11.694
milk	-11.6943
455	-11.6943
presse	-11.6944
kod	-11.6945
mlc	-11.6945
homme	-11.6945
dcard	-11.6949
ر	-11.695
signs	-11.6952
roy	-11.6961
097	-11.6963
ming	-11.6965
experiment	-11.6967
hao	-11.6968
idsku	-11.6969
wien	-11.697
014	-11.6971
notizie	-11.6971
sdid	-11.6975
decathlon	-11.6979
00001	-11.6979
couple	-11.698
2004	-11.6983
doanh	-11.6983
950	-11.6985
tata	-11.6986
shemale	-11.6989
wpd	-11.699
conference	-11.6991
prev	-11.6993
disc	-11.6993
gesundheit	-11.6994
psi	-11.6994
diagram	-11.6994
kleinanzeigen	-11.6997
tina	-11.6999
eine	-11.7
196	-11.7001
genie	-11.7004
docz	-11.7006
doan	-11.7013
doo	-11.7015
stu	-11.7015
meer	-11.7015
destinations	-11.7019
printing	-11.7019
bella	-11.7021
yun	-11.7024
livre	-11.7027
mala	-11.7027
237	-11.703
pig	-11.703
pornstar	-11.7032
oup	-11.7033
ding	-11.7033
sek	-11.7036
prze	-11.7039
eaaybcaaegj	-11.7039
=888888&	-11.7043
246	-11.7043
wap	-11.7046
▁2021	-11.7049
signup	-11.7051
[]=	-11.7055
282	-11.7058
hara	-11.7061
preisvergleich	-11.7061
bios	-11.7061
seven	-11.7063
840	-11.7064
ラ	-11.7066
spd	-11.7066
hex	-11.7067
176	-11.7067
garmin	-11.7067
nghi	-11.7072
familia	-11.7074
tte	-11.7076
illa	-11.7077
zam	-11.7077
toi	-11.7079
ى	-11.708
有	-11.7081
レ	-11.7084
contextual	-11.7085
icin	-11.7086
please	-11.7086
rey	-11.7087
vil	-11.7089
309	-11.709
pictures	-11.7091
kab	-11.7094
falabella	-11.7094
trailer	-11.7095
never	-11.7096
onlinelibrary	-11.7097
327	-11.7097
-256	-11.7102
ayuda	-11.7103
thuoc	-11.7104
266	-11.7104
gom	-11.7105
hpd	-11.7105
detalle	-11.7106
businessinsider	-11.7111
opening	-11.7111
englisch	-11.7112
640	-11.7113
sor	-11.7115
sexual	-11.7117
eos	-11.7118
solver	-11.7118
/2020/01/	-11.7118
consulting	-11.7119
360.	-11.7121
274	-11.7122
bois	-11.7122
426	-11.7123
productid	-11.7124
家	-11.7124
jurnal	-11.7124
▁exact	-11.7126
371	-11.7127
wit	-11.7127
calc	-11.7128
matlab	-11.7129
096	-11.713
tuhoc	-11.713
config	-11.713
antonio	-11.7132
tras	-11.7133
738	-11.7134
085	-11.7135
ção	-11.7137
ntw	-11.7139
boi	-11.7141
ruliweb	-11.7141
706	-11.7142
nummer	-11.7144
degree	-11.7146
ı	-11.7147
296	-11.7151
essential	-11.7151
225	-11.7152
342	-11.7154
wallet	-11.7156
tuyen	-11.7159
kiss	-11.7163
expo	-11.7164
eshop	-11.7164
333	-11.7166
303	-11.7166
kali	-11.7166
luxury	-11.7167
hitta	-11.7169
cuenta	-11.717
dpd	-11.7172
tiger	-11.7173
2005	-11.7174
lands	-11.7176
/107	-11.7176
ppd	-11.7177
tung	-11.718
loans	-11.7184
354	-11.7184
2_0&	-11.7186
283	-11.7188
cookie	-11.7193
superuser	-11.7194
dik	-11.7195
descarga	-11.7196
snap	-11.7199
patent	-11.7201
given	-11.7202
4!1	-11.7207
viewthread	-11.7207
thinkpad	-11.7207
ert	-11.7208
holland	-11.7209
vara	-11.7214
kami	-11.7214
고	-11.7216
368	-11.722
eaaybcaaegk	-11.7224
dss	-11.7225
ام	-11.7227
damen	-11.7229
228	-11.723
speech	-11.7232
ell	-11.7233
clinica	-11.7237
algo	-11.724
amsterdam	-11.724
deck	-11.7241
486	-11.7241
اس	-11.7242
itu	-11.7244
cube	-11.7245
hold	-11.7246
kis	-11.7246
169	-11.7247
parks	-11.7249
232	-11.7249
505	-11.7251
484	-11.7252
engineer	-11.7252
lag	-11.7253
270	-11.7254
nhieu	-11.7254
travail	-11.7254
calendario	-11.7255
serve	-11.7256
tout	-11.7259
318	-11.726
فيلم	-11.7261
mtc	-11.7261
interface	-11.7262
1960	-11.7266
colour	-11.7266
女	-11.7266
本	-11.7266
gaa	-11.727
filters	-11.7271
turismo	-11.7271
plug	-11.7271
kac	-11.7274
hdd	-11.7277
167	-11.7278
wallpaper	-11.7279
alan	-11.728
kategoria	-11.7281
urs	-11.7282
brochure	-11.7282
temperature	-11.7283
avi	-11.7283
=6&	-11.7287
servers	-11.7287
bpd	-11.7288
spar	-11.7289
1900	-11.7289
sst	-11.7292
ameblo	-11.7292
casino	-11.7293
cultural	-11.7293
ija	-11.7297
niz	-11.7297
489	-11.7299
tpd	-11.7302
dale	-11.7305
zon	-11.7307
kok	-11.7308
spy	-11.7308
jer	-11.7308
depot	-11.7309
lhyin	-11.731
541	-11.7311
393	-11.7315
629	-11.7316
adam	-11.7316
driving	-11.7317
jur	-11.7317
087	-11.7317
075	-11.732
osaka	-11.7321
california	-11.7322
computing	-11.7324
1500	-11.7325
294	-11.7325
/105	-11.7325
osu	-11.7326
tun	-11.7327
214	-11.7328
niet	-11.7328
502	-11.733
239	-11.7331
782	-11.7332
pdv	-11.7335
fusion	-11.7337
adtype	-11.7341
subtitles	-11.7343
/115	-11.7344
aula	-11.7346
gif	-11.7349
cry	-11.735
omni	-11.735
locales	-11.7351
iam	-11.7351
experts	-11.7354
registro	-11.7355
exception	-11.7356
215	-11.7361
587	-11.7363
jeu	-11.7365
mapa	-11.7365
intelligence	-11.7366
taxi	-11.7374
dura	-11.7374
assurance	-11.7375
kot	-11.7381
tits	-11.7383
fiber	-11.7383
289	-11.7383
eam	-11.7385
viec	-11.7385
antes	-11.7386
474	-11.7387
lessons	-11.7387
graduate	-11.7387
zoneid	-11.7387
pacific	-11.7388
spirit	-11.7389
monitoring	-11.7389
rang	-11.739
pluginfile	-11.7391
scott	-11.7395
057	-11.7395
351	-11.7396
iyi	-11.7398
condition	-11.7399
gbp	-11.7404
rezept	-11.7404
jeans	-11.7404
329	-11.7412
indiamart	-11.7415
ejemplos	-11.7416
eba	-11.7416
trail	-11.7416
igapromo	-11.7418
2020.	-11.7419
gri	-11.742
rpd	-11.742
january	-11.7422
blanc	-11.7423
oder	-11.7425
272	-11.7426
wowhead	-11.7427
406	-11.7427
pornstars	-11.7427
scientific	-11.7428
oled	-11.7431
hoch	-11.7434
186	-11.7435
bong	-11.7435
fight	-11.7439
mans	-11.7441
goal	-11.7446
musik	-11.7447
cli	-11.745
จ	-11.7454
viz	-11.7457
171	-11.7457
espace	-11.7458
車	-11.7458
1300	-11.7459
/106	-11.7459
stress	-11.746
moh	-11.746
/101	-11.7463
belle	-11.7464
fcid	-11.7466
lama	-11.7468
spieler	-11.7468
617	-11.7474
deportes	-11.7474
476	-11.7474
kost	-11.7475
schwarz	-11.7476
pocket	-11.7476
dok	-11.7479
ody	-11.748
natal	-11.7481
vard	-11.7481
1024	-11.7483
322	-11.7484
sitelnk	-11.7488
chong	-11.7489
905	-11.7492
eri	-11.7495
도	-11.7496
oggi	-11.7497
813	-11.7497
lion	-11.75
文	-11.7502
corner	-11.7504
pptx	-11.7505
pem	-11.7505
ciudad	-11.7506
482	-11.7509
uci	-11.751
networking	-11.7512
individual	-11.7514
taylor	-11.7515
qivv	-11.7515
=9062	-11.7515
х	-11.7516
pasta	-11.7517
collect	-11.7517
730	-11.7518
理	-11.7521
836	-11.7522
/【	-11.7525
objects	-11.7526
383	-11.7527
mkgroup	-11.7529
saison	-11.7533
-80-	-11.7533
stockholm	-11.7533
buying	-11.7536
コ	-11.7536
290	-11.7537
dub	-11.7538
7000	-11.754
192	-11.7541
6000	-11.7546
049	-11.7549
plugins	-11.7553
surf	-11.7558
sui	-11.7559
ש	-11.7559
ete	-11.7564
에	-11.7565
luna	-11.7567
baa	-11.757
articleshow	-11.7572
yelp	-11.7574
essen	-11.7574
chevrolet	-11.7575
trucks	-11.7575
cra	-11.7577
bear	-11.7578
fec	-11.7578
tenant	-11.7581
medico	-11.7581
388	-11.7581
boo	-11.7582
symbol	-11.7585
nghia	-11.7586
191	-11.7588
userloc	-11.7589
universidad	-11.7592
463	-11.7593
burn	-11.7595
tricks	-11.7599
ceneo	-11.7599
alter	-11.7602
1004	-11.7602
compact	-11.7602
대	-11.7603
/114	-11.7603
migliori	-11.7607
hunt	-11.7608
european	-11.7611
mozilla	-11.7613
234	-11.7614
vacuum	-11.7624
199	-11.7624
adas	-11.7624
cruz	-11.7625
thesis	-11.7625
eff	-11.7626
442	-11.763
1997	-11.7632
544	-11.7633
/109	-11.7633
311	-11.7634
oppo	-11.7638
ار	-11.7643
bert	-11.7644
wide	-11.7646
iga	-11.7647
bare	-11.765
specialist	-11.765
military	-11.7651
vik	-11.7652
%7	-11.7652
include	-11.7655
daughter	-11.7661
venda	-11.7663
hum	-11.7664
issmbautocall	-11.7665
needsmbhouyi	-11.7665
ums	-11.7665
sociedad	-11.7666
451	-11.7667
nai	-11.7669
archiv	-11.7669
525	-11.7674
4%	-11.7677
1025	-11.7679
rij	-11.768
sold	-11.7681
yak	-11.7681
cena	-11.7681
gro	-11.7682
matematica	-11.7685
liverpool	-11.7687
evaluation	-11.7688
niki	-11.7689
271	-11.769
/2017	-11.769
opti	-11.7691
/108	-11.7692
gray	-11.7693
오	-11.7694
ز	-11.7694
saat	-11.7694
pgeo	-11.7695
psicologia	-11.7695
desarrollo	-11.7698
017	-11.77
ע	-11.7703
金	-11.7705
585	-11.7705
koi	-11.7709
isation	-11.7709
schweiz	-11.7712
charts	-11.7713
protect	-11.7715
358	-11.7716
مسلسل	-11.7717
018	-11.7718
tir	-11.772
212	-11.7721
mhz	-11.7722
477	-11.7723
half	-11.7725
vitamin	-11.7726
kow	-11.7726
tei	-11.7728
231	-11.7729
evolution	-11.7729
373	-11.773
71137539015	-11.7731
▁pdf	-11.7732
akt	-11.7734
accueil	-11.7736
khac	-11.7736
802	-11.7736
اء	-11.7739
units	-11.7739
skill	-11.774
sod	-11.7741
apache	-11.7741
them	-11.7741
heb	-11.7741
213	-11.7742
obituaries	-11.7745
wand	-11.7751
fol	-11.7752
azul	-11.7752
projekt	-11.7754
lec	-11.7754
cir	-11.7757
mrntrk	-11.776
bogota	-11.776
=1000000000&	-11.776
techno	-11.7764
gratuit	-11.7766
546	-11.7766
tell	-11.7768
版	-11.7769
technet	-11.7771
,"	-11.7771
vak	-11.7772
1400	-11.7773
sfd	-11.7774
/12-	-11.7778
donna	-11.778
endo	-11.7782
zan	-11.7787
▁plus	-11.7787
634	-11.7788
tmp	-11.7788
imoveis	-11.779
bolig	-11.7791
shutterstock	-11.7793
maxi	-11.7793
netw	-11.7794
oyun	-11.7794
alternative	-11.7794
5%	-11.7795
orden	-11.7796
rust	-11.7796
labor	-11.7796
เ	-11.7798
/2019/12/	-11.7799
..69	-11.78
全	-11.78
qual	-11.78
poster	-11.7801
symptoms	-11.7802
wdorigin	-11.7805
mars	-11.7805
sage	-11.7808
nje	-11.7809
263	-11.781
207	-11.781
438	-11.7811
=9042	-11.7811
638	-11.7813
cnc	-11.7817
609	-11.7818
423	-11.7818
cci	-11.782
aed	-11.7821
wald	-11.7822
686	-11.7823
leben	-11.7823
hora	-11.7826
bahasa	-11.7826
wheels	-11.7831
/126	-11.7832
三	-11.7835
programmes	-11.7837
ear	-11.7842
organisation	-11.7847
515	-11.7847
idealista	-11.785
276	-11.7851
genre	-11.7853
mpd	-11.7853
automatic	-11.7855
-1000-	-11.7856
eller	-11.7857
macro	-11.7859
tesla	-11.7859
reality	-11.7862
hombre	-11.7862
wel	-11.7862
か	-11.7865
scid	-11.7865
youth	-11.7867
roms	-11.7867
appartement	-11.7868
-2018	-11.7871
dfae	-11.7872
라	-11.7873
233	-11.7874
kamera	-11.7874
chua	-11.7876
747	-11.7876
christ	-11.7882
currencies	-11.7885
tiki	-11.7887
eps	-11.7888
4-4	-11.7888
geld	-11.789
xms	-11.7892
aaaaj	-11.7893
34192	-11.7894
friend	-11.7895
klein	-11.7897
puerto	-11.7897
2500	-11.7901
gst	-11.7903
ett	-11.7904
/111	-11.7906
=9043	-11.7907
897	-11.7908
hidden	-11.7909
zhi	-11.791
biblio	-11.7912
-90-	-11.7915
341	-11.7918
از	-11.7918
027	-11.7921
بر	-11.7925
klinik	-11.7925
790	-11.7932
pam	-11.7932
pis	-11.7933
970	-11.7934
liu	-11.7938
558	-11.7944
encyclopedia	-11.7947
champion	-11.7952
republic	-11.7952
jest	-11.7955
period	-11.7956
naruto	-11.7957
height	-11.7958
offline	-11.7958
pais	-11.7959
synonyme	-11.7961
장	-11.7963
cnpj	-11.7966
fda	-11.7967
volvo	-11.7968
publicaciones	-11.7969
bbq	-11.797
796	-11.797
fest	-11.7977
locator	-11.7977
publishing	-11.7978
rpg	-11.7978
flo	-11.7981
gum	-11.7983
lounge	-11.7983
bloomberg	-11.7984
worksheets	-11.7985
/2019/11/	-11.7986
elli	-11.7988
2023	-11.7993
185	-11.7995
drag	-11.7996
cosa	-11.7996
=9044	-11.8001
ped	-11.8001
goi	-11.8004
yer	-11.8004
emb	-11.8005
-27-	-11.8005
277	-11.8006
operation	-11.8006
485	-11.8007
fps	-11.8009
navigation	-11.801
tape	-11.801
bluestacks	-11.8012
447	-11.8013
エ	-11.8013
pov	-11.8014
processing	-11.8014
moodle	-11.8015
juego	-11.8016
temas	-11.8017
stays	-11.8017
reis	-11.8017
teach	-11.8018
ering	-11.802
lease	-11.8022
/112	-11.8022
504	-11.8024
faa	-11.8026
marc	-11.8026
traduction	-11.8029
▁exa	-11.8035
528	-11.8035
clk	-11.8038
217	-11.8045
lpd	-11.8046
animation	-11.8046
cargo	-11.8046
kci	-11.8047
pandas	-11.8049
kort	-11.8052
998	-11.8053
goto	-11.8053
740	-11.8056
355	-11.8056
zug	-11.8056
publico	-11.8058
sosyal	-11.8061
webshop	-11.8063
multimedia	-11.8065
naar	-11.8066
bah	-11.8066
414	-11.8067
у	-11.8068
hifi	-11.8069
phy	-11.8071
procedure	-11.8071
1995	-11.8072
issuu	-11.8075
357	-11.8084
495	-11.8084
098	-11.8086
paa	-11.8091
shadow	-11.8093
klo	-11.8094
690	-11.8097
attach	-11.8098
graphic	-11.8099
-32-	-11.81
kop	-11.8102
warm	-11.8105
243	-11.8105
prince	-11.8107
magnet	-11.8108
/2016/	-11.8108
754	-11.8109
026	-11.811
informatica	-11.8111
fake	-11.8112
woo	-11.8113
093	-11.8115
1111	-11.8117
born	-11.8118
weekly	-11.812
maz	-11.8122
748	-11.8124
ery	-11.8125
dab	-11.8128
frei	-11.8129
tile	-11.8129
guias	-11.8129
onlyfans	-11.813
phd	-11.813
spiel	-11.8131
completa	-11.8133
modul	-11.8135
wasser	-11.8137
bagdeae	-11.8137
984	-11.8143
mena	-11.8145
636	-11.8145
oku	-11.8146
causes	-11.8147
269	-11.8147
columbia	-11.8149
gur	-11.8149
1994	-11.815
fruit	-11.8152
simon	-11.8152
versus	-11.8152
economie	-11.8154
alberta	-11.8155
hei	-11.8156
hotstar	-11.8156
656	-11.8157
teknik	-11.8158
065	-11.8162
rama	-11.8162
mora	-11.8165
thay	-11.8166
bass	-11.817
tiempo	-11.8171
carlos	-11.8173
lung	-11.8173
canadian	-11.8178
mie	-11.8178
attack	-11.8178
logistics	-11.8182
auctions	-11.8183
/10/	-11.8183
surgery	-11.8183
hydra	-11.8183
8-4	-11.8184
式	-11.8185
proof	-11.8192
>	-11.8193
-2013-	-11.8193
2-4	-11.8194
pok	-11.8196
216	-11.8197
sind	-11.8199
lac	-11.8199
542	-11.8199
louis	-11.8201
kreis	-11.8202
534	-11.8203
cameras	-11.8207
hyd	-11.8207
698	-11.8209
599	-11.821
1992	-11.821
ס	-11.821
porte	-11.8211
dash	-11.8217
fuji	-11.822
610	-11.8221
gamespot	-11.8222
nek	-11.8223
els	-11.8224
opp	-11.8226
guida	-11.8231
histoire	-11.8231
imi	-11.8233
semana	-11.8234
parfum	-11.8235
storeid	-11.8237
ambiente	-11.8238
feel	-11.8238
escape	-11.8239
sya	-11.824
678	-11.8241
scuola	-11.8242
creator	-11.8243
=-1&	-11.8244
483	-11.8245
executive	-11.8246
pago	-11.8246
valor	-11.8247
ral	-11.8248
404	-11.8248
jako	-11.8248
cuu	-11.825
1989	-11.8252
nest	-11.8254
panama	-11.8254
mejor	-11.8259
errors	-11.8259
opel	-11.8259
nick	-11.8263
policies	-11.8263
taste	-11.8269
606	-11.827
configure	-11.8276
048	-11.8278
012	-11.8279
obj	-11.8279
471	-11.828
ghi	-11.8281
497	-11.8281
fax	-11.8281
184	-11.8281
684	-11.8286
merk	-11.8287
tahun	-11.8288
=0000000	-11.8294
fare	-11.8296
portugues	-11.8297
lua	-11.8297
eks	-11.8298
annunci	-11.83
visymo	-11.83
uje	-11.8301
699	-11.8303
trivago	-11.8303
alza	-11.8304
exams	-11.8304
eia	-11.8304
pentru	-11.8305
rwidth	-11.8305
ни	-11.8309
luu	-11.8309
155	-11.831
lys	-11.831
458	-11.831
vln	-11.8311
watches	-11.8312
palm	-11.8315
netstandard	-11.8315
▁download	-11.8316
소	-11.8317
321	-11.8319
bebe	-11.832
opt	-11.8321
ffe	-11.8322
channable	-11.8327
bureau	-11.8328
308	-11.8329
awards	-11.8329
noir	-11.8329
luan	-11.833
universe	-11.8332
changes	-11.8336
ender	-11.8338
성	-11.8339
mesh	-11.8341
472	-11.8343
norton	-11.8345
against	-11.8345
caas	-11.8346
rocket	-11.8348
hue	-11.8349
sister	-11.835
805	-11.835
gala	-11.8354
2021&	-11.8356
aeb	-11.836
andre	-11.836
491	-11.8361
hamburg	-11.8363
negocios	-11.8363
sera	-11.8365
907	-11.8367
paz	-11.8367
servicio	-11.8372
thiet	-11.8373
！	-11.8374
rob	-11.8375
relationship	-11.8376
beton	-11.8378
345	-11.838
pwd	-11.8382
359	-11.8383
moving	-11.8384
aci	-11.8384
496	-11.8386
527	-11.8386
ance	-11.8386
183	-11.8387
ط	-11.8387
325	-11.8388
purchase	-11.8389
702	-11.8391
095	-11.8392
575	-11.8394
dictionnaire	-11.8396
wing	-11.8397
▁la	-11.84
views	-11.8403
а	-11.8404
admissions	-11.8406
1337	-11.8406
cocina	-11.8406
wivb	-11.8407
promotions	-11.8407
retailer	-11.8412
campo	-11.8413
oid	-11.8414
509	-11.8415
446	-11.8415
traduccion	-11.8415
cote	-11.8415
710	-11.8416
501	-11.8417
apex	-11.8418
rapport	-11.842
0004	-11.842
actualite	-11.8424
044	-11.8424
kpn	-11.8426
mathematics	-11.8428
-125	-11.8429
rheight	-11.8429
903	-11.843
tura	-11.843
620	-11.8433
sxsrf	-11.8433
diary	-11.8434
chon	-11.8434
woolworths	-11.8435
875	-11.8437
/102	-11.8437
meg	-11.8439
mori	-11.8439
508	-11.8441
sustainability	-11.8442
ク	-11.8443
sugar	-11.8443
dienst	-11.8443
pierre	-11.8444
pakistan	-11.8445
polski	-11.8447
rut	-11.8448
rav	-11.8448
zap	-11.8452
pds	-11.8453
397	-11.8454
aaq	-11.8454
431	-11.8455
roller	-11.8458
preto	-11.8458
startup	-11.846
autor	-11.846
rick	-11.846
kayak	-11.8463
recepten	-11.8464
737	-11.8465
/15/	-11.8466
nij	-11.8468
954	-11.8468
jung	-11.847
372	-11.847
미	-11.847
memoria	-11.847
dias	-11.8472
frases	-11.8474
saga	-11.8474
mill	-11.8477
maru	-11.8478
etti	-11.848
cic	-11.8481
zwart	-11.8481
opd	-11.8482
velo	-11.8485
kraft	-11.8487
docid	-11.8488
inner	-11.8489
edr	-11.849
nhk	-11.8491
し	-11.8492
366	-11.8495
338	-11.8495
579	-11.8496
637	-11.85
zbq	-11.8501
628	-11.8502
bip	-11.8502
478	-11.8503
466	-11.8504
ppv	-11.8507
eaqyaiabegk	-11.8509
066	-11.8509
193	-11.8511
clips	-11.8512
obra	-11.8512
vert	-11.8513
mumbai	-11.8514
2-4419-9	-11.8514
delle	-11.8514
서	-11.8515
srv	-11.8515
thermo	-11.8518
epa	-11.852
become	-11.8521
itas	-11.8523
eamyaiaaegj	-11.8525
shower	-11.8527
kosten	-11.8527
eaqyaiabegl	-11.8527
gigabyte	-11.8527
primer	-11.8531
zem	-11.8533
compra	-11.8534
onebox	-11.8534
한	-11.8537
cluster	-11.8539
221	-11.854
zzg	-11.8543
eaqyaiabegi	-11.8545
312	-11.8545
287	-11.8546
ankara	-11.8549
ghe	-11.8549
jump	-11.8552
758	-11.8553
marche	-11.8553
288	-11.8554
218	-11.8554
=70	-11.8558
masa	-11.8561
won	-11.8562
aku	-11.8562
eaqyaiabegj	-11.8563
hil	-11.8564
princess	-11.8564
_2021_	-11.8565
techniques	-11.8565
titan	-11.8566
427	-11.8566
nyu	-11.8567
？	-11.8569
619	-11.8569
reasons	-11.8572
yok	-11.8573
422	-11.8574
401	-11.8575
panda	-11.8576
embed	-11.8576
-23-	-11.8577
417	-11.8577
hydes	-11.8579
273	-11.8581
qaa	-11.8582
define	-11.8582
aivo	-11.8585
grund	-11.8588
flix	-11.859
recetas	-11.8591
hbo	-11.8591
mmca	-11.8594
fiscal	-11.8594
apartment	-11.8595
за	-11.8595
ón	-11.8595
eamyaiaaegi	-11.8596
1017	-11.8598
unternehmen	-11.8599
dealer	-11.8599
scanner	-11.8602
gle	-11.8604
headphones	-11.8606
nytimes	-11.8607
nii	-11.861
ム	-11.861
fap	-11.8611
slides	-11.8613
775	-11.8614
xuat	-11.8617
pci	-11.8619
thegioididong	-11.8624
facil	-11.8625
（	-11.8626
escorts	-11.8629
853	-11.863
山	-11.8632
tore	-11.8633
960	-11.8634
midia	-11.8636
業	-11.864
=["	-11.8642
539	-11.8642
035	-11.8643
454	-11.8645
435	-11.8646
niv	-11.8646
espn	-11.8646
aab	-11.8647
aim	-11.8648
compatible	-11.8648
instruments	-11.8649
1993	-11.865
wivc	-11.865
coinmarketcap	-11.865
396	-11.8652
ced	-11.8652
439	-11.8653
trai	-11.8654
flower	-11.8655
linternaute	-11.8656
015	-11.8657
maas	-11.8658
分	-11.8658
ground	-11.866
adwordssearch	-11.8662
surfaces	-11.8664
nome	-11.8665
eaa	-11.8669
picclick	-11.867
mint	-11.8671
hockey	-11.8671
wash	-11.8672
pixiv	-11.8673
vul	-11.8673
aks	-11.8673
kunst	-11.8673
podcast	-11.8674
039	-11.8674
/15-	-11.8675
nhanh	-11.8675
nji	-11.8675
assistir	-11.8676
toner	-11.8677
"]&	-11.8679
completo	-11.8681
mere	-11.8681
rik	-11.8683
wivi	-11.8683
refid	-11.8683
sure	-11.8685
ius	-11.8685
caso	-11.8687
cdiscount	-11.8687
passport	-11.8689
principal	-11.8693
tent	-11.8694
csharp	-11.8696
maa	-11.8697
г	-11.8699
shops	-11.8699
347	-11.8699
vom	-11.8701
449	-11.8703
dni	-11.8704
fag	-11.8705
2!3	-11.8706
dicas	-11.8707
latin	-11.8708
fiches	-11.8709
schul	-11.871
pris	-11.8711
ries	-11.8712
proc	-11.8713
780	-11.8713
584	-11.8713
hid	-11.8714
비	-11.8715
discogs	-11.8716
996	-11.8716
attr	-11.8718
445	-11.8719
6-4	-11.8723
polis	-11.8725
assembly	-11.8726
serv	-11.8729
mouser	-11.873
vina	-11.8731
00002	-11.8731
766	-11.8731
steuer	-11.8738
sofa	-11.8738
689	-11.8738
=1004	-11.8743
ont	-11.8744
物	-11.8747
038	-11.8753
environmental	-11.8754
363	-11.8758
432	-11.876
gets	-11.8763
dyson	-11.8763
panorama	-11.8763
maat	-11.8765
vital	-11.877
506	-11.8771
expansion	-11.8773
arisaldwasc	-11.8775
argument	-11.8776
oven	-11.8778
intra	-11.878
524	-11.8781
arisamtlkrs	-11.8783
588	-11.8786
قسمت	-11.8786
osi	-11.8786
seed	-11.8788
441	-11.8789
arisamtlkrv	-11.879
487	-11.879
verse	-11.8791
605	-11.8796
82&	-11.8796
chris	-11.8796
conseils	-11.8799
director	-11.8799
voiture	-11.8803
/2019/10/	-11.8803
yle	-11.8803
lem	-11.8807
anyone	-11.8809
563	-11.881
arisaldwasd	-11.8812
leer	-11.8813
teamviewer	-11.8813
عن	-11.8814
’	-11.8814
proyecto	-11.8815
aivp	-11.8815
circular	-11.8816
columns	-11.8818
beginners	-11.8819
ege	-11.882
these	-11.882
pfx	-11.8821
kent	-11.8825
haar	-11.8826
ای	-11.8828
jal	-11.8832
ciencias	-11.8832
hod	-11.8835
arisamtlkru	-11.8836
unable	-11.8836
tci	-11.8837
pap	-11.8837
salaries	-11.8837
mien	-11.8839
753	-11.8843
shopify	-11.8846
vac	-11.8849
-2017	-11.885
7-4	-11.885
089	-11.8851
sent	-11.8851
uti	-11.8852
march	-11.8852
554	-11.8853
forma	-11.8853
cef	-11.8857
eamyaiaaegl	-11.8859
johnson	-11.8861
domestic	-11.8862
bbw	-11.8862
608	-11.8862
wales	-11.8864
acs	-11.8865
tale	-11.8866
svet	-11.8868
speaker	-11.8869
ltn	-11.8869
controls	-11.8869
futebol	-11.887
musical	-11.887
transparencia	-11.8871
1046	-11.8871
blank	-11.8873
complex	-11.8874
ndi	-11.8874
daten	-11.8876
vej	-11.8877
bcc	-11.8878
maya	-11.8878
zol	-11.8878
quran	-11.888
▁para	-11.888
유	-11.8881
天	-11.8881
theater	-11.8885
aivn	-11.8885
sama	-11.8885
hua	-11.8885
ecuador	-11.8885
ミ	-11.8889
oso	-11.8893
336	-11.8894
ord	-11.8894
181	-11.8895
arisamtlkrt	-11.8898
arisaldwasb	-11.8902
kita	-11.8902
ssh	-11.8907
concrete	-11.891
feld	-11.8913
nyc	-11.8913
361	-11.8915
986	-11.8915
293	-11.8917
dwaaqbaj	-11.8918
ania	-11.8919
efe	-11.892
413	-11.8921
replace	-11.8922
african	-11.8923
rez	-11.8923
ntt	-11.8925
vertical	-11.8925
lev	-11.8928
ecommerce	-11.893
467	-11.8931
562	-11.8932
eamyaiaaegk	-11.8933
plane	-11.8934
593	-11.8934
abo	-11.8934
101.	-11.8935
メ	-11.894
736	-11.894
eren	-11.8941
/147	-11.8942
=35	-11.8943
khoi	-11.8943
ö	-11.8945
statistik	-11.8948
professor	-11.8948
kate	-11.8948
parti	-11.8952
problemas	-11.8953
hog	-11.8953
1991	-11.8953
179	-11.8954
bestbuy	-11.8955
googleshopp	-11.8956
teachers	-11.8957
tvs	-11.8958
σ	-11.8958
infantil	-11.896
troubleshooting	-11.8961
543	-11.8962
tranh	-11.8963
conta	-11.8965
folders	-11.8965
zealand	-11.8966
casting	-11.8966
funda	-11.8967
modal	-11.8971
ص	-11.8972
evil	-11.8974
doors	-11.8975
پ	-11.8976
psd	-11.8977
produkty	-11.8979
464	-11.8981
オ	-11.8984
348	-11.8984
cwgaeiaeeledeimb	-11.8984
566	-11.8988
219	-11.899
muz	-11.8997
iro	-11.8998
ichi	-11.9
arabia	-11.9001
wax	-11.9005
upp	-11.9006
lub	-11.9007
1010	-11.9008
880	-11.9009
arisaldwasa	-11.9009
eira	-11.9009
地	-11.9009
nim	-11.9011
578	-11.9014
出	-11.9016
お	-11.9018
385	-11.9018
844	-11.9019
salute	-11.9019
pearl	-11.9021
slot	-11.9022
maj	-11.9023
gourmet	-11.9024
greek	-11.9025
tecno	-11.9027
argos	-11.903
wivd	-11.9031
relevance	-11.9032
778	-11.9034
1320	-11.9035
mesa	-11.9038
337	-11.9039
norma	-11.904
256&	-11.904
gds	-11.9041
dae	-11.9042
الحلقة	-11.9043
crash	-11.9043
razer	-11.9044
wivh	-11.9045
inox	-11.9045
spel	-11.9046
electronica	-11.9047
511	-11.9048
241	-11.9048
conf	-11.905
473	-11.905
kes	-11.9051
emu	-11.9052
-140	-11.9054
382	-11.9054
operator	-11.9055
vuelos	-11.9055
fanfiction	-11.9055
tailieu	-11.9057
aos	-11.9062
oxocr	-11.9063
rare	-11.9063
ashx	-11.9063
jacket	-11.9066
fixed	-11.9066
616	-11.9071
tous	-11.9071
dys	-11.9072
dist	-11.9073
zie	-11.9076
/150	-11.9076
fhd	-11.9076
ingen	-11.9077
odi	-11.9077
heritage	-11.9077
968	-11.9078
desde	-11.9079
spiele	-11.9082
565	-11.9083
bae	-11.9084
weekend	-11.9084
bright	-11.9084
381	-11.9085
561	-11.9088
familie	-11.9088
iku	-11.9089
bdc	-11.9089
=9055	-11.9089
quang	-11.9089
lyon	-11.9091
nti	-11.9092
261	-11.9094
577	-11.9094
olo	-11.9095
stellen	-11.9095
positive	-11.9097
douglas	-11.91
csv	-11.9101
나	-11.9101
jogos	-11.9103
-28-	-11.9105
wish	-11.9105
contacts	-11.9106
316	-11.9107
rag	-11.9108
/125	-11.9111
recruitment	-11.9112
tuf	-11.9112
dji	-11.9112
2021/	-11.9113
corte	-11.9113
thermal	-11.9114
fog	-11.9115
sgk	-11.9115
heirloom	-11.9118
forward	-11.9118
kah	-11.9121
52&	-11.9122
affiliateid	-11.9122
lord	-11.9122
layer	-11.9124
346	-11.9125
etf	-11.9126
kerst	-11.9129
/130	-11.9131
443	-11.9133
728	-11.9134
ა	-11.9136
lager	-11.9138
follow	-11.9138
skws	-11.9139
definicion	-11.9141
nong	-11.9144
6-49	-11.9144
fees	-11.9145
242	-11.9147
norte	-11.9149
strategies	-11.9151
841	-11.9151
mbhcxarisaiddknv	-11.9151
073	-11.9154
aon	-11.9156
원	-11.9158
-64-	-11.916
sym	-11.9165
bootstrap	-11.9165
р	-11.9166
pkg	-11.9166
uba	-11.9167
xia	-11.9169
eigen	-11.917
examen	-11.9172
mara	-11.9173
は	-11.9175
hope	-11.9176
0003	-11.9177
fao	-11.9177
586	-11.918
hau	-11.918
mdr	-11.9182
manufacturing	-11.9183
ecc	-11.9186
hour	-11.9187
870	-11.9187
navidad	-11.9191
accommodation	-11.9193
419	-11.9195
538	-11.9195
/2014	-11.9197
publica	-11.9197
rural	-11.9198
pwc	-11.9198
twin	-11.9199
mbhcxarisaiddknx	-11.92
graf	-11.92
canh	-11.9201
tiny	-11.9201
koh	-11.9202
unbhcrarisacgaiq	-11.9204
nja	-11.9209
sbs	-11.9209
deluxe	-11.9211
rac	-11.9213
ucuz	-11.9214
31&	-11.9217
mdpi	-11.9218
1%	-11.922
sauce	-11.9225
rek	-11.9226
msafed	-11.9227
animals	-11.9227
020	-11.9228
タ	-11.923
mina	-11.9231
1988	-11.9231
choi	-11.9233
investopedia	-11.9236
username	-11.9237
pers	-11.9237
highlights	-11.924
volt	-11.9241
306	-11.9242
فارسی	-11.9243
475	-11.9243
364	-11.9243
9220&	-11.9244
farmacia	-11.9244
momo	-11.9245
adgroupsurvey	-11.9246
533	-11.9246
aluminium	-11.9247
infinity	-11.9249
pom	-11.9253
zijn	-11.9254
amo	-11.9255
parisacbnlzp	-11.9255
tela	-11.9258
broker	-11.926
kyu	-11.9263
usage	-11.9265
ovy	-11.9265
mbhcxarisaiddknu	-11.9266
1600	-11.9268
653	-11.9269
rentals	-11.9272
bygg	-11.9272
unlock	-11.9273
dip	-11.9275
lje	-11.9276
ים	-11.9278
profi	-11.9278
pio	-11.9278
094	-11.9279
categoryno	-11.9279
instrument	-11.928
lui	-11.9282
whr	-11.9283
april	-11.9283
462	-11.9286
wirtschaft	-11.9291
dsp	-11.9291
980	-11.9297
nyi	-11.9298
hamilton	-11.93
hung	-11.9301
parisacbnlzq	-11.9302
262	-11.9302
356	-11.9306
/2016	-11.9309
uptodown	-11.9309
591	-11.931
349	-11.931
lcaaqgaqqsqmqgwe	-11.931
parisacbnlzr	-11.9313
skole	-11.9313
п	-11.9313
oxford	-11.9315
crazy	-11.9316
/118	-11.9317
nct	-11.9317
503	-11.9319
572	-11.9319
ين	-11.932
956	-11.9321
-110	-11.9324
portals	-11.9324
589	-11.9325
1050	-11.9326
expedia	-11.9326
hya	-11.9329
344	-11.9329
checker	-11.9329
759	-11.933
）	-11.9334
jug	-11.9335
51&	-11.9336
fea	-11.9336
officeapps	-11.9337
436	-11.9339
poz	-11.934
bros	-11.9343
latina	-11.9343
ejercicios	-11.9344
petit	-11.9347
hwbf	-11.9347
bcb	-11.9347
subscription	-11.9347
nju	-11.9348
stud	-11.9348
kup	-11.9354
essentials	-11.9354
461	-11.9355
lisa	-11.9355
entity	-11.9356
skyrim	-11.9357
stm	-11.9358
parisacbnlzo	-11.936
byjus	-11.9364
574	-11.9364
ま	-11.9365
ré	-11.9368
mani	-11.9371
vga	-11.9371
ucr	-11.9373
aak	-11.9373
editorial	-11.9373
macbook	-11.9374
pow	-11.9376
caid	-11.9379
vinyl	-11.9379
-2014-	-11.9379
3500	-11.938
xls	-11.938
-300-	-11.9382
kill	-11.9382
wick	-11.9382
sak	-11.9383
536	-11.9384
fmkorea	-11.9384
性	-11.9386
mug	-11.9387
uva	-11.9388
hills	-11.9388
seguros	-11.9389
paso	-11.9394
subtitle	-11.9395
gross	-11.9396
vegan	-11.9396
documento	-11.9398
bbva	-11.9399
walker	-11.9399
е	-11.94
wii	-11.9401
polar	-11.9402
vari	-11.9403
accountid	-11.9407
bangkok	-11.9408
/11-	-11.9409
877	-11.9409
920	-11.9409
uji	-11.9409
rating	-11.9415
houses	-11.9416
ceb	-11.9416
icons	-11.9417
hole	-11.9418
phuc	-11.9418
offerte	-11.9419
letters	-11.9419
452	-11.9419
jones	-11.9419
lefigaro	-11.9421
omega	-11.9422
sanook	-11.9424
stal	-11.9425
protected	-11.9426
082	-11.9426
1987	-11.9428
ninos	-11.9429
cent	-11.943
akh	-11.943
relaystate	-11.9432
artykul	-11.9433
/116	-11.9433
2020-	-11.9433
enem	-11.9434
cps	-11.9436
kut	-11.9436
cronaca	-11.9438
ungs	-11.9439
mixer	-11.9439
nouvelle	-11.944
trackid	-11.9444
average	-11.9444
dua	-11.9447
5-4	-11.9448
rings	-11.9448
=200	-11.9448
june	-11.9448
sdk	-11.9449
modelos	-11.9451
enjoy	-11.9451
651	-11.9452
zai	-11.9453
ward	-11.9454
nordic	-11.9455
joint	-11.9455
hurriyet	-11.9455
wonder	-11.9457
mura	-11.9458
mma	-11.9459
之	-11.946
sono	-11.946
783	-11.9461
axis	-11.9462
mig	-11.9463
jia	-11.9463
405	-11.9466
ario	-11.9467
982	-11.9468
jquery	-11.9471
matlabcentral	-11.9473
donde	-11.9474
parentcategoryn	-11.9474
499	-11.9475
dela	-11.9475
pep	-11.9476
worldwide	-11.9477
xin	-11.9477
trader	-11.9478
vice	-11.9479
valve	-11.9481
623	-11.9484
ג	-11.9485
attraction	-11.9487
eden	-11.9487
decision	-11.9487
mbhcxarisaiddknw	-11.9488
terre	-11.9488
bauhaus	-11.949
itis	-11.949
sectok	-11.9494
448	-11.9495
428	-11.9498
william	-11.9499
heroes	-11.9501
-2020.	-11.9501
halloween	-11.9503
ned	-11.9503
thema	-11.9504
honey	-11.9506
zara	-11.9508
slideplayer	-11.9508
bone	-11.951
herren	-11.9511
769	-11.9513
szt	-11.9518
innen	-11.9518
cuevana	-11.9522
hwbc	-11.9523
diz	-11.9524
realm	-11.9527
leave	-11.9529
tekst	-11.9529
518	-11.953
ologia	-11.953
owner	-11.9533
permalink	-11.9534
/133	-11.9536
biblia	-11.9537
244	-11.9537
farming	-11.9537
514	-11.9538
scripts	-11.9538
advance	-11.9543
chuc	-11.9543
dialog	-11.9543
journey	-11.9543
bba	-11.9543
663	-11.9544
ric	-11.9546
548	-11.9547
coolblue	-11.9548
vax	-11.955
.0.0	-11.955
1030	-11.955
-400	-11.9552
iza	-11.9552
gab	-11.9554
changing	-11.9556
fri	-11.9557
mik	-11.9557
fir	-11.9557
csn	-11.9559
direkt	-11.956
marina	-11.9563
762	-11.9564
belt	-11.9564
umi	-11.9564
tutor	-11.9567
mju	-11.9567
axa	-11.957
gir	-11.9572
matematicas	-11.9572
/135	-11.9574
ipd	-11.9575
-2012-	-11.9579
entreprises	-11.958
broadband	-11.958
bahn	-11.9581
【	-11.9581
та	-11.9582
kaz	-11.9582
gua	-11.9585
dossier	-11.9587
tramites	-11.9587
blender	-11.9588
bathroom	-11.9591
icu	-11.9593
przy	-11.9593
matic	-11.9594
lbr	-11.9595
ير	-11.9596
courts	-11.9597
學	-11.9597
=1003	-11.9599
theatre	-11.9599
constant	-11.9601
daf	-11.9602
391	-11.9603
oni	-11.9605
tut	-11.9606
edf	-11.9609
jeep	-11.9611
ד	-11.9611
669	-11.9614
comfort	-11.9614
grado	-11.9615
productdetail	-11.9616
/144	-11.9616
skoda	-11.9617
third	-11.9617
407	-11.9618
primaria	-11.9619
israel	-11.9619
workshop	-11.9621
solve	-11.9621
movil	-11.9623
testi	-11.9624
merge	-11.9624
های	-11.9625
/11/	-11.9625
pier	-11.9626
qaq	-11.9626
보	-11.9626
551	-11.9626
papel	-11.9627
tuin	-11.9627
pull	-11.9628
��	-11.9628
otk	-11.9628
mui	-11.9629
yabaaggj	-11.9629
fucking	-11.9631
spin	-11.9633
statista	-11.9633
late	-11.9636
437	-11.9637
conteudo	-11.9638
ppy	-11.9644
installer	-11.9645
routes	-11.9645
bqbh	-11.9647
detay	-11.9648
abcabdifcaaqgaq	-11.9649
affid	-11.9649
xhpd	-11.965
niu	-11.9651
meat	-11.9652
9-4	-11.9653
화	-11.9653
citroen	-11.9653
unirioja	-11.9653
mondo	-11.9653
sushi	-11.9654
722	-11.9654
heating	-11.9654
990	-11.9655
合	-11.9655
/153	-11.9659
prive	-11.9659
cabinet	-11.9661
976	-11.9663
revit	-11.9665
873&	-11.9665
zbocr	-11.9665
selfservice	-11.9665
epd	-11.9666
charles	-11.9666
635	-11.9667
ddd	-11.9668
beyond	-11.9668
resident	-11.9671
mehr	-11.9671
seguro	-11.9671
smile	-11.9672
were	-11.9674
ucm	-11.9674
uro	-11.9675
really	-11.9677
cruise	-11.9677
artigo	-11.9678
payments	-11.9678
677	-11.9678
377	-11.9679
chair	-11.9681
hairy	-11.9688
chicago	-11.9688
583	-11.9689
trovit	-11.9689
國	-11.9691
pik	-11.9691
gamefaqs	-11.9691
huu	-11.9692
1984	-11.9693
ки	-11.9694
工	-11.9699
ubi	-11.9702
5500	-11.9703
-1-2-	-11.9707
isk	-11.9707
2025	-11.9711
compliance	-11.9713
criminal	-11.9713
bachelor	-11.9715
feet	-11.9717
kanal	-11.9718
/117	-11.9719
2021_	-11.972
viu	-11.972
fabric	-11.972
rover	-11.9721
angle	-11.9721
communities	-11.9721
alo	-11.9723
marken	-11.9723
owl	-11.9724
kpid	-11.9725
チ	-11.9726
northern	-11.9728
1-21&	-11.9729
925	-11.9729
665	-11.973
خ	-11.9732
sey	-11.9733
wattpad	-11.9733
msdmanuals	-11.9735
tandfonline	-11.9735
н	-11.9735
mzq	-11.9736
tbl	-11.9738
682	-11.9741
bcf	-11.9741
anni	-11.9741
成	-11.9744
eko	-11.9745
040	-11.9749
prevention	-11.9751
together	-11.9755
aeg	-11.9757
동	-11.9757
passion	-11.976
573	-11.9761
jsf	-11.9761
shock	-11.9762
gorev	-11.9763
rug	-11.9765
onder	-11.9765
trim	-11.9766
empleo	-11.9766
ieee	-11.9767
680	-11.9768
867	-11.9768
949	-11.9768
plast	-11.9768
0007	-11.9769
tender	-11.9769
fill	-11.977
国	-11.977
saglik	-11.9771
phoenix	-11.9772
iptv	-11.9773
bundle	-11.9773
865	-11.9774
abd	-11.9774
analyse	-11.9776
mali	-11.9781
dach	-11.9781
703	-11.9782
cfa	-11.9783
652	-11.9783
prop	-11.9784
hwbd	-11.9788
lyn	-11.9789
hwbe	-11.979
escuela	-11.9793
ロ	-11.9795
fazer	-11.9797
gei	-11.9798
294682000766!	-11.9798
331	-11.98
dlc	-11.9801
segunda	-11.9802
googlebrandshein	-11.9802
362	-11.9806
1101	-11.9808
dmf	-11.9808
cheat	-11.9809
kla	-11.9811
883	-11.9811
ffxiv	-11.9812
バ	-11.9812
alliance	-11.9814
exercises	-11.9815
diccionario	-11.9815
023	-11.9817
xhpf	-11.9818
676	-11.9818
manufacturer	-11.9819
direito	-11.9821
header	-11.9821
ト	-11.9821
equation	-11.9822
nokia	-11.9822
artists	-11.9823
fiid	-11.9823
caravan	-11.9823
biography	-11.9828
riz	-11.9829
399	-11.9829
/2015/	-11.9832
luk	-11.9832
375	-11.9833
054	-11.9833
046	-11.9833
leaf	-11.9835
494	-11.9839
332	-11.9839
ナ	-11.9841
lao	-11.9842
moz	-11.9842
basis	-11.9844
%8	-11.9845
teoria	-11.9846
899	-11.9848
1099	-11.9849
sonic	-11.9849
fortnite	-11.985
0006	-11.985
dialnet	-11.9851
khoe	-11.9851
mez	-11.9851
matematik	-11.9852
/10000	-11.9852
اب	-11.9854
articoli	-11.9855
468	-11.9855
997	-11.9855
aires	-11.9857
788	-11.9859
seks	-11.9859
701	-11.9861
particuliers	-11.9862
stre	-11.9863
1034	-11.9865
به	-11.9866
wayfair	-11.9866
535	-11.9869
mum	-11.9869
similar	-11.9869
1021	-11.987
arquivos	-11.9871
pattern	-11.9873
alcohol	-11.9875
weiss	-11.9876
president	-11.9876
adi	-11.9877
strip	-11.9882
isme	-11.9884
nous	-11.9885
transporte	-11.9885
notebooks	-11.9885
ille	-11.9886
hdr	-11.9888
cpn	-11.9889
=768&	-11.9889
kep	-11.9891
sich	-11.9892
ungen	-11.9893
metric	-11.9897
render	-11.9898
1121	-11.9899
profesional	-11.9899
crisis	-11.99
williams	-11.99
zubehoer	-11.9901
yon	-11.9903
シ	-11.9903
mtg	-11.9905
639	-11.9906
legislation	-11.9906
shape	-11.9909
اد	-11.9912
azo	-11.9913
goita	-11.9914
nings	-11.9915
iye	-11.9915
toilet	-11.9916
castle	-11.9921
bea	-11.9921
公	-11.9922
grant	-11.9925
blegateway	-11.9928
having	-11.9929
=2021	-11.9929
sodimac	-11.993
ams	-11.9931
scr	-11.9931
alquiler	-11.9931
ory	-11.9932
「	-11.9933
nier	-11.9933
fecha	-11.9934
fff	-11.9935
shirts	-11.9937
dores	-11.9938
dublado	-11.994
281	-11.9941
โ	-11.9941
1102	-11.9942
bic	-11.9942
mzm	-11.9943
ovi	-11.9943
mda	-11.9943
ccb	-11.9944
mango	-11.9944
pharm	-11.9944
kru	-11.9946
tig	-11.9947
creampie	-11.9948
voyage	-11.9948
grab	-11.9949
는	-11.9949
981	-11.995
alba	-11.9951
nosti	-11.9951
887	-11.9952
-70-	-11.9954
lina	-11.9955
revolution	-11.9956
karriere	-11.9958
모	-11.9958
chuan	-11.9961
duy	-11.9962
323	-11.9962
ability	-11.9963
aagbfm	-11.9963
adding	-11.9966
yas	-11.9966
wivk	-11.9967
eprints	-11.9967
marks	-11.997
034	-11.9973
kommune	-11.9973
chron	-11.9974
izacion	-11.9974
入	-11.9974
luft	-11.9975
onedrive	-11.9977
spi	-11.9977
/2020-	-11.9977
418	-11.9977
webmd	-11.9977
025	-11.9979
/138	-11.998
wroc	-11.9982
315	-11.9983
642	-11.9983
cet	-11.9985
507	-11.9985
someone	-11.9986
doubtnut	-11.9986
670	-11.9986
kelas	-11.9987
ฟ	-11.9989
284	-11.999
kota	-11.999
ח	-11.9991
oti	-11.9991
chau	-11.9995
1035	-11.9996
once	-11.9997
fem	-11.9999
فر	-12.0001
jag	-12.0002
regions	-12.0003
divers	-12.0004
б	-12.0004
cee	-12.0006
cita	-12.0007
ement	-12.0007
0-83	-12.0007
657	-12.001
1027	-12.001
064	-12.001
milan	-12.0011
scisig	-12.0012
1986	-12.0013
668	-12.0013
migration	-12.0013
mzg	-12.0014
watt	-12.0015
077	-12.0015
302	-12.0016
sigma	-12.002
nara	-12.002
=9056	-12.0021
-2010-	-12.0022
fae	-12.0023
735	-12.0024
elk	-12.0026
koy	-12.0026
/119	-12.0028
nieuwe	-12.0029
bfb	-12.003
behind	-12.0031
598	-12.0032
mouth	-12.0033
cambio	-12.0034
1003	-12.0035
been	-12.0035
charger	-12.0037
ized	-12.0037
659	-12.0038
036	-12.0038
modele	-12.0038
ncert	-12.0039
hoat	-12.004
1106	-12.0041
317	-12.0041
liz	-12.0044
turkish	-12.0046
592	-12.0047
1970	-12.0048
/151	-12.005
-419&	-12.005
lookup	-12.0052
án	-12.0055
]_	-12.0057
binance	-12.0057
9001	-12.0059
fbf	-12.0059
stol	-12.0061
association	-12.0062
705	-12.0062
910	-12.0065
xhpc	-12.0068
santiago	-12.0069
assistance	-12.0069
msedgntp	-12.0071
tail	-12.0071
redwap	-12.0072
cause	-12.0073
geb	-12.0073
yellowpages	-12.0073
ratio	-12.0076
/110	-12.0078
investigacion	-12.0081
horoscope	-12.0083
ibs	-12.0083
647	-12.0083
isfashion	-12.0089
rue	-12.0089
energi	-12.009
august	-12.009
monografias	-12.0091
bedrijf	-12.0091
empire	-12.0092
tez	-12.0094
469	-12.0094
progress	-12.0096
candy	-12.0098
scheme	-12.0098
manualslib	-12.0102
977	-12.0102
wig	-12.0102
principles	-12.0103
10000	-12.0104
]-	-12.0105
richard	-12.0106
rede	-12.0106
1440	-12.011
monotaro	-12.011
bomb	-12.011
leader	-12.0112
/120	-12.0113
sustainable	-12.0113
vent	-12.0113
=17	-12.0115
757	-12.0117
santo	-12.0122
ruangguru	-12.0124
022	-12.0124
mitula	-12.0126
sentence	-12.0126
保	-12.0126
sociales	-12.0127
488	-12.0127
algorithm	-12.0127
/128	-12.0129
2077	-12.0129
pays	-12.0129
relations	-12.013
cleaner	-12.0133
membership	-12.0134
others	-12.0138
564	-12.0138
moment	-12.0139
603	-12.0139
minutes	-12.0139
/2015	-12.0142
forex	-12.0143
latex	-12.0145
และ	-12.0145
dove	-12.0148
torrents	-12.0149
funciona	-12.015
aktiv	-12.015
sagepub	-12.0151
dhl	-12.0152
ology	-12.0154
exclusive	-12.0157
/20-	-12.0157
kann	-12.0159
zht	-12.0159
pst	-12.0161
dit	-12.0162
nah	-12.0164
024	-12.0167
avenue	-12.0167
751	-12.0169
raspberry	-12.0171
vig	-12.0171
/12/	-12.0172
696	-12.0175
virgin	-12.0179
ของ	-12.018
inspiration	-12.018
provincia	-12.0184
626	-12.019
604	-12.0194
ウ	-12.0195
1060	-12.0195
acoes	-12.0195
615	-12.0197
jaar	-12.0199
%22	-12.0199
praca	-12.02
1117	-12.0201
such	-12.0201
prov	-12.0203
draft	-12.0203
jio	-12.0204
ddc	-12.0205
-35-	-12.0205
nez	-12.0207
492	-12.0208
kategorie	-12.0208
jour	-12.0209
033	-12.0212
ะ	-12.0213
xhpe	-12.0214
witcher	-12.0214
irish	-12.0214
2400	-12.0216
trek	-12.0216
fluid	-12.0218
595	-12.0218
化	-12.022
sts	-12.022
429	-12.0222
zei	-12.0222
1013	-12.0223
cec	-12.0223
672	-12.0224
739	-12.0224
pine	-12.0226
adaaq	-12.0226
prova	-12.0231
732	-12.0231
516	-12.0231
colegio	-12.0233
tenis	-12.0233
0011	-12.0235
1700	-12.0235
porsche	-12.0236
=5331479	-12.0237
reach	-12.0238
buscar	-12.0239
945	-12.024
transit	-12.024
zeitung	-12.0243
/122	-12.0243
webcams	-12.0244
monthly	-12.0248
kku	-12.0252
mjy	-12.0252
unix	-12.0253
cari	-12.0253
baixar	-12.0253
soru	-12.0257
ז	-12.0259
/136	-12.0259
accesorios	-12.026
vii	-12.026
muy	-12.0261
구	-12.0262
redalyc	-12.0262
scooter	-12.0262
ใน	-12.0262
lil	-12.0263
beck	-12.0264
workplace	-12.0264
mittel	-12.0264
تر	-12.0266
population	-12.0266
calcio	-12.0266
662	-12.0266
973	-12.0269
dgc	-12.027
767	-12.0271
bdd	-12.0271
962	-12.0271
能	-12.0272
tutto	-12.0273
ook	-12.0276
453	-12.0277
1098	-12.0277
agriculture	-12.0277
importancia	-12.0279
868	-12.0279
wont	-12.0279
miami	-12.028
zpid	-12.0282
1985	-12.0284
emergency	-12.0286
roboguru	-12.0286
izm	-12.0287
fad	-12.0288
syl	-12.0288
previous	-12.029
ccc	-12.0291
svg	-12.0291
2100	-12.0293
=%	-12.0293
=1011	-12.0294
/152	-12.0295
654	-12.0296
tutorialspoint	-12.0296
offres	-12.0297
cfe	-12.0297
advisor	-12.0298
nhi	-12.0298
ور	-12.0298
famous	-12.0299
filmy	-12.0301
0009	-12.0302
peak	-12.0303
о	-12.0306
γ	-12.0307
fastquicksearch	-12.0307
cro	-12.0307
ん	-12.0309
importance	-12.0309
00&	-12.0311
/132	-12.0311
reserve	-12.0311
fields	-12.0315
045	-12.0315
881	-12.0316
dutch	-12.0317
giu	-12.0317
eae	-12.0319
neue	-12.032
rubber	-12.0321
reason	-12.0322
momoshop	-12.0322
ridge	-12.0322
kova	-12.0322
787	-12.0323
mare	-12.0324
pedro	-12.0324
upper	-12.0324
fold	-12.0324
yapi	-12.0325
poke	-12.0327
decreto	-12.0327
569	-12.0327
eria	-12.0328
zio	-12.0328
nexusmods	-12.0328
technique	-12.0328
magnetic	-12.033
radeon	-12.0331
キ	-12.0335
wivj	-12.0336
adfs	-12.0336
nhl	-12.0338
starter	-12.034
-250	-12.034
rpm	-12.0341
bern	-12.0342
не	-12.0342
bff	-12.0343
relay	-12.0346
658	-12.0346
2060	-12.0348
946	-12.0349
polska	-12.0349
334	-12.035
1215	-12.035
leasing	-12.035
ndy	-12.0351
khe	-12.0351
timesofindia	-12.0352
studios	-12.0353
▁ads	-12.0354
tiep	-12.0355
speakers	-12.0356
843	-12.0356
gist	-12.036
mdm	-12.036
-150-	-12.0365
552	-12.0365
963	-12.0365
siz	-12.0367
434	-12.0367
municipal	-12.0368
voy	-12.0371
nbk	-12.0371
dota	-12.0375
downloader	-12.0375
وال	-12.0375
navy	-12.0379
459	-12.0385
く	-12.0385
bbf	-12.0386
afe	-12.0387
monitors	-12.0388
760	-12.0389
pesquisa	-12.039
biggo	-12.039
mana	-12.0391
voir	-12.0392
kns	-12.0392
creme	-12.0392
cual	-12.0393
directorio	-12.0393
mobility	-12.0394
hap	-12.0395
infinite	-12.0396
hoo	-12.0396
yum	-12.0398
srsa	-12.0399
き	-12.0399
mud	-12.0401
interactive	-12.0401
instance	-12.0402
shift	-12.0404
=0000	-12.0406
lcc	-12.0407
immobiliare	-12.0409
yababggj	-12.041
955	-12.041
742	-12.0414
chord	-12.0415
987	-12.0415
521	-12.0415
scholarr	-12.0417
xid	-12.0418
puzzle	-12.042
/143	-12.0421
emirates	-12.0422
nyj	-12.0424
cada	-12.0424
expression	-12.0425
sakura	-12.0426
huy	-12.0427
/121	-12.0428
dose	-12.0429
ksa	-12.043
00003	-12.0431
nico	-12.0431
homedetails	-12.0431
going	-12.0432
hvexi	-12.0433
sous	-12.0435
942	-12.0436
tnt	-12.0437
soup	-12.0437
tti	-12.0437
caracteristicas	-12.0438
beliebtesten	-12.0438
actress	-12.0438
gcpc	-12.044
1069	-12.0441
calgary	-12.0442
1031	-12.0443
otc	-12.0444
walking	-12.0444
alm	-12.0447
revue	-12.0448
nou	-12.045
002&	-12.045
stereo	-12.0451
primera	-12.0452
860	-12.0452
automobile	-12.0453
critical	-12.0455
1005	-12.0456
動	-12.0457
youporn	-12.0457
werken	-12.0457
-26-	-12.0458
veg	-12.046
068	-12.0462
fond	-12.0463
/154	-12.0463
409	-12.0464
immigration	-12.0464
=10841_	-12.0465
elec	-12.0466
667	-12.0467
1130	-12.0467
1008	-12.0471
built	-12.0472
alice	-12.0473
straight	-12.0474
seoul	-12.0474
lbs	-12.0475
cite	-12.0477
bolt	-12.0477
fbc	-12.0481
kle	-12.0481
viral	-12.0483
binary	-12.0485
trien	-12.0485
cables	-12.0488
extid	-12.0488
uncensored	-12.0489
misc	-12.0489
practices	-12.0491
stern	-12.0492
cute	-12.0494
ซ	-12.0497
eros	-12.0499
kwgid	-12.0501
951	-12.0502
bala	-12.0503
-1-0-	-12.0503
photography	-12.0505
=11	-12.0507
brisbane	-12.0508
708	-12.051
408	-12.0511
784	-12.0511
fos	-12.0511
loigiai	-12.0513
assignment	-12.0514
/2013	-12.0514
eme	-12.0515
1023	-12.0516
bars	-12.0517
1115	-12.0518
fam	-12.052
rugby	-12.052
colleges	-12.0521
anie	-12.0524
bec	-12.0525
tje	-12.0527
hed	-12.0528
ologie	-12.0528
planner	-12.0529
ill	-12.0529
batteries	-12.053
giant	-12.053
ema	-12.053
vino	-12.0531
الت	-12.0536
田	-12.0539
1978	-12.0541
artificial	-12.0542
た	-12.0542
פ	-12.0544
作	-12.0544
\	-12.0545
consider	-12.0546
linda	-12.0547
reverse	-12.0547
ships	-12.0548
على	-12.0549
reisen	-12.0549
zig	-12.0552
viewdate	-12.0554
albert	-12.0554
studie	-12.0556
russia	-12.0558
instructions	-12.0559
618	-12.056
bilder	-12.056
bilgisayar	-12.056
zyw	-12.0561
washington	-12.0561
noise	-12.0562
ending	-12.0563
648	-12.0565
bmc	-12.0565
kry	-12.0565
border	-12.0566
_01_	-12.0567
normas	-12.0567
akku	-12.0568
936	-12.0569
nyy	-12.0569
macys	-12.057
xing	-12.057
nea	-12.0571
dzi	-12.0572
=1536&	-12.0572
715	-12.0573
nika	-12.0574
zos	-12.0574
398	-12.0575
dwg	-12.0576
ohne	-12.0578
原	-12.0578
statements	-12.0578
seu	-12.0578
988	-12.0579
esqod	-12.0581
jakarta	-12.0581
376	-12.0581
mzy	-12.0587
motorola	-12.0587
신	-12.0587
cuando	-12.0589
disco	-12.0589
punto	-12.059
khai	-12.059
lege	-12.059
1104	-12.059
celular	-12.059
1711180	-12.0591
boa	-12.0594
investors	-12.0594
hani	-12.0595
cura	-12.0595
bdb	-12.0596
arbeit	-12.0598
fue	-12.06
hui	-12.06
ojs	-12.06
concurso	-12.0601
selling	-12.0601
resultados	-12.0602
/177	-12.0602
integral	-12.0604
transform	-12.0604
century	-12.0605
2022-01	-12.0605
529	-12.0607
misumi	-12.0608
fonds	-12.061
esports	-12.061
chay	-12.0611
moo	-12.0614
493	-12.0615
bam	-12.0615
trap	-12.0616
tol	-12.0617
rita	-12.0619
tyw	-12.0619
mbo	-12.0621
آ	-12.0622
doctolib	-12.0624
colo	-12.0625
auckland	-12.0626
asa	-12.0629
atm	-12.0631
alimentos	-12.0632
endpoint	-12.0633
fas	-12.0633
older	-12.0634
encia	-12.0635
886	-12.0635
zadanie	-12.0638
specifications	-12.0638
xlsx	-12.0643
神	-12.0644
zor	-12.0644
amc	-12.0644
/2019-	-12.065
kerja	-12.0651
rite	-12.0651
motherboard	-12.0651
skola	-12.0654
808	-12.0657
=9061	-12.0659
326	-12.0659
hiv	-12.066
afc	-12.0662
gard	-12.0662
683	-12.0666
aal	-12.0666
532	-12.0666
agreement	-12.0667
cfb	-12.0667
pcampaignid	-12.0669
jzq	-12.0676
ssa	-12.0676
rlsa	-12.0678
hun	-12.0678
=318615;	-12.068
/2017/03/	-12.0683
comercio	-12.0685
valencia	-12.0687
hood	-12.0688
lettre	-12.0688
731	-12.069
00006	-12.069
samlrequest	-12.0691
cuoc	-12.0691
fetch	-12.0692
skip	-12.0692
taka	-12.0694
patients	-12.0695
ffa	-12.0695
941	-12.0695
hae	-12.0695
suchen	-12.0696
ث	-12.0699
miz	-12.0699
minha	-12.07
santander	-12.0701
foi	-12.0701
trabalho	-12.0705
roo	-12.0705
liter	-12.0705
santos	-12.0709
yaz	-12.071
superior	-12.0711
2.0/	-12.0711
minute	-12.0711
gbv	-12.0713
581	-12.0715
374	-12.0716
ote	-12.0717
cub	-12.0717
blanco	-12.0718
tecnico	-12.0718
nost	-12.0718
chess	-12.0719
reporting	-12.072
respuestas	-12.072
ศ	-12.0721
checklist	-12.0722
atti	-12.0723
021	-12.0723
iri	-12.0724
하	-12.0724
jbocr	-12.0725
llo	-12.0725
675	-12.0725
lut	-12.0726
ciu	-12.0726
cbf	-12.0727
601	-12.0729
eaqyayabegk	-12.073
622	-12.0731
2200	-12.0731
957	-12.0731
digit	-12.0732
networks	-12.0733
eagle	-12.0733
poo	-12.0734
intent	-12.0735
pelo	-12.0741
beneficios	-12.0742
googlesearch	-12.0743
natura	-12.0743
vegas	-12.0744
991	-12.0746
iko	-12.0746
202109	-12.0748
marin	-12.0749
astack	-12.0749
394	-12.075
+%	-12.0752
τ	-12.0753
teil	-12.0753
aran	-12.0754
oki	-12.0755
mbhciarisaddufve	-12.0756
795	-12.0758
tyo	-12.0758
udemyads	-12.0759
montreal	-12.0759
rov	-12.076
1097	-12.0761
eaqyayabegi	-12.0762
9999	-12.0763
pun	-12.0764
lust	-12.0764
advent	-12.0768
antivirus	-12.0768
fba	-12.0769
ltk	-12.077
psycho	-12.077
timeline	-12.077
biologia	-12.0772
693	-12.0772
tine	-12.0773
allen	-12.0773
み	-12.0774
/2012	-12.0775
coins	-12.0778
arma	-12.0778
dha	-12.0779
oslo	-12.0779
9376527	-12.078
4765445	-12.0782
comunidad	-12.0782
1089	-12.0785
undergraduate	-12.0787
方	-12.0789
dbd	-12.0791
sohu	-12.0793
unidad	-12.0796
xue	-12.0797
educa	-12.0798
informer	-12.0799
下	-12.0799
veja	-12.08
autoscout	-12.08
ビ	-12.0801
第	-12.0801
forza	-12.0801
swap	-12.0802
631	-12.0803
showroom	-12.0803
سریال	-12.0806
hout	-12.0806
ettoday	-12.0807
sss	-12.0807
cola	-12.081
erotic	-12.0812
ago	-12.0812
dle	-12.0812
л	-12.0813
=158	-12.0814
savings	-12.0815
officeworks	-12.0815
ф	-12.0817
finding	-12.0817
prog	-12.0817
1210	-12.0817
prediction	-12.0817
582	-12.0817
enciclopedia	-12.0819
wij	-12.0819
ufc	-12.0819
1982	-12.082
informatie	-12.082
herramientas	-12.0821
myq	-12.0822
dine	-12.0825
fone	-12.0826
2700	-12.0827
927	-12.0828
825	-12.083
minister	-12.0832
lower	-12.0832
-2-0-	-12.0833
mbhciarisaddufvh	-12.0833
mbhciarisaddufvf	-12.0833
defense	-12.0834
programm	-12.0834
frauen	-12.0836
thoai	-12.0838
lom	-12.0839
khz	-12.084
625	-12.0841
xuite	-12.0843
lur	-12.0845
是	-12.0846
/2022/	-12.0847
pbocr	-12.0847
cba	-12.0849
chuong	-12.085
officehome	-12.0851
크	-12.0851
694	-12.0853
birth	-12.0854
shares	-12.0854
421	-12.0855
806	-12.0856
1312	-12.0858
fef	-12.0859
trigger	-12.0859
571	-12.0859
ocw	-12.0859
pageid	-12.086
594	-12.086
doktor	-12.086
940	-12.0861
archi	-12.0863
1118	-12.0864
afa	-12.0866
kamp	-12.0867
า	-12.0867
yet	-12.0867
jee	-12.0868
ebc	-12.0868
subscribe	-12.087
deloitte	-12.0871
precision	-12.0871
bali	-12.0872
regione	-12.0872
yna	-12.0873
aqa	-12.0873
lava	-12.0874
storia	-12.0875
buz	-12.0875
fcf	-12.0876
startseite	-12.0877
industria	-12.0878
ihr	-12.088
다	-12.0881
526	-12.0881
1206	-12.0882
000001	-12.0883
odg	-12.0884
koz	-12.0884
perfume	-12.0886
ybqgaeiaemgui	-12.0886
resolution	-12.0886
purpose	-12.0888
trustpilot	-12.0889
moebel	-12.089
ブ	-12.089
brazil	-12.0891
000&	-12.0892
consejos	-12.0892
958	-12.0894
buc	-12.0894
й	-12.0896
-45-	-12.0896
tudo	-12.0897
lau	-12.0901
crew	-12.0902
yty	-12.0903
081	-12.0903
wot	-12.0903
-400-	-12.0904
permission	-12.0904
burger	-12.0905
telegram	-12.0905
bock	-12.0905
sede	-12.0906
cookpad	-12.0907
sata	-12.0908
ccf	-12.0909
光	-12.0909
공	-12.0909
965	-12.091
eaqyayabegl	-12.0911
wivw	-12.0913
」	-12.0914
persona	-12.0916
packs	-12.0916
612	-12.0917
father	-12.0918
00005	-12.0918
069	-12.0919
wkh	-12.092
mao	-12.092
phai	-12.092
bmj	-12.0922
830	-12.0922
laboral	-12.0923
kiz	-12.0923
å	-12.0926
tfg	-12.0927
preis	-12.0927
059	-12.0928
1066	-12.0928
ddm	-12.0928
cfc	-12.0933
motorcycle	-12.0935
和	-12.0936
professionals	-12.0937
integrated	-12.0938
monkey	-12.094
roh	-12.094
/123	-12.094
haven	-12.0941
bieu	-12.0943
resorts	-12.0946
по	-12.0949
yuu	-12.095
bury	-12.0951
▁software	-12.0951
catholic	-12.0952
flyer	-12.0953
doesnt	-12.0954
fdb	-12.0954
0012	-12.0955
switches	-12.0956
edi	-12.0957
bfc	-12.0958
ous	-12.0958
964	-12.0958
mee	-12.0959
1968	-12.0961
vacatures	-12.0961
muni	-12.0961
756	-12.0962
jooble	-12.0962
1045	-12.0962
btc	-12.0963
aktuelles	-12.0963
特	-12.0964
primo	-12.0967
723	-12.097
yah	-12.0972
increase	-12.0973
▁gratis	-12.0974
precio	-12.0975
googleshopd	-12.0981
1405	-12.0982
samples	-12.0982
995	-12.0983
hyr	-12.0983
stvo	-12.0983
57&	-12.0985
atelier	-12.0985
quo	-12.0985
coupons	-12.0986
benh	-12.0987
ニ	-12.0988
mbhciarisaddufvg	-12.0989
karl	-12.099
666&	-12.0992
▁đ	-12.0992
-2016	-12.0995
bottom	-12.0995
celebrities	-12.0997
海	-12.0997
fiyatlari	-12.0997
apd	-12.0999
556	-12.1001
klar	-12.1001
expid	-12.1002
1088	-12.1003
oty	-12.1004
andhomes	-12.1004
mortgage	-12.1004
mey	-12.1005
yabacggj	-12.1006
jib	-12.1009
1016	-12.101
fleet	-12.101
hyprod	-12.1011
1220	-12.1011
joo	-12.1011
ffb	-12.1012
wkz	-12.1012
actual	-12.1013
hra	-12.1014
digitale	-12.1015
grace	-12.1015
kleding	-12.1015
開	-12.1017
byte	-12.1018
transmission	-12.1019
ssp	-12.1019
fbb	-12.102
valle	-12.102
religion	-12.1023
cff	-12.1024
hefreedictionary	-12.1026
633	-12.103
durch	-12.1031
fei	-12.1033
emma	-12.1035
anab	-12.1035
escolar	-12.1035
cancel	-12.1037
informe	-12.1038
غ	-12.1038
自	-12.104
eaqyayabegj	-12.104
specials	-12.1042
=40	-12.1042
legion	-12.1043
filmora	-12.1044
archivo	-12.1045
884	-12.1048
072	-12.105
00004	-12.105
/129	-12.1051
1022	-12.1053
powder	-12.1053
fca	-12.1055
cartoon	-12.1055
lucky	-12.1055
aag	-12.1056
793	-12.1057
1203	-12.1061
banca	-12.1062
goc	-12.1064
ollinsdictionary	-12.1065
troubleshoot	-12.1066
915	-12.1067
gastro	-12.1068
lip	-12.1068
submit	-12.1068
brick	-12.1071
cats	-12.1071
advies	-12.1072
icos	-12.1073
1907	-12.1073
bkk	-12.1074
dul	-12.1076
salesforce	-12.1077
842	-12.1077
부	-12.1078
685	-12.1079
674	-12.108
rcc	-12.1081
tisch	-12.1086
libri	-12.1088
mog	-12.1088
stro	-12.1089
930	-12.1091
792	-12.1091
apotheke	-12.1093
864	-12.1093
aam	-12.1094
challenges	-12.1095
compilation	-12.1096
gros	-12.1097
motos	-12.1098
英語	-12.1099
regulations	-12.11
spiceworks	-12.1102
identifier	-12.1102
=12&	-12.1103
recruit	-12.1103
ר	-12.1105
▁meet	-12.1106
mcafee	-12.1106
rows	-12.1109
724	-12.1111
ellen	-12.1111
schema	-12.1111
1026	-12.1113
004&	-12.1114
aga	-12.1114
774	-12.1115
tone	-12.1116
flowers	-12.1116
tok	-12.1118
rouge	-12.1119
caf	-12.112
redes	-12.1121
537	-12.1121
/2022-	-12.1121
slip	-12.1122
744	-12.1122
equi	-12.1123
shoe	-12.1125
424	-12.1126
mjq	-12.1127
authuser	-12.1128
landingv	-12.1128
fut	-12.1129
amt	-12.1129
khx	-12.1129
▁email	-12.113
controle	-12.1131
ч	-12.1131
889	-12.1132
611	-12.1132
985	-12.1133
berger	-12.1138
671	-12.1138
ibi	-12.1139
838	-12.1139
hab	-12.1141
negocio	-12.1142
groep	-12.1143
starting	-12.1146
ouest	-12.1147
wein	-12.1147
neck	-12.1148
iai	-12.115
717	-12.1151
nurse	-12.1151
mayor	-12.1154
strong	-12.1154
camara	-12.1154
=1012	-12.1154
personen	-12.1156
1904	-12.1158
ressources	-12.1159
1969	-12.116
uniform	-12.116
gep	-12.1161
lingua	-12.1161
atk	-12.1162
=1002	-12.1162
dé	-12.1162
quando	-12.1163
groceries	-12.1168
dames	-12.1168
2218	-12.117
klima	-12.1171
zka	-12.1172
代	-12.1173
vim	-12.1173
ire	-12.1176
909	-12.1176
944	-12.1176
socket	-12.1178
pip	-12.1178
-11/	-12.1179
tive	-12.118
required	-12.118
ente	-12.1181
���	-12.1181
▁do	-12.1182
ryu	-12.1182
cult	-12.1182
employees	-12.1183
websites	-12.1184
2026	-12.1184
syu	-12.1186
arna	-12.1187
mike	-12.1187
664	-12.1188
revenue	-12.1189
blonde	-12.1189
keo	-12.1189
sze	-12.119
dum	-12.1191
pecas	-12.1192
latitude	-12.1192
1975	-12.1192
again	-12.1192
hpe	-12.1193
breaking	-12.1193
مشاهدة	-12.1194
feedid	-12.1195
線	-12.1196
wiva	-12.1197
ead	-12.1199
tah	-12.1199
schuhe	-12.1202
seal	-12.1203
833	-12.1203
ข	-12.1204
xda	-12.1205
2048	-12.1206
tesco	-12.1207
grip	-12.1207
外	-12.1209
031	-12.121
blo	-12.1211
instituto	-12.1212
kfc	-12.1213
ktm	-12.1213
明	-12.1215
rss	-12.1215
sic	-12.1216
xmlui	-12.1218
connected	-12.1218
siam	-12.1219
clickserve	-12.122
zki	-12.122
sty	-12.1221
assist	-12.1222
ض	-12.1223
faf	-12.1223
786	-12.1224
psg	-12.1225
tka	-12.1225
959	-12.1226
uomo	-12.1226
ingenieria	-12.1228
!!+	-12.1228
therapie	-12.1228
versions	-12.1229
947	-12.1232
745	-12.1232
hammer	-12.1234
ebb	-12.1236
dora	-12.1236
nina	-12.1236
boca	-12.1237
360&	-12.1237
vang	-12.1237
wia	-12.1241
variables	-12.1243
meng	-12.1245
wct	-12.1246
092	-12.1246
2020&	-12.1247
ipa	-12.1247
determine	-12.1248
publish	-12.1249
scholarship	-12.125
providers	-12.1252
547	-12.1253
oxi	-12.1254
cord	-12.1255
roof	-12.1256
ideapad	-12.1259
astra	-12.126
meo	-12.1262
1122	-12.1263
ugg	-12.1264
finans	-12.1265
zioni	-12.1267
nwell	-12.1268
ü	-12.127
galeri	-12.127
gew	-12.1271
729	-12.1271
067	-12.1272
sword	-12.1273
zik	-12.1273
clock	-12.1275
ú	-12.1275
746	-12.1277
frost	-12.1278
yat	-12.1279
tbs	-12.1279
semanticscholar	-12.128
1911	-12.1281
yoo	-12.1282
igi	-12.1283
928	-12.1284
django	-12.1285
dailymail	-12.1287
keywordid	-12.1287
tommy	-12.1289
bie	-12.129
managing	-12.1291
especial	-12.1291
tuning	-12.1292
contenido	-12.1292
verein	-12.1295
eodev	-12.1296
412	-12.1297
demon	-12.1298
cbs	-12.1298
752	-12.1299
banks	-12.1302
576	-12.1303
fcb	-12.1303
literatura	-12.1303
948	-12.1304
syo	-12.1306
lowes	-12.1306
ako	-12.1308
▁on	-12.1308
nau	-12.131
/156	-12.131
prensa	-12.1311
hoang	-12.1312
bangalore	-12.1317
apollo	-12.1317
ques	-12.132
triple	-12.132
mzc	-12.1321
=9071	-12.1322
eating	-12.1323
816	-12.1324
armor	-12.1324
解	-12.1324
avant	-12.1327
но	-12.1328
nun	-12.1328
vag	-12.1328
paket	-12.1328
3001	-12.1329
972	-12.1331
harvard	-12.1332
nts	-12.1334
sinonimos	-12.1334
muenchen	-12.1334
=21.9	-12.1336
advantages	-12.1336
scotland	-12.1338
bean	-12.1338
packaging	-12.134
fce	-12.1342
mutual	-12.1342
1205	-12.1343
hyv	-12.1344
40&	-12.1346
escola	-12.1347
lawyer	-12.1348
eea	-12.1352
aiab	-12.1353
mtk	-12.1354
974	-12.1355
supap	-12.1355
914	-12.1355
rada	-12.1356
kari	-12.1356
bcd	-12.1356
poj	-12.1357
clo	-12.1357
belgium	-12.1358
folk	-12.1358
613	-12.1358
cipc	-12.1359
643	-12.1361
stk	-12.1364
]_[	-12.1364
icd	-12.1366
laura	-12.1366
1087	-12.1368
zek	-12.1369
champ	-12.137
415	-12.1376
602	-12.1377
robo	-12.1377
ック	-12.138
ruten	-12.1381
1979	-12.1381
926	-12.1382
phr	-12.1386
papier	-12.1386
mfa	-12.1386
度	-12.1387
newsletter	-12.1389
1051	-12.1393
invalid	-12.1393
chang	-12.1394
telecom	-12.1396
perth	-12.1398
returns	-12.1398
indoor	-12.1401
名	-12.1403
baf	-12.1403
jem	-12.1403
dcf	-12.1405
nbr	-12.1406
oesterreich	-12.1406
989	-12.1407
elektronik	-12.1408
kick	-12.1408
2027	-12.1408
coaching	-12.1409
thy	-12.141
marriage	-12.1411
vila	-12.1411
1333	-12.1411
alles	-12.1412
arisanspatf	-12.1413
う	-12.1413
inspiron	-12.1414
zentrum	-12.1415
14&	-12.1415
ndr	-12.1418
wwe	-12.1418
njq	-12.1419
pela	-12.1419
tune	-12.142
029	-12.142
_2015	-12.1421
nix	-12.1422
200-	-12.1422
22.563.000	-12.1423
901	-12.1423
featured	-12.1423
fucked	-12.1424
=_._	-12.1424
1903	-12.1425
/141	-12.1425
arrow	-12.1426
/2017/05/	-12.1427
differences	-12.1428
=100	-12.1428
freedom	-12.143
nio	-12.143
ド	-12.1431
ntm	-12.1431
designs	-12.1431
_1=	-12.1433
605&	-12.1435
layouts	-12.1437
_10_	-12.1438
ykh	-12.1439
husband	-12.1439
platinum	-12.144
tcp	-12.1442
svc	-12.1443
strategic	-12.1443
liberty	-12.1444
047	-12.1444
1412	-12.1445
wuy	-12.1445
headset	-12.1445
971	-12.1446
ales	-12.1448
csp	-12.145
ッ	-12.1451
chieu	-12.1452
1310	-12.1452
economictimes	-12.1453
residence	-12.1454
profit	-12.146
coder	-12.146
manomano	-12.1461
1150	-12.1462
è	-12.1463
concepts	-12.1463
claim	-12.1465
ului	-12.1466
=!3	-12.1466
/160	-12.1468
ciones	-12.1468
1018	-12.1469
1216	-12.1471
vov	-12.1472
923	-12.1473
rider	-12.1475
heureka	-12.1476
boek	-12.1477
annonces	-12.1479
essays	-12.1479
834	-12.148
indi	-12.1481
||&	-12.1482
installing	-12.1483
mieten	-12.1483
1085	-12.1484
dow	-12.1485
detection	-12.1485
dresses	-12.1486
/2019/09/	-12.1486
oxy	-12.1487
inverter	-12.1488
pei	-12.1489
izo	-12.1491
fibra	-12.1492
ants	-12.1493
gids	-12.1494
maar	-12.1494
iji	-12.1495
-220	-12.1501
-65526620	-12.1501
urlaub	-12.1505
tara	-12.1507
newsroom	-12.1508
pasa	-12.1509
centres	-12.1509
mzk	-12.1512
druck	-12.1512
/134	-12.1514
conrad	-12.1514
eyes	-12.1514
1973	-12.1517
mtb	-12.1518
ipp	-12.152
733	-12.1523
1059	-12.1524
pagesjaunes	-12.1525
aap	-12.1525
1971	-12.1526
세	-12.1527
basket	-12.1528
1110	-12.1529
1315	-12.153
francisco	-12.153
:2096/	-12.153
1981	-12.1532
crear	-12.1533
approach	-12.1534
wohnen	-12.1534
مع	-12.1534
力	-12.1536
-250-	-12.1536
offre	-12.1537
usar	-12.1538
fbd	-12.1538
baba	-12.1541
effective	-12.1542
523	-12.1543
1056	-12.1543
gsi	-12.1543
maple	-12.1543
kew	-12.1544
749	-12.1544
ę	-12.1545
splash	-12.1545
midi	-12.1545
raf	-12.1546
supplier	-12.1546
1124	-12.1548
ivi	-12.1548
whisky	-12.1549
norm	-12.1549
dian	-12.1551
030	-12.1552
weer	-12.1554
1630	-12.1557
799	-12.1558
ジ	-12.1561
spare	-12.1562
showing	-12.1562
pelis	-12.1563
meilleurs	-12.1563
roku	-12.1564
lier	-12.1564
/2019/01/	-12.1564
celulares	-12.1565
cdd	-12.1565
niem	-12.1565
governance	-12.1565
asahi	-12.1565
mayoclinic	-12.1565
/2018/07/	-12.1566
locationid	-12.1568
ejje	-12.1569
vancouver	-12.157
861	-12.1571
091	-12.1572
12.31&	-12.1573
nhap	-12.1574
skroutz	-12.1576
culo	-12.1577
coupe	-12.1578
higher	-12.1579
rape	-12.158
nad	-12.1582
230&	-12.1583
rund	-12.1584
makeup	-12.1584
在	-12.1587
=5_1&	-12.1587
bran	-12.1588
reaction	-12.1588
心	-12.1589
事	-12.1589
uli	-12.1589
tub	-12.159
issmbactive	-12.1591
searchresult	-12.1591
klm	-12.1592
aea	-12.1595
citizen	-12.1596
clima	-12.1596
mtq	-12.1597
_2021	-12.1599
opportunities	-12.16
oui	-12.1601
vans	-12.1601
heres	-12.1601
esqed	-12.1602
bits	-12.1603
southern	-12.1603
loa	-12.1605
과	-12.1605
pickup	-12.1606
ergo	-12.1607
sant	-12.1608
-02-	-12.1609
0000000	-12.1609
tta	-12.1611
dfa	-12.1612
859	-12.1612
klas	-12.1612
817	-12.1613
lanka	-12.1613
/2017/08/	-12.1614
1950	-12.1617
=136	-12.1617
thien	-12.1618
chefkoch	-12.1622
278	-12.1623
leads	-12.1623
dent	-12.1623
ndq	-12.1624
freepik	-12.1624
hands	-12.1625
khw	-12.1625
1403	-12.1626
abi	-12.1627
gamma	-12.1627
967	-12.1628
maken	-12.1629
=178	-12.1631
commands	-12.1634
1067	-12.1635
thuy	-12.1635
zdg	-12.1636
343	-12.1636
abril	-12.1639
mundial	-12.1639
bbd	-12.1641
sessionid	-12.1641
224	-12.1641
zoe	-12.1643
pax	-12.1643
janeiro	-12.1644
rush	-12.1644
ence	-12.1645
ผ	-12.1645
bara	-12.1646
pair	-12.1648
644	-12.1648
knight	-12.1649
フ	-12.165
935	-12.1651
nei	-12.1652
646	-12.1653
966	-12.1653
デ	-12.1654
amiento	-12.1655
ije	-12.1655
antigen	-12.1656
iba	-12.1656
haj	-12.1656
ω	-12.1656
tuoi	-12.1657
nir	-12.1657
tarjeta	-12.1657
warning	-12.1658
justdial	-12.1659
guys	-12.1659
pim	-12.166
vectors	-12.1662
leagueoflegends	-12.1662
sena	-12.1665
zlmah	-12.1667
smash	-12.1669
cinemas	-12.1669
1212	-12.167
crown	-12.167
telephone	-12.1671
ibu	-12.1671
phe	-12.1677
ebooks	-12.1679
tinhte	-12.168
조	-12.1681
687	-12.1681
hud	-12.1682
strike	-12.1683
cdb	-12.1684
among	-12.1685
etta	-12.1685
weihnachts	-12.1685
hidro	-12.1686
greater	-12.1686
napoli	-12.1688
hose	-12.1689
cky	-12.1689
=60	-12.1689
csc	-12.1691
wok	-12.1691
matter	-12.1691
定	-12.1692
/2016/11/	-12.1692
noon	-12.1696
hin	-12.1697
2560	-12.1697
型	-12.1697
해	-12.1697
facilities	-12.17
pandora	-12.1701
nst	-12.1701
einer	-12.1702
voj	-12.1703
763	-12.1703
insta	-12.1704
bulk	-12.1704
1202	-12.1705
atie	-12.1705
797	-12.1706
obhdmarisaixllkc	-12.1706
카	-12.1708
zni	-12.1709
groupe	-12.1709
wardsdatascience	-12.1709
vui	-12.1711
1303	-12.1711
homemade	-12.1712
pest	-12.1712
=18&	-12.1713
mjk	-12.1713
871	-12.1713
whole	-12.1715
baker	-12.1715
makes	-12.1717
1065	-12.1717
dune	-12.1718
nama	-12.1718
aju	-12.1718
1983	-12.1719
livro	-12.1719
/300	-12.172
renta	-12.1721
parms	-12.1722
atom	-12.1722
estudio	-12.1722
equity	-12.1722
vona	-12.1723
scroll	-12.1723
electrique	-12.1724
2=0&	-12.1724
ら	-12.1724
1501	-12.1725
mineral	-12.1725
plat	-12.1726
hospitals	-12.1726
820	-12.1727
1234	-12.1728
ко	-12.1728
nhau	-12.1729
wah	-12.1729
henry	-12.1729
proyectos	-12.173
stuck	-12.1731
cells	-12.1732
993	-12.1732
mfp	-12.1732
quel	-12.1732
shark	-12.1732
yard	-12.1735
studium	-12.1736
npc	-12.1737
1126	-12.1738
1038	-12.1739
801	-12.1739
procedures	-12.1739
prevent	-12.174
일	-12.1741
dock	-12.1742
skie	-12.1744
fakta	-12.1745
reuters	-12.1747
hatenablog	-12.1747
tester	-12.1748
personality	-12.1748
arisanspate	-12.1749
anak	-12.1749
wealth	-12.1749
1012	-12.1751
mjg	-12.1751
jaz	-12.1752
sut	-12.1754
rios	-12.1756
magasin	-12.1756
smc	-12.1756
foros	-12.1758
nederlands	-12.1758
alc	-12.1758
empty	-12.1759
1084	-12.1761
597	-12.1763
adres	-12.1763
recent	-12.1765
ntc	-12.1765
zou	-12.1766
arisanspatg	-12.1768
bsc	-12.1768
1006	-12.1768
655	-12.1768
0013	-12.1769
croc	-12.1769
jxoc	-12.1771
=1261	-12.1771
hoan	-12.1772
coches	-12.1772
vio	-12.1774
lga	-12.1774
pvt	-12.1774
/2019/03/	-12.1775
handy	-12.1775
zit	-12.1775
1307	-12.1775
gent	-12.1777
czech	-12.1778
ddb	-12.1778
862	-12.1779
kredit	-12.1781
pandemic	-12.1782
comercial	-12.1782
hav	-12.1782
ntk	-12.1782
ingilizce	-12.1784
scher	-12.1785
chennai	-12.1788
wort	-12.179
edb	-12.179
895	-12.1792
2070	-12.1792
tyt	-12.1793
then	-12.1795
jeg	-12.1796
ntq	-12.1796
communications	-12.1796
835	-12.1797
873	-12.1798
=174	-12.1798
gdn	-12.1799
genesis	-12.1799
famille	-12.18
mixed	-12.18
inte	-12.1801
satellite	-12.1801
dri	-12.1803
621	-12.1804
bola	-12.1805
eamyayaaegj	-12.1806
bfe	-12.1807
longdo	-12.1807
צ	-12.1807
utility	-12.1807
aug	-12.1808
asos	-12.1809
thue	-12.1809
lbhdlarisaiprqcj	-12.1809
taj	-12.1809
corn	-12.1809
secondary	-12.181
mga	-12.1813
prodotto	-12.1813
creek	-12.1814
hyb	-12.1817
extract	-12.1818
jersey	-12.1818
solved	-12.182
nym	-12.182
swarm	-12.1821
831	-12.1821
▁test	-12.1821
і	-12.1823
pty	-12.1823
ç	-12.1823
colors	-12.1824
931	-12.1824
100-	-12.1825
mento	-12.1826
award	-12.1826
月	-12.1826
writer	-12.1827
ffc	-12.1829
403	-12.1829
orgasm	-12.1829
ciclo	-12.1829
amazonaws	-12.1829
mkv	-12.183
funding	-12.1831
854	-12.1832
operating	-12.1832
lbhdlarisaiprqcl	-12.1834
khq	-12.1834
wdg	-12.1835
arxiv	-12.1836
silk	-12.1836
consumers	-12.1838
commission	-12.1838
05&	-12.1839
carro	-12.1839
stamp	-12.184
ngoai	-12.1842
ligi	-12.1842
kura	-12.1845
1207	-12.1845
산	-12.1848
2351	-12.185
odd	-12.185
1967	-12.1853
explain	-12.1853
847	-12.1853
727	-12.1855
quin	-12.1856
1221	-12.1856
laboratorio	-12.1857
gat	-12.1857
jai	-12.1859
台	-12.1859
874	-12.186
steve	-12.186
calcul	-12.1861
handling	-12.1862
ricerca	-12.1862
obhdmarisaixllkf	-12.1862
classification	-12.1862
/155	-12.1863
exc	-12.1864
arbeits	-12.1865
fallback	-12.1865
simulation	-12.1865
abf	-12.1865
798	-12.1867
fussball	-12.1867
ltg	-12.1867
=71	-12.187
loo	-12.1871
medizin	-12.1876
058	-12.1877
0008	-12.1877
foam	-12.1877
bold	-12.1878
ntv	-12.1878
003&	-12.1879
needs	-12.1881
517	-12.1881
519	-12.1883
clanek	-12.1885
1972	-12.1885
917	-12.1886
teens	-12.1887
invoice	-12.1888
ς	-12.1888
xps	-12.1889
gou	-12.1891
bedroom	-12.1893
cim	-12.1894
814	-12.1894
arisanspath	-12.1895
902	-12.1897
advertising	-12.1897
uda	-12.1898
generate	-12.1899
776	-12.1899
googleapis	-12.1901
suisse	-12.1902
/124	-12.1903
-120-	-12.1904
compte	-12.1904
loading	-12.1905
honor	-12.1906
2220	-12.1907
aje	-12.1907
quem	-12.1908
lokal	-12.1909
951&	-12.191
1125	-12.191
692	-12.1911
wive	-12.1912
kenshoo	-12.1912
mdg	-12.1913
gadgets	-12.1914
店	-12.1914
761	-12.1916
/2017/07/	-12.1918
hunde	-12.1918
043	-12.1919
giam	-12.1919
pants	-12.1919
vier	-12.192
lnkd	-12.192
nus	-12.1922
looking	-12.1923
lemon	-12.1924
xac	-12.1925
gamers	-12.1925
632	-12.1926
obhdmarisaixllkd	-12.1926
1603	-12.1926
890	-12.1929
straat	-12.193
cheats	-12.1933
学	-12.1933
billing	-12.1934
frankfurt	-12.1934
milliyet	-12.1934
hyw	-12.1935
boats	-12.1935
tio	-12.1936
inglese	-12.1936
safari	-12.1937
prm	-12.1938
toolbox	-12.1939
882	-12.194
bfa	-12.194
/(	-12.1941
ctf	-12.1941
obhdmarisaixllke	-12.1943
846	-12.1944
userfiles	-12.1948
ли	-12.1952
bey	-12.1952
نا	-12.1953
kip	-12.1954
1208	-12.1954
exercices	-12.1955
/159	-12.1958
cui	-12.1958
runescape	-12.1959
vraag	-12.1962
poco	-12.1962
improve	-12.1962
zwq	-12.1963
827	-12.1964
ryan	-12.1966
bier	-12.1967
ł	-12.1967
eurs	-12.1968
zky	-12.197
juq	-12.197
infrastructure	-12.197
stav	-12.1971
1520	-12.1972
qgaq	-12.1972
ndg	-12.1973
truth	-12.1974
hinative	-12.1976
timeout	-12.1977
cmu	-12.1977
puma	-12.1978
lbhdlarisaiprqci	-12.1978
jroc	-12.1982
ethernet	-12.1983
953	-12.1984
dggueiaeeledem	-12.1986
affich	-12.1986
우	-12.1987
π	-12.1988
cooling	-12.1989
sons	-12.199
costco	-12.199
009&	-12.199
969	-12.1992
lod	-12.1993
hukum	-12.1993
galeria	-12.1994
jane	-12.1994
nec	-12.1995
trees	-12.1995
dartsearch	-12.1996
1112	-12.1997
cimri	-12.1998
radius	-12.1998
869	-12.1999
1945	-12.1999
civ	-12.1999
finn	-12.2
zch	-12.2
kao	-12.2
/2017/04/	-12.2001
soo	-12.2001
mmo	-12.2002
mikro	-12.2002
1257	-12.2002
tiva	-12.2002
1192	-12.2002
eiro	-12.2002
pere	-12.2003
2021-	-12.2004
ן	-12.2005
979	-12.2005
2-0000-0	-12.2005
1301	-12.2006
runner	-12.2006
tsi	-12.2006
maximum	-12.2007
doll	-12.2008
muh	-12.2009
versicherung	-12.2009
jackets	-12.2009
č	-12.2009
orderby	-12.2013
ación	-12.2013
responsive	-12.2015
니	-12.2015
sketchup	-12.2019
kek	-12.2019
1976	-12.202
ule	-12.202
lbhdlarisaiprqck	-12.202
aai	-12.2021
iol	-12.2021
1095	-12.2022
=717000000	-12.2023
melhor	-12.2024
darty	-12.2025
blad	-12.2025
klass	-12.2027
fou	-12.2029
16&	-12.203
nudevista	-12.2032
ishi	-12.2033
flor	-12.2034
1319	-12.2034
daftar	-12.2036
20&	-12.2038
icaaqgaqqsqm	-12.2038
hyt	-12.2039
ksu	-12.2039
mrs	-12.204
bulletin	-12.204
monday	-12.2043
eeb	-12.2044
vua	-12.2044
clubs	-12.2046
irs	-12.2046
vung	-12.2046
1127	-12.2048
gyn	-12.2048
hry	-12.2049
tivo	-12.2053
wetransfer	-12.2054
810	-12.2054
october	-12.2055
voe	-12.2055
hbomax	-12.2055
pumps	-12.2055
1930	-12.2056
fallout	-12.2058
rong	-12.2058
rumah	-12.2059
webmail	-12.2059
з	-12.2059
giua	-12.2059
nyheder	-12.206
811	-12.2061
pret	-12.2061
forte	-12.2063
digest	-12.2065
상	-12.2065
klu	-12.2066
jut	-12.2067
muscle	-12.2067
661	-12.2069
zdrowie	-12.2069
teo	-12.2069
thing	-12.207
會	-12.2071
kyoto	-12.2072
809	-12.2073
uff	-12.2073
ander	-12.2073
aec	-12.2073
mtype	-12.2077
analog	-12.2077
1415	-12.2078
immer	-12.2081
msa	-12.2083
arzt	-12.2083
641	-12.2083
boch	-12.2084
無	-12.2085
recycling	-12.2086
1340	-12.2087
spf	-12.2088
capture	-12.2089
1033	-12.2092
tires	-12.2093
627	-12.2096
competition	-12.2096
funeral	-12.2101
1014	-12.2101
taking	-12.2101
1974	-12.2102
iser	-12.2102
416	-12.2104
agents	-12.2105
3050	-12.2105
ivy	-12.2105
pearson	-12.2105
cherry	-12.2107
rewards	-12.2107
engagement	-12.2107
ethics	-12.2107
dro	-12.2108
bazar	-12.2109
vaz	-12.211
depth	-12.211
gegen	-12.211
mhlw	-12.2112
maroc	-12.2112
vacation	-12.2112
gabriel	-12.2116
1304	-12.2116
688	-12.2117
gyo	-12.2118
calidad	-12.2118
caixa	-12.2119
shou	-12.212
jazz	-12.212
aaj	-12.2121
2600	-12.2122
2!1	-12.2123
woj	-12.2123
rankings	-12.2123
globe	-12.2124
bilgi	-12.2124
zne	-12.2124
compound	-12.2124
beratung	-12.2125
glow	-12.2125
/2011	-12.2125
yuz	-12.2128
823	-12.2128
=9001	-12.2129
uts	-12.2133
filipino	-12.2133
0005	-12.2133
lah	-12.2134
estados	-12.2137
-2018/	-12.2138
wrong	-12.2138
2214	-12.2138
dokumente	-12.2139
832	-12.2139
/2022/01/	-12.214
zaman	-12.214
inline	-12.2142
회	-12.2145
mercari	-12.2146
pana	-12.2147
nal	-12.2147
koo	-12.2147
eamyayaaegl	-12.2147
teh	-12.2148
guo	-12.2149
bha	-12.2149
olive	-12.215
-75-	-12.2151
tales	-12.2151
informa	-12.2153
classe	-12.2155
wivy	-12.2155
liche	-12.2156
ike	-12.2159
dax	-12.2159
pns	-12.216
onderwijs	-12.2161
sigmaaldrich	-12.2162
olm	-12.2162
skyscanner	-12.2162
=167	-12.2163
brunch	-12.2164
1083	-12.2164
languages	-12.2164
eamyayaaegi	-12.2164
jewelry	-12.2165
programmer	-12.2165
1398	-12.2166
pdffiller	-12.2166
branco	-12.2166
bce	-12.2167
iert	-12.2168
karte	-12.2168
ross	-12.2169
nivel	-12.2169
961	-12.2169
ibqbh	-12.2171
נ	-12.2171
05-21&	-12.2171
poc	-12.2173
1901	-12.2173
pcode	-12.2174
initial	-12.2176
cis	-12.2176
categoryid	-12.2176
1280	-12.2177
mister	-12.2177
χ	-12.2177
849	-12.2177
zakon	-12.2178
部	-12.2179
institut	-12.2179
seminar	-12.2181
vare	-12.2181
plagiarism	-12.2182
2217	-12.2182
simply	-12.2182
googleadwords	-12.2183
puc	-12.2183
rib	-12.2184
contre	-12.2185
amazing	-12.2186
plex	-12.2187
mcid	-12.2187
ngon	-12.2188
istas	-12.2189
hyy	-12.219
facile	-12.219
concert	-12.219
2300	-12.219
updated	-12.2192
qmq	-12.2192
pons	-12.2192
waar	-12.2192
offerid	-12.2193
width	-12.2194
1107	-12.2197
ู	-12.22
mea	-12.22
intranet	-12.2201
·	-12.2201
thuthuat	-12.2202
งาน	-12.2202
vay	-12.2203
bottle	-12.2204
dcb	-12.2204
stem	-12.2206
2040	-12.2209
ж	-12.2209
785	-12.221
proposal	-12.2211
exterior	-12.2211
wivl	-12.2212
=22	-12.2213
cik	-12.2214
giay	-12.2214
diploma	-12.2215
practical	-12.2216
/2018/05/	-12.2219
aat	-12.2221
widget	-12.2222
kijiji	-12.2222
loire	-12.2223
imu	-12.2224
yam	-12.2225
poder	-12.2227
eze	-12.2227
lez	-12.2227
1064	-12.2228
vimeo	-12.2228
vesti	-12.2228
hye	-12.2229
37&	-12.2231
portail	-12.2233
707	-12.2234
์	-12.2234
irp	-12.2235
多	-12.2236
/2017/02/	-12.2236
ット	-12.2236
896	-12.2237
palace	-12.2237
712	-12.2238
xlx	-12.2238
/2018/08/	-12.2239
prg	-12.2239
eamyayaaegk	-12.2239
behavior	-12.2239
rvr	-12.224
aao	-12.2241
yify	-12.2241
vocabulary	-12.2242
percent	-12.2243
mond	-12.2243
1977	-12.2243
=407-132-4411&	-12.2244
sverige	-12.2245
taipei	-12.2245
avo	-12.2246
emi	-12.2246
دی	-12.2246
3060	-12.2247
765	-12.2247
1041	-12.2248
711	-12.2249
jenis	-12.2249
strand	-12.2252
gcp	-12.2252
syd	-12.2253
/10.1186/	-12.2253
murder	-12.2253
eventos	-12.2255
szo	-12.2255
melhores	-12.2255
eti	-12.2256
administracion	-12.2257
tbc	-12.2258
officer	-12.2258
igg	-12.226
場	-12.2262
pati	-12.2262
lodge	-12.2265
/2019/05/	-12.2266
argent	-12.2266
jura	-12.2266
nikon	-12.2267
pricerunner	-12.2268
2111	-12.2269
tractor	-12.2269
=728&	-12.227
ortho	-12.2271
lunch	-12.2272
amount	-12.2272
ถ	-12.2272
dropbox	-12.2273
dergipark	-12.2273
bum	-12.2274
finanz	-12.2275
posta	-12.2276
forever	-12.2276
إ	-12.2276
%253	-12.2276
bron	-12.2279
childrens	-12.2284
informatique	-12.2285
1217	-12.2286
giang	-12.2287
安	-12.2287
gutefrage	-12.2288
hbm	-12.2288
vlc	-12.2288
svar	-12.2288
centros	-12.2288
nty	-12.2288
senza	-12.2289
transformation	-12.2291
jtm	-12.2292
lmah	-12.2293
agu	-12.2295
elearning	-12.2296
업	-12.2296
718	-12.2296
1230	-12.2297
jysk	-12.2298
feedback	-12.2298
/2018/01/	-12.23
/2019/07/	-12.2301
visualstudio	-12.2301
zroc	-12.2302
mfg	-12.2302
beef	-12.2305
peng	-12.2305
heaven	-12.2305
normativa	-12.2307
hyu	-12.2307
kvk	-12.2308
certified	-12.2309
=150	-12.2309
فیلم	-12.2311
erkek	-12.2312
estilo	-12.2312
ذ	-12.2313
cni	-12.2314
izi	-12.2314
chill	-12.2315
facial	-12.2315
1409	-12.2316
ά	-12.2316
wivf	-12.2317
showtopic	-12.2317
qwg	-12.2318
arka	-12.2319
726	-12.232
vrt	-12.232
2050	-12.232
mdq	-12.2321
rete	-12.2321
ون	-12.2321
kxoc	-12.2322
voltage	-12.2323
saving	-12.2329
helpx	-12.2329
=20&	-12.2329
1414	-12.2329
gama	-12.233
unknown	-12.233
seite	-12.2331
ula	-12.2331
eki	-12.2331
ecole	-12.2332
romania	-12.2333
satilik	-12.2334
/2016/10/	-12.2335
872	-12.2336
617&	-12.2336
gub	-12.2339
angebot	-12.2339
episodio	-12.2339
ropa	-12.2339
1909	-12.234
integra	-12.2341
/2018/10/	-12.2341
848	-12.2342
zin	-12.2343
onsem	-12.2343
swe	-12.2344
cerca	-12.2344
miguel	-12.2345
pengertian	-12.2345
radi	-12.2347
sdn	-12.2348
ssi	-12.2348
andreas	-12.2348
akakce	-12.2348
metall	-12.2349
zny	-12.2351
electrolux	-12.2352
udg	-12.2353
cotton	-12.2354
bdf	-12.2354
joseph	-12.2355
edd	-12.2355
ш	-12.2356
=1031	-12.2356
1108	-12.2357
kast	-12.2357
garcia	-12.2358
wpf	-12.2358
machinery	-12.2359
beam	-12.2359
nzi	-12.236
francaise	-12.236
aah	-12.236
00-20&	-12.2361
boobs	-12.2362
704	-12.2363
-101-	-12.2367
pnp	-12.2367
vuc	-12.2367
njy	-12.2368
二	-12.2369
ello	-12.237
refresh	-12.237
ilk	-12.2371
adores	-12.2371
cem	-12.2377
ladies	-12.2377
=11&	-12.2377
892	-12.2378
1809	-12.2379
miljo	-12.2379
dbf	-12.238
tico	-12.238
1940	-12.2381
1086	-12.2382
加	-12.2383
zxoc	-12.2384
njc	-12.2384
timest	-12.2385
/2017/11/	-12.2385
522	-12.2386
portale	-12.2386
ulo	-12.2386
processo	-12.2387
alexander	-12.2388
styles	-12.2389
charging	-12.2389
jumbo	-12.2392
uur	-12.2392
9%8	-12.2393
nych	-12.2394
closed	-12.2395
/2014/	-12.2396
owo	-12.2396
islands	-12.2398
1830	-12.2399
แ	-12.24
gadget	-12.24
ecb	-12.2401
dbc	-12.2402
/2018/11/	-12.2405
penal	-12.2405
1966	-12.2405
few	-12.2406
rpp	-12.2406
050	-12.2406
workers	-12.2407
tyre	-12.2409
kala	-12.2409
nutri	-12.2409
lgw	-12.2411
tica	-12.2412
klasse	-12.2412
zoeken	-12.2413
carolina	-12.2414
wagen	-12.2416
=155	-12.2416
rainbow	-12.2417
/2010	-12.2417
1905	-12.2418
μ	-12.2419
authority	-12.242
dublin	-12.2421
hxoc	-12.2421
wizard	-12.2422
ajax	-12.2422
removal	-12.2422
614	-12.2422
telefono	-12.2423
jog	-12.2423
teri	-12.2424
offset	-12.2424
-31-	-12.2427
fibre	-12.2427
الأ	-12.2429
1249	-12.2429
kau	-12.2429
temple	-12.243
filmi	-12.2432
naka	-12.2432
glen	-12.2434
qroc	-12.2434
julia	-12.2435
الع	-12.2435
1204	-12.2435
flora	-12.2436
1229	-12.2437
939	-12.2438
lvl	-12.2438
vou	-12.2438
holm	-12.2439
mawdoo	-12.2439
spiegel	-12.2439
697	-12.2439
4001	-12.2441
hcl	-12.2442
formacion	-12.2442
=9&	-12.2445
858	-12.2445
editing	-12.2446
keuken	-12.2447
vendre	-12.2449
gris	-12.245
cle	-12.245
_2=	-12.2451
ы	-12.2452
dda	-12.2452
troc	-12.2453
austria	-12.2454
verify	-12.2455
scheda	-12.2455
treccani	-12.2456
odm	-12.246
1380	-12.246
fran	-12.2462
0101	-12.2463
nza	-12.2463
1314	-12.2463
最	-12.2465
meetings	-12.2466
φ	-12.2466
broc	-12.2467
nero	-12.2469
torino	-12.2469
moa	-12.2469
hyz	-12.2469
ilan	-12.247
~~	-12.247
1964	-12.247
/2019/08/	-12.2471
aaaa	-12.2472
morning	-12.2475
84&	-12.2475
dart	-12.2477
kro	-12.2477
392	-12.2477
1120	-12.2479
mdy	-12.2479
912	-12.248
681	-12.2481
1311	-12.2482
975	-12.2483
1330	-12.2484
restore	-12.2484
catering	-12.2485
924	-12.2485
ester	-12.2486
nil	-12.2486
smallbusiness	-12.2489
bli	-12.2489
/2017/10/	-12.2489
781	-12.249
/2006	-12.2492
prom	-12.2494
deces	-12.2496
1002	-12.2497
サ	-12.2498
contrat	-12.2499
ра	-12.25
verwaltung	-12.2501
624	-12.2501
myaccount	-12.2502
557	-12.2502
webapps	-12.2503
psico	-12.2503
894	-12.2503
/2017/12/	-12.2503
cliente	-12.2504
1113	-12.2505
hoteles	-12.2506
extensions	-12.2506
luac	-12.2506
lider	-12.2506
shp	-12.2507
within	-12.2507
juu	-12.2508
oneplus	-12.2508
734	-12.2508
haberler	-12.2509
1980	-12.251
exit	-12.251
1336	-12.2512
tika	-12.2513
aplicaciones	-12.2513
845	-12.2513
nodeid	-12.2513
1313	-12.2514
killer	-12.2515
singer	-12.2518
batch	-12.252
laserjet	-12.2522
국	-12.2522
arg	-12.2524
pred	-12.2525
creed	-12.2525
=9069	-12.2525
tif	-12.2526
용	-12.2526
色	-12.2527
odc	-12.2527
056	-12.2528
illo	-12.2529
systeme	-12.253
err	-12.2531
ture	-12.2531
933	-12.2531
xboc	-12.2532
tsid	-12.2533
washing	-12.2533
utu	-12.2534
932	-12.2534
curr	-12.2534
vey	-12.2535
txtgostdde	-12.2536
道	-12.2536
juice	-12.2536
1140	-12.2538
터	-12.2539
-115	-12.254
ecco	-12.2543
879	-12.2543
1965	-12.2545
sarah	-12.2545
wonen	-12.2545
accion	-12.2546
ywn	-12.2546
digikey	-12.2547
baum	-12.2547
suy	-12.2548
czesci	-12.2548
گ	-12.255
miner	-12.2552
chosun	-12.2552
violet	-12.2555
1906	-12.2558
rata	-12.2558
apr	-12.2558
bubble	-12.256
mujeres	-12.256
peer	-12.256
aura	-12.256
4500	-12.2562
luv	-12.2562
1116	-12.2565
通	-12.2565
isshow	-12.2565
cole	-12.2566
nurxxx	-12.2567
raad	-12.2568
sue	-12.2568
npm	-12.2569
affairs	-12.2569
naz	-12.257
econ	-12.257
afegj	-12.2571
dfw	-12.2571
ο	-12.2573
sens	-12.2573
és	-12.2573
061&	-12.2573
academics	-12.2574
可	-12.2574
jackson	-12.2574
dtl	-12.2575
1350	-12.2575
jboc	-12.2576
geschichte	-12.2577
parker	-12.2579
ratings	-12.258
qzg	-12.258
contrato	-12.2581
pus	-12.2583
hits	-12.2583
音	-12.2586
721	-12.2587
crf	-12.2587
jira	-12.2588
hollywood	-12.2588
"}	-12.2588
strength	-12.2588
ddf	-12.259
jyw	-12.2591
dnd	-12.2593
uel	-12.2593
eaayasaaegiz	-12.2594
032	-12.2595
ма	-12.2598
kiwi	-12.26
labo	-12.26
precios	-12.2602
%9	-12.2604
807	-12.2605
zboc	-12.2606
faces	-12.2609
audience	-12.261
1007	-12.261
ი	-12.2611
1136	-12.2612
codice	-12.2613
preparation	-12.2613
facility	-12.2613
1168	-12.2613
timer	-12.2614
ulm	-12.2614
isch	-12.2615
poy	-12.2616
develop	-12.262
aktion	-12.2621
lazi	-12.2621
owanie	-12.2621
infra	-12.2622
1306	-12.2622
pregnancy	-12.2622
vine	-12.2622
oman	-12.2622
eaayasaaegky	-12.2623
berry	-12.2624
正	-12.2625
dirty	-12.2625
/127	-12.2625
1214	-12.2627
nate	-12.2628
vboc	-12.2628
indicator	-12.2629
volta	-12.263
3090	-12.263
banque	-12.2631
wur	-12.2632
lagu	-12.2634
tekno	-12.2635
1271	-12.2637
everyday	-12.2637
zzo	-12.2637
fait	-12.2637
yut	-12.2638
イン	-12.2638
covers	-12.2639
lle	-12.264
sana	-12.264
xxoc	-12.2641
ulu	-12.2642
725	-12.2642
wboc	-12.2642
1053	-12.2642
pbs	-12.2643
pala	-12.2644
wivq	-12.2644
weibo	-12.2644
1650	-12.2645
891	-12.2647
া	-12.2649
gig	-12.2649
822	-12.265
법	-12.2651
proceso	-12.2652
cnblogs	-12.2653
corriere	-12.2655
837	-12.2655
wtf	-12.2656
ties	-12.2657
1317	-12.2658
soap	-12.2661
ikan	-12.2661
kwrd	-12.2661
blockpage	-12.2662
idade	-12.2663
actions	-12.2663
searchtext	-12.2664
takes	-12.2664
illustrator	-12.2664
rtv	-12.2666
集	-12.2667
1407	-12.2667
mhy	-12.2668
eaayasaaegjz	-12.2669
nyt	-12.2669
vxoc	-12.267
eaayasaaegiy	-12.2671
meine	-12.2672
summit	-12.2674
alternatives	-12.2675
hund	-12.2676
パ	-12.2677
useful	-12.2678
hva	-12.2678
syllabus	-12.2679
khy	-12.2682
kva	-12.2683
gee	-12.2683
aae	-12.2684
duck	-12.2684
lsw	-12.2685
autotrader	-12.2685
/149	-12.2685
iec	-12.2685
bui	-12.2685
queensland	-12.2686
1308	-12.2687
tnhh	-12.2688
wordwall	-12.2688
rbc	-12.2689
jobb	-12.2689
barra	-12.269
camper	-12.2691
baja	-12.2692
日本	-12.2692
ibq	-12.2696
373&	-12.2696
zzz	-12.2697
1040	-12.2697
863	-12.27
ี	-12.2702
globalassets	-12.2703
cycling	-12.2705
/2017/09/	-12.2705
bbm	-12.2706
measure	-12.2706
paradise	-12.2706
tcg	-12.2708
nitro	-12.2708
lda	-12.271
butter	-12.2711
registry	-12.2713
elf	-12.2714
-137	-12.2715
uga	-12.2715
clothes	-12.2716
construccion	-12.2718
691	-12.2718
ymf	-12.2719
calls	-12.2719
qxoc	-12.272
recommend	-12.2724
eef	-12.2726
cookies	-12.2728
cue	-12.2728
klub	-12.2728
prove	-12.2728
aha	-12.2729
smu	-12.2729
071	-12.273
mso	-12.273
analyst	-12.2731
avr	-12.2731
vega	-12.2732
rechner	-12.2733
1093	-12.2735
1201	-12.2737
1329	-12.2737
hyq	-12.2737
zelf	-12.2738
zgv	-12.2739
kie	-12.274
804	-12.2742
eaayasaaegkz	-12.2742
leisure	-12.2742
sweden	-12.2744
719	-12.2745
表	-12.2745
00000000	-12.2746
goz	-12.2746
npmjs	-12.2746
vlaanderen	-12.2748
pendidikan	-12.2748
fod	-12.2749
heater	-12.2749
α	-12.2749
ones	-12.275
rts	-12.275
ageverification	-12.2751
tram	-12.2754
tian	-12.2754
hyo	-12.2756
ems	-12.2757
1180	-12.276
jol	-12.2762
tpm	-12.2762
implement	-12.2762
：	-12.2763
transaction	-12.2763
csr	-12.2763
uzy	-12.2764
vragen	-12.2765
mzi	-12.2766
byg	-12.2766
sio	-12.2766
abroad	-12.2766
smoke	-12.2767
hik	-12.2769
brake	-12.277
aqui	-12.277
!8468!3!5	-12.2771
노	-12.2772
dfb	-12.2773
cbb	-12.2773
1302	-12.2774
/142	-12.2775
tableau	-12.2775
affinity	-12.2775
rightmove	-12.2776
_5_	-12.2776
818	-12.2776
clients	-12.2776
wmls	-12.2777
xroc	-12.2778
dome	-12.2778
petite	-12.2779
vessel	-12.2779
particulier	-12.278
annonce	-12.2782
viewkey	-12.2784
parcel	-12.2784
hia	-12.2784
1902	-12.2785
pioneer	-12.2787
spr	-12.2788
huge	-12.2789
η	-12.2789
sociale	-12.2789
kht	-12.2789
smartwatch	-12.2792
funny	-12.2792
ziv	-12.2795
695	-12.2796
makita	-12.2797
holy	-12.2798
parliament	-12.2799
063	-12.2799
kenh	-12.28
bowl	-12.2801
dublaj	-12.2802
voc	-12.2806
batterie	-12.2806
書	-12.2808
xiao	-12.2808
industrie	-12.2808
yar	-12.2808
eaayasaaegkj	-12.2809
/2016/12/	-12.2812
parameter	-12.2814
adora	-12.2814
lage	-12.2814
listen	-12.2816
zeg	-12.2816
כ	-12.2817
boxes	-12.2817
ndl	-12.2819
brook	-12.2822
aviation	-12.2822
sight	-12.2822
jlmah	-12.2822
lls	-12.2823
ा	-12.2823
powerbi	-12.2825
/165	-12.2825
istcompany	-12.2827
794	-12.2827
across	-12.2828
eaayasaaeglx	-12.2829
quelle	-12.2829
playing	-12.2829
mona	-12.2829
decimal	-12.283
andrea	-12.283
theqoo	-12.2831
100.	-12.2831
839	-12.2832
hroc	-12.2832
inha	-12.2832
fay	-12.2833
791	-12.2833
iere	-12.2833
jie	-12.2835
943	-12.2836
1399	-12.2838
824	-12.2838
324	-12.2842
rul	-12.2843
invite	-12.2843
1020	-12.2843
leaked	-12.2845
jyu	-12.2845
eaayasaaegjj	-12.2847
riot	-12.2848
ό	-12.2849
because	-12.2849
chateau	-12.285
=1262	-12.285
053	-12.2851
pwn	-12.2851
logi	-12.2851
traduzione	-12.2851
8752&	-12.2851
horror	-12.2852
lean	-12.2853
=135	-12.2854
blok	-12.2854
eaqybcabegj	-12.2854
sapo	-12.2855
vungoi	-12.2855
eaayasaaeglq	-12.2856
/2018/04/	-12.2856
tomshardware	-12.2857
biomedcentral	-12.2857
livres	-12.2858
1815	-12.2858
ltda	-12.2858
eaayasaaeglz	-12.2859
telekom	-12.286
xdq	-12.286
medien	-12.286
oko	-12.2861
artykuly	-12.2861
direction	-12.2861
cmt	-12.2862
812	-12.2862
doing	-12.2862
druk	-12.2862
taxes	-12.2863
hys	-12.2863
lci	-12.2864
fcd	-12.2864
fxoc	-12.2864
▁pro	-12.2864
cardio	-12.2865
tix	-12.2866
eaayasaaegix	-12.2866
1260	-12.2867
chase	-12.2867
priser	-12.2868
-145	-12.2869
eaayasaaegjx	-12.2869
worlds	-12.2871
/2018/09/	-12.2871
oidc	-12.2871
eaayasaaegkx	-12.2872
=15&	-12.2873
kana	-12.2876
tijd	-12.2876
1309	-12.2879
kaufland	-12.2879
certificado	-12.288
wixsite	-12.288
dept	-12.2881
mggiabcabbcxazi	-12.2881
tys	-12.2882
bread	-12.2882
7500	-12.2882
onia	-12.2882
ccm	-12.2883
2112	-12.2883
aee	-12.2884
phys	-12.2884
krem	-12.2884
heren	-12.2885
levels	-12.2886
1377	-12.2886
vroc	-12.2888
matters	-12.2891
drawing	-12.2892
celeb	-12.2896
reno	-12.2899
recover	-12.2899
-65-	-12.2899
traditional	-12.29
relation	-12.2901
alpes	-12.2902
nasa	-12.2902
july	-12.2902
803	-12.2903
gobierno	-12.2903
/2016/03/	-12.2903
conflict	-12.2903
ctype	-12.2905
verb	-12.2905
1345	-12.2905
dice	-12.2906
1213	-12.2907
=9041	-12.2907
3400	-12.2908
consult	-12.2909
adm	-12.291
++	-12.2913
drum	-12.2913
uxoc	-12.2913
/2019/04/	-12.2914
eaayasaaegij	-12.2914
-404	-12.2916
2019.	-12.2917
ricette	-12.292
saas	-12.292
leyes	-12.2921
1036	-12.2923
bek	-12.2923
beginner	-12.2923
beau	-12.2924
exi	-12.2924
iqjzihccmq	-12.2925
thinking	-12.2925
glosbe	-12.2925
holder	-12.2925
etter	-12.2925
yumpu	-12.2926
eclipse	-12.2926
libero	-12.2927
zij	-12.2929
κ	-12.293
postal	-12.2932
sion	-12.2932
ranger	-12.2932
260&	-12.2932
ables	-12.2935
portuguese	-12.2938
psych	-12.2938
ime	-12.2939
dbb	-12.2939
2042	-12.2939
tecnicas	-12.2939
taimienphi	-12.294
yzy	-12.2943
2020/	-12.2944
dina	-12.2944
minimum	-12.2944
eaayasaaegjy	-12.2944
1408	-12.2946
realme	-12.2948
dawn	-12.2949
계	-12.2949
1290	-12.295
partir	-12.2951
yxj	-12.2951
patterns	-12.2951
2035	-12.2953
filiale	-12.2953
1305	-12.2954
kopen	-12.2954
copper	-12.2955
779	-12.2956
ppp	-12.2956
chapters	-12.2957
hse	-12.2958
michel	-12.2959
mji	-12.2959
riu	-12.2959
jtg	-12.2963
sitio	-12.2964
テ	-12.2964
equal	-12.2964
1801	-12.2966
builders	-12.2966
jalan	-12.2967
vendor	-12.2967
weixin	-12.2968
wsj	-12.2969
nbhcrarisacgaiqx	-12.2969
giz	-12.2969
1128	-12.2969
foo	-12.297
eaqybcabegi	-12.2971
857	-12.2971
pmwiki	-12.2972
1494	-12.2974
caja	-12.2974
begin	-12.2974
slo	-12.2975
slave	-12.2976
hee	-12.2977
xllmnvbs	-12.2977
zte	-12.2978
lud	-12.2978
xoa	-12.2981
supermarket	-12.2981
tani	-12.2982
741	-12.2982
1054	-12.2983
mjc	-12.2983
danmark	-12.2983
1160	-12.2984
deeplink	-12.2984
smo	-12.2985
1186	-12.2986
cooper	-12.2986
flooring	-12.299
icy	-12.2991
tiene	-12.2992
seis	-12.2992
sneakers	-12.2992
vtp	-12.2993
factors	-12.2993
mtu	-12.2993
georgia	-12.2993
loe	-12.2993
1804	-12.2993
tourist	-12.2993
1185	-12.2994
liebe	-12.2994
poem	-12.2995
1348	-12.2995
yaku	-12.2997
fundamentals	-12.2999
finanzen	-12.3
articolo	-12.3
-2019.	-12.3002
1071	-12.3002
0;	-12.3003
200&	-12.3003
earn	-12.3004
kelly	-12.3005
novembre	-12.3005
interna	-12.3005
cylex	-12.3006
超	-12.3008
pratique	-12.3008
regulation	-12.3009
04&	-12.3009
veri	-12.301
-03-	-12.3012
rui	-12.3012
tattoo	-12.3012
sont	-12.3013
dbt	-12.3016
technopat	-12.3017
mzu	-12.3018
1129	-12.3019
nsp	-12.3019
=175	-12.3019
raum	-12.302
-2000-	-12.3022
ooo	-12.3023
mjm	-12.3023
876	-12.3023
prospecting	-12.3024
ре	-12.3025
medic	-12.3025
hilton	-12.3028
gdp	-12.3028
newton	-12.303
1151	-12.303
-600	-12.3032
":["	-12.3032
oje	-12.3033
quyen	-12.3035
cure	-12.3036
ไทย	-12.3036
bisnis	-12.3036
rtc	-12.3036
braun	-12.3037
marcas	-12.3039
idol	-12.3039
wwf	-12.304
byt	-12.304
885	-12.3042
qiu	-12.3043
hook	-12.3044
/2019/02/	-12.3045
/2017/01/	-12.3046
rys	-12.3046
schneider	-12.3047
851	-12.3047
logos	-12.3047
searchtype	-12.3047
detect	-12.3047
miya	-12.3048
quer	-12.3048
/137	-12.3048
▁sale	-12.3052
sierra	-12.3053
bdsm	-12.3053
ール	-12.3054
mts	-12.3054
=161	-12.3054
wivs	-12.3054
่	-12.3054
1392	-12.3055
firewall	-12.3055
wxoc	-12.3055
치	-12.3057
horizontal	-12.306
traducao	-12.306
ambiental	-12.3061
parallel	-12.3064
casio	-12.3064
nyh	-12.3067
tarif	-12.3067
uyu	-12.3067
suspension	-12.3068
boston	-12.3069
1939	-12.3069
samo	-12.3072
/2018/02/	-12.3073
1420	-12.3074
lara	-12.3075
applied	-12.3075
proff	-12.3075
764	-12.3076
vot	-12.3076
soi	-12.3078
nikkei	-12.3079
kxh	-12.308
solidworks	-12.3082
mock	-12.3082
nrk	-12.3082
ricardo	-12.3083
nite	-12.3083
organizations	-12.3083
themeid	-12.3083
frontiersin	-12.3086
undefined	-12.3088
dzie	-12.3088
يل	-12.3089
morgan	-12.3089
acf	-12.309
drill	-12.3091
lep	-12.3091
gag	-12.3092
mop	-12.3092
jez	-12.3093
lun	-12.3094
brian	-12.3096
1225	-12.3096
يا	-12.3096
656&	-12.3101
awareness	-12.3101
patents	-12.3101
accuweather	-12.3101
karten	-12.3102
eaayasaaegjq	-12.3103
wallpapers	-12.3103
aroma	-12.3104
buh	-12.3104
qboc	-12.3105
psn	-12.3105
mich	-12.3106
luo	-12.3107
albums	-12.3108
/225	-12.3108
cce	-12.3108
bagmeae	-12.311
angeles	-12.311
commentcamarche	-12.311
activation	-12.3111
alg	-12.3111
silva	-12.3112
hag	-12.3112
mile	-12.3114
-144	-12.3114
boz	-12.3115
zza	-12.3115
pmk	-12.3115
baz	-12.3116
852	-12.3118
tabela	-12.3119
zdf	-12.3119
konto	-12.3119
/2016/09/	-12.312
npr	-12.3121
mmsi	-12.3122
chez	-12.3122
memorial	-12.3122
eaayasaaeglj	-12.3123
twinkl	-12.3123
cairn	-12.3126
maal	-12.3127
ojo	-12.3128
sunday	-12.3128
capacity	-12.3128
gxoc	-12.3128
nig	-12.3129
こ	-12.3129
amb	-12.313
hln	-12.313
magyar	-12.313
servis	-12.313
quad	-12.3131
stil	-12.3131
ijo	-12.3134
nombre	-12.3134
vek	-12.3134
/404	-12.3135
suit	-12.3135
eaayasaaeglw	-12.3135
ern	-12.3136
wyw	-12.3136
dav	-12.3138
wis	-12.3138
judicial	-12.3138
eleconomista	-12.3139
jek	-12.3139
lund	-12.3139
perfil	-12.3141
pari	-12.3142
ebf	-12.3143
wivr	-12.3144
pvp	-12.3145
ryo	-12.3146
ipv	-12.3146
licence	-12.3146
β	-12.315
-05-	-12.3151
1505	-12.3151
wohnung	-12.3151
教	-12.3151
bund	-12.3151
ça	-12.3151
informationen	-12.3154
drone	-12.3154
kingston	-12.3155
ome	-12.3156
eaayasaaegjw	-12.3158
greece	-12.316
marktplaats	-12.3161
826	-12.3165
1416	-12.3165
worker	-12.3166
juri	-12.3166
1484	-12.3166
/164	-12.3166
1395	-12.3166
efa	-12.3166
tyres	-12.3167
poll	-12.3167
elizabeth	-12.3167
cnbc	-12.3168
boj	-12.3168
trio	-12.3169
rwd	-12.317
obituary	-12.317
zwn	-12.317
oud	-12.317
loft	-12.3171
bxoc	-12.3172
ogu	-12.3173
ntg	-12.3173
cheese	-12.3174
avg	-12.3175
anexo	-12.3176
zew	-12.3177
yol	-12.3177
iwl	-12.3178
textbook	-12.3178
mbc	-12.3178
lewis	-12.3181
913	-12.3184
mise	-12.3184
kroc	-12.3184
ndu	-12.3185
subcategory	-12.3186
pxoc	-12.3191
extended	-12.3191
juz	-12.3192
khv	-12.3192
miller	-12.3193
plumbing	-12.3193
vacances	-12.3195
ă	-12.3196
afb	-12.3196
1228	-12.3199
nieuw	-12.3201
koch	-12.3201
actividades	-12.3203
-480	-12.3204
astrology	-12.3205
libraries	-12.3206
ucu	-12.3207
rocz	-12.3209
geni	-12.3209
bboc	-12.3209
/2017/06/	-12.3211
poste	-12.3211
herz	-12.3212
1114	-12.3212
1321	-12.3214
friendly	-12.3214
λ	-12.3215
mots	-12.3215
nce	-12.3215
wpk	-12.3215
1608	-12.3215
▁ال	-12.3218
evg	-12.322
koku	-12.3223
pneus	-12.3223
aircraft	-12.3225
atencion	-12.3227
aef	-12.3228
hij	-12.3228
1323	-12.3229
2028	-12.3229
bnn	-12.3229
eaayasaaegiq	-12.323
quyet	-12.3231
wvw	-12.3232
saramin	-12.3232
anno	-12.3233
petro	-12.3233
hyderabad	-12.3233
leak	-12.3235
eaayasaaegly	-12.3235
degrees	-12.3236
zdy	-12.3237
1610	-12.3237
scout	-12.3237
/140	-12.3238
docu	-12.324
rub	-12.324
sole	-12.3241
gruppe	-12.3241
zmz	-12.3242
aut	-12.3242
zjq	-12.3243
thieu	-12.3243
jpn	-12.3243
yhoc	-12.3243
mje	-12.3244
chelsea	-12.3244
ybh	-12.3246
jwq	-12.3247
tbm	-12.3247
erie	-12.3247
popularposts	-12.3247
1068	-12.3248
azioni	-12.3248
aia	-12.3248
modulo	-12.325
maha	-12.3251
commons	-12.3252
992	-12.3253
retirement	-12.3255
cdf	-12.3256
nhac	-12.3256
hep	-12.3257
xxi	-12.3258
baru	-12.3258
1240	-12.3261
crunchyroll	-12.3261
–	-12.3261
=165	-12.3262
kaart	-12.3262
firebase	-12.3262
komp	-12.3263
futuro	-12.3263
voo	-12.3264
xocx	-12.3265
nasional	-12.3266
ول	-12.3267
valid	-12.3269
shan	-12.3269
wod	-12.3269
mfc	-12.3269
customs	-12.3271
etre	-12.3273
uboc	-12.3273
011&	-12.3274
pek	-12.3274
architect	-12.3274
zahlen	-12.3275
sted	-12.3275
916	-12.3275
1103	-12.3276
時	-12.3278
canli	-12.3278
1590	-12.3278
dokumen	-12.3278
andrew	-12.328
aktien	-12.3281
unidades	-12.3283
jcr	-12.3285
ceramic	-12.3286
aboutyou	-12.3286
3100	-12.3286
มา	-12.3288
sari	-12.3292
dump	-12.3292
王	-12.3293
者	-12.3294
haut	-12.3294
comunicacion	-12.3297
idcampanha	-12.3298
lcl	-12.3298
alia	-12.3298
1366	-12.3298
whirlpool	-12.33
gestao	-12.3301
incest	-12.3303
subformato	-12.3304
finger	-12.3305
rocks	-12.3307
07&	-12.3307
ncc	-12.3308
yroc	-12.3308
0014	-12.3309
marriott	-12.3309
wordhippo	-12.331
mbm	-12.331
بي	-12.3312
wert	-12.3315
1812	-12.3315
8-21&	-12.3315
-2011-	-12.3316
무	-12.3316
ט	-12.3316
kus	-12.3317
2564	-12.3318
accept	-12.3318
soe	-12.332
sito	-12.3321
mongodb	-12.3322
speaking	-12.3324
ní	-12.3324
prt	-12.3326
businesses	-12.3326
tku	-12.3327
8;	-12.3327
1870	-12.3328
cidade	-12.3329
/158	-12.3331
1316	-12.3332
blowjob	-12.3334
reifen	-12.3336
political	-12.3336
levi	-12.3339
owners	-12.3339
picks	-12.334
fboc	-12.334
dani	-12.3341
=1250	-12.3341
ppn	-12.3342
brico	-12.3342
grass	-12.3344
=5649908	-12.3347
3004	-12.3347
emplois	-12.3347
878	-12.3349
/2019/06/	-12.335
called	-12.3351
=8&	-12.3351
criteria	-12.3351
usu	-12.3353
eaayasaaegih	-12.3354
لا	-12.3357
1411	-12.3359
/167	-12.336
wpcid	-12.3361
855	-12.3362
izz	-12.3362
-419	-12.3362
sofia	-12.3362
manila	-12.3362
tari	-12.3362
eaayasaaegku	-12.3366
dcc	-12.3366
ความ	-12.3367
vape	-12.3368
mdc	-12.3368
grup	-12.3368
stations	-12.3368
tuy	-12.3369
customers	-12.3369
placa	-12.337
-2000	-12.3371
952	-12.3371
eaayasaaegjk	-12.3371
eow	-12.3374
š	-12.3375
kboc	-12.3376
yxoc	-12.3376
significado	-12.3379
airline	-12.3381
zlo	-12.3381
jobstreet	-12.3383
dollar	-12.3384
cera	-12.3385
_100	-12.3385
curve	-12.3386
مر	-12.3387
nail	-12.3388
1607	-12.339
odu	-12.339
yue	-12.3391
▁pc	-12.3392
trump	-12.3393
romantic	-12.3394
elmundo	-12.3395
employer	-12.3395
1953	-12.3395
好	-12.3396
vei	-12.3397
families	-12.3397
electron	-12.3397
consultant	-12.3397
1155	-12.3398
1119	-12.3398
2031	-12.3398
something	-12.3399
nxoc	-12.3399
ancestry	-12.3399
nacht	-12.3399
brothers	-12.34
ington	-12.3401
dbs	-12.3402
080	-12.3403
axe	-12.3403
11000	-12.3405
dcd	-12.3405
eaqybcabegk	-12.3406
vite	-12.3406
planes	-12.3406
1604	-12.3407
notification	-12.3408
zxj	-12.3408
ksp	-12.3409
3070	-12.341
bocx	-12.341
eqgueiaeelede	-12.3412
利	-12.3412
gpla	-12.3415
eaayasaaegjh	-12.3417
survival	-12.3419
1296	-12.3419
1049	-12.342
mta	-12.3421
notas	-12.3422
eab	-12.3423
mcu	-12.3423
/161	-12.3424
mroc	-12.3425
prueba	-12.3428
eaqybcabegl	-12.3428
guns	-12.3429
031&	-12.343
э	-12.3431
花	-12.3431
1178	-12.3432
oog	-12.3432
/157	-12.3432
1617	-12.3434
kamer	-12.3435
1137	-12.3435
934	-12.3435
zine	-12.3437
mort	-12.3437
njk	-12.3438
1144	-12.3438
erne	-12.3438
yong	-12.344
eaayasaaegkq	-12.3442
2024	-12.3442
kenya	-12.3443
士	-12.3444
anatomy	-12.3445
teste	-12.3445
rkl	-12.3446
1297	-12.3447
receita	-12.3447
wcs	-12.3447
長	-12.3448
uhr	-12.3448
validation	-12.3448
anima	-12.3449
skal	-12.345
movement	-12.345
failure	-12.3451
005&	-12.3453
meny	-12.3453
iyo	-12.3453
lore	-12.3453
origen	-12.3453
-126	-12.3453
novi	-12.3455
calculators	-12.3459
zil	-12.3459
numeros	-12.346
937	-12.346
ency	-12.3461
mok	-12.3462
tym	-12.3463
dff	-12.3465
tep	-12.3466
/2018/06/	-12.3466
unite	-12.3467
1660	-12.3467
chance	-12.347
handler	-12.347
eaayasaaegkk	-12.3471
3008	-12.3472
sung	-12.3475
september	-12.3477
customid	-12.3479
jhoc	-12.348
daddy	-12.348
oxa	-12.348
主	-12.348
contenidos	-12.348
bari	-12.3481
ucl	-12.3481
те	-12.3483
enia	-12.3483
hbv	-12.3483
hiro	-12.3484
loh	-12.3485
behandling	-12.3486
allo	-12.3488
/2018/12/	-12.3488
743	-12.3488
roe	-12.3489
1920	-12.349
deli	-12.3491
1246	-12.3493
util	-12.3493
あ	-12.3493
transparent	-12.3493
wzx	-12.3493
755	-12.3495
路	-12.3496
jum	-12.3497
locphy	-12.3498
khoan	-12.3499
▁word	-12.3499
drives	-12.35
eaayasaaegkh	-12.3501
ctx	-12.3503
1912	-12.3504
emo	-12.3507
-102	-12.3507
skipapp	-12.3509
toshiba	-12.3511
natale	-12.3512
jyo	-12.3512
/208	-12.3512
railway	-12.3512
pune	-12.3513
sbi	-12.3514
queue	-12.3516
ズ	-12.3517
zmq	-12.3517
9%	-12.3519
loader	-12.3521
1908	-12.3522
ying	-12.3522
chaturbate	-12.3522
3080	-12.3523
1730	-12.3524
grants	-12.3524
815	-12.3524
ncr	-12.3524
cosmetics	-12.3524
structures	-12.3527
hawk	-12.353
918	-12.353
yyw	-12.353
khs	-12.353
symbols	-12.3531
hwa	-12.3532
7-8	-12.3532
complet	-12.3532
problema	-12.3533
edmonton	-12.3535
828	-12.3536
dtp	-12.3537
prison	-12.3538
sfdc	-12.3538
perform	-12.3538
ndm	-12.3539
jewellery	-12.3539
privatkunden	-12.3539
securite	-12.3539
xts	-12.3539
1918	-12.354
ull	-12.354
lies	-12.3541
esse	-12.3541
potential	-12.3542
9%84%	-12.3543
kzs	-12.3546
jud	-12.3547
tej	-12.3547
nroc	-12.3551
puo	-12.3552
1485	-12.3552
virginia	-12.3552
ugu	-12.3553
rechts	-12.3556
unlimited	-12.3557
materiales	-12.3557
fiets	-12.3557
-170	-12.3558
1028	-12.3559
7005	-12.3561
bocy	-12.3564
handleiding	-12.3565
anu	-12.3566
mxoc	-12.3567
definitions	-12.3567
reform	-12.3568
856	-12.357
=1028	-12.3571
infos	-12.3571
blind	-12.3572
eaayasaaeglh	-12.3574
bhd	-12.3574
را	-12.3575
species	-12.3575
kard	-12.3576
toon	-12.3576
voll	-12.358
shore	-12.358
tcl	-12.3581
jogo	-12.3581
linh	-12.3581
062	-12.3581
ート	-12.3581
espresso	-12.3582
fug	-12.3582
eaayasaaegjl	-12.3583
acceso	-12.3583
guc	-12.3584
wake	-12.3584
eaf	-12.3585
oferty	-12.3585
15871/	-12.3585
=1010746	-12.3588
kadin	-12.3588
2551	-12.359
koe	-12.359
μα	-12.3591
eaayasaaeglu	-12.3591
vix	-12.3591
eaayasaaeglk	-12.3592
2%	-12.3593
instalar	-12.3595
eaayasaaegkl	-12.3595
ntz	-12.3595
forge	-12.3595
viajes	-12.3596
▁10	-12.3597
dataset	-12.3598
baden	-12.3598
uebersicht	-12.3599
kyl	-12.3599
wilson	-12.36
programma	-12.36
msclkid	-12.3601
letra	-12.3601
laboratory	-12.3601
スト	-12.3601
dies	-12.3602
cfq	-12.3603
nigeria	-12.3603
프	-12.3603
rta	-12.3603
1009	-12.3606
1958	-12.3608
=168	-12.3608
peace	-12.3609
helse	-12.3609
cuong	-12.361
829	-12.361
oglu	-12.3612
temps	-12.3612
ytm	-12.3613
xpy	-12.3614
713	-12.3615
ガ	-12.3616
defender	-12.3616
grandes	-12.3617
eaayasaaegik	-12.3618
outside	-12.3619
formations	-12.3621
gti	-12.3621
2080	-12.3622
apres	-12.3623
bocz	-12.3625
azi	-12.3626
rroc	-12.3627
面	-12.3627
sayfa	-12.3629
1328	-12.3629
eaayasaaegkr	-12.3633
abuse	-12.3634
1917	-12.3636
pang	-12.3636
wivz	-12.3636
rix	-12.3636
تو	-12.3636
1490	-12.3637
eaayasaaegkw	-12.3637
bcn	-12.3638
corsair	-12.3639
raven	-12.3639
hboc	-12.3639
sauna	-12.3639
blackfriday	-12.364
1218	-12.364
/10.1007/	-12.364
nck	-12.3641
cka	-12.3641
=101	-12.3641
gong	-12.3641
hier	-12.3641
coursera	-12.3641
election	-12.3642
1123	-12.3642
ccd	-12.3642
umu	-12.3642
dividend	-12.3643
ible	-12.3644
buu	-12.3645
1962	-12.3645
xii	-12.3645
muster	-12.3646
vad	-12.3646
lehr	-12.3646
1219	-12.3646
平	-12.3647
efb	-12.3647
gangbang	-12.3648
taz	-12.3649
1886	-12.365
1224	-12.365
oya	-12.365
scp	-12.3652
uzi	-12.3654
1047	-12.3654
carl	-12.3654
nmah	-12.3655
istbi	-12.3656
eaayasaaegju	-12.3656
cvc	-12.3658
plano	-12.3658
moral	-12.3658
sevilla	-12.3659
viking	-12.3659
wai	-12.366
shampoo	-12.366
searchword	-12.3662
xocq	-12.3662
zwy	-12.3663
otg	-12.3663
bangladesh	-12.3664
charlotte	-12.3664
maan	-12.3665
advantage	-12.3665
educational	-12.3666
055	-12.3666
edc	-12.3666
eaayasaaegiw	-12.3667
2800	-12.3667
shed	-12.3667
경	-12.3667
roche	-12.3668
scores	-12.367
adset	-12.367
mze	-12.367
spectrum	-12.3671
lisboa	-12.3671
timber	-12.3671
agora	-12.3672
guerra	-12.3673
sine	-12.3674
lli	-12.3675
yboc	-12.3675
kee	-12.3676
reduce	-12.3677
makemytrip	-12.3677
rvch	-12.3678
erotik	-12.3678
1075	-12.3678
probleme	-12.3681
eqid	-12.3683
dana	-12.3684
syr	-12.3685
measurement	-12.3685
visitor	-12.3685
breast	-12.3686
2110	-12.3686
haku	-12.3687
diseno	-12.3687
nouveau	-12.3688
bue	-12.3689
hangi	-12.369
karta	-12.369
531&	-12.3691
tutoriales	-12.3691
wool	-12.3691
moderna	-12.3692
gboc	-12.3695
%22%3	-12.3696
leh	-12.3698
detik	-12.3698
terapia	-12.3699
2552	-12.3701
ér	-12.3703
iwa	-12.3703
protector	-12.3703
=16&	-12.3704
bench	-12.3705
labour	-12.3706
subaru	-12.3706
461&	-12.3706
purple	-12.3707
mdl	-12.3708
-29-	-12.3708
tii	-12.3709
uchi	-12.371
lug	-12.371
학	-12.3712
birds	-12.3712
lanh	-12.3714
1165	-12.3716
cht	-12.3717
buecher	-12.3717
extendoffice	-12.3718
104&	-12.3718
porter	-12.3718
copa	-12.3719
nev	-12.3719
warszawa	-12.372
/2016/06/	-12.372
enberg	-12.3721
dish	-12.3722
wctx	-12.3722
1029	-12.3723
devops	-12.3723
uses	-12.3723
ersatzteile	-12.3724
1624	-12.3724
bash	-12.3725
drinks	-12.3725
1141	-12.3725
cls	-12.3725
/2018/03/	-12.3726
reclameaqui	-12.3727
1176	-12.3727
langid	-12.3728
น้ำ	-12.3728
livros	-12.373
819	-12.373
kjo	-12.3731
buddy	-12.3732
wtrealm	-12.3732
/145	-12.3733
njg	-12.3733
emoji	-12.3735
wwiax	-12.3736
atlassian	-12.3737
81&	-12.3737
eis	-12.3738
bula	-12.3739
5600	-12.374
agence	-12.374
eight	-12.374
vault	-12.374
0030	-12.3742
0100	-12.3744
fern	-12.3744
datetime	-12.3746
accu	-12.3746
bartleby	-12.3746
1338	-12.3747
ancient	-12.3748
pens	-12.3748
qiita	-12.3748
mti	-12.3751
riv	-12.3753
postcode	-12.3754
toolkit	-12.3755
616&	-12.3755
otros	-12.3755
txoc	-12.3755
ppe	-12.3755
miles	-12.3756
kommun	-12.3757
bod	-12.3758
ไ	-12.3758
avto	-12.3759
geografia	-12.3759
1019	-12.3759
tua	-12.3761
battlefield	-12.3761
tzw	-12.3762
civic	-12.3763
1242	-12.3763
1184	-12.3763
1803	-12.3763
pornpics	-12.3764
scratch	-12.3764
upc	-12.3764
boden	-12.3764
]-[	-12.3764
dati	-12.3765
dimension	-12.3765
=102	-12.3766
anniversary	-12.3767
manufacturers	-12.3769
1688	-12.3769
unc	-12.377
stroke	-12.377
hov	-12.377
nogo	-12.3771
bolsa	-12.3772
1299	-12.3772
tpl	-12.3772
danawa	-12.3773
ם	-12.3777
nze	-12.3777
trovaprezzi	-12.3777
gim	-12.3777
fred	-12.3778
nboc	-12.3778
nbhcrarisacgaiqv	-12.3778
matematika	-12.3778
holding	-12.3779
bocq	-12.378
offices	-12.378
blockchain	-12.3781
ecf	-12.3782
keh	-12.3783
1173	-12.3783
wlk	-12.3784
screenrant	-12.3784
tique	-12.3784
00013	-12.3784
ι	-12.3784
socio	-12.3787
membuat	-12.3787
0022	-12.3787
osm	-12.3789
aav	-12.379
zfp	-12.3791
practica	-12.3792
も	-12.3793
:"	-12.3795
froc	-12.3795
techcommunity	-12.3796
oam	-12.3796
eaayasaaegll	-12.3796
真	-12.3797
tony	-12.3797
airpods	-12.3797
costs	-12.3798
patrick	-12.3799
oldu	-12.38
baseball	-12.38
libra	-12.3802
diagnostic	-12.3802
fragen	-12.3804
paga	-12.3807
白	-12.3807
ão	-12.3808
5!1	-12.3808
1436	-12.3808
=9045	-12.3809
qay	-12.3809
lwi	-12.3809
rakyat	-12.381
詞典	-12.381
pneu	-12.3811
760&	-12.3812
takealot	-12.3813
ppi	-12.3815
gain	-12.3817
localhost	-12.3817
pru	-12.3819
muse	-12.3819
elastic	-12.3819
pont	-12.3819
loz	-12.382
habitat	-12.3821
kik	-12.3822
legis	-12.3824
ywq	-12.3825
moni	-12.3826
aktualnosci	-12.3827
kant	-12.3829
girlfriend	-12.3831
1222	-12.3831
0016	-12.3832
moy	-12.3833
cke	-12.3834
sabah	-12.3835
amber	-12.3835
1318	-12.3835
eaayasaaegkg	-12.3835
1944	-12.3836
hbg	-12.3837
numer	-12.3838
0010	-12.3838
fdf	-12.3839
1209	-12.3839
madre	-12.3839
heid	-12.3839
要	-12.384
colon	-12.3841
spc	-12.3841
qzy	-12.3841
filedetails	-12.3841
100000	-12.3842
cpf	-12.3842
131&	-12.3845
ndtv	-12.3846
cks	-12.3847
1324	-12.3848
interes	-12.3849
arama	-12.385
acu	-12.3851
zyc	-12.3851
042	-12.3853
nef	-12.3855
1195	-12.3855
bpp	-12.3856
lmjb	-12.3858
1294	-12.3858
casual	-12.3859
plmah	-12.386
subjects	-12.386
1479	-12.386
contacto	-12.386
eaayasaaegjf	-12.3861
1231	-12.3862
cina	-12.3863
eaayasaaegif	-12.3864
dudca	-12.3865
qhoc	-12.3866
etica	-12.3866
directhit	-12.3867
-2010	-12.3868
usta	-12.3868
__._&	-12.387
lingerie	-12.387
3035	-12.3872
toolid	-12.3872
/2004	-12.3873
xhoc	-12.3873
secrets	-12.3873
tarot	-12.3874
1190	-12.3874
1620	-12.3874
南	-12.3874
yzw	-12.3876
lernen	-12.3877
administrator	-12.3878
moet	-12.3878
iyor	-12.3878
hornbach	-12.3881
mechanics	-12.3882
bung	-12.3884
techradar	-12.3884
lul	-12.3885
1074	-12.3885
+(	-12.3887
:::	-12.3888
1946	-12.3891
gara	-12.3891
termo	-12.3893
physio	-12.3894
relax	-12.3895
lever	-12.3896
/176	-12.3898
hhoc	-12.3899
descargas	-12.3901
1057	-12.3901
1"]}}}&	-12.3901
))/	-12.3903
ndc	-12.3905
929	-12.3906
imh	-12.3907
1327	-12.3907
calculo	-12.3908
1032	-12.3908
salvador	-12.3908
whoop	-12.3909
flug	-12.391
1949	-12.391
ugm	-12.391
gaard	-12.391
1266	-12.3911
flg	-12.3912
connector	-12.3912
tradingview	-12.3913
=157	-12.3914
ztq	-12.3916
eaayasaaegiu	-12.3916
pode	-12.3916
ון	-12.3917
rab	-12.3918
yoshi	-12.3918
aars	-12.3922
09&	-12.3923
peda	-12.3924
xet	-12.3924
corre	-12.3924
1632	-12.3924
-116	-12.3925
gdm	-12.3925
roles	-12.3925
viewcontent	-12.3926
1491	-12.3926
agd	-12.3926
fim	-12.3927
fisher	-12.3927
3010	-12.3928
1744	-12.3929
oji	-12.3929
conseil	-12.393
izacao	-12.393
yhs	-12.393
1747	-12.393
buku	-12.393
huur	-12.3932
cadeau	-12.3933
486&	-12.3933
1135	-12.3933
vera	-12.3934
1404	-12.3935
1626	-12.3937
れ	-12.394
modell	-12.394
/178	-12.3941
clan	-12.3941
banana	-12.3941
molecular	-12.3942
mapping	-12.3943
lboc	-12.3943
ril	-12.3944
lny	-12.3945
dinner	-12.3945
문	-12.3945
1585	-12.3946
rzy	-12.3946
defence	-12.3946
1954	-12.3947
1507	-12.3947
adc	-12.3948
ceiling	-12.3949
patron	-12.395
both	-12.395
prawo	-12.395
-360-	-12.3951
poh	-12.3952
=1263	-12.3953
271&	-12.3953
bring	-12.3953
puu	-12.3954
zjy	-12.3955
口	-12.3956
요	-12.3956
ameli	-12.3957
izer	-12.3957
1726	-12.3958
1805	-12.3958
eaayasaaeglo	-12.3958
1727	-12.3961
glu	-12.3962
/2016/08/	-12.3963
sensors	-12.3964
ivan	-12.3964
conduct	-12.3966
appliance	-12.3966
eaayasaaegkv	-12.3967
wivt	-12.3967
fbid	-12.3968
lockdown	-12.3968
qbq	-12.3969
lly	-12.3969
/2016/01/	-12.397
ю	-12.397
teile	-12.3972
jurisprudencia	-12.3973
fiction	-12.3973
benefit	-12.3975
casasbahia	-12.3976
食	-12.3976
kerala	-12.398
transition	-12.3982
pog	-12.3982
otu	-12.3982
cbt	-12.3983
dut	-12.3984
938	-12.3984
nbhcrarisacgaiqu	-12.3984
pry	-12.3985
xocz	-12.3985
prezzo	-12.3986
6600	-12.3987
prepaid	-12.3988
makro	-12.3989
awesome	-12.399
_2020_	-12.399
pantalla	-12.399
1963	-12.3991
2108	-12.3991
2029	-12.3991
spaces	-12.3991
то	-12.3993
eaayasaaegln	-12.3993
西	-12.3993
sarthaks	-12.3993
hotmail	-12.3994
univers	-12.3994
awiax	-12.3995
njm	-12.3995
мо	-12.3995
1166	-12.3996
vyz	-12.3996
vhoc	-12.3997
dah	-12.3997
strategi	-12.3998
clicks	-12.3998
subito	-12.4001
zyz	-12.4002
ilcj	-12.4002
pboc	-12.4004
け	-12.4007
americas	-12.4007
synology	-12.4007
rze	-12.4007
ebd	-12.401
moovitapp	-12.401
yag	-12.401
empleos	-12.4011
vive	-12.4011
1947	-12.4011
kauf	-12.4012
디	-12.4014
rescue	-12.4014
cpid	-12.4014
grosse	-12.4015
enfant	-12.4016
matome	-12.4016
ž	-12.4017
hbc	-12.4017
babe	-12.4018
1476	-12.4019
eaayasaaeglr	-12.4019
igo	-12.402
2036	-12.4021
fully	-12.4021
pea	-12.4021
zhoc	-12.4022
cryptocurrency	-12.4022
soluciones	-12.4023
singh	-12.4023
bush	-12.4024
/2016/02/	-12.4024
recorder	-12.4025
somos	-12.4027
1723	-12.4027
shooting	-12.4029
/13/	-12.403
ва	-12.403
gore	-12.403
fiverr	-12.4031
ieeexplore	-12.4031
resumen	-12.4031
kui	-12.4032
sura	-12.4033
elm	-12.4033
guatemala	-12.4034
코	-12.4034
sieu	-12.4036
-143	-12.4038
bene	-12.4038
developing	-12.404
ferro	-12.404
znj	-12.404
rox	-12.4041
xiv	-12.4041
350203_201035020	-12.4041
accident	-12.4041
shy	-12.4042
finish	-12.4043
saki	-12.4043
disadvantages	-12.4045
3020	-12.4045
/168	-12.4046
vyq	-12.4047
notices	-12.4047
minor	-12.4049
eaayasaaegko	-12.4051
3300	-12.4051
fundacion	-12.4053
1325	-12.4053
hyx	-12.4055
für	-12.4055
yay	-12.4055
1359	-12.4056
transportation	-12.4056
wed	-12.4057
bps	-12.4057
wem	-12.4059
romance	-12.4059
=140	-12.4061
2160	-12.4062
paste	-12.4062
rte	-12.4063
ifs	-12.4064
tcm	-12.4064
3030	-12.4064
segundo	-12.4065
wait	-12.4065
3029	-12.4066
lxoc	-12.4067
salad	-12.4067
brush	-12.4067
plein	-12.4068
petrol	-12.4069
1148	-12.407
miro	-12.407
ymq	-12.4071
sphere	-12.4073
suomi	-12.4073
carousell	-12.4073
2107	-12.4074
span	-12.4074
carrier	-12.4074
plain	-12.4075
▁drive	-12.4076
dramacool	-12.4077
/10.3389/	-12.4079
skins	-12.4079
fried	-12.408
stanford	-12.408
afid	-12.408
unsere	-12.4081
ixocr	-12.4081
oel	-12.4081
optical	-12.4081
convertir	-12.4081
tft	-12.4082
karaoke	-12.4084
former	-12.4086
wird	-12.4086
716	-12.4086
908	-12.4087
چ	-12.4087
skuid	-12.4087
apteka	-12.4088
wrap	-12.4089
eaayasaaegir	-12.4091
1511	-12.4092
ggi	-12.4094
rer	-12.4094
equ	-12.4094
/2022	-12.4095
cyt	-12.4095
ultima	-12.4096
1634	-12.4096
policia	-12.4096
alone	-12.4098
ncl	-12.4099
4800	-12.4101
rna	-12.4103
1508	-12.4103
nps	-12.4104
szy	-12.4104
1570	-12.4104
contracts	-12.4106
bmf	-12.4106
adelaide	-12.4106
zdq	-12.4106
2345	-12.4107
yao	-12.411
1145	-12.411
/2016/04/	-12.411
3015	-12.4111
cxoc	-12.4112
bound	-12.4113
plata	-12.4113
meal	-12.4114
soundcloud	-12.4115
syndrome	-12.4116
mediaexpert	-12.4116
buildings	-12.4118
ή	-12.412
postgresql	-12.412
chest	-12.4123
wav	-12.4123
mati	-12.4123
1226	-12.4124
/184	-12.4125
harga	-12.4125
1442	-12.4126
showbiz	-12.4127
xocy	-12.4127
1606	-12.4128
vec	-12.4128
encoder	-12.4128
vyy	-12.4129
1044	-12.413
=156	-12.4131
helpdesk	-12.4133
allow	-12.4133
pmp	-12.4134
1223	-12.4136
opa	-12.4136
nganh	-12.4136
emdtl	-12.4137
防	-12.4138
안	-12.4138
-55-	-12.4138
vakantie	-12.4138
1588	-12.4138
daire	-12.4138
trabajos	-12.4139
nove	-12.4139
household	-12.4139
movistar	-12.4141
モ	-12.4141
1331	-12.4141
poker	-12.4141
ecu	-12.4142
eed	-12.4144
nuovo	-12.4144
да	-12.4144
lijst	-12.4145
zomato	-12.4145
00007	-12.4146
zing	-12.4147
maak	-12.4148
allianz	-12.4151
jor	-12.4152
nzq	-12.4154
chief	-12.4155
uvm	-12.4155
cron	-12.4155
sticker	-12.4156
ohm	-12.4156
eaayasaaegkm	-12.4157
ihg	-12.4159
diferencia	-12.416
torre	-12.4161
-04-	-12.4162
eaton	-12.4162
=1274	-12.4163
universities	-12.4167
neh	-12.4168
994	-12.4169
2975	-12.4169
kwa	-12.4172
tuan	-12.4172
eastern	-12.4172
elt	-12.4173
bose	-12.4173
1711	-12.4173
-2008-	-12.4174
1627	-12.4175
zir	-12.4175
repack	-12.4177
vote	-12.4178
1134	-12.4178
logon	-12.4178
otq	-12.418
2090	-12.4182
546&	-12.4183
4020	-12.4183
eaayasaaegil	-12.4184
guardian	-12.4184
セ	-12.4184
tama	-12.4186
slu	-12.4186
thao	-12.4187
eaayasaaeglv	-12.4188
ilhcabbcxax	-12.4188
wired	-12.419
arcgis	-12.4191
portlet	-12.4192
sot	-12.4193
eaayasaaegkn	-12.4193
eaayasaaegio	-12.4193
tue	-12.4194
groc	-12.4194
swing	-12.4194
masi	-12.4195
fiyati	-12.4196
corsi	-12.4197
contest	-12.4198
avoid	-12.4199
/2007	-12.42
kisti	-12.42
grove	-12.4201
innova	-12.4201
improvement	-12.4201
adn	-12.4201
mcc	-12.4204
lithium	-12.4204
tenorshare	-12.4204
821	-12.4205
beim	-12.4206
gjh	-12.4206
threat	-12.4206
pee	-12.4207
bloom	-12.4207
noor	-12.4208
tty	-12.4208
syc	-12.4209
=160	-12.4209
grave	-12.4211
eekweb	-12.4212
eaayasaaegim	-12.4212
makers	-12.4212
lian	-12.4214
/2016/05/	-12.4215
sommer	-12.4216
supreme	-12.4217
ispr	-12.4218
abk	-12.4219
jnmah	-12.4219
eaayasaaegjn	-12.4219
kaj	-12.422
741&	-12.422
ibo	-12.4221
fai	-12.4221
authorization	-12.4221
레	-12.4222
mboc	-12.4224
vvs	-12.4224
regio	-12.4225
1910	-12.4225
eaayasaaegjr	-12.4225
1335	-12.4225
リー	-12.4226
imm	-12.4226
versa	-12.4227
eaayasaaegiv	-12.4229
1560	-12.423
103&	-12.423
finanzas	-12.4231
sika	-12.4232
personnel	-12.4233
=1260	-12.4234
1077	-12.4237
-1-2	-12.4237
eaayasaaeglf	-12.4238
fucks	-12.4241
fvg	-12.4241
punch	-12.4241
-308	-12.4242
rated	-12.4243
1401	-12.4244
aji	-12.4247
hob	-12.425
bergen	-12.425
iller	-12.4252
wgh	-12.4252
userreviews	-12.4253
1914	-12.4253
brasilescola	-12.4253
haute	-12.4253
/170	-12.4254
wych	-12.4256
theft	-12.4256
quantum	-12.4257
1709	-12.4258
ین	-12.4258
6500	-12.4258
rocy	-12.426
/222	-12.426
eaayasaaegjv	-12.4261
30&	-12.4261
quantrimang	-12.4263
-2015	-12.4264
lance	-12.4266
vbg	-12.4269
1058	-12.4271
kontrol	-12.4271
pixma	-12.4275
vam	-12.4275
zym	-12.4277
bem	-12.4277
demande	-12.4278
estudios	-12.4278
ust	-12.4279
eaayasaaegjm	-12.4279
avm	-12.4279
blk	-12.428
แบบ	-12.4281
1959	-12.4282
mdf	-12.4283
qiq	-12.4284
cpm	-12.4284
1170	-12.4285
vuz	-12.4286
/236	-12.4286
立	-12.4288
politique	-12.4288
187&	-12.4288
eaayasaaegjo	-12.4289
2980	-12.4289
yzg	-12.4291
9111	-12.4291
1510	-12.4291
svt	-12.4292
yourdictionary	-12.4292
ual	-12.4292
giac	-12.4294
utz	-12.4294
hok	-12.4295
與	-12.4295
urdu	-12.4297
months	-12.4297
negative	-12.4298
lea	-12.4298
bageeae	-12.4299
그	-12.43
3700	-12.4303
dreams	-12.4303
cuanto	-12.4304
blogger	-12.4305
impress	-12.4305
eaayasaaegig	-12.4305
1397	-12.4305
doctoralia	-12.4306
soon	-12.4307
pepper	-12.4307
saiba	-12.4307
▁del	-12.4307
1807	-12.4309
nagar	-12.431
wor	-12.431
studi	-12.431
eaayasaaegjt	-12.4312
空	-12.4313
ดี	-12.4313
fot	-12.4313
=14&	-12.4316
nky	-12.4316
norge	-12.4317
trying	-12.4317
5!3	-12.4318
596&	-12.4319
pfm	-12.432
monta	-12.4321
geraete	-12.4321
_1_1	-12.4323
tboc	-12.4324
มี	-12.4324
jtiw	-12.4324
pharmacie	-12.4324
flexible	-12.4325
alte	-12.4325
mcg	-12.4325
istitem	-12.4326
101/	-12.4326
ston	-12.4327
3003	-12.4328
investments	-12.4328
miy	-12.4329
carne	-12.4329
deposit	-12.4329
scm	-12.433
emergencies	-12.433
/2015/10/	-12.4331
wijk	-12.4334
2044	-12.4335
=173	-12.4336
noord	-12.4336
tops	-12.4338
dieta	-12.4338
kurz	-12.4339
trouble	-12.434
einen	-12.4341
1443	-12.4343
lroc	-12.4344
1244	-12.4344
uploaded	-12.4345
/2015/11/	-12.4345
ncy	-12.4347
telefonu	-12.4348
hama	-12.4349
/169	-12.4351
doro	-12.4351
1833	-12.4353
jmah	-12.4353
dinero	-12.4353
1055	-12.4354
elcorteingles	-12.4355
embassy	-12.4355
wiadomosci	-12.4355
umc	-12.4357
2550	-12.4358
365&	-12.4358
falls	-12.4358
1227	-12.4359
ế	-12.4361
hmw	-12.4362
토	-12.4362
eaqybsabegi	-12.4362
trademe	-12.4363
penis	-12.4363
1874	-12.4364
1589	-12.4365
pisos	-12.4366
[...]
