<pad>	0
<unk>	0
<s>	0
</s>	0
<cls>	0
<sep>	0
▁t	-0
▁a	-1
in	-2
er	-3
▁s	-4
▁th	-5
re	-6
on	-7
▁c	-8
or	-9
▁the	-10
▁p	-11
▁w	-12
at	-13
▁f	-14
en	-15
es	-16
▁b	-17
ou	-18
▁m	-19
it	-20
an	-21
is	-22
▁o	-23
▁d	-24
▁h	-25
ed	-26
▁an	-27
ar	-28
al	-29
ing	-30
▁in	-31
▁to	-32
ic	-33
▁l	-34
▁and	-35
▁of	-36
om	-37
ion	-38
as	-39
▁n	-40
le	-41
▁re	-42
▁y	-43
▁g	-44
▁e	-45
il	-46
ro	-47
ent	-48
▁you	-49
us	-50
el	-51
ct	-52
et	-53
▁for	-54
▁st	-55
▁i	-56
ch	-57
ve	-58
ot	-59
ol	-60
ow	-61
▁on	-62
id	-63
ay	-64
▁is	-65
ig	-66
st	-67
ra	-68
▁1	-69
▁2	-70
ver	-71
ation	-72
ce	-73
un	-74
ly	-75
th	-76
▁be	-77
▁wh	-78
am	-79
ur	-80
ith	-81
ad	-82
ut	-83
ers	-84
▁with	-85
▁v	-86
im	-87
▁(	-88
▁or	-89
▁it	-90
▁al	-91
▁ch	-92
ir	-93
est	-94
▁pro	-95
ul	-96
▁con	-97
▁se	-98
▁r	-99
ag	-100
▁sh	-101
ter	-102
oo	-103
▁your	-104
▁j	-105
▁ne	-106
ri	-107
▁as	-108
▁that	-109
ck	-110
se	-111
▁mo	-112
▁k	-113
▁de	-114
▁com	-115
pp	-116
out	-117
em	-118
▁this	-119
ab	-120
ill	-121
ess	-122
▁are	-123
▁at	-124
▁20	-125
qu	-126
ate	-127
▁us	-128
igh	-129
um	-130
ts	-131
if	-132
our	-133
res	-134
ak	-135
▁fr	-136
▁ex	-137
and	-138
▁we	-139
oun	-140
▁su	-141
op	-142
▁-	-143
ist	-144
os	-145
▁ha	-146
▁by	-147
ere	-148
ie	-149
▁he	-150
ies	-151
ity	-152
ment	-153
▁ad	-154
▁un	-155
▁can	-156
▁from	-157
▁not	-158
▁sp	-159
art	-160
ld	-161
▁201	-162
up	-163
ain	-164
ard	-165
▁do	-166
ive	-167
all	-168
ust	-169
end	-170
ort	-171
ant	-172
▁le	-173
▁was	-174
▁pl	-175
ect	-176
▁cl	-177
ome	-178
▁all	-179
ice	-180
ci	-181
ud	-182
ine	-183
iv	-184
are	-185
▁ab	-186
▁.	-187
▁3	-188
ap	-189
▁,	-190
ight	-191
▁&	-192
00	-193
age	-194
▁have	-195
▁lo	-196
▁ac	-197
▁am	-198
ge	-199
▁wor	-200
ell	-201
ind	-202
ure	-203
ions	-204
▁new	-205
▁comp	-206
ail	-207
ast	-208
▁en	-209
ook	-210
ip	-211
▁so	-212
ide	-213
▁more	-214
ac	-215
pt	-216
▁ar	-217
▁up	-218
▁cont	-219
▁tr	-220
▁co	-221
ack	-222
▁out	-223
per	-224
▁5	-225
ire	-226
▁will	-227
lo	-228
▁ser	-229
ber	-230
ia	-231
ood	-232
able	-233
ick	-234
▁me	-235
ould	-236
der	-237
ite	-238
▁if	-239
gh	-240
ated	-241
▁ro	-242
▁4	-243
▁qu	-244
▁but	-245
ase	-246
..	-247
ik	-248
ally	-249
iz	-250
ff	-251
act	-252
▁pr	-253
one	-254
ree	-255
▁inc	-256
▁app	-257
ans	-258
▁how	-259
ear	-260
iew	-261
orm	-262
▁res	-263
ake	-264
ore	-265
▁"	-266
▁off	-267
▁dis	-268
▁fe	-269
▁my	-270
ary	-271
▁te	-272
av	-273
ach	-274
▁man	-275
▁our	-276
so	-277
ime	-278
du	-279
ign	-280
ound	-281
ich	-282
▁acc	-283
▁im	-284
ther	-285
▁|	-286
▁po	-287
de	-288
ish	-289
ous	-290
▁about	-291
ress	-292
ough	-293
▁they	-294
ass	-295
ance	-296
very	-297
▁get	-298
▁ph	-299
ount	-300
▁one	-301
ue	-302
▁per	-303
ub	-304
▁tra	-305
ib	-306
com	-307
▁has	-308
reat	-309
ry	-310
ace	-311
▁may	-312
▁col	-313
▁ag	-314
▁inf	-315
ong	-316
▁pre	-317
ark	-318
▁what	-319
▁em	-320
▁no	-321
ical	-322
her	-323
▁add	-324
ations	-325
▁when	-326
▁serv	-327
ence	-328
▁rep	-329
▁$	-330
ame	-331
ens	-332
ings	-333
og	-334
▁int	-335
▁go	-336
ile	-337
ents	-338
▁any	-339
▁other	-340
elp	-341
▁fl	-342
ction	-343
own	-344
ren	-345
▁bo	-346
ays	-347
▁sa	-348
▁use	-349
ike	-350
▁bl	-351
ors	-352
▁19	-353
▁work	-354
▁inter	-355
ition	-356
ult	-357
▁6	-358
ms	-359
vel	-360
▁sc	-361
▁their	-362
▁2018	-363
ial	-364
▁“	-365
▁pe	-366
▁year	-367
ates	-368
ord	-369
▁comm	-370
▁time	-371
▁who	-372
les	-373
▁there	-374
▁than	-375
▁kn	-376
▁ev	-377
▁car	-378
▁also	-379
ph	-380
▁over	-381
ru	-382
▁10	-383
fer	-384
▁med	-385
bs	-386
▁part	-387
▁see	-388
▁help	-389
arch	-390
view	-391
▁his	-392
▁which	-393
▁ra	-394
ang	-395
ild	-396
▁7	-397
▁spe	-398
▁br	-399
▁some	-400
int	-401
ory	-402
ink	-403
vers	-404
▁sy	-405
▁gr	-406
▁des	-407
▁8	-408
ater	-409
ian	-410
wn	-411
▁exp	-412
▁find	-413
▁jo	-414
ep	-415
ft	-416
▁sch	-417
te	-418
▁bu	-419
▁like	-420
▁af	-421
▁tw	-422
cial	-423
▁mon	-424
ices	-425
▁her	-426
ely	-427
▁need	-428
▁ed	-429
▁home	-430
lud	-431
▁produ	-432
▁free	-433
▁cre	-434
lic	-435
▁9	-436
▁imp	-437
als	-438
▁fir	-439
▁che	-440
lect	-441
day	-442
▁gu	-443
pe	-444
...	-445
▁la	-446
▁act	-447
▁high	-448
▁pol	-449
io	-450
aus	-451
▁best	-452
ll	-453
▁star	-454
ax	-455
▁inform	-456
▁inst	-457
arn	-458
▁rec	-459
ces	-460
ey	-461
ds	-462
▁prov	-463
mo	-464
20	-465
amp	-466
▁av	-467
ons	-468
▁ind	-469
▁just	-470
▁these	-471
▁make	-472
enter	-473
▁review	-474
ool	-475
▁includ	-476
▁most	-477
▁reg	-478
az	-479
▁first	-480
urn	-481
ath	-482
▁after	-483
alth	-484
▁loc	-485
▁only	-486
▁supp	-487
we	-488
▁[	-489
▁sign	-490
▁information	-491
ople	-492
iss	-493
▁been	-494
▁its	-495
itt	-496
▁bus	-497
ict	-498
▁stud	-499
▁she	-500
old	-501
▁people	-502
riv	-503
).	-504
▁bet	-505
row	-506
▁would	-507
▁sal	-508
▁0	-509
▁had	-510
▁them	-511
orn	-512
▁cons	-513
ram	-514
iness	-515
▁–	-516
▁were	-517
ments	-518
▁health	-519
ful	-520
ual	-521
ose	-522
ower	-523
con	-524
ating	-525
▁every	-526
ty	-527
▁back	-528
xt	-529
▁/	-530
oll	-531
▁bec	-532
▁200	-533
ics	-534
▁look	-535
▁view	-536
cess	-537
▁min	-538
▁ter	-539
▁ret	-540
ific	-541
▁into	-542
ys	-543
ade	-544
ork	-545
▁under	-546
▁z	-547
▁know	-548
co	-549
lease	-550
▁read	-551
ited	-552
ily	-553
▁now	-554
line	-555
▁di	-556
▁ins	-557
ved	-558
ble	-559
ank	-560
▁rel	-561
▁product	-562
▁art	-563
its	-564
▁sm	-565
▁great	-566
▁pers	-567
▁requ	-568
▁u	-569
▁day	-570
▁thr	-571
ise	-572
▁sub	-573
cy	-574
▁op	-575
▁pat	-576
▁set	-577
ause	-578
oth	-579
▁down	-580
▁school	-581
▁char	-582
cl	-583
▁business	-584
lish	-585
▁here	-586
▁care	-587
▁att	-588
▁should	-589
ange	-590
▁show	-591
ities	-592
oup	-593
▁trans	-594
rib	-595
▁good	-596
eric	-597
ational	-598
▁gen	-599
▁list	-600
ced	-601
▁don	-602
ased	-603
ures	-604
let	-605
▁top	-606
ility	-607
▁eng	-608
▁form	-609
▁call	-610
▁fun	-611
▁two	-612
ible	-613
▁does	-614
▁dif	-615
olog	-616
pl	-617
▁service	-618
ix	-619
▁val	-620
ious	-621
▁through	-622
▁num	-623
ife	-624
▁exper	-625
ert	-626
ash	-627
▁sk	-628
▁used	-629
▁pub	-630
▁fin	-631
ject	-632
ug	-633
▁bel	-634
▁inv	-635
ular	-636
▁det	-637
▁count	-638
▁fam	-639
▁del	-640
▁years	-641
▁post	-642
▁dep	-643
▁mar	-644
ton	-645
ied	-646
ards	-647
▁play	-648
▁please	-649
ek	-650
▁cust	-651
sh	-652
atch	-653
ting	-654
▁want	-655
▁ty	-656
ull	-657
▁own	-658
▁:	-659
dit	-660
▁person	-661
▁sur	-662
▁'	-663
▁12	-664
▁compan	-665
▁custom	-666
ets	-667
▁child	-668
▁start	-669
▁mark	-670
fore	-671
▁avail	-672
▁cal	-673
▁x	-674
10	-675
▁prog	-676
▁eas	-677
▁vis	-678
▁well	-679
▁dec	-680
ract	-681
bo	-682
▁search	-683
stem	-684
▁adv	-685
air	-686
▁check	-687
▁pres	-688
▁el	-689
ement	-690
▁book	-691
▁americ	-692
000	-693
hing	-694
▁then	-695
▁cr	-696
▁cur	-697
form	-698
▁mem	-699
▁sim	-700
els	-701
▁priv	-702
land	-703
▁dat	-704
▁ass	-705
▁mus	-706
▁many	-707
oc	-708
ollow	-709
▁dire	-710
▁world	-711
),	-712
▁pur	-713
▁system	-714
▁pay	-715
▁page	-716
▁click	-717
▁mu	-718
▁dur	-719
elf	-720
▁par	-721
▁sl	-722
▁long	-723
▁access	-724
▁wr	-725
▁way	-726
▁learn	-727
man	-728
▁very	-729
ins	-730
▁air	-731
▁follow	-732
▁services	-733
▁prof	-734
▁def	-735
acy	-736
▁aw	-737
ouse	-738
▁where	-739
▁news	-740
oss	-741
ages	-742
▁met	-743
▁gra	-744
▁bro	-745
▁fil	-746
aking	-747
▁eff	-748
▁amaz	-749
ric	-750
▁cle	-751
▁hot	-752
uc	-753
▁month	-754
▁provid	-755
▁pm	-756
50	-757
▁even	-758
ines	-759
▁11	-760
▁ap	-761
▁wind	-762
▁differ	-763
▁right	-764
ah	-765
▁using	-766
get	-767
▁available	-768
pping	-769
▁take	-770
▁city	-771
▁before	-772
▁direct	-773
▁state	-774
▁email	-775
▁+	-776
▁design	-777
▁est	-778
▁again	-779
▁vide	-780
18	-781
ne	-782
▁online	-783
ize	-784
▁real	-785
▁bre	-786
▁site	-787
▁plan	-788
▁found	-789
ps	-790
▁ke	-791
▁could	-792
▁made	-793
gan	-794
ond	-795
▁dr	-796
▁polic	-797
▁cour	-798
▁week	-799
▁because	-800
▁such	-801
ger	-802
▁ext	-803
▁hand	-804
▁rece	-805
▁rest	-806
▁uni	-807
dy	-808
▁did	-809
ative	-810
▁cor	-811
▁colle	-812
▁#	-813
▁resp	-814
other	-815
▁end	-816
▁food	-817
cer	-818
▁2017	-819
▁life	-820
ier	-821
▁data	-822
ient	-823
imes	-824
▁sec	-825
▁much	-826
▁)	-827
▁ve	-828
▁place	-829
▁opt	-830
ving	-831
ights	-832
▁account	-833
▁while	-834
ional	-835
▁phot	-836
▁try	-837
▁number	-838
▁test	-839
ature	-840
▁intern	-841
▁tax	-842
▁each	-843
▁men	-844
▁support	-845
▁commun	-846
omet	-847
▁quest	-848
ss	-849
▁open	-850
red	-851
eral	-852
book	-853
▁stars	-854
▁18	-855
▁near	-856
au	-857
the	-858
ital	-859
alk	-860
▁family	-861
▁sol	-862
19	-863
▁emp	-864
....	-865
▁proper	-866
gg	-867
▁sw	-868
ason	-869
ips	-870
▁tri	-871
▁tech	-872
ired	-873
▁order	-874
▁enter	-875
▁class	-876
▁rem	-877
arm	-878
▁contact	-879
ues	-880
30	-881
loy	-882
▁experi	-883
▁chr	-884
led	-885
ene	-886
▁window	-887
orts	-888
eld	-889
▁dist	-890
▁—	-891
▁cap	-892
▁fri	-893
▁too	-894
akes	-895
ids	-896
▁water	-897
:00	-898
ee	-899
▁©	-900
▁amazon	-901
▁pass	-902
▁15	-903
ames	-904
ale	-905
▁lar	-906
▁manag	-907
ather	-908
▁gl	-909
ning	-910
min	-911
▁aut	-912
▁company	-913
▁nor	-914
▁policy	-915
▁power	-916
▁last	-917
▁ste	-918
ually	-919
▁him	-920
reen	-921
▁stand	-922
ven	-923
▁item	-924
att	-925
▁head	-926
▁special	-927
sw	-928
ized	-929
▁pop	-930
velop	-931
rent	-932
ner	-933
▁address	-934
▁sho	-935
ants	-936
ness	-937
▁ref	-938
▁str	-939
,000	-940
▁oct	-941
cc	-942
▁ear	-943
▁privacy	-944
▁treat	-945
▁mil	-946
ont	-947
▁main	-948
▁terms	-949
▁let	-950
▁webs	-951
▁wom	-952
ution	-953
▁es	-954
▁card	-955
▁said	-956
ology	-957
▁30	-958
▁cop	-959
▁reviews	-960
▁mod	-961
▁hour	-962
br	-963
▁full	-964
od	-965
comm	-966
▁group	-967
▁ob	-968
▁love	-969
▁bar	-970
ween	-971
cept	-972
▁..	-973
▁aff	-974
▁must	-975
ute	-976
ety	-977
▁center	-978
▁during	-979
erg	-980
▁sou	-981
▁stat	-982
▁contin	-983
▁between	-984
▁price	-985
ories	-986
ript	-987
ium	-988
▁room	-989
▁fact	-990
▁develop	-991
uck	-992
▁report	-993
▁buy	-994
ives	-995
.0	-996
work	-997
nt	-998
▁small	-999
▁cook	-1000
▁hist	-1001
ten	-1002
less	-1003
▁link	-1004
▁leg	-1005
wh	-1006
▁old	-1007
▁law	-1008
itch	-1009
12	-1010
gin	-1011
▁·	-1012
▁next	-1013
▁employ	-1014
icle	-1015
▁video	-1016
▁different	-1017
▁ent	-1018
bers	-1019
▁blo	-1020
ump	-1021
▁dri	-1022
▁offer	-1023
▁somet	-1024
ave	-1025
ists	-1026
ases	-1027
▁share	-1028
read	-1029
▁keep	-1030
▁same	-1031
▁park	-1032
▁lead	-1033
▁medic	-1034
ality	-1035
▁techn	-1036
▁house	-1037
▁still	-1038
▁select	-1039
ider	-1040
▁red	-1041
▁program	-1042
▁effect	-1043
ves	-1044
▁contro	-1045
ke	-1046
▁sin	-1047
▁face	-1048
▁ma	-1049
▁stre	-1050
▁•	-1051
▁being	-1052
▁proble	-1053
▁days	-1054
▁id	-1055
▁var	-1056
▁au	-1057
▁ver	-1058
▁website	-1059
ks	-1060
ident	-1061
be	-1062
▁cost	-1063
▁those	-1064
▁children	-1065
▁including	-1066
▁answ	-1067
▁ا	-1068
ator	-1069
▁conf	-1070
▁run	-1071
▁upd	-1072
▁net	-1073
▁...	-1074
▁univers	-1075
▁both	-1076
▁think	-1077
▁friend	-1078
▁current	-1079
inal	-1080
▁products	-1081
▁without	-1082
▁equ	-1083
▁spec	-1084
▁war	-1085
cript	-1086
▁public	-1087
▁easy	-1088
▁pain	-1089
▁name	-1090
▁area	-1091
▁14	-1092
load	-1093
▁ann	-1094
tain	-1095
ints	-1096
ified	-1097
▁disc	-1098
▁big	-1099
,"	-1100
tern	-1101
▁16	-1102
▁prev	-1103
ense	-1104
▁sto	-1105
he	-1106
▁better	-1107
▁credit	-1108
ways	-1109
ients	-1110
▁appro	-1111
▁process	-1112
▁cent	-1113
▁market	-1114
▁fo	-1115
▁states	-1116
15	-1117
▁prot	-1118
▁profess	-1119
▁cert	-1120
ically	-1121
nect	-1122
▁less	-1123
▁black	-1124
▁experience	-1125
▁why	-1126
▁level	-1127
▁low	-1128
▁saf	-1129
go	-1130
▁bed	-1131
▁happ	-1132
iver	-1133
to	-1134
gr	-1135
▁american	-1136
▁elect	-1137
▁ide	-1138
hip	-1139
▁around	-1140
▁13	-1141
ites	-1142
ross	-1143
▁detail	-1144
▁199	-1145
▁three	-1146
enn	-1147
ining	-1148
▁purch	-1149
yr	-1150
▁2016	-1151
ever	-1152
▁office	-1153
▁bas	-1154
ats	-1155
▁allow	-1156
▁today	-1157
atur	-1158
▁mill	-1159
▁team	-1160
iving	-1161
▁port	-1162
▁though	-1163
ina	-1164
▁web	-1165
▁ep	-1166
▁things	-1167
▁medical	-1168
jo	-1169
▁visit	-1170
▁bra	-1171
▁perform	-1172
.5	-1173
▁sure	-1174
▁addition	-1175
ister	-1176
ember	-1177
▁build	-1178
ott	-1179
▁dev	-1180
▁iss	-1181
▁pa	-1182
▁mov	-1183
ior	-1184
.”	-1185
ults	-1186
▁times	-1187
ruct	-1188
thing	-1189
▁united	-1190
▁sun	-1191
▁change	-1192
▁press	-1193
▁shi	-1194
port	-1195
▁shop	-1196
room	-1197
.,	-1198
ley	-1199
▁organ	-1200
ware	-1201
▁another	-1202
▁dra	-1203
▁17	-1204
▁store	-1205
way	-1206
vert	-1207
ron	-1208
▁24	-1209
▁ask	-1210
▁oper	-1211
▁et	-1212
▁hard	-1213
▁connect	-1214
▁turn	-1215
▁prom	-1216
▁game	-1217
oney	-1218
ify	-1219
ding	-1220
▁educ	-1221
▁activ	-1222
11	-1223
uss	-1224
ote	-1225
▁never	-1226
ittle	-1227
▁er	-1228
▁import	-1229
▁orig	-1230
▁sell	-1231
▁say	-1232
▁york	-1233
ann	-1234
cent	-1235
▁return	-1236
▁below	-1237
▁hum	-1238
▁lot	-1239
ency	-1240
25	-1241
▁hol	-1242
▁miss	-1243
pes	-1244
▁remo	-1245
▁hom	-1246
▁based	-1247
search	-1248
▁tem	-1249
▁light	-1250
aut	-1251
▁sale	-1252
▁sing	-1253
ost	-1254
▁bank	-1255
▁local	-1256
ift	-1257
by	-1258
▁hours	-1259
▁white	-1260
pr	-1261
▁little	-1262
▁content	-1263
ands	-1264
▁cover	-1265
▁reci	-1266
▁secon	-1267
▁sci	-1268
ctor	-1269
▁watch	-1270
▁since	-1271
▁music	-1272
crib	-1273
17	-1274
▁interest	-1275
▁win	-1276
▁chang	-1277
▁really	-1278
▁national	-1279
▁comple	-1280
▁incre	-1281
do	-1282
▁type	-1283
▁hy	-1284
▁fi	-1285
▁women	-1286
dition	-1287
▁include	-1288
▁lim	-1289
▁applic	-1290
que	-1291
▁edit	-1292
▁university	-1293
▁few	-1294
aur	-1295
▁location	-1296
▁ca	-1297
▁invest	-1298
▁non	-1299
16	-1300
▁auth	-1301
▁english	-1302
soci	-1303
▁25	-1304
commend	-1305
▁super	-1306
med	-1307
▁phone	-1308
▁key	-1309
▁ge	-1310
▁jun	-1311
ability	-1312
▁recommend	-1313
▁tool	-1314
ple	-1315
por	-1316
▁record	-1317
▁always	-1318
ane	-1319
▁color	-1320
ling	-1321
▁provide	-1322
▁research	-1323
▁code	-1324
ury	-1325
ism	-1326
▁tv	-1327
ration	-1328
▁travel	-1329
gle	-1330
ng	-1331
▁give	-1332
▁ago	-1333
▁pot	-1334
▁within	-1335
ision	-1336
▁series	-1337
▁side	-1338
▁poss	-1339
avor	-1340
▁feel	-1341
▁bir	-1342
▁community	-1343
eng	-1344
hn	-1345
tt	-1346
▁cra	-1347
▁personal	-1348
▁west	-1349
ivid	-1350
ral	-1351
▁exc	-1352
▁mult	-1353
utes	-1354
▁north	-1355
▁associ	-1356
▁following	-1357
yle	-1358
▁brow	-1359
▁impro	-1360
▁body	-1361
▁vers	-1362
▁lat	-1363
▁ant	-1364
▁control	-1365
▁point	-1366
▁won	-1367
▁however	-1368
14	-1369
ined	-1370
▁pack	-1371
▁je	-1372
▁bene	-1373
▁mag	-1374
aim	-1375
▁protect	-1376
▁box	-1377
.9	-1378
pm	-1379
▁ris	-1380
▁lab	-1381
▁har	-1382
pro	-1383
▁points	-1384
▁examp	-1385
▁const	-1386
▁quick	-1387
▁sever	-1388
▁*	-1389
umm	-1390
ences	-1391
mber	-1392
und	-1393
▁line	-1394
▁christ	-1395
▁history	-1396
▁sym	-1397
▁mid	-1398
▁soft	-1399
▁put	-1400
ones	-1401
son	-1402
▁customer	-1403
▁mot	-1404
▁looking	-1405
iting	-1406
▁months	-1407
ides	-1408
▁choo	-1409
ately	-1410
1,	-1411
13	-1412
▁property	-1413
▁offers	-1414
▁ce	-1415
▁100	-1416
▁live	-1417
▁students	-1418
▁benef	-1419
rop	-1420
ille	-1421
▁project	-1422
▁dig	-1423
▁ele	-1424
40	-1425
▁pos	-1426
▁something	-1427
."	-1428
▁pin	-1429
▁sn	-1430
▁occ	-1431
▁>	-1432
▁ju	-1433
ex	-1434
▁might	-1435
aster	-1436
▁pract	-1437
▁short	-1438
thers	-1439
gs	-1440
ived	-1441
ser	-1442
▁come	-1443
▁going	-1444
▁common	-1445
▁partic	-1446
cul	-1447
ward	-1448
▁south	-1449
yl	-1450
ention	-1451
▁kids	-1452
▁money	-1453
▁heart	-1454
raph	-1455
▁bab	-1456
▁2015	-1457
▁fre	-1458
▁bill	-1459
▁step	-1460
▁subs	-1461
▁publish	-1462
▁vol	-1463
▁shipping	-1464
▁items	-1465
iter	-1466
▁consider	-1467
▁tell	-1468
▁important	-1469
▁case	-1470
▁questions	-1471
▁create	-1472
▁offic	-1473
stand	-1474
,”	-1475
atures	-1476
ization	-1477
▁map	-1478
▁phys	-1479
▁spr	-1480
▁anal	-1481
self	-1482
▁wa	-1483
▁mess	-1484
▁past	-1485
aper	-1486
▁contain	-1487
ateg	-1488
vern	-1489
▁table	-1490
cum	-1491
▁social	-1492
▁camp	-1493
fect	-1494
60	-1495
▁answer	-1496
rie	-1497
fl	-1498
▁grow	-1499
▁four	-1500
▁print	-1501
▁fore	-1502
▁copyr	-1503
▁college	-1504
▁aug	-1505
app	-1506
▁unt	-1507
▁beh	-1508
▁secur	-1509
▁creat	-1510
▁john	-1511
me	-1512
irl	-1513
ober	-1514
▁network	-1515
ush	-1516
par	-1517
atter	-1518
pect	-1519
▁guide	-1520
▁]	-1521
▁often	-1522
▁cho	-1523
▁goo	-1524
▁windows	-1525
▁once	-1526
eter	-1527
▁management	-1528
▁second	-1529
no	-1530
▁vir	-1531
▁sav	-1532
▁sept	-1533
▁date	-1534
cle	-1535
▁copyright	-1536
▁facebook	-1537
▁treatment	-1538
▁50	-1539
▁aud	-1540
▁jan	-1541
▁clear	-1542
▁able	-1543
anc	-1544
▁blood	-1545
▁save	-1546
▁rent	-1547
▁size	-1548
▁‘	-1549
▁^	-1550
▁beaut	-1551
▁cam	-1552
▁season	-1553
▁details	-1554
ently	-1555
▁receive	-1556
▁job	-1557
▁quality	-1558
ler	-1559
ili	-1560
aff	-1561
▁fac	-1562
osed	-1563
▁fire	-1564
▁text	-1565
▁got	-1566
▁mean	-1567
▁repl	-1568
▁county	-1569
ony	-1570
cks	-1571
▁october	-1572
of	-1573
▁deal	-1574
▁download	-1575
▁(2	-1576
back	-1577
ney	-1578
▁gener	-1579
▁charact	-1580
ead	-1581
▁restaur	-1582
ai	-1583
▁patients	-1584
▁large	-1585
▁comput	-1586
▁cell	-1587
▁study	-1588
▁indust	-1589
▁says	-1590
▁general	-1591
2018	-1592
aw	-1593
80	-1594
▁log	-1595
▁govern	-1596
▁veh	-1597
artment	-1598
▁choose	-1599
ential	-1600
▁install	-1601
▁required	-1602
ared	-1603
iction	-1604
▁fall	-1605
▁later	-1606
ball	-1607
▁left	-1608
urs	-1609
pped	-1610
▁hair	-1611
resh	-1612
urance	-1613
▁night	-1614
▁kind	-1615
▁wed	-1616
-2	-1617
▁apr	-1618
▁refer	-1619
▁mi	-1620
▁dru	-1621
▁favor	-1622
▁author	-1623
▁enjo	-1624
▁clean	-1625
▁dise	-1626
ending	-1627
▁lic	-1628
▁others	-1629
▁making	-1630
for	-1631
▁value	-1632
▁perfect	-1633
▁clin	-1634
▁specific	-1635
▁ey	-1636
▁mater	-1637
▁problem	-1638
▁expl	-1639
ograph	-1640
▁mer	-1641
ditions	-1642
▁google	-1643
osp	-1644
▁media	-1645
oms	-1646
ources	-1647
▁members	-1648
na	-1649
▁having	-1650
▁mic	-1651
▁meet	-1652
▁doctor	-1653
ster	-1654
▁called	-1655
icles	-1656
▁rate	-1657
▁coup	-1658
▁move	-1659
▁options	-1660
ots	-1661
▁games	-1662
▁results	-1663
▁22	-1664
▁country	-1665
▁request	-1666
▁until	-1667
▁=	-1668
▁ever	-1669
▁pick	-1670
▁flo	-1671
▁tour	-1672
uro	-1673
▁party	-1674
▁apply	-1675
▁individ	-1676
▁away	-1677
▁bath	-1678
▁advert	-1679
ars	-1680
▁security	-1681
▁summ	-1682
▁1,	-1683
▁lik	-1684
▁photos	-1685
▁2014	-1686
▁opp	-1687
▁subm	-1688
":	-1689
▁education	-1690
bile	-1691
▁sex	-1692
▁ang	-1693
▁working	-1694
▁features	-1695
▁ident	-1696
▁م	-1697
▁enjoy	-1698
▁cut	-1699
▁bal	-1700
atic	-1701
▁require	-1702
▁teach	-1703
unch	-1704
▁age	-1705
▁li	-1706
▁inde	-1707
▁girl	-1708
ges	-1709
ination	-1710
▁engine	-1711
ese	-1712
▁america	-1713
ret	-1714
▁green	-1715
ams	-1716
▁san	-1717
pper	-1718
▁story	-1719
▁conditions	-1720
ission	-1721
▁maj	-1722
▁vari	-1723
▁»	-1724
▁word	-1725
mon	-1726
▁tot	-1727
▁comb	-1728
▁wall	-1729
▁homes	-1730
▁continue	-1731
▁tre	-1732
▁suc	-1733
ged	-1734
ills	-1735
erv	-1736
▁instead	-1737
▁talk	-1738
▁question	-1739
cut	-1740
des	-1741
▁register	-1742
af	-1743
▁fed	-1744
▁complete	-1745
▁insurance	-1746
▁international	-1747
▁claim	-1748
not	-1749
po	-1750
▁23	-1751
▁professional	-1752
ison	-1753
▁far	-1754
ries	-1755
▁court	-1756
ove	-1757
▁sq	-1758
play	-1759
▁standard	-1760
ters	-1761
ape	-1762
.2	-1763
▁minutes	-1764
▁original	-1765
▁against	-1766
▁redu	-1767
▁file	-1768
▁break	-1769
▁oil	-1770
▁vi	-1771
▁improve	-1772
▁fit	-1773
▁ut	-1774
▁finan	-1775
▁anim	-1776
▁purchase	-1777
augh	-1778
▁article	-1779
▁prin	-1780
▁baby	-1781
▁foot	-1782
lex	-1783
▁deli	-1784
▁september	-1785
ville	-1786
▁pri	-1787
▁rad	-1788
▁tit	-1789
▁ps	-1790
▁material	-1791
▁user	-1792
▁walk	-1793
ilar	-1794
▁stay	-1795
▁additional	-1796
▁makes	-1797
ino	-1798
▁hal	-1799
▁docum	-1800
fort	-1801
▁sat	-1802
ource	-1803
▁known	-1804
▁epis	-1805
▁course	-1806
imate	-1807
▁pare	-1808
▁front	-1809
ule	-1810
▁que	-1811
▁beach	-1812
▁arch	-1813
iven	-1814
▁nav	-1815
▁defin	-1816
▁autom	-1817
//	-1818
▁pet	-1819
▁ther	-1820
itive	-1821
▁drive	-1822
umb	-1823
▁everything	-1824
▁single	-1825
▁example	-1826
ether	-1827
▁--	-1828
▁books	-1829
▁risk	-1830
▁ir	-1831
▁mich	-1832
▁caus	-1833
side	-1834
▁event	-1835
itter	-1836
▁collection	-1837
▁tips	-1838
▁note	-1839
time	-1840
▁fa	-1841
ok	-1842
........	-1843
▁possible	-1844
▁gold	-1845
▁present	-1846
▁ب	-1847
70	-1848
▁wood	-1849
▁needs	-1850
word	-1851
▁human	-1852
45	-1853
ising	-1854
ope	-1855
▁getting	-1856
▁staff	-1857
▁feed	-1858
rict	-1859
▁early	-1860
▁cards	-1861
verage	-1862
▁los	-1863
▁bi	-1864
▁belie	-1865
://	-1866
▁appear	-1867
▁sil	-1868
ird	-1869
▁several	-1870
▁blue	-1871
▁parts	-1872
▁model	-1873
▁major	-1874
▁assist	-1875
▁photo	-1876
▁customers	-1877
▁seem	-1878
▁related	-1879
▁feature	-1880
▁become	-1881
▁road	-1882
▁ur	-1883
ured	-1884
▁plus	-1885
▁close	-1886
▁understand	-1887
sc	-1888
▁birth	-1889
▁above	-1890
▁28	-1891
ma	-1892
fact	-1893
▁sales	-1894
▁helpful	-1895
gn	-1896
▁pan	-1897
▁ill	-1898
▁feb	-1899
▁skin	-1900
35	-1901
▁march	-1902
▁40	-1903
▁accord	-1904
▁cart	-1905
uff	-1906
▁amount	-1907
▁q	-1908
▁prem	-1909
▁2013	-1910
▁dou	-1911
▁subject	-1912
aily	-1913
ither	-1914
▁provided	-1915
▁film	-1916
▁calif	-1917
▁complet	-1918
▁@	-1919
aces	-1920
▁deg	-1921
ada	-1922
▁cir	-1923
▁success	-1924
▁popular	-1925
▁views	-1926
▁hotel	-1927
▁result	-1928
▁financial	-1929
ably	-1930
oid	-1931
▁fast	-1932
▁admin	-1933
▁hosp	-1934
▁meth	-1935
aring	-1936
▁million	-1937
▁mobile	-1938
▁gift	-1939
ised	-1940
▁space	-1941
angu	-1942
▁natur	-1943
ror	-1944
▁squ	-1945
▁added	-1946
my	-1947
▁latest	-1948
▁means	-1949
▁least	-1950
▁along	-1951
▁land	-1952
▁27	-1953
▁glo	-1954
▁micro	-1955
▁pict	-1956
rams	-1957
▁sle	-1958
top	-1959
▁sent	-1960
▁board	-1961
ensive	-1962
cription	-1963
▁sit	-1964
ornia	-1965
▁similar	-1966
▁doesn	-1967
▁sports	-1968
▁song	-1969
▁expect	-1970
▁whether	-1971
▁development	-1972
▁due	-1973
▁rights	-1974
ification	-1975
ounds	-1976
-8	-1977
▁daily	-1978
▁max	-1979
ilt	-1980
ances	-1981
ought	-1982
▁rele	-1983
illed	-1984
▁swe	-1985
uary	-1986
ergy	-1987
ung	-1988
▁living	-1989
oud	-1990
yn	-1991
▁26	-1992
wood	-1993
▁sympt	-1994
▁hotels	-1995
utions	-1996
▁accept	-1997
▁disease	-1998
▁words	-1999
org	-2000
▁california	-2001
▁coun	-2002
▁menu	-2003
ires	-2004
ready	-2005
ended	-2006
▁meas	-2007
ental	-2008
ains	-2009
▁version	-2010
▁mass	-2011
▁stra	-2012
ana	-2013
▁rates	-2014
ery	-2015
pos	-2016
clus	-2017
▁enough	-2018
▁companies	-2019
▁movie	-2020
cing	-2021
▁range	-2022
▁rock	-2023
▁internet	-2024
▁repres	-2025
▁style	-2026
▁ال	-2027
▁comment	-2028
▁august	-2029
▁software	-2030
▁fut	-2031
▁toget	-2032
▁july	-2033
ners	-2034
▁together	-2035
▁sold	-2036
▁five	-2037
phone	-2038
▁mount	-2039
▁government	-2040
▁calcul	-2041
▁reading	-2042
▁respons	-2043
val	-2044
▁syn	-2045
75	-2046
▁king	-2047
iday	-2048
▁department	-2049
ida	-2050
▁cause	-2051
▁shows	-2052
▁certain	-2053
bal	-2054
▁street	-2055
ume	-2056
▁sugg	-2057
.3	-2058
▁send	-2059
▁changes	-2060
▁mom	-2061
▁ll	-2062
▁percent	-2063
▁weight	-2064
▁disco	-2065
▁june	-2066
▁htt	-2067
▁deb	-2068
roll	-2069
▁suggest	-2070
▁god	-2071
▁screen	-2072
▁env	-2073
▁perio	-2074
▁already	-2075
▁29	-2076
▁track	-2077
▁self	-2078
▁flor	-2079
▁digital	-2080
ively	-2081
ees	-2082
▁browser	-2083
▁april	-2084
▁multip	-2085
▁tom	-2086
▁stop	-2087
gra	-2088
▁sen	-2089
ico	-2090
▁corre	-2091
ston	-2092
▁jour	-2093
ibility	-2094
▁training	-2095
▁performance	-2096
▁(19	-2097
ask	-2098
▁deter	-2099
▁lower	-2100
▁bad	-2101
edia	-2102
▁student	-2103
pa	-2104
ulation	-2105
▁didn	-2106
▁ideas	-2107
▁delivery	-2108
itted	-2109
▁gre	-2110
idge	-2111
ians	-2112
lies	-2113
▁works	-2114
▁deals	-2115
▁average	-2116
▁langu	-2117
ato	-2118
ables	-2119
ode	-2120
▁president	-2121
▁rat	-2122
▁jack	-2123
▁function	-2124
▁condition	-2125
▁computer	-2126
fi	-2127
bor	-2128
▁$2	-2129
49	-2130
▁tick	-2131
▁dress	-2132
cribe	-2133
ester	-2134
▁total	-2135
▁2012	-2136
▁island	-2137
ches	-2138
▁previous	-2139
li	-2140
▁vac	-2141
▁stock	-2142
▁science	-2143
--	-2144
▁thing	-2145
▁technology	-2146
ado	-2147
▁dam	-2148
▁thank	-2149
▁begin	-2150
▁hold	-2151
▁benefits	-2152
▁fix	-2153
▁young	-2154
agn	-2155
▁gard	-2156
▁extra	-2157
▁cult	-2158
ounts	-2159
▁safety	-2160
-0	-2161
▁21	-2162
rodu	-2163
▁vehicle	-2164
▁agree	-2165
conom	-2166
▁action	-2167
▁paper	-2168
▁simple	-2169
:5	-2170
ze	-2171
▁according	-2172
▁pie	-2173
▁miles	-2174
year	-2175
▁du	-2176
cially	-2177
▁earn	-2178
ender	-2179
ders	-2180
dle	-2181
▁symptoms	-2182
iron	-2183
▁express	-2184
▁cy	-2185
▁cancer	-2186
▁tools	-2187
▁tex	-2188
▁ho	-2189
:30	-2190
▁gar	-2191
▁moder	-2192
▁schools	-2193
gest	-2194
most	-2195
▁ic	-2196
▁federal	-2197
▁usually	-2198
▁tar	-2199
:0	-2200
/2	-2201
▁patient	-2202
▁prime	-2203
▁{	-2204
▁programs	-2205
wards	-2206
▁member	-2207
▁prim	-2208
▁town	-2209
▁fig	-2210
__	-2211
▁friends	-2212
▁building	-2213
▁taking	-2214
▁bag	-2215
32	-2216
▁ba	-2217
▁shopping	-2218
▁ny	-2219
osis	-2220
▁sett	-2221
istration	-2222
ube	-2223
den	-2224
▁given	-2225
▁comes	-2226
▁ger	-2227
▁norm	-2228
▁future	-2229
▁washing	-2230
▁collect	-2231
▁via	-2232
ny	-2233
▁estate	-2234
▁fish	-2235
▁sched	-2236
▁death	-2237
▁relations	-2238
gar	-2239
▁198	-2240
box	-2241
ued	-2242
ba	-2243
▁dog	-2244
▁mach	-2245
▁natural	-2246
ering	-2247
▁ult	-2248
▁field	-2249
ators	-2250
▁recipe	-2251
▁ess	-2252
▁lu	-2253
▁problems	-2254
ties	-2255
1.	-2256
▁chick	-2257
anced	-2258
▁january	-2259
▁smo	-2260
▁either	-2261
▁someone	-2262
▁stor	-2263
▁pal	-2264
iful	-2265
▁section	-2266
▁done	-2267
▁div	-2268
▁favorite	-2269
▁bott	-2270
▁las	-2271
▁bit	-2272
▁yet	-2273
65	-2274
▁load	-2275
▁brand	-2276
ox	-2277
▁econom	-2278
ibr	-2279
▁cat	-2280
▁events	-2281
ilities	-2282
▁income	-2283
▁users	-2284
▁trump	-2285
dr	-2286
▁cool	-2287
▁across	-2288
▁hous	-2289
▁ways	-2290
▁reason	-2291
▁medicine	-2292
▁east	-2293
ca	-2294
▁tur	-2295
▁cele	-2296
▁dom	-2297
imum	-2298
▁mac	-2299
▁club	-2300
▁den	-2301
▁manu	-2302
▁retrie	-2303
▁located	-2304
▁provides	-2305
▁effects	-2306
▁cross	-2307
▁represent	-2308
ouch	-2309
▁movies	-2310
▁whole	-2311
da	-2312
▁mind	-2313
▁leave	-2314
▁infl	-2315
nal	-2316
▁60	-2317
▁oh	-2318
inc	-2319
▁fur	-2320
▁base	-2321
▁application	-2322
:2	-2323
ules	-2324
▁energy	-2325
90	-2326
ocus	-2327
▁industry	-2328
▁fail	-2329
▁character	-2330
▁duration	-2331
▁perm	-2332
▁yelp	-2333
▁block	-2334
▁rev	-2335
▁nut	-2336
▁systems	-2337
▁resources	-2338
▁coll	-2339
▁dece	-2340
▁match	-2341
idence	-2342
▁trail	-2343
▁types	-2344
▁kitch	-2345
ored	-2346
▁remove	-2347
.00	-2348
▁legal	-2349
▁hor	-2350
fic	-2351
▁info	-2352
▁prices	-2353
▁fresh	-2354
▁llc	-2355
ym	-2356
▁wal	-2357
uit	-2358
▁strong	-2359
▁invol	-2360
▁consum	-2361
▁bur	-2362
▁environ	-2363
▁trip	-2364
ival	-2365
ipment	-2366
▁son	-2367
▁prob	-2368
▁private	-2369
▁period	-2370
dem	-2371
▁issues	-2372
▁hospital	-2373
▁soon	-2374
▁started	-2375
▁bring	-2376
ledge	-2377
▁higher	-2378
▁beautiful	-2379
▁thanks	-2380
▁sus	-2381
▁dav	-2382
▁reser	-2383
ica	-2384
ern	-2385
▁ok	-2386
▁flow	-2387
▁includes	-2388
▁half	-2389
▁auto	-2390
▁tele	-2391
▁abs	-2392
▁storage	-2393
bl	-2394
▁discuss	-2395
▁reach	-2396
▁comments	-2397
▁contract	-2398
▁clos	-2399
.4	-2400
▁affect	-2401
▁third	-2402
▁payment	-2403
▁washington	-2404
ural	-2405
▁advice	-2406
▁euro	-2407
▁mal	-2408
abet	-2409
▁articles	-2410
▁و	-2411
reg	-2412
▁ball	-2413
itten	-2414
ota	-2415
▁(1	-2416
▁instit	-2417
▁official	-2418
▁compet	-2419
▁corpor	-2420
▁cookies	-2421
▁actually	-2422
▁celebr	-2423
▁typ	-2424
▁contrib	-2425
▁twitter	-2426
▁rich	-2427
▁guest	-2428
▁diagn	-2429
39	-2430
▁grand	-2431
▁practice	-2432
anch	-2433
ruary	-2434
":"	-2435
▁focus	-2436
▁videos	-2437
oph	-2438
bur	-2439
▁floor	-2440
.6	-2441
atory	-2442
ming	-2443
▁mc	-2444
itting	-2445
▁2010	-2446
board	-2447
▁reply	-2448
▁corn	-2449
▁discover	-2450
▁came	-2451
▁among	-2452
use	-2453
▁drug	-2454
▁mix	-2455
!!	-2456
▁told	-2457
▁accessories	-2458
▁cab	-2459
door	-2460
▁learning	-2461
▁took	-2462
▁vot	-2463
▁kitchen	-2464
▁pressure	-2465
▁dest	-2466
▁image	-2467
▁speed	-2468
","	-2469
▁tim	-2470
▁currently	-2471
▁individual	-2472
ama	-2473
▁manufact	-2474
▁cannot	-2475
▁gro	-2476
▁language	-2477
▁cro	-2478
ych	-2479
▁paren	-2480
gen	-2481
▁retrieved	-2482
ortun	-2483
▁display	-2484
.1	-2485
▁december	-2486
▁document	-2487
▁indic	-2488
▁fair	-2489
▁blog	-2490
▁communic	-2491
▁jav	-2492
verse	-2493
▁multiple	-2494
▁exclus	-2495
▁prior	-2496
rit	-2497
▁smart	-2498
aken	-2499
ruction	-2500
▁six	-2501
▁went	-2502
▁needed	-2503
▁bow	-2504
pecially	-2505
▁instruct	-2506
▁polit	-2507
▁roll	-2508
▁hall	-2509
▁designed	-2510
vember	-2511
▁draw	-2512
.)	-2513
▁loss	-2514
mas	-2515
▁areas	-2516
▁device	-2517
ago	-2518
zz	-2519
aries	-2520
▁plans	-2521
nes	-2522
▁opportun	-2523
▁qual	-2524
▁$1	-2525
.8	-2526
▁cup	-2527
ension	-2528
▁<	-2529
▁deliver	-2530
▁rank	-2531
▁february	-2532
▁vs	-2533
oint	-2534
▁choice	-2535
▁published	-2536
▁worth	-2537
▁acad	-2538
▁chicken	-2539
ysis	-2540
▁drink	-2541
▁particular	-2542
▁happy	-2543
though	-2544
▁hon	-2545
ان	-2546
▁posted	-2547
▁true	-2548
▁ens	-2549
▁enc	-2550
▁issue	-2551
▁rating	-2552
▁cast	-2553
▁limited	-2554
arks	-2555
astic	-2556
▁categ	-2557
▁seen	-2558
▁activities	-2559
▁environment	-2560
▁cit	-2561
hol	-2562
▁update	-2563
▁navig	-2564
▁texas	-2565
▁doing	-2566
▁ft	-2567
▁vo	-2568
▁episode	-2569
where	-2570
34	-2571
▁phil	-2572
▁option	-2573
▁infect	-2574
uation	-2575
▁brit	-2576
▁message	-2577
▁angel	-2578
▁sand	-2579
ted	-2580
.7	-2581
▁sens	-2582
▁correct	-2583
▁truck	-2584
▁speak	-2585
▁replace	-2586
▁inside	-2587
▁commer	-2588
▁aust	-2589
face	-2590
▁november	-2591
▁2,	-2592
▁init	-2593
▁florida	-2594
ends	-2595
▁wedding	-2596
off	-2597
itor	-2598
▁cash	-2599
▁pret	-2600
roid	-2601
▁eye	-2602
▁career	-2603
▁master	-2604
▁restaurants	-2605
▁equipment	-2606
▁therap	-2607
▁bul	-2608
ml	-2609
▁button	-2610
▁cand	-2611
▁license	-2612
▁trust	-2613
order	-2614
ief	-2615
▁academ	-2616
▁whe	-2617
▁weeks	-2618
▁heav	-2619
▁mort	-2620
36	-2621
olf	-2622
lement	-2623
▁agre	-2624
▁images	-2625
▁join	-2626
▁increase	-2627
▁د	-2628
net	-2629
fr	-2630
▁fat	-2631
▁repair	-2632
▁п	-2633
▁received	-2634
▁door	-2635
za	-2636
▁cases	-2637
▁comfort	-2638
lim	-2639
▁imm	-2640
pend	-2641
▁updated	-2642
▁thought	-2643
itary	-2644
▁else	-2645
▁cru	-2646
▁regular	-2647
just	-2648
▁explo	-2649
▁prep	-2650
▁especially	-2651
▁safe	-2652
medi	-2653
care	-2654
▁chall	-2655
▁diction	-2656
▁outside	-2657
▁sound	-2658
ham	-2659
▁pen	-2660
▁although	-2661
▁rom	-2662
▁middle	-2663
▁ital	-2664
▁source	-2665
cont	-2666
▁lake	-2667
▁garden	-2668
▁stri	-2669
new	-2670
▁dre	-2671
▁password	-2672
▁takes	-2673
44	-2674
▁fees	-2675
▁jobs	-2676
▁included	-2677
▁happen	-2678
▁insp	-2679
▁diet	-2680
ta	-2681
▁usa	-2682
▁summer	-2683
▁apple	-2684
▁glass	-2685
▁dead	-2686
▁employees	-2687
▁entire	-2688
▁host	-2689
▁sleep	-2690
▁vote	-2691
▁gas	-2692
▁ful	-2693
▁anything	-2694
▁pu	-2695
▁answers	-2696
rench	-2697
▁concer	-2698
▁motor	-2699
▁jud	-2700
▁valid	-2701
▁longer	-2702
▁prefer	-2703
▁avoid	-2704
▁canc	-2705
▁decor	-2706
▁driv	-2707
ring	-2708
uk	-2709
▁dem	-2710
▁directly	-2711
▁chic	-2712
attle	-2713
▁respon	-2714
▁orders	-2715
▁lay	-2716
▁prevent	-2717
▁simp	-2718
▁din	-2719
▁?	-2720
▁der	-2721
▁ave	-2722
tv	-2723
▁central	-2724
▁marri	-2725
▁wonder	-2726
ari	-2727
▁further	-2728
▁write	-2729
▁cloth	-2730
▁bon	-2731
df	-2732
▁likely	-2733
▁recipes	-2734
▁cas	-2735
▁plant	-2736
ura	-2737
▁brown	-2738
ises	-2739
▁unit	-2740
▁europe	-2741
▁doll	-2742
37	-2743
▁modern	-2744
▁ii	-2745
▁spring	-2746
hood	-2747
▁ready	-2748
orial	-2749
▁almost	-2750
ero	-2751
▁gradu	-2752
▁dry	-2753
oma	-2754
rant	-2755
▁levels	-2756
ha	-2757
▁rout	-2758
▁bud	-2759
▁chem	-2760
isc	-2761
▁transfer	-2762
▁exe	-2763
uce	-2764
▁newslet	-2765
▁hun	-2766
▁mail	-2767
▁finish	-2768
▁written	-2769
▁®	-2770
▁necess	-2771
ctions	-2772
▁looks	-2773
▁lou	-2774
dom	-2775
▁$5	-2776
amed	-2777
head	-2778
38	-2779
▁sites	-2780
uel	-2781
▁separ	-2782
▁etc	-2783
▁mor	-2784
▁psych	-2785
▁affili	-2786
asing	-2787
▁distrib	-2788
ael	-2789
erc	-2790
▁flu	-2791
-5	-2792
▁healthy	-2793
▁everyone	-2794
▁particip	-2795
ashion	-2796
▁wel	-2797
▁wire	-2798
▁district	-2799
▁numbers	-2800
▁starting	-2801
▁registered	-2802
ially	-2803
see	-2804
▁mel	-2805
▁tradition	-2806
▁mr	-2807
▁fort	-2808
▁built	-2809
▁pc	-2810
come	-2811
▁furn	-2812
▁late	-2813
sp	-2814
▁final	-2815
▁exist	-2816
▁dictionary	-2817
▁guid	-2818
▁organization	-2819
▁32	-2820
▁nice	-2821
thern	-2822
▁dan	-2823
ga	-2824
era	-2825
▁promot	-2826
▁tradem	-2827
▁soci	-2828
▁wish	-2829
42	-2830
▁temper	-2831
sch	-2832
▁hear	-2833
▁(20	-2834
▁respect	-2835
▁signific	-2836
fully	-2837
▁notice	-2838
ara	-2839
3,	-2840
99	-2841
▁ing	-2842
▁sqft	-2843
▁recent	-2844
▁с	-2845
▁subst	-2846
▁round	-2847
▁heat	-2848
▁ben	-2849
▁fram	-2850
▁sometimes	-2851
▁records	-2852
▁farm	-2853
▁position	-2854
▁supplies	-2855
▁former	-2856
duct	-2857
▁batter	-2858
▁hope	-2859
▁exam	-2860
▁attack	-2861
",	-2862
▁cars	-2863
▁role	-2864
▁remember	-2865
▁histor	-2866
▁global	-2867
▁degree	-2868
▁object	-2869
▁parents	-2870
▁christmas	-2871
.99	-2872
ellow	-2873
▁uses	-2874
erson	-2875
▁;	-2876
▁yes	-2877
gage	-2878
▁properties	-2879
▁physical	-2880
bi	-2881
ses	-2882
▁isn	-2883
▁broad	-2884
ancy	-2885
▁woman	-2886
ude	-2887
▁asked	-2888
cra	-2889
):	-2890
▁regard	-2891
ogn	-2892
▁rob	-2893
▁mex	-2894
▁ten	-2895
▁indian	-2896
▁simply	-2897
▁inj	-2898
▁employee	-2899
▁led	-2900
▁rd	-2901
48	-2902
▁chur	-2903
▁crit	-2904
▁quickly	-2905
▁diffic	-2906
anta	-2907
▁electron	-2908
▁entertain	-2909
▁title	-2910
▁military	-2911
▁introdu	-2912
▁yourself	-2913
ascript	-2914
▁mother	-2915
▁emerg	-2916
hib	-2917
▁status	-2918
▁audio	-2919
▁struct	-2920
ceed	-2921
▁vict	-2922
sa	-2923
▁profile	-2924
list	-2925
▁ded	-2926
▁cheese	-2927
▁neg	-2928
▁river	-2929
▁conc	-2930
▁trying	-2931
une	-2932
▁hu	-2933
▁hit	-2934
▁idea	-2935
▁upon	-2936
soft	-2937
▁german	-2938
ography	-2939
▁confir	-2940
▁difficult	-2941
▁feet	-2942
cip	-2943
▁activity	-2944
aming	-2945
47	-2946
pre	-2947
▁response	-2948
▁eat	-2949
▁knowledge	-2950
cast	-2951
-1	-2952
▁wik	-2953
▁announ	-2954
▁jew	-2955
▁links	-2956
▁2011	-2957
▁variety	-2958
▁except	-2959
ock	-2960
over	-2961
▁manufactur	-2962
▁unique	-2963
vis	-2964
▁ham	-2965
▁197	-2966
▁loan	-2967
▁viol	-2968
▁emb	-2969
▁fly	-2970
ón	-2971
▁transl	-2972
▁alb	-2973
▁deep	-2974
▁coming	-2975
▁manage	-2976
aps	-2977
▁fashion	-2978
empt	-2979
▁gun	-2980
46	-2981
▁independ	-2982
▁obs	-2983
▁believe	-2984
▁studies	-2985
▁javascript	-2986
▁leav	-2987
▁fem	-2988
▁strateg	-2989
aced	-2990
▁dark	-2991
itions	-2992
▁owners	-2993
▁lif	-2994
▁switch	-2995
ength	-2996
▁pool	-2997
ained	-2998
▁stories	-2999
lection	-3000
▁carol	-3001
▁various	-3002
action	-3003
based	-3004
▁advanced	-3005
▁accom	-3006
▁double	-3007
▁frequ	-3008
king	-3009
▁active	-3010
▁running	-3011
▁airport	-3012
lin	-3013
▁outdoor	-3014
arant	-3015
▁md	-3016
▁created	-3017
▁pharm	-3018
▁serious	-3019
▁die	-3020
ablish	-3021
bert	-3022
▁edition	-3023
▁journal	-3024
▁restaurant	-3025
▁manager	-3026
▁behind	-3027
▁quot	-3028
▁inte	-3029
ression	-3030
▁expert	-3031
▁term	-3032
etic	-3033
▁plat	-3034
band	-3035
▁cream	-3036
▁annual	-3037
▁analysis	-3038
▁vit	-3039
▁tast	-3040
▁path	-3041
▁ach	-3042
▁solutions	-3043
▁writing	-3044
▁weather	-3045
▁subscribe	-3046
▁helps	-3047
▁van	-3048
▁premium	-3049
gery	-3050
▁anyone	-3051
▁ground	-3052
put	-3053
fe	-3054
▁owner	-3055
ns	-3056
▁pages	-3057
▁virgin	-3058
▁association	-3059
▁associated	-3060
▁release	-3061
▁analy	-3062
ار	-3063
▁behav	-3064
ades	-3065
house	-3066
olution	-3067
▁taken	-3068
▁score	-3069
▁paid	-3070
light	-3071
▁recogn	-3072
▁2009	-3073
▁nothing	-3074
▁difference	-3075
▁arm	-3076
▁sweet	-3077
▁gets	-3078
ground	-3079
ov	-3080
▁excell	-3081
▁partners	-3082
▁french	-3083
rel	-3084
▁immedi	-3085
▁easily	-3086
inary	-3087
▁touch	-3088
hy	-3089
▁police	-3090
amin	-3091
▁guarant	-3092
asons	-3093
▁tru	-3094
▁steps	-3095
▁kid	-3096
▁protection	-3097
change	-3098
▁trou	-3099
▁exerc	-3100
ford	-3101
▁maintain	-3102
▁updates	-3103
▁commercial	-3104
▁wild	-3105
▁award	-3106
▁method	-3107
▁wide	-3108
izes	-3109
elling	-3110
sem	-3111
▁civ	-3112
tr	-3113
ici	-3114
▁instructions	-3115
▁fill	-3116
▁altern	-3117
su	-3118
▁libr	-3119
▁establish	-3120
22	-3121
▁settings	-3122
▁matt	-3123
▁в	-3124
▁costs	-3125
riate	-3126
▁exact	-3127
▁occur	-3128
▁desk	-3129
▁statement	-3130
istry	-3131
▁probably	-3132
▁pretty	-3133
▁feedback	-3134
▁afric	-3135
▁listed	-3136
4,	-3137
▁egg	-3138
▁(0	-3139
▁birthday	-3140
bre	-3141
▁classic	-3142
ker	-3143
ship	-3144
▁station	-3145
▁devices	-3146
zy	-3147
▁charge	-3148
eth	-3149
▁warn	-3150
ging	-3151
▁2019	-3152
▁chicago	-3153
▁significant	-3154
cr	-3155
▁square	-3156
▁2008	-3157
yal	-3158
▁rather	-3159
▁gall	-3160
▁amazing	-3161
▁proced	-3162
aging	-3163
▁target	-3164
▁error	-3165
▁tren	-3166
ray	-3167
▁surgery	-3168
▁exclusive	-3169
apan	-3170
▁5.0	-3171
▁ت	-3172
gl	-3173
elves	-3174
▁opin	-3175
▁interview	-3176
▁reported	-3177
▁michael	-3178
▁served	-3179
istic	-3180
▁iphone	-3181
irt	-3182
▁chap	-3183
▁conv	-3184
rest	-3185
▁church	-3186
▁bay	-3187
▁tx	-3188
ault	-3189
▁russ	-3190
▁letter	-3191
▁earth	-3192
ky	-3193
airs	-3194
▁80	-3195
▁ple	-3196
▁rooms	-3197
▁ip	-3198
iture	-3199
▁files	-3200
▁commit	-3201
33	-3202
la	-3203
▁allows	-3204
▁appe	-3205
▁cold	-3206
▁fra	-3207
▁35	-3208
▁profession	-3209
▁lost	-3210
▁impact	-3211
▁clinical	-3212
▁places	-3213
tra	-3214
▁names	-3215
▁morn	-3216
▁approach	-3217
▁willi	-3218
▁hur	-3219
▁hd	-3220
ded	-3221
nam	-3222
abled	-3223
▁thous	-3224
field	-3225
▁requirements	-3226
aint	-3227
▁solution	-3228
▁ice	-3229
▁prop	-3230
iff	-3231
nov	-3232
set	-3233
▁pattern	-3234
wide	-3235
▁matter	-3236
▁ms	-3237
▁pregn	-3238
▁wanted	-3239
coming	-3240
▁assess	-3241
▁adm	-3242
▁neigh	-3243
▁clinic	-3244
▁normal	-3245
ew	-3246
izing	-3247
lock	-3248
▁secret	-3249
▁integr	-3250
anger	-3251
▁throughout	-3252
▁).	-3253
▁force	-3254
fri	-3255
▁spir	-3256
▁adults	-3257
▁consult	-3258
itis	-3259
iat	-3260
ements	-3261
▁veter	-3262
▁fee	-3263
▁extre	-3264
▁origin	-3265
ffic	-3266
▁leaders	-3267
▁schedule	-3268
ums	-3269
▁overall	-3270
▁porn	-3271
▁slow	-3272
▁electric	-3273
▁coff	-3274
▁player	-3275
▁90	-3276
▁seat	-3277
▁wid	-3278
▁rules	-3279
▁growth	-3280
TM	-3281
▁louis	-3282
▁resid	-3283
▁ratings	-3284
▁3,	-3285
66	-3286
▁prote	-3287
▁mary	-3288
▁considered	-3289
▁became	-3290
▁boy	-3291
▁ensure	-3292
-20	-3293
che	-3294
▁taxes	-3295
ki	-3296
▁explore	-3297
▁recommended	-3298
▁span	-3299
▁driver	-3300
outh	-3301
free	-3302
str	-3303
▁sauce	-3304
▁anti	-3305
▁compare	-3306
▁potential	-3307
▁beauty	-3308
▁meaning	-3309
ula	-3310
▁locations	-3311
bit	-3312
▁foods	-3313
▁appoint	-3314
▁copy	-3315
onic	-3316
vd	-3317
▁measure	-3318
▁adjust	-3319
▁ol	-3320
▁vill	-3321
rup	-3322
-2018	-3323
".	-3324
▁atl	-3325
orge	-3326
lied	-3327
mp	-3328
▁length	-3329
▁pros	-3330
▁director	-3331
▁elig	-3332
ste	-3333
▁investig	-3334
▁bedroom	-3335
▁microsoft	-3336
▁lock	-3337
▁forms	-3338
▁band	-3339
▁production	-3340
asc	-3341
▁fol	-3342
ological	-3343
▁tab	-3344
▁marketing	-3345
▁machine	-3346
ona	-3347
▁wrong	-3348
7,	-3349
fast	-3350
▁therapy	-3351
mark	-3352
ocol	-3353
▁monthly	-3354
▁apart	-3355
▁morning	-3356
ww	-3357
▁reve	-3358
▁japan	-3359
▁materials	-3360
31	-3361
▁trade	-3362
ops	-3363
down	-3364
▁skills	-3365
▁flight	-3366
▁execut	-3367
▁capital	-3368
▁james	-3369
more	-3370
▁fight	-3371
▁apps	-3372
aker	-3373
▁ber	-3374
▁effective	-3375
▁gal	-3376
▁samp	-3377
▁essential	-3378
▁furniture	-3379
ience	-3380
▁mis	-3381
▁nov	-3382
▁fine	-3383
like	-3384
▁pictures	-3385
how	-3386
▁steel	-3387
▁definition	-3388
▁david	-3389
▁cells	-3390
▁provider	-3391
▁father	-3392
▁nation	-3393
wise	-3394
▁facts	-3395
▁fab	-3396
="	-3397
ett	-3398
▁hus	-3399
▁dut	-3400
▁retail	-3401
▁warrant	-3402
▁yout	-3403
ette	-3404
iles	-3405
▁worked	-3406
▁licens	-3407
▁pow	-3408
▁math	-3409
на	-3410
▁signs	-3411
2,	-3412
▁mg	-3413
▁nar	-3414
ای	-3415
▁angeles	-3416
▁labor	-3417
................	-3418
▁achie	-3419
▁mur	-3420
▁uk	-3421
mine	-3422
▁45	-3423
chan	-3424
vey	-3425
▁jump	-3426
▁zip	-3427
▁basic	-3428
▁tag	-3429
▁sugar	-3430
▁http	-3431
85	-3432
▁largest	-3433
▁ford	-3434
nd	-3435
▁ک	-3436
▁liter	-3437
▁burn	-3438
▁silver	-3439
▁arriv	-3440
ho	-3441
6,	-3442
▁couple	-3443
▁characters	-3444
▁interact	-3445
ls	-3446
▁convers	-3447
www	-3448
▁por	-3449
▁causes	-3450
▁warm	-3451
key	-3452
▁reports	-3453
▁coffee	-3454
▁stuff	-3455
▁stores	-3456
▁transport	-3457
gu	-3458
▁fel	-3459
▁planning	-3460
arily	-3461
▁ability	-3462
▁submit	-3463
▁pull	-3464
▁estim	-3465
▁chann	-3466
▁friendly	-3467
▁android	-3468
▁values	-3469
▁stick	-3470
▁tickets	-3471
▁spot	-3472
ening	-3473
▁sense	-3474
gress	-3475
▁golf	-3476
▁balance	-3477
▁library	-3478
▁limit	-3479
▁va	-3480
iring	-3481
▁reserved	-3482
▁regul	-3483
hold	-3484
oura	-3485
▁ship	-3486
mer	-3487
▁shoot	-3488
▁hands	-3489
▁adding	-3490
▁foundation	-3491
▁kill	-3492
▁selection	-3493
▁animal	-3494
ares	-3495
▁seems	-3496
▁graph	-3497
▁opens	-3498
▁recently	-3499
ald	-3500
▁entertainment	-3501
95	-3502
▁wait	-3503
▁sort	-3504
▁physic	-3505
▁eval	-3506
▁factors	-3507
▁lad	-3508
▁arts	-3509
▁fund	-3510
▁continu	-3511
▁relationship	-3512
▁groups	-3513
▁culture	-3514
▁born	-3515
▁girls	-3516
▁youtube	-3517
▁ox	-3518
▁gives	-3519
▁listing	-3520
▁agent	-3521
istics	-3522
▁goes	-3523
▁obtain	-3524
▁drugs	-3525
▁cry	-3526
▁compar	-3527
▁canada	-3528
▁hi	-3529
▁70	-3530
▁sty	-3531
▁moving	-3532
▁brain	-3533
▁posts	-3534
▁label	-3535
▁exchange	-3536
▁mad	-3537
▁rap	-3538
▁union	-3539
▁magaz	-3540
▁friday	-3541
any	-3542
icing	-3543
▁diabet	-3544
▁flag	-3545
▁society	-3546
▁century	-3547
▁gif	-3548
▁fan	-3549
▁carolina	-3550
▁penn	-3551
▁mortgage	-3552
▁winter	-3553
▁launch	-3554
▁advertising	-3555
▁daugh	-3556
▁cloud	-3557
▁quite	-3558
▁forward	-3559
▁secure	-3560
▁remain	-3561
▁saw	-3562
▁tow	-3563
▁consent	-3564
arter	-3565
▁influ	-3566
fit	-3567
▁dro	-3568
▁server	-3569
enced	-3570
▁alex	-3571
db	-3572
reng	-3573
▁virginia	-3574
imately	-3575
rew	-3576
77	-3577
ivity	-3578
uals	-3579
▁adult	-3580
▁dish	-3581
▁reduce	-3582
ows	-3583
▁necessary	-3584
used	-3585
▁traditional	-3586
▁older	-3587
▁advertis	-3588
▁himself	-3589
ania	-3590
ivers	-3591
rength	-3592
rum	-3593
pts	-3594
62	-3595
▁damage	-3596
ned	-3597
vi	-3598
-3	-3599
ided	-3600
▁shown	-3601
▁primary	-3602
place	-3603
▁mat	-3604
ka	-3605
force	-3606
▁format	-3607
▁il	-3608
ctors	-3609
▁agreement	-3610
ads	-3611
reek	-3612
▁houses	-3613
▁italian	-3614
▁quotes	-3615
▁describ	-3616
▁butter	-3617
▁flights	-3618
gas	-3619
bc	-3620
▁beds	-3621
pose	-3622
▁nearby	-3623
▁https	-3624
▁pred	-3625
▁fest	-3626
▁paul	-3627
▁vary	-3628
▁straight	-3629
dd	-3630
▁administration	-3631
▁lines	-3632
aged	-3633
▁carri	-3634
▁trial	-3635
▁surpr	-3636
▁snow	-3637
cies	-3638
▁availability	-3639
▁sor	-3640
▁wife	-3641
ference	-3642
▁mart	-3643
▁ww	-3644
lines	-3645
▁drop	-3646
inger	-3647
▁highly	-3648
▁newsletter	-3649
▁hill	-3650
▁paint	-3651
▁champ	-3652
▁bey	-3653
▁2018,	-3654
▁leading	-3655
▁famil	-3656
▁figure	-3657
▁ath	-3658
▁increased	-3659
▁strength	-3660
▁nature	-3661
▁civil	-3662
ст	-3663
col	-3664
eds	-3665
amm	-3666
ken	-3667
▁valley	-3668
mm	-3669
▁examples	-3670
▁enable	-3671
met	-3672
▁countries	-3673
▁shall	-3674
▁excellent	-3675
▁tree	-3676
68	-3677
▁carry	-3678
▁eyes	-3679
▁savings	-3680
▁wine	-3681
ternal	-3682
9,	-3683
▁lap	-3684
▁projects	-3685
▁metal	-3686
▁muse	-3687
▁4,	-3688
▁lists	-3689
rap	-3690
▁train	-3691
▁bottom	-3692
cil	-3693
▁rand	-3694
▁tried	-3695
ami	-3696
▁jul	-3697
osure	-3698
3)	-3699
▁compon	-3700
bon	-3701
▁approx	-3702
▁eth	-3703
bol	-3704
▁selected	-3705
▁picture	-3706
▁login	-3707
bu	-3708
▁reference	-3709
orney	-3710
▁satur	-3711
▁advant	-3712
▁agency	-3713
▁scient	-3714
▁publishing	-3715
▁discl	-3716
atically	-3717
▁holiday	-3718
ores	-3719
rial	-3720
craft	-3721
▁supply	-3722
▁monitor	-3723
▁highest	-3724
▁surv	-3725
▁lives	-3726
▁tests	-3727
men	-3728
▁players	-3729
ata	-3730
can	-3731
ondon	-3732
ра	-3733
▁rewards	-3734
▁10,	-3735
▁removed	-3736
▁attorney	-3737
▁coast	-3738
▁az	-3739
▁itself	-3740
▁evidence	-3741
▁bought	-3742
▁rid	-3743
▁afford	-3744
▁da	-3745
▁surface	-3746
▁complex	-3747
▁sea	-3748
▁began	-3749
▁attract	-3750
▁radio	-3751
▁firm	-3752
comes	-3753
▁determine	-3754
▁professionals	-3755
▁command	-3756
▁cities	-3757
▁finally	-3758
▁models	-3759
▁thousands	-3760
▁meeting	-3761
▁generally	-3762
▁haw	-3763
▁directions	-3764
icious	-3765
▁sport	-3766
▁spanish	-3767
▁ped	-3768
▁monday	-3769
▁cred	-3770
▁neighbor	-3771
▁kit	-3772
ket	-3773
ни	-3774
▁creative	-3775
▁2007	-3776
▁decision	-3777
odes	-3778
▁ren	-3779
64	-3780
▁piece	-3781
gy	-3782
▁sam	-3783
▁breast	-3784
mail	-3785
▁2000	-3786
▁brands	-3787
▁cheap	-3788
town	-3789
▁region	-3790
▁construction	-3791
ublic	-3792
▁advent	-3793
▁population	-3794
▁accounts	-3795
88	-3796
▁platform	-3797
ipedia	-3798
▁ga	-3799
cket	-3800
▁cd	-3801
▁disney	-3802
▁organiz	-3803
lier	-3804
▁sunday	-3805
now	-3806
▁upgra	-3807
/20	-3808
▁welcome	-3809
lor	-3810
▁mechan	-3811
▁flash	-3812
▁gear	-3813
▁rated	-3814
▁payments	-3815
▁uns	-3816
▁british	-3817
mod	-3818
но	-3819
▁heavy	-3820
▁5,	-3821
▁tal	-3822
▁behavior	-3823
▁frame	-3824
▁temperature	-3825
ios	-3826
agram	-3827
▁austral	-3828
▁london	-3829
▁gain	-3830
▁stress	-3831
▁package	-3832
▁greater	-3833
▁providing	-3834
vision	-3835
▁datab	-3836
▁arg	-3837
▁fans	-3838
▁shoes	-3839
▁tor	-3840
▁husband	-3841
▁rental	-3842
look	-3843
round	-3844
▁laws	-3845
itation	-3846
▁calls	-3847
▁incor	-3848
▁coverage	-3849
ague	-3850
▁held	-3851
▁browse	-3852
rim	-3853
iers	-3854
vant	-3855
oop	-3856
▁investment	-3857
▁requires	-3858
▁ven	-3859
▁typically	-3860
▁fixed	-3861
▁transm	-3862
▁ones	-3863
▁veget	-3864
▁stream	-3865
▁songs	-3866
▁depos	-3867
▁salt	-3868
▁responsible	-3869
▁constit	-3870
body	-3871
▁parking	-3872
▁bathroom	-3873
▁(200	-3874
ini	-3875
ris	-3876
500	-3877
▁setting	-3878
▁piz	-3879
▁contains	-3880
▁covered	-3881
▁immediately	-3882
▁wil	-3883
▁named	-3884
▁esc	-3885
olar	-3886
▁battery	-3887
ux	-3888
▁sources	-3889
ying	-3890
ob	-3891
ansas	-3892
▁families	-3893
▁cu	-3894
▁detect	-3895
▁benefit	-3896
hips	-3897
▁coach	-3898
▁testing	-3899
▁animals	-3900
▁driving	-3901
enty	-3902
friend	-3903
▁nurs	-3904
▁flex	-3905
▁inn	-3906
▁applications	-3907
you	-3908
usion	-3909
▁healthcare	-3910
▁moment	-3911
▁thom	-3912
rab	-3913
▁rare	-3914
▁2005	-3915
▁political	-3916
▁dinner	-3917
▁offered	-3918
▁china	-3919
▁les	-3920
▁voted	-3921
edy	-3922
▁conduct	-3923
-7	-3924
▁cancel	-3925
▁respond	-3926
▁capt	-3927
ef	-3928
▁certific	-3929
▁conven	-3930
igan	-3931
▁dogs	-3932
▁satis	-3933
▁fully	-3934
burg	-3935
▁calend	-3936
▁emergency	-3937
▁wear	-3938
▁vent	-3939
omb	-3940
▁playing	-3941
isco	-3942
▁senior	-3943
▁football	-3944
▁spl	-3945
▁ari	-3946
ال	-3947
sing	-3948
▁completely	-3949
▁colors	-3950
▁partner	-3951
tenance	-3952
isions	-3953
ipp	-3954
uring	-3955
erve	-3956
▁beyond	-3957
char	-3958
▁nc	-3959
▁diabetes	-3960
▁individuals	-3961
▁wheel	-3962
▁approp	-3963
istr	-3964
▁positive	-3965
▁upper	-3966
▁stage	-3967
ersey	-3968
67	-3969
▁ه	-3970
▁franc	-3971
▁spirit	-3972
▁virt	-3973
▁trouble	-3974
▁ast	-3975
▁serve	-3976
▁huge	-3977
▁assistance	-3978
cohol	-3979
iant	-3980
▁daughter	-3981
▁wireless	-3982
▁actual	-3983
▁flat	-3984
▁advis	-3985
▁mountain	-3986
oring	-3987
▁48	-3988
▁policies	-3989
▁attention	-3990
▁rub	-3991
▁loans	-3992
▁buying	-3993
wr	-3994
▁dining	-3995
▁released	-3996
▁easier	-3997
ifying	-3998
issions	-3999
iger	-4000
aling	-4001
▁gifts	-4002
-10	-4003
rition	-4004
▁element	-4005
▁tut	-4006
28	-4007
▁reasons	-4008
▁retire	-4009
antic	-4010
▁accur	-4011
berg	-4012
▁minimum	-4013
fts	-4014
▁filter	-4015
▁exercise	-4016
▁ban	-4017
3.	-4018
}}	-4019
umn	-4020
▁sep	-4021
▁heads	-4022
ius	-4023
▁fuel	-4024
69	-4025
▁linked	-4026
reci	-4027
iel	-4028
star	-4029
▁س	-4030
▁iron	-4031
▁ingred	-4032
cs	-4033
mi	-4034
ban	-4035
well	-4036
▁corporate	-4037
▁cabin	-4038
▁rain	-4039
▁awards	-4040
▁determin	-4041
▁changed	-4042
▁attach	-4043
▁confirm	-4044
▁si	-4045
orders	-4046
▁discount	-4047
▁clicking	-4048
▁creating	-4049
▁jersey	-4050
uted	-4051
ession	-4052
▁maintenance	-4053
▁opportunity	-4054
▁consist	-4055
▁index	-4056
▁giving	-4057
▁standards	-4058
▁grade	-4059
▁famous	-4060
erts	-4061
▁core	-4062
itely	-4063
▁diam	-4064
▁resort	-4065
▁larger	-4066
41	-4067
▁controll	-4068
▁acqu	-4069
▁ر	-4070
▁grant	-4071
▁independent	-4072
▁nearly	-4073
she	-4074
▁saved	-4075
▁rh	-4076
▁mini	-4077
▁progress	-4078
ita	-4079
▁listings	-4080
ij	-4081
▁eating	-4082
▁opinion	-4083
▁verified	-4084
▁boo	-4085
▁ct	-4086
▁entry	-4087
▁dial	-4088
/2018	-4089
▁ec	-4090
▁и	-4091
-9	-4092
▁unless	-4093
▁instant	-4094
▁mexico	-4095
▁sets	-4096
west	-4097
▁fitness	-4098
▁chance	-4099
▁hyd	-4100
▁saying	-4101
ros	-4102
▁fant	-4103
▁innov	-4104
▁india	-4105
▁convert	-4106
▁returns	-4107
▁voice	-4108
cles	-4109
▁magazine	-4110
mar	-4111
▁resident	-4112
▁fro	-4113
▁plants	-4114
▁spread	-4115
▁resist	-4116
▁bell	-4117
▁mission	-4118
▁otherwise	-4119
▁smith	-4120
▁lux	-4121
▁logo	-4122
▁frank	-4123
▁eligible	-4124
▁adap	-4125
ción	-4126
▁maximum	-4127
▁cable	-4128
▁suite	-4129
▁reflect	-4130
▁suff	-4131
▁alcohol	-4132
▁restrict	-4133
▁mp	-4134
▁guard	-4135
omy	-4136
▁7,	-4137
2.	-4138
▁8,	-4139
▁vehicles	-4140
wor	-4141
books	-4142
▁protein	-4143
iced	-4144
▁pump	-4145
▁kh	-4146
▁codes	-4147
▁breakfast	-4148
▁useful	-4149
▁volume	-4150
▁alle	-4151
▁wi	-4152
▁replacement	-4153
▁tenn	-4154
win	-4155
▁columb	-4156
27	-4157
▁expand	-4158
▁guests	-4159
▁templ	-4160
▁registration	-4161
▁caused	-4162
▁courses	-4163
ancing	-4164
▁poor	-4165
ption	-4166
▁loved	-4167
-4	-4168
aled	-4169
▁ن	-4170
▁compared	-4171
▁teen	-4172
bed	-4173
▁oz	-4174
▁chemical	-4175
eline	-4176
▁camera	-4177
▁acid	-4178
▁purpose	-4179
▁demo	-4180
yer	-4181
unt	-4182
▁expected	-4183
▁budget	-4184
▁1:	-4185
▁clothing	-4186
▁hel	-4187
▁connection	-4188
▁mont	-4189
▁sexual	-4190
▁shot	-4191
▁interested	-4192
▁suit	-4193
▁race	-4194
▁depending	-4195
ished	-4196
▁desp	-4197
▁battle	-4198
▁spend	-4199
▁episodes	-4200
▁memory	-4201
▁gave	-4202
asts	-4203
oon	-4204
ست	-4205
▁neck	-4206
▁enh	-4207
▁breat	-4208
▁commission	-4209
aign	-4210
▁imdb	-4211
▁crim	-4212
part	-4213
▁mayo	-4214
▁imag	-4215
▁stone	-4216
atives	-4217
cious	-4218
vent	-4219
▁dim	-4220
-19	-4221
▁tend	-4222
▁involved	-4223
55	-4224
▁к	-4225
▁maybe	-4226
▁allowed	-4227
▁compl	-4228
▁о	-4229
fs	-4230
▁jes	-4231
▁serving	-4232
▁chocol	-4233
100	-4234
iqu	-4235
▁external	-4236
▁emot	-4237
arian	-4238
▁closed	-4239
▁southern	-4240
▁attend	-4241
▁meat	-4242
);	-4243
▁documents	-4244
fo	-4245
▁ads	-4246
▁sky	-4247
▁beginning	-4248
▁bds	-4249
point	-4250
ament	-4251
▁growing	-4252
▁studio	-4253
▁lack	-4254
▁trademarks	-4255
oles	-4256
▁mention	-4257
▁hem	-4258
poses	-4259
▁army	-4260
▁thems	-4261
rol	-4262
▁toy	-4263
▁36	-4264
▁height	-4265
elines	-4266
▁female	-4267
▁đ	-4268
wing	-4269
iet	-4270
▁dram	-4271
▁themselves	-4272
▁oce	-4273
▁inches	-4274
▁claims	-4275
▁shared	-4276
eless	-4277
▁royal	-4278
▁western	-4279
▁vin	-4280
▁warranty	-4281
▁consumer	-4282
▁category	-4283
▁500	-4284
iation	-4285
▁shut	-4286
▁republic	-4287
▁doctors	-4288
▁rose	-4289
▁2:	-4290
▁tu	-4291
▁ton	-4292
ро	-4293
▁basket	-4294
▁rot	-4295
▁internal	-4296
____	-4297
oh	-4298
▁mental	-4299
▁www	-4300
▁manual	-4301
▁nutrition	-4302
▁georg	-4303
▁hou	-4304
but	-4305
▁client	-4306
▁couldn	-4307
▁adop	-4308
▁lands	-4309
▁museum	-4310
▁exactly	-4311
▁advance	-4312
▁engineering	-4313
24	-4314
▁infection	-4315
▁division	-4316
▁cookie	-4317
▁charl	-4318
▁understanding	-4319
▁hp	-4320
▁technical	-4321
▁encoura	-4322
▁31	-4323
▁jewel	-4324
▁reli	-4325
▁spa	-4326
▁database	-4327
▁definitely	-4328
enses	-4329
kn	-4330
▁occas	-4331
ened	-4332
▁mode	-4333
▁75	-4334
▁tank	-4335
▁applied	-4336
▁saturday	-4337
▁wasn	-4338
▁turned	-4339
inese	-4340
▁ش	-4341
▁extrem	-4342
▁cooking	-4343
▁vision	-4344
▁ف	-4345
▁powerful	-4346
state	-4347
▁pizza	-4348
▁distance	-4349
▁ell	-4350
ام	-4351
▁medication	-4352
iling	-4353
▁liqu	-4354
▁yellow	-4355
▁dream	-4356
▁automatically	-4357
▁na	-4358
▁seven	-4359
▁reviewed	-4360
▁termin	-4361
▁harm	-4362
▁educational	-4363
▁corner	-4364
▁campaign	-4365
▁institute	-4366
▁oak	-4367
8,	-4368
▁relig	-4369
▁hop	-4370
▁decre	-4371
term	-4372
▁toys	-4373
▁quiz	-4374
▁opening	-4375
▁delivered	-4376
▁flowers	-4377
▁diagnosis	-4378
car	-4379
▁therefore	-4380
ena	-4381
aked	-4382
▁2006	-4383
acter	-4384
▁certified	-4385
icks	-4386
hd	-4387
▁lt	-4388
▁vegas	-4389
▁medium	-4390
▁businesses	-4391
/0	-4392
▁para	-4393
▁plastic	-4394
ech	-4395
▁background	-4396
▁counter	-4397
▁capac	-4398
▁nur	-4399
▁dos	-4400
▁george	-4401
▁teacher	-4402
▁ring	-4403
▁prepar	-4404
▁nh	-4405
▁chapter	-4406
то	-4407
▁finding	-4408
▁ohio	-4409
life	-4410
▁edge	-4411
▁swim	-4412
▁reco	-4413
▁conference	-4414
▁purchased	-4415
mart	-4416
▁muscle	-4417
▁challeng	-4418
rote	-4419
▁messages	-4420
encies	-4421
▁hab	-4422
sequ	-4423
▁owned	-4424
▁joint	-4425
▁threat	-4426
pat	-4427
▁assign	-4428
▁chief	-4429
▁electr	-4430
fa	-4431
▁react	-4432
▁foreign	-4433
ique	-4434
▁chocolate	-4435
▁purposes	-4436
gers	-4437
29	-4438
▁iv	-4439
▁weekly	-4440
▁invent	-4441
▁arr	-4442
name	-4443
▁rule	-4444
▁reven	-4445
▁navigate	-4446
▁helped	-4447
▁skip	-4448
▁residents	-4449
43	-4450
▁scen	-4451
▁enroll	-4452
▁disp	-4453
▁charges	-4454
▁od	-4455
▁lin	-4456
▁played	-4457
▁solid	-4458
▁advantage	-4459
▁seconds	-4460
▁tro	-4461
▁installation	-4462
▁dc	-4463
▁dose	-4464
kin	-4465
▁craft	-4466
▁album	-4467
▁cake	-4468
▁6,	-4469
▁regarding	-4470
▁absol	-4471
▁interesting	-4472
▁units	-4473
/4	-4474
vin	-4475
▁housing	-4476
▁milk	-4477
▁dates	-4478
▁neighborhood	-4479
▁congress	-4480
semb	-4481
▁developed	-4482
▁fle	-4483
▁chinese	-4484
▁powered	-4485
▁executive	-4486
inder	-4487
ucky	-4488
▁decl	-4489
▁featured	-4490
ods	-4491
▁approved	-4492
▁aware	-4493
▁chev	-4494
▁cris	-4495
▁appropriate	-4496
▁campus	-4497
▁princip	-4498
▁(5	-4499
▁tomato	-4500
▁ax	-4501
▁beat	-4502
▁9,	-4503
otic	-4504
▁missing	-4505
▁challen	-4506
ails	-4507
▁christian	-4508
▁55	-4509
▁opportunities	-4510
▁alt	-4511
▁experts	-4512
▁chart	-4513
▁quarter	-4514
▁traffic	-4515
iny	-4516
ano	-4517
▁(1)	-4518
▁ram	-4519
▁hund	-4520
▁michigan	-4521
▁handle	-4522
rees	-4523
▁instagram	-4524
▁tip	-4525
▁bowl	-4526
▁officer	-4527
4)	-4528
olic	-4529
▁achieve	-4530
▁subscription	-4531
sel	-4532
▁separate	-4533
▁operations	-4534
▁guy	-4535
ervation	-4536
▁quant	-4537
▁bone	-4538
▁mouth	-4539
▁comfortable	-4540
▁television	-4541
ja	-4542
▁sorry	-4543
▁hyper	-4544
▁aid	-4545
-6	-4546
▁situation	-4547
▁parent	-4548
▁accurate	-4549
kes	-4550
▁heard	-4551
▁structure	-4552
▁repe	-4553
▁submitted	-4554
▁seller	-4555
▁description	-4556
▁completed	-4557
▁goal	-4558
▁boston	-4559
▁$10	-4560
▁thick	-4561
▁georgia	-4562
▁thinking	-4563
▁intended	-4564
▁row	-4565
illa	-4566
ole	-4567
rd	-4568
▁cath	-4569
▁zone	-4570
amic	-4571
▁felt	-4572
▁injury	-4573
▁holly	-4574
limited	-4575
▁notes	-4576
▁gm	-4577
▁9:00	-4578
▁д	-4579
▁ticket	-4580
▁sar	-4581
▁visual	-4582
▁guarantee	-4583
▁haven	-4584
▁depend	-4585
zen	-4586
▁mist	-4587
▁pill	-4588
▁pac	-4589
▁os	-4590
▁(8	-4591
▁smooth	-4592
▁11,	-4593
▁houston	-4594
▁100%	-4595
▁rail	-4596
▁hero	-4597
▁attrib	-4598
▁severe	-4599
▁pricing	-4600
cur	-4601
▁tatt	-4602
spe	-4603
▁pul	-4604
▁shape	-4605
▁economy	-4606
ре	-4607
▁delicious	-4608
▁8:00	-4609
▁prec	-4610
▁cleaning	-4611
ais	-4612
iest	-4613
this	-4614
▁slight	-4615
▁vacation	-4616
▁plug	-4617
▁guidelines	-4618
▁theat	-4619
▁choices	-4620
pet	-4621
▁aren	-4622
▁195	-4623
▁academic	-4624
▁heading	-4625
▁offering	-4626
▁fabric	-4627
▁2018.	-4628
▁classes	-4629
▁pap	-4630
▁apartments	-4631
▁teachers	-4632
▁hers	-4633
▁tub	-4634
▁alone	-4635
▁33	-4636
▁buff	-4637
▁taste	-4638
▁cer	-4639
▁wikipedia	-4640
va	-4641
▁smaller	-4642
▁hid	-4643
itect	-4644
▁bright	-4645
▁economic	-4646
▁symbol	-4647
gb	-4648
▁whose	-4649
▁movement	-4650
▁retirement	-4651
▁pdf	-4652
▁distribution	-4653
▁minute	-4654
lands	-4655
▁spect	-4656
▁tap	-4657
▁methods	-4658
▁helping	-4659
▁appointment	-4660
▁multi	-4661
amb	-4662
▁portug	-4663
▁combination	-4664
acks	-4665
▁ride	-4666
▁eight	-4667
▁tattoo	-4668
▁illust	-4669
▁om	-4670
itude	-4671
▁meal	-4672
▁calculator	-4673
ims	-4674
▁clients	-4675
▁feeling	-4676
▁3:	-4677
lete	-4678
▁committe	-4679
▁attempt	-4680
umin	-4681
▁advertisement	-4682
▁resource	-4683
▁37	-4684
▁crafts	-4685
▁laptop	-4686
▁operating	-4687
▁calendar	-4688
▁demon	-4689
▁grocer	-4690
dra	-4691
▁mig	-4692
elds	-4693
press	-4694
▁robert	-4695
▁died	-4696
▁queen	-4697
with	-4698
▁tablet	-4699
▁boys	-4700
▁recovery	-4701
▁tiss	-4702
▁$3	-4703
▁pun	-4704
▁pip	-4705
▁facility	-4706
ously	-4707
▁surround	-4708
water	-4709
▁wash	-4710
right	-4711
▁pra	-4712
▁stru	-4713
▁candid	-4714
▁failure	-4715
▁bread	-4716
▁lots	-4717
▁orange	-4718
▁random	-4719
▁channel	-4720
▁thus	-4721
tml	-4722
ibly	-4723
reh	-4724
▁rear	-4725
▁inbox	-4726
▁pink	-4727
▁brought	-4728
▁twe	-4729
bar	-4730
▁prompt	-4731
▁produce	-4732
emon	-4733
▁parties	-4734
▁workers	-4735
▁disapp	-4736
▁nj	-4737
aska	-4738
▁demand	-4739
▁push	-4740
pañ	-4741
▁editor	-4742
▁2004	-4743
▁architect	-4744
▁administr	-4745
▁tempor	-4746
▁tables	-4747
▁tea	-4748
▁sac	-4749
▁effic	-4750
▁ocean	-4751
▁300	-4752
▁golden	-4753
▁sheet	-4754
▁navigation	-4755
▁nom	-4756
▁detailed	-4757
▁teams	-4758
what	-4759
▁approximately	-4760
▁visa	-4761
▁ble	-4762
▁mm	-4763
rupt	-4764
▁medications	-4765
ora	-4766
▁config	-4767
▁basis	-4768
▁successful	-4769
visor	-4770
▁beg	-4771
▁mile	-4772
▁treated	-4773
▁cm	-4774
▁jewelry	-4775
▁trib	-4776
imal	-4777
rive	-4778
▁industrial	-4779
▁funds	-4780
▁constant	-4781
▁colorado	-4782
▁mut	-4783
iration	-4784
21	-4785
esome	-4786
▁refund	-4787
▁topics	-4788
▁despite	-4789
▁concent	-4790
▁drag	-4791
▁league	-4792
▁initial	-4793
▁catch	-4794
▁fox	-4795
akers	-4796
▁appears	-4797
▁male	-4798
▁challenge	-4799
▁wrote	-4800
▁weekend	-4801
▁established	-4802
▁!	-4803
▁rice	-4804
▁sample	-4805
▁ع	-4806
▁jackson	-4807
▁shar	-4808
▁nursing	-4809
63	-4810
erry	-4811
▁38	-4812
▁ships	-4813
▁ingredients	-4814
bridge	-4815
▁fear	-4816
▁corporation	-4817
▁thurs	-4818
▁william	-4819
▁equal	-4820
atively	-4821
▁10:	-4822
▁existing	-4823
▁combined	-4824
▁forum	-4825
▁tire	-4826
▁unlimited	-4827
▁[–	-4828
▁[–]	-4829
ayer	-4830
▁4:	-4831
▁pregnancy	-4832
icated	-4833
▁peace	-4834
▁12,	-4835
▁65	-4836
▁bonus	-4837
ican	-4838
▁coupons	-4839
▁answered	-4840
▁hide	-4841
▁forest	-4842
▁circ	-4843
▁citiz	-4844
▁artist	-4845
▁poly	-4846
▁leader	-4847
▁accomp	-4848
cal	-4849
▁categories	-4850
ien	-4851
▁moved	-4852
▁spent	-4853
▁ultra	-4854
▁quote	-4855
▁cond	-4856
▁divid	-4857
iciency	-4858
▁faq	-4859
▁overview	-4860
tor	-4861
▁alternative	-4862
▁inspect	-4863
▁falls	-4864
ات	-4865
ین	-4866
▁jim	-4867
▁”	-4868
▁pit	-4869
▁aven	-4870
▁kore	-4871
▁danger	-4872
▁identify	-4873
rast	-4874
▁sequ	-4875
rief	-4876
inations	-4877
▁showing	-4878
▁centers	-4879
een	-4880
▁bible	-4881
▁lose	-4882
▁extremely	-4883
▁vint	-4884
▁academy	-4885
bb	-4886
vania	-4887
▁ariz	-4888
▁decided	-4889
cia	-4890
▁england	-4891
▁depart	-4892
▁chat	-4893
ellig	-4894
▁wonderful	-4895
▁desktop	-4896
▁kindle	-4897
▁mir	-4898
▁chair	-4899
▁hang	-4900
▁species	-4901
▁survey	-4902
▁neuro	-4903
▁appreci	-4904
▁1/2	-4905
▁changing	-4906
▁goods	-4907
▁defense	-4908
▁billion	-4909
▁lord	-4910
▁21,	-4911
tle	-4912
ered	-4913
sl	-4914
▁scholar	-4915
▁implement	-4916
▁occup	-4917
abor	-4918
▁employer	-4919
▁españ	-4920
onym	-4921
▁facilities	-4922
▁wants	-4923
▁guides	-4924
▁panel	-4925
▁crime	-4926
▁plate	-4927
▁leaving	-4928
card	-4929
▁mine	-4930
osph	-4931
▁cos	-4932
▁dedu	-4933
ya	-4934
zer	-4935
▁liber	-4936
gal	-4937
▁disorder	-4938
▁1-8	-4939
▁bags	-4940
▁gh	-4941
▁tues	-4942
don	-4943
▁15,	-4944
▁electronic	-4945
▁syndr	-4946
▁relax	-4947
▁novel	-4948
▁susp	-4949
alog	-4950
▁bol	-4951
▁selling	-4952
rors	-4953
elph	-4954
▁pair	-4955
▁funny	-4956
▁paying	-4957
▁jesus	-4958
▁european	-4959
▁renew	-4960
▁diy	-4961
▁ze	-4962
ext	-4963
iment	-4964
▁connected	-4965
▁relevant	-4966
▁bound	-4967
▁effort	-4968
▁evalu	-4969
▁lunch	-4970
▁transform	-4971
▁communication	-4972
▁fran	-4973
1)	-4974
78	-4975
comma	-4976
▁awesome	-4977
▁leaves	-4978
▁hyp	-4979
▁shower	-4980
▁util	-4981
▁explain	-4982
▁worldwide	-4983
те	-4984
▁assistant	-4985
lets	-4986
▁{{	-4987
▁hell	-4988
▁critical	-4989
▁talking	-4990
▁justice	-4991
▁earlier	-4992
▁careers	-4993
▁finance	-4994
▁cin	-4995
▁arizona	-4996
▁physician	-4997
▁procedure	-4998
▁employment	-4999
▁branch	-5000
▁thomas	-5001
▁slides	-5002
▁boat	-5003
▁voc	-5004
▁covers	-5005
▁colon	-5006
▁athlet	-5007
▁default	-5008
aught	-5009
ola	-5010
▁described	-5011
ylvania	-5012
born	-5013
▁potato	-5014
▁australia	-5015
vo	-5016
▁ak	-5017
dis	-5018
▁vintage	-5019
▁scott	-5020
orrow	-5021
▁sed	-5022
▁beef	-5023
pass	-5024
▁tun	-5025
▁biggest	-5026
▁kim	-5027
▁pil	-5028
▁jeff	-5029
hab	-5030
▁lights	-5031
▁happens	-5032
▁japanese	-5033
▁walking	-5034
▁produced	-5035
▁sharing	-5036
ias	-5037
▁baths	-5038
estic	-5039
▁pieces	-5040
▁fal	-5041
▁intel	-5042
ools	-5043
▁placed	-5044
▁capacity	-5045
▁chain	-5046
▁comparison	-5047
26	-5048
▁anywhere	-5049
▁rang	-5050
▁organizations	-5051
night	-5052
▁vitamin	-5053
▁followed	-5054
▁toward	-5055
▁bob	-5056
200	-5057
▁hawai	-5058
▁по	-5059
▁santa	-5060
▁millions	-5061
▁concept	-5062
▁20,	-5063
▁compreh	-5064
iana	-5065
%)	-5066
▁knew	-5067
profit	-5068
▁spons	-5069
eding	-5070
▁nick	-5071
▁intellig	-5072
ipped	-5073
▁ash	-5074
ira	-5075
▁roof	-5076
▁storm	-5077
▁negative	-5078
▁incred	-5079
▁dealer	-5080
▁interior	-5081
▁criminal	-5082
▁ry	-5083
▁thursday	-5084
▁thread	-5085
▁13,	-5086
▁pad	-5087
ras	-5088
▁married	-5089
wear	-5090
▁deposit	-5091
▁counsel	-5092
haps	-5093
▁veterans	-5094
▁announced	-5095
▁ye	-5096
▁chrome	-5097
▁penns	-5098
inois	-5099
▁factor	-5100
ils	-5101
ii	-5102
ua	-5103
▁booking	-5104
▁18,	-5105
▁liver	-5106
▁signed	-5107
▁african	-5108
▁maps	-5109
▁miami	-5110
▁abuse	-5111
▁operation	-5112
▁14,	-5113
▁28,	-5114
cycl	-5115
▁route	-5116
▁30,	-5117
▁eag	-5118
known	-5119
▁syndrome	-5120
4.	-5121
rated	-5122
kins	-5123
▁components	-5124
▁pepper	-5125
mat	-5126
▁elements	-5127
▁inch	-5128
▁mes	-5129
▁scale	-5130
▁chronic	-5131
▁stain	-5132
▁accommod	-5133
▁frequently	-5134
▁hydro	-5135
▁increasing	-5136
▁complic	-5137
23	-5138
▁refresh	-5139
-12	-5140
▁jose	-5141
oke	-5142
▁teaching	-5143
▁leadership	-5144
▁forg	-5145
▁affordable	-5146
▁communications	-5147
adelph	-5148
▁myself	-5149
▁cub	-5150
7.	-5151
▁throw	-5152
▁tall	-5153
▁icon	-5154
▁pennsylvania	-5155
▁apartment	-5156
▁→	-5157
▁particularly	-5158
▁در	-5159
▁listen	-5160
▁hr	-5161
▁fruit	-5162
▁goals	-5163
lements	-5164
unk	-5165
▁dyn	-5166
▁\	-5167
▁horse	-5168
▁keeping	-5169
▁appare	-5170
▁trademark	-5171
▁ahead	-5172
terest	-5173
▁dall	-5174
adelphia	-5175
▁bear	-5176
▁francisco	-5177
▁wednes	-5178
ella	-5179
▁scene	-5180
▁español	-5181
▁regional	-5182
▁minor	-5183
▁medicare	-5184
nel	-5185
away	-5186
cking	-5187
▁assemb	-5188
▁enterpr	-5189
rian	-5190
▁disorders	-5191
asy	-5192
ales	-5193
rid	-5194
luding	-5195
▁$25	-5196
▁village	-5197
isl	-5198
▁communities	-5199
liance	-5200
▁flavor	-5201
▁everyday	-5202
ки	-5203
▁17,	-5204
▁py	-5205
▁degrees	-5206
itors	-5207
▁illinois	-5208
esy	-5209
▁designs	-5210
▁proceed	-5211
▁10:00	-5212
▁rise	-5213
ucle	-5214
▁gray	-5215
▁truth	-5216
▁bacter	-5217
▁tuesday	-5218
hr	-5219
▁expensive	-5220
▁dip	-5221
▁herself	-5222
▁sizes	-5223
▁committee	-5224
▁manufacturer	-5225
▁fuck	-5226
▁rib	-5227
▁16,	-5228
rad	-5229
▁airlines	-5230
▁27,	-5231
▁hollywood	-5232
ema	-5233
▁cock	-5234
▁perhaps	-5235
▁м	-5236
fin	-5237
▁trim	-5238
▁africa	-5239
▁lighting	-5240
berry	-5241
icy	-5242
▁providers	-5243
▁ideal	-5244
2)	-5245
resp	-5246
▁ultimate	-5247
▁direction	-5248
▁crow	-5249
▁remote	-5250
▁philadelphia	-5251
bro	-5252
▁reporting	-5253
▁websites	-5254
enger	-5255
▁thin	-5256
▁gram	-5257
month	-5258
▁на	-5259
▁pleas	-5260
ور	-5261
ario	-5262
olis	-5263
▁assessment	-5264
▁lee	-5265
eto	-5266
▁compens	-5267
▁atlanta	-5268
98	-5269
...]	-5270
▁pounds	-5271
▁ign	-5272
outs	-5273
▁fields	-5274
не	-5275
▁warning	-5276
▁banking	-5277
▁19,	-5278
▁styles	-5279
▁recommendations	-5280
fol	-5281
▁installed	-5282
▁broker	-5283
▁hearing	-5284
▁becomes	-5285
▁oral	-5286
esis	-5287
▁drivers	-5288
▁faster	-5289
6.	-5290
▁scores	-5291
▁cruise	-5292
▁estimated	-5293
▁leather	-5294
▁theory	-5295
▁brother	-5296
▁cord	-5297
ifications	-5298
▁killed	-5299
▁gone	-5300
▁salad	-5301
ppers	-5302
▁scan	-5303
▁ack	-5304
▁charged	-5305
▁translation	-5306
bel	-5307
▁experiences	-5308
▁signature	-5309
▁hills	-5310
cd	-5311
▁bond	-5312
▁basketball	-5313
▁reality	-5314
▁magic	-5315
▁yog	-5316
▁impress	-5317
▁faith	-5318
▁waste	-5319
▁enabled	-5320
▁dollar	-5321
▁journey	-5322
related	-5323
▁25,	-5324
97	-5325
▁sole	-5326
▁wednesday	-5327
▁landsc	-5328
▁freed	-5329
▁virtual	-5330
▁dallas	-5331
▁usb	-5332
▁treas	-5333
ih	-5334
ander	-5335
▁agents	-5336
▁graduate	-5337
▁improvement	-5338
▁patterns	-5339
▁marks	-5340
▁performed	-5341
▁council	-5342
▁youth	-5343
▁kansas	-5344
▁liquid	-5345
▁shel	-5346
▁certificate	-5347
▁trailer	-5348
▁letters	-5349
▁appeared	-5350
▁instrum	-5351
cient	-5352
▁trends	-5353
▁practices	-5354
▁saint	-5355
▁avenue	-5356
pective	-5357
▁plenty	-5358
▁excel	-5359
▁starts	-5360
emp	-5361
▁duty	-5362
▁estimate	-5363
▁fif	-5364
▁[...]	-5365
9.	-5366
▁blu	-5367
▁26,	-5368
----	-5369
▁24,	-5370
▁bio	-5371
▁),	-5372
▁downtown	-5373
▁looked	-5374
▁›	-5375
▁strategy	-5376
▁thes	-5377
▁waiting	-5378
▁debt	-5379
▁pp	-5380
▁shooting	-5381
▁diseases	-5382
▁luxury	-5383
paper	-5384
6)	-5385
avan	-5386
uled	-5387
▁truly	-5388
▁topic	-5389
▁analyt	-5390
▁dance	-5391
▁hardware	-5392
▁properly	-5393
inated	-5394
▁11:	-5395
▁jones	-5396
▁hen	-5397
bra	-5398
class	-5399
▁ta	-5400
▁jr	-5401
▁thoughts	-5402
▁chest	-5403
log	-5404
▁native	-5405
▁transportation	-5406
▁oly	-5407
▁highway	-5408
▁coord	-5409
▁(3	-5410
▁23,	-5411
iac	-5412
▁relief	-5413
▁revenue	-5414
▁pod	-5415
exp	-5416
▁explor	-5417
▁treatments	-5418
▁prepare	-5419
▁theater	-5420
▁mand	-5421
▁perman	-5422
▁22,	-5423
▁marriage	-5424
pack	-5425
▁processing	-5426
▁anton	-5427
▁northern	-5428
▁1.	-5429
▁weap	-5430
▁purchases	-5431
ache	-5432
rence	-5433
▁statements	-5434
entially	-5435
▁opened	-5436
▁france	-5437
aurus	-5438
▁checking	-5439
▁kept	-5440
▁cute	-5441
ensions	-5442
▁elev	-5443
ли	-5444
▁sounds	-5445
▁happened	-5446
inct	-5447
gment	-5448
stone	-5449
lying	-5450
▁olymp	-5451
aren	-5452
▁task	-5453
▁$100	-5454
▁rapid	-5455
aves	-5456
▁ltd	-5457
▁amb	-5458
▁moon	-5459
▁trees	-5460
▁champions	-5461
wich	-5462
gov	-5463
▁johnson	-5464
▁forces	-5465
▁kel	-5466
▁americans	-5467
▁rentals	-5468
inch	-5469
▁depression	-5470
▁lady	-5471
xi	-5472
та	-5473
▁roast	-5474
ید	-5475
▁7:	-5476
▁incorpor	-5477
▁sher	-5478
▁crash	-5479
dge	-5480
▁spin	-5481
hub	-5482
▁aspect	-5483
▁tail	-5484
▁sad	-5485
▁coo	-5486
▁mybook	-5487
▁passed	-5488
▁reduced	-5489
▁bach	-5490
▁environmental	-5491
▁encycl	-5492
▁9:	-5493
▁atm	-5494
▁experienced	-5495
lah	-5496
▁emails	-5497
▁dental	-5498
vious	-5499
▁acknow	-5500
▁solar	-5501
▁thro	-5502
▁nas	-5503
▁ل	-5504
▁seats	-5505
▁crew	-5506
▁accepted	-5507
abilities	-5508
▁licensed	-5509
▁shares	-5510
▁doub	-5511
▁accident	-5512
▁portion	-5513
ologies	-5514
▁theme	-5515
▁encyclop	-5516
ouri	-5517
aks	-5518
▁hub	-5519
▁eggs	-5520
▁titles	-5521
▁soup	-5522
rep	-5523
▁2017,	-5524
▁12:	-5525
atever	-5526
estyle	-5527
▁receiving	-5528
▁slightly	-5529
▁clim	-5530
▁sams	-5531
oe	-5532
▁applicable	-5533
▁writer	-5534
▁charles	-5535
▁upload	-5536
▁pharmacy	-5537
▁5:	-5538
▁fulf	-5539
▁arth	-5540
▁onto	-5541
▁flower	-5542
▁ru	-5543
▁alerts	-5544
▁99	-5545
▁commonly	-5546
▁twice	-5547
5,	-5548
▁springs	-5549
▁trig	-5550
osh	-5551
▁خ	-5552
▁extended	-5553
▁pets	-5554
▁ios	-5555
▁strugg	-5556
▁scr	-5557
▁arrest	-5558
▁sr	-5559
▁functions	-5560
▁upgrade	-5561
▁festival	-5562
▁credits	-5563
▁electrical	-5564
▁household	-5565
▁yp	-5566
ود	-5567
▁likes	-5568
▁calling	-5569
▁actor	-5570
▁towards	-5571
▁registry	-5572
▁bird	-5573
▁stret	-5574
▁fluid	-5575
▁guys	-5576
ati	-5577
ри	-5578
▁directory	-5579
iques	-5580
mond	-5581
▁2003	-5582
▁statistics	-5583
▁gri	-5584
▁russian	-5585
▁martin	-5586
▁sust	-5587
▁garage	-5588
▁legisl	-5589
▁gate	-5590
elle	-5591
▁blank	-5592
ae	-5593
▁29,	-5594
ument	-5595
▁6:	-5596
▁authority	-5597
▁generation	-5598
▁previously	-5599
▁lyr	-5600
acing	-5601
▁comprehensive	-5602
▁doors	-5603
ilton	-5604
▁mcc	-5605
▁films	-5606
▁historical	-5607
onsin	-5608
▁hallow	-5609
.95	-5610
▁rug	-5611
rael	-5612
rate	-5613
cop	-5614
▁und	-5615
stre	-5616
tery	-5617
ogen	-5618
isconsin	-5619
▁baseball	-5620
athy	-5621
▁kent	-5622
▁20%	-5623
▁34	-5624
ito	-5625
▁tutorial	-5626
▁disability	-5627
▁آ	-5628
▁aqu	-5629
inate	-5630
ва	-5631
61	-5632
▁viewed	-5633
▁gene	-5634
▁supplement	-5635
▁ml	-5636
▁columbia	-5637
▁eventually	-5638
sen	-5639
▁pure	-5640
▁sud	-5641
▁antib	-5642
▁inject	-5643
▁motion	-5644
▁£	-5645
▁tight	-5646
▁numer	-5647
▁worst	-5648
onda	-5649
▁decisions	-5650
ifi	-5651
▁procedures	-5652
▁situ	-5653
▁conce	-5654
▁dies	-5655
▁efficient	-5656
▁arab	-5657
▁exhib	-5658
ria	-5659
▁bac	-5660
▁fishing	-5661
▁dedicated	-5662
▁beer	-5663
▁km	-5664
iatric	-5665
▁39	-5666
▁checked	-5667
▁~	-5668
▁brief	-5669
▁todd	-5670
▁oven	-5671
▁bars	-5672
▁runs	-5673
ups	-5674
▁whatever	-5675
▁pharmac	-5676
▁presented	-5677
▁designer	-5678
▁elim	-5679
▁wisconsin	-5680
▁convenient	-5681
▁adventure	-5682
▁bik	-5683
▁09	-5684
▁defined	-5685
▁formula	-5686
▁seeing	-5687
oen	-5688
je	-5689
▁anth	-5690
▁sellers	-5691
cm	-5692
▁sister	-5693
▁alph	-5694
▁williams	-5695
▁loo	-5696
▁vacc	-5697
▁unc	-5698
under	-5699
▁reprodu	-5700
▁thor	-5701
▁continued	-5702
▁tires	-5703
▁demonstr	-5704
▁bat	-5705
▁coupon	-5706
rency	-5707
▁bridge	-5708
▁samsung	-5709
▁peter	-5710
▁dollars	-5711
▁wat	-5712
▁discussion	-5713
umes	-5714
▁democr	-5715
▁4.0	-5716
▁rv	-5717
▁ordered	-5718
▁arrow	-5719
▁archived	-5720
▁audience	-5721
▁boot	-5722
▁broken	-5723
▁halloween	-5724
▁markets	-5725
▁returned	-5726
▁tissue	-5727
rom	-5728
▁automatic	-5729
gi	-5730
▁excess	-5731
▁08	-5732
▁mas	-5733
▁marked	-5734
▁tay	-5735
road	-5736
▁salary	-5737
▁lyrics	-5738
▁dealers	-5739
▁speech	-5740
iled	-5741
orter	-5742
▁oklah	-5743
▁remains	-5744
го	-5745
▁bb	-5746
unately	-5747
▁disabled	-5748
nesota	-5749
▁powder	-5750
unte	-5751
▁sem	-5752
/18	-5753
ographic	-5754
▁wouldn	-5755
anda	-5756
▁5:00	-5757
▁ti	-5758
▁stack	-5759
▁pinterest	-5760
▁alert	-5761
▁150	-5762
uries	-5763
▁95	-5764
▁mole	-5765
rick	-5766
▁compos	-5767
▁gallery	-5768
▁delay	-5769
▁predict	-5770
ле	-5771
▁visitors	-5772
▁filled	-5773
▁lip	-5774
▁nfl	-5775
▁nucle	-5776
▁learned	-5777
▁summary	-5778
▁deut	-5779
▁latin	-5780
▁permission	-5781
eration	-5782
▁cambridge	-5783
▁pas	-5784
▁myster	-5785
utely	-5786
▁stro	-5787
ulated	-5788
▁actions	-5789
ugh	-5790
▁oppos	-5791
▁44	-5792
▁satisf	-5793
/8	-5794
▁actress	-5795
▁flying	-5796
▁dad	-5797
▁edited	-5798
▁israel	-5799
advisor	-5800
▁minnesota	-5801
di	-5802
79	-5803
ounce	-5804
▁representative	-5805
▁paris	-5806
▁originally	-5807
▁una	-5808
▁personalized	-5809
▁oklahoma	-5810
tim	-5811
▁grill	-5812
▁election	-5813
▁scre	-5814
itar	-5815
▁greatest	-5816
approp	-5817
▁suggested	-5818
equ	-5819
bot	-5820
▁contribut	-5821
▁root	-5822
▁prince	-5823
sm	-5824
▁extension	-5825
▁hidden	-5826
▁prepared	-5827
▁hip	-5828
▁memorial	-5829
▁decide	-5830
▁puzz	-5831
iors	-5832
▁harry	-5833
▁scientific	-5834
▁fold	-5835
▁kingdom	-5836
▁senate	-5837
▁favorites	-5838
▁ou	-5839
▁magn	-5840
▁8:	-5841
▁merch	-5842
▁kidney	-5843
mont	-5844
▁bron	-5845
▁judge	-5846
bing	-5847
▁patio	-5848
▁continuing	-5849
ield	-5850
▁classroom	-5851
irts	-5852
▁190	-5853
▁seattle	-5854
page	-5855
▁watching	-5856
▁forget	-5857
▁ends	-5858
▁mike	-5859
!!!	-5860
▁$4	-5861
▁lowest	-5862
ند	-5863
▁talent	-5864
8.	-5865
▁jenn	-5866
▁kenn	-5867
▁arrang	-5868
lig	-5869
▁transmission	-5870
▁mun	-5871
▁ages	-5872
▁prison	-5873
▁dvd	-5874
erved	-5875
▁filters	-5876
▁dar	-5877
▁volunte	-5878
ji	-5879
cel	-5880
▁honey	-5881
▁49	-5882
▁supplements	-5883
encing	-5884
▁climate	-5885
▁input	-5886
▁lift	-5887
▁blvd	-5888
▁indiana	-5889
▁glad	-5890
▁murder	-5891
▁labeled	-5892
ologist	-5893
▁begins	-5894
▁arms	-5895
▁fav	-5896
▁7:00	-5897
style	-5898
▁creek	-5899
dale	-5900
▁reserve	-5901
▁collabor	-5902
▁bike	-5903
▁prescription	-5904
bell	-5905
▁zero	-5906
▁dent	-5907
▁appearance	-5908
اد	-5909
▁hurric	-5910
▁disclaim	-5911
▁tel	-5912
▁franç	-5913
▁nap	-5914
▁bloom	-5915
89	-5916
▁digest	-5917
▁tube	-5918
▁criter	-5919
▁becoming	-5920
▁2-	-5921
▁120	-5922
▁occurs	-5923
▁banks	-5924
▁wars	-5925
▁mixed	-5926
▁verify	-5927
▁courtesy	-5928
umps	-5929
reds	-5930
▁reliable	-5931
▁hunting	-5932
▁seek	-5933
▁freedom	-5934
▁supports	-5935
▁42	-5936
▁organic	-5937
▁obvious	-5938
▁issued	-5939
▁cow	-5940
▁phones	-5941
▁honor	-5942
▁lesson	-5943
▁session	-5944
▁anonym	-5945
▁prevention	-5946
▁lessons	-5947
▁sides	-5948
ington	-5949
apolis	-5950
▁equity	-5951
▁tennes	-5952
▁fellow	-5953
▁maryland	-5954
▁2.0	-5955
rics	-5956
▁virus	-5957
pdf	-5958
▁fer	-5959
▁draft	-5960
▁پ	-5961
▁cryst	-5962
▁membership	-5963
▁template	-5964
▁ray	-5965
▁germany	-5966
▁none	-5967
▁width	-5968
ista	-5969
▁cycle	-5970
▁historic	-5971
inn	-5972
▁painting	-5973
▁clearly	-5974
▁haz	-5975
enders	-5976
▁compat	-5977
▁indo	-5978
▁sciences	-5979
▁garlic	-5980
isa	-5981
▁caps	-5982
ulf	-5983
▁pregnant	-5984
text	-5985
appropriate	-5986
▁deck	-5987
▁supre	-5988
▁exceed	-5989
▁3.0	-5990
▁cooper	-5991
ani	-5992
▁developing	-5993
▁interactive	-5994
▁versions	-5995
▁eastern	-5996
eed	-5997
lar	-5998
▁revolution	-5999
▁pacific	-6000
</	-6001
▁evening	-6002
▁chris	-6003
▁destination	-6004
tw	-6005
▁terri	-6006
▁specialty	-6007
aturing	-6008
▁moist	-6009
▁introduced	-6010
▁filing	-6011
▁managed	-6012
▁worry	-6013
py	-6014
▁protected	-6015
iot	-6016
agon	-6017
▁dak	-6018
inst	-6019
▁deutsch	-6020
▁firef	-6021
▁lawn	-6022
etts	-6023
▁responsibility	-6024
tion	-6025
▁irs	-6026
▁wet	-6027
▁hawaii	-6028
**	-6029
▁absolutely	-6030
▁professor	-6031
▁supported	-6032
▁ratio	-6033
▁grocery	-6034
▁differences	-6035
pie	-6036
▁inventory	-6037
▁carbon	-6038
▁diego	-6039
chester	-6040
▁slee	-6041
stein	-6042
▁1996	-6043
▁bachel	-6044
▁navy	-6045
▁string	-6046
▁honest	-6047
▁pops	-6048
▁reader	-6049
▁column	-6050
▁substit	-6051
▁boost	-6052
rete	-6053
ppy	-6054
▁dun	-6055
▁harv	-6056
▁stretch	-6057
▁guess	-6058
▁immig	-6059
▁jer	-6060
▁reaction	-6061
standing	-6062
▁galax	-6063
▁85	-6064
▁presence	-6065
▁ranch	-6066
▁hook	-6067
▁$50	-6068
▁influence	-6069
endo	-6070
▁(7	-6071
▁00	-6072
▁б	-6073
▁script	-6074
▁3-	-6075
▁enforce	-6076
▁bottle	-6077
▁weak	-6078
▁cot	-6079
▁contained	-6080
▁relationships	-6081
roy	-6082
▁hat	-6083
▁gather	-6084
▁conver	-6085
avanaugh	-6086
▁printer	-6087
▁steph	-6088
▁lifestyle	-6089
▁filed	-6090
▁enterprise	-6091
\/	-6092
▁leads	-6093
▁suites	-6094
▁(2)	-6095
▁recru	-6096
▁signing	-6097
▁ancient	-6098
including	-6099
▁linkedin	-6100
▁cutting	-6101
▁domestic	-6102
uma	-6103
irect	-6104
▁به	-6105
ко	-6106
▁ss	-6107
▁800	-6108
▁phoen	-6109
izon	-6110
▁citizens	-6111
▁universal	-6112
▁mattress	-6113
▁gast	-6114
▁identity	-6115
▁kick	-6116
vas	-6117
▁با	-6118
▁stem	-6119
cho	-6120
▁plays	-6121
▁discounts	-6122
▁certification	-6123
mal	-6124
▁artists	-6125
▁specifically	-6126
▁illness	-6127
▁31,	-6128
▁recall	-6129
▁cad	-6130
ка	-6131
▁empt	-6132
xic	-6133
▁nurse	-6134
▁1990	-6135
▁2.5	-6136
▁stocks	-6137
▁tn	-6138
▁joe	-6139
▁cham	-6140
▁inappropriate	-6141
▁bull	-6142
▁unfort	-6143
▁parks	-6144
▁thesaurus	-6145
▁musical	-6146
▁tennessee	-6147
▁affiliated	-6148
▁associate	-6149
▁ipad	-6150
▁reset	-6151
▁showed	-6152
aly	-6153
icip	-6154
▁consumers	-6155
date	-6156
▁jam	-6157
rey	-6158
▁tum	-6159
▁centre	-6160
▁meant	-6161
▁mostly	-6162
▁proud	-6163
▁88	-6164
achus	-6165
gets	-6166
long	-6167
▁rough	-6168
rolet	-6169
lando	-6170
▁hundreds	-6171
pg	-6172
front	-6173
▁4.5	-6174
▁narrow	-6175
▁esp	-6176
▁searching	-6177
▁calculate	-6178
▁français	-6179
▁dispos	-6180
▁pron	-6181
▁tells	-6182
div	-6183
▁optim	-6184
▁majority	-6185
▁slideshow	-6186
▁toyota	-6187
▁greek	-6188
▁surf	-6189
ulate	-6190
▁increases	-6191
▁residential	-6192
entic	-6193
▁gaming	-6194
▁occasion	-6195
itals	-6196
uten	-6197
▁encyclopedia	-6198
azz	-6199
▁1.5	-6200
▁400	-6201
▁victor	-6202
▁suspect	-6203
htt	-6204
▁kavanaugh	-6205
hand	-6206
▁drawing	-6207
▁featuring	-6208
▁quiet	-6209
▁divers	-6210
▁resol	-6211
▁orth	-6212
▁allerg	-6213
▁marine	-6214
▁turns	-6215
▁ware	-6216
xiety	-6217
▁literature	-6218
▁slide	-6219
▁phoenix	-6220
▁tough	-6221
▁inflamm	-6222
▁legend	-6223
tit	-6224
achusetts	-6225
▁shap	-6226
▁posting	-6227
▁eu	-6228
chang	-6229
▁chevrolet	-6230
▁alab	-6231
adian	-6232
▁inqu	-6233
▁dm	-6234
▁07	-6235
▁standing	-6236
▁phr	-6237
▁eb	-6238
▁saving	-6239
▁mexican	-6240
▁richard	-6241
▁delete	-6242
▁pic	-6243
tic	-6244
▁lived	-6245
▁surge	-6246
icial	-6247
terior	-6248
▁dangerous	-6249
greg	-6250
▁brook	-6251
▁64	-6252
▁measures	-6253
▁pear	-6254
▁yelpers	-6255
▁joy	-6256
sey	-6257
▁#1	-6258
▁refr	-6259
▁errors	-6260
▁walls	-6261
ascular	-6262
fall	-6263
▁bure	-6264
▁(4	-6265
▁pig	-6266
▁knows	-6267
▁rif	-6268
rect	-6269
▁planet	-6270
▁walmart	-6271
▁percentage	-6272
▁bang	-6273
▁reload	-6274
which	-6275
▁urban	-6276
▁determined	-6277
▁usage	-6278
▁addresses	-6279
▁massachusetts	-6280
idays	-6281
▁interp	-6282
▁conflic	-6283
▁serves	-6284
lights	-6285
▁affected	-6286
weight	-6287
▁barn	-6288
▁techniques	-6289
▁circum	-6290
▁palm	-6291
ounter	-6292
▁dual	-6293
▁insert	-6294
▁releases	-6295
▁resc	-6296
▁tags	-6297
▁comedy	-6298
▁competition	-6299
▁incl	-6300
▁refriger	-6301
▁colleges	-6302
ighter	-6303
aco	-6304
▁compensation	-6305
▁shad	-6306
americ	-6307
nh	-6308
▁mentioned	-6309
▁raise	-6310
▁lease	-6311
▁boxes	-6312
▁machines	-6313
▁$7	-6314
▁austin	-6315
▁technologies	-6316
▁orlando	-6317
▁rod	-6318
és	-6319
arr	-6320
▁1-	-6321
▁bod	-6322
▁tracking	-6323
▁newsletters	-6324
ль	-6325
▁ot	-6326
▁earned	-6327
▁($	-6328
▁fiber	-6329
cor	-6330
▁stom	-6331
emia	-6332
▁kr	-6333
▁raw	-6334
▁electronics	-6335
▁tam	-6336
▁reserv	-6337
▁breaking	-6338
▁funeral	-6339
▁pel	-6340
▁elementary	-6341
▁dash	-6342
pay	-6343
▁border	-6344
▁horm	-6345
▁jon	-6346
▁galaxy	-6347
▁$1,	-6348
▁eld	-6349
elled	-6350
▁anxiety	-6351
▁baking	-6352
▁taylor	-6353
etime	-6354
▁dakota	-6355
▁lawyer	-6356
▁finished	-6357
▁lit	-6358
▁gran	-6359
anna	-6360
going	-6361
iding	-6362
▁failed	-6363
▁trading	-6364
iveness	-6365
▁absor	-6366
▁asp	-6367
▁+1	-6368
▁output	-6369
▁sharp	-6370
law	-6371
▁pork	-6372
',	-6373
▁cc	-6374
▁grey	-6375
▁regulations	-6376
iner	-6377
▁risks	-6378
▁affiliates	-6379
▁advertise	-6380
▁з	-6381
▁diamond	-6382
▁10-	-6383
▁sudden	-6384
marks	-6385
▁sick	-6386
▁initi	-6387
owa	-6388
▁factory	-6389
▁figures	-6390
▁pornhub	-6391
▁continues	-6392
power	-6393
yers	-6394
▁soil	-6395
▁1000	-6396
▁missouri	-6397
ía	-6398
▁alter	-6399
ла	-6400
▁alabama	-6401
regon	-6402
▁layer	-6403
▁raised	-6404
▁criteria	-6405
ritis	-6406
bles	-6407
▁spark	-6408
illing	-6409
▁tripadvisor	-6410
▁describe	-6411
▁oregon	-6412
▁meals	-6413
▁(10	-6414
▁ko	-6415
▁ended	-6416
▁removal	-6417
iliar	-6418
▁hurricane	-6419
ون	-6420
▁loading	-6421
opl	-6422
▁creates	-6423
87	-6424
wa	-6425
▁cultural	-6426
▁clock	-6427
▁offices	-6428
▁nine	-6429
▁asking	-6430
▁snap	-6431
▁phase	-6432
▁2002	-6433
▁confident	-6434
▁intelligence	-6435
600	-6436
▁gym	-6437
▁premier	-6438
ية	-6439
▁obst	-6440
▁passion	-6441
high	-6442
▁concerns	-6443
▁brush	-6444
▁efforts	-6445
orse	-6446
▁pix	-6447
▁keeps	-6448
▁context	-6449
▁brings	-6450
▁approval	-6451
▁spray	-6452
▁willing	-6453
cked	-6454
▁proof	-6455
▁1999	-6456
flix	-6457
▁metab	-6458
▁bes	-6459
▁analytics	-6460
illy	-6461
nut	-6462
ensity	-6463
ala	-6464
▁median	-6465
▁split	-6466
▁authentic	-6467
▁recre	-6468
eller	-6469
▁ink	-6470
▁spaces	-6471
▁lemon	-6472
del	-6473
▁stainless	-6474
▁liked	-6475
wy	-6476
▁ج	-6477
▁wheels	-6478
uracy	-6479
▁shell	-6480
iology	-6481
▁sandwich	-6482
▁holding	-6483
oy	-6484
▁pine	-6485
▁emotional	-6486
umber	-6487
▁requests	-6488
ubs	-6489
▁alumin	-6490
that	-6491
▁breath	-6492
▁exposure	-6493
▁replies	-6494
oul	-6495
▁typical	-6496
gun	-6497
▁politics	-6498
flow	-6499
▁clar	-6500
▁ken	-6501
▁feels	-6502
▁unable	-6503
▁withdra	-6504
ours	-6505
▁packages	-6506
▁tours	-6507
aid	-6508
▁assembly	-6509
▁hay	-6510
▁blind	-6511
▁laugh	-6512
izer	-6513
▁shift	-6514
ody	-6515
▁guaranteed	-6516
▁2001	-6517
▁referred	-6518
▁contem	-6519
health	-6520
▁01	-6521
▁circle	-6522
”.	-6523
▁visiting	-6524
▁preferred	-6525
▁affairs	-6526
▁cel	-6527
▁profit	-6528
md	-6529
▁unlock	-6530
tical	-6531
▁makeup	-6532
ру	-6533
▁pickup	-6534
▁mol	-6535
case	-6536
▁sewing	-6537
▁infections	-6538
▁certainly	-6539
▁wra	-6540
▁seed	-6541
▁asian	-6542
▁supreme	-6543
▁ski	-6544
pan	-6545
▁dub	-6546
▁kat	-6547
ны	-6548
worth	-6549
8)	-6550
▁ark	-6551
▁scot	-6552
wik	-6553
▁corresp	-6554
▁shortcut	-6555
▁divor	-6556
▁barb	-6557
▁princess	-6558
▁disclaimer	-6559
▁wy	-6560
▁carrier	-6561
▁lie	-6562
▁camer	-6563
norm	-6564
▁violence	-6565
▁honda	-6566
▁fraud	-6567
▁enhance	-6568
▁legs	-6569
▁streaming	-6570
▁announce	-6571
▁compliance	-6572
▁drama	-6573
▁resume	-6574
▁outlook	-6575
illow	-6576
unction	-6577
▁mall	-6578
▁6:00	-6579
▁processes	-6580
▁investigation	-6581
▁causing	-6582
▁wealth	-6583
▁beans	-6584
▁photograph	-6585
▁domain	-6586
▁grass	-6587
▁4-	-6588
▁dys	-6589
▁motiv	-6590
▁heating	-6591
▁inspired	-6592
▁agencies	-6593
▁oxy	-6594
▁spending	-6595
ila	-6596
nic	-6597
serv	-6598
▁luck	-6599
▁displayed	-6600
▁salaries	-6601
▁loves	-6602
▁vel	-6603
home	-6604
▁amounts	-6605
engers	-6606
employ	-6607
▁bund	-6608
itz	-6609
code	-6610
▁noted	-6611
quest	-6612
▁clip	-6613
▁acres	-6614
▁clothes	-6615
lyn	-6616
ifer	-6617
▁bun	-6618
▁iii	-6619
▁coat	-6620
▁indicate	-6621
oom	-6622
ulty	-6623
▁bachelor	-6624
▁fits	-6625
▁whom	-6626
▁ira	-6627
▁annivers	-6628
▁bid	-6629
▁empty	-6630
▁anytime	-6631
mic	-6632
▁concern	-6633
oln	-6634
▁travelers	-6635
▁shoulder	-6636
▁limits	-6637
▁specialist	-6638
▁accuracy	-6639
criptions	-6640
▁ly	-6641
shire	-6642
▁officials	-6643
▁expenses	-6644
▁stim	-6645
▁denver	-6646
▁vinyl	-6647
▁entered	-6648
▁flour	-6649
▁neut	-6650
▁joined	-6651
▁philos	-6652
▁10%	-6653
▁ky	-6654
redited	-6655
▁accounting	-6656
▁allowing	-6657
oli	-6658
▁permanent	-6659
hal	-6660
▁accessible	-6661
they	-6662
▁aim	-6663
▁containing	-6664
▁seal	-6665
▁inspiration	-6666
▁reverse	-6667
▁networks	-6668
cular	-6669
▁rig	-6670
")	-6671
▁qualify	-6672
▁calories	-6673
▁gem	-6674
▁superior	-6675
▁nu	-6676
vs	-6677
▁numerous	-6678
▁vine	-6679
cin	-6680
tes	-6681
▁50%	-6682
▁spok	-6683
▁fried	-6684
zes	-6685
▁realtor	-6686
ês	-6687
▁sha	-6688
▁soul	-6689
▁param	-6690
▁thy	-6691
▁47	-6692
▁belong	-6693
▁tested	-6694
▁yard	-6695
▁committed	-6696
▁blow	-6697
▁monitoring	-6698
▁safari	-6699
▁tiny	-6700
▁patch	-6701
▁tear	-6702
▁dialog	-6703
▁2017.	-6704
-18	-6705
▁dol	-6706
▁stomach	-6707
▁manufacturing	-6708
▁fu	-6709
▁stun	-6710
▁finger	-6711
▁broadcast	-6712
▁gender	-6713
▁assets	-6714
▁choosing	-6715
web	-6716
▁guitar	-6717
▁religious	-6718
eder	-6719
▁kentucky	-6720
▁poll	-6721
▁replaced	-6722
▁newest	-6723
▁asia	-6724
▁unfortunately	-6725
▁ceo	-6726
bow	-6727
▁strategies	-6728
▁canadian	-6729
mes	-6730
▁rehab	-6731
▁evaluation	-6732
icut	-6733
▁catalog	-6734
irty	-6735
ás	-6736
▁donald	-6737
▁daniel	-6738
▁depends	-6739
▁hood	-6740
▁kits	-6741
days	-6742
▁reached	-6743
▁ment	-6744
▁matters	-6745
▁challenges	-6746
▁consequ	-6747
▁putting	-6748
▁kar	-6749
▁vice	-6750
pal	-6751
▁successfully	-6752
▁currency	-6753
▁**	-6754
▁amend	-6755
▁territ	-6756
▁holy	-6757
▁theatre	-6758
▁editors	-6759
fc	-6760
▁crown	-6761
▁sitting	-6762
▁nic	-6763
uits	-6764
emy	-6765
incoln	-6766
▁gi	-6767
▁powers	-6768
▁resistance	-6769
▁dess	-6770
▁candy	-6771
▁mast	-6772
▁restrictions	-6773
ws	-6774
▁netflix	-6775
▁leaf	-6776
ansion	-6777
ounder	-6778
▁conversation	-6779
▁inhib	-6780
▁html	-6781
▁extract	-6782
▁decades	-6783
schools	-6784
▁andrew	-6785
▁acceptance	-6786
aine	-6787
ensus	-6788
▁russia	-6789
▁fract	-6790
owned	-6791
▁steam	-6792
▁lets	-6793
roit	-6794
▁alaska	-6795
▁islands	-6796
▁tas	-6797
▁identified	-6798
▁depth	-6799
▁signal	-6800
▁introduction	-6801
otte	-6802
▁05	-6803
▁}	-6804
▁attacks	-6805
▁enjoyed	-6806
▁remaining	-6807
▁cs	-6808
▁fourth	-6809
▁moo	-6810
▁pier	-6811
▁respective	-6812
▁controlled	-6813
rain	-6814
▁winning	-6815
▁reward	-6816
▁officers	-6817
▁holidays	-6818
▁pitch	-6819
▁juice	-6820
">	-6821
▁readers	-6822
theast	-6823
▁lind	-6824
▁explained	-6825
▁promotions	-6826
▁sustain	-6827
screen	-6828
▁surg	-6829
▁bacon	-6830
▁02	-6831
phy	-6832
▁stated	-6833
▁perfectly	-6834
▁steve	-6835
▁transition	-6836
▁rou	-6837
▁wit	-6838
▁bru	-6839
▁calculated	-6840
▁$20	-6841
esth	-6842
▁commons	-6843
▁usd	-6844
▁5-	-6845
▁improved	-6846
ager	-6847
▁dresses	-6848
▁1995	-6849
▁giant	-6850
▁qualified	-6851
▁seeds	-6852
ifies	-6853
▁mn	-6854
▁cbs	-6855
▁worse	-6856
▁gon	-6857
▁anniversary	-6858
▁(18	-6859
uês	-6860
▁roman	-6861
▁drinking	-6862
▁casual	-6863
hs	-6864
▁dust	-6865
▁joseph	-6866
▁turkey	-6867
▁pour	-6868
▁scar	-6869
veland	-6870
▁crazy	-6871
▁references	-6872
▁drinks	-6873
9)	-6874
▁%	-6875
plus	-6876
gged	-6877
▁ح	-6878
foot	-6879
▁بر	-6880
▁normally	-6881
▁false	-6882
▁06	-6883
▁managing	-6884
▁photography	-6885
▁expression	-6886
▁lincoln	-6887
▁transact	-6888
▁hits	-6889
▁enforcement	-6890
▁relatively	-6891
ен	-6892
▁trucks	-6893
▁founded	-6894
▁iowa	-6895
▁reveals	-6896
iform	-6897
▁sne	-6898
eur	-6899
▁simpl	-6900
▁recover	-6901
▁dna	-6902
▁era	-6903
cker	-6904
▁shops	-6905
▁viewing	-6906
inson	-6907
▁xbox	-6908
▁henry	-6909
agement	-6910
▁practical	-6911
▁recording	-6912
▁synth	-6913
▁nights	-6914
▁positions	-6915
▁phen	-6916
▁flav	-6917
▁printing	-6918
▁vend	-6919
▁português	-6920
amps	-6921
▁cotton	-6922
apers	-6923
adium	-6924
▁sight	-6925
▁penal	-6926
icide	-6927
▁performing	-6928
اه	-6929
▁instance	-6930
▁ul	-6931
▁reb	-6932
▁tort	-6933
▁2.	-6934
▁aircraft	-6935
▁transaction	-6936
▁pocket	-6937
▁sum	-6938
▁lyn	-6939
▁1-800	-6940
▁investors	-6941
inity	-6942
▁vacu	-6943
▁partnership	-6944
▁luc	-6945
ione	-6946
▁holds	-6947
brid	-6948
▁busy	-6949
alo	-6950
▁250	-6951
▁marsh	-6952
oto	-6953
▁discovered	-6954
▁acute	-6955
▁knowing	-6956
▁unknown	-6957
▁computers	-6958
▁domin	-6959
▁recorded	-6960
made	-6961
▁buildings	-6962
▁cats	-6963
▁upcoming	-6964
store	-6965
▁ownership	-6966
▁hospitals	-6967
ading	-6968
▁familiar	-6969
▁forgot	-6970
▁از	-6971
post	-6972
▁equival	-6973
otive	-6974
▁advoc	-6975
non	-6976
▁mit	-6977
▁conversion	-6978
▁tablets	-6979
▁3.5	-6980
▁assum	-6981
▁concrete	-6982
▁complain	-6983
▁greatschools	-6984
ju	-6985
lers	-6986
ido	-6987
▁physicians	-6988
▁critic	-6989
▁dup	-6990
▁speakers	-6991
▁apparent	-6992
▁nail	-6993
▁agric	-6994
▁oblig	-6995
▁carpet	-6996
1-	-6997
ref	-6998
▁recognized	-6999
▁homem	-7000
▁mob	-7001
▁escape	-7002
▁jur	-7003
▁eliz	-7004
▁humans	-7005
▁anonymous	-7006
ingu	-7007
▁lender	-7008
▁motorcy	-7009
hi	-7010
▁surrounding	-7011
▁explan	-7012
▁$15	-7013
72	-7014
uable	-7015
uration	-7016
▁seemed	-7017
▁forever	-7018
bec	-7019
▁satisfact	-7020
print	-7021
phones	-7022
▁disappoint	-7023
▁corp	-7024
8-	-7025
▁soc	-7026
apy	-7027
▁directed	-7028
▁interpret	-7029
▁ord	-7030
▁ron	-7031
▁programming	-7032
▁52	-7033
▁flexible	-7034
uster	-7035
▁chol	-7036
▁ow	-7037
▁mouse	-7038
▁italy	-7039
anes	-7040
▁trials	-7041
▁knee	-7042
▁portable	-7043
▁speaking	-7044
▁fantastic	-7045
▁follows	-7046
▁totally	-7047
abeth	-7048
▁wearing	-7049
▁insights	-7050
▁boss	-7051
opens	-7052
▁cp	-7053
▁teeth	-7054
▁ov	-7055
▁muscles	-7056
▁hole	-7057
▁portal	-7058
▁detroit	-7059
▁jet	-7060
may	-7061
▁correspond	-7062
▁lun	-7063
▁supporting	-7064
!)	-7065
▁blocked	-7066
▁contents	-7067
▁controls	-7068
▁stands	-7069
?"	-7070
▁1.0	-7071
▁aluminum	-7072
▁ryan	-7073
▁adds	-7074
▁rings	-7075
▁98	-7076
▁vess	-7077
▁swimming	-7078
▁seeking	-7079
▁recognize	-7080
war	-7081
▁moves	-7082
▁buyer	-7083
▁brid	-7084
▁handling	-7085
▁focused	-7086
▁personality	-7087
itage	-7088
▁stroke	-7089
▁youn	-7090
▁extreme	-7091
▁fantasy	-7092
▁objects	-7093
▁ner	-7094
person	-7095
glass	-7096
omes	-7097
▁extensive	-7098
▁drain	-7099
nament	-7100
test	-7101
rich	-7102
▁amen	-7103
contin	-7104
from	-7105
▁scheduled	-7106
wal	-7107
▁authors	-7108
ador	-7109
▁sod	-7110
▁ق	-7111
▁tile	-7112
▁graphics	-7113
▁incredible	-7114
▁attribution	-7115
?”	-7116
▁wellness	-7117
▁ran	-7118
▁bacteria	-7119
▁vegetables	-7120
link	-7121
burgh	-7122
▁revealed	-7123
charge	-7124
▁producer	-7125
▁channels	-7126
▁acknowledge	-7127
▁chef	-7128
во	-7129
▁setup	-7130
▁indoor	-7131
▁antonio	-7132
▁manner	-7133
▁aer	-7134
urb	-7135
bd	-7136
click	-7137
▁sd	-7138
▁hiring	-7139
▁screw	-7140
ko	-7141
▁trick	-7142
▁tomatoes	-7143
▁agricult	-7144
step	-7145
▁myth	-7146
▁explorer	-7147
▁resolution	-7148
▁flood	-7149
▁nich	-7150
idad	-7151
▁viet	-7152
▁steak	-7153
▁kiss	-7154
low	-7155
▁immun	-7156
▁grilled	-7157
rint	-7158
▁tan	-7159
isters	-7160
▁grav	-7161
▁stan	-7162
ть	-7163
iters	-7164
fficient	-7165
▁tower	-7166
▁secretary	-7167
▁mb	-7168
▁ster	-7169
▁cher	-7170
▁bigger	-7171
▁variable	-7172
▁claimed	-7173
▁philosoph	-7174
▁arrived	-7175
▁researchers	-7176
eters	-7177
▁diagnost	-7178
▁sections	-7179
▁seriously	-7180
▁stations	-7181
▁obtained	-7182
▁circuit	-7183
▁louisiana	-7184
there	-7185
▁turning	-7186
▁lob	-7187
▁formal	-7188
ima	-7189
def	-7190
▁bot	-7191
emat	-7192
cre	-7193
▁moments	-7194
▁affiliate	-7195
▁backup	-7196
▁valve	-7197
300	-7198
▁instruction	-7199
▁bare	-7200
eland	-7201
▁72	-7202
▁unlike	-7203
▁guidance	-7204
ried	-7205
▁contributions	-7206
ushing	-7207
check	-7208
▁prohib	-7209
▁attached	-7210
▁preparation	-7211
▁metro	-7212
▁bush	-7213
▁recy	-7214
▁contempor	-7215
bean	-7216
▁surprise	-7217
▁charts	-7218
▁clearance	-7219
▁cups	-7220
▁finds	-7221
▁gent	-7222
▁nerve	-7223
inter	-7224
▁construct	-7225
▁carefully	-7226
▁chase	-7227
▁lew	-7228
▁laser	-7229
▁tweet	-7230
▁46	-7231
▁lav	-7232
▁warehouse	-7233
cribed	-7234
▁psychology	-7235
▁propos	-7236
▁у	-7237
real	-7238
omen	-7239
▁component	-7240
▁quantity	-7241
oz	-7242
▁primarily	-7243
▁chip	-7244
▁mt	-7245
▁cav	-7246
▁acts	-7247
▁homemade	-7248
▁reactions	-7249
eries	-7250
▁preferences	-7251
isms	-7252
▁dick	-7253
▁«	-7254
paid	-7255
▁involve	-7256
▁keyboard	-7257
iano	-7258
▁relative	-7259
▁chi	-7260
▁nv	-7261
world	-7262
rine	-7263
▁telephone	-7264
ти	-7265
fers	-7266
▁incorrect	-7267
level	-7268
▁tape	-7269
▁coloring	-7270
▁younger	-7271
▁contrast	-7272
▁displ	-7273
▁winner	-7274
▁adapt	-7275
▁printed	-7276
▁charlotte	-7277
▁container	-7278
▁childhood	-7279
▁ni	-7280
▁contest	-7281
▁circumst	-7282
1]	-7283
xture	-7284
ipe	-7285
▁$8	-7286
▁cleveland	-7287
▁languages	-7288
▁utility	-7289
▁resulting	-7290
▁dy	-7291
یر	-7292
▁nyc	-7293
▁identification	-7294
▁indie	-7295
▁magnet	-7296
▁considering	-7297
▁significantly	-7298
▁2016,	-7299
▁oxygen	-7300
▁à	-7301
asp	-7302
▁diss	-7303
▁ng	-7304
edge	-7305
▁workshe	-7306
▁cum	-7307
▁$9	-7308
wall	-7309
▁loop	-7310
▁yoga	-7311
▁sheets	-7312
▁tender	-7313
▁technic	-7314
▁wifi	-7315
timore	-7316
oming	-7317
using	-7318
▁reform	-7319
▁utah	-7320
▁volt	-7321
▁liability	-7322
▁forums	-7323
rs	-7324
▁entr	-7325
▁folder	-7326
▁funding	-7327
▁jord	-7328
▁nev	-7329
▁zillow	-7330
alle	-7331
▁butt	-7332
count	-7333
ishing	-7334
▁(6	-7335
/10	-7336
hus	-7337
ulations	-7338
ски	-7339
▁reduction	-7340
▁belt	-7341
▁trusted	-7342
▁recon	-7343
yard	-7344
▁regularly	-7345
▁43	-7346
▁jeep	-7347
▁submitting	-7348
▁interests	-7349
▁seasons	-7350
▁brothers	-7351
▁nose	-7352
▁77	-7353
▁functionality	-7354
hour	-7355
▁hung	-7356
▁catholic	-7357
▁plain	-7358
▁stadium	-7359
▁accessibility	-7360
doors	-7361
▁bib	-7362
▁cort	-7363
▁applies	-7364
▁promote	-7365
▁forced	-7366
▁bureau	-7367
ulu	-7368
ifier	-7369
▁broke	-7370
▁employers	-7371
osen	-7372
اب	-7373
ckets	-7374
▁comics	-7375
▁sentence	-7376
▁bm	-7377
▁bills	-7378
▁highlight	-7379
▁keys	-7380
▁immediate	-7381
▁importance	-7382
▁attractions	-7383
▁é	-7384
▁gay	-7385
▁automotive	-7386
▁requested	-7387
phas	-7388
ло	-7389
add	-7390
▁101	-7391
▁publication	-7392
▁substance	-7393
▁kil	-7394
▁strip	-7395
▁opera	-7396
▁mississ	-7397
▁decrease	-7398
▁sab	-7399
▁bou	-7400
▁1980	-7401
▁adj	-7402
▁smoke	-7403
▁shrim	-7404
▁boards	-7405
ippi	-7406
normal	-7407
▁می	-7408
ando	-7409
▁baltimore	-7410
urt	-7411
▁happiness	-7412
▁hurt	-7413
▁cul	-7414
▁78	-7415
▁subjects	-7416
loc	-7417
▁supposed	-7418
▁ranked	-7419
▁managers	-7420
▁habit	-7421
▁competitive	-7422
▁integrated	-7423
▁trigger	-7424
▁elizabeth	-7425
▁shipped	-7426
zing	-7427
ec	-7428
▁pound	-7429
▁wrap	-7430
▁toll	-7431
▁accomplish	-7432
▁miller	-7433
iances	-7434
▁gardens	-7435
▁stopped	-7436
▁imagine	-7437
▁inner	-7438
▁bringing	-7439
▁180	-7440
▁secondary	-7441
▁associates	-7442
▁skill	-7443
▁reasonable	-7444
▁portfol	-7445
▁appreciate	-7446
▁$12	-7447
▁operated	-7448
▁applying	-7449
erto	-7450
▁rac	-7451
▁davis	-7452
▁acting	-7453
▁scal	-7454
▁confidence	-7455
▁landscape	-7456
▁potatoes	-7457
nie	-7458
▁jac	-7459
▁birds	-7460
▁confirmed	-7461
▁transactions	-7462
▁600	-7463
fam	-7464
▁encourage	-7465
ti	-7466
▁firefox	-7467
▁dot	-7468
file	-7469
▁singer	-7470
ivals	-7471
▁principal	-7472
▁gross	-7473
icked	-7474
▁architecture	-7475
tail	-7476
boy	-7477
▁romantic	-7478
ación	-7479
▁correctly	-7480
acle	-7481
▁destroy	-7482
▁seating	-7483
▁closing	-7484
▁printable	-7485
▁suggests	-7486
▁fighting	-7487
share	-7488
▁believed	-7489
▁gel	-7490
▁distinct	-7491
▁screens	-7492
▁//	-7493
▁transp	-7494
▁lane	-7495
▁laure	-7496
pson	-7497
connect	-7498
▁pok	-7499
izz	-7500
▁atlantic	-7501
▁1998	-7502
▁faculty	-7503
▁interface	-7504
onyms	-7505
service	-7506
▁innovation	-7507
▁shrimp	-7508
▁sink	-7509
▁preview	-7510
▁indeed	-7511
aha	-7512
▁contacts	-7513
▁nash	-7514
-200	-7515
▁sir	-7516
iders	-7517
ificial	-7518
▁dodge	-7519
ür	-7520
▁batteries	-7521
▁rust	-7522
▁regardless	-7523
▁isol	-7524
▁connecticut	-7525
▁04	-7526
▁shirt	-7527
irst	-7528
▁appl	-7529
▁exclud	-7530
▁array	-7531
aze	-7532
▁rum	-7533
▁roles	-7534
▁grace	-7535
▁strict	-7536
▁opinions	-7537
▁authorized	-7538
▁reput	-7539
▁unus	-7540
▁soph	-7541
▁bass	-7542
essions	-7543
osphere	-7544
▁pd	-7545
▁compact	-7546
▁ease	-7547
ão	-7548
▁nat	-7549
▁vitam	-7550
▁expertise	-7551
▁2)	-7552
aza	-7553
▁clark	-7554
ifiers	-7555
▁collections	-7556
ev	-7557
▁institution	-7558
▁url	-7559
▁sensitive	-7560
▁endorse	-7561
▁telling	-7562
▁mush	-7563
▁lb	-7564
▁laboratory	-7565
vide	-7566
▁fax	-7567
▁ank	-7568
ymph	-7569
▁pasta	-7570
▁toile	-7571
▁11:00	-7572
bour	-7573
▁frequency	-7574
▁caught	-7575
▁03	-7576
▁mood	-7577
▁outdoors	-7578
▁massage	-7579
▁persons	-7580
▁nest	-7581
idi	-7582
rooms	-7583
▁solve	-7584
▁chosen	-7585
▁kelly	-7586
▁heritage	-7587
leg	-7588
▁situations	-7589
▁som	-7590
▁brun	-7591
▁smell	-7592
▁formed	-7593
▁$0	-7594
▁pants	-7595
▁dragon	-7596
stream	-7597
▁remind	-7598
▁promise	-7599
▁industries	-7600
▁gluten	-7601
▁1997	-7602
▁boots	-7603
thr	-7604
▁selecting	-7605
▁(199	-7606
▁mississippi	-7607
▁appeal	-7608
▁meets	-7609
walk	-7610
▁inquir	-7611
chem	-7612
▁toxic	-7613
▁onions	-7614
▁contemporary	-7615
▁bd	-7616
agen	-7617
▁anch	-7618
▁injuries	-7619
▁lam	-7620
▁rome	-7621
▁exempt	-7622
▁entering	-7623
▁outstanding	-7624
▁sail	-7625
cher	-7626
▁hate	-7627
▁closer	-7628
▁orient	-7629
ulous	-7630
▁confirmation	-7631
▁empire	-7632
master	-7633
▁dishes	-7634
تر	-7635
kee	-7636
▁explains	-7637
▁universe	-7638
▁ordering	-7639
▁casino	-7640
▁1970	-7641
friendly	-7642
▁compatible	-7643
▁frozen	-7644
▁promotion	-7645
▁nba	-7646
type	-7647
▁×	-7648
▁synonyms	-7649
▁elder	-7650
cp	-7651
▁gam	-7652
iance	-7653
▁من	-7654
▁cass	-7655
▁highlights	-7656
▁bever	-7657
▁lymph	-7658
inton	-7659
74	-7660
market	-7661
▁assault	-7662
▁41	-7663
unes	-7664
rac	-7665
secut	-7666
▁dreams	-7667
▁collins	-7668
▁lex	-7669
intendo	-7670
▁ridge	-7671
▁informed	-7672
▁crisis	-7673
build	-7674
▁efficiency	-7675
2-	-7676
hes	-7677
17)	-7678
▁ups	-7679
▁30-	-7680
▁brew	-7681
▁lifetime	-7682
▁somewhere	-7683
ela	-7684
▁responses	-7685
raine	-7686
active	-7687
▁estimates	-7688
▁mild	-7689
▁dating	-7690
▁arrive	-7691
▁permit	-7692
▁financing	-7693
▁jordan	-7694
▁twin	-7695
▁thu	-7696
▁administer	-7697
▁proposed	-7698
▁gang	-7699
▁neither	-7700
▁complaint	-7701
▁eleg	-7702
▁purple	-7703
▁crystal	-7704
▁$500	-7705
comp	-7706
cat	-7707
▁possibly	-7708
▁hybrid	-7709
▁personnel	-7710
sec	-7711
ships	-7712
▁electro	-7713
▁poster	-7714
▁weigh	-7715
▁checks	-7716
▁missed	-7717
ibles	-7718
▁rein	-7719
▁korea	-7720
▁laund	-7721
▁stir	-7722
control	-7723
▁tamp	-7724
▁notify	-7725
▁fulfill	-7726
essed	-7727
rations	-7728
▁mirror	-7729
arters	-7730
▁franch	-7731
▁blocks	-7732
ulin	-7733
▁nike	-7734
▁carib	-7735
▁onion	-7736
ilit	-7737
▁а	-7738
▁valuable	-7739
run	-7740
▁’	-7741
86	-7742
▁wer	-7743
▁qualifying	-7744
”,	-7745
chet	-7746
▁cabinet	-7747
▁uniform	-7748
▁thorough	-7749
▁massive	-7750
▁cooked	-7751
▁pist	-7752
.’	-7753
▁packaging	-7754
▁imposs	-7755
▁manufacturers	-7756
watch	-7757
▁adam	-7758
▁spots	-7759
▁temporary	-7760
▁attendance	-7761
▁borrow	-7762
▁healing	-7763
imedia	-7764
▁occurred	-7765
▁hik	-7766
aa	-7767
▁commitment	-7768
▁candidate	-7769
▁grown	-7770
week	-7771
▁presentation	-7772
▁marc	-7773
ener	-7774
here	-7775
your	-7776
▁satisfaction	-7777
▁baked	-7778
▁imper	-7779
▁investing	-7780
whe	-7781
▁purchasing	-7782
call	-7783
ghan	-7784
/5	-7785
▁hire	-7786
▁soccer	-7787
▁cyl	-7788
ados	-7789
apt	-7790
▁pilot	-7791
▁spam	-7792
▁solo	-7793
▁sending	-7794
wind	-7795
▁kl	-7796
▁أ	-7797
▁carl	-7798
aph	-7799
▁assigned	-7800
▁racing	-7801
▁wolf	-7802
▁coordin	-7803
▁scratch	-7804
▁valent	-7805
▁ceiling	-7806
ince	-7807
rame	-7808
ibilities	-7809
pot	-7810
▁buyers	-7811
▁nevada	-7812
▁ln	-7813
▁subsequ	-7814
▁throat	-7815
aware	-7816
▁oste	-7817
▁lug	-7818
▁screening	-7819
▁vul	-7820
▁gy	-7821
shirt	-7822
▁nin	-7823
▁rescue	-7824
▁circumstances	-7825
▁الم	-7826
▁blend	-7827
▁principles	-7828
▁drives	-7829
▁emphas	-7830
▁celebrity	-7831
esterday	-7832
▁accel	-7833
▁fda	-7834
▁negot	-7835
▁dé	-7836
party	-7837
▁bind	-7838
▁ille	-7839
▁inflammation	-7840
▁carb	-7841
▁incident	-7842
▁fet	-7843
▁grab	-7844
ku	-7845
▁4.	-7846
▁conserv	-7847
▁equivalent	-7848
▁bench	-7849
▁witness	-7850
▁participate	-7851
▁rankings	-7852
▁convenience	-7853
▁captain	-7854
▁archive	-7855
▁definitions	-7856
▁characteristics	-7857
cling	-7858
▁olive	-7859
uts	-7860
rell	-7861
▁widely	-7862
▁fert	-7863
idents	-7864
igned	-7865
▁$$	-7866
▁engagement	-7867
iere	-7868
▁afterno	-7869
▁keyword	-7870
▁panc	-7871
▁genetic	-7872
cover	-7873
works	-7874
▁ending	-7875
▁creation	-7876
▁plane	-7877
chool	-7878
▁nintendo	-7879
▁noise	-7880
.'	-7881
▁vital	-7882
▁shoe	-7883
osures	-7884
bury	-7885
▁arc	-7886
tech	-7887
▁celebrities	-7888
▁divorce	-7889
▁marvel	-7890
▁babies	-7891
▁vitamins	-7892
▁kinds	-7893
▁yesterday	-7894
▁sel	-7895
▁fifth	-7896
▁].	-7897
▁peak	-7898
▁shield	-7899
▁substitute	-7900
▁alexa	-7901
▁immune	-7902
▁bub	-7903
▁excited	-7904
▁anc	-7905
▁trips	-7906
uses	-7907
▁interv	-7908
▁passport	-7909
▁egy	-7910
▁sv	-7911
▁adverse	-7912
▁exterior	-7913
▁110	-7914
▁labels	-7915
▁plot	-7916
▁pant	-7917
▁speaker	-7918
5.	-7919
▁lovel	-7920
▁ко	-7921
▁celebrate	-7922
▁epic	-7923
▁surprising	-7924
onia	-7925
▁weapons	-7926
piece	-7927
▁conj	-7928
▁operate	-7929
▁wave	-7930
ckey	-7931
▁experim	-7932
▁scenes	-7933
dated	-7934
▁encounter	-7935
▁protest	-7936
▁acre	-7937
proof	-7938
▁sodium	-7939
▁mah	-7940
▁verizon	-7941
▁schem	-7942
▁fib	-7943
▁fing	-7944
aneous	-7945
cers	-7946
▁templates	-7947
igs	-7948
/7	-7949
title	-7950
▁displays	-7951
angle	-7952
▁guns	-7953
▁prize	-7954
▁maine	-7955
▁expressed	-7956
▁brake	-7957
▁horn	-7958
▁gluc	-7959
▁underst	-7960
▁copper	-7961
▁59	-7962
▁lawyers	-7963
▁automated	-7964
▁pent	-7965
▁contribution	-7966
ilation	-7967
▁earnings	-7968
▁reservations	-7969
▁jacket	-7970
▁apt	-7971
▁observed	-7972
▁stored	-7973
▁97	-7974
jet	-7975
▁enrollment	-7976
▁lev	-7977
▁basically	-7978
ori	-7979
ni	-7980
igue	-7981
▁traveling	-7982
▁arkansas	-7983
▁nations	-7984
▁fever	-7985
▁loyal	-7986
▁controvers	-7987
▁championship	-7988
▁advisor	-7989
▁waters	-7990
▁sour	-7991
▁hind	-7992
istan	-7993
▁structures	-7994
ologists	-7995
▁pray	-7996
such	-7997
▁gorge	-7998
▁nit	-7999
▁defect	-8000
▁fake	-8001
▁batt	-8002
▁passenger	-8003
uous	-8004
▁cargo	-8005
site	-8006
sters	-8007
▁spouse	-8008
▁technique	-8009
block	-8010
▁auction	-8011
shop	-8012
▁improving	-8013
▁bleeding	-8014
▁genu	-8015
▁workout	-8016
leans	-8017
▁ri	-8018
hot	-8019
▁tasks	-8020
▁grew	-8021
▁smoking	-8022
▁reject	-8023
▁mechanical	-8024
▁shr	-8025
▁scientists	-8026
▁tonight	-8027
▁treasure	-8028
▁feeding	-8029
iva	-8030
▁modified	-8031
former	-8032
ports	-8033
▁rubber	-8034
▁tooth	-8035
▁inher	-8036
▁appliances	-8037
▁dermat	-8038
lev	-8039
bn	-8040
raction	-8041
▁lung	-8042
▁um	-8043
▁0.	-8044
▁jay	-8045
burn	-8046
▁temperatures	-8047
▁zeal	-8048
ystem	-8049
▁refres	-8050
cons	-8051
▁amenities	-8052
▁rush	-8053
▁continuous	-8054
max	-8055
▁complim	-8056
▁indicates	-8057
▁bedrooms	-8058
▁toddler	-8059
▁impossible	-8060
▁perspective	-8061
52	-8062
▁exit	-8063
▁bern	-8064
▁за	-8065
▁dv	-8066
▁brad	-8067
▁functional	-8068
________	-8069
esterol	-8070
▁aa	-8071
án	-8072
▁potentially	-8073
ول	-8074
ben	-8075
▁optional	-8076
▁surgical	-8077
▁minim	-8078
▁innovative	-8079
▁abst	-8080
ez	-8081
▁developers	-8082
▁restricted	-8083
▁cuts	-8084
gradu	-8085
▁infant	-8086
▁consistent	-8087
▁abdom	-8088
▁dough	-8089
▁discovery	-8090
▁fell	-8091
▁است	-8092
▁evolution	-8093
▁trop	-8094
▁mold	-8095
uling	-8096
▁orch	-8097
▁jail	-8098
hdp	-8099
oty	-8100
▁wings	-8101
▁computing	-8102
▁courts	-8103
▁$6	-8104
▁portfolio	-8105
▁ire	-8106
▁nerv	-8107
▁religion	-8108
▁tone	-8109
▁laundry	-8110
▁kevin	-8111
▁inspire	-8112
▁whenever	-8113
▁naturally	-8114
▁toler	-8115
▁interactions	-8116
▁lbs	-8117
▁nuclear	-8118
▁verb	-8119
▁54	-8120
ousel	-8121
▁terminal	-8122
▁exciting	-8123
▁abc	-8124
▁noticed	-8125
▁versus	-8126
▁orleans	-8127
▁purs	-8128
900	-8129
▁elite	-8130
station	-8131
▁convention	-8132
▁britann	-8133
▁decade	-8134
3-	-8135
▁koh	-8136
▁conflict	-8137
▁specified	-8138
▁recip	-8139
▁defend	-8140
zil	-8141
▁bones	-8142
▁winds	-8143
▁requirement	-8144
▁nutri	-8145
▁castle	-8146
▁institutions	-8147
ulum	-8148
▁afternoon	-8149
▁wilson	-8150
▁chamber	-8151
▁aspects	-8152
▁egypt	-8153
▁stap	-8154
▁zest	-8155
▁ah	-8156
ials	-8157
▁cn	-8158
coin	-8159
american	-8160
issan	-8161
▁launched	-8162
▁admission	-8163
▁loun	-8164
▁bing	-8165
▁twist	-8166
▁fame	-8167
▁mountains	-8168
▁scroll	-8169
▁wound	-8170
▁diagnostic	-8171
▁wins	-8172
▁caribbean	-8173
▁checkout	-8174
▁pean	-8175
▁experiment	-8176
▁profiles	-8177
▁talks	-8178
▁configuration	-8179
▁define	-8180
▁constitutes	-8181
▁tact	-8182
▁losing	-8183
▁forecl	-8184
▁plates	-8185
▁3.	-8186
▁effectively	-8187
▁bullet	-8188
only	-8189
▁diverse	-8190
▁foam	-8191
fire	-8192
▁represents	-8193
▁clay	-8194
▁cocon	-8195
▁concert	-8196
▁desert	-8197
▁liv	-8198
▁sarah	-8199
▁newly	-8200
rix	-8201
▁papers	-8202
▁visible	-8203
▁patri	-8204
fish	-8205
papers	-8206
▁comic	-8207
video	-8208
▁pubmed	-8209
auth	-8210
rison	-8211
▁harbor	-8212
▁brace	-8213
anny	-8214
sq	-8215
▁gt	-8216
season	-8217
pres	-8218
▁zoom	-8219
▁compass	-8220
▁easter	-8221
iser	-8222
rets	-8223
▁frequent	-8224
▁doubt	-8225
▁57	-8226
▁1/4	-8227
▁victims	-8228
▁treating	-8229
▁wake	-8230
leton	-8231
▁tie	-8232
▁straw	-8233
▁boundaries	-8234
▁jeans	-8235
cium	-8236
▁breed	-8237
▁evil	-8238
▁awareness	-8239
▁anime	-8240
▁sleeping	-8241
cri	-8242
81	-8243
aki	-8244
haust	-8245
▁korean	-8246
▁franklin	-8247
′′	-8248
▁whis	-8249
▁carousel	-8250
vol	-8251
emed	-8252
best	-8253
▁desire	-8254
▁mug	-8255
▁merc	-8256
▁chips	-8257
ception	-8258
▁expansion	-8259
▁pitts	-8260
▁slowly	-8261
▁shock	-8262
▁satell	-8263
▁defe	-8264
dig	-8265
ante	-8266
▁atmosphere	-8267
▁entirely	-8268
▁marketplace	-8269
kg	-8270
▁cardio	-8271
gate	-8272
▁periods	-8273
▁smartphone	-8274
▁instantly	-8275
▁organized	-8276
▁eric	-8277
▁diversity	-8278
cha	-8279
▁cere	-8280
▁cartoon	-8281
▁sexy	-8282
▁personally	-8283
index	-8284
▁smile	-8285
▁mixture	-8286
when	-8287
▁fand	-8288
▁recept	-8289
amine	-8290
yon	-8291
▁desired	-8292
▁cameras	-8293
▁pipe	-8294
▁arthritis	-8295
▁concerned	-8296
caa	-8297
▁yang	-8298
▁tournament	-8299
botax	-8300
▁happening	-8301
▁participants	-8302
▁eligibility	-8303
▁examination	-8304
wart	-8305
▁osc	-8306
▁documentation	-8307
▁feelings	-8308
▁customize	-8309
▁yeah	-8310
aga	-8311
▁formats	-8312
▁ado	-8313
▁evol	-8314
▁topped	-8315
▁cholesterol	-8316
▁barrel	-8317
▁conducted	-8318
bul	-8319
aving	-8320
▁rolling	-8321
gging	-8322
▁intr	-8323
una	-8324
imm	-8325
▁indu	-8326
▁56	-8327
▁sweat	-8328
▁homeown	-8329
▁prove	-8330
while	-8331
▁allen	-8332
да	-8333
▁cooling	-8334
400	-8335
▁rack	-8336
▁(@	-8337
mb	-8338
▁realize	-8339
▁dynamic	-8340
▁patrick	-8341
abil	-8342
pton	-8343
▁asks	-8344
etooth	-8345
▁tomorrow	-8346
▁analyst	-8347
▁hunt	-8348
▁britannica	-8349
▁passing	-8350
▁involves	-8351
oper	-8352
رد	-8353
▁oldest	-8354
▁presents	-8355
sole	-8356
ige	-8357
▁constantly	-8358
▁administrative	-8359
▁exception	-8360
url	-8361
han	-8362
▁lens	-8363
▁timeline	-8364
▁divided	-8365
core	-8366
▁sector	-8367
▁processed	-8368
▁dressing	-8369
▁pleasant	-8370
▁tue	-8371
▁urine	-8372
▁sensor	-8373
licit	-8374
opher	-8375
ет	-8376
▁گ	-8377
▁spiritual	-8378
install	-8379
▁suggestions	-8380
▁combine	-8381
▁heights	-8382
▁не	-8383
ello	-8384
▁prints	-8385
▁wildlife	-8386
▁han	-8387
▁ours	-8388
▁teens	-8389
▁dura	-8390
lik	-8391
▁dimensions	-8392
▁collected	-8393
▁jess	-8394
itations	-8395
xy	-8396
▁hors	-8397
▁gb	-8398
itan	-8399
iti	-8400
▁bodies	-8401
uls	-8402
▁nissan	-8403
fil	-8404
▁chemistry	-8405
▁ireland	-8406
▁roots	-8407
ridge	-8408
▁substant	-8409
▁connections	-8410
ructure	-8411
▁drops	-8412
▁pediatric	-8413
▁swing	-8414
▁contribute	-8415
▁66	-8416
▁editorial	-8417
▁canvas	-8418
▁dated	-8419
▁tampa	-8420
▁respir	-8421
▁athletic	-8422
▁exposed	-8423
https	-8424
utional	-8425
▁paste	-8426
edic	-8427
▁browsing	-8428
hop	-8429
▁15%	-8430
▁documentary	-8431
▁stunning	-8432
▁yards	-8433
▁tac	-8434
▁ultimately	-8435
56	-8436
▁poison	-8437
▁inspection	-8438
▁heaven	-8439
▁exhaust	-8440
leted	-8441
▁deduct	-8442
▁dil	-8443
▁appet	-8444
▁coconut	-8445
bes	-8446
▁tracks	-8447
▁legacy	-8448
athan	-8449
▁}}	-8450
trans	-8451
gor	-8452
hen	-8453
▁survival	-8454
▁rede	-8455
▁edt	-8456
▁resorts	-8457
▁consists	-8458
▁poem	-8459
▁turbotax	-8460
▁teas	-8461
▁closely	-8462
▁colour	-8463
▁concentration	-8464
▁2016.	-8465
▁deploy	-8466
82	-8467
▁northwest	-8468
after	-8469
▁refers	-8470
▁quil	-8471
▁bry	-8472
▁repeated	-8473
▁inse	-8474
mate	-8475
/1	-8476
allow	-8477
omic	-8478
▁usual	-8479
▁hud	-8480
▁permissions	-8481
▁citation	-8482
▁necessarily	-8483
▁vacuum	-8484
▁ros	-8485
▁repeat	-8486
▁damaged	-8487
▁kay	-8488
▁governor	-8489
▁trained	-8490
usive	-8491
▁assume	-8492
▁actors	-8493
▁retro	-8494
-15	-8495
mobile	-8496
▁trend	-8497
▁restore	-8498
▁meetings	-8499
▁unusual	-8500
▁360	-8501
▁fairly	-8502
▁receip	-8503
▁toilet	-8504
▁refreshing	-8505
▁irish	-8506
▁forecast	-8507
▁calcium	-8508
▁rivers	-8509
▁alive	-8510
▁tennis	-8511
comfort	-8512
▁engage	-8513
▁brian	-8514
▁semi	-8515
ressed	-8516
▁stephen	-8517
??	-8518
▁contributor	-8519
▁flip	-8520
▁suspension	-8521
▁12:00	-8522
▁lakes	-8523
▁cann	-8524
▁wells	-8525
▁combat	-8526
icted	-8527
▁wis	-8528
▁woods	-8529
▁matches	-8530
pace	-8531
aho	-8532
▁monster	-8533
xx	-8534
iones	-8535
▁capable	-8536
▁shore	-8537
▁kir	-8538
appro	-8539
ked	-8540
▁breaks	-8541
▁oils	-8542
▁protocol	-8543
▁(9	-8544
▁montana	-8545
-88	-8546
▁republican	-8547
▁samples	-8548
▁lovely	-8549
▁stuck	-8550
▁routine	-8551
▁eagle	-8552
▁reducing	-8553
▁exec	-8554
▁mystery	-8555
sty	-8556
▁intra	-8557
▁olympic	-8558
miss	-8559
▁cogn	-8560
▁1960	-8561
▁tm	-8562
▁priority	-8563
size	-8564
▁trav	-8565
▁maxim	-8566
▁stats	-8567
▁candidates	-8568
anded	-8569
76	-8570
▁proven	-8571
▁tattoos	-8572
▁lace	-8573
▁finder	-8574
▁seaf	-8575
▁gap	-8576
▁zealand	-8577
▁wing	-8578
▁abnormal	-8579
▁indicated	-8580
▁lucky	-8581
-11	-8582
▁rick	-8583
▁passes	-8584
▁(3)	-8585
▁matthe	-8586
▁lewis	-8587
▁measurement	-8588
html	-8589
▁matching	-8590
riet	-8591
▁2015,	-8592
▁faces	-8593
▁promo	-8594
▁votes	-8595
orable	-8596
ер	-8597
product	-8598
▁alleged	-8599
▁floors	-8600
hyth	-8601
▁graphic	-8602
gent	-8603
▁destinations	-8604
▁ts	-8605
7)	-8606
▁convent	-8607
▁rect	-8608
▁acquis	-8609
▁opposite	-8610
aka	-8611
▁regions	-8612
▁nik	-8613
▁spain	-8614
▁puerto	-8615
▁asset	-8616
good	-8617
▁exercises	-8618
▁victim	-8619
anth	-8620
▁southwest	-8621
▁maker	-8622
ali	-8623
commer	-8624
▁planned	-8625
▁shouldn	-8626
▁surve	-8627
▁chron	-8628
boards	-8629
▁forth	-8630
▁ib	-8631
▁sleeve	-8632
▁notifications	-8633
ulary	-8634
▁camping	-8635
plant	-8636
▁spell	-8637
▁buffalo	-8638
▁pools	-8639
dule	-8640
▁$200	-8641
▁58	-8642
▁vegan	-8643
▁summit	-8644
▁imaging	-8645
▁tong	-8646
inating	-8647
▁tuition	-8648
uana	-8649
▁popup	-8650
▁4.3	-8651
▁angle	-8652
▁anat	-8653
▁affects	-8654
▁solely	-8655
aire	-8656
▁swed	-8657
▁agreed	-8658
▁pt	-8659
▁bomb	-8660
▁flooring	-8661
▁reservation	-8662
▁relie	-8663
pi	-8664
▁dipl	-8665
▁bluetooth	-8666
har	-8667
▁mira	-8668
▁delaware	-8669
▁census	-8670
▁metabol	-8671
▁dealing	-8672
▁foster	-8673
php	-8674
squ	-8675
▁anne	-8676
!"	-8677
ricts	-8678
▁discip	-8679
quality	-8680
▁beta	-8681
▁4.2	-8682
▁whit	-8683
▁globe	-8684
▁crowd	-8685
▁patent	-8686
54	-8687
▁negoti	-8688
▁disk	-8689
▁enthus	-8690
▁bor	-8691
▁newspaper	-8692
bus	-8693
hou	-8694
▁universities	-8695
▁herein	-8696
▁couples	-8697
▁dropped	-8698
▁ske	-8699
▁jewish	-8700
.;	-8701
▁jennifer	-8702
avail	-8703
▁lib	-8704
eman	-8705
eties	-8706
mann	-8707
▁pest	-8708
▁blade	-8709
▁irrit	-8710
oned	-8711
▁kong	-8712
▁josh	-8713
▁reveal	-8714
▁carried	-8715
▁additionally	-8716
alf	-8717
▁radi	-8718
▁tops	-8719
▁spectrum	-8720
▁unf	-8721
jan	-8722
▁mathemat	-8723
▁circul	-8724
▁yours	-8725
▁nervous	-8726
oters	-8727
▁brooklyn	-8728
▁ward	-8729
▁facing	-8730
▁ein	-8731
▁joining	-8732
▁gorgeous	-8733
▁reddit	-8734
pn	-8735
▁username	-8736
▁crochet	-8737
▁4.6	-8738
▁airline	-8739
zo	-8740
▁headqu	-8741
iller	-8742
▁hilton	-8743
▁warri	-8744
▁nm	-8745
▁picked	-8746
▁crossword	-8747
▁biography	-8748
▁("	-8749
▁365	-8750
▁streets	-8751
▁spinal	-8752
▁ka	-8753
▁motorcycle	-8754
▁contractor	-8755
▁counseling	-8756
▁covering	-8757
vet	-8758
▁$75	-8759
▁visits	-8760
▁anyway	-8761
▁intellect	-8762
▁(12	-8763
igation	-8764
▁sau	-8765
▁careful	-8766
96	-8767
▁columbus	-8768
news	-8769
▁slo	-8770
▁dutch	-8771
sk	-8772
▁gab	-8773
▁hamp	-8774
black	-8775
▁compound	-8776
rogen	-8777
▁completing	-8778
attan	-8779
▁fewer	-8780
▁92	-8781
▁insight	-8782
▁1,000	-8783
▁nuts	-8784
▁residence	-8785
-14	-8786
▁adobe	-8787
▁rapids	-8788
▁floral	-8789
▁temple	-8790
pool	-8791
▁0.0	-8792
▁vast	-8793
▁temporarily	-8794
▁drawings	-8795
fits	-8796
▁ي	-8797
▁cha	-8798
▁initially	-8799
▁ont	-8800
▁intake	-8801
▁rs	-8802
iley	-8803
▁4.4	-8804
sho	-8805
▁buck	-8806
eper	-8807
▁ghost	-8808
wd	-8809
▁capture	-8810
▁loose	-8811
▁(“	-8812
▁repairs	-8813
▁terror	-8814
▁publications	-8815
erk	-8816
▁jar	-8817
▁bold	-8818
▁picks	-8819
▁britain	-8820
▁10.	-8821
▁anderson	-8822
▁ai	-8823
▁mask	-8824
▁satisfied	-8825
▁roy	-8826
▁distributed	-8827
▁complications	-8828
rif	-8829
▁outcomes	-8830
73	-8831
emony	-8832
▁founder	-8833
▁delta	-8834
▁tract	-8835
▁dor	-8836
▁gastro	-8837
mel	-8838
etics	-8839
▁cure	-8840
▁vertical	-8841
▁underlying	-8842
requ	-8843
▁portland	-8844
▁soldiers	-8845
▁immigration	-8846
▁hiv	-8847
▁verification	-8848
ijuana	-8849
▁kate	-8850
imp	-8851
▁clubs	-8852
ouses	-8853
tar	-8854
':	-8855
▁chrom	-8856
oons	-8857
▁stages	-8858
race	-8859
▁carn	-8860
▁literally	-8861
aches	-8862
▁returning	-8863
▁arena	-8864
agues	-8865
▁crust	-8866
▁artificial	-8867
▁billing	-8868
who	-8869
▁graduation	-8870
function	-8871
,000.	-8872
▁glasses	-8873
hum	-8874
▁embed	-8875
dep	-8876
ango	-8877
▁frust	-8878
▁vocab	-8879
92	-8880
▁51	-8881
▁1)	-8882
▁infrast	-8883
▁breathing	-8884
▁pulled	-8885
▁ancest	-8886
▁vista	-8887
▁engineer	-8888
▁cater	-8889
▁maintained	-8890
▁filling	-8891
▁australian	-8892
wheel	-8893
▁roasted	-8894
▁recognition	-8895
▁formation	-8896
pc	-8897
ski	-8898
▁bbc	-8899
▁operator	-8900
▁brazil	-8901
rot	-8902
stock	-8903
usa	-8904
▁wooden	-8905
aux	-8906
▁bah	-8907
▁nashville	-8908
▁rising	-8909
▁suitable	-8910
▁strategic	-8911
▁greens	-8912
▁minister	-8913
▁humor	-8914
▁madison	-8915
▁promotional	-8916
mg	-8917
▁sons	-8918
▁vaccine	-8919
asty	-8920
▁hundred	-8921
▁passengers	-8922
▁describes	-8923
kers	-8924
▁biology	-8925
▁30%	-8926
▁pittsburgh	-8927
▁chairs	-8928
▁victory	-8929
▁measured	-8930
▁reputation	-8931
▁ross	-8932
writer	-8933
▁frames	-8934
▁outlet	-8935
▁maintaining	-8936
hea	-8937
▁plas	-8938
▁wholes	-8939
▁burning	-8940
ounces	-8941
ви	-8942
▁#2	-8943
times	-8944
▁preparing	-8945
▁doses	-8946
▁lett	-8947
▁bug	-8948
▁ted	-8949
▁twenty	-8950
▁ч	-8951
apor	-8952
teen	-8953
▁dj	-8954
▁sant	-8955
▁noun	-8956
aug	-8957
▁grams	-8958
▁liberty	-8959
▁fiction	-8960
▁clinton	-8961
▁rarely	-8962
cap	-8963
▁canyon	-8964
▁nails	-8965
▁regulation	-8966
igen	-8967
▁adoption	-8968
oster	-8969
▁listening	-8970
acc	-8971
800	-8972
▁horror	-8973
▁compliment	-8974
▁suicide	-8975
▁audi	-8976
roph	-8977
▁debut	-8978
▁knife	-8979
▁presidential	-8980
▁triple	-8981
▁grammar	-8982
▁rash	-8983
▁xx	-8984
was	-8985
▁intent	-8986
▁satellite	-8987
▁kings	-8988
▁lon	-8989
:05	-8990
icon	-8991
▁conclus	-8992
▁texture	-8993
▁$14	-8994
▁volunteer	-8995
speed	-8996
▁junior	-8997
▁movements	-8998
▁greet	-8999
▁quad	-9000
▁succeed	-9001
▁findings	-9002
▁ebay	-9003
▁tons	-9004
▁curric	-9005
▁amendment	-9006
▁illegal	-9007
▁radiation	-9008
▁directors	-9009
through	-9010
bag	-9011
▁tack	-9012
▁instrument	-9013
▁nationwide	-9014
▁sql	-9015
ika	-9016
▁difficulty	-9017
▁killing	-9018
aron	-9019
▁franchise	-9020
▁essay	-9021
▁edward	-9022
▁festivals	-9023
▁loaded	-9024
▁53	-9025
▁microw	-9026
▁medicines	-9027
▁excellence	-9028
aukee	-9029
▁engines	-9030
itable	-9031
▁mutual	-9032
▁evaluate	-9033
اس	-9034
▁till	-9035
▁workplace	-9036
agu	-9037
▁injection	-9038
▁extend	-9039
braska	-9040
▁ncaa	-9041
▁lean	-9042
▁riding	-9043
▁transit	-9044
▁shade	-9045
▁deer	-9046
▁kennedy	-9047
hydr	-9048
▁impressive	-9049
رب	-9050
▁refin	-9051
poon	-9052
▁polish	-9053
▁bedding	-9054
▁ز	-9055
▁involving	-9056
▁converter	-9057
▁mpg	-9058
emap	-9059
▁departments	-9060
▁improvements	-9061
▁swift	-9062
▁arrival	-9063
▁von	-9064
onto	-9065
▁spoke	-9066
▁correction	-9067
▁gly	-9068
graduate	-9069
▁xl	-9070
▁recur	-9071
▁peppers	-9072
▁chemicals	-9073
isd	-9074
▁tricks	-9075
▁moore	-9076
white	-9077
▁basics	-9078
▁sufficient	-9079
sized	-9080
▁interviews	-9081
uty	-9082
ilipp	-9083
otted	-9084
▁districts	-9085
▁jungle	-9086
▁rip	-9087
رو	-9088
▁seafood	-9089
▁rifle	-9090
▁explanation	-9091
▁76	-9092
▁lan	-9093
▁dependent	-9094
▁hong	-9095
▁concepts	-9096
▁protective	-9097
▁sig	-9098
▁spelling	-9099
▁ker	-9100
▁arrested	-9101
rec	-9102
▁export	-9103
▁writers	-9104
bank	-9105
/3	-9106
hist	-9107
▁classified	-9108
▁glucose	-9109
▁ك	-9110
▁67	-9111
▁brick	-9112
▁entrance	-9113
cos	-9114
▁nw	-9115
/16	-9116
die	-9117
▁rolls	-9118
▁infrastructure	-9119
alike	-9120
▁indones	-9121
iler	-9122
rem	-9123
bage	-9124
▁bonds	-9125
▁obama	-9126
▁tony	-9127
arms	-9128
▁slim	-9129
neum	-9130
▁abstract	-9131
▁taught	-9132
▁fare	-9133
▁realty	-9134
▁narr	-9135
▁الع	-9136
▁leon	-9137
▁argument	-9138
▁falling	-9139
stop	-9140
▁pi	-9141
waukee	-9142
▁fleet	-9143
▁2018:	-9144
chi	-9145
▁nbc	-9146
,'	-9147
ached	-9148
casts	-9149
▁rab	-9150
▁debate	-9151
▁ی	-9152
price	-9153
▁studying	-9154
▁troubles	-9155
▁addiction	-9156
▁ceremony	-9157
▁studios	-9158
aded	-9159
▁philosophy	-9160
▁scholarship	-9161
▁kb	-9162
▁sitemap	-9163
mus	-9164
eff	-9165
▁premiere	-9166
▁mature	-9167
heim	-9168
▁2014,	-9169
5)	-9170
▁veteran	-9171
▁merchand	-9172
▁bikes	-9173
repren	-9174
▁swap	-9175
▁cherry	-9176
▁wage	-9177
▁nebraska	-9178
▁stable	-9179
▁jane	-9180
▁grades	-9181
▁behalf	-9182
▁ankle	-9183
mates	-9184
▁desc	-9185
▁bulk	-9186
▁staying	-9187
▁bake	-9188
▁charter	-9189
▁7:30	-9190
▁orthop	-9191
▁bbq	-9192
▁unex	-9193
▁loving	-9194
▁6-	-9195
▁spicy	-9196
lan	-9197
▁hart	-9198
▁girlfriend	-9199
lu	-9200
▁temp	-9201
▁utilize	-9202
▁commerce	-9203
glas	-9204
▁polar	-9205
▁yield	-9206
▁grid	-9207
▁expectations	-9208
▁paralle	-9209
84	-9210
▁bean	-9211
organ	-9212
▁ale	-9213
▁thyroid	-9214
atin	-9215
▁lenders	-9216
▁jen	-9217
vascular	-9218
▁dell	-9219
▁lect	-9220
lord	-9221
▁kin	-9222
▁salv	-9223
▁constitution	-9224
oral	-9225
▁ja	-9226
▁painted	-9227
▁ced	-9228
▁adequ	-9229
▁toast	-9230
▁vest	-9231
▁como	-9232
▁puts	-9233
▁lies	-9234
▁prayer	-9235
▁distingu	-9236
sex	-9237
▁administrator	-9238
▁62	-9239
▁electricity	-9240
apse	-9241
▁vocabulary	-9242
▁loud	-9243
▁holes	-9244
▁phrase	-9245
▁tul	-9246
▁1994	-9247
▁bitcoin	-9248
▁trailers	-9249
▁hearts	-9250
▁participating	-9251
▁hunter	-9252
▁memories	-9253
▁gut	-9254
▁delayed	-9255
▁larg	-9256
▁crypt	-9257
▁puppy	-9258
▁practition	-9259
ched	-9260
ummy	-9261
▁maria	-9262
▁pride	-9263
▁lisa	-9264
sub	-9265
▁neutral	-9266
▁isl	-9267
▁más	-9268
中文	-9269
].	-9270
▁scand	-9271
▁acquired	-9272
▁chose	-9273
omer	-9274
aped	-9275
▁opio	-9276
▁guil	-9277
▁itunes	-9278
▁permitted	-9279
▁hypoth	-9280
▁italiano	-9281
▁extent	-9282
▁epid	-9283
▁sessions	-9284
▁idaho	-9285
▁salmon	-9286
▁ya	-9287
▁removing	-9288
cipl	-9289
▁harris	-9290
▁visited	-9291
▁depot	-9292
▁rocks	-9293
▁refrigerator	-9294
▁dealership	-9295
▁allergy	-9296
▁stronger	-9297
▁poet	-9298
winning	-9299
▁marijuana	-9300
user	-9301
▁reporter	-9302
▁crack	-9303
sn	-9304
▁dietary	-9305
▁manif	-9306
▁elegant	-9307
▁expanded	-9308
▁everywhere	-9309
▁portra	-9310
▁delivers	-9311
▁weapon	-9312
cour	-9313
vc	-9314
aver	-9315
▁gentle	-9316
image	-9317
▁pace	-9318
▁enhanced	-9319
▁democratic	-9320
▁accused	-9321
▁coin	-9322
▁entrepren	-9323
▁§	-9324
▁puzzle	-9325
▁89	-9326
83	-9327
▁jean	-9328
▁font	-9329
zed	-9330
adder	-9331
▁respiratory	-9332
isation	-9333
▁philipp	-9334
lee	-9335
▁bran	-9336
▁63	-9337
▁layers	-9338
▁pir	-9339
▁dal	-9340
▁alleg	-9341
▁charging	-9342
▁aggress	-9343
fig	-9344
▁moderate	-9345
▁69	-9346
game	-9347
▁$49	-9348
▁barri	-9349
▁minimal	-9350
▁shadow	-9351
▁bil	-9352
▁mainly	-9353
quer	-9354
▁somewhat	-9355
▁milwaukee	-9356
▁thousand	-9357
▁faqs	-9358
▁contracts	-9359
otherapy	-9360
eness	-9361
▁equipped	-9362
▁exped	-9363
▁notices	-9364
▁adjustable	-9365
▁swelling	-9366
rp	-9367
▁gates	-9368
لی	-9369
▁hepat	-9370
▁membr	-9371
cell	-9372
▁stere	-9373
▁lamp	-9374
▁hazard	-9375
▁margin	-9376
▁render	-9377
▁serial	-9378
▁joints	-9379
▁cole	-9380
oir	-9381
▁ongoing	-9382
▁vector	-9383
▁placement	-9384
▁harass	-9385
▁outer	-9386
ht	-9387
▁discrim	-9388
▁derived	-9389
▁frost	-9390
▁pneum	-9391
▁gig	-9392
▁semin	-9393
▁insulin	-9394
▁weird	-9395
▁diameter	-9396
▁disclosure	-9397
:59	-9398
▁complicated	-9399
▁playlist	-9400
▁mph	-9401
nor	-9402
iants	-9403
▁adventures	-9404
▁invas	-9405
uxe	-9406
▁adopted	-9407
▁persist	-9408
▁knitting	-9409
▁remed	-9410
▁hampshire	-9411
▁8:30	-9412
▁diagnosed	-9413
itivity	-9414
ucks	-9415
▁groom	-9416
▁vibr	-9417
aj	-9418
▁$30	-9419
▁amy	-9420
▁webmd	-9421
ocy	-9422
▁broadway	-9423
▁facial	-9424
▁console	-9425
empts	-9426
▁strange	-9427
▁generate	-9428
▁absolute	-9429
▁consumption	-9430
▁conditioning	-9431
upt	-9432
▁sid	-9433
▁vegetable	-9434
minute	-9435
▁challenging	-9436
rinted	-9437
rob	-9438
▁fred	-9439
▁worksheet	-9440
▁genuine	-9441
▁independence	-9442
aret	-9443
▁complaints	-9444
▁dirt	-9445
▁shelter	-9446
cards	-9447
▁prospect	-9448
▁ounces	-9449
▁copies	-9450
▁cough	-9451
▁durable	-9452
%.	-9453
▁>>	-9454
▁investor	-9455
▁recreation	-9456
rh	-9457
-13	-9458
▁overnight	-9459
▁indianapolis	-9460
▁obviously	-9461
▁stones	-9462
▁scope	-9463
▁awarded	-9464
▁wip	-9465
iotics	-9466
▁bmw	-9467
▁org	-9468
▁completion	-9469
▁saus	-9470
▁را	-9471
▁authorities	-9472
▁morgan	-9473
▁bend	-9474
▁stops	-9475
bet	-9476
fal	-9477
uge	-9478
--------	-9479
▁representation	-9480
▁hockey	-9481
elson	-9482
▁shortly	-9483
inent	-9484
▁upv	-9485
employment	-9486
boro	-9487
▁160	-9488
▁celebration	-9489
▁های	-9490
eping	-9491
▁decent	-9492
▁seasonal	-9493
rist	-9494
olid	-9495
▁deadline	-9496
▁athletes	-9497
▁tent	-9498
▁grain	-9499
▁wondering	-9500
▁logged	-9501
▁developer	-9502
pected	-9503
▁bulbs	-9504
–2018	-9505
▁capabilities	-9506
will	-9507
▁grove	-9508
▁anthony	-9509
▁debit	-9510
ady	-9511
▁sony	-9512
inum	-9513
▁exceptional	-9514
group	-9515
controll	-9516
▁pes	-9517
▁rico	-9518
▁logic	-9519
▁surprised	-9520
▁uncle	-9521
▁cafe	-9522
▁armed	-9523
▁wiki	-9524
▁aside	-9525
▁(2018	-9526
▁jason	-9527
▁chances	-9528
apore	-9529
▁crush	-9530
ocation	-9531
bir	-9532
orized	-9533
▁specifications	-9534
pers	-9535
▁mrs	-9536
▁strike	-9537
▁mud	-9538
▁worker	-9539
mls	-9540
▁cape	-9541
▁boyfriend	-9542
▁instruments	-9543
rog	-9544
▁scul	-9545
▁96	-9546
▁seam	-9547
▁carrying	-9548
▁essentials	-9549
▁themes	-9550
▁observ	-9551
▁okay	-9552
▁buzz	-9553
▁fulfillment	-9554
sharealike	-9555
▁largely	-9556
▁alphabet	-9557
iox	-9558
▁douglas	-9559
rin	-9560
first	-9561
▁discussions	-9562
▁statist	-9563
▁odd	-9564
▁chains	-9565
spec	-9566
▁panels	-9567
▁connecting	-9568
ilder	-9569
udi	-9570
▁dave	-9571
▁900	-9572
▁editing	-9573
▁ay	-9574
▁intest	-9575
/2017	-9576
▁medicaid	-9577
▁vag	-9578
▁insider	-9579
▁podcast	-9580
▁discussed	-9581
▁curriculum	-9582
▁zestimate	-9583
▁farmers	-9584
▁firms	-9585
▁lettuce	-9586
▁seiz	-9587
mc	-9588
cedes	-9589
▁corps	-9590
▁seg	-9591
▁module	-9592
▁gps	-9593
▁wiz	-9594
▁bann	-9595
▁2013,	-9596
▁chevy	-9597
rip	-9598
:55	-9599
▁victoria	-9600
▁invitations	-9601
▁mason	-9602
▁gloss	-9603
▁rural	-9604
▁harvest	-9605
▁rt	-9606
logy	-9607
stic	-9608
ril	-9609
▁humid	-9610
▁jurisd	-9611
▁steering	-9612
holders	-9613
▁handy	-9614
▁attempts	-9615
▁cooker	-9616
▁mistake	-9617
ми	-9618
▁fasc	-9619
▁integration	-9620
airy	-9621
▁79	-9622
▁licensing	-9623
▁caring	-9624
▁legislation	-9625
ilitation	-9626
▁(0%)	-9627
▁followers	-9628
▁rely	-9629
grounds	-9630
3]	-9631
▁marg	-9632
▁remained	-9633
ين	-9634
▁nam	-9635
▁lounge	-9636
mill	-9637
aping	-9638
2]	-9639
▁gau	-9640
patient	-9641
▁suddenly	-9642
▁decorations	-9643
▁adapter	-9644
omatic	-9645
▁granted	-9646
▁cleaner	-9647
▁apparently	-9648
▁lottery	-9649
▁safely	-9650
arest	-9651
ogram	-9652
monary	-9653
▁engaged	-9654
)(	-9655
asa	-9656
▁	-9657
e	-9658
t	-9659
a	-9660
o	-9661
i	-9662
n	-9663
s	-9664
r	-9665
l	-9666
h	-9667
d	-9668
c	-9669
u	-9670
m	-9671
p	-9672
f	-9673
g	-9674
y	-9675
w	-9676
b	-9677
.	-9678
v	-9679
,	-9680
k	-9681
0	-9682
1	-9683
2	-9684
-	-9685
x	-9686
:	-9687
j	-9688
5	-9689
3	-9690
)	-9691
(	-9692
'	-9693
4	-9694
8	-9695
9	-9696
z	-9697
6	-9698
q	-9699
7	-9700
"	-9701
’	-9702
/	-9703
&	-9704
?	-9705
!	-9706
|	-9707
$	-9708
;	-9709
ا	-9710
“	-9711
”	-9712
–	-9713
[	-9714
]	-9715
_	-9716
+	-9717
%	-9718
—	-9719
ر	-9720
о	-9721
ی	-9722
а	-9723
#	-9724
م	-9725
ل	-9726
ن	-9727
е	-9728
и	-9729
و	-9730
*	-9731
د	-9732
>	-9733
=	-9734
н	-9735
©	-9736
ت	-9737
·	-9738
т	-9739
ه	-9740
с	-9741
é	-9742
•	-9743
ب	-9744
р	-9745
®	-9746
в	-9747
س	-9748
@	-9749
{	-9750
}	-9751
к	-9752
л	-9753
ي	-9754
^	-9755
‘	-9756
á	-9757
»	-9758
<	-9759
\	-9760
м	-9761
д	-9762
ó	-9763
п	-9764
ش	-9765
ع	-9766
у	-9767
ف	-9768
í	-9769
ک	-9770
ز	-9771
я	-9772
ق	-9773
з	-9774
ج	-9775
б	-9776
г	-9777
ة	-9778
ح	-9779
خ	-9780
ы	-9781
ñ	-9782
й	-9783
ь	-9784
à	-9785
M	-9786
ç	-9787
T	-9788
า	-9789
°	-9790
ч	-9791
ü	-9792
گ	-9793
ك	-9794
ê	-9795
ص	-9796
น	-9797
י	-9798
đ	-9799
ä	-9800
~	-9801
′	-9802
ร	-9803
α	-9804
ط	-9805
х	-9806
ו	-9807
ö	-9808
ж	-9809
پ	-9810
ă	-9811
อ	-9812
ú	-9813
،	-9814
่	-9815
→	-9816
ก	-9817
›	-9818
เ	-9819
آ	-9820
أ	-9821
£	-9822
ε	-9823
ι	-9824
ı	-9825
ง	-9826
ο	-9827
â	-9828
้	-9829
ц	-9830
τ	-9831
ל	-9832
ш	-9833
ư	-9834
ת	-9835
ม	-9836
š	-9837
ã	-9838
ν	-9839
ה	-9840
ю	-9841
ั	-9842
è	-9843
č	-9844
ย	-9845
×	-9846
і	-9847
λ	-9848
ô	-9849
ว	-9850
ض	-9851
ี	-9852
ท	-9853
ר	-9854
κ	-9855
َ	-9856
ล	-9857
ด	-9858
«	-9859
ф	-9860
μ	-9861
ế	-9862
ë	-9863
א	-9864
ệ	-9865
ב	-9866
ạ	-9867
ى	-9868
ა	-9869
­	-9870
⁄	-9871
η	-9872
σ	-9873
מ	-9874
ذ	-9875
ิ	-9876
ส	-9877
ž	-9878
€	-9879
ث	-9880
غ	-9881
ρ	-9882
ต	-9883
ş	-9884
چ	-9885
บ	-9886
ห	-9887
π	-9888
ค	-9889
ả	-9890
נ	-9891
÷	-9892
ə	-9893
ი	-9894
中	-9895
å	-9896
щ	-9897
¬	-9898
§	-9899
ˈ	-9900
ש	-9901
文	-9902
−	-9903
إ	-9904
`	-9905
э	-9906
ะ	-9907
ł	-9908
ς	-9909
ป	-9910
►	-9911
ộ	-9912
î	-9913
이	-9914
ئ	-9915
แ	-9916
🙂	-9917
ไ	-9918
ם	-9919
ą	-9920
ظ	-9921
ấ	-9922
υ	-9923
ố	-9924
ע	-9925
ì	-9926
ე	-9927
ć	-9928
ớ	-9929
ý	-9930
จ	-9931
한	-9932
ā	-9933
語	-9934
ờ	-9935
‐	-9936
ậ	-9937
ג	-9938
★	-9939
日	-9940
ể	-9941
δ	-9942
ę	-9943
ח	-9944
다	-9945
本	-9946
ề	-9947
ɪ	-9948
ד	-9949
۱	-9950
พ	-9951
ị	-9952
ъ	-9953
ा	-9954
ِ	-9955
ơ	-9956
γ	-9957
์	-9958
ά	-9959
ή	-9960
ื	-9961
ק	-9962
æ	-9963
어	-9964
ợ	-9965
ُ	-9966
ủ	-9967
体	-9968
↑	-9969
ί	-9970
ს	-9971
פ	-9972
ุ	-9973
简	-9974
ใ	-9975
¿	-9976
ข	-9977
რ	-9978
ู	-9979
ช	-9980
†	-9981
ء	-9982
는	-9983
כ	-9984
ø	-9985
ầ	-9986
β	-9987
ė	-9988
ْ	-9989
ţ	-9990
र	-9991
↔	-9992
국	-9993
